{
  "version": "1.0",
  "truncation": null,
  "padding": null,
  "added_tokens": [
    {
      "id": 0,
      "content": "<pad>",
      "single_word": false,
      "lstrip": false,
      "rstrip": false,
      "normalized": false,
      "special": true
    },
    {
      "id": 1,
      "content": "<s>",
      "single_word": false,
      "lstrip": false,
      "rstrip": false,
      "normalized": false,
      "special": true
    },
    {
      "id": 2,
      "content": "</s>",
      "single_word": false,
      "lstrip": false,
      "rstrip": false,
      "normalized": false,
      "special": true
    },
    {
      "id": 3,
      "content": "<unk>",
      "single_word": false,
      "lstrip": false,
      "rstrip": false,
      "normalized": false,
      "special": true
    }
  ],
  "normalizer": {
    "type": "NFKC"
  },
  "pre_tokenizer": {
    "type": "Sequence",
    "pretokenizers": [
      {
        "type": "Metaspace",
        "replacement": "▁",
        "prepend_scheme": "always",
        "split": true
      },
      {
        "type": "Punctuation",
        "behavior": "Isolated"
      },
      {
        "type": "Digits",
        "individual_digits": true
      }
    ]
  },
  "post_processor": {
    "type": "TemplateProcessing",
    "single": [
      {
        "SpecialToken": {
          "id": "<s>",
          "type_id": 0
        }
      },
      {
        "Sequence": {
          "id": "A",
          "type_id": 0
        }
      },
      {
        "SpecialToken": {
          "id": "</s>",
          "type_id": 0
        }
      }
    ],
    "pair": [
      {
        "Sequence": {
          "id": "A",
          "type_id": 0
        }
      },
      {
        "Sequence": {
          "id": "B",
          "type_id": 1
        }
      }
    ],
    "special_tokens": {
      "</s>": {
        "id": "</s>",
        "ids": [
          2
        ],
        "tokens": [
          "</s>"
        ]
      },
      "<s>": {
        "id": "<s>",
        "ids": [
          1
        ],
        "tokens": [
          "<s>"
        ]
      }
    }
  },
  "decoder": {
    "type": "Metaspace",
    "replacement": "▁",
    "prepend_scheme": "always",
    "split": true
  },
  "model": {
    "type": "Unigram",
    "unk_id": 3,
    "vocab": [
      [
        "<pad>",
        0.0
      ],
      [
        "<s>",
        0.0
      ],
      [
        "</s>",
        0.0
      ],
      [
        "<unk>",
        0.0
      ],
      [
        "▁",
        -2.8869543653285668
      ],
      [
        ",",
        -3.145542100186857
      ],
      [
        "▁the",
        -3.2260617135880434
      ],
      [
        ".",
        -3.3292238694028775
      ],
      [
        "s",
        -3.6461234335985164
      ],
      [
        "▁of",
        -3.6711782585234456
      ],
      [
        "▁and",
        -3.9590067780994946
      ],
      [
        "a",
        -4.087290820122071
      ],
      [
        "▁to",
        -4.134100874344837
      ],
      [
        "▁in",
        -4.3898741075191055
      ],
      [
        "0",
        -4.418233999333397
      ],
      [
        "1",
        -4.5679353628743335
      ],
      [
        "-",
        -4.725741493123616
      ],
      [
        "2",
        -4.753396244011684
      ],
      [
        "▁is",
        -4.88902802575328
      ],
      [
        ":",
        -4.947502882438657
      ],
      [
        "▁for",
        -5.019516422068133
      ],
      [
        "t",
        -5.107019837583149
      ],
      [
        "▁that",
        -5.272691048927248
      ],
      [
        "ing",
        -5.313828920520352
      ],
      [
        "▁The",
        -5.343520751385686
      ],
      [
        "▁with",
        -5.360339434428441
      ],
      [
        "ed",
        -5.398077980246812
      ],
      [
        "3",
        -5.40879443927215
      ],
      [
        "'",
        -5.413288717203216
      ],
      [
        "▁on",
        -5.437621779417803
      ],
      [
        "d",
        -5.439470409637167
      ],
      [
        "5",
        -5.442966377245449
      ],
      [
        ")",
        -5.45255380056928
      ],
      [
        "▁you",
        -5.454204618616439
      ],
      [
        "(",
        -5.487601652056375
      ],
      [
        "4",
        -5.561126469435422
      ],
      [
        "\"",
        -5.56218671337219
      ],
      [
        "e",
        -5.564908198477003
      ],
      [
        "y",
        -5.610047264187767
      ],
      [
        "▁are",
        -5.625685628626433
      ],
      [
        "▁be",
        -5.640308610704643
      ],
      [
        "▁as",
        -5.7051212296948055
      ],
      [
        "9",
        -5.709439431907217
      ],
      [
        "▁it",
        -5.75237530395893
      ],
      [
        "▁I",
        -5.788847064365891
      ],
      [
        "6",
        -5.78951067137209
      ],
      [
        "▁by",
        -5.80196651434316
      ],
      [
        "8",
        -5.8526464586444735
      ],
      [
        "▁from",
        -5.877555203411973
      ],
      [
        "7",
        -5.8956938386742
      ],
      [
        "ly",
        -5.910499047935783
      ],
      [
        "o",
        -5.932004484896858
      ],
      [
        "▁or",
        -5.980667445063597
      ],
      [
        "▁not",
        -5.983770456773868
      ],
      [
        "▁will",
        -5.992407856649715
      ],
      [
        ";",
        -5.992973716667139
      ],
      [
        "/",
        -6.0299074630017895
      ],
      [
        "▁was",
        -6.031760564755947
      ],
      [
        "n",
        -6.0411645191602314
      ],
      [
        "▁this",
        -6.069086456384074
      ],
      [
        "▁have",
        -6.106460351550629
      ],
      [
        "▁your",
        -6.12885149140198
      ],
      [
        "i",
        -6.210258157337098
      ],
      [
        "▁can",
        -6.249960846499153
      ],
      [
        "▁an",
        -6.257358553795754
      ],
      [
        "?",
        -6.3224958020776505
      ],
      [
        "▁all",
        -6.373636865092509
      ],
      [
        "m",
        -6.390000492159819
      ],
      [
        "▁which",
        -6.4215057510480875
      ],
      [
        "▁has",
        -6.451506522546065
      ],
      [
        "▁In",
        -6.5266952663034115
      ],
      [
        "▁their",
        -6.568145922064344
      ],
      [
        "▁we",
        -6.584493049237787
      ],
      [
        "he",
        -6.682724511770969
      ],
      [
        "r",
        -6.691509422063465
      ],
      [
        "▁one",
        -6.693844476288016
      ],
      [
        "▁A",
        -6.73691501357094
      ],
      [
        "’",
        -6.745742683443991
      ],
      [
        "▁but",
        -6.77909592862223
      ],
      [
        "▁his",
        -6.801265967308179
      ],
      [
        "▁other",
        -6.815489582226244
      ],
      [
        "▁our",
        -6.818667920826719
      ],
      [
        "▁its",
        -6.82208933384759
      ],
      [
        "▁more",
        -6.837554110654175
      ],
      [
        "▁It",
        -6.856951066560558
      ],
      [
        "▁also",
        -6.869056258971609
      ],
      [
        "▁they",
        -6.8751027768314525
      ],
      [
        "▁ago",
        -6.879663238590776
      ],
      [
        "▁about",
        -6.8966963512823565
      ],
      [
        "▁were",
        -6.901112024006245
      ],
      [
        "▁who",
        -6.921921576814272
      ],
      [
        "!",
        -6.945730307451534
      ],
      [
        "▁time",
        -6.9493561129576324
      ],
      [
        "▁This",
        -6.987025901321918
      ],
      [
        "g",
        -7.022580246264102
      ],
      [
        "▁been",
        -7.038870570558622
      ],
      [
        "h",
        -7.052466455525856
      ],
      [
        "▁there",
        -7.056284348586598
      ],
      [
        "▁do",
        -7.059966962577487
      ],
      [
        "▁new",
        -7.085402320534213
      ],
      [
        "▁up",
        -7.103948015444109
      ],
      [
        "▁file",
        -7.1149542625967985
      ],
      [
        "▁only",
        -7.118701250368245
      ],
      [
        "▁them",
        -7.137833391538777
      ],
      [
        "▁You",
        -7.1476482767709815
      ],
      [
        "“",
        -7.158248401355612
      ],
      [
        "▁We",
        -7.162437160928716
      ],
      [
        "”",
        -7.1723277269365955
      ],
      [
        "▁people",
        -7.194795098312039
      ],
      [
        "▁into",
        -7.201138983380929
      ],
      [
        "▁any",
        -7.202401061911013
      ],
      [
        "▁had",
        -7.209110874887074
      ],
      [
        "▁out",
        -7.2142368922970554
      ],
      [
        "*",
        -7.239565434461472
      ],
      [
        "in",
        -7.244224000234587
      ],
      [
        "▁years",
        -7.2449279403863756
      ],
      [
        "–",
        -7.254249115370719
      ],
      [
        "▁And",
        -7.257793275743413
      ],
      [
        "▁when",
        -7.259635766951556
      ],
      [
        "▁no",
        -7.2786768264212185
      ],
      [
        "c",
        -7.279753061250982
      ],
      [
        "▁if",
        -7.285556745143312
      ],
      [
        "▁information",
        -7.297128387147065
      ],
      [
        "l",
        -7.299260182893569
      ],
      [
        "%",
        -7.312714155899455
      ],
      [
        "▁than",
        -7.32576415944683
      ],
      [
        "▁use",
        -7.326611889262782
      ],
      [
        "▁my",
        -7.335699961683998
      ],
      [
        "f",
        -7.33670243382638
      ],
      [
        "▁such",
        -7.3466308192099365
      ],
      [
        "▁what",
        -7.353315149986599
      ],
      [
        "▁me",
        -7.375335839051639
      ],
      [
        "▁would",
        -7.376618023824319
      ],
      [
        "▁first",
        -7.378555335834518
      ],
      [
        "re",
        -7.3788137351645595
      ],
      [
        "▁If",
        -7.387453886359401
      ],
      [
        "▁well",
        -7.393458374195772
      ],
      [
        "on",
        -7.402140924558884
      ],
      [
        "▁should",
        -7.411101608254793
      ],
      [
        "▁these",
        -7.412649808771388
      ],
      [
        "▁may",
        -7.414009092279365
      ],
      [
        "▁most",
        -7.455106495373329
      ],
      [
        "▁work",
        -7.462434969574781
      ],
      [
        "b",
        -7.465766655679316
      ],
      [
        "▁For",
        -7.49484574606174
      ],
      [
        "&",
        -7.497657208186174
      ],
      [
        "u",
        -7.51250439155255
      ],
      [
        "▁year",
        -7.5186564121011745
      ],
      [
        "▁said",
        -7.5191976588407865
      ],
      [
        "▁him",
        -7.51980971844257
      ],
      [
        "▁system",
        -7.526374995647759
      ],
      [
        "▁Russian",
        -7.5289382393198885
      ],
      [
        "p",
        -7.5297954237532245
      ],
      [
        "ies",
        -7.530933907621559
      ],
      [
        "▁two",
        -7.545782139380055
      ],
      [
        "▁He",
        -7.555670555652286
      ],
      [
        "▁us",
        -7.5593294587461894
      ],
      [
        "▁like",
        -7.561726219105674
      ],
      [
        "▁some",
        -7.5740660419798775
      ],
      [
        "▁world",
        -7.575691683406889
      ],
      [
        "▁very",
        -7.58909892656434
      ],
      [
        "▁how",
        -7.5977260223949905
      ],
      [
        "▁over",
        -7.601224054701323
      ],
      [
        "—",
        -7.601454102763153
      ],
      [
        "▁know",
        -7.614532008720051
      ],
      [
        "th",
        -7.618792438292138
      ],
      [
        "▁need",
        -7.6526998056286715
      ],
      [
        "S",
        -7.661190033724308
      ],
      [
        "▁her",
        -7.6734133514451575
      ],
      [
        "▁after",
        -7.686456529300587
      ],
      [
        "▁development",
        -7.690036670691381
      ],
      [
        "▁number",
        -7.697229984080655
      ],
      [
        "▁many",
        -7.705946562851171
      ],
      [
        "k",
        -7.706494187874313
      ],
      [
        "▁To",
        -7.72042222547565
      ],
      [
        "▁now",
        -7.721296208201299
      ],
      [
        "▁through",
        -7.732032122145158
      ],
      [
        "▁where",
        -7.73785466506069
      ],
      [
        "▁open",
        -7.741415044331806
      ],
      [
        "▁under",
        -7.744436815889541
      ],
      [
        "▁Russia",
        -7.747838061983401
      ],
      [
        "▁between",
        -7.751764279097728
      ],
      [
        "A",
        -7.755740417677448
      ],
      [
        "▁shall",
        -7.757761718902936
      ],
      [
        "▁used",
        -7.7595030387434445
      ],
      [
        "or",
        -7.76621945819196
      ],
      [
        "▁But",
        -7.771603177134541
      ],
      [
        "▁must",
        -7.77701217323267
      ],
      [
        "▁even",
        -7.782405844690766
      ],
      [
        "+",
        -7.785449062521874
      ],
      [
        "able",
        -7.7873214131266355
      ],
      [
        "▁make",
        -7.792853377387477
      ],
      [
        "▁see",
        -7.793540550114619
      ],
      [
        "▁those",
        -7.793796029022889
      ],
      [
        "▁just",
        -7.7944787327912675
      ],
      [
        "▁right",
        -7.798535648335955
      ],
      [
        "al",
        -7.800211808487511
      ],
      [
        "▁months",
        -7.802444722633098
      ],
      [
        "▁made",
        -7.808706258423175
      ],
      [
        "▁way",
        -7.813325448968998
      ],
      [
        "I",
        -7.815378087608984
      ],
      [
        "▁life",
        -7.820769111980352
      ],
      [
        "▁want",
        -7.834202447397805
      ],
      [
        "an",
        -7.83797291207995
      ],
      [
        "▁take",
        -7.843030191997592
      ],
      [
        "▁free",
        -7.849547728248323
      ],
      [
        "▁high",
        -7.850182821726179
      ],
      [
        "▁day",
        -7.86062620705553
      ],
      [
        "▁part",
        -7.860672163532543
      ],
      [
        "▁place",
        -7.880142885552782
      ],
      [
        "▁S",
        -7.881199137174532
      ],
      [
        "▁countries",
        -7.88678497721058
      ],
      [
        "|",
        -7.888522674595251
      ],
      [
        "▁God",
        -7.891819243637094
      ],
      [
        "▁international",
        -7.894217576238971
      ],
      [
        "▁same",
        -7.900863442815538
      ],
      [
        "▁could",
        -7.920407401981185
      ],
      [
        "▁get",
        -7.9396799935785065
      ],
      [
        "▁company",
        -7.9410289983833575
      ],
      [
        "▁service",
        -7.9455359107824375
      ],
      [
        "▁during",
        -7.9516505067569145
      ],
      [
        "▁support",
        -7.95277489490144
      ],
      [
        "▁every",
        -7.954060452273145
      ],
      [
        "▁before",
        -7.958993906278909
      ],
      [
        "▁available",
        -7.963349174091583
      ],
      [
        "▁No",
        -7.9677813433106
      ],
      [
        "▁because",
        -7.97725216037696
      ],
      [
        "▁What",
        -7.977716509705941
      ],
      [
        "▁country",
        -7.9793296379718655
      ],
      [
        "▁big",
        -7.990859296997446
      ],
      [
        "is",
        -7.993937446257547
      ],
      [
        "▁software",
        -7.999314784758049
      ],
      [
        "▁within",
        -8.004191410090009
      ],
      [
        "▁own",
        -8.008273902786657
      ],
      [
        "▁using",
        -8.010108050563844
      ],
      [
        "▁There",
        -8.016015758037836
      ],
      [
        "▁data",
        -8.02427588825634
      ],
      [
        "▁against",
        -8.025567412377088
      ],
      [
        "▁here",
        -8.026319177493098
      ],
      [
        "▁order",
        -8.027497781163175
      ],
      [
        "▁being",
        -8.031858588482685
      ],
      [
        "▁including",
        -8.035134820141655
      ],
      [
        "▁without",
        -8.035483868914733
      ],
      [
        "▁state",
        -8.042323983639903
      ],
      [
        "▁good",
        -8.045874785438604
      ],
      [
        "▁power",
        -8.046122002236462
      ],
      [
        "▁As",
        -8.047496060258764
      ],
      [
        "]",
        -8.047702253611602
      ],
      [
        "▁long",
        -8.05053866716476
      ],
      [
        "▁days",
        -8.051989385967339
      ],
      [
        "▁each",
        -8.057308850111301
      ],
      [
        "▁On",
        -8.060798662934364
      ],
      [
        "▁help",
        -8.069507829262651
      ],
      [
        "▁Republic",
        -8.081068481917645
      ],
      [
        "▁different",
        -8.095914292753104
      ],
      [
        "[",
        -8.095946916680685
      ],
      [
        "▁she",
        -8.102304044919611
      ],
      [
        "▁following",
        -8.105151327252987
      ],
      [
        "▁They",
        -8.109096425951785
      ],
      [
        "▁All",
        -8.109386973954292
      ],
      [
        "▁public",
        -8.110932407540057
      ],
      [
        "x",
        -8.114129066735703
      ],
      [
        "▁children",
        -8.115779700720552
      ],
      [
        "to",
        -8.11615867778288
      ],
      [
        "▁services",
        -8.116666145516579
      ],
      [
        "▁great",
        -8.136341680101657
      ],
      [
        "▁back",
        -8.13786200467977
      ],
      [
        "▁program",
        -8.14058478001721
      ],
      [
        "ll",
        -8.141968111353709
      ],
      [
        "▁process",
        -8.151322592048073
      ],
      [
        "▁both",
        -8.154140160581807
      ],
      [
        "▁does",
        -8.155338616298815
      ],
      [
        "▁three",
        -8.160118574842285
      ],
      [
        "▁business",
        -8.162714417096561
      ],
      [
        "D",
        -8.162761457088001
      ],
      [
        "▁How",
        -8.163390014817796
      ],
      [
        "▁name",
        -8.164323625382819
      ],
      [
        "▁water",
        -8.167436476649794
      ],
      [
        "▁city",
        -8.169826998835884
      ],
      [
        "▁best",
        -8.173766217262118
      ],
      [
        "▁did",
        -8.174143692438681
      ],
      [
        "$",
        -8.174198976994564
      ],
      [
        "▁go",
        -8.175819206093744
      ],
      [
        "▁important",
        -8.181466979354383
      ],
      [
        "▁find",
        -8.183075691677365
      ],
      [
        "▁United",
        -8.184150343025022
      ],
      [
        "▁per",
        -8.187808572506437
      ],
      [
        "v",
        -8.191439322519303
      ],
      [
        "▁small",
        -8.194794399752704
      ],
      [
        "▁man",
        -8.198246849435888
      ],
      [
        "▁C",
        -8.198393142899153
      ],
      [
        "▁When",
        -8.202158561402372
      ],
      [
        "▁President",
        -8.202375485168862
      ],
      [
        "▁International",
        -8.211720147292278
      ],
      [
        "▁case",
        -8.212381472661582
      ],
      [
        "▁while",
        -8.214012127800999
      ],
      [
        "▁products",
        -8.219689443144107
      ],
      [
        "▁much",
        -8.230124093103505
      ],
      [
        "▁end",
        -8.231423279843318
      ],
      [
        "▁come",
        -8.241874184709921
      ],
      [
        "▁E",
        -8.248317083059918
      ],
      [
        "▁set",
        -8.248811100524373
      ],
      [
        "▁human",
        -8.24904673975467
      ],
      [
        "▁level",
        -8.251726895333764
      ],
      [
        "▁project",
        -8.253736275960046
      ],
      [
        "▁T",
        -8.25749972367915
      ],
      [
        "▁At",
        -8.257897564242382
      ],
      [
        "▁M",
        -8.26198750819832
      ],
      [
        "▁Ukraine",
        -8.26267854541255
      ],
      [
        "#",
        -8.263532918513421
      ],
      [
        "▁application",
        -8.266104462016989
      ],
      [
        "▁last",
        -8.26671210125603
      ],
      [
        "the",
        -8.270427663792725
      ],
      [
        "▁market",
        -8.276272917503864
      ],
      [
        "▁New",
        -8.277445703365093
      ],
      [
        "▁Windows",
        -8.281693018012628
      ],
      [
        "▁possible",
        -8.282955416711609
      ],
      [
        "▁production",
        -8.283156578806507
      ],
      [
        "▁provide",
        -8.283534478678645
      ],
      [
        "ity",
        -8.285190733247472
      ],
      [
        "▁State",
        -8.288632251337978
      ],
      [
        "▁don",
        -8.29498394622265
      ],
      [
        "M",
        -8.29897686809712
      ],
      [
        "▁security",
        -8.318800605775195
      ],
      [
        "▁room",
        -8.320481790868909
      ],
      [
        "▁national",
        -8.322549024171774
      ],
      [
        "▁control",
        -8.325342044002893
      ],
      [
        "▁group",
        -8.326638466520409
      ],
      [
        "▁special",
        -8.329424903970375
      ],
      [
        "▁main",
        -8.33289208495239
      ],
      [
        "▁local",
        -8.336764613995411
      ],
      [
        "▁File",
        -8.337377169626535
      ],
      [
        "▁law",
        -8.338694849429402
      ],
      [
        "▁experience",
        -8.339869446271717
      ],
      [
        "▁Kazakhstan",
        -8.34370789710816
      ],
      [
        "▁quality",
        -8.346117787528597
      ],
      [
        "▁region",
        -8.351258228539947
      ],
      [
        "▁B",
        -8.355679208729482
      ],
      [
        "▁area",
        -8.361008898636628
      ],
      [
        "▁D",
        -8.365364571542331
      ],
      [
        "▁economic",
        -8.366616539013323
      ],
      [
        "▁So",
        -8.374757769319361
      ],
      [
        "▁air",
        -8.37531575794943
      ],
      [
        "▁view",
        -8.382690155064276
      ],
      [
        "▁still",
        -8.385801776404701
      ],
      [
        "▁change",
        -8.392556773540107
      ],
      [
        "▁down",
        -8.393283079416234
      ],
      [
        "▁China",
        -8.39333849588928
      ],
      [
        "com",
        -8.397192609485138
      ],
      [
        "▁held",
        -8.398346857031756
      ],
      [
        "C",
        -8.398784119960935
      ],
      [
        "▁think",
        -8.398900269321619
      ],
      [
        "▁present",
        -8.400180144544317
      ],
      [
        "▁Phone",
        -8.400836512424418
      ],
      [
        "ness",
        -8.40247749817027
      ],
      [
        "▁xHamster",
        -8.402956718913034
      ],
      [
        "▁building",
        -8.40394790651195
      ],
      [
        "▁G",
        -8.404264667567528
      ],
      [
        "▁activities",
        -8.404671479281395
      ],
      [
        "▁type",
        -8.406655572136277
      ],
      [
        "▁conditions",
        -8.411890163159473
      ],
      [
        "▁another",
        -8.413170733836143
      ],
      [
        "▁access",
        -8.419155623330298
      ],
      [
        "▁European",
        -8.421683098096151
      ],
      [
        "ve",
        -8.427233294838047
      ],
      [
        "▁become",
        -8.429882751646735
      ],
      [
        "▁report",
        -8.429926246328863
      ],
      [
        "le",
        -8.43071905873951
      ],
      [
        "▁say",
        -8.431249754254123
      ],
      [
        "▁meeting",
        -8.43270699374652
      ],
      [
        "▁social",
        -8.433557455644893
      ],
      [
        "▁point",
        -8.434932064674792
      ],
      [
        "▁full",
        -8.442135050031432
      ],
      [
        "▁shemale",
        -8.442334106801411
      ],
      [
        "▁online",
        -8.446840895236303
      ],
      [
        "▁Moscow",
        -8.448362142637965
      ],
      [
        "▁example",
        -8.450274759513569
      ],
      [
        "▁management",
        -8.45663734629773
      ],
      [
        "▁according",
        -8.459556127304525
      ],
      [
        "▁million",
        -8.460846507512322
      ],
      [
        "amp",
        -8.4631420256949
      ],
      [
        "▁Your",
        -8.463660484335312
      ],
      [
        "▁among",
        -8.463692586261187
      ],
      [
        "▁energy",
        -8.467594834316106
      ],
      [
        "▁person",
        -8.470252448541729
      ],
      [
        "▁TV",
        -8.475031277967998
      ],
      [
        "▁house",
        -8.476364865771203
      ],
      [
        "▁result",
        -8.477330825464758
      ],
      [
        "▁body",
        -8.480687791833974
      ],
      [
        "▁political",
        -8.481383553555592
      ],
      [
        "mm",
        -8.482857060329115
      ],
      [
        "▁light",
        -8.483693193852067
      ],
      [
        "▁am",
        -8.485095125500468
      ],
      [
        "▁large",
        -8.486135312927217
      ],
      [
        "▁look",
        -8.492272139442946
      ],
      [
        "▁found",
        -8.494028289537932
      ],
      [
        "▁V",
        -8.496173684263669
      ],
      [
        "B",
        -8.497526605730137
      ],
      [
        "us",
        -8.499029908706406
      ],
      [
        "▁always",
        -8.500560961116308
      ],
      [
        "▁Home",
        -8.501968125065044
      ],
      [
        "▁States",
        -8.50249968809355
      ],
      [
        "▁necessary",
        -8.502837331300201
      ],
      [
        "▁already",
        -8.505183755728224
      ],
      [
        "▁That",
        -8.509880490340164
      ],
      [
        "▁working",
        -8.516029728082458
      ],
      [
        "▁course",
        -8.520963748359307
      ],
      [
        "▁Our",
        -8.527317542847435
      ],
      [
        "▁rights",
        -8.52954754487528
      ],
      [
        "▁government",
        -8.53105026033932
      ],
      [
        "▁un",
        -8.531412139592081
      ],
      [
        "▁give",
        -8.533517838144915
      ],
      [
        "▁design",
        -8.533900766144557
      ],
      [
        "▁period",
        -8.535997281362711
      ],
      [
        "▁second",
        -8.536518078886276
      ],
      [
        "▁various",
        -8.536732387693183
      ],
      [
        "▁list",
        -8.539056423231326
      ],
      [
        "▁around",
        -8.540032213203174
      ],
      [
        "▁network",
        -8.541757952811256
      ],
      [
        "▁general",
        -8.545492169403946
      ],
      [
        "▁account",
        -8.55144979771393
      ],
      [
        "The",
        -8.55259734327605
      ],
      [
        "▁created",
        -8.552891753005834
      ],
      [
        "▁National",
        -8.55382327520318
      ],
      [
        ">",
        -8.554967444987506
      ],
      [
        "▁since",
        -8.555716303421455
      ],
      [
        "▁St",
        -8.556717608352367
      ],
      [
        "▁results",
        -8.559346215304092
      ],
      [
        "and",
        -8.560472272389623
      ],
      [
        "▁situation",
        -8.566822570964515
      ],
      [
        "▁based",
        -8.569709248373552
      ],
      [
        "▁old",
        -8.57059422562468
      ],
      [
        "▁Council",
        -8.572921960599686
      ],
      [
        "▁upon",
        -8.578452065905905
      ],
      [
        "▁P",
        -8.578761242727998
      ],
      [
        "▁means",
        -8.5801139519002
      ],
      [
        "▁non",
        -8.58476660984262
      ],
      [
        "▁site",
        -8.585875960635155
      ],
      [
        "▁request",
        -8.58673238958393
      ],
      [
        "▁With",
        -8.587761232155039
      ],
      [
        "▁University",
        -8.587856128389513
      ],
      [
        "T",
        -8.588364082755886
      ],
      [
        "▁Do",
        -8.589611610133886
      ],
      [
        "▁May",
        -8.600237694140935
      ],
      [
        "▁financial",
        -8.601550598850581
      ],
      [
        "▁personal",
        -8.60351150134557
      ],
      [
        "▁women",
        -8.607375659506161
      ],
      [
        "▁equipment",
        -8.608457609943075
      ],
      [
        "▁going",
        -8.612613361188567
      ],
      [
        "▁natural",
        -8.61974604799809
      ],
      [
        "▁General",
        -8.620964434280687
      ],
      [
        "▁form",
        -8.623267917569772
      ],
      [
        "▁offer",
        -8.62456079589418
      ],
      [
        "▁provided",
        -8.625715337412148
      ],
      [
        "▁real",
        -8.626400229926569
      ],
      [
        "w",
        -8.628264382102095
      ],
      [
        "▁never",
        -8.6307021888112
      ],
      [
        "▁away",
        -8.632273118552938
      ],
      [
        "▁These",
        -8.633141888423577
      ],
      [
        "▁again",
        -8.635948738577115
      ],
      [
        "▁Committee",
        -8.636748358073493
      ],
      [
        "▁future",
        -8.640490364977826
      ],
      [
        "▁speed",
        -8.642224618341832
      ],
      [
        "▁certain",
        -8.644615175007504
      ],
      [
        "▁Live",
        -8.646486145504738
      ],
      [
        "▁km",
        -8.64751634914548
      ],
      [
        "▁One",
        -8.650586094705572
      ],
      [
        "▁things",
        -8.659619439632259
      ],
      [
        "▁members",
        -8.661053561507662
      ],
      [
        "▁However",
        -8.662456991553084
      ],
      [
        "▁companies",
        -8.664465900156722
      ],
      [
        "▁create",
        -8.66543703341132
      ],
      [
        "▁home",
        -8.665917822566234
      ],
      [
        "▁current",
        -8.667460594798778
      ],
      [
        "▁located",
        -8.667977874398918
      ],
      [
        "▁love",
        -8.66868577337499
      ],
      [
        "▁N",
        -8.67001470552664
      ],
      [
        "▁week",
        -8.671260300627738
      ],
      [
        "▁World",
        -8.671462557056412
      ],
      [
        "▁computer",
        -8.671743971411225
      ],
      [
        "▁several",
        -8.671968357834587
      ],
      [
        "▁oil",
        -8.67367451745165
      ],
      [
        "▁took",
        -8.675673736998347
      ],
      [
        "▁total",
        -8.675882396676784
      ],
      [
        "▁fact",
        -8.684573218984724
      ],
      [
        "▁Jesus",
        -8.686398732342155
      ],
      [
        "▁price",
        -8.687115709127104
      ],
      [
        "▁better",
        -8.687615676968457
      ],
      [
        "ic",
        -8.689723477015297
      ],
      [
        "▁return",
        -8.689841579345426
      ],
      [
        "▁systems",
        -8.691451629037424
      ],
      [
        "▁next",
        -8.691595024061668
      ],
      [
        "▁legal",
        -8.691661207090675
      ],
      [
        "▁article",
        -8.691808415381102
      ],
      [
        "▁address",
        -8.694659046807981
      ],
      [
        "H",
        -8.6949038532691
      ],
      [
        "▁increase",
        -8.696104108394323
      ],
      [
        "▁might",
        -8.696596308558975
      ],
      [
        "▁effect",
        -8.696772113494578
      ],
      [
        "▁together",
        -8.698252359452704
      ],
      [
        "▁ensure",
        -8.70294360468227
      ],
      [
        "▁cannot",
        -8.70296037817063
      ],
      [
        "z",
        -8.703568137113857
      ],
      [
        "»",
        -8.704071737170894
      ],
      [
        "▁foreign",
        -8.706472088969939
      ],
      [
        "up",
        -8.707380243415573
      ],
      [
        "V",
        -8.7082636600952
      ],
      [
        "▁issues",
        -8.709267165671527
      ],
      [
        "▁After",
        -8.709582423664399
      ],
      [
        "▁weeks",
        -8.709879914012454
      ],
      [
        "▁training",
        -8.711299585759187
      ],
      [
        "▁start",
        -8.712219198084187
      ],
      [
        "▁O",
        -8.71358099478243
      ],
      [
        "▁family",
        -8.714341389152876
      ],
      [
        "▁put",
        -8.715081249883395
      ],
      [
        "▁According",
        -8.716566981337078
      ],
      [
        "it",
        -8.718150242126562
      ],
      [
        "less",
        -8.719039162013358
      ],
      [
        "▁hotel",
        -8.719904610547605
      ],
      [
        "▁hand",
        -8.721703674174357
      ],
      [
        "▁field",
        -8.721978950342157
      ],
      [
        "▁problems",
        -8.724909126164192
      ],
      [
        "▁everything",
        -8.725571592489121
      ],
      [
        "▁page",
        -8.725923922613765
      ],
      [
        "▁came",
        -8.72851161459932
      ],
      [
        "▁few",
        -8.734572344652697
      ],
      [
        "▁further",
        -8.736349895220044
      ],
      [
        "▁believe",
        -8.737742647500182
      ],
      [
        "▁called",
        -8.74280128960883
      ],
      [
        "P",
        -8.747357807115108
      ],
      [
        "▁contact",
        -8.747889299777233
      ],
      [
        "K",
        -8.748390371021165
      ],
      [
        "▁product",
        -8.748725187957074
      ],
      [
        "▁something",
        -8.749200222509383
      ],
      [
        "▁analysis",
        -8.749642299117355
      ],
      [
        "▁cooperation",
        -8.74990761968829
      ],
      [
        "ever",
        -8.756786811155562
      ],
      [
        "▁month",
        -8.757081964894788
      ],
      [
        "▁protection",
        -8.757469220528273
      ],
      [
        "▁value",
        -8.759069060905913
      ],
      [
        "▁head",
        -8.761376527324085
      ],
      [
        "▁policy",
        -8.761525137877202
      ],
      [
        "▁health",
        -8.761954766702818
      ],
      [
        "ation",
        -8.762000780354914
      ],
      [
        "▁Europe",
        -8.762723400832694
      ],
      [
        "_",
        -8.765013325809683
      ],
      [
        "▁She",
        -8.765265422483576
      ],
      [
        "▁given",
        -8.766132822311887
      ],
      [
        "▁education",
        -8.766439136850101
      ],
      [
        "▁money",
        -8.773053611633172
      ],
      [
        "▁July",
        -8.773944278025878
      ],
      [
        "▁website",
        -8.77419640453567
      ],
      [
        "L",
        -8.774895808881762
      ],
      [
        "▁material",
        -8.77557329146584
      ],
      [
        "▁U",
        -8.776626839935602
      ],
      [
        "▁event",
        -8.778664819445114
      ],
      [
        "▁young",
        -8.778874026804557
      ],
      [
        "▁game",
        -8.779353346282837
      ],
      [
        "▁include",
        -8.781839487166843
      ],
      [
        "ar",
        -8.782128423611331
      ],
      [
        "▁tits",
        -8.783722720222562
      ],
      [
        "▁W",
        -8.78527206030744
      ],
      [
        "▁words",
        -8.786121734402208
      ],
      [
        "▁today",
        -8.78685620577941
      ],
      [
        "▁media",
        -8.786886603762355
      ],
      [
        "▁until",
        -8.790204228086187
      ],
      [
        "▁reason",
        -8.793059093109893
      ],
      [
        "ers",
        -8.793190661395556
      ],
      [
        "▁visit",
        -8.793322247387572
      ],
      [
        "▁offers",
        -8.793801036514404
      ],
      [
        "▁men",
        -8.794157616698598
      ],
      [
        "▁L",
        -8.79437759529233
      ],
      [
        "▁third",
        -8.794759635617472
      ],
      [
        "▁construction",
        -8.794782459765287
      ],
      [
        "▁Casino",
        -8.79595110367552
      ],
      [
        "▁Nations",
        -8.802223037438997
      ],
      [
        "▁property",
        -8.803848806150446
      ],
      [
        "▁due",
        -8.806836505783636
      ],
      [
        "▁My",
        -8.810697708374093
      ],
      [
        "▁Group",
        -8.811239845191665
      ],
      [
        "▁idea",
        -8.814280552250972
      ],
      [
        "▁click",
        -8.81486976616101
      ],
      [
        "▁K",
        -8.818596927766766
      ],
      [
        "▁modern",
        -8.819855742455129
      ],
      [
        "▁why",
        -8.822562885900341
      ],
      [
        "▁research",
        -8.828673701091152
      ],
      [
        "▁living",
        -8.831016085424595
      ],
      [
        "E",
        -8.831515233873796
      ],
      [
        "▁Foundation",
        -8.83290968147714
      ],
      [
        "▁Mr",
        -8.83606592272087
      ],
      [
        "▁Now",
        -8.83777020959085
      ],
      [
        "▁areas",
        -8.838097131165789
      ],
      [
        "▁model",
        -8.839381589678604
      ],
      [
        "▁little",
        -8.840545261000363
      ],
      [
        "▁range",
        -8.841282520568566
      ],
      [
        "G",
        -8.844191164907828
      ],
      [
        "▁An",
        -8.84610239387537
      ],
      [
        "▁call",
        -8.84658226489077
      ],
      [
        "▁implementation",
        -8.850820229730942
      ],
      [
        "▁times",
        -8.850962067684886
      ],
      [
        "°C",
        -8.851024518771661
      ],
      [
        "▁activity",
        -8.852858916013458
      ],
      [
        "▁near",
        -8.853961421625566
      ],
      [
        "▁below",
        -8.855178877604219
      ],
      [
        "▁land",
        -8.857219294435001
      ],
      [
        "▁F",
        -8.858186616361873
      ],
      [
        "▁space",
        -8.858730847131731
      ],
      [
        "▁R",
        -8.858794222152468
      ],
      [
        "▁team",
        -8.85979585816992
      ],
      [
        "▁December",
        -8.860064646697591
      ],
      [
        "man",
        -8.861269612241717
      ],
      [
        "▁play",
        -8.861493052412058
      ],
      [
        "▁often",
        -8.861920710804773
      ],
      [
        "▁projects",
        -8.864861962924982
      ],
      [
        "€",
        -8.86532771940308
      ],
      [
        "▁temperature",
        -8.87005330867394
      ],
      [
        "▁Ministry",
        -8.870981245587618
      ],
      [
        "▁whole",
        -8.87149071944796
      ],
      [
        "▁Center",
        -8.872157478996472
      ],
      [
        "▁server",
        -8.876897471598427
      ],
      [
        "▁live",
        -8.877619807641805
      ],
      [
        "▁professional",
        -8.879530726053032
      ],
      [
        "▁decision",
        -8.881441035290125
      ],
      [
        "▁left",
        -8.882143767503777
      ],
      [
        "▁kind",
        -8.883362436340478
      ],
      [
        "▁taken",
        -8.883833294122791
      ],
      [
        "▁easy",
        -8.889815145470086
      ],
      [
        "▁Department",
        -8.890286958568508
      ],
      [
        "▁addition",
        -8.89843050684603
      ],
      [
        "▁user",
        -8.901324560925412
      ],
      [
        "▁organizations",
        -8.902708219573336
      ],
      [
        "▁select",
        -8.902932053174192
      ],
      [
        "▁features",
        -8.90402394642868
      ],
      [
        "▁problem",
        -8.904153825626269
      ],
      [
        "▁agreement",
        -8.905686179283238
      ],
      [
        "▁center",
        -8.907167536054725
      ],
      [
        "▁resources",
        -8.908328785625852
      ],
      [
        "▁above",
        -8.911166443811167
      ],
      [
        "▁required",
        -8.911436776332044
      ],
      [
        "▁materials",
        -8.912804681742541
      ],
      [
        "▁sea",
        -8.914576465780964
      ],
      [
        "▁talk",
        -8.914815822974491
      ],
      [
        "▁industry",
        -8.915764970609295
      ],
      [
        "▁apartment",
        -8.915777441060598
      ],
      [
        "▁technology",
        -8.916808470898786
      ],
      [
        "▁private",
        -8.917013465383693
      ],
      [
        "▁particular",
        -8.917108212333853
      ],
      [
        "▁side",
        -8.917526168172033
      ],
      [
        "F",
        -8.918193483775681
      ],
      [
        "▁events",
        -8.919331673489026
      ],
      [
        "▁Internet",
        -8.919941220525303
      ],
      [
        "R",
        -8.92079290328896
      ],
      [
        "▁Minister",
        -8.921025916898978
      ],
      [
        "▁orgasm",
        -8.921430227602967
      ],
      [
        "▁His",
        -8.92497208828665
      ],
      [
        "▁Hotel",
        -8.92786105163322
      ],
      [
        "▁risk",
        -8.928854642800877
      ],
      [
        "▁food",
        -8.930914706330062
      ],
      [
        "▁March",
        -8.93164014411256
      ],
      [
        "▁top",
        -8.932516290411426
      ],
      [
        "▁thought",
        -8.933238908690745
      ],
      [
        "▁show",
        -8.933639276283296
      ],
      [
        "▁line",
        -8.93520466284708
      ],
      [
        "▁higher",
        -8.935351698374678
      ],
      [
        "▁clear",
        -8.935873796172425
      ],
      [
        "▁far",
        -8.936342078698665
      ],
      [
        "▁low",
        -8.93751418056931
      ],
      [
        "▁school",
        -8.937562937376669
      ],
      [
        "▁key",
        -8.937733969021918
      ],
      [
        "▁less",
        -8.938713651803443
      ],
      [
        "▁amount",
        -8.946641639400076
      ],
      [
        "▁knowledge",
        -8.946756806746222
      ],
      [
        "▁please",
        -8.94699024881504
      ],
      [
        "▁display",
        -8.948951012741167
      ],
      [
        "▁June",
        -8.949418899673315
      ],
      [
        "▁exact",
        -8.949809371068085
      ],
      [
        "▁types",
        -8.949865521660177
      ],
      [
        "▁growth",
        -8.951796275529924
      ],
      [
        "▁interest",
        -8.952280622057089
      ],
      [
        "▁technical",
        -8.952463042202695
      ],
      [
        "▁works",
        -8.953675737110196
      ],
      [
        "▁Some",
        -8.954792861280216
      ],
      [
        "▁receive",
        -8.955805507223502
      ],
      [
        "▁really",
        -8.956558064219124
      ],
      [
        "▁allows",
        -8.957331647857588
      ],
      [
        "▁car",
        -8.958004423780624
      ],
      [
        "▁facilities",
        -8.959364291003748
      ],
      [
        "▁additional",
        -8.959611624956361
      ],
      [
        "▁provides",
        -8.961188001511363
      ],
      [
        "▁bring",
        -8.961286783754497
      ],
      [
        "▁etc",
        -8.961790187707424
      ],
      [
        "▁performance",
        -8.961823898627959
      ],
      [
        "▁students",
        -8.962679115279052
      ],
      [
        "▁least",
        -8.964226113429726
      ],
      [
        "▁improve",
        -8.964504238216001
      ],
      [
        "▁common",
        -8.965327239324404
      ],
      [
        "▁cost",
        -8.967709848688212
      ],
      [
        "N",
        -8.968225043372291
      ],
      [
        "▁let",
        -8.969993890649882
      ],
      [
        "▁needs",
        -8.97000584903526
      ],
      [
        "▁Development",
        -8.9708422846157
      ],
      [
        "▁specific",
        -8.970973183035156
      ],
      [
        "▁stay",
        -8.972258715585612
      ],
      [
        "▁regional",
        -8.97260771129452
      ],
      [
        "▁reports",
        -8.973419808299424
      ],
      [
        "▁history",
        -8.97464762492562
      ],
      [
        "▁By",
        -8.974708200225386
      ],
      [
        "▁measures",
        -8.974982029654667
      ],
      [
        "▁party",
        -8.974989329780106
      ],
      [
        "▁terms",
        -8.975605788794153
      ],
      [
        "▁September",
        -8.977230772145122
      ],
      [
        "▁US",
        -8.977435708664556
      ],
      [
        "▁role",
        -8.977976360087727
      ],
      [
        "▁final",
        -8.978792220446
      ],
      [
        "▁heart",
        -8.979250251359062
      ],
      [
        "▁single",
        -8.979952486750912
      ],
      [
        "▁double",
        -8.982734441961474
      ],
      [
        "▁position",
        -8.984043470986702
      ],
      [
        "▁once",
        -8.984189965202301
      ],
      [
        "▁care",
        -8.984944154103548
      ],
      [
        "▁four",
        -8.98552289899509
      ],
      [
        "▁action",
        -8.985832050373338
      ],
      [
        "▁phone",
        -8.986054373945054
      ],
      [
        "ability",
        -8.98666848100871
      ],
      [
        "▁mind",
        -8.987695690495284
      ],
      [
        "▁understand",
        -8.991179512491534
      ],
      [
        "▁basi",
        -8.991621700549013
      ],
      [
        "▁language",
        -8.991733639385568
      ],
      [
        "▁changes",
        -8.994240982663564
      ],
      [
        "▁difficult",
        -8.995424761026616
      ],
      [
        "▁military",
        -8.995431133121949
      ],
      [
        "▁April",
        -8.996081353285327
      ],
      [
        "▁organization",
        -8.99673790789286
      ],
      [
        "sky",
        -8.999580131769186
      ],
      [
        "▁tell",
        -9.000128875912537
      ],
      [
        "▁currently",
        -9.000495337643196
      ],
      [
        "▁Federation",
        -9.001638042212887
      ],
      [
        "▁received",
        -9.001648238818843
      ],
      [
        "▁status",
        -9.004020849650004
      ],
      [
        "▁keep",
        -9.004160654816193
      ],
      [
        "▁October",
        -9.004582773491842
      ],
      [
        "▁treatment",
        -9.00532087978207
      ],
      [
        "▁Economic",
        -9.00558491627496
      ],
      [
        "▁yet",
        -9.007618232264221
      ],
      [
        "▁Lord",
        -9.009422244047844
      ],
      [
        "▁check",
        -9.011703563692391
      ],
      [
        "▁sale",
        -9.01263507193308
      ],
      [
        "▁night",
        -9.012848045458583
      ],
      [
        "▁requirements",
        -9.01340742892389
      ],
      [
        "▁gas",
        -9.01531405263678
      ],
      [
        "▁done",
        -9.0160424470324
      ],
      [
        "▁Israel",
        -9.01660561158106
      ],
      [
        "▁Striptease",
        -9.016799634369656
      ],
      [
        "▁established",
        -9.017964039465816
      ],
      [
        "▁Aliyev",
        -9.021524093282114
      ],
      [
        "▁directly",
        -9.02204455855467
      ],
      [
        "▁issue",
        -9.022203390857031
      ],
      [
        "▁developed",
        -9.023429018803022
      ],
      [
        "•",
        -9.0247368877635
      ],
      [
        "▁users",
        -9.025577260886473
      ],
      [
        "▁operation",
        -9.026535910552328
      ],
      [
        "▁November",
        -9.029200112814516
      ],
      [
        "▁size",
        -9.02927186185846
      ],
      [
        "▁lot",
        -9.02996994778934
      ],
      [
        "W",
        -9.031071682267138
      ],
      [
        "▁making",
        -9.031448351073651
      ],
      [
        "▁global",
        -9.033205789158263
      ],
      [
        "▁continue",
        -9.033755885588784
      ],
      [
        "▁PC",
        -9.038055683658689
      ],
      [
        "▁Government",
        -9.038809369853084
      ],
      [
        "▁says",
        -9.039655027536483
      ],
      [
        "▁office",
        -9.039990546093136
      ],
      [
        "▁Open",
        -9.041322574870364
      ],
      [
        "▁known",
        -9.04190625081821
      ],
      [
        "▁society",
        -9.04223613599951
      ],
      [
        "▁plan",
        -9.04289671024667
      ],
      [
        "▁nature",
        -9.043604327200727
      ],
      [
        "▁First",
        -9.04374763351737
      ],
      [
        "▁feel",
        -9.044030085899415
      ],
      [
        "▁member",
        -9.04463387080771
      ],
      [
        "▁trade",
        -9.045332454816274
      ],
      [
        "▁Bank",
        -9.045391728984798
      ],
      [
        "▁complex",
        -9.045694445748582
      ],
      [
        "▁January",
        -9.047154302108725
      ],
      [
        "▁individual",
        -9.047949443954002
      ],
      [
        "▁Region",
        -9.048817730230265
      ],
      [
        "▁close",
        -9.04896167750682
      ],
      [
        "▁pay",
        -9.05040288813704
      ],
      [
        "▁Union",
        -9.050430895791713
      ],
      [
        "▁official",
        -9.050440177536954
      ],
      [
        "▁thing",
        -9.05096180152232
      ],
      [
        "▁run",
        -9.051336151371471
      ],
      [
        "▁safety",
        -9.051379152802332
      ],
      [
        "▁sex",
        -9.0518472608902
      ],
      [
        "▁effective",
        -9.052234855537005
      ],
      [
        "▁question",
        -9.053577581874011
      ],
      [
        "▁hours",
        -9.053692336472823
      ],
      [
        "▁More",
        -9.056201456593191
      ],
      [
        "▁H",
        -9.056526949403862
      ],
      [
        "▁short",
        -9.05665414126318
      ],
      [
        "▁Here",
        -9.056960849215939
      ],
      [
        "▁floor",
        -9.059785977409504
      ],
      [
        "▁went",
        -9.060390686099332
      ],
      [
        "▁whether",
        -9.060609443624461
      ],
      [
        "▁Azerbaijan",
        -9.062477603099131
      ],
      [
        "▁hard",
        -9.062566742608427
      ],
      [
        "▁rate",
        -9.06601055156812
      ],
      [
        "▁extension",
        -9.06635348337199
      ],
      [
        "▁District",
        -9.068413538871862
      ],
      [
        "▁Free",
        -9.068823364934293
      ],
      [
        "est",
        -9.069479455668663
      ],
      [
        "▁five",
        -9.073565547863575
      ],
      [
        "▁major",
        -9.07848800964708
      ],
      [
        "▁video",
        -9.07956244166682
      ],
      [
        "▁groups",
        -9.080987840386511
      ],
      [
        "▁From",
        -9.081565448679505
      ],
      [
        "▁files",
        -9.081606539391885
      ],
      [
        "▁parties",
        -9.08169594672599
      ],
      [
        "▁rooms",
        -9.083004442245972
      ],
      [
        "▁environment",
        -9.08513349646379
      ],
      [
        "▁others",
        -9.08564424274195
      ],
      [
        "▁almost",
        -9.085828497947523
      ],
      [
        "▁subject",
        -9.086777092469232
      ],
      [
        "▁having",
        -9.08704586379297
      ],
      [
        "▁share",
        -9.087047962418684
      ],
      [
        "▁Service",
        -9.08732980960697
      ],
      [
        "▁capital",
        -9.087368528560864
      ],
      [
        "▁regard",
        -9.090264879274464
      ],
      [
        "▁cases",
        -9.091099404084728
      ],
      [
        "▁later",
        -9.091181740215434
      ],
      [
        "▁capacity",
        -9.091324736658247
      ],
      [
        "▁authorities",
        -9.09366034629744
      ],
      [
        "ism",
        -9.095761642542929
      ],
      [
        "▁simply",
        -9.096599002292265
      ],
      [
        "▁wrong",
        -9.099249837524736
      ],
      [
        "▁format",
        -9.100690748716966
      ],
      [
        "▁anal",
        -9.101398110581858
      ],
      [
        "▁City",
        -9.103455686207871
      ],
      [
        "▁version",
        -9.103632168614139
      ],
      [
        "▁complete",
        -9.104763594203002
      ],
      [
        "▁learn",
        -9.11083764941489
      ],
      [
        "▁community",
        -9.110888075474223
      ],
      [
        "▁remain",
        -9.114171930079188
      ],
      [
        "▁became",
        -9.116124331926619
      ],
      [
        "▁begin",
        -9.116903745168903
      ],
      [
        "▁war",
        -9.117154093806144
      ],
      [
        "▁related",
        -9.11779303022749
      ],
      [
        "▁unique",
        -9.118124016120591
      ],
      [
        "▁cock",
        -9.118705196876224
      ],
      [
        "▁especially",
        -9.118841380095047
      ],
      [
        "▁expected",
        -9.123210834500048
      ],
      [
        "▁Commission",
        -9.123562018458752
      ],
      [
        "▁press",
        -9.125458203960227
      ],
      [
        "▁Analysis",
        -9.126541871096435
      ],
      [
        "▁correct",
        -9.127145192281146
      ],
      [
        "O",
        -9.12795872589301
      ],
      [
        "▁child",
        -9.129038394567434
      ],
      [
        "▁attention",
        -9.130920556508173
      ],
      [
        "=",
        -9.131383419871806
      ],
      [
        "▁Law",
        -9.13201695591706
      ],
      [
        "▁along",
        -9.1333314392994
      ],
      [
        "▁Central",
        -9.1338463963544
      ],
      [
        "ch",
        -9.135460288646692
      ],
      [
        "▁physical",
        -9.138272427062216
      ],
      [
        "▁minutes",
        -9.139411694908837
      ],
      [
        "▁investment",
        -9.140015461666774
      ],
      [
        "▁client",
        -9.140867125679877
      ],
      [
        "During",
        -9.141316933196416
      ],
      [
        "▁Christ",
        -9.141396172244919
      ],
      [
        "▁past",
        -9.141513791562005
      ],
      [
        "▁self",
        -9.141599797501046
      ],
      [
        "▁themselves",
        -9.142910128353478
      ],
      [
        "▁produce",
        -9.14614385803405
      ],
      [
        "▁ShemaleZ",
        -9.148804579300263
      ],
      [
        "▁age",
        -9.14904751049848
      ],
      [
        "▁amateur",
        -9.14923955696189
      ],
      [
        "▁Convention",
        -9.149313015964411
      ],
      [
        "▁staff",
        -9.151105065187343
      ],
      [
        "▁previous",
        -9.1518172098321
      ],
      [
        "▁cover",
        -9.152041423973063
      ],
      [
        "▁told",
        -9.152750141207028
      ],
      [
        "▁persons",
        -9.153175125987019
      ],
      [
        "▁prevent",
        -9.153304955309808
      ],
      [
        "▁High",
        -9.15375602231604
      ],
      [
        "▁taking",
        -9.156229000313285
      ],
      [
        "▁itself",
        -9.157694825816447
      ],
      [
        "▁son",
        -9.160467966008063
      ],
      [
        "▁built",
        -9.161101588932343
      ],
      [
        "▁allow",
        -9.161175555152743
      ],
      [
        "▁turn",
        -9.16358203784914
      ],
      [
        "▁machine",
        -9.163702039956355
      ],
      [
        "▁beautiful",
        -9.163723469142695
      ],
      [
        "▁Article",
        -9.166718658752108
      ],
      [
        "▁true",
        -9.166926045691419
      ],
      [
        "um",
        -9.168619305304949
      ],
      [
        "▁date",
        -9.169312649378712
      ],
      [
        "▁considered",
        -9.170332578791571
      ],
      [
        "▁wish",
        -9.171444582299994
      ],
      [
        "▁connection",
        -9.17291653359436
      ],
      [
        "▁participants",
        -9.173231379397192
      ],
      [
        "▁study",
        -9.173736855526199
      ],
      [
        "▁nothing",
        -9.174854573040523
      ],
      [
        "▁sure",
        -9.1749833583889
      ],
      [
        "▁book",
        -9.175078764139467
      ],
      [
        "▁conference",
        -9.17574646201716
      ],
      [
        "▁includes",
        -9.177165517865664
      ],
      [
        "ru",
        -9.17722553734563
      ],
      [
        "▁Heydar",
        -9.177338803785634
      ],
      [
        "▁Director",
        -9.178243420799525
      ],
      [
        "▁district",
        -9.178812751540866
      ],
      [
        "▁text",
        -9.179248220723064
      ],
      [
        "▁session",
        -9.179701151825046
      ],
      [
        "▁potential",
        -9.180616937900066
      ],
      [
        "▁Centre",
        -9.180922317319041
      ],
      [
        "▁Oil",
        -9.182261927020717
      ],
      [
        "▁ask",
        -9.187526538986596
      ],
      [
        "▁face",
        -9.189530213472775
      ],
      [
        "▁Yes",
        -9.18993567287908
      ],
      [
        "▁Board",
        -9.190662595219365
      ],
      [
        "▁English",
        -9.190907841699165
      ],
      [
        "▁choose",
        -9.191018185428263
      ],
      [
        "▁got",
        -9.191698031067217
      ],
      [
        "▁documents",
        -9.1918263571267
      ],
      [
        "▁meet",
        -9.19234372528951
      ],
      [
        "▁economy",
        -9.192359870427385
      ],
      [
        "ov",
        -9.192889686508469
      ],
      [
        "▁exhibition",
        -9.194366446518753
      ],
      [
        "▁scientific",
        -9.195408672924435
      ],
      [
        "▁Security",
        -9.19636708564017
      ],
      [
        "▁representatives",
        -9.197304899569273
      ],
      [
        "out",
        -9.198785415178167
      ],
      [
        "▁sector",
        -9.201046204655455
      ],
      [
        "▁death",
        -9.201394678244615
      ],
      [
        "▁transport",
        -9.20176473283222
      ],
      [
        "▁Company",
        -9.202003950530274
      ],
      [
        "▁box",
        -9.202135106910411
      ],
      [
        "▁Danc",
        -9.202290723994846
      ],
      [
        "▁August",
        -9.202619101831985
      ],
      [
        "▁Re",
        -9.20323949248952
      ],
      [
        "▁Office",
        -9.20519823804126
      ],
      [
        "▁included",
        -9.208881337361467
      ],
      [
        "▁unto",
        -9.210011379309822
      ],
      [
        "▁bathroom",
        -9.210104350642949
      ],
      [
        "▁fully",
        -9.210716152569871
      ],
      [
        "▁sent",
        -9.21288567616301
      ],
      [
        "▁force",
        -9.214264590649572
      ],
      [
        "▁Day",
        -9.216458292991518
      ],
      [
        "▁designed",
        -9.216942799520178
      ],
      [
        "▁American",
        -9.223168320353507
      ],
      [
        "▁opportunity",
        -9.22342065267005
      ],
      [
        "▁entire",
        -9.224776003426282
      ],
      [
        "▁increased",
        -9.225993489378265
      ],
      [
        "▁units",
        -9.22697181779884
      ],
      [
        "▁peace",
        -9.227496117177514
      ],
      [
        "▁institutions",
        -9.22817215361011
      ],
      [
        "▁customers",
        -9.228191005818465
      ],
      [
        "▁quickly",
        -9.22827212524751
      ],
      [
        "▁early",
        -9.22848434127176
      ],
      [
        "▁half",
        -9.22910065168782
      ],
      [
        "▁Manager",
        -9.229863593053121
      ],
      [
        "▁matter",
        -9.230665942295174
      ],
      [
        "▁accordance",
        -9.231150974086718
      ],
      [
        "▁Please",
        -9.231541189971255
      ],
      [
        "one",
        -9.231601073542429
      ],
      [
        "▁highly",
        -9.2331076158219
      ],
      [
        "▁develop",
        -9.2356989732023
      ],
      [
        "▁content",
        -9.237154955600152
      ],
      [
        "▁http",
        -9.237187310754562
      ],
      [
        "▁card",
        -9.23791306868811
      ],
      [
        "▁supply",
        -9.238291337065165
      ],
      [
        "▁appear",
        -9.238398990067108
      ],
      [
        "▁table",
        -9.239662203051445
      ],
      [
        "▁collection",
        -9.24006608764941
      ],
      [
        "▁games",
        -9.242342102106605
      ],
      [
        "ment",
        -9.242875764706204
      ],
      [
        "▁art",
        -9.242908187757843
      ],
      [
        "▁device",
        -9.24369817326507
      ],
      [
        "▁regarding",
        -9.244727004898289
      ],
      [
        "ary",
        -9.247247308321855
      ],
      [
        "‘",
        -9.247575707100927
      ],
      [
        "▁parts",
        -9.248192702055507
      ],
      [
        "▁purpose",
        -9.24878933652929
      ],
      [
        "▁population",
        -9.249480534124228
      ],
      [
        "▁read",
        -9.250899751167513
      ],
      [
        "▁discover",
        -9.251704877697081
      ],
      [
        "▁doesn",
        -9.251922593851894
      ],
      [
        "▁relations",
        -9.254335897213755
      ],
      [
        "▁strong",
        -9.254456927789834
      ],
      [
        "▁word",
        -9.254722070856428
      ],
      [
        "▁operating",
        -9.257968361673456
      ],
      [
        "▁respect",
        -9.258669208062662
      ],
      [
        "▁standard",
        -9.258707586188233
      ],
      [
        "▁settings",
        -9.260971835750842
      ],
      [
        "▁enjoy",
        -9.264239684207945
      ],
      [
        "▁South",
        -9.264430467538476
      ],
      [
        "▁developing",
        -9.26543084756513
      ],
      [
        "▁either",
        -9.26608623552122
      ],
      [
        "▁resolution",
        -9.26624135358482
      ],
      [
        "▁Sea",
        -9.267662953678402
      ],
      [
        "▁moment",
        -9.267936637362123
      ],
      [
        "▁Server",
        -9.26974954390754
      ],
      [
        "▁ever",
        -9.270767640999496
      ],
      [
        "▁started",
        -9.27116803499672
      ],
      [
        "▁System",
        -9.271767879561851
      ],
      [
        "▁won",
        -9.271961295574894
      ],
      [
        "▁manufacturer",
        -9.273374482924007
      ],
      [
        "▁enough",
        -9.273401765083173
      ],
      [
        "▁levels",
        -9.274503465258425
      ],
      [
        "▁Other",
        -9.275021892243881
      ],
      [
        "▁structure",
        -9.275104912407274
      ],
      [
        "▁black",
        -9.275237204998778
      ],
      [
        "▁approach",
        -9.27540645928672
      ],
      [
        "▁stage",
        -9.276457474010558
      ],
      [
        "▁bank",
        -9.276468059323822
      ],
      [
        "▁code",
        -9.278771460619813
      ],
      [
        "▁quite",
        -9.279561463344251
      ],
      [
        "▁Roleplay",
        -9.27960081987517
      ],
      [
        "▁PornHub",
        -9.283050611985361
      ],
      [
        "▁himself",
        -9.283087000513884
      ],
      [
        "▁significant",
        -9.283541849680843
      ],
      [
        "▁components",
        -9.283622813167373
      ],
      [
        "▁leading",
        -9.284814039465807
      ],
      [
        "▁therefore",
        -9.285846099538734
      ],
      [
        "▁Museum",
        -9.286696766417691
      ],
      [
        "▁Well",
        -9.286824968863723
      ],
      [
        "▁music",
        -9.28733186404002
      ],
      [
        "▁February",
        -9.28783043638018
      ],
      [
        "▁associated",
        -9.288958916875915
      ],
      [
        "▁thousand",
        -9.289642225750496
      ],
      [
        "▁father",
        -9.290464051488817
      ],
      [
        "▁didn",
        -9.29063486529033
      ],
      [
        "▁makes",
        -9.291628853762179
      ],
      [
        "▁simple",
        -9.292394006414664
      ],
      [
        "▁exchange",
        -9.292786695562945
      ],
      [
        "▁active",
        -9.295738528176315
      ],
      [
        "▁citizens",
        -9.296266536906197
      ],
      [
        "▁Management",
        -9.297460861162945
      ],
      [
        "▁began",
        -9.297582130021187
      ],
      [
        "▁stop",
        -9.298759357012871
      ],
      [
        "▁consist",
        -9.300126078358408
      ],
      [
        "▁efforts",
        -9.301066173728234
      ],
      [
        "▁similar",
        -9.301897723621439
      ],
      [
        "▁recommend",
        -9.302338204523522
      ],
      [
        "▁via",
        -9.303472511725783
      ],
      [
        "▁Information",
        -9.304655913229311
      ],
      [
        "▁mature",
        -9.304771014715136
      ],
      [
        "▁walk",
        -9.305118295038035
      ],
      [
        "▁wind",
        -9.30589776426299
      ],
      [
        "www",
        -9.30600241217303
      ],
      [
        "▁programs",
        -9.30664150123321
      ],
      [
        "▁points",
        -9.30695155932442
      ],
      [
        "▁beginning",
        -9.307519377925532
      ],
      [
        "▁hotels",
        -9.314907666466372
      ],
      [
        "▁Snapshot",
        -9.315287496869182
      ],
      [
        "▁billion",
        -9.31561154364411
      ],
      [
        "▁answer",
        -9.316398461073538
      ],
      [
        "▁Of",
        -9.317410251443437
      ],
      [
        "▁methods",
        -9.317622857134731
      ],
      [
        "▁series",
        -9.318472195642586
      ],
      [
        "▁inside",
        -9.319372558249327
      ],
      [
        "▁lower",
        -9.319972198840249
      ],
      [
        "▁rather",
        -9.320275055527855
      ],
      [
        "▁longer",
        -9.321286342655364
      ],
      [
        "ka",
        -9.323699262407994
      ],
      [
        "▁spiritual",
        -9.323980583296732
      ],
      [
        "▁mean",
        -9.324454652823757
      ],
      [
        "▁review",
        -9.324510214016586
      ],
      [
        "▁hope",
        -9.32666903947094
      ],
      [
        "▁EU",
        -9.32777569348397
      ],
      [
        "▁message",
        -9.328371819031284
      ],
      [
        "▁Germany",
        -9.329199597852563
      ],
      [
        "▁download",
        -9.329579694781728
      ],
      [
        "▁prices",
        -9.330477397395413
      ],
      [
        "▁presented",
        -9.332845023011979
      ],
      [
        "▁anti",
        -9.334410565150389
      ],
      [
        "▁weather",
        -9.33548594808622
      ],
      [
        "▁practice",
        -9.336431611506786
      ],
      [
        "▁joint",
        -9.338115886889392
      ],
      [
        "▁Let",
        -9.338836329573898
      ],
      [
        "Y",
        -9.339241031132456
      ],
      [
        "▁competition",
        -9.340036850380717
      ],
      [
        "▁Ukrainian",
        -9.34091830598382
      ],
      [
        "▁popular",
        -9.341724541308729
      ],
      [
        "▁document",
        -9.342074276922324
      ],
      [
        "▁Why",
        -9.344058504074686
      ],
      [
        "▁leave",
        -9.344357420415394
      ],
      [
        "▁elections",
        -9.34443134911383
      ],
      [
        "▁freedom",
        -9.346135072647336
      ],
      [
        "▁Church",
        -9.346254186196807
      ],
      [
        "▁Extension",
        -9.347202623710944
      ],
      [
        "▁restaurant",
        -9.348425638788703
      ],
      [
        "▁Party",
        -9.349189414877404
      ],
      [
        "▁questions",
        -9.351016935394163
      ],
      [
        "▁paper",
        -9.351612707337024
      ],
      [
        "▁cause",
        -9.352086237990902
      ],
      [
        "▁try",
        -9.35234657455076
      ],
      [
        "▁culture",
        -9.352827876471283
      ],
      [
        "▁variet",
        -9.352837849599226
      ],
      [
        "▁X",
        -9.353330220310221
      ],
      [
        "▁likely",
        -9.355662447648163
      ],
      [
        "▁Special",
        -9.356547228732872
      ],
      [
        "▁carried",
        -9.35658664805023
      ],
      [
        "▁test",
        -9.357609502664213
      ],
      [
        "▁brought",
        -9.3580148106364
      ],
      [
        "▁Air",
        -9.358730554026021
      ],
      [
        "▁pool",
        -9.359443191066395
      ],
      [
        "▁Institute",
        -9.360351273612658
      ],
      [
        "▁rules",
        -9.360910383355916
      ],
      [
        "▁assistance",
        -9.361118530328856
      ],
      [
        "▁enter",
        -9.361513846766282
      ],
      [
        "▁centre",
        -9.36154021536629
      ],
      [
        "▁location",
        -9.3616964695259
      ],
      [
        "men",
        -9.362210926291443
      ],
      [
        "▁solution",
        -9.364765569658816
      ],
      [
        "▁image",
        -9.365526268520119
      ],
      [
        "▁customer",
        -9.365996286429484
      ],
      [
        "▁cultural",
        -9.366618757267084
      ],
      [
        "▁anything",
        -9.366657898270745
      ],
      [
        "▁update",
        -9.36732737554658
      ],
      [
        "▁transfer",
        -9.368138150251786
      ],
      [
        "▁ready",
        -9.36838257045151
      ],
      [
        "▁actions",
        -9.368441175380879
      ],
      [
        "▁Moldova",
        -9.370883830729015
      ],
      [
        "▁source",
        -9.371284749115997
      ],
      [
        "▁looking",
        -9.373018172523295
      ],
      [
        "▁existing",
        -9.373372857115536
      ],
      [
        "▁drive",
        -9.374374583858254
      ],
      [
        "▁budget",
        -9.374493172429519
      ],
      [
        "▁saw",
        -9.374851388038069
      ],
      [
        "▁applications",
        -9.376652333175748
      ],
      [
        "▁friends",
        -9.379456118046196
      ],
      [
        "▁useful",
        -9.379546093245803
      ],
      [
        "▁comes",
        -9.379934420734836
      ],
      [
        "▁medical",
        -9.381043163792503
      ],
      [
        "by",
        -9.381718472622849
      ],
      [
        "▁wide",
        -9.381820933709134
      ],
      [
        "be",
        -9.3818516871241
      ],
      [
        "▁basic",
        -9.382186294910708
      ],
      [
        "▁Finger",
        -9.383929515324361
      ],
      [
        "of",
        -9.384493585502074
      ],
      [
        "▁German",
        -9.384774480792638
      ],
      [
        "▁providing",
        -9.384919805070407
      ],
      [
        "▁players",
        -9.38525013138393
      ],
      [
        "▁relevant",
        -9.3855824903925
      ],
      [
        "▁America",
        -9.385813988837569
      ],
      [
        "▁UN",
        -9.386003678424846
      ],
      [
        "▁details",
        -9.386295454318804
      ],
      [
        "▁pre",
        -9.387618196085128
      ],
      [
        "term",
        -9.39142068630224
      ],
      [
        "▁Conference",
        -9.392804240191756
      ],
      [
        "▁analyze",
        -9.395049439773008
      ],
      [
        "▁standards",
        -9.395868428650859
      ],
      [
        "▁J",
        -9.396302117773565
      ],
      [
        "▁wife",
        -9.39728063701106
      ],
      [
        "▁window",
        -9.397550415979127
      ],
      [
        "▁Close",
        -9.398026378998567
      ],
      [
        "▁spirit",
        -9.40180980002558
      ],
      [
        "▁Georgia",
        -9.402745072056081
      ],
      [
        "for",
        -9.404677857672118
      ],
      [
        "▁Latvia",
        -9.404911939207974
      ],
      [
        "ization",
        -9.40505543884867
      ],
      [
        "▁add",
        -9.405057731680932
      ],
      [
        "▁technologies",
        -9.406217812466494
      ],
      [
        "▁Assembly",
        -9.407266679537932
      ],
      [
        "▁sq",
        -9.407707648164696
      ],
      [
        "▁behind",
        -9.407901856990373
      ],
      [
        "▁mobile",
        -9.409087791853109
      ],
      [
        "▁option",
        -9.409321596498733
      ],
      [
        "▁House",
        -9.409876756155706
      ],
      [
        "▁blowjob",
        -9.410261699127327
      ],
      [
        "▁lead",
        -9.41062124148676
      ],
      [
        "▁rest",
        -9.41152608668286
      ],
      [
        "▁direct",
        -9.411927833801624
      ],
      [
        "▁added",
        -9.412149164744784
      ],
      [
        "▁carry",
        -9.412367922983355
      ],
      [
        "▁Since",
        -9.412507052948246
      ],
      [
        "▁HD",
        -9.413827704062795
      ],
      [
        "While",
        -9.415255598600943
      ],
      [
        "▁implement",
        -9.415268998543736
      ],
      [
        "▁Use",
        -9.416206035074477
      ],
      [
        "▁century",
        -9.416618023281416
      ],
      [
        "▁send",
        -9.419014411288485
      ],
      [
        "▁progress",
        -9.419173233662336
      ],
      [
        "▁across",
        -9.419232294562692
      ],
      [
        "▁appropriate",
        -9.419605818064294
      ],
      [
        "▁ground",
        -9.419686311410015
      ],
      [
        "▁truth",
        -9.420219099221676
      ],
      [
        "▁pressure",
        -9.42108427371504
      ],
      [
        "▁noted",
        -9.421595407972205
      ],
      [
        "▁court",
        -9.421724186928607
      ],
      [
        "▁payment",
        -9.422099175372185
      ],
      [
        "▁domain",
        -9.422274838802547
      ],
      [
        "▁earth",
        -9.422743346252759
      ],
      [
        "▁king",
        -9.423215570585668
      ],
      [
        "day",
        -9.42453548778256
      ],
      [
        "▁travel",
        -9.426761276748271
      ],
      [
        "▁LORD",
        -9.427069979738258
      ],
      [
        "▁soon",
        -9.42773838080473
      ],
      [
        "▁everyone",
        -9.428308878433278
      ],
      [
        "▁section",
        -9.428788565817682
      ],
      [
        "▁independent",
        -9.429611507121784
      ],
      [
        "▁function",
        -9.429761400389916
      ],
      [
        "▁towards",
        -9.429859663068335
      ],
      [
        "ate",
        -9.43014560272668
      ],
      [
        "▁Court",
        -9.430352694751049
      ],
      [
        "▁lines",
        -9.430438839423292
      ],
      [
        "▁creation",
        -9.430907487066296
      ],
      [
        "▁steel",
        -9.431242252379313
      ],
      [
        "▁blood",
        -9.431493790607421
      ],
      [
        "▁doing",
        -9.431528584969634
      ],
      [
        "▁original",
        -9.431701463545076
      ],
      [
        "▁deal",
        -9.432080867570956
      ],
      [
        "▁traditional",
        -9.433143979477334
      ],
      [
        "▁disease",
        -9.43501802764086
      ],
      [
        "▁clients",
        -9.435910505125308
      ],
      [
        "ive",
        -9.436156030036374
      ],
      [
        "▁costs",
        -9.436252545687854
      ],
      [
        "▁outside",
        -9.438653494765939
      ],
      [
        "▁claim",
        -9.439921484960637
      ],
      [
        "▁girl",
        -9.440660038691743
      ],
      [
        "▁opinion",
        -9.4411294359005
      ],
      [
        "▁search",
        -9.441721142092128
      ],
      [
        "▁bodies",
        -9.441979286191115
      ],
      [
        "▁direction",
        -9.442609904260648
      ],
      [
        "▁serve",
        -9.443254584574603
      ],
      [
        "▁buy",
        -9.446790162342042
      ],
      [
        "▁station",
        -9.447315436990644
      ],
      [
        "▁Year",
        -9.447491070047347
      ],
      [
        "▁choice",
        -9.44819987873569
      ],
      [
        "▁tourist",
        -9.449570878891487
      ],
      [
        "«",
        -9.450188696287139
      ],
      [
        "▁participation",
        -9.450563297216414
      ],
      [
        "▁initiative",
        -9.450742208051814
      ],
      [
        "▁fire",
        -9.450754617525616
      ],
      [
        "▁asked",
        -9.450990134585998
      ],
      [
        "▁export",
        -9.452401404292452
      ],
      [
        "▁French",
        -9.452646931974316
      ],
      [
        "▁front",
        -9.452651892073973
      ],
      [
        "▁TXXX",
        -9.4532946405856
      ],
      [
        "▁post",
        -9.455359759822484
      ],
      [
        "▁Q",
        -9.455964877614852
      ],
      [
        "▁demand",
        -9.462801885034551
      ],
      [
        "▁method",
        -9.463016869348431
      ],
      [
        "based",
        -9.464402840384158
      ],
      [
        "▁operations",
        -9.464555069981488
      ],
      [
        "▁educational",
        -9.466416174710934
      ],
      [
        "▁regions",
        -9.467371092279688
      ],
      [
        "▁Oh",
        -9.46767324471415
      ],
      [
        "▁saying",
        -9.468551611874414
      ],
      [
        "▁though",
        -9.468885753198645
      ],
      [
        "▁safe",
        -9.469577366229487
      ],
      [
        "▁central",
        -9.46976789505607
      ],
      [
        "▁Secretary",
        -9.469948062541226
      ],
      [
        "▁move",
        -9.470026987369646
      ],
      [
        "▁maintain",
        -9.471595800434837
      ],
      [
        "▁white",
        -9.472261998737393
      ],
      [
        "▁experts",
        -9.473809053211534
      ],
      [
        "▁framework",
        -9.473866446319832
      ],
      [
        "▁command",
        -9.473971419339756
      ],
      [
        "▁largest",
        -9.4740056504817
      ],
      [
        "▁warm",
        -9.474464056565374
      ],
      [
        "▁sense",
        -9.47492071789469
      ],
      [
        "▁whose",
        -9.475018182898692
      ],
      [
        "▁former",
        -9.475133160633316
      ],
      [
        "ally",
        -9.475820388169634
      ],
      [
        "▁contain",
        -9.475937274595855
      ],
      [
        "▁photo",
        -9.477070285102485
      ],
      [
        "▁percent",
        -9.477458678070057
      ],
      [
        "▁rule",
        -9.47806741722148
      ],
      [
        "▁Products",
        -9.479053751495004
      ],
      [
        "▁Today",
        -9.479176989181624
      ],
      [
        "▁speak",
        -9.479486596744183
      ],
      [
        "▁feature",
        -9.47973901174519
      ],
      [
        "▁industrial",
        -9.481081837278794
      ],
      [
        "▁tax",
        -9.481405743506063
      ],
      [
        "▁Media",
        -9.481819113303938
      ],
      [
        "▁processing",
        -9.48298460150537
      ],
      [
        "▁practical",
        -9.484592680295757
      ],
      [
        "▁act",
        -9.48637949600066
      ],
      [
        "▁Can",
        -9.486743055426071
      ],
      [
        "▁Father",
        -9.486970240212075
      ],
      [
        "▁devices",
        -9.487595758736392
      ],
      [
        "▁draft",
        -9.487872944529002
      ],
      [
        "▁concept",
        -9.488166649299998
      ],
      [
        "▁campaign",
        -9.488781732839277
      ],
      [
        "▁represent",
        -9.488866622533918
      ],
      [
        "▁perfect",
        -9.48903602797639
      ],
      [
        "▁Code",
        -9.489199248598048
      ],
      [
        "▁coming",
        -9.490001176095012
      ],
      [
        "▁masturbation",
        -9.490072320353613
      ],
      [
        "▁task",
        -9.49047235814527
      ],
      [
        "▁step",
        -9.490676452662715
      ],
      [
        "▁procedure",
        -9.491244153933009
      ],
      [
        "▁positive",
        -9.491451235390475
      ],
      [
        "▁installation",
        -9.49298023522444
      ],
      [
        "▁yourself",
        -9.4937149170777
      ],
      [
        "▁election",
        -9.49397955223267
      ],
      [
        "▁six",
        -9.495297728981118
      ],
      [
        "▁gave",
        -9.49617550747403
      ],
      [
        "▁town",
        -9.499076749729705
      ],
      [
        "▁states",
        -9.499121631229803
      ],
      [
        "▁processes",
        -9.49952960442328
      ],
      [
        "▁credit",
        -9.500381306073132
      ],
      [
        "▁completely",
        -9.500884634068585
      ],
      [
        "▁Games",
        -9.502671563001543
      ],
      [
        "over",
        -9.502672334503943
      ],
      [
        "▁religious",
        -9.50267763071609
      ],
      [
        "▁Public",
        -9.50338094630945
      ],
      [
        "▁consider",
        -9.503972502730132
      ],
      [
        "▁plans",
        -9.504164054351639
      ],
      [
        "▁Room",
        -9.504959800527034
      ],
      [
        "▁published",
        -9.505388528005811
      ],
      [
        "▁Head",
        -9.506052939284242
      ],
      [
        "▁East",
        -9.508464466735512
      ],
      [
        "▁Zoom",
        -9.509775656300546
      ],
      [
        "▁communication",
        -9.510334656118708
      ],
      [
        "▁eyes",
        -9.510346545859578
      ],
      [
        "▁mention",
        -9.511326339595326
      ],
      [
        "▁territory",
        -9.512808869297663
      ],
      [
        "▁success",
        -9.513327543949329
      ],
      [
        "▁volume",
        -9.513793859268732
      ],
      [
        "▁cities",
        -9.516919985253727
      ],
      [
        "▁co",
        -9.51906381103929
      ],
      [
        "▁Show",
        -9.519914511753926
      ],
      [
        "▁Art",
        -9.520230757515186
      ],
      [
        "▁guests",
        -9.52162150067372
      ],
      [
        "▁color",
        -9.521688996590514
      ],
      [
        "▁discussion",
        -9.52218026984678
      ],
      [
        "time",
        -9.52256683835565
      ],
      [
        "▁formats",
        -9.525089066317697
      ],
      [
        "▁People",
        -9.528066964895803
      ],
      [
        "▁reported",
        -9.52810361867693
      ],
      [
        "▁Be",
        -9.528867876596196
      ],
      [
        "▁install",
        -9.529037227284258
      ],
      [
        "▁follow",
        -9.529978199049468
      ],
      [
        "▁Additional",
        -9.53295292404185
      ],
      [
        "▁Go",
        -9.534690955667724
      ],
      [
        "▁funds",
        -9.535129249195867
      ],
      [
        "▁damage",
        -9.535452711678964
      ],
      [
        "▁weight",
        -9.53601588885696
      ],
      [
        "▁solutions",
        -9.536968913474917
      ],
      [
        "self",
        -9.537238662783949
      ],
      [
        "▁elements",
        -9.53724658823367
      ],
      [
        "▁establish",
        -9.538615327391607
      ],
      [
        "▁needed",
        -9.53926071680999
      ],
      [
        "▁forces",
        -9.543166895273783
      ],
      [
        "seen",
        -9.544295246667724
      ],
      [
        "land",
        -9.545632442442725
      ],
      [
        "▁nor",
        -9.54568690226227
      ],
      [
        "▁Association",
        -9.54661643721254
      ],
      [
        "▁Business",
        -9.54665002253582
      ],
      [
        "▁note",
        -9.547946243522302
      ],
      [
        "▁AShemaleTube",
        -9.550039209524803
      ],
      [
        "▁Not",
        -9.551121847012444
      ],
      [
        "▁Services",
        -9.551175720507054
      ],
      [
        "stalled",
        -9.55217212366642
      ],
      [
        "▁mass",
        -9.55244370441897
      ],
      [
        "▁Al",
        -9.553047528443265
      ],
      [
        "▁Co",
        -9.554065755093813
      ],
      [
        "▁build",
        -9.554356350736457
      ],
      [
        "▁organized",
        -9.554723535244603
      ],
      [
        "▁attempt",
        -9.554755772882952
      ],
      [
        "▁brother",
        -9.55485950569976
      ],
      [
        "▁promote",
        -9.556064098878101
      ],
      [
        "▁written",
        -9.556497558413442
      ],
      [
        "▁apply",
        -9.557439136792205
      ],
      [
        "▁mechanism",
        -9.55789279759315
      ],
      [
        "▁contains",
        -9.559007115931749
      ],
      [
        "▁kitchen",
        -9.56081077600622
      ],
      [
        "▁goods",
        -9.56112894773602
      ],
      [
        "▁unit",
        -9.561674976254478
      ],
      [
        "▁average",
        -9.562715046512901
      ],
      [
        "▁Human",
        -9.564589590011666
      ],
      [
        "▁skin",
        -9.564592153293903
      ],
      [
        "▁surface",
        -9.56479761525228
      ],
      [
        "▁focus",
        -9.5649919976728
      ],
      [
        "▁lost",
        -9.567725311359268
      ],
      [
        "▁serious",
        -9.568028211090022
      ],
      [
        "▁throughout",
        -9.568204242517114
      ],
      [
        "▁heard",
        -9.569981502901795
      ],
      [
        "age",
        -9.570190174456847
      ],
      [
        "▁decided",
        -9.57167709231907
      ],
      [
        "▁easie",
        -9.572937855341113
      ],
      [
        "▁police",
        -9.572938721465842
      ],
      [
        "▁conflict",
        -9.573081045549204
      ],
      [
        "▁mother",
        -9.573103630666521
      ],
      [
        "▁path",
        -9.573673780770669
      ],
      [
        "▁woman",
        -9.574519225068011
      ],
      [
        "per",
        -9.575076690721614
      ],
      [
        "▁plant",
        -9.575343599269498
      ],
      [
        "▁brand",
        -9.575755581188414
      ],
      [
        "▁North",
        -9.57611386518688
      ],
      [
        "▁mouth",
        -9.576250736222965
      ],
      [
        "▁Spirit",
        -9.577039624873056
      ],
      [
        "▁San",
        -9.577132488143555
      ],
      [
        "▁Foreign",
        -9.578621457917478
      ],
      [
        "▁impact",
        -9.57908041246656
      ],
      [
        "▁Anal",
        -9.579177314227278
      ],
      [
        "j",
        -9.580259310124626
      ],
      [
        "▁reform",
        -9.580608997815764
      ],
      [
        "▁maximum",
        -9.580678490953977
      ],
      [
        "▁influence",
        -9.580708153755609
      ],
      [
        "▁goal",
        -9.581067591650074
      ],
      [
        "▁equal",
        -9.581397233621255
      ],
      [
        "▁hold",
        -9.581917056214856
      ],
      [
        "▁leader",
        -9.582135177251914
      ],
      [
        "▁vote",
        -9.58226822683808
      ],
      [
        "▁aware",
        -9.582962495150328
      ],
      [
        "▁Software",
        -9.583525712820297
      ],
      [
        "▁Serbia",
        -9.583655428738403
      ],
      [
        "▁easily",
        -9.583765618647677
      ],
      [
        "▁recent",
        -9.584103760003368
      ],
      [
        "▁protect",
        -9.58461541871246
      ],
      [
        "▁See",
        -9.58472758078287
      ],
      [
        "▁maintenance",
        -9.586117359145302
      ],
      [
        "▁highest",
        -9.586401733110568
      ],
      [
        "▁ways",
        -9.58726424544166
      ],
      [
        "▁interests",
        -9.5876504859411
      ],
      [
        "▁particularly",
        -9.588101875347686
      ],
      [
        "▁master",
        -9.58819156838903
      ],
      [
        "▁immediately",
        -9.588692292110641
      ],
      [
        "▁Chinese",
        -9.5895363526887
      ],
      [
        "▁domestic",
        -9.590184441404778
      ],
      [
        "▁Model",
        -9.59041030542098
      ],
      [
        "▁News",
        -9.591288761936028
      ],
      [
        "▁bar",
        -9.59297128496502
      ],
      [
        "▁programme",
        -9.593094310704151
      ],
      [
        "▁options",
        -9.593778470803864
      ],
      [
        "▁Power",
        -9.594327597740403
      ],
      [
        "▁season",
        -9.594553283894799
      ],
      [
        "▁Thus",
        -9.595524899289062
      ],
      [
        "▁compare",
        -9.59663131913148
      ],
      [
        "▁response",
        -9.597855970543447
      ],
      [
        "▁items",
        -9.598051876846046
      ],
      [
        "▁annual",
        -9.599002217347524
      ],
      [
        "▁Each",
        -9.599190161352567
      ],
      [
        "▁Online",
        -9.59977463349385
      ],
      [
        "▁base",
        -9.600558172852397
      ],
      [
        "▁morning",
        -9.600653116088045
      ],
      [
        "▁fall",
        -9.601857284311484
      ],
      [
        "▁term",
        -9.601928623064055
      ],
      [
        "▁forecast",
        -9.601985185001688
      ],
      [
        "▁road",
        -9.602270063565637
      ],
      [
        "▁multi",
        -9.6025520949801
      ],
      [
        "▁Microsoft",
        -9.602577645822153
      ],
      [
        "▁village",
        -9.603794877063176
      ],
      [
        "▁distribution",
        -9.603997410983927
      ],
      [
        "▁Therefor",
        -9.604128305707478
      ],
      [
        "▁responsible",
        -9.606123827319301
      ],
      [
        "▁monitoring",
        -9.60654142605359
      ],
      [
        "▁Rights",
        -9.607932875461469
      ],
      [
        "▁summer",
        -9.608095792619606
      ],
      [
        "▁difference",
        -9.608112234456147
      ],
      [
        "▁enable",
        -9.608137796413189
      ],
      [
        "▁length",
        -9.608497099367943
      ],
      [
        "▁extensions",
        -9.609425476886914
      ],
      [
        "▁separate",
        -9.609878736064175
      ],
      [
        "▁regulation",
        -9.610232194921425
      ],
      [
        "▁Dildo",
        -9.610325621893331
      ],
      [
        "▁importance",
        -9.610802338622756
      ],
      [
        "▁equipped",
        -9.611047929996941
      ],
      [
        "▁whom",
        -9.611327664576503
      ],
      [
        "▁Y",
        -9.612955805586036
      ],
      [
        "▁commission",
        -9.614258061509524
      ],
      [
        "▁involved",
        -9.614630005169479
      ],
      [
        "year",
        -9.61529116340286
      ],
      [
        "▁job",
        -9.615449821128674
      ],
      [
        "▁famous",
        -9.616818437545827
      ],
      [
        "▁employees",
        -9.616932613568174
      ],
      [
        "▁degree",
        -9.617658669120457
      ],
      [
        "▁button",
        -9.618099035557824
      ],
      [
        "▁condition",
        -9.6185397364968
      ],
      [
        "▁hands",
        -9.61900709335284
      ],
      [
        "▁limited",
        -9.619338274114947
      ],
      [
        "▁chance",
        -9.619991365289321
      ],
      [
        "▁Georgian",
        -9.620098922786475
      ],
      [
        "▁France",
        -9.620919807139709
      ],
      [
        "▁Black",
        -9.621008672724438
      ],
      [
        "▁reach",
        -9.62153846095738
      ],
      [
        "▁selected",
        -9.622167322460223
      ],
      [
        "▁War",
        -9.622201713065735
      ],
      [
        "▁avoid",
        -9.622309399891618
      ],
      [
        "▁church",
        -9.623719126070297
      ],
      [
        "▁met",
        -9.624692932219945
      ],
      [
        "▁nuclear",
        -9.625107867940528
      ],
      [
        "▁Just",
        -9.625222115948382
      ],
      [
        "▁successful",
        -9.625431729497382
      ],
      [
        "▁paid",
        -9.6259399162243
      ],
      [
        "▁prepared",
        -9.626109483724916
      ],
      [
        "▁contract",
        -9.627020040922492
      ],
      [
        "▁De",
        -9.627162179933903
      ],
      [
        "▁delivery",
        -9.62864536343363
      ],
      [
        "▁skills",
        -9.628706351997447
      ],
      [
        "▁Pro",
        -9.628969955242193
      ],
      [
        "▁forms",
        -9.629098432205828
      ],
      [
        "▁storage",
        -9.629309483965095
      ],
      [
        "▁class",
        -9.629607347258895
      ],
      [
        "▁forward",
        -9.629731508963514
      ],
      [
        "▁deposit",
        -9.630870546535201
      ],
      [
        "▁someone",
        -9.631613684426487
      ],
      [
        "▁legislation",
        -9.631700643458837
      ],
      [
        "▁thus",
        -9.631792232600496
      ],
      [
        "▁partners",
        -9.63196432752847
      ],
      [
        "▁attend",
        -9.633037544228811
      ],
      [
        "▁shows",
        -9.635014421815892
      ],
      [
        "▁specified",
        -9.635759386361224
      ],
      [
        "▁running",
        -9.63587794161971
      ],
      [
        "▁Great",
        -9.6365541713521
      ],
      [
        "▁daily",
        -9.636643279156628
      ],
      [
        "▁takes",
        -9.637701050126587
      ],
      [
        "▁places",
        -9.638118367732801
      ],
      [
        "▁object",
        -9.638375022658293
      ],
      [
        "▁interested",
        -9.63973298893621
      ],
      [
        "▁store",
        -9.640191711132742
      ],
      [
        "▁civil",
        -9.640198692573206
      ],
      [
        "ized",
        -9.64045666009596
      ],
      [
        "General",
        -9.641252773380291
      ],
      [
        "▁Configuration",
        -9.641284930694113
      ],
      [
        "▁achieve",
        -9.64136456172121
      ],
      [
        "▁association",
        -9.641569223433798
      ],
      [
        "▁presence",
        -9.641790920124041
      ],
      [
        "▁sales",
        -9.641882131664456
      ],
      [
        "▁solo",
        -9.641966314712235
      ],
      [
        "▁Z",
        -9.642112311336813
      ],
      [
        "▁commercial",
        -9.642426303746193
      ],
      [
        "▁opening",
        -9.643017012187569
      ],
      [
        "▁player",
        -9.64365103247079
      ],
      [
        "▁seem",
        -9.644442344055218
      ],
      [
        "▁sound",
        -9.644685667178859
      ],
      [
        "▁Asia",
        -9.644696333571712
      ],
      [
        "▁Add",
        -9.644973433830089
      ],
      [
        "▁internal",
        -9.646481981767913
      ],
      [
        "▁extreme",
        -9.646561308146786
      ],
      [
        "▁registration",
        -9.64689497091274
      ],
      [
        "▁destroy",
        -9.647099859676793
      ],
      [
        "off",
        -9.647319563200458
      ],
      [
        "▁OF",
        -9.64825998024671
      ],
      [
        "▁Many",
        -9.648341143838756
      ],
      [
        "▁save",
        -9.648932099545352
      ],
      [
        "ities",
        -9.649657759891118
      ],
      [
        "▁pass",
        -9.649767814997132
      ],
      [
        "▁efficiency",
        -9.650868001826634
      ],
      [
        "▁adopted",
        -9.65092665097563
      ],
      [
        "▁lives",
        -9.651251015328677
      ],
      [
        "▁aspect",
        -9.651421877921813
      ],
      [
        "▁deep",
        -9.651544561866984
      ],
      [
        "▁Are",
        -9.652897461721349
      ],
      [
        "▁Even",
        -9.65300279122666
      ],
      [
        "▁remember",
        -9.655592342326743
      ],
      [
        "▁movement",
        -9.65577343424254
      ],
      [
        "▁cable",
        -9.657133855905125
      ],
      [
        "▁Or",
        -9.65737307999716
      ],
      [
        "▁reality",
        -9.658275400940884
      ],
      [
        "▁round",
        -9.658364714300095
      ],
      [
        "\n",
        -9.65883309346092
      ],
      [
        "▁Don",
        -9.660444898171903
      ],
      [
        "▁principles",
        -9.662123330809454
      ],
      [
        "deed",
        -9.662726233942006
      ],
      [
        "ur",
        -9.663017607472357
      ],
      [
        "▁interesting",
        -9.66365166281523
      ],
      [
        "▁leaders",
        -9.663661449887991
      ],
      [
        "▁Mobile",
        -9.663814959369157
      ],
      [
        "▁usually",
        -9.664112506006138
      ],
      [
        "▁gold",
        -9.664385403811862
      ],
      [
        "▁cumshot",
        -9.664664257402068
      ],
      [
        "▁fair",
        -9.664919528695805
      ],
      [
        "J",
        -9.66586808446463
      ],
      [
        "▁perform",
        -9.666244862006819
      ],
      [
        "▁president",
        -9.66625348929798
      ],
      [
        "▁break",
        -9.66635147446937
      ],
      [
        "▁environmental",
        -9.667719256835893
      ],
      [
        "▁holiday",
        -9.66792079013291
      ],
      [
        "▁comfortable",
        -9.668011386372044
      ],
      [
        "▁administration",
        -9.66802622424342
      ],
      [
        "▁policies",
        -9.668268574256055
      ],
      [
        "▁THE",
        -9.668373297176922
      ],
      [
        "▁actually",
        -9.66860955489721
      ],
      [
        "▁PM",
        -9.669042210029218
      ],
      [
        "▁tools",
        -9.669881614217614
      ],
      [
        "▁mission",
        -9.670470801672822
      ],
      [
        "▁values",
        -9.671172271631134
      ],
      [
        "▁essential",
        -9.671776220665507
      ],
      [
        "▁steps",
        -9.672245644242823
      ],
      [
        "▁reduce",
        -9.672401654261943
      ],
      [
        "▁Putin",
        -9.672514694858103
      ],
      [
        "▁Most",
        -9.673202619284744
      ],
      [
        "▁charge",
        -9.675215994319624
      ],
      [
        "▁fear",
        -9.675974557289361
      ],
      [
        "▁feeling",
        -9.677879503878788
      ],
      [
        "▁signed",
        -9.679074714639448
      ],
      [
        "▁Belarus",
        -9.679219383044193
      ],
      [
        "▁infrastructure",
        -9.679869550662485
      ],
      [
        "▁responsibility",
        -9.679876330205621
      ],
      [
        "▁Name",
        -9.679958929754918
      ],
      [
        "▁detail",
        -9.680194184914926
      ],
      [
        "▁watch",
        -9.68023317822336
      ],
      [
        "▁named",
        -9.680296838627505
      ],
      [
        "▁tool",
        -9.680407755819456
      ],
      [
        "▁statement",
        -9.682523612819072
      ],
      [
        "▁Soviet",
        -9.682771619941112
      ],
      [
        "▁mode",
        -9.685525154713323
      ],
      [
        "▁loss",
        -9.686056163281608
      ],
      [
        "▁sports",
        -9.686339488150386
      ],
      [
        "▁stand",
        -9.686513402401271
      ],
      [
        "▁compilation",
        -9.686799541765112
      ],
      [
        "▁schedule",
        -9.68784785425728
      ],
      [
        "▁participate",
        -9.688080951918844
      ],
      [
        "U",
        -9.689720988978973
      ],
      [
        "▁Park",
        -9.689882117940227
      ],
      [
        "▁West",
        -9.69004185769531
      ],
      [
        "▁turned",
        -9.690310992707857
      ],
      [
        "▁lack",
        -9.69032682456069
      ],
      [
        "▁fish",
        -9.690929593019984
      ],
      [
        "▁decide",
        -9.691134117741784
      ],
      [
        "▁symbol",
        -9.69121355775576
      ],
      [
        "▁income",
        -9.691333356351992
      ],
      [
        "▁Product",
        -9.69238940845366
      ],
      [
        "▁understanding",
        -9.693038460764644
      ],
      [
        "▁else",
        -9.693893254000885
      ],
      [
        "▁require",
        -9.694163955959366
      ],
      [
        "▁generation",
        -9.695804991305826
      ],
      [
        "▁style",
        -9.695847393893253
      ],
      [
        "▁hear",
        -9.696192766256425
      ],
      [
        "▁breeze",
        -9.696730309942396
      ],
      [
        "▁Weather",
        -9.698598084365107
      ],
      [
        "▁John",
        -9.69912802826665
      ],
      [
        "▁reached",
        -9.699967820413551
      ],
      [
        "▁White",
        -9.70009204339882
      ],
      [
        "▁happy",
        -9.70098979579771
      ],
      [
        "▁seven",
        -9.701962445917404
      ],
      [
        "▁creating",
        -9.703080139952693
      ],
      [
        "▁Because",
        -9.703985204870142
      ],
      [
        "▁conducted",
        -9.704035699909614
      ],
      [
        "▁enterprises",
        -9.704867581744827
      ],
      [
        "▁Social",
        -9.705258699969692
      ],
      [
        "▁Where",
        -9.705473135796362
      ],
      [
        "▁latest",
        -9.706224652918857
      ],
      [
        "▁balance",
        -9.706612035114484
      ],
      [
        "▁browser",
        -9.70691524448932
      ],
      [
        "▁relative",
        -9.708034666056953
      ],
      [
        "▁race",
        -9.708546160128616
      ],
      [
        "▁Web",
        -9.71087532778646
      ],
      [
        "▁conduct",
        -9.71090805247299
      ],
      [
        "▁convert",
        -9.711255849185937
      ],
      [
        "▁functions",
        -9.711320988953085
      ],
      [
        "▁alternative",
        -9.71175019371029
      ],
      [
        "▁Organization",
        -9.712598539467775
      ],
      [
        "▁science",
        -9.713156783106708
      ],
      [
        "ter",
        -9.713415129030162
      ],
      [
        "▁web",
        -9.7138524183745
      ],
      [
        "▁package",
        -9.714362884955491
      ],
      [
        "▁external",
        -9.714491943757661
      ],
      [
        "▁crisis",
        -9.715101893340115
      ],
      [
        "▁PVC",
        -9.71554695606381
      ],
      [
        "org",
        -9.717478100050561
      ],
      [
        "▁couple",
        -9.717662917790582
      ],
      [
        "▁exercise",
        -9.717947443441599
      ],
      [
        "▁Armenia",
        -9.718946979591612
      ],
      [
        "▁meters",
        -9.72005531071346
      ],
      [
        "▁sometime",
        -9.720265530660583
      ],
      [
        "▁allowed",
        -9.721358603819837
      ],
      [
        "▁Fund",
        -9.721663224924304
      ],
      [
        "▁screen",
        -9.721966318399923
      ],
      [
        "▁planning",
        -9.722841095080508
      ],
      [
        "▁offered",
        -9.723327546061666
      ],
      [
        "▁excellent",
        -9.723708061905805
      ],
      [
        "▁fight",
        -9.724795533678574
      ],
      [
        "▁depend",
        -9.724881800465893
      ],
      [
        "▁Delivery",
        -9.725084371746425
      ],
      [
        "▁film",
        -9.72579524544048
      ],
      [
        "▁announced",
        -9.726033985678766
      ],
      [
        "▁laws",
        -9.726559958370212
      ],
      [
        "▁release",
        -9.726774622322425
      ],
      [
        "▁repair",
        -9.727125906952615
      ],
      [
        "▁Jerusalem",
        -9.727763630480748
      ],
      [
        "▁Vladimir",
        -9.727933181248256
      ],
      [
        "▁beach",
        -9.728031127133839
      ],
      [
        "▁hair",
        -9.728644712168592
      ],
      [
        "▁IP",
        -9.72933828584517
      ],
      [
        "▁rates",
        -9.72969423659442
      ],
      [
        "▁Red",
        -9.730844008454772
      ],
      [
        "▁secret",
        -9.73344576393783
      ],
      [
        "▁opportunities",
        -9.733496976968954
      ],
      [
        "▁airport",
        -9.733948220201503
      ],
      [
        "▁database",
        -9.734141139931246
      ],
      [
        "▁Airport",
        -9.735343766803705
      ],
      [
        "▁combination",
        -9.735940043702282
      ],
      [
        "▁faith",
        -9.737023062810632
      ],
      [
        "▁target",
        -9.737591968096243
      ],
      [
        "и",
        -9.738169435329983
      ],
      [
        "ous",
        -9.738175632892935
      ],
      [
        "▁dry",
        -9.739043119561279
      ],
      [
        "▁issued",
        -9.740825826526267
      ],
      [
        "▁Sex",
        -9.741614456453256
      ],
      [
        "▁Who",
        -9.74351661793086
      ],
      [
        "▁Vibrator",
        -9.74382914590368
      ],
      [
        "▁messages",
        -9.744308639805357
      ],
      [
        "▁completed",
        -9.74628087565683
      ],
      [
        "▁topic",
        -9.746280920560977
      ],
      [
        "▁properties",
        -9.747042159634784
      ],
      [
        "▁consciousness",
        -9.747811116513159
      ],
      [
        "▁improvement",
        -9.74945365338906
      ],
      [
        "▁Affairs",
        -9.749572341766935
      ],
      [
        "▁Chairman",
        -9.749697736465864
      ],
      [
        "▁greater",
        -9.74984178528013
      ],
      [
        "▁crime",
        -9.750007658318038
      ],
      [
        "▁workers",
        -9.751165239073675
      ],
      [
        "▁square",
        -9.751582719060242
      ],
      [
        "▁memory",
        -9.751893189833048
      ],
      [
        "▁Dr",
        -9.75233055569941
      ],
      [
        "▁remains",
        -9.753129062380264
      ],
      [
        "▁sites",
        -9.754031666074301
      ],
      [
        "We",
        -9.75463906271775
      ],
      [
        "▁trying",
        -9.754745536248466
      ],
      [
        "ance",
        -9.755275096658472
      ],
      [
        "▁Holy",
        -9.755896310018674
      ],
      [
        "▁Petersburg",
        -9.756290468516456
      ],
      [
        "▁deliver",
        -9.758035225030861
      ],
      [
        "▁Radio",
        -9.758081974323678
      ],
      [
        "▁fuel",
        -9.75861893112389
      ],
      [
        "line",
        -9.761128497423808
      ],
      [
        "▁changed",
        -9.761611733444795
      ],
      [
        "ling",
        -9.761875939240324
      ],
      [
        "▁bad",
        -9.761992374204862
      ],
      [
        "▁Meeting",
        -9.762742707630762
      ],
      [
        "▁partner",
        -9.762915863797529
      ],
      [
        "▁Health",
        -9.763066014259648
      ],
      [
        "▁red",
        -9.763170386021924
      ],
      [
        "▁increasing",
        -9.763760657134759
      ],
      [
        "go",
        -9.763878992456648
      ],
      [
        "ent",
        -9.764732932310512
      ],
      [
        "▁Network",
        -9.76484805610661
      ],
      [
        "▁electronic",
        -9.76511672997404
      ],
      [
        "mail",
        -9.765405393827185
      ],
      [
        "▁AM",
        -9.766326771122026
      ],
      [
        "▁Aliyeva",
        -9.766559241054065
      ],
      [
        "▁threat",
        -9.766804896170873
      ],
      [
        "▁Tool",
        -9.766817792518161
      ],
      [
        "▁stated",
        -9.766869082158621
      ],
      [
        "▁Computer",
        -9.766907991687718
      ],
      [
        "▁offering",
        -9.768119884723715
      ],
      [
        "▁possibility",
        -9.768909957549525
      ],
      [
        "ver",
        -9.769285978681868
      ],
      [
        "▁alone",
        -9.769290569689433
      ],
      [
        "▁discussed",
        -9.769661927924199
      ],
      [
        "▁blow",
        -9.77038882110544
      ],
      [
        "▁applied",
        -9.77053828604953
      ],
      [
        "▁USA",
        -9.770676718441367
      ],
      [
        "†",
        -9.771165286495354
      ],
      [
        "▁views",
        -9.771218009844125
      ],
      [
        "▁concerning",
        -9.771229112610273
      ],
      [
        "▁news",
        -9.772383175873056
      ],
      [
        "▁connected",
        -9.772601607399247
      ],
      [
        "▁determine",
        -9.774497315802227
      ],
      [
        "▁recommended",
        -9.775933114163045
      ],
      [
        "▁factory",
        -9.775955172577898
      ],
      [
        "▁strength",
        -9.777860825532303
      ],
      [
        "▁attack",
        -9.778504247425975
      ],
      [
        "▁connect",
        -9.779345312009768
      ],
      [
        "▁accept",
        -9.782441214883981
      ],
      [
        "▁cross",
        -9.783255218222624
      ],
      [
        "▁Education",
        -9.783417848618829
      ],
      [
        "strategy",
        -9.783535279357887
      ],
      [
        "▁continued",
        -9.783548699743875
      ],
      [
        "▁Time",
        -9.783695156100555
      ],
      [
        "▁distance",
        -9.784568401005723
      ],
      [
        "▁proper",
        -9.784934161671808
      ],
      [
        "me",
        -9.785142568286926
      ],
      [
        "▁door",
        -9.785249262222322
      ],
      [
        "▁Main",
        -9.785475969811966
      ],
      [
        "ten",
        -9.785771660438995
      ],
      [
        "▁operate",
        -9.785851807756218
      ],
      [
        "▁sign",
        -9.78588572829121
      ],
      [
        "▁Earth",
        -9.786462338101474
      ],
      [
        "▁license",
        -9.786901546275187
      ],
      [
        "▁voice",
        -9.78693183961161
      ],
      [
        "▁ten",
        -9.786993984770218
      ],
      [
        "▁picture",
        -9.787020794689042
      ],
      [
        "▁paragraph",
        -9.7870390876254
      ],
      [
        "▁shown",
        -9.787476333581282
      ],
      [
        "ill",
        -9.78777150992168
      ],
      [
        "▁decisions",
        -9.788152767472914
      ],
      [
        "click",
        -9.78854352015643
      ],
      [
        "▁regular",
        -9.789397405224541
      ],
      [
        "▁patent",
        -9.78945924618305
      ],
      [
        "▁aimed",
        -9.789960267478508
      ],
      [
        "▁Policy",
        -9.791793901125041
      ],
      [
        "▁dedicated",
        -9.792231997776248
      ],
      [
        "▁automatically",
        -9.793315354323354
      ],
      [
        "▁huge",
        -9.79345553452003
      ],
      [
        "▁Africa",
        -9.793766148473516
      ],
      [
        "▁Best",
        -9.793944669571447
      ],
      [
        "▁worth",
        -9.794253260755925
      ],
      [
        "▁Only",
        -9.794693230863897
      ],
      [
        "▁www",
        -9.794820938505627
      ],
      [
        "▁majority",
        -9.794905853489105
      ],
      [
        "▁representative",
        -9.79538320711835
      ],
      [
        "▁contribution",
        -9.795710263156566
      ],
      [
        "planned",
        -9.795942375804225
      ],
      [
        "X",
        -9.796256181498698
      ],
      [
        "▁led",
        -9.796586772697019
      ],
      [
        "▁Also",
        -9.797309380405714
      ],
      [
        "▁secure",
        -9.798696064950699
      ],
      [
        "▁seconds",
        -9.799406190967801
      ],
      [
        "▁Download",
        -9.79999345507175
      ],
      [
        "▁bit",
        -9.800325861627323
      ],
      [
        "▁objects",
        -9.800428822486541
      ],
      [
        "▁dead",
        -9.801060272056517
      ],
      [
        "▁department",
        -9.801923706764661
      ],
      [
        "▁artist",
        -9.802298876736417
      ],
      [
        "▁affect",
        -9.802307598240759
      ],
      [
        "Fi",
        -9.803381959853105
      ],
      [
        "▁agencies",
        -9.803861631101098
      ],
      [
        "▁email",
        -9.803889201823718
      ],
      [
        "▁powerful",
        -9.805003688926629
      ],
      [
        "▁Master",
        -9.805797353810712
      ],
      [
        "▁supported",
        -9.806125656601049
      ],
      [
        "▁fast",
        -9.806233333108363
      ],
      [
        "▁victim",
        -9.80744241381243
      ],
      [
        "▁obtain",
        -9.807842035518531
      ],
      [
        "▁bed",
        -9.808011234521398
      ],
      [
        "▁casino",
        -9.808617212714957
      ],
      [
        "▁Light",
        -9.808685578241532
      ],
      [
        "▁inter",
        -9.810904891797922
      ],
      [
        "▁soul",
        -9.811468593153396
      ],
      [
        "▁rating",
        -9.812123349173035
      ],
      [
        "▁Western",
        -9.8127166251621
      ],
      [
        "▁toward",
        -9.813016868507539
      ],
      [
        "▁David",
        -9.813660374236632
      ],
      [
        "▁happened",
        -9.813972218999943
      ],
      [
        "▁teaching",
        -9.814246237959098
      ],
      [
        "▁purchase",
        -9.81496798305467
      ],
      [
        "▁record",
        -9.815184616678696
      ],
      [
        "▁playing",
        -9.815404956989479
      ],
      [
        "▁guide",
        -9.815658445823106
      ],
      [
        "▁trust",
        -9.817747330535779
      ],
      [
        "▁forest",
        -9.817799378711438
      ],
      [
        "▁extend",
        -9.8186620037917
      ],
      [
        "▁Support",
        -9.818849194879602
      ],
      [
        "▁setting",
        -9.818929787611788
      ],
      [
        "▁ideal",
        -9.819305158031593
      ],
      [
        "▁Deputy",
        -9.820025945863843
      ],
      [
        "▁Forum",
        -9.820437517292627
      ],
      [
        "▁markets",
        -9.821094914861753
      ],
      [
        "▁promotion",
        -9.82116497531782
      ],
      [
        "▁Box",
        -9.821524487857006
      ],
      [
        "▁criminal",
        -9.821683883536032
      ],
      [
        "▁benefits",
        -9.821756466372486
      ],
      [
        "ice",
        -9.82321523353501
      ],
      [
        "▁massage",
        -9.823295123914924
      ],
      [
        "▁expressed",
        -9.823310254941362
      ],
      [
        "way",
        -9.823576570600117
      ],
      [
        "▁meetings",
        -9.823987147544402
      ],
      [
        "▁beauty",
        -9.826023796200003
      ],
      [
        "▁Women",
        -9.826192055129761
      ],
      [
        "▁anyone",
        -9.827351378137225
      ],
      [
        "▁internet",
        -9.827436719920897
      ],
      [
        "▁hot",
        -9.828031045435406
      ],
      [
        "▁efficient",
        -9.828514199622404
      ],
      [
        "▁Man",
        -9.828910801417575
      ],
      [
        "▁India",
        -9.83006688835299
      ],
      [
        "▁import",
        -9.83077196687034
      ],
      [
        "▁Kazakh",
        -9.831213149487429
      ],
      [
        "▁fine",
        -9.831258461609082
      ],
      [
        "▁remove",
        -9.831495262604703
      ],
      [
        "▁Poker",
        -9.831802960643383
      ],
      [
        "▁School",
        -9.832496328498767
      ],
      [
        "▁historical",
        -9.834293390925273
      ],
      [
        "▁benefit",
        -9.835019858659194
      ],
      [
        "▁instead",
        -9.835486823156986
      ],
      [
        "▁Iron",
        -9.835620638242874
      ],
      [
        "▁evening",
        -9.835850204276065
      ],
      [
        "▁zone",
        -9.83790585412159
      ],
      [
        "▁remote",
        -9.838085954300013
      ],
      [
        "▁listen",
        -9.839283533656651
      ],
      [
        "▁although",
        -9.839420259677516
      ],
      [
        "▁universe",
        -9.839428289601079
      ],
      [
        "▁negative",
        -9.840814249620722
      ],
      [
        "▁gives",
        -9.840819991433232
      ],
      [
        "▁author",
        -9.841207976721927
      ],
      [
        "▁sources",
        -9.842030136944972
      ],
      [
        "▁Any",
        -9.842333624635152
      ],
      [
        "▁hour",
        -9.845951283931901
      ],
      [
        "registry",
        -9.846504249767285
      ],
      [
        "▁Bar",
        -9.846781556605468
      ],
      [
        "▁registered",
        -9.846861164159955
      ],
      [
        "▁evidence",
        -9.847248585769792
      ],
      [
        "▁authority",
        -9.84763910879652
      ],
      [
        "▁Two",
        -9.849474075434527
      ],
      [
        "▁heat",
        -9.849859822906089
      ],
      [
        "▁visitors",
        -9.851257301970998
      ],
      [
        "▁banks",
        -9.853285640659369
      ],
      [
        "▁assets",
        -9.853925485990406
      ],
      [
        "quality",
        -9.854797029962905
      ],
      [
        "▁item",
        -9.85544994579307
      ],
      [
        "▁schools",
        -9.85578159804068
      ],
      [
        "▁approved",
        -9.856063649320078
      ],
      [
        "▁Member",
        -9.856179945476573
      ],
      [
        "▁link",
        -9.85631888286671
      ],
      [
        "▁electric",
        -9.856810552951824
      ],
      [
        "▁proposed",
        -9.857597944650598
      ],
      [
        "▁Son",
        -9.857655532139571
      ],
      [
        "▁flow",
        -9.858223773385285
      ],
      [
        "▁tour",
        -9.860046818760653
      ],
      [
        "▁Parliament",
        -9.86062089264525
      ],
      [
        "▁apartments",
        -9.861004596270465
      ],
      [
        "▁UNESCO",
        -9.862506042335525
      ],
      [
        "▁JSC",
        -9.86334280717075
      ],
      [
        "▁electoral",
        -9.863401482803738
      ],
      [
        "▁growing",
        -9.863419144574792
      ],
      [
        "▁suitable",
        -9.86430210870662
      ],
      [
        "▁submitted",
        -9.864506611895592
      ],
      [
        "▁acts",
        -9.86476882171856
      ],
      [
        "▁cold",
        -9.86508567668818
      ],
      [
        "▁winter",
        -9.86590848938332
      ],
      [
        "▁agreed",
        -9.866603509721132
      ],
      [
        "▁sphere",
        -9.866914878912338
      ],
      [
        "▁Professor",
        -9.867339231175235
      ],
      [
        "▁certificate",
        -9.867761908965644
      ],
      [
        "released",
        -9.86783419732629
      ],
      [
        "▁factors",
        -9.868248057447072
      ],
      [
        "▁drink",
        -9.869759038887286
      ],
      [
        "▁enterprise",
        -9.869801905234299
      ],
      [
        "▁Google",
        -9.869822030856808
      ],
      [
        "▁plants",
        -9.869859863788594
      ],
      [
        "▁Such",
        -9.86994196131443
      ],
      [
        "▁provisions",
        -9.870269968774759
      ],
      [
        "▁caused",
        -9.870303375547119
      ],
      [
        "▁violence",
        -9.87215545472312
      ],
      [
        "▁Un",
        -9.872857364528572
      ],
      [
        "▁context",
        -9.873708209880363
      ],
      [
        "▁Riga",
        -9.874234906548642
      ],
      [
        "▁implemented",
        -9.874245842808005
      ],
      [
        "▁cam",
        -9.87502106051131
      ],
      [
        "▁La",
        -9.875128202463342
      ],
      [
        "▁guarantee",
        -9.875447290693423
      ],
      [
        "▁agent",
        -9.877101203197714
      ],
      [
        "▁exist",
        -9.878471145834048
      ],
      [
        "▁Japanese",
        -9.879358012772649
      ],
      [
        "▁requires",
        -9.880956491218722
      ],
      [
        "▁establishment",
        -9.88097210355807
      ],
      [
        "In",
        -9.880985572829747
      ],
      [
        "▁reveal",
        -9.881229607066029
      ],
      [
        "▁performed",
        -9.88144972960736
      ],
      [
        "▁II",
        -9.882782681722057
      ],
      [
        "▁assessment",
        -9.882927481944387
      ],
      [
        "▁starting",
        -9.884270310870324
      ],
      [
        "▁Next",
        -9.88544336923062
      ],
      [
        "▁seems",
        -9.885535413770105
      ],
      [
        "▁visited",
        -9.886785003410715
      ],
      [
        "▁formation",
        -9.887718359401346
      ],
      [
        "▁advanced",
        -9.888429868254624
      ],
      [
        "▁copy",
        -9.88852181571179
      ],
      [
        "▁default",
        -9.88882542607236
      ],
      [
        "▁corporate",
        -9.890262570280038
      ],
      [
        "▁Christian",
        -9.891019137323621
      ],
      [
        "▁knew",
        -9.89111642468573
      ],
      [
        "▁student",
        -9.891141833430806
      ],
      [
        "▁strengthen",
        -9.891286008786732
      ],
      [
        "▁individuals",
        -9.891771683754435
      ],
      [
        "▁parents",
        -9.891810013099906
      ],
      [
        "▁relationship",
        -9.891810694580549
      ],
      [
        "▁ancient",
        -9.89206156394635
      ],
      [
        "▁selection",
        -9.893410287780503
      ],
      [
        "▁metal",
        -9.894070785973502
      ],
      [
        "▁clean",
        -9.894155011476911
      ],
      [
        "▁Tag",
        -9.894284911727635
      ],
      [
        "▁Project",
        -9.894444088902528
      ],
      [
        "▁visa",
        -9.894456627626186
      ],
      [
        "der",
        -9.894836201781072
      ],
      [
        "▁cash",
        -9.895144176712677
      ],
      [
        "▁edit",
        -9.895790368998068
      ],
      [
        "▁images",
        -9.89584734370962
      ],
      [
        "▁principle",
        -9.896425539714002
      ],
      [
        "▁digital",
        -9.89704516228355
      ],
      [
        "▁late",
        -9.897215009525846
      ],
      [
        "ev",
        -9.897527694732457
      ],
      [
        "▁Number",
        -9.898447819801811
      ],
      [
        "▁Alexander",
        -9.899780970630443
      ],
      [
        "▁green",
        -9.900350678788563
      ],
      [
        "▁preparation",
        -9.902103878325095
      ],
      [
        "▁camera",
        -9.902894927814105
      ],
      [
        "▁poor",
        -9.903725105648448
      ],
      [
        "▁attract",
        -9.904386094870022
      ],
      [
        "▁Prime",
        -9.904657896678435
      ],
      [
        "▁story",
        -9.90477878918026
      ],
      [
        "▁character",
        -9.9048621891797
      ],
      [
        "▁Force",
        -9.905051618713204
      ],
      [
        "▁weapons",
        -9.905150608599406
      ],
      [
        "▁manager",
        -9.905573406540842
      ],
      [
        "▁Water",
        -9.906366724943707
      ],
      [
        "▁York",
        -9.906663632303516
      ],
      [
        "Z",
        -9.90677983708165
      ],
      [
        "▁board",
        -9.906910074499073
      ],
      [
        "▁fruit",
        -9.907128236420604
      ],
      [
        "▁enem",
        -9.90769676949746
      ],
      [
        "▁View",
        -9.908580325552016
      ],
      [
        "▁strategic",
        -9.909844049106097
      ],
      [
        "▁Size",
        -9.909860060203632
      ],
      [
        "▁elegant",
        -9.910240642840103
      ],
      [
        "▁Energy",
        -9.910712126702204
      ],
      [
        "Q",
        -9.91117836104714
      ],
      [
        "▁specialists",
        -9.911189793286256
      ],
      [
        "▁parking",
        -9.911538824184365
      ],
      [
        "▁tasks",
        -9.9117797699401
      ],
      [
        "▁engine",
        -9.911902017310478
      ],
      [
        "▁menu",
        -9.911984698953187
      ],
      [
        "▁concerned",
        -9.91319564157621
      ],
      [
        "▁primary",
        -9.91324627209719
      ],
      [
        "▁describe",
        -9.913616126755295
      ],
      [
        "▁Car",
        -9.914137342107443
      ],
      [
        "▁consideration",
        -9.914811988628163
      ],
      [
        "▁passed",
        -9.915319247900989
      ],
      [
        "▁procedures",
        -9.915588658772736
      ],
      [
        "▁born",
        -9.915684498435652
      ],
      [
        "▁Wi",
        -9.917088952694225
      ],
      [
        "▁purposes",
        -9.917469378518756
      ],
      [
        "▁Children",
        -9.91754714267336
      ],
      [
        "▁expand",
        -9.917959017075747
      ],
      [
        "▁Allah",
        -9.918376515234721
      ],
      [
        "▁Exhibition",
        -9.918486253265977
      ],
      [
        "▁normal",
        -9.918608748142788
      ],
      [
        "screen",
        -9.918679439114044
      ],
      [
        "▁Research",
        -9.918747783297505
      ],
      [
        "▁recommendations",
        -9.919633476558415
      ],
      [
        "aid",
        -9.920631548126977
      ],
      [
        "▁placed",
        -9.921048144519801
      ],
      [
        "▁sub",
        -9.921173554074198
      ],
      [
        "▁studies",
        -9.921437974473234
      ],
      [
        "▁island",
        -9.92146303283064
      ],
      [
        "▁administrative",
        -9.92303334323134
      ],
      [
        "free",
        -9.92341337040994
      ],
      [
        "▁families",
        -9.923738670527356
      ],
      [
        "▁Click",
        -9.92448330912399
      ],
      [
        "▁Italy",
        -9.924832990719503
      ],
      [
        "her",
        -9.924901559820507
      ],
      [
        "▁getting",
        -9.925673409469255
      ],
      [
        "▁insurance",
        -9.925845673632434
      ],
      [
        "▁Book",
        -9.926340237930724
      ],
      [
        "▁officer",
        -9.926498036515762
      ],
      [
        "▁agree",
        -9.927214278697138
      ],
      [
        "▁evil",
        -9.927485881465868
      ],
      [
        "@",
        -9.927545131382258
      ],
      [
        "▁recently",
        -9.927850524968365
      ],
      [
        "▁seat",
        -9.9283884095142
      ],
      [
        "▁museum",
        -9.92902840448654
      ],
      [
        "▁win",
        -9.929141271947818
      ],
      [
        "▁Him",
        -9.929486144044716
      ],
      [
        "▁welcome",
        -9.929669692744488
      ],
      [
        "▁Mehriban",
        -9.93077733870377
      ],
      [
        "▁discuss",
        -9.931217289332396
      ],
      [
        "▁Science",
        -9.932018106690503
      ],
      [
        "▁Finally",
        -9.932147781091293
      ],
      [
        "▁tourism",
        -9.932418240836594
      ],
      [
        "▁spread",
        -9.933627801641135
      ],
      [
        "▁grow",
        -9.934117501959657
      ],
      [
        "▁Wind",
        -9.935188517001297
      ],
      [
        "▁clearly",
        -9.93519262799376
      ],
      [
        "▁Heating",
        -9.935337029664158
      ],
      [
        "▁category",
        -9.935488338765392
      ],
      [
        "hose",
        -9.937033883301464
      ],
      [
        "▁About",
        -9.938826079671784
      ],
      [
        "▁Over",
        -9.938965140827584
      ],
      [
        "▁youth",
        -9.939838280342746
      ],
      [
        "▁Protection",
        -9.939839409727835
      ],
      [
        "▁treat",
        -9.941148187012512
      ],
      [
        "▁shower",
        -9.941369473630388
      ],
      [
        "▁Although",
        -9.941830175308095
      ],
      [
        "▁furniture",
        -9.94276860007425
      ],
      [
        "▁Federal",
        -9.94316718873162
      ],
      [
        "▁Turkey",
        -9.943722508785884
      ],
      [
        "▁mom",
        -9.94380931409535
      ],
      [
        "▁Paul",
        -9.943842336923169
      ],
      [
        "▁delegation",
        -9.944259024554933
      ],
      [
        "▁Academy",
        -9.944557379439228
      ],
      [
        "▁output",
        -9.944684352373143
      ],
      [
        "▁cm",
        -9.945142564001674
      ],
      [
        "▁feet",
        -9.945472950126781
      ],
      [
        "▁beyon",
        -9.94786818485985
      ],
      [
        "▁Channel",
        -9.947871880769744
      ],
      [
        "▁integration",
        -9.947910637251388
      ],
      [
        "▁personnel",
        -9.94845463548893
      ],
      [
        "▁Every",
        -9.948670748467721
      ],
      [
        "▁border",
        -9.949944522663404
      ],
      [
        "▁webcam",
        -9.951236846531115
      ],
      [
        "▁respective",
        -9.951303289413872
      ],
      [
        "▁touch",
        -9.952983656101644
      ],
      [
        "▁rent",
        -9.953043260497223
      ],
      [
        "▁Armenian",
        -9.953367548318589
      ],
      [
        "▁slow",
        -9.954317785911226
      ],
      [
        "▁competitive",
        -9.95514738417038
      ],
      [
        "▁circumstance",
        -9.955357751583795
      ],
      [
        "▁innovation",
        -9.955472684635188
      ],
      [
        "▁Private",
        -9.955895713587047
      ],
      [
        "▁host",
        -9.95600623248218
      ],
      [
        "▁Data",
        -9.956807751215331
      ],
      [
        "▁park",
        -9.957446117491216
      ],
      [
        "▁daughter",
        -9.958020795079465
      ],
      [
        "▁becomes",
        -9.959363697804916
      ],
      [
        "▁letter",
        -9.959837185212075
      ],
      [
        "▁description",
        -9.960498762016092
      ],
      [
        "▁rich",
        -9.960527927074152
      ],
      [
        "▁permission",
        -9.960533337336981
      ],
      [
        "▁friend",
        -9.961821325180734
      ],
      [
        "▁initial",
        -9.96276870216243
      ],
      [
        "▁suggest",
        -9.964385403997861
      ],
      [
        "▁multiple",
        -9.965589946615417
      ],
      [
        "▁foundation",
        -9.965893670932374
      ],
      [
        "▁comprehensive",
        -9.965994687787296
      ],
      [
        "▁sun",
        -9.966658746932616
      ],
      [
        "▁probably",
        -9.966735626769367
      ],
      [
        "▁reflect",
        -9.968266352641773
      ],
      [
        "▁join",
        -9.968279446540315
      ],
      [
        "▁garden",
        -9.968383330711637
      ],
      [
        "▁bedroom",
        -9.968539596918808
      ],
      [
        "▁seek",
        -9.968822739424866
      ],
      [
        "▁platform",
        -9.968957712869031
      ],
      [
        "▁Design",
        -9.969088496013462
      ],
      [
        "▁configure",
        -9.969538031222081
      ],
      [
        "▁worked",
        -9.969642758371702
      ],
      [
        "▁Japan",
        -9.969820241995139
      ],
      [
        "▁ratio",
        -9.969938232975553
      ],
      [
        "▁specify",
        -9.97041371842773
      ],
      [
        "▁computers",
        -9.971115624403877
      ],
      [
        "▁radio",
        -9.971463373728943
      ],
      [
        "▁identify",
        -9.971792587610596
      ],
      [
        "▁extra",
        -9.971873141282021
      ],
      [
        "▁cut",
        -9.972662566658377
      ],
      [
        "▁anniversar",
        -9.972677373138628
      ],
      [
        "е",
        -9.972989169841933
      ],
      [
        "▁wait",
        -9.973280267761762
      ],
      [
        "▁director",
        -9.975285971745562
      ],
      [
        "▁milf",
        -9.975647120213631
      ],
      [
        "▁meaning",
        -9.975770982389223
      ],
      [
        "▁resistance",
        -9.97602921481728
      ],
      [
        "▁HIV",
        -9.976414503252114
      ],
      [
        "▁wall",
        -9.97647669321584
      ],
      [
        "▁Technical",
        -9.976869642665424
      ],
      [
        "▁Material",
        -9.976954270964235
      ],
      [
        "▁Up",
        -9.977181271645259
      ],
      [
        "é",
        -9.977507049973251
      ],
      [
        "▁Toilet",
        -9.977785670684533
      ],
      [
        "▁Working",
        -9.978485891182846
      ],
      [
        "▁dark",
        -9.978563123464271
      ],
      [
        "▁names",
        -9.978732854237688
      ],
      [
        "▁fields",
        -9.978873547476837
      ],
      [
        "▁estate",
        -9.978934072558761
      ],
      [
        "▁fresh",
        -9.979027036360902
      ],
      [
        "▁accommodation",
        -9.980639005856316
      ],
      [
        "▁Camel",
        -9.980740669189304
      ],
      [
        "▁manage",
        -9.980799674960718
      ],
      [
        "▁goals",
        -9.982076768472746
      ],
      [
        "▁Jew",
        -9.982237715790358
      ],
      [
        "▁intelligence",
        -9.984276186634695
      ],
      [
        "▁reliable",
        -9.985118705154568
      ],
      [
        "▁Account",
        -9.986941458162518
      ],
      [
        "▁officials",
        -9.987156841030181
      ],
      [
        "▁regime",
        -9.987652423754772
      ],
      [
        "▁Mother",
        -9.988173766391824
      ],
      [
        "▁south",
        -9.989352146266041
      ],
      [
        "▁title",
        -9.989629949912896
      ],
      [
        "▁wear",
        -9.99003840735942
      ],
      [
        "▁detailed",
        -9.99093287527953
      ],
      [
        "▁Jewish",
        -9.992912511605535
      ],
      [
        "▁speech",
        -9.993049066514118
      ],
      [
        "▁closed",
        -9.994077626627618
      ],
      [
        "▁Video",
        -9.994909026950042
      ],
      [
        "▁heating",
        -9.99625996018197
      ],
      [
        "▁adult",
        -9.996499755590335
      ],
      [
        "▁Agency",
        -9.996562912644304
      ],
      [
        "▁factor",
        -9.998336879022085
      ],
      [
        "▁Top",
        -9.998366225684522
      ],
      [
        "▁stone",
        -9.998524194763773
      ],
      [
        "party",
        -9.999285206566563
      ],
      [
        "▁models",
        -9.999511439352952
      ],
      [
        "▁drug",
        -9.999708906345417
      ],
      [
        "▁manner",
        -10.00004966477291
      ],
      [
        "▁photos",
        -10.000917292892998
      ],
      [
        "▁provision",
        -10.002544015509162
      ],
      [
        "▁port",
        -10.002977489084374
      ],
      [
        "▁Total",
        -10.003145330600372
      ],
      [
        "▁train",
        -10.005142297777775
      ],
      [
        "▁Asian",
        -10.005160340550516
      ],
      [
        "▁dis",
        -10.005520054139398
      ],
      [
        "▁traffic",
        -10.005525938171207
      ],
      [
        "▁debt",
        -10.005639973144012
      ],
      [
        "▁advantage",
        -10.005810384349951
      ],
      [
        "▁Android",
        -10.007437913385743
      ],
      [
        "▁Friday",
        -10.00853177589325
      ],
      [
        "▁determined",
        -10.008774059227383
      ],
      [
        "▁hundred",
        -10.009413551258097
      ],
      [
        "▁Trade",
        -10.009809093499559
      ],
      [
        "Smoking",
        -10.009910091957371
      ],
      [
        "▁holding",
        -10.010674070142679
      ],
      [
        "▁bonus",
        -10.010716755931266
      ],
      [
        "sustainable",
        -10.011303514300495
      ],
      [
        "▁Regional",
        -10.01192259857559
      ],
      [
        "▁folder",
        -10.012207238643594
      ],
      [
        "▁write",
        -10.012428049539185
      ],
      [
        "▁concert",
        -10.012548517735762
      ],
      [
        "▁tons",
        -10.013260428555014
      ],
      [
        "▁books",
        -10.013499664214839
      ],
      [
        "▁Agreement",
        -10.013748818507821
      ],
      [
        "▁existence",
        -10.014027655326075
      ],
      [
        "▁dress",
        -10.014882833083059
      ],
      [
        "▁Select",
        -10.015201095798538
      ],
      [
        "▁terrace",
        -10.015817963454435
      ],
      [
        "▁cool",
        -10.01718461859543
      ],
      [
        "▁consumption",
        -10.017263321878813
      ],
      [
        "▁glass",
        -10.021301456001183
      ],
      [
        "▁London",
        -10.021706888537416
      ],
      [
        "▁Shower",
        -10.021976902544344
      ],
      [
        "▁followed",
        -10.022111586705506
      ],
      [
        "▁demonstrate",
        -10.0222491422892
      ],
      [
        "▁Flower",
        -10.022475055662238
      ],
      [
        "▁exclusive",
        -10.022741453409246
      ],
      [
        "▁Paris",
        -10.023862738482947
      ],
      [
        "▁utilize",
        -10.024466081236811
      ],
      [
        "▁innovative",
        -10.024629487304976
      ],
      [
        "▁blonde",
        -10.024882235941908
      ],
      [
        "▁integrated",
        -10.024926436805078
      ],
      [
        "▁Create",
        -10.025190758250789
      ],
      [
        "▁tea",
        -10.025546344057704
      ],
      [
        "▁except",
        -10.025763559330631
      ],
      [
        "▁commitment",
        -10.025999326137073
      ],
      [
        "▁thanks",
        -10.028133055251006
      ],
      [
        "▁felt",
        -10.029444533940339
      ],
      [
        "▁register",
        -10.029776504688348
      ],
      [
        "▁entry",
        -10.029780661910271
      ],
      [
        "▁expect",
        -10.029803114826798
      ],
      [
        "▁match",
        -10.030421643913533
      ],
      [
        "▁Get",
        -10.030714924089196
      ],
      [
        "▁slight",
        -10.031112899445011
      ],
      [
        "▁provider",
        -10.03209919284226
      ],
      [
        "▁machines",
        -10.0323059027287
      ],
      [
        "▁programmes",
        -10.033329450658321
      ],
      [
        "▁poker",
        -10.033651920008369
      ],
      [
        "▁breakfast",
        -10.03376756575377
      ],
      [
        "▁numerous",
        -10.034414342859465
      ],
      [
        "▁availabilit",
        -10.035390923335802
      ],
      [
        "▁seminar",
        -10.03624605544437
      ],
      [
        "▁die",
        -10.0365078745784
      ],
      [
        "▁minimum",
        -10.03741554108844
      ],
      [
        "▁limit",
        -10.037697833334736
      ],
      [
        "ler",
        -10.03777338610566
      ],
      [
        "▁Mo",
        -10.038536337089495
      ],
      [
        "▁Italian",
        -10.038680593795121
      ],
      [
        "▁interview",
        -10.039509455645169
      ],
      [
        "▁thinking",
        -10.039803562882064
      ],
      [
        "▁pain",
        -10.040031241839513
      ],
      [
        "▁ensuring",
        -10.040147947706814
      ],
      [
        "▁reduction",
        -10.041154245364767
      ],
      [
        "▁Good",
        -10.041168235801617
      ],
      [
        "▁flat",
        -10.041303182214211
      ],
      [
        "▁desire",
        -10.041310444302969
      ],
      [
        "▁toys",
        -10.042487296406778
      ],
      [
        "see",
        -10.044035629768313
      ],
      [
        "▁stability",
        -10.045145488978855
      ],
      [
        "▁employment",
        -10.04614930829489
      ],
      [
        "selves",
        -10.04713427465749
      ],
      [
        "▁British",
        -10.047588453511104
      ],
      [
        "room",
        -10.048130492231692
      ],
      [
        "▁heaven",
        -10.04829946571509
      ],
      [
        "▁climate",
        -10.048385718280532
      ],
      [
        "▁Current",
        -10.049695506014526
      ],
      [
        "▁cent",
        -10.050317469184227
      ],
      [
        "▁journalists",
        -10.050994700546704
      ],
      [
        "▁writing",
        -10.051578418020224
      ],
      [
        "▁Parties",
        -10.05198804699319
      ],
      [
        "▁Control",
        -10.052100317093858
      ],
      [
        "▁filter",
        -10.052128346303602
      ],
      [
        "▁currency",
        -10.052476432261194
      ],
      [
        "▁permanent",
        -10.05260430025457
      ],
      [
        "▁recovery",
        -10.05343292843503
      ],
      [
        "▁enhance",
        -10.053825953128031
      ],
      [
        "▁resource",
        -10.054446768349795
      ],
      [
        "▁configuration",
        -10.054827261326505
      ],
      [
        "▁wine",
        -10.055007419827666
      ],
      [
        "▁stock",
        -10.055324693768405
      ],
      [
        "▁passenger",
        -10.057698233269026
      ],
      [
        "▁agricultural",
        -10.058366597601939
      ],
      [
        "▁gather",
        -10.058961899113692
      ],
      [
        "▁introduced",
        -10.059442002597331
      ],
      [
        "▁aim",
        -10.059614288511716
      ],
      [
        "▁notice",
        -10.059890356957082
      ],
      [
        "▁Price",
        -10.060558111029763
      ],
      [
        "kin",
        -10.060711410932198
      ],
      [
        "▁committed",
        -10.061256022353506
      ],
      [
        "▁impossible",
        -10.062219195344987
      ],
      [
        "▁Vacation",
        -10.062220015342765
      ],
      [
        "▁combat",
        -10.063674920375236
      ],
      [
        "▁teen",
        -10.063806626457174
      ],
      [
        "▁happen",
        -10.063822678185979
      ],
      [
        "▁Under",
        -10.065080512445164
      ],
      [
        "▁giving",
        -10.065571776176716
      ],
      [
        "▁Once",
        -10.065708242653539
      ],
      [
        "▁driver",
        -10.065832964063118
      ],
      [
        "▁Egypt",
        -10.066215229487456
      ],
      [
        "tended",
        -10.066500828008332
      ],
      [
        "▁approximately",
        -10.067551115255569
      ],
      [
        "▁street",
        -10.068311017148226
      ],
      [
        "▁religion",
        -10.068891456209304
      ],
      [
        "▁achieved",
        -10.068976016605465
      ],
      [
        "▁actual",
        -10.070669525674532
      ],
      [
        "bedroom",
        -10.071279833842562
      ],
      [
        "▁EUR",
        -10.071353593550569
      ],
      [
        "▁recognized",
        -10.071361377321121
      ],
      [
        "▁waste",
        -10.072878415867073
      ],
      [
        "▁advance",
        -10.075333029142664
      ],
      [
        "▁Saint",
        -10.0757533999582
      ],
      [
        "▁nation",
        -10.075797347605683
      ],
      [
        "▁wood",
        -10.07598365625223
      ],
      [
        "▁forum",
        -10.076879114843582
      ],
      [
        "read",
        -10.077103544866224
      ],
      [
        "▁Sciences",
        -10.077151762407109
      ],
      [
        "▁Czech",
        -10.077252185414693
      ],
      [
        "▁Club",
        -10.077999288546238
      ],
      [
        "▁Programme",
        -10.078327779835156
      ],
      [
        "▁effort",
        -10.078413059514908
      ],
      [
        "▁club",
        -10.07849371449343
      ],
      [
        "▁overall",
        -10.079337257201036
      ],
      [
        "▁El",
        -10.081490804548034
      ],
      [
        "▁successfully",
        -10.08155737644029
      ],
      [
        "▁Street",
        -10.081839528341138
      ],
      [
        "▁appeal",
        -10.08243281081918
      ],
      [
        "▁destination",
        -10.082755566797674
      ],
      [
        "▁failure",
        -10.082867290103518
      ],
      [
        "ring",
        -10.083006534164436
      ],
      [
        "▁rise",
        -10.084938719358696
      ],
      [
        "▁Last",
        -10.085216698963324
      ],
      [
        "▁Grand",
        -10.085883664321388
      ],
      [
        "▁plastic",
        -10.085934146343906
      ],
      [
        "▁dew",
        -10.086352785676576
      ],
      [
        "▁creative",
        -10.086590502254774
      ],
      [
        "▁medium",
        -10.087190486742038
      ],
      [
        "▁assist",
        -10.087515079398436
      ],
      [
        "▁Life",
        -10.087576239929373
      ],
      [
        "▁follows",
        -10.089067198493957
      ],
      [
        "▁significantly",
        -10.089826384508159
      ],
      [
        "▁expert",
        -10.089839762298409
      ],
      [
        "▁Travel",
        -10.089957710566713
      ],
      [
        "▁calls",
        -10.090009056450716
      ],
      [
        "▁sufficient",
        -10.09041626621904
      ],
      [
        "▁Play",
        -10.090604498631528
      ],
      [
        "▁block",
        -10.091180312121523
      ],
      [
        "▁prior",
        -10.09120070691275
      ],
      [
        "▁Sunday",
        -10.092788517125188
      ],
      [
        "▁belong",
        -10.09296529824059
      ],
      [
        "▁profile",
        -10.093416644290462
      ],
      [
        "▁instance",
        -10.093668239223337
      ],
      [
        "▁labor",
        -10.093771941981261
      ],
      [
        "we",
        -10.094056175847513
      ],
      [
        "▁appearance",
        -10.094070479872862
      ],
      [
        "▁monitor",
        -10.094373689862143
      ],
      [
        "our",
        -10.094879267660335
      ],
      [
        "▁indicate",
        -10.094894313225714
      ],
      [
        "▁launched",
        -10.095203753399593
      ],
      [
        "old",
        -10.09592989927821
      ],
      [
        "Another",
        -10.09653072205819
      ],
      [
        "▁flowers",
        -10.097586503437968
      ],
      [
        "▁printing",
        -10.098140287126984
      ],
      [
        "▁Order",
        -10.098213707014933
      ],
      [
        "▁Poland",
        -10.098265544111273
      ],
      [
        "▁coffee",
        -10.098377516887926
      ],
      [
        "▁hall",
        -10.099339509384192
      ],
      [
        "▁contribute",
        -10.09967632225609
      ],
      [
        "▁dynamic",
        -10.0997877666814
      ],
      [
        "▁languages",
        -10.100444061861053
      ],
      [
        "▁quiet",
        -10.100836573479608
      ],
      [
        "ger",
        -10.10124225262209
      ],
      [
        "▁reading",
        -10.101528552605991
      ],
      [
        "▁thy",
        -10.101954352443164
      ],
      [
        "▁Contact",
        -10.10210886972112
      ],
      [
        "▁revolutionary",
        -10.102255220113562
      ],
      [
        "▁university",
        -10.102386089981659
      ],
      [
        "▁channel",
        -10.102873551761219
      ],
      [
        "▁error",
        -10.10300146335204
      ],
      [
        "▁priority",
        -10.103341015454832
      ],
      [
        "®",
        -10.103427061480232
      ],
      [
        "▁spoke",
        -10.103823286939106
      ],
      [
        "▁delivered",
        -10.104331855498646
      ],
      [
        "▁shares",
        -10.104563272143778
      ],
      [
        "▁Men",
        -10.10500369220607
      ],
      [
        "▁doctor",
        -10.105675947856916
      ],
      [
        "▁opens",
        -10.10615307182551
      ],
      [
        "▁Global",
        -10.106704210275604
      ],
      [
        "▁candidates",
        -10.106793997448552
      ],
      [
        "▁Serbian",
        -10.10699685607873
      ],
      [
        "▁Astana",
        -10.10715777768433
      ],
      [
        "▁Jehovah",
        -10.10753717029355
      ],
      [
        "▁abroad",
        -10.107942081444463
      ],
      [
        "▁Peter",
        -10.108036845591567
      ],
      [
        "▁Supplier",
        -10.108653210903677
      ],
      [
        "▁goes",
        -10.10942238106958
      ],
      [
        "▁kill",
        -10.109706517322918
      ],
      [
        "▁birth",
        -10.10974473594068
      ],
      [
        "▁drag",
        -10.110486953449398
      ],
      [
        "▁killed",
        -10.11102502368941
      ],
      [
        "▁bus",
        -10.111787371269077
      ],
      [
        "▁rank",
        -10.111918236770306
      ],
      [
        "▁decrease",
        -10.112124338926272
      ],
      [
        "▁casinos",
        -10.11247510026843
      ],
      [
        "▁newspaper",
        -10.113422468573424
      ],
      [
        "<",
        -10.113702417625136
      ],
      [
        "▁dialogue",
        -10.114058119757104
      ],
      [
        "▁NATO",
        -10.114318968661168
      ],
      [
        "▁investors",
        -10.114665761735703
      ],
      [
        "▁resort",
        -10.114869274860396
      ],
      [
        "▁height",
        -10.114925885808367
      ],
      [
        "▁Finance",
        -10.115181954012806
      ],
      [
        "▁agency",
        -10.115233033041894
      ],
      [
        "side",
        -10.115885269758344
      ],
      [
        "▁cards",
        -10.116087702275818
      ],
      [
        "▁tried",
        -10.116444045021321
      ],
      [
        "▁Harry",
        -10.116926656751511
      ],
      [
        "▁algorithm",
        -10.11706525264606
      ],
      [
        "▁divine",
        -10.117138859389918
      ],
      [
        "TM",
        -10.118982466755185
      ],
      [
        "▁engineering",
        -10.11976050338037
      ],
      [
        "▁swimming",
        -10.120085003144919
      ],
      [
        "▁trip",
        -10.12082895328764
      ],
      [
        "▁served",
        -10.121927336139514
      ],
      [
        "▁lose",
        -10.121929559962917
      ],
      [
        "▁express",
        -10.12196370734316
      ],
      [
        "▁sleep",
        -10.12248749777175
      ],
      [
        "▁fetish",
        -10.123078582017193
      ],
      [
        "▁Quality",
        -10.123632472597233
      ],
      [
        "▁ladyboy",
        -10.123763194727575
      ],
      [
        "▁houses",
        -10.123998085010749
      ],
      [
        "▁Type",
        -10.124157195792447
      ],
      [
        "▁managed",
        -10.124721101406944
      ],
      [
        "▁presentation",
        -10.125186884349445
      ],
      [
        "▁saving",
        -10.125297856102863
      ],
      [
        "▁animals",
        -10.12533495961436
      ],
      [
        "▁Description",
        -10.125588229097298
      ],
      [
        "air",
        -10.125956365651426
      ],
      [
        "▁element",
        -10.126635303123226
      ],
      [
        "▁universal",
        -10.126779702443814
      ],
      [
        "▁origin",
        -10.126931079022262
      ],
      [
        "▁moments",
        -10.127540780463935
      ],
      [
        "▁outdoor",
        -10.127640518565997
      ],
      [
        "▁Festival",
        -10.127960329616247
      ],
      [
        "▁concrete",
        -10.128830145271037
      ],
      [
        "▁load",
        -10.129182364575946
      ],
      [
        "▁reference",
        -10.129918691025885
      ],
      [
        "▁Executive",
        -10.129924296264983
      ],
      [
        "minute",
        -10.130978230261222
      ],
      [
        "▁prepare",
        -10.13113925748802
      ],
      [
        "▁muscle",
        -10.131170338613055
      ],
      [
        "▁opposition",
        -10.131172754971834
      ],
      [
        "▁doubt",
        -10.131302308833696
      ],
      [
        "▁Non",
        -10.131306390415364
      ],
      [
        "▁north",
        -10.133052486649936
      ],
      [
        "▁manufactur",
        -10.133748236849119
      ],
      [
        "▁investments",
        -10.1340582803812
      ],
      [
        "▁reduced",
        -10.134158677100292
      ],
      [
        "▁fundamental",
        -10.13479950073568
      ],
      [
        "▁continues",
        -10.135090769232084
      ],
      [
        "▁informed",
        -10.136100234766554
      ],
      [
        "▁Start",
        -10.136407884382951
      ],
      [
        "▁spend",
        -10.138211127367175
      ],
      [
        "▁nations",
        -10.138667566735961
      ],
      [
        "▁vehicle",
        -10.139028117471726
      ],
      [
        "min",
        -10.139482358527681
      ],
      [
        "▁Old",
        -10.1402717302986
      ],
      [
        "ial",
        -10.141613090669614
      ],
      [
        "▁earlier",
        -10.1422112554864
      ],
      [
        "▁fun",
        -10.14273392658543
      ],
      [
        "▁Industry",
        -10.143180082582345
      ],
      [
        "▁kg",
        -10.14343460032976
      ],
      [
        "all",
        -10.144080630717381
      ],
      [
        "▁learning",
        -10.144180419122357
      ],
      [
        "▁precipitation",
        -10.144383395093305
      ],
      [
        "▁sort",
        -10.14505031897077
      ],
      [
        "▁map",
        -10.145192866655062
      ],
      [
        "electricity",
        -10.145244807101152
      ],
      [
        "▁suffer",
        -10.1453613926491
      ],
      [
        "▁Photo",
        -10.145370128148437
      ],
      [
        "ja",
        -10.145635108451282
      ],
      [
        "▁situate",
        -10.145683856316712
      ],
      [
        "▁conditioning",
        -10.14624347629367
      ],
      [
        "▁Take",
        -10.146262161955155
      ],
      [
        "▁typical",
        -10.14629444128269
      ],
      [
        "▁publisher",
        -10.146931411689476
      ],
      [
        "▁priest",
        -10.147116042139833
      ],
      [
        "▁shape",
        -10.147288086084561
      ],
      [
        "▁kept",
        -10.14785406524416
      ],
      [
        "▁movie",
        -10.148487485382073
      ],
      [
        "▁Standard",
        -10.148549973070656
      ],
      [
        "▁eye",
        -10.150221250595514
      ],
      [
        "▁bag",
        -10.150251621415077
      ],
      [
        "lin",
        -10.150273398590798
      ],
      [
        "▁servant",
        -10.150333809748853
      ],
      [
        "▁decline",
        -10.150427995888917
      ],
      [
        "▁atmosphere",
        -10.15078036223133
      ],
      [
        "▁print",
        -10.150856474181223
      ],
      [
        "▁Program",
        -10.151051343101157
      ],
      [
        "▁leadership",
        -10.151219540571695
      ],
      [
        "▁neither",
        -10.151555507705698
      ],
      [
        "▁structures",
        -10.151909206826133
      ],
      [
        "▁manual",
        -10.152406556917828
      ],
      [
        "▁Supreme",
        -10.15298323882305
      ],
      [
        "trading",
        -10.15335092216594
      ],
      [
        "▁otherwise",
        -10.153457761817451
      ],
      [
        "▁statements",
        -10.153459312721214
      ],
      [
        "ated",
        -10.15363591395129
      ],
      [
        "▁agenda",
        -10.153782084551365
      ],
      [
        "▁Hotels",
        -10.154558176417344
      ],
      [
        "ING",
        -10.15487283099516
      ],
      [
        "▁lesson",
        -10.155390754694704
      ],
      [
        "▁Before",
        -10.155636482962644
      ],
      [
        "▁objective",
        -10.156349286295072
      ],
      [
        "▁password",
        -10.156454083872969
      ],
      [
        "▁ceremony",
        -10.156665436997907
      ],
      [
        "▁Iran",
        -10.157242444105403
      ],
      [
        "▁shared",
        -10.15865455945533
      ],
      [
        "▁tournament",
        -10.158680621210923
      ],
      [
        "▁terrorist",
        -10.158952488506097
      ],
      [
        "ists",
        -10.159032993491177
      ],
      [
        "▁sexual",
        -10.159341280106833
      ],
      [
        "▁Real",
        -10.15951762545639
      ],
      [
        "▁granted",
        -10.159707330841897
      ],
      [
        "▁candidate",
        -10.160034339909997
      ],
      [
        "▁defined",
        -10.16083610959061
      ],
      [
        "rated",
        -10.161038751098591
      ],
      [
        "▁finished",
        -10.16159979750992
      ],
      [
        "▁dream",
        -10.162123267103631
      ],
      [
        "▁teachers",
        -10.162177366954886
      ],
      [
        "▁fastest",
        -10.16330831463931
      ],
      [
        "▁Second",
        -10.163648316313772
      ],
      [
        "▁loans",
        -10.163957791246363
      ],
      [
        "▁dollars",
        -10.164465730359641
      ],
      [
        "▁concern",
        -10.16487630461373
      ],
      [
        "▁net",
        -10.165852131354454
      ],
      [
        "▁Convert",
        -10.166955023694443
      ],
      [
        "▁encourage",
        -10.16773524495904
      ],
      [
        "▁supplier",
        -10.167803276615144
      ],
      [
        "▁rubles",
        -10.167947681711219
      ],
      [
        "▁Access",
        -10.168258805866273
      ],
      [
        "▁Press",
        -10.169321160103184
      ],
      [
        "▁girls",
        -10.169538597401168
      ],
      [
        "▁King",
        -10.16984005105392
      ],
      [
        "▁servers",
        -10.16988302717646
      ],
      [
        "▁comfort",
        -10.169897225954994
      ],
      [
        "▁practices",
        -10.170280146370956
      ],
      [
        "▁Ambassador",
        -10.171157097578186
      ],
      [
        "▁transportation",
        -10.172882820269791
      ],
      [
        "▁hardware",
        -10.172922975139382
      ],
      [
        "izing",
        -10.173346477413192
      ],
      [
        "▁Uzbekistan",
        -10.173404981561552
      ],
      [
        "▁pictures",
        -10.173737048977806
      ],
      [
        "▁Plan",
        -10.173990824543452
      ],
      [
        "▁pair",
        -10.174014440071579
      ],
      [
        "▁flight",
        -10.174237049167658
      ],
      [
        "▁Spain",
        -10.174452811440153
      ],
      [
        "▁USB",
        -10.174662792089052
      ],
      [
        "ner",
        -10.174883398084111
      ],
      [
        "▁Table",
        -10.175100422059947
      ],
      [
        "▁IT",
        -10.175285456327407
      ],
      [
        "▁improving",
        -10.175658669942836
      ],
      [
        "▁mutual",
        -10.175658682895376
      ],
      [
        "▁pro",
        -10.17569144390661
      ],
      [
        "▁figure",
        -10.17626230841797
      ],
      [
        "▁accepted",
        -10.176386312491665
      ],
      [
        "tic",
        -10.176403558602985
      ],
      [
        "▁pump",
        -10.176485704018601
      ],
      [
        "index",
        -10.178087938164433
      ],
      [
        "▁meteo",
        -10.178986252956163
      ],
      [
        "▁testing",
        -10.179767847119662
      ],
      [
        "▁teacher",
        -10.180038171925034
      ],
      [
        "▁tree",
        -10.180423169856153
      ],
      [
        "▁Area",
        -10.180689952388697
      ],
      [
        "▁husband",
        -10.18150139700847
      ],
      [
        "▁Me",
        -10.181573584845868
      ],
      [
        "lv",
        -10.182477906465564
      ],
      [
        "▁festival",
        -10.182945168452903
      ],
      [
        "▁arrival",
        -10.183396244204621
      ],
      [
        "▁appeared",
        -10.184111529176407
      ],
      [
        "▁humidity",
        -10.184610528962207
      ],
      [
        "▁acquire",
        -10.184769238133956
      ],
      [
        "spent",
        -10.184789678155559
      ],
      [
        "▁trial",
        -10.18514991631746
      ],
      [
        "▁interface",
        -10.186214075719818
      ],
      [
        "end",
        -10.186673389526492
      ],
      [
        "▁moving",
        -10.187081947013487
      ],
      [
        "▁advertising",
        -10.187558440446418
      ],
      [
        "▁branch",
        -10.187929226954006
      ],
      [
        "▁Electric",
        -10.188556551950686
      ],
      [
        "▁Machine",
        -10.188878348886984
      ],
      [
        "▁Apartment",
        -10.18918875249507
      ],
      [
        "▁marketing",
        -10.189354004726887
      ],
      [
        "Browse",
        -10.189788897362797
      ],
      [
        "▁Monday",
        -10.19124004288243
      ],
      [
        "▁collect",
        -10.191904089862982
      ],
      [
        "▁dialog",
        -10.192150470732134
      ],
      [
        "▁Read",
        -10.192445167308604
      ],
      [
        "▁instructions",
        -10.193004245503628
      ],
      [
        "▁uses",
        -10.193023860079391
      ],
      [
        "▁compliance",
        -10.193794045378862
      ],
      [
        "▁contest",
        -10.193851426844352
      ],
      [
        "▁blue",
        -10.19421166816763
      ],
      [
        "▁raise",
        -10.194217466310855
      ],
      [
        "▁spring",
        -10.194271213337698
      ],
      [
        "▁track",
        -10.194798833691914
      ],
      [
        "▁becoming",
        -10.195139131750683
      ],
      [
        "▁delete",
        -10.195622134367685
      ],
      [
        "▁nice",
        -10.196359999268305
      ],
      [
        "ex",
        -10.196650951102688
      ],
      [
        "▁Iraq",
        -10.1968783391723
      ],
      [
        "▁challenges",
        -10.197294487159526
      ],
      [
        "▁Date",
        -10.198268206652624
      ],
      [
        "▁convenient",
        -10.198581406789106
      ],
      [
        "▁panel",
        -10.19872717824958
      ],
      [
        "▁estimate",
        -10.199097365579606
      ],
      [
        "▁Ar",
        -10.199782856905205
      ],
      [
        "▁chemical",
        -10.200447770747454
      ],
      [
        "▁vision",
        -10.201273997246686
      ],
      [
        "drop",
        -10.20137052451978
      ],
      [
        "▁thou",
        -10.201445808573116
      ],
      [
        "▁drop",
        -10.201478004237126
      ],
      [
        "▁Client",
        -10.201498856447998
      ],
      [
        "▁satellite",
        -10.201603931068798
      ],
      [
        "▁moral",
        -10.202393667971702
      ],
      [
        "▁quarter",
        -10.202726903899054
      ],
      [
        "▁dangerous",
        -10.202958997876403
      ],
      [
        "wanted",
        -10.202966282942011
      ],
      [
        "▁accounts",
        -10.203137075357038
      ],
      [
        "▁UK",
        -10.203407103923618
      ],
      [
        "enko",
        -10.204108704823978
      ],
      [
        "▁pure",
        -10.204340714902383
      ],
      [
        "▁experienced",
        -10.204826233543
      ],
      [
        "▁channels",
        -10.20524148626275
      ],
      [
        "▁obvious",
        -10.206058627041266
      ],
      [
        "yan",
        -10.206593149083243
      ],
      [
        "era",
        -10.208172786636764
      ],
      [
        "▁union",
        -10.208334765858043
      ],
      [
        "where",
        -10.209012038469886
      ],
      [
        "▁Did",
        -10.209062473857035
      ],
      [
        "▁reporting",
        -10.209349761560215
      ],
      [
        "▁exceed",
        -10.209434431847212
      ],
      [
        "▁bareback",
        -10.209697956343998
      ],
      [
        "▁indicators",
        -10.209961486896612
      ],
      [
        "▁chief",
        -10.209996995873441
      ],
      [
        "▁component",
        -10.21093405365955
      ],
      [
        "▁television",
        -10.211445892970836
      ],
      [
        "▁centers",
        -10.211606357382676
      ],
      [
        "▁Kyiv",
        -10.211957176337402
      ],
      [
        "▁patients",
        -10.21261743861228
      ],
      [
        "ful",
        -10.21327621266823
      ],
      [
        "▁Culture",
        -10.213422241527983
      ],
      [
        "▁app",
        -10.213435666541434
      ],
      [
        "▁subsequent",
        -10.213981188408615
      ],
      [
        "▁wonderful",
        -10.21429738999471
      ],
      [
        "▁launch",
        -10.214484890718122
      ],
      [
        "▁Congress",
        -10.214567373077974
      ],
      [
        "▁Titan",
        -10.214864070993254
      ],
      [
        "▁Color",
        -10.216720842614656
      ],
      [
        "▁Love",
        -10.216891635323975
      ],
      [
        "▁explain",
        -10.217664331068471
      ],
      [
        "▁settlement",
        -10.218071419207277
      ],
      [
        "▁deput",
        -10.218091862159149
      ],
      [
        "▁heavy",
        -10.220354765445567
      ],
      [
        "▁gain",
        -10.220355482645493
      ],
      [
        "▁consequences",
        -10.221210626621522
      ],
      [
        "▁Green",
        -10.221869369180622
      ],
      [
        "▁loan",
        -10.22234034407595
      ],
      [
        "con",
        -10.223292311321313
      ],
      [
        "▁combined",
        -10.224362531386358
      ],
      [
        "▁Ka",
        -10.224876300364853
      ],
      [
        "▁japanese",
        -10.224926067703155
      ],
      [
        "▁DVD",
        -10.225087084398597
      ],
      [
        "▁truly",
        -10.225180165297424
      ],
      [
        "▁plug",
        -10.2253996923511
      ],
      [
        "▁sold",
        -10.225909783932726
      ],
      [
        "▁River",
        -10.226199192635795
      ],
      [
        "▁stable",
        -10.226552361246895
      ],
      [
        "▁frequent",
        -10.227946796931848
      ],
      [
        "▁Representative",
        -10.227947711892437
      ],
      [
        "▁Kingdom",
        -10.227964693528397
      ],
      [
        "▁speaking",
        -10.228448146101135
      ],
      [
        "▁mental",
        -10.228610224425466
      ],
      [
        "▁finance",
        -10.228664720734486
      ],
      [
        "▁fulfill",
        -10.229031710896342
      ],
      [
        "▁permit",
        -10.229764589613206
      ],
      [
        "▁fat",
        -10.230372536960806
      ],
      [
        "▁characteristics",
        -10.230540105323442
      ],
      [
        "▁scale",
        -10.230691056868167
      ],
      [
        "▁cleaning",
        -10.23130569206124
      ],
      [
        "▁chosen",
        -10.231484307123077
      ],
      [
        "▁Act",
        -10.231493877189145
      ],
      [
        "▁Arab",
        -10.23181590448023
      ],
      [
        "▁cycle",
        -10.231943466213549
      ],
      [
        "ova",
        -10.232372620459795
      ],
      [
        "▁interior",
        -10.232394325877257
      ],
      [
        "▁continuous",
        -10.232748707653938
      ],
      [
        "▁star",
        -10.23283208253101
      ],
      [
        "▁ski",
        -10.23355571089792
      ],
      [
        "▁obligations",
        -10.2337913219127
      ],
      [
        "▁owner",
        -10.233912713503196
      ],
      [
        "▁Their",
        -10.234069251814207
      ],
      [
        "▁gift",
        -10.234429395052524
      ],
      [
        "▁mainly",
        -10.235158454619508
      ],
      [
        "▁Thank",
        -10.235320929405939
      ],
      [
        "▁housing",
        -10.235902849983846
      ],
      [
        "tted",
        -10.236370393311645
      ],
      [
        "ship",
        -10.236398017457798
      ],
      [
        "▁Technology",
        -10.236411983627145
      ],
      [
        "▁animal",
        -10.237015392370203
      ],
      [
        "▁USD",
        -10.237574024802871
      ],
      [
        "▁profit",
        -10.237977770456864
      ],
      [
        "▁residents",
        -10.238338936541604
      ],
      [
        "▁consultation",
        -10.238598703675331
      ],
      [
        "▁automatic",
        -10.239890882649586
      ],
      [
        "bit",
        -10.239913860081842
      ],
      [
        "▁creature",
        -10.240303705657094
      ],
      [
        "armed",
        -10.240317187403631
      ],
      [
        "▁neighbor",
        -10.240338815892876
      ],
      [
        "▁protected",
        -10.24107415803707
      ],
      [
        "more",
        -10.241631055097395
      ],
      [
        "▁phase",
        -10.241737358452106
      ],
      [
        "▁plot",
        -10.2422578328183
      ],
      [
        "▁despite",
        -10.242921735945433
      ],
      [
        "▁justice",
        -10.243349656441351
      ],
      [
        "▁expression",
        -10.243412952633177
      ],
      [
        "▁core",
        -10.244683139460609
      ],
      [
        "ier",
        -10.245449182331248
      ],
      [
        "▁fee",
        -10.246111856368953
      ],
      [
        "▁defense",
        -10.247368469468713
      ],
      [
        "▁Eastern",
        -10.247586082968681
      ],
      [
        "▁eight",
        -10.248096271282025
      ],
      [
        "▁awarded",
        -10.248508446627085
      ],
      [
        "▁IDGC",
        -10.24917503751048
      ],
      [
        "▁extensive",
        -10.249773854895539
      ],
      [
        "body",
        -10.25063973981514
      ],
      [
        "▁vehicles",
        -10.250810388346956
      ],
      [
        "pending",
        -10.252109130343712
      ],
      [
        "haps",
        -10.252274144822326
      ],
      [
        "▁Action",
        -10.252302194528994
      ],
      [
        "▁fixed",
        -10.25239491083298
      ],
      [
        "ak",
        -10.253875418542876
      ],
      [
        "\\",
        -10.254034360323308
      ],
      [
        "died",
        -10.255735247981315
      ],
      [
        "▁AND",
        -10.255768895461284
      ],
      [
        "▁offices",
        -10.256141428639323
      ],
      [
        "▁critical",
        -10.25634356789686
      ],
      [
        "▁Hot",
        -10.256946593256076
      ],
      [
        "▁flower",
        -10.257029969657342
      ],
      [
        "▁Part",
        -10.259026607394638
      ],
      [
        "▁attitude",
        -10.259539770814477
      ],
      [
        "о",
        -10.260520422003752
      ],
      [
        "▁sell",
        -10.260641765050512
      ],
      [
        "capable",
        -10.261544176004634
      ],
      [
        "▁magazine",
        -10.261728002253548
      ],
      [
        "▁mid",
        -10.261957952652033
      ],
      [
        "▁instruments",
        -10.26377071115678
      ],
      [
        "▁Mac",
        -10.264294296787751
      ],
      [
        "▁metres",
        -10.264315512678529
      ],
      [
        "▁wrote",
        -10.264528292689995
      ],
      [
        "▁Set",
        -10.26491106626774
      ],
      [
        "▁Tajikistan",
        -10.265074933696441
      ],
      [
        "▁Financial",
        -10.26560342252065
      ],
      [
        "▁forth",
        -10.266370341719275
      ],
      [
        "▁binary",
        -10.266536773993069
      ],
      [
        "▁Application",
        -10.267187166570595
      ],
      [
        "▁worldwide",
        -10.267281080072081
      ],
      [
        "▁Page",
        -10.267480392690272
      ],
      [
        "▁entitled",
        -10.267701779884543
      ],
      [
        "▁CD",
        -10.268210385324204
      ],
      [
        "▁strengthening",
        -10.268346489823822
      ],
      [
        "▁villa",
        -10.268471736447655
      ],
      [
        "▁submit",
        -10.268675465744645
      ],
      [
        "▁battery",
        -10.2695457854006
      ],
      [
        "▁extent",
        -10.26981577711709
      ],
      [
        "▁fell",
        -10.270196463766066
      ],
      [
        "▁entities",
        -10.27087839058472
      ],
      [
        "stantly",
        -10.270964723475034
      ],
      [
        "▁User",
        -10.27107049829887
      ],
      [
        "▁Her",
        -10.271854689550102
      ],
      [
        "▁thank",
        -10.271898248471272
      ],
      [
        "▁Spanish",
        -10.27238158305425
      ],
      [
        "▁Bath",
        -10.2726133624439
      ],
      [
        "▁cars",
        -10.272986941129304
      ],
      [
        "▁advantages",
        -10.27320488967514
      ],
      [
        "▁Arctic",
        -10.273813556172858
      ],
      [
        "▁Square",
        -10.274160625577567
      ],
      [
        "▁Land",
        -10.274237639365774
      ],
      [
        "▁Saturday",
        -10.27424347469259
      ],
      [
        "▁Like",
        -10.274261153246906
      ],
      [
        "▁middle",
        -10.274343109362166
      ],
      [
        "▁raised",
        -10.274526972922104
      ],
      [
        "▁Euro",
        -10.274847836623584
      ],
      [
        "▁depends",
        -10.275331843389159
      ],
      [
        "▁gone",
        -10.276400262220433
      ],
      [
        "▁Note",
        -10.276740335818566
      ],
      [
        "▁refuse",
        -10.276899715727827
      ],
      [
        "ating",
        -10.277082012181893
      ],
      [
        "▁attacks",
        -10.278682286149753
      ],
      [
        "▁positions",
        -10.278933939477035
      ],
      [
        "▁Steel",
        -10.278978336048239
      ],
      [
        "chi",
        -10.279004011429725
      ],
      [
        "▁sentence",
        -10.279097789501995
      ],
      [
        "▁Sun",
        -10.279557621330785
      ],
      [
        "▁Files",
        -10.279906240407087
      ],
      [
        "▁thousands",
        -10.280115142186153
      ],
      [
        "▁advice",
        -10.280403181810495
      ],
      [
        "▁forget",
        -10.280544929302968
      ],
      [
        "entered",
        -10.28066980471048
      ],
      [
        "▁Report",
        -10.280719404016939
      ],
      [
        "▁constantly",
        -10.281143120367386
      ],
      [
        "▁lived",
        -10.281293816240597
      ],
      [
        "▁pages",
        -10.28278058218159
      ],
      [
        "▁asian",
        -10.283083454947166
      ],
      [
        "▁Protocol",
        -10.28416770017367
      ],
      [
        "▁intellectual",
        -10.28419708977395
      ],
      [
        "▁virtual",
        -10.284337059841562
      ],
      [
        "▁cell",
        -10.284592977433066
      ],
      [
        "▁Look",
        -10.284811384772617
      ],
      [
        "▁arms",
        -10.28529368400029
      ],
      [
        "▁flights",
        -10.28630390719149
      ],
      [
        "▁Gold",
        -10.286707069132477
      ],
      [
        "▁Palace",
        -10.287320721103894
      ],
      [
        "hopping",
        -10.287653139187672
      ],
      [
        "▁financing",
        -10.287726308379044
      ],
      [
        "▁sister",
        -10.287844560430214
      ],
      [
        "▁Pre",
        -10.28797943328922
      ],
      [
        "ology",
        -10.288015391649735
      ],
      [
        "▁Middle",
        -10.288277863484245
      ],
      [
        "▁Sofia",
        -10.288279380780718
      ],
      [
        "▁library",
        -10.28834046406386
      ],
      [
        "▁Christmas",
        -10.288431246707322
      ],
      [
        "▁river",
        -10.288613048359473
      ],
      [
        "▁moved",
        -10.288817679564467
      ],
      [
        "ical",
        -10.288977499419113
      ],
      [
        "▁publication",
        -10.289769208300106
      ],
      [
        "▁Medical",
        -10.290040375351253
      ],
      [
        "art",
        -10.290075206355269
      ],
      [
        "▁links",
        -10.290714768841989
      ],
      [
        "elected",
        -10.291380304243118
      ],
      [
        "▁Come",
        -10.291534238754554
      ],
      [
        "▁primarily",
        -10.29181312492267
      ],
      [
        "level",
        -10.291896791710643
      ],
      [
        "▁funding",
        -10.2921344744958
      ],
      [
        "▁helps",
        -10.292138642548037
      ],
      [
        "▁waiting",
        -10.292611493140935
      ],
      [
        "▁recognize",
        -10.292703835186769
      ],
      [
        "▁bottom",
        -10.293022070807925
      ],
      [
        "▁Downloads",
        -10.293475326401877
      ],
      [
        "▁scans",
        -10.295366336420317
      ],
      [
        "▁healthy",
        -10.295803237601207
      ],
      [
        "▁sheet",
        -10.295807809755692
      ],
      [
        "▁changing",
        -10.296058526303204
      ],
      [
        "▁baby",
        -10.296230881422288
      ],
      [
        "▁parameters",
        -10.296572471346858
      ],
      [
        "▁Lake",
        -10.296833908006516
      ],
      [
        "▁firm",
        -10.296918324252244
      ],
      [
        "▁seeking",
        -10.297391215326074
      ],
      [
        "▁tab",
        -10.297437039476954
      ],
      [
        "▁Professional",
        -10.29781555302272
      ],
      [
        "▁specialized",
        -10.298687558658912
      ],
      [
        "▁CIS",
        -10.298769544763443
      ],
      [
        "▁gentle",
        -10.299657637108313
      ],
      [
        "▁promise",
        -10.300446850535433
      ],
      [
        "▁prayer",
        -10.30098520628217
      ],
      [
        "▁background",
        -10.301349165671878
      ],
      [
        "у",
        -10.301757713493423
      ],
      [
        "▁removed",
        -10.301780935132214
      ],
      [
        "mer",
        -10.302176766302182
      ],
      [
        "▁joy",
        -10.302451762592476
      ],
      [
        "▁milk",
        -10.30287088255139
      ],
      [
        "▁Urantia",
        -10.302992340385199
      ],
      [
        "▁invited",
        -10.303393703156786
      ],
      [
        "▁inform",
        -10.303781517881253
      ],
      [
        "▁African",
        -10.304185088648309
      ],
      [
        "▁matters",
        -10.304320211646756
      ],
      [
        "▁stations",
        -10.304694187239276
      ],
      [
        "▁Drag",
        -10.305304322613821
      ],
      [
        "▁receiving",
        -10.305557746856497
      ],
      [
        "army",
        -10.305620124971707
      ],
      [
        "▁Ne",
        -10.306133504146475
      ],
      [
        "▁valid",
        -10.306418819028453
      ],
      [
        "▁medicine",
        -10.306606561380844
      ],
      [
        "▁contained",
        -10.306803071614397
      ],
      [
        "▁respond",
        -10.306979583262496
      ],
      [
        "▁Work",
        -10.3073439996342
      ],
      [
        "▁Keyword",
        -10.30771022842452
      ],
      [
        "▁motor",
        -10.307859164020119
      ],
      [
        "▁Li",
        -10.307984705386403
      ],
      [
        "▁mountain",
        -10.307991634481468
      ],
      [
        "▁occasion",
        -10.30909288272528
      ],
      [
        "▁communities",
        -10.309423638023217
      ],
      [
        "▁residence",
        -10.310734170194376
      ],
      [
        "▁division",
        -10.311153985791552
      ],
      [
        "vi",
        -10.311759102658673
      ],
      [
        "▁associat",
        -10.312059706261639
      ],
      [
        "▁inner",
        -10.312418016354505
      ],
      [
        "▁partnership",
        -10.313394473096821
      ],
      [
        "▁audit",
        -10.314180849004233
      ],
      [
        "▁telephone",
        -10.314183061795656
      ],
      [
        "▁customs",
        -10.314517153143528
      ],
      [
        "▁transition",
        -10.314806851405818
      ],
      [
        "▁facilitate",
        -10.315054067806258
      ],
      [
        "▁liquid",
        -10.31505488104058
      ],
      [
        "▁planet",
        -10.315215758685552
      ],
      [
        "▁bath",
        -10.31568654318932
      ],
      [
        "▁ship",
        -10.315721898890397
      ],
      [
        "▁Among",
        -10.316119686612145
      ],
      [
        "▁evaluation",
        -10.316185915100176
      ],
      [
        "▁arrest",
        -10.316207122537286
      ],
      [
        "▁patient",
        -10.316391496151205
      ],
      [
        "▁courses",
        -10.317397444067405
      ],
      [
        "▁operational",
        -10.317462607432018
      ],
      [
        "You",
        -10.317726300755716
      ],
      [
        "▁organisation",
        -10.318145077478412
      ],
      [
        "▁refer",
        -10.31885956426309
      ],
      [
        "▁larger",
        -10.31887061050888
      ],
      [
        "with",
        -10.319148268373672
      ],
      [
        "▁Key",
        -10.31924237781575
      ],
      [
        "ng",
        -10.319618024535151
      ],
      [
        "▁humanitarian",
        -10.319831287438523
      ],
      [
        "▁draw",
        -10.322116355909449
      ],
      [
        "▁Have",
        -10.322178441909061
      ],
      [
        "▁Dubai",
        -10.322616712806699
      ],
      [
        "▁federal",
        -10.323049128395004
      ],
      [
        "▁solve",
        -10.323079253615811
      ],
      [
        "▁entrance",
        -10.323266887450297
      ],
      [
        "▁Su",
        -10.323670819403544
      ],
      [
        "▁Watch",
        -10.323676256340336
      ],
      [
        "▁signal",
        -10.32384485138662
      ],
      [
        "controlled",
        -10.324439709196632
      ],
      [
        "ize",
        -10.326087183995778
      ],
      [
        "▁female",
        -10.326269951177746
      ],
      [
        "▁specifically",
        -10.32649878042841
      ],
      [
        "▁Will",
        -10.326828947426398
      ],
      [
        "▁Source",
        -10.327419610964299
      ],
      [
        "▁Administration",
        -10.327634176291099
      ],
      [
        "▁Tatarstan",
        -10.328293249311841
      ],
      [
        "▁actively",
        -10.328519115222946
      ],
      [
        "▁Thursday",
        -10.328918781968015
      ],
      [
        "▁foot",
        -10.329068391285393
      ],
      [
        "▁Island",
        -10.329389111000946
      ],
      [
        "▁insect",
        -10.329411161433036
      ],
      [
        "▁lift",
        -10.3301791370425
      ],
      [
        "including",
        -10.330232733076901
      ],
      [
        "▁Review",
        -10.330318048514732
      ],
      [
        "▁colour",
        -10.33039738505415
      ],
      [
        "▁prevention",
        -10.33049095401811
      ],
      [
        "▁delay",
        -10.330734040554
      ],
      [
        "▁Chamber",
        -10.331803641147397
      ],
      [
        "use",
        -10.331864455249171
      ],
      [
        "▁effectively",
        -10.332149085550212
      ],
      [
        "▁eternal",
        -10.332225554158205
      ],
      [
        "▁steroid",
        -10.332699020729372
      ],
      [
        "▁guest",
        -10.332726598785898
      ],
      [
        "▁Muslim",
        -10.332881625321974
      ],
      [
        "related",
        -10.332905981492308
      ],
      [
        "▁introduction",
        -10.33335239620473
      ],
      [
        "za",
        -10.333395593461681
      ],
      [
        "▁struggle",
        -10.334165622597114
      ],
      [
        "▁Canada",
        -10.335748406305534
      ],
      [
        "▁Happy",
        -10.33607674676024
      ],
      [
        "▁technological",
        -10.336551055505502
      ],
      [
        "▁affected",
        -10.337179793693114
      ],
      [
        "▁expansion",
        -10.337973027712815
      ],
      [
        "▁causes",
        -10.338388623142281
      ],
      [
        "▁Drop",
        -10.339498654802881
      ],
      [
        "▁soft",
        -10.339660730634973
      ],
      [
        "▁Ha",
        -10.340055834464206
      ],
      [
        "▁frame",
        -10.341094145756276
      ],
      [
        "▁Le",
        -10.341153896616355
      ],
      [
        "let",
        -10.341486597142575
      ],
      [
        "▁Constitution",
        -10.342404745802318
      ],
      [
        "▁Sa",
        -10.34256471851051
      ],
      [
        "ran",
        -10.342707989145579
      ],
      [
        "▁poverty",
        -10.343075401272628
      ],
      [
        "▁notes",
        -10.343233095304848
      ],
      [
        "▁independence",
        -10.343294001022787
      ],
      [
        "▁kingdom",
        -10.34333601562815
      ],
      [
        "▁rare",
        -10.343637102152561
      ],
      [
        "▁walls",
        -10.343872980262246
      ],
      [
        "led",
        -10.344003776024262
      ],
      [
        "Posted",
        -10.344062320445417
      ],
      [
        "▁Lady",
        -10.344433206283782
      ],
      [
        "▁vital",
        -10.345073080416112
      ],
      [
        "▁career",
        -10.34586811294523
      ],
      [
        "▁categories",
        -10.346214717148861
      ],
      [
        "▁recover",
        -10.346775641300928
      ],
      [
        "▁taste",
        -10.347065503470564
      ],
      [
        "▁scientists",
        -10.347395828423247
      ],
      [
        "▁relax",
        -10.347734414828391
      ],
      [
        "▁forced",
        -10.34785415227351
      ],
      [
        "▁ads",
        -10.348373057277689
      ],
      [
        "▁greeting",
        -10.348598897994071
      ],
      [
        "▁corresponding",
        -10.348871308695829
      ],
      [
        "▁comment",
        -10.349272370490183
      ],
      [
        "▁records",
        -10.349503120731276
      ],
      [
        "▁updated",
        -10.349724786260808
      ],
      [
        "▁Baku",
        -10.349733866492212
      ],
      [
        "behalf",
        -10.349882949776218
      ],
      [
        "▁Estonia",
        -10.350656866863842
      ],
      [
        "▁negotiations",
        -10.350847297105586
      ],
      [
        "▁objectives",
        -10.351651798122047
      ],
      [
        "▁obtained",
        -10.35198527708928
      ],
      [
        "▁IN",
        -10.35217466560485
      ],
      [
        "й",
        -10.352267675104267
      ],
      [
        "▁investigation",
        -10.35311530148383
      ],
      [
        "▁finding",
        -10.35405107334161
      ],
      [
        "▁Right",
        -10.354130529535809
      ],
      [
        "▁prize",
        -10.35453857482537
      ],
      [
        "▁emergency",
        -10.354985883651233
      ],
      [
        "▁Azerbaijani",
        -10.355023067288432
      ],
      [
        "▁composition",
        -10.355374132740064
      ],
      [
        "▁addresse",
        -10.356081133480664
      ],
      [
        "▁Roman",
        -10.356123839450092
      ],
      [
        "▁executive",
        -10.356278013838697
      ],
      [
        "▁terrorism",
        -10.357402077247858
      ],
      [
        "▁translation",
        -10.357726315010355
      ],
      [
        "▁sons",
        -10.358402179099564
      ],
      [
        "called",
        -10.358676814726342
      ],
      [
        "▁Make",
        -10.35981299308556
      ],
      [
        "▁updates",
        -10.36062139243514
      ],
      [
        "▁classes",
        -10.361315211954443
      ],
      [
        "▁battle",
        -10.361981886327953
      ],
      [
        "▁peaceful",
        -10.362000972398318
      ],
      [
        "▁Vice",
        -10.362443441371187
      ],
      [
        "▁Divine",
        -10.363279319217916
      ],
      [
        "▁identified",
        -10.363540605840859
      ],
      [
        "▁handle",
        -10.364315646874264
      ],
      [
        "▁ball",
        -10.364436803777417
      ],
      [
        "▁Wednesday",
        -10.3644604823004
      ],
      [
        "▁в",
        -10.364719047381938
      ],
      [
        "▁counter",
        -10.365345897863792
      ],
      [
        "▁Anti",
        -10.365355179032393
      ],
      [
        "ite",
        -10.365502107694265
      ],
      [
        "▁challenge",
        -10.365630915469788
      ],
      [
        "▁Domain",
        -10.3659409121301
      ],
      [
        "▁friendly",
        -10.366028421759424
      ],
      [
        "▁cutting",
        -10.366065871460755
      ],
      [
        "▁participated",
        -10.366137880125706
      ],
      [
        "▁fund",
        -10.366347344670137
      ],
      [
        "▁Modern",
        -10.366469464784153
      ],
      [
        "▁attractive",
        -10.366810696691013
      ],
      [
        "▁destruction",
        -10.366843400332147
      ],
      [
        "back",
        -10.3670133269711
      ],
      [
        "▁disk",
        -10.36720391779395
      ],
      [
        "▁learned",
        -10.367403407682664
      ],
      [
        "▁trend",
        -10.367908224284275
      ],
      [
        "▁floors",
        -10.368235652798491
      ],
      [
        "▁dildo",
        -10.368962379986934
      ],
      [
        "▁wants",
        -10.36961979913062
      ],
      [
        "▁Finland",
        -10.369715575218942
      ],
      [
        "▁twenty",
        -10.370103596454978
      ],
      [
        "▁allowing",
        -10.370140283733827
      ],
      [
        "▁Bo",
        -10.370275047136419
      ],
      [
        "▁Con",
        -10.370484623006611
      ],
      [
        "▁species",
        -10.370649968502285
      ],
      [
        "▁Building",
        -10.371032683809725
      ],
      [
        "▁confirmed",
        -10.371543850628195
      ],
      [
        "▁filled",
        -10.372004167002295
      ],
      [
        "▁household",
        -10.372339281133538
      ],
      [
        "▁realize",
        -10.373001458489766
      ],
      [
        "▁audience",
        -10.373076193745698
      ],
      [
        "▁definition",
        -10.373460931689541
      ],
      [
        "▁dance",
        -10.374350799959629
      ],
      [
        "▁MP",
        -10.37590274460252
      ],
      [
        "▁wishes",
        -10.376418937162011
      ],
      [
        "board",
        -10.377158724393555
      ],
      [
        "▁route",
        -10.37722642457799
      ],
      [
        "▁classic",
        -10.377260573174208
      ],
      [
        "▁resolve",
        -10.377301781411004
      ],
      [
        "▁Begin",
        -10.377900868738084
      ],
      [
        "▁Moses",
        -10.378134035654574
      ],
      [
        "▁leather",
        -10.378587836031988
      ],
      [
        "▁Using",
        -10.379057671634339
      ],
      [
        "▁voter",
        -10.380213422498068
      ],
      [
        "▁rose",
        -10.380321365664214
      ],
      [
        "▁Society",
        -10.380448753400337
      ],
      [
        "skaya",
        -10.380906039146094
      ],
      [
        "▁criteria",
        -10.38181690523859
      ],
      [
        "New",
        -10.382113189561405
      ],
      [
        "▁minute",
        -10.382789951283991
      ],
      [
        "▁List",
        -10.383080236524428
      ],
      [
        "▁quick",
        -10.383860189630859
      ],
      [
        "▁brunette",
        -10.383891253384743
      ],
      [
        "▁History",
        -10.384000211203468
      ],
      [
        "▁gender",
        -10.384151344936143
      ],
      [
        "▁count",
        -10.38440388591937
      ],
      [
        "▁album",
        -10.384583156556392
      ],
      [
        "▁promot",
        -10.385388209779068
      ],
      [
        "▁enforcement",
        -10.385794685197142
      ],
      [
        "▁Hall",
        -10.386042781318547
      ],
      [
        "▁danger",
        -10.386391339531432
      ],
      [
        "▁minister",
        -10.386682322291298
      ],
      [
        "On",
        -10.386995309097069
      ],
      [
        "▁Star",
        -10.387134574035459
      ],
      [
        "▁Rose",
        -10.38743072454421
      ],
      [
        "▁drugs",
        -10.387869131695027
      ],
      [
        "▁heads",
        -10.388197560982277
      ],
      [
        "pp",
        -10.388606409085574
      ],
      [
        "▁Lithuania",
        -10.3887420058434
      ],
      [
        "▁architecture",
        -10.389245510953913
      ],
      [
        "governmental",
        -10.390057637299492
      ],
      [
        "▁Kiev",
        -10.39006523892253
      ],
      [
        "espite",
        -10.3909051502914
      ],
      [
        "http",
        -10.390937318688902
      ],
      [
        "▁prove",
        -10.391016517492172
      ],
      [
        "▁transferr",
        -10.391338276253208
      ],
      [
        "▁Communication",
        -10.391420322434081
      ],
      [
        "Russian",
        -10.392144910778166
      ],
      [
        "▁Flowers",
        -10.392222090302754
      ],
      [
        "▁grant",
        -10.392372280705793
      ],
      [
        "▁democratic",
        -10.3930615896788
      ],
      [
        "▁banking",
        -10.393541740006103
      ],
      [
        "▁painting",
        -10.394134478915603
      ],
      [
        "▁behavior",
        -10.394298973901137
      ],
      [
        "▁Hey",
        -10.394489086635579
      ],
      [
        "▁cum",
        -10.3947031468815
      ],
      [
        "▁comments",
        -10.395330556188213
      ],
      [
        "▁Cable",
        -10.395480328115115
      ],
      [
        "▁custom",
        -10.395589363916176
      ],
      [
        "not",
        -10.395655746002012
      ],
      [
        "▁coast",
        -10.395765203744814
      ],
      [
        "▁supplement",
        -10.39578941001188
      ],
      [
        "▁Afghanistan",
        -10.396715197900233
      ],
      [
        "▁prepar",
        -10.396999046136822
      ],
      [
        "▁honor",
        -10.397144742132463
      ],
      [
        "▁camp",
        -10.3972410232942
      ],
      [
        "▁micro",
        -10.3977513328393
      ],
      [
        "▁Beach",
        -10.39997379886466
      ],
      [
        "▁Anavar",
        -10.40071443250435
      ],
      [
        "▁Washington",
        -10.401256301627832
      ],
      [
        "▁judge",
        -10.401405603352073
      ],
      [
        "▁Unsur",
        -10.401701404802445
      ],
      [
        "▁studio",
        -10.40201369707593
      ],
      [
        "▁signs",
        -10.402413953449557
      ],
      [
        "▁applicable",
        -10.402543130488432
      ],
      [
        "▁measure",
        -10.40261172398029
      ],
      [
        "▁labour",
        -10.402839191460423
      ],
      [
        "▁Previous",
        -10.404106057757826
      ],
      [
        "▁shop",
        -10.404352943424916
      ],
      [
        "▁proposals",
        -10.404662527305032
      ],
      [
        "▁plane",
        -10.4054470824454
      ],
      [
        "▁occur",
        -10.405673338133905
      ],
      [
        "▁Inter",
        -10.406271370171977
      ],
      [
        "▁developer",
        -10.406568963339858
      ],
      [
        "▁Oblast",
        -10.4066142383252
      ],
      [
        "▁lawyer",
        -10.40692281820799
      ],
      [
        "▁approval",
[...]
