{
  "version": "1.0",
  "truncation": null,
  "padding": null,
  "added_tokens": [
    {
      "id": 0,
      "content": "<pad>",
      "single_word": false,
      "lstrip": false,
      "rstrip": false,
      "normalized": false,
      "special": true
    },
    {
      "id": 1,
      "content": "<s>",
      "single_word": false,
      "lstrip": false,
      "rstrip": false,
      "normalized": false,
      "special": true
    },
    {
      "id": 2,
      "content": "</s>",
      "single_word": false,
      "lstrip": false,
      "rstrip": false,
      "normalized": false,
      "special": true
    },
    {
      "id": 3,
      "content": "<unk>",
      "single_word": false,
      "lstrip": false,
      "rstrip": false,
      "normalized": false,
      "special": true
    }
  ],
  "normalizer": {
    "type": "NFKC"
  },
  "pre_tokenizer": {
    "type": "Sequence",
    "pretokenizers": [
      {
        "type": "Metaspace",
        "replacement": "▁",
        "prepend_scheme": "always",
        "split": true
      },
      {
        "type": "Punctuation",
        "behavior": "Isolated"
      },
      {
        "type": "Digits",
        "individual_digits": true
      }
    ]
  },
  "post_processor": {
    "type": "TemplateProcessing",
    "single": [
      {
        "SpecialToken": {
          "id": "<s>",
          "type_id": 0
        }
      },
      {
        "Sequence": {
          "id": "A",
          "type_id": 0
        }
      },
      {
        "SpecialToken": {
          "id": "</s>",
          "type_id": 0
        }
      }
    ],
    "pair": [
      {
        "Sequence": {
          "id": "A",
          "type_id": 0
        }
      },
      {
        "Sequence": {
          "id": "B",
          "type_id": 1
        }
      }
    ],
    "special_tokens": {
      "</s>": {
        "id": "</s>",
        "ids": [
          2
        ],
        "tokens": [
          "</s>"
        ]
      },
      "<s>": {
        "id": "<s>",
        "ids": [
          1
        ],
        "tokens": [
          "<s>"
        ]
      }
    }
  },
  "decoder": {
    "type": "Metaspace",
    "replacement": "▁",
    "prepend_scheme": "always",
    "split": true
  },
  "model": {
    "type": "Unigram",
    "unk_id": 3,
    "vocab": [
      [
        "<pad>",
        0.0
      ],
      [
        "<s>",
        0.0
      ],
      [
        "</s>",
        0.0
      ],
      [
        "<unk>",
        0.0
      ],
      [
        "▁",
        -1.8717427393779609
      ],
      [
        ",",
        -3.083448243244419
      ],
      [
        "и",
        -3.3989057236030966
      ],
      [
        ".",
        -3.492103973174972
      ],
      [
        "е",
        -3.976046045500059
      ],
      [
        "в",
        -4.010728922374444
      ],
      [
        "а",
        -4.3880199228048085
      ],
      [
        "й",
        -4.468724037859268
      ],
      [
        "0",
        -4.597620026346915
      ],
      [
        "м",
        -4.735353052824548
      ],
      [
        "с",
        -4.736238559636938
      ],
      [
        "1",
        -4.743055909279597
      ],
      [
        "-",
        -4.792446361698486
      ],
      [
        "х",
        -4.847924045168318
      ],
      [
        "2",
        -4.926730309998174
      ],
      [
        "▁на",
        -4.958370269277223
      ],
      [
        "ы",
        -5.018887153958483
      ],
      [
        "у",
        -5.065632869797305
      ],
      [
        ":",
        -5.0717220342369504
      ],
      [
        "я",
        -5.162155349659839
      ],
      [
        "о",
        -5.185397761590675
      ],
      [
        "▁не",
        -5.327946940928351
      ],
      [
        "▁по",
        -5.433433790513281
      ],
      [
        "к",
        -5.443403990453641
      ],
      [
        "го",
        -5.549573725497744
      ],
      [
        ")",
        -5.5568254923039575
      ],
      [
        "3",
        -5.577843848244546
      ],
      [
        "5",
        -5.609871992054538
      ],
      [
        "(",
        -5.616069097510252
      ],
      [
        "▁для",
        -5.624308650758021
      ],
      [
        "▁что",
        -5.6359253232342486
      ],
      [
        "4",
        -5.737671100879924
      ],
      [
        "т",
        -5.7858345942719005
      ],
      [
        "ю",
        -5.813698656720369
      ],
      [
        "9",
        -5.883280742191152
      ],
      [
        "ов",
        -5.925511272534148
      ],
      [
        "▁В",
        -5.939095683716204
      ],
      [
        "6",
        -5.953376759554869
      ],
      [
        "»",
        -5.975647346522175
      ],
      [
        "ом",
        -5.976990773869785
      ],
      [
        "«",
        -5.996514252999862
      ],
      [
        "8",
        -6.023621152728834
      ],
      [
        "7",
        -6.067719798360718
      ],
      [
        "▁из",
        -6.1061875848175
      ],
      [
        "\"",
        -6.131478886530095
      ],
      [
        "▁от",
        -6.144477541255311
      ],
      [
        "ая",
        -6.167235874108869
      ],
      [
        "/",
        -6.216835595533436
      ],
      [
        "▁как",
        -6.2321826195431065
      ],
      [
        "ми",
        -6.246652503788319
      ],
      [
        "▁за",
        -6.273682745448195
      ],
      [
        "▁или",
        -6.3105529764680774
      ],
      [
        ";",
        -6.3203447372197665
      ],
      [
        "▁это",
        -6.444315537307572
      ],
      [
        "ой",
        -6.4616321206774625
      ],
      [
        "▁вы",
        -6.4691192859857765
      ],
      [
        "?",
        -6.499581257687783
      ],
      [
        "ся",
        -6.526771752660023
      ],
      [
        "—",
        -6.53220172137317
      ],
      [
        "ь",
        -6.597386115271426
      ],
      [
        "н",
        -6.614640420917324
      ],
      [
        "ть",
        -6.61592158970271
      ],
      [
        "г",
        -6.646950573675047
      ],
      [
        "ую",
        -6.752785646115669
      ],
      [
        "▁до",
        -6.755369152000222
      ],
      [
        "▁его",
        -6.774463040358187
      ],
      [
        "▁при",
        -6.798276815133789
      ],
      [
        "▁также",
        -6.8011807506263064
      ],
      [
        "–",
        -6.821207694243119
      ],
      [
        "л",
        -6.860092863306686
      ],
      [
        "▁чтобы",
        -6.867001543360141
      ],
      [
        "ами",
        -6.924516557240157
      ],
      [
        "ей",
        -6.932271050372986
      ],
      [
        "▁все",
        -6.933471212880825
      ],
      [
        "▁года",
        -6.935019439567261
      ],
      [
        "▁С",
        -6.968906661350863
      ],
      [
        "▁их",
        -7.022971981964835
      ],
      [
        "!",
        -7.027297661812257
      ],
      [
        "▁мы",
        -7.0341538441933515
      ],
      [
        "▁И",
        -7.052222206571459
      ],
      [
        "▁назад",
        -7.057936653909833
      ],
      [
        "▁он",
        -7.082846082625521
      ],
      [
        "▁которые",
        -7.101695227640349
      ],
      [
        "▁но",
        -7.128247080524419
      ],
      [
        "ться",
        -7.1734515334661655
      ],
      [
        "то",
        -7.178012728482848
      ],
      [
        "▁будет",
        -7.184745378098295
      ],
      [
        "▁так",
        -7.185701299615168
      ],
      [
        "▁то",
        -7.205879767240729
      ],
      [
        "▁может",
        -7.21883961667735
      ],
      [
        "ных",
        -7.22788044746134
      ],
      [
        "▁Я",
        -7.234241269501247
      ],
      [
        "▁По",
        -7.241701508713611
      ],
      [
        "д",
        -7.248619183982369
      ],
      [
        "▁время",
        -7.249586019223983
      ],
      [
        "ется",
        -7.262372801925455
      ],
      [
        "ная",
        -7.284429876933194
      ],
      [
        "ли",
        -7.300619770389606
      ],
      [
        "▁со",
        -7.303103823729893
      ],
      [
        "на",
        -7.3153799076140995
      ],
      [
        "▁На",
        -7.316584842353393
      ],
      [
        "▁более",
        -7.330057906622324
      ],
      [
        "▁только",
        -7.33834619721676
      ],
      [
        "ные",
        -7.347732977160431
      ],
      [
        "▁они",
        -7.353280700255317
      ],
      [
        "▁быть",
        -7.354346844212955
      ],
      [
        "ной",
        -7.364424293990163
      ],
      [
        "▁же",
        -7.3722564704693845
      ],
      [
        "му",
        -7.384132091418532
      ],
      [
        "▁во",
        -7.385880757221718
      ],
      [
        "р",
        -7.398472226447064
      ],
      [
        "*",
        -7.399806281164052
      ],
      [
        "▁Это",
        -7.409532612367078
      ],
      [
        "но",
        -7.4110283942824715
      ],
      [
        "▁того",
        -7.417056734781637
      ],
      [
        "%",
        -7.426664748010795
      ],
      [
        "▁является",
        -7.444444557358956
      ],
      [
        "▁если",
        -7.4591460312807385
      ],
      [
        "▁О",
        -7.473118672177513
      ],
      [
        "▁А",
        -7.488125464425217
      ],
      [
        "▁было",
        -7.488933984936276
      ],
      [
        "▁можно",
        -7.491460790540634
      ],
      [
        "▁был",
        -7.493531501469553
      ],
      [
        "▁Вы",
        -7.510808421762329
      ],
      [
        "▁бы",
        -7.514201093168081
      ],
      [
        "▁под",
        -7.520566996326208
      ],
      [
        "ного",
        -7.520810087822804
      ],
      [
        "▁Если",
        -7.533948037517122
      ],
      [
        "▁об",
        -7.554742193852146
      ],
      [
        "▁когда",
        -7.577120801631144
      ],
      [
        "ный",
        -7.586778082235144
      ],
      [
        "ка",
        -7.605046218950427
      ],
      [
        "п",
        -7.610267991924676
      ],
      [
        "▁том",
        -7.610912858391099
      ],
      [
        "s",
        -7.637282288978433
      ],
      [
        "▁который",
        -7.652726483432801
      ],
      [
        "з",
        -7.653113088255129
      ],
      [
        "▁К",
        -7.659317027314726
      ],
      [
        "▁Мы",
        -7.674758649760369
      ],
      [
        "▁вам",
        -7.701013067948148
      ],
      [
        "▁есть",
        -7.721949560061006
      ],
      [
        "ются",
        -7.722758521330997
      ],
      [
        "▁году",
        -7.73050080175811
      ],
      [
        "▁этом",
        -7.733901822046368
      ],
      [
        "▁могут",
        -7.745478099917776
      ],
      [
        "▁этого",
        -7.758747401853306
      ],
      [
        "▁Он",
        -7.758751150152138
      ],
      [
        "▁были",
        -7.761764467636967
      ],
      [
        "▁всех",
        -7.776186897288547
      ],
      [
        "▁чем",
        -7.7794522913695054
      ],
      [
        "▁Как",
        -7.7884444606883765
      ],
      [
        "▁лет",
        -7.791829124697834
      ],
      [
        "▁файл",
        -7.809902169643582
      ],
      [
        "лись",
        -7.829353536042131
      ],
      [
        "▁У",
        -7.832546644963436
      ],
      [
        "ную",
        -7.834069313609323
      ],
      [
        "ого",
        -7.84058927580581
      ],
      [
        "▁раз",
        -7.8462859447589945
      ],
      [
        "ла",
        -7.857160402708793
      ],
      [
        "▁Но",
        -7.860208696938109
      ],
      [
        "за",
        -7.861292485714998
      ],
      [
        "▁после",
        -7.8786938621234075
      ],
      [
        "▁очень",
        -7.887872165659042
      ],
      [
        "▁без",
        -7.891507381435378
      ],
      [
        "▁тем",
        -7.913264574903433
      ],
      [
        "▁про",
        -7.92010838209459
      ],
      [
        "▁Не",
        -7.922142349758959
      ],
      [
        "б",
        -7.941081528770496
      ],
      [
        "ок",
        -7.947018900124096
      ],
      [
        "не",
        -7.950829328423993
      ],
      [
        "+",
        -7.968666258490554
      ],
      [
        "▁уже",
        -7.982871449873839
      ],
      [
        "▁между",
        -8.011163166661436
      ],
      [
        "▁вас",
        -8.013519048522687
      ],
      [
        "▁была",
        -8.017053995567155
      ],
      [
        "▁случае",
        -8.019038945043244
      ],
      [
        "▁она",
        -8.024451836147596
      ],
      [
        "▁через",
        -8.03325972460488
      ],
      [
        "▁ты",
        -8.03401154690228
      ],
      [
        "▁должны",
        -8.036983295845488
      ],
      [
        "▁больше",
        -8.042332650908472
      ],
      [
        "▁еще",
        -8.042760301696278
      ],
      [
        "▁области",
        -8.054551097327987
      ],
      [
        "▁будут",
        -8.060309166928345
      ],
      [
        "|",
        -8.061475161162294
      ],
      [
        "▁год",
        -8.066108681692441
      ],
      [
        "▁пере",
        -8.074846338229383
      ],
      [
        "лся",
        -8.087294102420392
      ],
      [
        "▁меня",
        -8.088576243569527
      ],
      [
        "▁Для",
        -8.103882012223105
      ],
      [
        "&",
        -8.106801002410181
      ],
      [
        "▁всего",
        -8.107237910913607
      ],
      [
        "▁где",
        -8.111600338696306
      ],
      [
        "ч",
        -8.120716941859365
      ],
      [
        "▁М",
        -8.123794684876277
      ],
      [
        "▁других",
        -8.125697977724645
      ],
      [
        "▁сказал",
        -8.142681591899233
      ],
      [
        "▁При",
        -8.147541288881847
      ],
      [
        "▁информацию",
        -8.151747844434432
      ],
      [
        "В",
        -8.157723388457947
      ],
      [
        "▁работы",
        -8.158253406413573
      ],
      [
        "ное",
        -8.164216874169187
      ],
      [
        "ж",
        -8.168756911233594
      ],
      [
        "▁себя",
        -8.17052693695218
      ],
      [
        "▁которая",
        -8.17549240152784
      ],
      [
        "▁ваш",
        -8.176511157790527
      ],
      [
        "▁просто",
        -8.179522274913978
      ],
      [
        "С",
        -8.183050245965838
      ],
      [
        "▁кто",
        -8.193386675889672
      ],
      [
        "ый",
        -8.202074378024301
      ],
      [
        "лась",
        -8.204160597342446
      ],
      [
        "▁этот",
        -8.209963748878721
      ],
      [
        "]",
        -8.217265055330996
      ],
      [
        "▁файлов",
        -8.23518890585055
      ],
      [
        "▁файла",
        -8.240873120524915
      ],
      [
        "▁мне",
        -8.242826694441248
      ],
      [
        "▁системы",
        -8.244554329174647
      ],
      [
        "▁даже",
        -8.24643553532951
      ],
      [
        "▁компании",
        -8.246512104671323
      ],
      [
        "▁развития",
        -8.24726081045978
      ],
      [
        "▁ни",
        -8.256479841296414
      ],
      [
        "▁эти",
        -8.256907002850674
      ],
      [
        "▁Да",
        -8.25911540496745
      ],
      [
        "[",
        -8.264666529816417
      ],
      [
        "▁данных",
        -8.266293715473848
      ],
      [
        "сти",
        -8.270234876582826
      ],
      [
        "▁жизни",
        -8.273865373459826
      ],
      [
        "▁них",
        -8.277707274602685
      ],
      [
        "▁один",
        -8.28534883151172
      ],
      [
        "▁несколько",
        -8.28964452879739
      ],
      [
        "▁которых",
        -8.295867528450383
      ],
      [
        "▁стран",
        -8.305377863350289
      ],
      [
        "▁России",
        -8.311910086104154
      ],
      [
        "▁много",
        -8.321700177284285
      ],
      [
        "▁Все",
        -8.324626043771424
      ],
      [
        "▁образом",
        -8.32505469710422
      ],
      [
        "▁A",
        -8.330533933079453
      ],
      [
        "▁человека",
        -8.339585632383884
      ],
      [
        "▁можете",
        -8.341152193758093
      ],
      [
        "▁За",
        -8.341875019816554
      ],
      [
        "▁П",
        -8.342937185606234
      ],
      [
        "▁человек",
        -8.349374481374944
      ],
      [
        "a",
        -8.35424567404662
      ],
      [
        "▁ли",
        -8.359333740545345
      ],
      [
        "▁день",
        -8.362176131300643
      ],
      [
        "▁имеет",
        -8.362569253486132
      ],
      [
        "А",
        -8.3660460678568
      ],
      [
        "▁M",
        -8.385280770603174
      ],
      [
        "либо",
        -8.390000319578848
      ],
      [
        "▁США",
        -8.39052810778896
      ],
      [
        "▁другие",
        -8.392812824631783
      ],
      [
        "▁людей",
        -8.394777729063042
      ],
      [
        "по",
        -8.399238605616645
      ],
      [
        "▁нас",
        -8.401526381430312
      ],
      [
        "▁деятельности",
        -8.401563042838196
      ],
      [
        "он",
        -8.405230213541662
      ],
      [
        "e",
        -8.406103176753561
      ],
      [
        "▁управления",
        -8.415172770034056
      ],
      [
        "этой",
        -8.419023773326435
      ],
      [
        "▁времени",
        -8.422519302422925
      ],
      [
        "▁здесь",
        -8.425667907070757
      ],
      [
        "▁S",
        -8.427530865638527
      ],
      [
        "▁своей",
        -8.4358836130673
      ],
      [
        "ным",
        -8.439960009933735
      ],
      [
        "▁обеспечения",
        -8.450874892402188
      ],
      [
        "▁безопасности",
        -8.45350264791332
      ],
      [
        "▁свою",
        -8.454521451830995
      ],
      [
        "месяцев",
        -8.461759996837513
      ],
      [
        "этих",
        -8.463438885801041
      ],
      [
        "▁использовать",
        -8.470561622091957
      ],
      [
        "▁Windows",
        -8.474309483706469
      ],
      [
        "лось",
        -8.475140985705549
      ],
      [
        "▁необходимо",
        -8.47560670844817
      ],
      [
        "▁свои",
        -8.478402139137307
      ],
      [
        "М",
        -8.478924578276606
      ],
      [
        "▁Телефон",
        -8.482866045060902
      ],
      [
        "ему",
        -8.486130671527642
      ],
      [
        "▁Что",
        -8.49883933999304
      ],
      [
        "S",
        -8.5038881675087
      ],
      [
        "▁нет",
        -8.507955944397668
      ],
      [
        "▁страны",
        -8.515908633457398
      ],
      [
        "▁P",
        -8.522144742084606
      ],
      [
        "▁нужно",
        -8.52961014283806
      ],
      [
        "тся",
        -8.535179651667033
      ],
      [
        "▁информации",
        -8.545457798171904
      ],
      [
        "Z",
        -8.552774321746456
      ],
      [
        "▁возможность",
        -8.557036922347473
      ],
      [
        "ш",
        -8.559352887912175
      ],
      [
        "gt",
        -8.562009227111377
      ],
      [
        "▁Ты",
        -8.566674787635849
      ],
      [
        "от",
        -8.568630527165704
      ],
      [
        "▁своих",
        -8.570017250308613
      ],
      [
        "▁место",
        -8.570758821334943
      ],
      [
        "▁против",
        -8.576810855008421
      ],
      [
        "▁дня",
        -8.58019729469057
      ],
      [
        "▁Б",
        -8.581873149771125
      ],
      [
        "▁связи",
        -8.584426851342341
      ],
      [
        "▁Г",
        -8.588539776829544
      ],
      [
        "#",
        -8.589027153499458
      ],
      [
        "▁течение",
        -8.593051745415549
      ],
      [
        "▁рамках",
        -8.597680330610725
      ],
      [
        "▁мира",
        -8.597851649421557
      ],
      [
        "▁два",
        -8.603837956526592
      ],
      [
        "▁перед",
        -8.607076209466298
      ],
      [
        "▁программы",
        -8.60818260814109
      ],
      [
        "К",
        -8.609276648168503
      ],
      [
        "▁C",
        -8.612155614209883
      ],
      [
        "▁должен",
        -8.612892077736564
      ],
      [
        "▁являются",
        -8.616295604521863
      ],
      [
        "▁помощью",
        -8.617622521504092
      ],
      [
        "▁xHamster",
        -8.618459542509617
      ],
      [
        "▁Так",
        -8.62098800353972
      ],
      [
        "э",
        -8.622405095221827
      ],
      [
        "ты",
        -8.624118471946728
      ],
      [
        "▁тех",
        -8.625251059859828
      ],
      [
        "▁качестве",
        -8.62543607729146
      ],
      [
        "c",
        -8.62681761039248
      ],
      [
        "▁участие",
        -8.627052299154935
      ],
      [
        "▁Они",
        -8.638926874183422
      ],
      [
        "▁которое",
        -8.640514660771048
      ],
      [
        "▁получить",
        -8.64060247685221
      ],
      [
        "▁Д",
        -8.647626559540285
      ],
      [
        "ской",
        -8.65114605222589
      ],
      [
        "▁которой",
        -8.651420254368457
      ],
      [
        "ский",
        -8.658081767416887
      ],
      [
        "com",
        -8.662476771412145
      ],
      [
        "▁Е",
        -8.66346056744533
      ],
      [
        "▁свой",
        -8.664025930812048
      ],
      [
        "'",
        -8.66579507427907
      ],
      [
        "большой",
        -8.668460957189332
      ],
      [
        "i",
        -8.678490397109448
      ],
      [
        "▁игры",
        -8.678670461629299
      ],
      [
        "О",
        -8.679469685322342
      ],
      [
        "x",
        -8.680682843142854
      ],
      [
        "▁прав",
        -8.682227205933874
      ],
      [
        "▁потому",
        -8.690541759224473
      ],
      [
        "ского",
        -8.693181715429953
      ],
      [
        "▁города",
        -8.693349232771554
      ],
      [
        "▁всегда",
        -8.694019532331595
      ],
      [
        "▁всё",
        -8.697136108348852
      ],
      [
        "▁соответствии",
        -8.703133217482561
      ],
      [
        "▁над",
        -8.704834450209745
      ],
      [
        "▁всем",
        -8.706212439828082
      ],
      [
        "▁период",
        -8.723640531769304
      ],
      [
        "ном",
        -8.729361655243324
      ],
      [
        ">",
        -8.730290148470266
      ],
      [
        "▁Когда",
        -8.730542719709685
      ],
      [
        "этому",
        -8.730939626657095
      ],
      [
        "▁находится",
        -8.734061291955738
      ],
      [
        "▁двух",
        -8.734300856400404
      ],
      [
        "▁нам",
        -8.735412256547429
      ],
      [
        "$",
        -8.736509308388923
      ],
      [
        "И",
        -8.743954595757529
      ],
      [
        "o",
        -8.744759241177604
      ],
      [
        "▁дней",
        -8.747557267280701
      ],
      [
        "m",
        -8.753166382803096
      ],
      [
        "d",
        -8.754746406915341
      ],
      [
        "A",
        -8.756554441871534
      ],
      [
        "▁сделать",
        -8.758686555221823
      ],
      [
        "сть",
        -8.767831725471884
      ],
      [
        "▁таких",
        -8.7692668474581
      ],
      [
        "D",
        -8.771129383560199
      ],
      [
        "▁стороны",
        -8.773125301105267
      ],
      [
        "▁После",
        -8.774537370233938
      ],
      [
        "▁организации",
        -8.775925356008731
      ],
      [
        "▁Республики",
        -8.776229150516668
      ],
      [
        "▁No",
        -8.77813965211101
      ],
      [
        "▁детей",
        -8.778472239620132
      ],
      [
        "▁говорит",
        -8.779828558713941
      ],
      [
        "▁тебя",
        -8.784053200872357
      ],
      [
        "открыть",
        -8.784960081264204
      ],
      [
        "ская",
        -8.790086904822445
      ],
      [
        "П",
        -8.791549750046151
      ],
      [
        "▁Однако",
        -8.792729957414046
      ],
      [
        "X",
        -8.793308657036926
      ],
      [
        "сейчас",
        -8.794853417028996
      ],
      [
        "▁собой",
        -8.795505755732089
      ],
      [
        "лишь",
        -8.796065903424445
      ],
      [
        "B",
        -8.79771628318028
      ],
      [
        "вашего",
        -8.798803244730836
      ],
      [
        "▁проекта",
        -8.800627366669177
      ],
      [
        "▁права",
        -8.801643795927747
      ],
      [
        "ите",
        -8.802223332720443
      ],
      [
        "жизнь",
        -8.803078211641003
      ],
      [
        "▁котором",
        -8.803752602726618
      ],
      [
        "▁Иисус",
        -8.805028391447598
      ],
      [
        "▁там",
        -8.80666019787281
      ],
      [
        "йте",
        -8.807459006933309
      ],
      [
        "y",
        -8.80917414875421
      ],
      [
        "▁Его",
        -8.811654611035378
      ],
      [
        "▁своего",
        -8.812208720305497
      ],
      [
        "b",
        -8.817158666622133
      ],
      [
        "▁слова",
        -8.821533636761163
      ],
      [
        "да",
        -8.822289091036941
      ],
      [
        "ными",
        -8.822306716584308
      ],
      [
        "Д",
        -8.8243770377299
      ],
      [
        "▁право",
        -8.824421150477383
      ],
      [
        "▁решения",
        -8.826765324285844
      ],
      [
        "▁этим",
        -8.827420789361064
      ],
      [
        "▁месяца",
        -8.828534261560534
      ],
      [
        "▁способ",
        -8.830684457591092
      ],
      [
        "“",
        -8.830929474696331
      ],
      [
        "▁D",
        -8.83145416049552
      ],
      [
        "▁недели",
        -8.837058146911023
      ],
      [
        "ц",
        -8.839125015754286
      ],
      [
        "▁друг",
        -8.839681761225297
      ],
      [
        "из",
        -8.840526083921048
      ],
      [
        "▁себе",
        -8.844918825479962
      ],
      [
        "▁От",
        -8.84599923905825
      ],
      [
        "▁внимание",
        -8.847018874594278
      ],
      [
        "▁быстро",
        -8.84854437259774
      ],
      [
        "или",
        -8.853161699944676
      ],
      [
        "▁мир",
        -8.854599526934674
      ],
      [
        "▁веб",
        -8.854665670621356
      ],
      [
        "▁имеют",
        -8.85506181114195
      ],
      [
        "▁вопрос",
        -8.859638815601908
      ],
      [
        "▁Кроме",
        -8.86140419060862
      ],
      [
        "▁система",
        -8.864548180194896
      ],
      [
        "Б",
        -8.867819640971454
      ],
      [
        "▁B",
        -8.86817800049473
      ],
      [
        "▁средств",
        -8.872298554559949
      ],
      [
        "ра",
        -8.873754695107497
      ],
      [
        "▁лучше",
        -8.875588328572583
      ],
      [
        "▁услуг",
        -8.875662402307832
      ],
      [
        "защиты",
        -8.876435310181115
      ],
      [
        "одной",
        -8.878324915103516
      ],
      [
        "▁использования",
        -8.88006073557956
      ],
      [
        "расширение",
        -8.880236078723696
      ],
      [
        "▁включая",
        -8.882332535447576
      ],
      [
        "▁имя",
        -8.883103894366036
      ],
      [
        "▁стать",
        -8.885558675939071
      ],
      [
        "▁люди",
        -8.886806453344073
      ],
      [
        "ще",
        -8.887301322618393
      ],
      [
        "▁различных",
        -8.887672492014035
      ],
      [
        "▁позволяет",
        -8.888759075059005
      ],
      [
        "большие",
        -8.889221770780008
      ],
      [
        "новых",
        -8.894238125523636
      ],
      [
        "же",
        -8.899011788075912
      ],
      [
        "p",
        -8.912538596228321
      ],
      [
        "де",
        -8.91398269464533
      ],
      [
        "▁Т",
        -8.914265079235676
      ],
      [
        "▁следует",
        -8.916430027118842
      ],
      [
        "такие",
        -8.918376154853089
      ],
      [
        "▁группы",
        -8.919500613020046
      ],
      [
        "▁данные",
        -8.91975090436854
      ],
      [
        "▁лиц",
        -8.920857537128862
      ],
      [
        "▁часть",
        -8.92995653371666
      ],
      [
        "▁женщин",
        -8.930360960947748
      ],
      [
        "▁E",
        -8.930937659071969
      ],
      [
        "▁мире",
        -8.931641935361482
      ],
      [
        "▁трансы",
        -8.93406507945567
      ],
      [
        "_",
        -8.934788275540258
      ],
      [
        "▁проект",
        -8.937211742682567
      ],
      [
        "▁отношении",
        -8.937881927445
      ],
      [
        "▁части",
        -8.938079037420339
      ],
      [
        "”",
        -8.940428474490746
      ],
      [
        "▁программно",
        -8.94071808905491
      ],
      [
        "▁числе",
        -8.942556350268266
      ],
      [
        "▁F",
        -8.945005448027919
      ],
      [
        "▁нашей",
        -8.945066819053821
      ],
      [
        "ями",
        -8.946396171212335
      ],
      [
        "ны",
        -8.947089005530803
      ],
      [
        "▁член",
        -8.947806781122848
      ],
      [
        "▁менее",
        -8.948120498934248
      ],
      [
        "овых",
        -8.951027033090178
      ],
      [
        "▁уровне",
        -8.95220482701294
      ],
      [
        "▁ко",
        -8.95435070363514
      ],
      [
        "▁таким",
        -8.957121987068893
      ],
      [
        "▁Она",
        -8.958138561691717
      ],
      [
        "▁него",
        -8.959743970581743
      ],
      [
        "▁наших",
        -8.96055592182425
      ],
      [
        "▁доступ",
        -8.961105597539488
      ],
      [
        "▁момент",
        -8.961663363999984
      ],
      [
        "▁Этот",
        -8.964045451628904
      ],
      [
        "▁Во",
        -8.966580241428334
      ],
      [
        "▁G",
        -8.96778217247974
      ],
      [
        "ф",
        -8.968579379562883
      ],
      [
        "▁легко",
        -8.969276593041862
      ],
      [
        "▁онлайн",
        -8.969297098552826
      ],
      [
        "▁тот",
        -8.969698688865487
      ],
      [
        "C",
        -8.970939281504169
      ],
      [
        "▁сегодня",
        -8.972656488950527
      ],
      [
        "▁которого",
        -8.973324189409533
      ],
      [
        "Чтобы",
        -8.97507908007691
      ],
      [
        "▁полностью",
        -8.97584474941924
      ],
      [
        "▁среди",
        -8.980224157382718
      ],
      [
        "Т",
        -8.984400219807396
      ],
      [
        "▁помощи",
        -8.9878638158439
      ],
      [
        "▁Алиева",
        -8.987961005734004
      ],
      [
        "▁Главная",
        -8.98969576178034
      ],
      [
        "▁пока",
        -8.991444494231612
      ],
      [
        "▁возможности",
        -8.992687308410288
      ],
      [
        "▁решение",
        -8.994629106921227
      ],
      [
        "▁три",
        -8.995959393448446
      ],
      [
        "f",
        -8.997399575294365
      ],
      [
        "▁её",
        -8.998416647135572
      ],
      [
        "эту",
        -8.999427638959684
      ],
      [
        "▁средства",
        -9.000124717032907
      ],
      [
        "▁государства",
        -9.00539314803933
      ],
      [
        "другой",
        -9.005777092691638
      ],
      [
        "ность",
        -9.0082048161075
      ],
      [
        "▁уровня",
        -9.00871489788962
      ],
      [
        "er",
        -9.010711592642771
      ],
      [
        "основе",
        -9.010972389138258
      ],
      [
        "▁выбор",
        -9.01229106797917
      ],
      [
        "▁возможно",
        -9.01295545646057
      ],
      [
        "▁дома",
        -9.013271702161196
      ],
      [
        "▁район",
        -9.013551170485607
      ],
      [
        "▁особенно",
        -9.013887488529972
      ],
      [
        "▁срок",
        -9.01694449790554
      ],
      [
        "▁действия",
        -9.018661269129225
      ],
      [
        "▁проблемы",
        -9.020402278401203
      ],
      [
        "▁вместе",
        -9.020571664198787
      ],
      [
        "▁должно",
        -9.022166198882772
      ],
      [
        "▁вопросам",
        -9.023831742040343
      ],
      [
        "▁работу",
        -9.02590429328656
      ],
      [
        "▁прямо",
        -9.026315992149378
      ],
      [
        "▁Пере",
        -9.03147339945445
      ],
      [
        "▁анализа",
        -9.031546332673072
      ],
      [
        "ясь",
        -9.03212469995161
      ],
      [
        "▁одно",
        -9.034096221853073
      ],
      [
        "▁одного",
        -9.035011110736367
      ],
      [
        "рд",
        -9.038074084401517
      ],
      [
        "▁около",
        -9.038991237248114
      ],
      [
        "▁анализ",
        -9.043638168557322
      ],
      [
        "▁игра",
        -9.044717956059278
      ],
      [
        "▁производства",
        -9.046073349196721
      ],
      [
        "до",
        -9.046198699143028
      ],
      [
        "▁процесс",
        -9.050250819655457
      ],
      [
        "▁компания",
        -9.051274465959796
      ],
      [
        "▁программ",
        -9.051531806418545
      ],
      [
        "▁рас",
        -9.054496877764077
      ],
      [
        "▁стали",
        -9.055351784963651
      ],
      [
        "▁изменения",
        -9.056005551676959
      ],
      [
        "G",
        -9.056170419812453
      ],
      [
        "▁именно",
        -9.059650625256955
      ],
      [
        "Р",
        -9.060876861749183
      ],
      [
        "▁T",
        -9.060948362590649
      ],
      [
        "ешь",
        -9.06238910780644
      ],
      [
        "▁Ф",
        -9.063469078012561
      ],
      [
        "°C",
        -9.065695338829556
      ],
      [
        "▁сети",
        -9.06572709026662
      ],
      [
        "Е",
        -9.066337320553709
      ],
      [
        "▁необходим",
        -9.067293168182678
      ],
      [
        "▁Наций",
        -9.067909613096672
      ],
      [
        "Я",
        -9.068427993373005
      ],
      [
        "Организации",
        -9.068590602485147
      ],
      [
        "тебе",
        -9.071174547490504
      ],
      [
        "вер",
        -9.071961928273588
      ],
      [
        "каждый",
        -9.073462056896181
      ],
      [
        "▁сиськи",
        -9.07771902818257
      ],
      [
        "▁своем",
        -9.07799838736846
      ],
      [
        "▁количество",
        -9.078721175358003
      ],
      [
        "▁затем",
        -9.079137699475861
      ],
      [
        "▁места",
        -9.081425233733135
      ],
      [
        "▁проблем",
        -9.083568698940438
      ],
      [
        "новые",
        -9.083701322224659
      ],
      [
        "должна",
        -9.08390748115227
      ],
      [
        "поэтому",
        -9.091893788492179
      ],
      [
        "Объединенных",
        -9.093679814824533
      ],
      [
        "▁хорошо",
        -9.094305585540555
      ],
      [
        "▁те",
        -9.0977154393219
      ],
      [
        "▁свое",
        -9.10006107184991
      ],
      [
        "€",
        -9.10112595573383
      ],
      [
        "наиболее",
        -9.102500701975192
      ],
      [
        "▁опыт",
        -9.102877180978753
      ],
      [
        "g",
        -9.104861173173786
      ],
      [
        "▁оргазм",
        -9.105983249843769
      ],
      [
        "такой",
        -9.105987556378972
      ],
      [
        "▁вопросы",
        -9.108194614652977
      ],
      [
        "▁Про",
        -9.112491105757625
      ],
      [
        "▁Интернет",
        -9.113645132575671
      ],
      [
        "▁теперь",
        -9.114389060336123
      ],
      [
        "▁I",
        -9.114437542939807
      ],
      [
        "▁кв",
        -9.118153835587805
      ],
      [
        "▁материал",
        -9.122518862972763
      ],
      [
        "можем",
        -9.125264287422015
      ],
      [
        "▁территории",
        -9.126088670672004
      ],
      [
        "▁скорость",
        -9.126524525472815
      ],
      [
        "вашем",
        -9.127651273122876
      ],
      [
        "вести",
        -9.128874495253415
      ],
      [
        "▁ниже",
        -9.134192137571532
      ],
      [
        "▁политики",
        -9.138530741511213
      ],
      [
        "M",
        -9.13931954796069
      ],
      [
        "▁тип",
        -9.140954879589794
      ],
      [
        "▁видео",
        -9.142830106674905
      ],
      [
        "▁целью",
        -9.143782873494429
      ],
      [
        "▁качества",
        -9.146079318050106
      ],
      [
        "ских",
        -9.146088178254635
      ],
      [
        "v",
        -9.146952979642622
      ],
      [
        "▁некоторые",
        -9.147609861650416
      ],
      [
        "большая",
        -9.14762831767218
      ],
      [
        "▁которую",
        -9.152293713827778
      ],
      [
        "никогда",
        -9.15258697799442
      ],
      [
        "▁значение",
        -9.152724604820046
      ],
      [
        "▁постоянно",
        -9.153296428621495
      ],
      [
        "▁начала",
        -9.153323924982015
      ],
      [
        "чего",
        -9.153762854118776
      ],
      [
        "n",
        -9.154199605431765
      ],
      [
        "▁млн",
        -9.160071338854182
      ],
      [
        "▁например",
        -9.161298094775825
      ],
      [
        "▁номер",
        -9.16189658542466
      ],
      [
        "▁одним",
        -9.163226618939909
      ],
      [
        "▁уровень",
        -9.16353869160028
      ],
      [
        "▁эта",
        -9.1638899133961
      ],
      [
        "▁дом",
        -9.165000015576911
      ],
      [
        "ходе",
        -9.167406208345566
      ],
      [
        "▁создания",
        -9.169593453140116
      ],
      [
        "▁важно",
        -9.169775572692329
      ],
      [
        "▁L",
        -9.17012833203311
      ],
      [
        "Украины",
        -9.171703953417236
      ],
      [
        "▁Р",
        -9.172482048114155
      ],
      [
        "▁объем",
        -9.174445424186574
      ],
      [
        "овые",
        -9.174831169470494
      ],
      [
        "r",
        -9.175114402101384
      ],
      [
        "ния",
        -9.176519510488856
      ],
      [
        "▁найти",
        -9.177415584773202
      ],
      [
        "ё",
        -9.177573346533308
      ],
      [
        "▁см",
        -9.178925806974126
      ],
      [
        "▁новый",
        -9.179386269986425
      ],
      [
        "▁минут",
        -9.179399048353943
      ],
      [
        "▁Из",
        -9.180116869223927
      ],
      [
        "▁власти",
        -9.181131378363583
      ],
      [
        "▁многих",
        -9.181236478543124
      ],
      [
        "•",
        -9.18300556564582
      ],
      [
        "▁компьютер",
        -9.18413429013356
      ],
      [
        "▁тогда",
        -9.185663118206865
      ],
      [
        "▁достаточно",
        -9.187298122682442
      ],
      [
        "▁результате",
        -9.188637057578436
      ],
      [
        "▁Н",
        -9.190901716228565
      ],
      [
        "▁часто",
        -9.191012507468109
      ],
      [
        "самых",
        -9.192210625260095
      ],
      [
        "▁хотя",
        -9.192868752179205
      ],
      [
        "ду",
        -9.193114645189791
      ],
      [
        "▁Эти",
        -9.19709958146043
      ],
      [
        "Г",
        -9.199567361357044
      ],
      [
        "▁пор",
        -9.201811095651768
      ],
      [
        "йти",
        -9.204926862271725
      ],
      [
        "▁хотел",
        -9.207356897568525
      ],
      [
        "▁почти",
        -9.208883698946774
      ],
      [
        "▁H",
        -9.211650040055153
      ],
      [
        "▁Бог",
        -9.211758645459623
      ],
      [
        "▁самом",
        -9.211798057669611
      ],
      [
        "▁пол",
        -9.212861894612589
      ],
      [
        "ры",
        -9.214772012827863
      ],
      [
        "▁цен",
        -9.214839406914873
      ],
      [
        "▁Стриптиз",
        -9.215495062283194
      ],
      [
        "дать",
        -9.21592538413006
      ],
      [
        "▁своим",
        -9.216403427520582
      ],
      [
        "▁интернет",
        -9.218308149481366
      ],
      [
        "▁вид",
        -9.218807333393514
      ],
      [
        "▁систем",
        -9.220562410931668
      ],
      [
        "▁услуги",
        -9.220595533925419
      ],
      [
        "▁образования",
        -9.222321229674058
      ],
      [
        "▁Эта",
        -9.224410882656649
      ],
      [
        "▁ним",
        -9.224513821267706
      ],
      [
        "▁область",
        -9.224597972266814
      ],
      [
        "▁июн",
        -9.224723568718371
      ],
      [
        "ью",
        -9.225853384873812
      ],
      [
        "▁До",
        -9.228809599440446
      ],
      [
        "▁поскольку",
        -9.230514374830639
      ],
      [
        "▁странах",
        -9.231616877426703
      ],
      [
        "▁K",
        -9.232761702554042
      ],
      [
        "▁обычно",
        -9.233083495487287
      ],
      [
        "▁задач",
        -9.233541197952382
      ],
      [
        "▁счет",
        -9.234621788780965
      ],
      [
        "P",
        -9.235291908423198
      ],
      [
        "▁стал",
        -9.235376221433517
      ],
      [
        "ing",
        -9.23875137419209
      ],
      [
        "▁отеле",
        -9.23923114552726
      ],
      [
        "▁наши",
        -9.239951821465324
      ],
      [
        "настоящее",
        -9.241618819125788
      ],
      [
        "▁сервер",
        -9.242378473636196
      ],
      [
        "ля",
        -9.242654434966022
      ],
      [
        "▁N",
        -9.244259813228979
      ],
      [
        "иметь",
        -9.24455301492658
      ],
      [
        "▁дел",
        -9.24547935227405
      ],
      [
        "▁мая",
        -9.24789950308557
      ],
      [
        "могли",
        -9.249056121231698
      ],
      [
        "▁месяц",
        -9.252690993221947
      ],
      [
        "▁оно",
        -9.256479248955781
      ],
      [
        "ности",
        -9.25688721235094
      ],
      [
        "▁мой",
        -9.258678841777428
      ],
      [
        "▁работе",
        -9.260566867953578
      ],
      [
        "▁клиентов",
        -9.260843982725621
      ],
      [
        "▁W",
        -9.261615875352863
      ],
      [
        "▁бизнес",
        -9.264477182722898
      ],
      [
        "▁центр",
        -9.265067589257173
      ],
      [
        "▁Казахстан",
        -9.265236270749831
      ],
      [
        "▁многие",
        -9.266528613057273
      ],
      [
        "▁программа",
        -9.267133258426368
      ],
      [
        "любой",
        -9.26756499493484
      ],
      [
        "▁имени",
        -9.269840158987762
      ],
      [
        "T",
        -9.272307762500708
      ],
      [
        "▁осуществлени",
        -9.27298197548152
      ],
      [
        "овой",
        -9.276934364352563
      ],
      [
        "ничего",
        -9.277645530377907
      ],
      [
        "H",
        -9.277645688184899
      ],
      [
        "▁населения",
        -9.278863702571899
      ],
      [
        "▁благодаря",
        -9.280248764350356
      ],
      [
        "▁пред",
        -9.280328390727842
      ],
      [
        "▁отношения",
        -9.282192458351467
      ],
      [
        "▁однако",
        -9.283592132297944
      ],
      [
        "▁Вам",
        -9.284787808453684
      ],
      [
        "какой",
        -9.285114015599463
      ],
      [
        "▁которым",
        -9.287606234167422
      ],
      [
        "▁развитие",
        -9.290724102745113
      ],
      [
        "▁предприятия",
        -9.291011190430872
      ],
      [
        "▁Президент",
        -9.291305972605539
      ],
      [
        "неделю",
        -9.292524590704332
      ],
      [
        "▁доступны",
        -9.294786009069584
      ],
      [
        "▁Shemale",
        -9.29863298920811
      ],
      [
        "ец",
        -9.298911062479846
      ],
      [
        "▁закон",
        -9.299541326614884
      ],
      [
        "▁казино",
        -9.301455603244433
      ],
      [
        "▁составляет",
        -9.30186342782211
      ],
      [
        "ские",
        -9.303512489834427
      ],
      [
        "▁Со",
        -9.303608617647706
      ],
      [
        "▁анал",
        -9.305163923768534
      ],
      [
        "первый",
        -9.306039176449966
      ],
      [
        "▁лица",
        -9.306271427127724
      ],
      [
        "ль",
        -9.306949231262537
      ],
      [
        "▁воды",
        -9.308053684586577
      ],
      [
        "▁выше",
        -9.30846059376653
      ],
      [
        "сказать",
        -9.309761823317027
      ],
      [
        "ком",
        -9.310024717548947
      ],
      [
        "▁центра",
        -9.310407557550118
      ],
      [
        "▁рынка",
        -9.310515689334556
      ],
      [
        "▁Porn",
        -9.310618710959
      ],
      [
        "▁общества",
        -9.31129736449274
      ],
      [
        "▁представляет",
        -9.31162362201568
      ],
      [
        "Также",
        -9.313015635669046
      ],
      [
        "тер",
        -9.313466448230187
      ],
      [
        "ба",
        -9.313898014873764
      ],
      [
        "Ф",
        -9.315672132959753
      ],
      [
        "▁стране",
        -9.316586909855685
      ],
      [
        "▁известны",
        -9.319417468358477
      ],
      [
        "ник",
        -9.320800211816874
      ],
      [
        "▁сам",
        -9.322477233145422
      ],
      [
        "▁предлагает",
        -9.322493188300093
      ],
      [
        "▁ответ",
        -9.323140942835416
      ],
      [
        "t",
        -9.323573591092739
      ],
      [
        "сь",
        -9.323831888559244
      ],
      [
        "бан",
        -9.324886694867832
      ],
      [
        "Л",
        -9.324896647709165
      ],
      [
        "▁Нет",
        -9.32551663309392
      ],
      [
        "=",
        -9.326961298643237
      ],
      [
        "хотите",
        -9.328183369192717
      ],
      [
        "▁Гейдар",
        -9.32914978219078
      ],
      [
        "▁мест",
        -9.330521268362558
      ],
      [
        "▁расположен",
        -9.333385768831233
      ],
      [
        "▁ноябр",
        -9.333546759628108
      ],
      [
        "▁состав",
        -9.334712242164468
      ],
      [
        "▁дела",
        -9.335151339002575
      ],
      [
        "▁наш",
        -9.335362301687741
      ],
      [
        "▁мере",
        -9.336113412770949
      ],
      [
        "▁план",
        -9.337124802899242
      ],
      [
        "de",
        -9.339189382593526
      ],
      [
        "▁точно",
        -9.339505227427543
      ],
      [
        "▁проведения",
        -9.339790993439385
      ],
      [
        "▁граждан",
        -9.340430423342934
      ],
      [
        "▁жопа",
        -9.34079533837458
      ],
      [
        "▁ваши",
        -9.34206613204505
      ],
      [
        "У",
        -9.342362180239665
      ],
      [
        "L",
        -9.342825133926365
      ],
      [
        "▁Совета",
        -9.343108842505709
      ],
      [
        "Теперь",
        -9.3434743872637
      ],
      [
        "▁частност",
        -9.343543820251819
      ],
      [
        "▁пути",
        -9.343764546762493
      ],
      [
        "▁трех",
        -9.343841832279885
      ],
      [
        "in",
        -9.344282042790867
      ],
      [
        "▁каждого",
        -9.345019853175915
      ],
      [
        "▁бесплатно",
        -9.345124219617544
      ],
      [
        "всю",
        -9.345441743029433
      ],
      [
        "▁V",
        -9.346135062636185
      ],
      [
        "▁ряд",
        -9.34738760614337
      ],
      [
        "▁часов",
        -9.351362425960158
      ],
      [
        "▁Живо",
        -9.351898876815632
      ],
      [
        "▁город",
        -9.351971053017241
      ],
      [
        "▁работает",
        -9.352280978269965
      ],
      [
        "▁R",
        -9.353583877213941
      ],
      [
        "▁пользователя",
        -9.354053600733021
      ],
      [
        "▁делать",
        -9.35446469565819
      ],
      [
        "▁модель",
        -9.354867120103671
      ],
      [
        "www",
        -9.355917278529374
      ],
      [
        "ель",
        -9.356843775302183
      ],
      [
        "▁условиях",
        -9.357295904981168
      ],
      [
        "ман",
        -9.357542041292234
      ],
      [
        "▁Х",
        -9.35912474971712
      ],
      [
        "овая",
        -9.361991253076033
      ],
      [
        "▁пункт",
        -9.36432792617657
      ],
      [
        "▁условия",
        -9.368195690085821
      ],
      [
        "целях",
        -9.369573941974117
      ],
      [
        "▁свет",
        -9.369720219897353
      ],
      [
        "▁информация",
        -9.370547287332588
      ],
      [
        "▁мл",
        -9.37244982499448
      ],
      [
        "▁размер",
        -9.372809107494929
      ],
      [
        "▁сотрудничества",
        -9.373246259154131
      ],
      [
        "▁деятельность",
        -9.373593450399635
      ],
      [
        "при",
        -9.375115117250012
      ],
      [
        "▁заявил",
        -9.37632956450532
      ],
      [
        "▁группа",
        -9.376809412140691
      ],
      [
        "▁оборудования",
        -9.376902032695899
      ],
      [
        "▁нового",
        -9.376924270168677
      ],
      [
        "мен",
        -9.377894882268109
      ],
      [
        "▁нажмите",
        -9.379352431913695
      ],
      [
        "мер",
        -9.379380733398518
      ],
      [
        "V",
        -9.37969969081166
      ],
      [
        "▁выберите",
        -9.381581318223986
      ],
      [
        "сек",
        -9.382066610443468
      ],
      [
        "▁секунд",
        -9.382854580581597
      ],
      [
        "▁действительно",
        -9.386458169181818
      ],
      [
        "Х",
        -9.388338107591496
      ],
      [
        "ер",
        -9.388871382749043
      ],
      [
        "▁декабря",
        -9.38903491589934
      ],
      [
        "тому",
        -9.389833602209597
      ],
      [
        "▁сайта",
        -9.39273397413698
      ],
      [
        "▁нескольких",
        -9.393109266441819
      ],
      [
        "▁поставщик",
        -9.393881518290996
      ],
      [
        "▁качество",
        -9.395126037092702
      ],
      [
        "дает",
        -9.395710668889835
      ],
      [
        "▁тысяч",
        -9.396923718439549
      ],
      [
        "▁Ре",
        -9.397055901640677
      ],
      [
        "некоторых",
        -9.39829911315862
      ],
      [
        "юсь",
        -9.398526702889432
      ],
      [
        "АО",
        -9.398862965665066
      ],
      [
        "▁расширения",
        -9.398925437057086
      ],
      [
        "▁государств",
        -9.399084465257827
      ],
      [
        "▁нашего",
        -9.399734346560162
      ],
      [
        "начать",
        -9.400833815656323
      ],
      [
        "▁поддержки",
        -9.401528698485011
      ],
      [
        "▁O",
        -9.40170906761843
      ],
      [
        "▁отметил",
        -9.401759484390459
      ],
      [
        "▁сфере",
        -9.404845856970304
      ],
      [
        "июля",
        -9.405053208495405
      ],
      [
        "меры",
        -9.405483787959845
      ],
      [
        "реализации",
        -9.407148942328917
      ],
      [
        "▁доступа",
        -9.407319460775357
      ],
      [
        "▁делает",
        -9.410725107390487
      ],
      [
        "▁долларов",
        -9.411268216115804
      ],
      [
        "▁процесса",
        -9.411696879463817
      ],
      [
        "▁работа",
        -9.412396672185197
      ],
      [
        "▁директор",
        -9.412605513714116
      ],
      [
        "точки",
        -9.412882368291502
      ],
      [
        "▁международных",
        -9.413392832351395
      ],
      [
        "бо",
        -9.413449397318715
      ],
      [
        "▁путем",
        -9.414561900290444
      ],
      [
        "Н",
        -9.415288985009532
      ],
      [
        "▁вашей",
        -9.416851681150595
      ],
      [
        "▁роль",
        -9.417039263337845
      ],
      [
        "al",
        -9.418108669179638
      ],
      [
        "▁экономики",
        -9.419332473569506
      ],
      [
        "▁Таки",
        -9.42138226086897
      ],
      [
        "▁стол",
        -9.423562213166562
      ],
      [
        "▁Э",
        -9.423647515804179
      ],
      [
        "▁пресс",
        -9.424081060402782
      ],
      [
        "▁наук",
        -9.425812078275879
      ],
      [
        "▁продукции",
        -9.427459060763617
      ],
      [
        "▁самым",
        -9.428635982566414
      ],
      [
        "▁истории",
        -9.430203974227595
      ],
      [
        "Hub",
        -9.430494659133258
      ],
      [
        "▁Сним",
        -9.430870090732412
      ],
      [
        "▁организаций",
        -9.431966122828632
      ],
      [
        "▁сентября",
        -9.432970289508743
      ],
      [
        "лен",
        -9.43410076578022
      ],
      [
        "емся",
        -9.4348860169486
      ],
      [
        "▁номера",
        -9.435208434283451
      ],
      [
        "▁деле",
        -9.43565758362716
      ],
      [
        "▁море",
        -9.435784155828488
      ],
      [
        "инг",
        -9.43667132873909
      ],
      [
        "получения",
        -9.438109678764901
      ],
      [
        "▁практически",
        -9.438162713474313
      ],
      [
        "▁борьб",
        -9.438954050565735
      ],
      [
        "W",
        -9.440189877483947
      ],
      [
        "казать",
        -9.440373736602693
      ],
      [
        "▁другими",
        -9.441417617166868
      ],
      [
        "следующие",
        -9.441643654889754
      ],
      [
        "▁одна",
        -9.44425240002245
      ],
      [
        "ча",
        -9.44585005282066
      ],
      [
        "▁вот",
        -9.446361492095123
      ],
      [
        "▁годы",
        -9.447146965865514
      ],
      [
        "▁ПК",
        -9.447218417171149
      ],
      [
        "▁действий",
        -9.447833044308188
      ],
      [
        "▁месте",
        -9.44811401598355
      ],
      [
        "k",
        -9.450282589576904
      ],
      [
        "▁виде",
        -9.451742153028848
      ],
      [
        "службы",
        -9.451875052004786
      ],
      [
        "▁Бога",
        -9.452957391371497
      ],
      [
        "▁J",
        -9.453637788191681
      ],
      [
        "пример",
        -9.456210420484522
      ],
      [
        "▁компаний",
        -9.45732856821692
      ],
      [
        "гг",
        -9.460498177799431
      ],
      [
        "▁прежде",
        -9.462745690116884
      ],
      [
        "проектов",
        -9.46500705384299
      ],
      [
        "ъ",
        -9.466491783232902
      ],
      [
        "▁ресурсов",
        -9.466618609218752
      ],
      [
        "▁помощь",
        -9.467416377338454
      ],
      [
        "▁дело",
        -9.46743578912856
      ],
      [
        "▁http",
        -9.468443368608444
      ],
      [
        "▁Российско",
        -9.471148228188172
      ],
      [
        "▁вариант",
        -9.471738570348899
      ],
      [
        "▁число",
        -9.472489422849904
      ],
      [
        "▁социально",
        -9.473334311971843
      ],
      [
        "▁список",
        -9.473611794563924
      ],
      [
        "▁знаю",
        -9.473984169590816
      ],
      [
        "▁создать",
        -9.476406209455773
      ],
      [
        "▁марта",
        -9.477498094873763
      ],
      [
        "▁случая",
        -9.47750479027106
      ],
      [
        "▁Некоторы",
        -9.478979110151895
      ],
      [
        "▁рынке",
        -9.48003782265742
      ],
      [
        "▁да",
        -9.480064183217179
      ],
      [
        "технологий",
        -9.481702956745593
      ],
      [
        "▁технологии",
        -9.48292437983657
      ],
      [
        "h",
        -9.484016410063989
      ],
      [
        "новой",
        -9.48462988458515
      ],
      [
        "▁обеспечить",
        -9.48560968411295
      ],
      [
        "▁такое",
        -9.487235511530274
      ],
      [
        "▁две",
        -9.487895819251268
      ],
      [
        "изменить",
        -9.488514667629723
      ],
      [
        "слишком",
        -9.488808714029695
      ],
      [
        "▁само",
        -9.489300675796695
      ],
      [
        "▁происходит",
        -9.49111361770265
      ],
      [
        "▁последние",
        -9.491534625666418
      ],
      [
        "▁городе",
        -9.491536674848057
      ],
      [
        "▁Россия",
        -9.492744470366986
      ],
      [
        "▁использование",
        -9.492873559646936
      ],
      [
        "сюда",
        -9.495007066035585
      ],
      [
        "дер",
        -9.497069078482268
      ],
      [
        "▁значительно",
        -9.49835757793346
      ],
      [
        "ru",
        -9.49871346589094
      ],
      [
        "▁мужчин",
        -9.499663360049404
      ],
      [
        "▁цели",
        -9.500632465148211
      ],
      [
        "▁поддержку",
        -9.500931328578147
      ],
      [
        "▁цвет",
        -9.5011366210161
      ],
      [
        "▁используется",
        -9.502086540298498
      ],
      [
        "R",
        -9.502642448462666
      ],
      [
        "▁Генерально",
        -9.503066779795653
      ],
      [
        "▁телефон",
        -9.503106595579528
      ],
      [
        "▁работать",
        -9.50326372183193
      ],
      [
        "▁Совет",
        -9.505095864649304
      ],
      [
        "словам",
        -9.505346758693744
      ],
      [
        "▁могу",
        -9.505978572038853
      ],
      [
        "▁Господь",
        -9.506266954343028
      ],
      [
        "об",
        -9.506751919614972
      ],
      [
        "▁относительно",
        -9.50725137231947
      ],
      [
        "▁почему",
        -9.509348788672234
      ],
      [
        "▁типа",
        -9.509471138644832
      ],
      [
        "▁совместно",
        -9.509774426625828
      ],
      [
        "▁любительское",
        -9.511221061337224
      ],
      [
        "▁отеля",
        -9.51193452684931
      ],
      [
        "▁секс",
        -9.512681937881133
      ],
      [
        "▁пожалуйста",
        -9.513252942274903
      ],
      [
        "апреля",
        -9.513458800316005
      ],
      [
        "▁сумм",
        -9.513960048232612
      ],
      [
        "▁обеспечивает",
        -9.516754103938618
      ],
      [
        "▁означает",
        -9.517067965779031
      ],
      [
        "▁причин",
        -9.517931113019308
      ],
      [
        "октября",
        -9.518214087488088
      ],
      [
        "▁снова",
        -9.521344278479358
      ],
      [
        "▁нами",
        -9.521683748053546
      ],
      [
        "▁использует",
        -9.524229379957866
      ],
      [
        "▁культуры",
        -9.524914445837835
      ],
      [
        "▁температур",
        -9.526248963631133
      ],
      [
        "▁То",
        -9.527241723121628
      ],
      [
        "▁тоже",
        -9.528197679572466
      ],
      [
        "▁целом",
        -9.528434305343334
      ],
      [
        "on",
        -9.528967896619577
      ],
      [
        "▁согласно",
        -9.5296794889226
      ],
      [
        "▁программу",
        -9.530532411978223
      ],
      [
        "▁приложение",
        -9.530653847515087
      ],
      [
        "▁центре",
        -9.533104823645441
      ],
      [
        "▁Л",
        -9.533843851385292
      ],
      [
        "K",
        -9.533956802834298
      ],
      [
        "▁специально",
        -9.533964586471777
      ],
      [
        "▁линии",
        -9.535616105720981
      ],
      [
        "▁исследования",
        -9.535818286878703
      ],
      [
        "про",
        -9.53647415693495
      ],
      [
        "▁Вот",
        -9.536700247446168
      ],
      [
        "▁народ",
        -9.5386588003103
      ],
      [
        "▁правительства",
        -9.539519589786575
      ],
      [
        "▁различные",
        -9.540151032429826
      ],
      [
        "ает",
        -9.540668752369958
      ],
      [
        "ировать",
        -9.542587192179354
      ],
      [
        "▁книг",
        -9.54269878556034
      ],
      [
        "ового",
        -9.54672563933463
      ],
      [
        "▁материалов",
        -9.546811662416298
      ],
      [
        "▁принять",
        -9.546839511073669
      ],
      [
        "▁продуктов",
        -9.546990787587404
      ],
      [
        "▁социальны",
        -9.547311464923784
      ],
      [
        "▁Ну",
        -9.549098667196398
      ],
      [
        "▁установки",
        -9.54983294018582
      ],
      [
        "▁минет",
        -9.550786155002804
      ],
      [
        "▁ибо",
        -9.550898284767046
      ],
      [
        "▁гостей",
        -9.551060404103325
      ],
      [
        "F",
        -9.551206852979957
      ],
      [
        "▁Фонд",
        -9.552015610247112
      ],
      [
        "E",
        -9.553889654691062
      ],
      [
        "▁любы",
        -9.556469941186064
      ],
      [
        "▁содержит",
        -9.557516752370498
      ],
      [
        "▁пользователей",
        -9.558066733768552
      ],
      [
        "▁связанные",
        -9.558336789852415
      ],
      [
        "играть",
        -9.559163037267087
      ],
      [
        "▁начал",
        -9.559307096104568
      ],
      [
        "▁меньше",
        -9.559350744584286
      ],
      [
        "▁доклад",
        -9.559507341413692
      ],
      [
        "результаты",
        -9.561549330844269
      ],
      [
        "▁формате",
        -9.562084735184907
      ],
      [
        "▁Компания",
        -9.562464591777237
      ],
      [
        "▁иностранных",
        -9.563003488631775
      ],
      [
        "▁стоит",
        -9.56485037616998
      ],
      [
        "▁модели",
        -9.56553741406439
      ],
      [
        "▁энергии",
        -9.56584661796555
      ],
      [
        "▁язык",
        -9.565846708884475
      ],
      [
        "▁Под",
        -9.567568539270368
      ],
      [
        "ро",
        -9.568029711971151
      ],
      [
        "ша",
        -9.568373147124586
      ],
      [
        "ному",
        -9.56861993182168
      ],
      [
        "▁обеспечение",
        -9.56899783362682
      ],
      [
        "▁состоит",
        -9.569753118459557
      ],
      [
        "▁необходимости",
        -9.570792993892773
      ],
      [
        "▁систему",
        -9.571685910685284
      ],
      [
        "▁университет",
        -9.571710200985807
      ],
      [
        "ства",
        -9.57283671575422
      ],
      [
        "▁силу",
        -9.574030100649226
      ],
      [
        "▁суд",
        -9.574528566737571
      ],
      [
        "▁Сегодня",
        -9.575290432459127
      ],
      [
        "▁конце",
        -9.576290713005715
      ],
      [
        "помочь",
        -9.576387160192281
      ],
      [
        "деньги",
        -9.576894906153031
      ],
      [
        "января",
        -9.577362914614755
      ],
      [
        "▁положения",
        -9.577463818192506
      ],
      [
        "▁весьма",
        -9.577636222070057
      ],
      [
        "▁пыта",
        -9.577931373771513
      ],
      [
        "▁сообщил",
        -9.577964221670713
      ],
      [
        "▁феврал",
        -9.578929891169352
      ],
      [
        "▁применения",
        -9.578959865247242
      ],
      [
        "▁сведения",
        -9.579123011673538
      ],
      [
        "▁служб",
        -9.579183765917435
      ],
      [
        "N",
        -9.579442483340687
      ],
      [
        "▁роста",
        -9.580609760876072
      ],
      [
        "ние",
        -9.580776491527795
      ],
      [
        "▁ЕС",
        -9.581049651144173
      ],
      [
        "▁среды",
        -9.583237495651286
      ],
      [
        "▁международного",
        -9.583310924216399
      ],
      [
        "мин",
        -9.584505141282897
      ],
      [
        "▁контроля",
        -9.584901227742094
      ],
      [
        "▁цветов",
        -9.586407652916833
      ],
      [
        "▁евро",
        -9.586680684597773
      ],
      [
        "▁сил",
        -9.586707675380344
      ],
      [
        "▁рост",
        -9.586859698244707
      ],
      [
        "▁стоимость",
        -9.587572360720728
      ],
      [
        "▁комната",
        -9.587867564181119
      ],
      [
        "зрения",
        -9.58946041376516
      ],
      [
        "▁факт",
        -9.58960250543194
      ],
      [
        "▁зависимости",
        -9.589875298164188
      ],
      [
        "▁подход",
        -9.58989920547382
      ],
      [
        "▁производитель",
        -9.590098458380874
      ],
      [
        "кой",
        -9.592597301569585
      ],
      [
        "▁Китай",
        -9.59310910963386
      ],
      [
        "тель",
        -9.593795036058415
      ],
      [
        "▁научно",
        -9.594479202775982
      ],
      [
        "▁мог",
        -9.596078377952695
      ],
      [
        "▁HD",
        -9.598653220656347
      ],
      [
        "▁продукта",
        -9.599096661474885
      ],
      [
        "▁групп",
        -9.601319422823302
      ],
      [
        "▁Мне",
        -9.601887182938706
      ],
      [
        "основных",
        -9.601961690184947
      ],
      [
        "▁сайте",
        -9.603560579692472
      ],
      [
        "▁сравнени",
        -9.60434161408799
      ],
      [
        "▁данным",
        -9.604556034016252
      ],
      [
        "▁Ш",
        -9.604661463719804
      ],
      [
        "путь",
        -9.604906952673417
      ],
      [
        "▁работ",
        -9.605354262362372
      ],
      [
        "силы",
        -9.60565435816007
      ],
      [
        "ском",
        -9.608384175770956
      ],
      [
        "ши",
        -9.608671065817882
      ],
      [
        "раз",
        -9.608919847973588
      ],
      [
        "▁нашим",
        -9.609294539777773
      ],
      [
        "▁существует",
        -9.609884012582269
      ],
      [
        "amp",
        -9.611673368220277
      ],
      [
        "▁последни",
        -9.61310257690817
      ],
      [
        "▁Европы",
        -9.613223418421907
      ],
      [
        "▁программе",
        -9.615168266601957
      ],
      [
        "ул",
        -9.61531542701105
      ],
      [
        "▁ними",
        -9.616453073328307
      ],
      [
        "▁TXXX",
        -9.616508263821887
      ],
      [
        "тон",
        -9.618829428515868
      ],
      [
        "▁Федерации",
        -9.619087918425201
      ],
      [
        "▁погод",
        -9.619195140717544
      ],
      [
        "▁воздуха",
        -9.619442589383961
      ],
      [
        "жа",
        -9.621265434245252
      ],
      [
        "могут",
        -9.622106740778529
      ],
      [
        "▁пляж",
        -9.622901919568795
      ],
      [
        "нибудь",
        -9.623012713405155
      ],
      [
        "▁регистрации",
        -9.62375959673785
      ],
      [
        "▁Китая",
        -9.624135162598952
      ],
      [
        "▁другим",
        -9.62480740097196
      ],
      [
        "▁бизнеса",
        -9.625544958256432
      ],
      [
        "▁внутри",
        -9.62631068691535
      ],
      [
        "▁Ко",
        -9.626361449188336
      ],
      [
        "▁сообщения",
        -9.626930186663959
      ],
      [
        "▁устройства",
        -9.627625354551713
      ],
      [
        "▁Об",
        -9.627912483665439
      ],
      [
        "▁прогноз",
        -9.628203972927428
      ],
      [
        "▁завод",
        -9.628783238993647
      ],
      [
        "▁Роле",
        -9.633758451204882
      ],
      [
        "▁правительство",
        -9.634886936373698
      ],
      [
        "▁статус",
        -9.635134020355547
      ],
      [
        "▁настройки",
        -9.64145345475174
      ],
      [
        "ожидается",
        -9.641512952999712
      ],
      [
        "▁создание",
        -9.642520989750492
      ],
      [
        "▁стратеги",
        -9.644815479379579
      ],
      [
        "▁мер",
        -9.645091586011553
      ],
      [
        "▁труда",
        -9.645768635756763
      ],
      [
        "▁множество",
        -9.645960608911295
      ],
      [
        "▁сообщает",
        -9.647325253286493
      ],
      [
        "▁развитию",
        -9.649415303053638
      ],
      [
        "файлы",
        -9.652683436151927
      ],
      [
        "тор",
        -9.653285248222382
      ],
      [
        "▁говорил",
        -9.653627558722464
      ],
      [
        "▁Украине",
        -9.653846637527284
      ],
      [
        "▁ре",
        -9.654199620755803
      ],
      [
        "разных",
        -9.654383483647534
      ],
      [
        "ющих",
        -9.654537319503861
      ],
      [
        "ещё",
        -9.655737784318294
      ],
      [
        "▁пример",
        -9.655885468216809
      ],
      [
        "▁решений",
        -9.656139433047986
      ],
      [
        "▁отдыха",
        -9.658596975332403
      ],
      [
        "кор",
        -9.659778050193518
      ],
      [
        "▁приложения",
        -9.661030069344887
      ],
      [
        "Грузии",
        -9.661078687027844
      ],
      [
        "лет",
        -9.66112349844809
      ],
      [
        "▁находятся",
        -9.662952593154396
      ],
      [
        "▁членов",
        -9.667526280472236
      ],
      [
        "▁август",
        -9.66759594386606
      ],
      [
        "рядом",
        -9.66898785137747
      ],
      [
        "она",
        -9.670392477298234
      ],
      [
        "▁участников",
        -9.670910610146933
      ],
      [
        "такого",
        -9.67195384430093
      ],
      [
        "▁Фонда",
        -9.671989035614713
      ],
      [
        "▁нашу",
        -9.673594660904516
      ],
      [
        "▁Casino",
        -9.67363182023553
      ],
      [
        "▁оборудование",
        -9.67463484410409
      ],
      [
        "▁мастурбация",
        -9.674786753671789
      ],
      [
        "▁поле",
        -9.675106955870909
      ],
      [
        "ость",
        -9.675269432594625
      ],
      [
        "▁совершенно",
        -9.6763355618659
      ],
      [
        "▁войны",
        -9.677896692022497
      ],
      [
        "хочу",
        -9.678226383682905
      ],
      [
        "▁режим",
        -9.679214124774228
      ],
      [
        "стью",
        -9.679834913241937
      ],
      [
        "▁Тем",
        -9.68134373980608
      ],
      [
        "▁сын",
        -9.681997200256284
      ],
      [
        "▁кнопку",
        -9.682007662338254
      ],
      [
        "смотреть",
        -9.683088394436437
      ],
      [
        "▁включает",
        -9.686889473942916
      ],
      [
        "щ",
        -9.686960916770326
      ],
      [
        "▁активно",
        -9.687604635464696
      ],
      [
        "▁становится",
        -9.688328088655876
      ],
      [
        "▁ООН",
        -9.688705094920776
      ],
      [
        "▁большинство",
        -9.688970853519889
      ],
      [
        "▁Здесь",
        -9.689026694834395
      ],
      [
        "нет",
        -9.689107481078299
      ],
      [
        "▁выбрать",
        -9.689982142349503
      ],
      [
        "▁предложения",
        -9.690065309320888
      ],
      [
        "▁зрелые",
        -9.690144629199995
      ],
      [
        "▁Инструмент",
        -9.69146159555939
      ],
      [
        "▁рабоче",
        -9.692831945083604
      ],
      [
        "ходят",
        -9.696302446777796
      ],
      [
        "▁мои",
        -9.697941799369179
      ],
      [
        "▁органов",
        -9.698012307524406
      ],
      [
        "▁Серби",
        -9.69999377057767
      ],
      [
        "▁игр",
        -9.701015204886678
      ],
      [
        "записи",
        -9.702638034452624
      ],
      [
        "▁фото",
        -9.70283307568128
      ],
      [
        "▁региона",
        -9.703334208470023
      ],
      [
        "че",
        -9.703862890456426
      ],
      [
        "▁З",
        -9.70494244626018
      ],
      [
        "▁Масло",
        -9.704947604666208
      ],
      [
        "вал",
        -9.705193005125047
      ],
      [
        "▁мероприятия",
        -9.706712568325864
      ],
      [
        "▁метод",
        -9.708046002345288
      ],
      [
        "▁станет",
        -9.708957505054132
      ],
      [
        "чень",
        -9.709008176981902
      ],
      [
        "цены",
        -9.709224288754095
      ],
      [
        "рабочих",
        -9.709472042657994
      ],
      [
        "▁моря",
        -9.710202142767479
      ],
      [
        "▁Мо",
        -9.710254424878874
      ],
      [
        "▁пре",
        -9.710591528169179
      ],
      [
        "▁события",
        -9.710705613973957
      ],
      [
        "▁конечно",
        -9.711646245481102
      ],
      [
        "близи",
        -9.712436503095047
      ],
      [
        "экономического",
        -9.713543811780767
      ],
      [
        "▁сделал",
        -9.713729117951209
      ],
      [
        "данном",
        -9.713759505757242
      ],
      [
        "▁весь",
        -9.713930488244085
      ],
      [
        "▁второй",
        -9.714399749179824
      ],
      [
        "▁системе",
        -9.71527704059695
      ],
      [
        "ShemaleTube",
        -9.71530001659194
      ],
      [
        "▁Ни",
        -9.716860465547752
      ],
      [
        "▁резолюци",
        -9.71732884366552
      ],
      [
        "▁известно",
        -9.71768084176562
      ],
      [
        "подробную",
        -9.720146418879366
      ],
      [
        "лин",
        -9.720334748565671
      ],
      [
        "l",
        -9.722768329831403
      ],
      [
        "▁стало",
        -9.722910995905758
      ],
      [
        "▁крайне",
        -9.723006552895528
      ],
      [
        "пер",
        -9.724074126653363
      ],
      [
        "▁гор",
        -9.724879316297093
      ],
      [
        "▁предприятий",
        -9.72488141100625
      ],
      [
        "▁характер",
        -9.72490535644773
      ],
      [
        "мимо",
        -9.726163235321614
      ],
      [
        "целей",
        -9.727052232371776
      ],
      [
        "Почему",
        -9.727259211296607
      ],
      [
        "▁касается",
        -9.728158453310943
      ],
      [
        "▁непосредственно",
        -9.729362604315384
      ],
      [
        "ись",
        -9.730719811224482
      ],
      [
        "▁достижения",
        -9.730942924456658
      ],
      [
        "ру",
        -9.731144373248181
      ],
      [
        "▁очередь",
        -9.732047646034253
      ],
      [
        "▁питания",
        -9.732125944991408
      ],
      [
        "▁состоянии",
        -9.732503897279468
      ],
      [
        "\n",
        -9.732507191095488
      ],
      [
        "▁сайт",
        -9.732681610508296
      ],
      [
        "конец",
        -9.73303322657773
      ],
      [
        "▁президент",
        -9.73496487714875
      ],
      [
        "ногда",
        -9.73667773204127
      ],
      [
        "▁автоматически",
        -9.736694976535134
      ],
      [
        "ете",
        -9.737164266806246
      ],
      [
        "частью",
        -9.738514658593859
      ],
      [
        "▁тела",
        -9.73911031590406
      ],
      [
        "▁неверно",
        -9.73932279823736
      ],
      [
        "ство",
        -9.739573784794876
      ],
      [
        "▁явля",
        -9.739928102424647
      ],
      [
        "▁раза",
        -9.740373417850261
      ],
      [
        "▁Сан",
        -9.740653823003557
      ],
      [
        "▁Ла",
        -9.741712043344345
      ],
      [
        "▁функции",
        -9.743827570290044
      ],
      [
        "усилия",
        -9.743981146224048
      ],
      [
        "▁сама",
        -9.744048834738145
      ],
      [
        "▁РФ",
        -9.744665383810009
      ],
      [
        "данной",
        -9.745235988833732
      ],
      [
        "▁глаза",
        -9.745459088146047
      ],
      [
        "▁фотографии",
        -9.746372936131417
      ],
      [
        "ваших",
        -9.746811033601633
      ],
      [
        "▁управление",
        -9.746848331747469
      ],
      [
        "▁конференции",
        -9.749758688025134
      ],
      [
        "▁бассейн",
        -9.749920482858395
      ],
      [
        "ed",
        -9.750139054219604
      ],
      [
        "какие",
        -9.750591513580163
      ],
      [
        "▁Отель",
        -9.752348908943063
      ],
      [
        "▁университета",
        -9.753203510049062
      ],
      [
        "порядке",
        -9.753924041301499
      ],
      [
        "▁немного",
        -9.754445679627485
      ],
      [
        "▁обучения",
        -9.755023373544734
      ],
      [
        "▁исследований",
        -9.755346095571616
      ],
      [
        "en",
        -9.756240657926421
      ],
      [
        "Ч",
        -9.758067448250497
      ],
      [
        "вод",
        -9.758748283415274
      ],
      [
        "▁механизм",
        -9.75971873246008
      ],
      [
        "▁вопросов",
        -9.759968047955873
      ],
      [
        "Сейчас",
        -9.761315407608812
      ],
      [
        "▁электронной",
        -9.76284496483998
      ],
      [
        "▁Ли",
        -9.76336848281371
      ],
      [
        "▁правила",
        -9.763862989341725
      ],
      [
        "▁принадлежности",
        -9.764163010333196
      ],
      [
        "другом",
        -9.764542805047572
      ],
      [
        "учи",
        -9.765501024994814
      ],
      [
        "Есть",
        -9.765890716047712
      ],
      [
        "▁документ",
        -9.76675387813156
      ],
      [
        "w",
        -9.76729963257404
      ],
      [
        "▁пакет",
        -9.767337551176539
      ],
      [
        "▁текст",
        -9.767537644714428
      ],
      [
        "▁высоко",
        -9.768687077606032
      ],
      [
        "▁особо",
        -9.769374426540613
      ],
      [
        "▁Вас",
        -9.769456949884761
      ],
      [
        "▁ране",
        -9.771372600168892
      ],
      [
        "▁договор",
        -9.772071237675362
      ],
      [
        "▁требования",
        -9.772108596321342
      ],
      [
        "выполнения",
        -9.774613176850464
      ],
      [
        "ска",
        -9.77464460240725
      ],
      [
        "▁Казахстана",
        -9.776099791027937
      ],
      [
        "▁воздух",
        -9.776168586226968
      ],
      [
        "▁отношений",
        -9.777134955147382
      ],
      [
        "▁успешно",
        -9.7777124358443
      ],
      [
        "каждом",
        -9.778320461235058
      ],
      [
        "тесь",
        -9.780280309031555
      ],
      [
        "Украина",
        -9.780534531412654
      ],
      [
        "кого",
        -9.780884542591304
      ],
      [
        "Э",
        -9.781289718612715
      ],
      [
        "бесплатный",
        -9.781534798525689
      ],
      [
        "▁земле",
        -9.781728133111995
      ],
      [
        "▁сильно",
        -9.782279474928142
      ],
      [
        "▁адрес",
        -9.782534027142571
      ],
      [
        "Ш",
        -9.782961150941224
      ],
      [
        "▁устройств",
        -9.783170748360883
      ],
      [
        "скую",
        -9.783369390727612
      ],
      [
        "выборов",
        -9.783696194914663
      ],
      [
        "▁Центр",
        -9.78372283563525
      ],
      [
        "▁соло",
        -9.783917943525871
      ],
      [
        "▁мало",
        -9.785120433106178
      ],
      [
        "▁сами",
        -9.785427690374739
      ],
      [
        "▁века",
        -9.787683913309642
      ],
      [
        "▁U",
        -9.788816907012853
      ],
      [
        "▁комплекс",
        -9.788962846743178
      ],
      [
        "▁принял",
        -9.789043909851612
      ],
      [
        "▁вероятно",
        -9.789151310739772
      ],
      [
        "▁ситуаци",
        -9.79051700395972
      ],
      [
        "Хотя",
        -9.792527586928859
      ],
      [
        "▁РК",
        -9.794706920482465
      ],
      [
        "что",
        -9.794793857685587
      ],
      [
        "▁сбор",
        -9.795212100211621
      ],
      [
        "первого",
        -9.796028455585379
      ],
      [
        "ющие",
        -9.796075634713167
      ],
      [
        "▁начина",
        -9.796575594856343
      ],
      [
        "▁канал",
        -9.797908100611508
      ],
      [
        "стер",
        -9.798311015061401
      ],
      [
        "йтесь",
        -9.798488020049948
      ],
      [
        "▁стала",
        -9.798571899208982
      ],
      [
        "▁профессионально",
        -9.800166097366793
      ],
      [
        "сразу",
        -9.802896373816788
      ],
      [
        "сколько",
        -9.803302810880409
      ],
      [
        "us",
        -9.80341139549347
      ],
      [
        "ца",
        -9.803770309623829
      ],
      [
        "под",
        -9.804507802715072
      ],
      [
        "▁нему",
        -9.805392147765922
      ],
      [
        "▁самого",
        -9.805602000130307
      ],
      [
        "▁государственно",
        -9.805886438296023
      ],
      [
        "▁машин",
        -9.805900649729894
      ],
      [
        "▁объектов",
        -9.805963486800763
      ],
      [
        "Дилдо",
        -9.807715067466612
      ],
      [
        "требуется",
        -9.808036512445979
      ],
      [
        "▁долго",
        -9.810242240365794
      ],
      [
        "окружающей",
        -9.810512815303872
      ],
      [
        "▁де",
        -9.810796773104048
      ],
      [
        "▁искусства",
        -9.813032629602008
      ],
      [
        "▁языка",
        -9.813734758147127
      ],
      [
        "▁одном",
        -9.81384785214258
      ],
      [
        "▁выход",
        -9.814917069647624
      ],
      [
        "▁надо",
        -9.815652375716404
      ],
      [
        "▁обработки",
        -9.815723859350967
      ],
      [
        "первой",
        -9.816153318017829
      ],
      [
        "рез",
        -9.81617332617764
      ],
      [
        "форматы",
        -9.816250132594009
      ],
      [
        "▁встреча",
        -9.816511113024088
      ],
      [
        "▁разделе",
        -9.817275924448799
      ],
      [
        "▁сердце",
        -9.817452807272291
      ],
      [
        "▁народа",
        -9.818353615350377
      ],
      [
        "будем",
        -9.818382782042532
      ],
      [
        "условий",
        -9.819295866025513
      ],
      [
        "каждой",
        -9.8194106187853
      ],
      [
        "ран",
        -9.820828382316476
      ],
      [
        "ости",
        -9.820968949421681
      ],
      [
        "ист",
        -9.821304199009102
      ],
      [
        "▁компьютера",
        -9.824874602775285
      ],
      [
        "ения",
        -9.824882713959312
      ],
      [
        "▁слово",
        -9.825506204657794
      ],
      [
        "▁обслуживания",
        -9.825521675269572
      ],
      [
        "▁маленьки",
        -9.82616040848996
      ],
      [
        "▁внешне",
        -9.826498050083455
      ],
      [
        "▁мероприятий",
        -9.826522039206871
      ],
      [
        "▁самое",
        -9.826721928135324
      ],
      [
        "▁вклад",
        -9.826769134766765
      ],
      [
        "Более",
        -9.826770524912346
      ],
      [
        "▁сотрудников",
        -9.827061323958226
      ],
      [
        "например",
        -9.828262922086923
      ],
      [
        "▁документов",
        -9.82833704958661
      ],
      [
        "▁Manager",
        -9.829398594312368
      ],
      [
        "TM",
        -9.829400065877627
      ],
      [
        "стр",
        -9.830390147601332
      ],
      [
        "▁своими",
        -9.830627410862796
      ],
      [
        "▁Благодаря",
        -9.830887385791115
      ],
      [
        "▁сотрудничеств",
        -9.831148213564711
      ],
      [
        "любого",
        -9.831619147189542
      ],
      [
        "▁Наш",
        -9.832605976203277
      ],
      [
        "данного",
        -9.832958047379496
      ],
      [
        "▁переговор",
        -9.83417491703952
      ],
      [
        "партии",
        -9.835009308040735
      ],
      [
        "етесь",
        -9.835085764662168
      ],
      [
        "▁производство",
        -9.8358517234519
      ],
      [
        "основном",
        -9.836536933744462
      ],
      [
        "▁требованиям",
        -9.83862621064782
      ],
      [
        "ситуации",
        -9.838833724100173
      ],
      [
        "▁курс",
        -9.83932885713137
      ],
      [
        "▁банка",
        -9.839824222010119
      ],
      [
        "▁максимально",
        -9.839880340128902
      ],
      [
        "▁готовы",
        -9.841781319051579
      ],
      [
        "ьте",
        -9.843372722822396
      ],
      [
        "an",
        -9.843866436818818
      ],
      [
        "одну",
        -9.84422559510698
      ],
      [
        "▁открытия",
        -9.845007870445238
      ],
      [
        "сон",
        -9.84558458585429
      ],
      [
        "▁видов",
        -9.845883311777428
      ],
      [
        "▁дизайн",
        -9.846094003433032
      ],
      [
        "оценки",
        -9.84657870737389
      ],
      [
        "соответствующим",
        -9.84831353399691
      ],
      [
        "re",
        -9.851245337302588
      ],
      [
        "▁информационно",
        -9.852475887004388
      ],
      [
        "▁ошибк",
        -9.8529641177126
      ],
      [
        "фи",
        -9.853237406823832
      ],
      [
        "стро",
        -9.853417440606778
      ],
      [
        "▁здоровья",
        -9.854000066267838
      ],
      [
        "▁вокруг",
        -9.85425742955057
      ],
      [
        "I",
        -9.85555064524506
      ],
      [
        "фа",
        -9.856116098706812
      ],
      [
        "▁четыре",
        -9.856334593806372
      ],
      [
        "▁клиента",
        -9.857139522517075
      ],
      [
        "Мастурбация",
        -9.857333687981257
      ],
      [
        "▁получил",
        -9.857698573439777
      ],
      [
        "▁сообщени",
        -9.858542209817118
      ],
      [
        "тащите",
        -9.858614384918049
      ],
      [
        "ющихся",
        -9.858950926769328
      ],
      [
        "▁равно",
        -9.858962224030641
      ],
      [
        "начале",
        -9.859684786608433
      ],
      [
        "▁цель",
        -9.860561576338357
      ],
      [
        "▁вес",
        -9.861898462965444
      ],
      [
        "▁результатов",
        -9.861934378578876
      ],
      [
        "▁использованием",
        -9.862373751960007
      ],
      [
        "▁первом",
        -9.862880722950106
      ],
      [
        "▁ответственность",
        -9.864153482952151
      ],
      [
        "ющего",
        -9.864908028359302
      ],
      [
        "участия",
        -9.86621433676463
      ],
      [
        "▁семьи",
        -9.867880762198284
      ],
      [
        "▁руки",
        -9.868604517070388
      ],
      [
        "▁промышленности",
        -9.868665480438212
      ],
      [
        "▁девушка",
        -9.86916885099803
      ],
      [
        "емых",
        -9.870065327472682
      ],
      [
        "▁интерес",
        -9.87009900767767
      ],
      [
        "▁бонус",
        -9.870626277604263
      ],
      [
        "ia",
        -9.871168508807958
      ],
      [
        "▁работник",
        -9.871658554743123
      ],
      [
        "торговли",
        -9.871681124200546
      ],
      [
        "следующих",
        -9.871899006415685
      ],
      [
        "Y",
        -9.871922498445604
      ],
      [
        "центр",
        -9.87197738240611
      ],
      [
        "▁Центра",
        -9.872154885108461
      ],
      [
        "Тогда",
        -9.872409430221168
      ],
      [
        "▁точка",
        -9.87277854158489
      ],
      [
        "▁продукты",
        -9.873577194321264
      ],
      [
        "Каждый",
        -9.873834608618008
      ],
      [
        "▁Европе",
        -9.874942682216867
      ],
      [
        "степени",
        -9.875456080130526
      ],
      [
        "▁отчет",
        -9.875905999284152
      ],
      [
        "▁транс",
        -9.87617567219546
      ],
      [
        "▁одновременно",
        -9.876462421493576
      ],
      [
        "кажется",
        -9.878067014667916
      ],
      [
        "▁Размер",
        -9.878367554983148
      ],
      [
        "▁обновления",
        -9.878429155027671
      ],
      [
        "▁занима",
        -9.879086176072219
      ],
      [
        "ющий",
        -9.879431632005728
      ],
      [
        "первых",
        -9.879443754364761
      ],
      [
        "J",
        -9.87971474565354
      ],
      [
        "▁представителей",
        -9.880612767895283
      ],
      [
        "общей",
        -9.88062648807263
      ],
      [
        "▁международной",
        -9.880810854997431
      ],
      [
        "▁кроме",
        -9.881050040209029
      ],
      [
        "▁любом",
        -9.88105508672804
      ],
      [
        "Латвии",
        -9.881082599482566
      ],
      [
        "▁земли",
        -9.881252068534348
      ],
      [
        "▁движения",
        -9.882116231089821
      ],
      [
        "▁реформ",
        -9.882548551897212
      ],
      [
        "▁пара",
        -9.883155614674484
      ],
      [
        "▁сессии",
        -9.88338680052761
      ],
      [
        "правило",
        -9.883989881532056
      ],
      [
        "▁использовании",
        -9.884484591525748
      ],
      [
        "▁Ази",
        -9.885188064294967
      ],
      [
        "вшись",
        -9.88523423264472
      ],
      [
        "▁примерно",
        -9.88601022094031
      ],
      [
        "▁продукт",
        -9.886527281074656
      ],
      [
        "▁усили",
        -9.886667137027839
      ],
      [
        "▁труд",
        -9.887404964412962
      ],
      [
        "▁приходит",
        -9.887774359595058
      ],
      [
        "▁форме",
        -9.888727024198326
      ],
      [
        "▁Александр",
        -9.889666383177042
      ],
      [
        "▁общего",
        -9.8904072256317
      ],
      [
        "▁риск",
        -9.891604321331206
      ],
      [
        "Согласно",
        -9.891785388567529
      ],
      [
        "сможете",
        -9.892691243335525
      ],
      [
        "▁собира",
        -9.892751760591926
      ],
      [
        "▁повышения",
        -9.892874853017107
      ],
      [
        "рынок",
        -9.892993199614232
      ],
      [
        "▁IP",
        -9.893667134124698
      ],
      [
        "ше",
        -9.894796510726659
      ],
      [
        "ста",
        -9.895898560001637
      ],
      [
        "▁офис",
        -9.897054209739007
      ],
      [
        "▁заказ",
        -9.897362255542484
      ],
      [
        "ge",
        -9.89778639735613
      ],
      [
        "▁версии",
        -9.89807836637413
      ],
      [
        "▁влияние",
        -9.898541578204597
      ],
      [
        "▁набор",
        -9.898936750318349
      ],
      [
        "здания",
        -9.899638308512696
      ],
      [
        "▁быстры",
        -9.900613183751144
      ],
      [
        "данный",
        -9.901447879028382
      ],
      [
        "всему",
        -9.901546864734897
      ],
      [
        "ген",
        -9.901900751559998
      ],
      [
        "▁Штат",
        -9.902423565500811
      ],
      [
        "▁комиссии",
        -9.903533555438274
      ],
      [
        "▁Самы",
        -9.903566144997638
      ],
      [
        "овый",
        -9.905358333951899
      ],
      [
        "▁просмотра",
        -9.907232435399582
      ],
      [
        "▁ресторан",
        -9.908248775447934
      ],
      [
        "▁радио",
        -9.909806451240483
      ],
      [
        "▁успех",
        -9.910730952730743
      ],
      [
        "▁Отдых",
        -9.910806060170028
      ],
      [
        "le",
        -9.910924089977767
      ],
      [
        "▁президента",
        -9.912352304796308
      ],
      [
        "▁считает",
        -9.91246419322606
      ],
      [
        "вновь",
        -9.913146217353061
      ],
      [
        "▁думаю",
        -9.913322045021284
      ],
      [
        "далее",
        -9.914055917724442
      ],
      [
        "высокой",
        -9.91548210177502
      ],
      [
        "учетом",
        -9.916647731619177
      ],
      [
        "O",
        -9.917343824751216
      ],
      [
        "▁проблема",
        -9.920210108347927
      ],
      [
        "ское",
        -9.920503895682078
      ],
      [
        "самый",
        -9.92066938427519
      ],
      [
        "▁вечер",
        -9.921098725494485
      ],
      [
        "▁СМИ",
        -9.92125982102273
      ],
      [
        "▁состояние",
        -9.92130578996566
      ],
      [
        "▁самые",
        -9.92149685649896
      ],
      [
        "▁дополнительно",
        -9.92161977392539
      ],
      [
        "смотря",
        -9.922179663691708
      ],
      [
        "увидеть",
        -9.922617905398031
      ],
      [
        "▁говорить",
        -9.923222815054613
      ],
      [
        "▁поверхност",
        -9.923334637463016
      ],
      [
        "▁сборник",
        -9.923726760411459
      ],
      [
        "▁Германии",
        -9.924951453346193
      ],
      [
        "▁Комитет",
        -9.92499568595102
      ],
      [
        "▁Инди",
        -9.925743136519719
      ],
      [
        "виду",
        -9.926741523994583
      ],
      [
        "Погода",
        -9.92701224366425
      ],
      [
        "знания",
        -9.927398975358244
      ],
      [
        "▁провел",
        -9.927544622778388
      ],
      [
        "▁необходимость",
        -9.928139073234606
      ],
      [
        "▁этаже",
        -9.928394332482334
      ],
      [
        "лечения",
        -9.929217429876948
      ],
      [
        "окне",
        -9.929604294764315
      ],
      [
        "▁представители",
        -9.929667777036247
      ],
      [
        "▁языке",
        -9.931023367092449
      ],
      [
        "▁идет",
        -9.931335506917936
      ],
      [
        "▁тыс",
        -9.931382278760891
      ],
      [
        "▁знать",
        -9.93181797618614
      ],
      [
        "смерти",
        -9.931966997250594
      ],
      [
        "людьми",
        -9.932080467516508
      ],
      [
        "▁формы",
        -9.932084556243415
      ],
      [
        "▁бес",
        -9.933168468867326
      ],
      [
        "▁рыб",
        -9.933569595250125
      ],
      [
        "лицо",
        -9.93450987535248
      ],
      [
        "ден",
        -9.935322666346286
      ],
      [
        "бар",
        -9.935408203605007
      ],
      [
        "▁Кор",
        -9.935441214782948
      ],
      [
        "†",
        -9.935710633812015
      ],
      [
        "бор",
        -9.936900778794998
      ],
      [
        "▁значит",
        -9.938702340156537
      ],
      [
        "▁позволит",
        -9.93886247844295
      ],
      [
        "кон",
        -9.939068914982766
      ],
      [
        "▁сервера",
        -9.939141690011933
      ],
      [
        "ось",
        -9.939436449614838
      ],
      [
        "▁запрос",
        -9.939659192649174
      ],
      [
        "др",
        -9.941361746991056
      ],
      [
        "бы",
        -9.941760960433278
      ],
      [
        "мнению",
        -9.942022894953352
      ],
      [
        "цена",
        -9.94216278033984
      ],
      [
        "Fi",
        -9.942664079358737
      ],
      [
        "▁требует",
        -9.944805473503527
      ],
      [
        "▁протяжении",
        -9.944909287377797
      ],
      [
        "▁Конвенции",
        -9.946443495448333
      ],
      [
        "▁открыто",
        -9.946641097197958
      ],
      [
        "▁Ю",
        -9.947469094752178
      ],
      [
        "Москва",
        -9.947572118064391
      ],
      [
        "▁изменений",
        -9.947659522314515
      ],
      [
        "основные",
        -9.947687917610255
      ],
      [
        "▁всеми",
        -9.947910838677705
      ],
      [
        "▁Киев",
        -9.948915469208973
      ],
      [
        "▁категории",
        -9.949162452911144
      ],
      [
        "▁Wi",
        -9.949186273534314
      ],
      [
        "По",
        -9.94931193459201
      ],
      [
        "ar",
        -9.950402201379388
      ],
      [
        "▁возможностей",
        -9.95105835596421
      ],
      [
        "▁эффективно",
        -9.951100973391307
      ],
      [
        "org",
        -9.95175849013151
      ],
      [
        "▁пяти",
        -9.952102778004564
      ],
      [
        "▁финансово",
        -9.95239510997281
      ],
      [
        "смогли",
        -9.95337197982873
      ],
      [
        "це",
        -9.95358163394472
      ],
      [
        "▁миллионов",
        -9.9540759430043
      ],
      [
        "школы",
        -9.954387789482743
      ],
      [
        "▁значения",
        -9.955500933708926
      ],
      [
        "заключается",
        -9.955798595437816
      ],
      [
        "▁строительства",
        -9.956557563173043
      ],
      [
        "▁контроль",
        -9.956938369177148
      ],
      [
        "На",
        -9.958367359678702
      ],
      [
        "связанных",
        -9.959832681589958
      ],
      [
        "▁Был",
        -9.960227212034011
      ],
      [
        "миру",
        -9.960857711106604
      ],
      [
        "▁тонн",
        -9.960880622415923
      ],
      [
        "передачи",
        -9.960890446343434
      ],
      [
        "▁буд",
        -9.961103612059562
      ],
      [
        "шел",
        -9.961601660529244
      ],
      [
        "пре",
        -9.962249929830215
      ],
      [
        "лов",
        -9.963636875792224
      ],
      [
        "▁хочет",
        -9.963655228736435
      ],
      [
        "ников",
        -9.965193258811782
      ],
      [
        "▁закона",
        -9.965650915864572
      ],
      [
        "ющиеся",
        -9.966806805740957
      ],
      [
        "узнать",
        -9.96818205638915
      ],
      [
        "ряд",
        -9.968251642255575
      ],
      [
        "▁Па",
        -9.968310710297985
      ],
      [
        "as",
        -9.968526955898852
      ],
      [
        "▁структур",
        -9.969366382788214
      ],
      [
        "▁душ",
        -9.970052182461849
      ],
      [
        "▁Азербайджана",
        -9.972281031474658
      ],
      [
        "▁комнат",
        -9.972355533144128
      ],
      [
        "государственных",
        -9.972740313234697
      ],
      [
        "▁цвета",
        -9.972803840600575
      ],
      [
        "▁Аллах",
        -9.974015798781075
      ],
      [
        "▁прогресс",
        -9.974463608685799
      ],
      [
        "▁дух",
        -9.974623651938732
      ],
      [
        "ющей",
        -9.97482997330503
      ],
      [
        "Москве",
        -9.974980603547932
      ],
      [
        "is",
        -9.975390162380114
      ],
      [
        "остается",
        -9.975424861935736
      ],
      [
        "▁положение",
        -9.976359795349982
      ],
      [
        "страницу",
        -9.976672065883916
      ],
      [
        "▁сезон",
        -9.977145968247966
      ],
      [
        "ход",
        -9.977174950706551
      ],
      [
        "▁нашем",
        -9.977252394361477
      ],
      [
        "▁будущем",
        -9.977305716731427
      ],
      [
        "ибратор",
        -9.97736253759204
      ],
      [
        "▁туризм",
        -9.978534199763901
      ],
      [
        "▁ведь",
        -9.979173228127769
      ],
      [
        "▁сфер",
        -9.979211560452002
      ],
      [
        "Только",
        -9.979817560073363
      ],
      [
        "▁суда",
        -9.979915394765397
      ],
      [
        "▁показан",
        -9.980471358716597
      ],
      [
        "двумя",
        -9.980698266612148
      ],
      [
        "▁принимать",
        -9.98086001251121
      ],
      [
        "▁инициатив",
        -9.98192129627071
      ],
      [
        "нельзя",
        -9.982019551358134
      ],
      [
        "▁поиск",
        -9.984065267342162
      ],
      [
        "▁меню",
        -9.984571373879573
      ],
      [
        "▁эффективности",
        -9.98521336477772
      ],
      [
        "▁государственной",
        -9.985319856523345
      ],
      [
        "▁состояния",
        -9.9854246963915
      ],
      [
        "ски",
        -9.985672658626253
      ],
      [
        "▁посредством",
        -9.985817556561546
      ],
      [
        "ому",
        -9.986000869193171
      ],
      [
        "▁подходит",
        -9.986066701346644
      ],
      [
        "▁норм",
        -9.986806639072295
      ],
      [
        "▁анти",
        -9.987083364364091
      ],
      [
        "▁друга",
        -9.98792944718341
      ],
      [
        "ятся",
        -9.988955637703654
      ],
      [
        "зависит",
        -9.989046466094008
      ],
      [
        "ЮНЕСКО",
        -9.98970887834678
      ],
      [
        "▁детали",
        -9.990699595864935
      ],
      [
        "▁Microsoft",
        -9.99116485696898
      ],
      [
        "кро",
        -9.991549976715339
      ],
      [
        "ирование",
        -9.992091556724958
      ],
      [
        "▁правильно",
        -9.993212028529047
      ],
      [
        "▁ваше",
        -9.993352091153644
      ],
      [
        "▁духовно",
        -9.993575218036016
      ],
      [
        "ответственности",
        -9.994546861203817
      ],
      [
        "видом",
        -9.994790291263252
      ],
      [
        "понять",
        -9.994894019238725
      ],
      [
        "ирования",
        -9.995399521128025
      ],
      [
        "▁здравоохранения",
        -9.996263437030835
      ],
      [
        "▁установить",
        -9.996722300034069
      ],
      [
        "▁круг",
        -9.996813154035147
      ],
      [
        "▁предложение",
        -9.997743283210967
      ],
      [
        "▁Затем",
        -9.998937731497783
      ],
      [
        "▁квартира",
        -9.998991175573314
      ],
      [
        "ение",
        -9.99906016598355
      ],
      [
        "▁Уже",
        -9.99935316258977
      ],
      [
        "большое",
        -9.999839813288705
      ],
      [
        "▁товаров",
        -9.999979332461038
      ],
      [
        "▁установлен",
        -10.000149105402732
      ],
      [
        "▁перв",
        -10.001480056456678
      ],
      [
        "▁ассоциации",
        -10.001672123698262
      ],
      [
        "местных",
        -10.001802615694025
      ],
      [
        "▁министр",
        -10.002010245489073
      ],
      [
        "▁момента",
        -10.002258240616975
      ],
      [
        "Tube",
        -10.002609409628576
      ],
      [
        "▁режиме",
        -10.002621165997146
      ],
      [
        "▁ситуация",
        -10.003805014223284
      ],
      [
        "уверены",
        -10.004843918518503
      ],
      [
        "▁сторон",
        -10.005317109799044
      ],
      [
        "▁совета",
        -10.005801866933961
      ],
      [
        "▁пять",
        -10.00657214753013
      ],
      [
        "встречи",
        -10.00696638371664
      ],
      [
        "▁довольно",
        -10.008746840833608
      ],
      [
        "▁экран",
        -10.008956304496154
      ],
      [
        "▁гости",
        -10.009304569650315
      ],
      [
        "овым",
        -10.009724906543013
      ],
      [
        "Новый",
        -10.009818064657928
      ],
      [
        "▁дни",
        -10.010753780228391
      ],
      [
        "▁отель",
        -10.012471242327038
      ],
      [
        "Ж",
        -10.013464339310953
      ],
      [
        "▁Configuration",
        -10.014901817328735
      ],
      [
        "▁обслуживание",
        -10.016249631062536
      ],
      [
        "▁комнаты",
        -10.016694170358987
      ],
      [
        "▁руководство",
        -10.01825634910219
      ],
      [
        "▁масс",
        -10.018617734109402
      ],
      [
        "▁серии",
        -10.01884204382876
      ],
      [
        "подготовки",
        -10.019432165199769
      ],
      [
        "▁памяти",
        -10.01956815986365
      ],
      [
        "▁предоставляет",
        -10.019772279845638
      ],
      [
        "хранения",
        -10.019827921366646
      ],
      [
        "▁событий",
        -10.01997144802175
      ],
      [
        "бер",
        -10.020349795641728
      ],
      [
        "▁предмет",
        -10.020465580269198
      ],
      [
        "▁поддержке",
        -10.02116675573644
      ],
      [
        "▁кончил",
        -10.021194333292486
      ],
      [
        "®",
        -10.022260302520406
      ],
      [
        "сообщение",
        -10.023273437801874
      ],
      [
        "международным",
        -10.025073558805074
      ],
      [
        "▁знает",
        -10.02607772686432
      ],
      [
        "рен",
        -10.026400283524746
      ],
      [
        "рат",
        -10.026451932782354
      ],
      [
        "менить",
        -10.026940498524194
      ],
      [
        "Время",
        -10.026944303627491
      ],
      [
        "▁Цвет",
        -10.027070400111908
      ],
      [
        "▁Может",
        -10.027074807940913
      ],
      [
        "лучшие",
        -10.027333447628791
      ],
      [
        "▁площадь",
        -10.030092948945846
      ],
      [
        "Пожалуйст",
        -10.03017325077249
      ],
      [
        "▁Ар",
        -10.030784715933256
      ],
      [
        "es",
        -10.031104334935542
      ],
      [
        "▁размере",
        -10.03135337063071
      ],
      [
        "▁небо",
        -10.031563457470456
      ],
      [
        "▁Ц",
        -10.032608336709453
      ],
      [
        "▁специалистов",
        -10.032731417523026
      ],
      [
        "▁Путин",
        -10.032884603212773
      ],
      [
        "▁обязательно",
        -10.032966735623969
      ],
      [
        "▁дене",
        -10.033124275990707
      ],
      [
        "▁Раз",
        -10.034828315318238
      ],
      [
        "▁команды",
        -10.035059319750776
      ],
      [
        "▁принимает",
        -10.035329772801157
      ],
      [
        "or",
        -10.036949734294227
      ],
      [
        "открывается",
        -10.037668108403372
      ],
      [
        "▁видел",
        -10.03786853713504
      ],
      [
        "▁сотрудничество",
        -10.037896121060852
      ],
      [
        "▁код",
        -10.03827915459067
      ],
      [
        "▁процентов",
        -10.038801365674155
      ],
      [
        "▁побед",
        -10.039120859057807
      ],
      [
        "▁никаки",
        -10.039598677477656
      ],
      [
        "получает",
        -10.039910720240119
      ],
      [
        "▁потом",
        -10.039924757967672
      ],
      [
        "ским",
        -10.040405950987227
      ],
      [
        "▁компоненты",
        -10.04078170028114
      ],
      [
        "▁Владимир",
        -10.04129883485461
      ],
      [
        "кар",
        -10.04171416837972
      ],
      [
        "З",
        -10.04284048604505
      ],
      [
        "разработки",
        -10.043174390187188
      ],
      [
        "▁Многи",
        -10.043280550560711
      ],
      [
        "▁остров",
        -10.043901245716434
      ],
      [
        "знаете",
        -10.044133989862043
      ],
      [
        "ребенка",
        -10.044601239782336
      ],
      [
        "базы",
        -10.045124599586014
      ],
      [
        "ится",
        -10.045644608964613
      ],
      [
        "регионе",
        -10.046074284826704
      ],
      [
        "▁вне",
        -10.04611151470916
      ],
      [
        "▁стреми",
        -10.04693473301947
      ],
      [
        "▁низки",
        -10.047065852488604
      ],
      [
        "потребуется",
        -10.047247584518121
      ],
      [
        "▁внимани",
        -10.047401312068917
      ],
      [
        "вин",
        -10.04761356516293
      ],
      [
        "отрасли",
        -10.047615701245347
      ],
      [
        "▁шаг",
        -10.047752737475426
      ],
      [
        "▁обмен",
        -10.047871996069391
      ],
      [
        "услугам",
        -10.048071756224026
      ],
      [
        "▁другое",
        -10.048946870262355
      ],
      [
        "▁создан",
        -10.049326869385382
      ],
      [
        "▁Рас",
        -10.05030740694876
      ],
      [
        "▁голос",
        -10.050355750646299
      ],
      [
        "вместо",
        -10.050470175575228
      ],
      [
        "▁версия",
        -10.051270027695795
      ],
      [
        "▁водо",
        -10.051421619346206
      ],
      [
        "▁Господа",
        -10.05238909899861
      ],
      [
        "▁метров",
        -10.05259666747973
      ],
      [
        "▁чат",
        -10.052876130201671
      ],
      [
        "▁студентов",
        -10.053005918395518
      ],
      [
        "▁вещи",
        -10.053144937336214
      ],
      [
        "u",
        -10.053260890536608
      ],
      [
        "▁этап",
        -10.053278556475762
      ],
      [
        "статьи",
        -10.053486439264057
      ],
      [
        "ван",
        -10.054128594419407
      ],
      [
        "ент",
        -10.054540019360356
      ],
      [
        "Продажа",
        -10.054882040437159
      ],
      [
        "▁вывод",
        -10.054981089596259
      ],
      [
        "ации",
        -10.05519140817303
      ],
      [
        "числа",
        -10.056783368018406
      ],
      [
        "▁операции",
        -10.057063940339836
      ],
      [
        "▁Ваше",
        -10.057086486062877
      ],
      [
        "▁рот",
        -10.057362091298472
      ],
      [
        "ско",
        -10.057607751864914
      ],
      [
        "▁каким",
        -10.058087405229061
      ],
      [
        "▁физическо",
        -10.059166236521943
      ],
      [
        "тан",
        -10.05977654228743
      ],
      [
        "▁Те",
        -10.059782052353103
      ],
      [
        "▁эксплуатации",
        -10.060697424245038
      ],
      [
        "▁электро",
        -10.060853194211496
      ],
      [
        "▁инвестиций",
        -10.06166450604407
      ],
      [
        "▁имел",
        -10.061700904248958
      ],
      [
        "вар",
        -10.062214057556016
      ],
      [
        "▁применение",
        -10.062324472630252
      ],
      [
        "цы",
        -10.064504000853004
      ],
      [
        "процессе",
        -10.064569416652102
      ],
      [
        "▁поиска",
        -10.065211155246466
      ],
      [
        "ставить",
        -10.065287070608532
      ],
      [
        "▁эффект",
        -10.065925971747506
      ],
      [
        "овать",
        -10.066259144117351
      ],
      [
        "▁подобно",
        -10.066535378016345
      ],
      [
        "▁включен",
        -10.066661401606288
      ],
      [
        "национальных",
        -10.066902164878307
      ],
      [
        "ющая",
        -10.0670917624382
      ],
      [
        "▁Pro",
        -10.067194388923284
      ],
      [
        "новое",
        -10.067745866308485
      ],
      [
        "лучших",
        -10.06799078493461
      ],
      [
        "▁газа",
        -10.068188088845536
      ],
      [
        "видеть",
        -10.069364451145933
      ],
      [
        "прав",
        -10.069646104007855
      ],
      [
        "рода",
        -10.069802045456541
      ],
      [
        "воду",
        -10.069867322062382
      ],
      [
        "прежнему",
        -10.069971387903585
      ],
      [
        "говорят",
        -10.071121722990101
      ],
      [
        "▁широко",
        -10.071294512823306
      ],
      [
        "▁новым",
        -10.071440001860058
      ],
      [
        "гораздо",
        -10.071679216857715
      ],
      [
        "ad",
        -10.07275425826327
      ],
      [
        "сайт",
        -10.073204981698588
      ],
      [
        "национальной",
        -10.073383642050388
      ],
      [
        "▁нужда",
        -10.073985324492487
      ],
      [
        "▁политических",
        -10.074100610701315
      ],
      [
        "ишь",
        -10.074777589353491
      ],
      [
        "ника",
        -10.076253646016166
      ],
      [
        "▁совсе",
        -10.076408676031336
      ],
      [
        "▁Google",
        -10.076755230454575
      ],
      [
        "▁проверки",
        -10.07700603627963
      ],
      [
        "вших",
        -10.078585839047973
      ],
      [
        "▁Нью",
        -10.079048964095238
      ],
      [
        "▁открывает",
        -10.079272077820168
      ],
      [
        "никто",
        -10.079298162898214
      ],
      [
        "▁Мехри",
        -10.079350697774444
      ],
      [
        "финансовых",
        -10.079424049311221
      ],
      [
        "соответствующих",
        -10.079783522956303
      ],
      [
        "новую",
        -10.080604881786698
      ],
      [
        "▁экономических",
        -10.080659994388078
      ],
      [
        "▁дети",
        -10.081252443191502
      ],
      [
        "▁обеспечени",
        -10.081337535807913
      ],
      [
        "▁прием",
        -10.081338446901976
      ],
      [
        "▁жена",
        -10.081371062775691
      ],
      [
        "▁строительство",
        -10.081633247550785
      ],
      [
        "автомобилей",
        -10.08247638846659
      ],
      [
        "▁независимо",
        -10.083303448211561
      ],
      [
        "▁внутрь",
        -10.083889841013661
      ],
      [
        "▁подготовк",
        -10.084141187648727
      ],
      [
        "▁Ха",
        -10.084249933500843
      ],
      [
        "акции",
        -10.084464775623655
      ],
      [
        "▁обрати",
        -10.08457818400547
      ],
      [
        "запись",
        -10.084873345721235
      ],
      [
        "могла",
        -10.084942734432609
      ],
      [
        "▁карты",
        -10.085147504508226
      ],
      [
        "чен",
        -10.085206219054097
      ],
      [
        "▁количества",
        -10.085420243026482
      ],
      [
        "другого",
        -10.085679439748356
      ],
      [
        "▁аэропорта",
        -10.086320122708367
      ],
      [
        "используются",
        -10.087372518363363
      ],
      [
        "принятия",
        -10.08764789317901
      ],
      [
        "аль",
        -10.088138011314323
      ],
      [
        "ходить",
        -10.088433913027783
      ],
      [
        "▁Други",
        -10.088915813572417
      ],
      [
        "Танцующи",
        -10.088974383441593
      ],
      [
        "▁высокого",
        -10.08915600345409
      ],
      [
        "▁Новости",
        -10.08915986447597
      ],
      [
        "▁разрешения",
        -10.090299775025436
      ],
      [
        "моей",
        -10.090304930480722
      ],
      [
        "▁совет",
        -10.09036104547165
      ],
      [
        "▁Именн",
        -10.09063186618111
      ],
      [
        "▁смысл",
        -10.091032071339045
      ],
      [
        "et",
        -10.091283106640661
      ],
      [
        "▁пост",
        -10.091946554551518
      ],
      [
        "людям",
        -10.092965851031684
      ],
      [
        "род",
        -10.094155674525226
      ],
      [
        "▁папк",
        -10.094509202494109
      ],
      [
        "▁белы",
        -10.095206971433193
      ],
      [
        "нести",
        -10.09535638153548
      ],
      [
        "Несмотря",
        -10.09605182886
      ],
      [
        "▁Танц",
        -10.09782416083219
      ],
      [
        "▁Турци",
        -10.098180529469893
      ],
      [
        "▁поддержка",
        -10.098276938359106
      ],
      [
        "▁Китае",
        -10.098542810777882
      ],
      [
        "▁частны",
        -10.09921835727532
      ],
      [
        "▁День",
        -10.100043148895347
      ],
      [
        "▁действие",
        -10.100713313240558
      ],
      [
        "тра",
        -10.100862364736274
      ],
      [
        "▁экономической",
        -10.100936531139006
      ],
      [
        "различным",
        -10.101106506039594
      ],
      [
        "▁реестр",
        -10.101136531256488
      ],
      [
        "▁Цель",
        -10.10161560382146
      ],
      [
        "▁ПО",
        -10.101699319440298
      ],
      [
        "▁материала",
        -10.102298427643733
      ],
      [
        "аньше",
        -10.104042760903459
      ],
      [
        "свободы",
        -10.104159963838406
      ],
      [
        "▁буду",
        -10.104693930252191
      ],
      [
        "▁милф",
        -10.105209785986707
      ],
      [
        "▁женщины",
        -10.105479883044682
      ],
      [
        "▁Порно",
        -10.105838702182323
      ],
      [
        "пар",
        -10.106610358628533
      ],
      [
        "рет",
        -10.107366915240314
      ],
      [
        "▁исключительно",
        -10.107797699040875
      ],
      [
        "▁проводит",
        -10.107815679109523
      ],
      [
        "Всего",
        -10.108504831168263
      ],
      [
        "▁восстановления",
        -10.108975986274654
      ],
      [
        "мет",
        -10.109524677626656
      ],
      [
        "первые",
        -10.109555936282373
      ],
      [
        "▁проходит",
        -10.10972037077175
      ],
      [
        "проведение",
        -10.109792091419244
      ],
      [
        "самой",
        -10.109939639307417
      ],
      [
        "чь",
        -10.110745986463968
      ],
      [
        "▁полны",
        -10.11278448299743
      ],
      [
        "▁температура",
        -10.11284071313263
      ],
      [
        "▁соглашения",
        -10.113504635165647
      ],
      [
        "▁объекта",
        -10.113729279576994
      ],
      [
        "▁наде",
        -10.114388263556776
      ],
      [
        "жен",
        -10.114425702952547
      ],
      [
        "пр",
        -10.116385493443053
      ],
      [
        "▁результат",
        -10.116924047259966
      ],
      [
        "▁власть",
        -10.117457799055584
      ],
      [
        "овое",
        -10.117735291671108
      ],
      [
        "▁благо",
        -10.11774568187379
      ],
      [
        "необходимые",
        -10.117915599466013
      ],
      [
        "▁Молдова",
        -10.119008354042412
      ],
      [
        "▁Ро",
        -10.119208092466748
      ],
      [
        "программой",
        -10.119354122289034
      ],
      [
        "▁устройство",
        -10.119477618299882
      ],
      [
        "емые",
        -10.119859901112772
      ],
      [
        "▁представить",
        -10.120216494990608
      ],
      [
        "▁ванная",
        -10.120737128559828
      ],
      [
        "▁взгляд",
        -10.121346079595797
      ],
      [
        "енная",
        -10.122016163077863
      ],
      [
        "▁форм",
        -10.12238176219574
      ],
      [
        "▁едино",
        -10.122992411590618
      ],
      [
        "▁аэропорт",
        -10.123059682879044
      ],
      [
        "За",
        -10.123089597270576
      ],
      [
        "▁перво",
        -10.12369361402861
      ],
      [
        "документы",
        -10.124215119201274
      ],
      [
        "@",
        -10.125169548070387
      ],
      [
        "▁жить",
        -10.125228337017013
      ],
      [
        "▁класса",
        -10.125623061352218
      ],
      [
        "имеется",
        -10.126342162886088
      ],
      [
        "движение",
        -10.126608361625017
      ],
      [
        "▁содействи",
        -10.128311090857807
      ],
      [
        "▁контекст",
        -10.128669496428515
      ],
      [
        "▁поддерживает",
        -10.128854912122515
      ],
      [
        "новая",
        -10.130165800814746
      ],
      [
        "▁журнал",
        -10.130433974068726
      ],
      [
        "▁Соединенны",
        -10.131020994399297
      ],
      [
        "▁безопасность",
        -10.131682525978881
      ],
      [
        "любое",
        -10.132080759372688
      ],
      [
        "▁роли",
        -10.132262748113142
      ],
      [
        "▁Президента",
        -10.132539396471994
      ],
      [
        "▁тело",
        -10.132765982477947
      ],
      [
        "▁животных",
        -10.133132857282211
      ],
      [
        "ПВХ",
        -10.133390417574994
      ],
      [
        "▁Санкт",
        -10.13349331810758
      ],
      [
        "▁ВИЧ",
        -10.133697431551298
      ],
      [
        "▁товары",
        -10.1340663653314
      ],
      [
        "▁матери",
        -10.134078349540058
      ],
      [
        "▁Иерусалим",
        -10.134081002350452
      ],
      [
        "▁авто",
        -10.134101939935801
      ],
      [
        "▁начало",
        -10.13469176592631
      ],
      [
        "▁провести",
        -10.135321880089815
      ],
      [
        "▁изображения",
        -10.135422120734088
      ],
      [
        "▁стоимости",
        -10.135531557076833
      ],
      [
        "▁Файл",
        -10.135650105041488
      ],
      [
        "▁Азербайджан",
        -10.13571236412225
      ],
      [
        "большую",
        -10.13587196622663
      ],
      [
        "речь",
        -10.13592650273106
      ],
      [
        "▁вида",
        -10.136380463311717
      ],
      [
        "предложить",
        -10.136468340031058
      ],
      [
        "▁конца",
        -10.136720285669604
      ],
      [
        "▁площади",
        -10.136810798938694
      ],
      [
        "▁Та",
        -10.137036761067518
      ],
      [
        "полной",
        -10.137603942739974
      ],
      [
        "▁рейтинг",
        -10.137761304812775
      ],
      [
        "▁Мар",
        -10.138405046608629
      ],
      [
        "▁невозможно",
        -10.139042474658211
      ],
      [
        "статье",
        -10.139759372442317
      ],
      [
        "▁трудно",
        -10.140010360742691
      ],
      [
        "▁идеально",
        -10.140196740824535
      ],
      [
        "▁часа",
        -10.140589237553327
      ],
      [
        "▁машины",
        -10.140655309695319
      ],
      [
        "▁Проект",
        -10.140669693086403
      ],
      [
        "▁акций",
        -10.141218251411802
      ],
      [
        "вообще",
        -10.14140522060937
      ],
      [
        "рек",
        -10.14143413150473
      ],
      [
        "Ц",
        -10.142079722704366
      ],
      [
        "▁Просто",
        -10.14214658525726
      ],
      [
        "ают",
        -10.142303520462928
      ],
      [
        "енко",
        -10.14243560872771
      ],
      [
        "▁машина",
        -10.142745074971774
      ],
      [
        "z",
        -10.142940861880183
      ],
      [
        "▁Га",
        -10.1432229972394
      ],
      [
        "минута",
        -10.143348782613852
      ],
      [
        "▁большим",
        -10.143861797113905
      ],
      [
        "ева",
        -10.143942884899843
      ],
      [
        "▁Отчет",
        -10.144293367790477
      ],
      [
        "▁вход",
        -10.144309465148925
      ],
      [
        "▁последне",
        -10.1444272618577
      ],
      [
        "▁ул",
        -10.144573444247667
      ],
      [
        "▁Ваш",
        -10.144574933149835
      ],
      [
        "▁выставки",
        -10.145131170223678
      ],
      [
        "▁лидер",
        -10.145742060522334
      ],
      [
        "▁организация",
        -10.146314703348976
      ],
      [
        "▁базе",
        -10.146913833433178
      ],
      [
        "▁массаж",
        -10.146914832837792
      ],
      [
        "оружия",
        -10.148080358028961
      ],
      [
        "▁взял",
        -10.148228503169033
      ],
      [
        "▁медиа",
        -10.150451124638323
      ],
      [
        "ra",
        -10.150512453176676
      ],
      [
        "▁недвижимости",
        -10.150524039321411
      ],
      [
        "▁учебны",
        -10.151381574846166
      ],
      [
        "▁высот",
        -10.15152757598103
      ],
      [
        "▁Наши",
        -10.15264241482026
      ],
      [
        "▁пользу",
        -10.153731893476278
      ],
      [
        "привести",
        -10.154248289380117
      ],
      [
        "определить",
        -10.154403071355311
      ],
      [
        "▁дополнительные",
        -10.154932106369667
      ],
      [
        "▁республик",
        -10.155313286818238
      ],
      [
        "ками",
        -10.15543405627614
      ],
      [
        "▁Кар",
        -10.155589431199017
      ],
      [
        "росы",
        -10.155640619727862
      ],
      [
        "▁соответствующе",
        -10.155863370040814
      ],
      [
        "▁кажд",
        -10.156749947614502
      ],
      [
        "мировой",
        -10.15705310807403
      ],
      [
        "▁клиент",
        -10.1572554124065
      ],
      [
        "▁компанией",
        -10.157522488208544
      ],
      [
        "at",
        -10.157765260620803
      ],
      [
        "j",
        -10.157962320363765
      ],
      [
        "енных",
        -10.158074898298148
      ],
      [
        "▁периода",
        -10.158704140451324
      ],
      [
        "свяжитесь",
        -10.158957635477531
      ],
      [
        "▁умолчанию",
        -10.159873832675727
      ],
      [
        "лучшим",
        -10.160182137618715
      ],
      [
        "первым",
        -10.161124449752881
      ],
      [
        "▁общественны",
        -10.161193793432226
      ],
      [
        "▁сектора",
        -10.161938980506982
      ],
      [
        "▁проекты",
        -10.162074981536598
      ],
      [
        "▁Тип",
        -10.162234428600843
      ],
      [
        "единицы",
        -10.162360080606014
      ],
      [
        "▁плана",
        -10.16252291718504
      ],
      [
        "ющее",
        -10.163098884664509
      ],
      [
        "▁Африк",
        -10.16321220167897
      ],
      [
        "▁получили",
        -10.163349346314424
      ],
      [
        "▁правил",
        -10.163632850871673
      ],
      [
        "▁потенциал",
        -10.164170941338835
      ],
      [
        "▁поможет",
        -10.164604423669742
      ],
      [
        "ём",
        -10.164634541129868
      ],
      [
        "▁раздел",
        -10.164950791328735
      ],
      [
        "▁Android",
        -10.165315446281872
      ],
      [
        "▁стиле",
        -10.166187004450128
      ],
      [
        "▁расходов",
        -10.167498032354617
      ],
      [
        "▁Ка",
        -10.167619435156558
      ],
      [
        "топление",
        -10.167693719510341
      ],
      [
        "▁телевизор",
        -10.167755142306845
      ],
      [
        "▁доме",
        -10.167818814613756
      ],
      [
        "лад",
        -10.16803093268626
      ],
      [
        "▁Ку",
        -10.16861423940934
      ],
      [
        "▁Хот",
        -10.168968379403722
      ],
      [
        "▁современно",
        -10.16931965512672
      ],
      [
        "Христа",
        -10.170008730366453
      ],
      [
        "дают",
        -10.170257068473907
      ],
      [
        "▁Южно",
        -10.170497414756587
      ],
      [
        "элементов",
        -10.170631026758688
      ],
      [
        "▁прошло",
        -10.170642045475148
      ],
      [
        "▁собственности",
        -10.17147434386186
      ],
      [
        "▁расширени",
        -10.171552102014658
      ],
      [
        "▁объект",
        -10.172162538925944
      ],
      [
        "▁Server",
        -10.172255131609635
      ],
      [
        "▁II",
        -10.172561550292633
      ],
      [
        "▁Отц",
        -10.172584767504516
      ],
      [
        "▁Дом",
        -10.172762515128772
      ],
      [
        "ган",
        -10.172967829010403
      ],
      [
        "▁говоря",
        -10.173430045465729
      ],
      [
        "▁странице",
        -10.173789844533884
      ],
      [
        "▁форум",
        -10.173990688827207
      ],
      [
        "способности",
        -10.174051242595166
      ],
      [
        "▁www",
        -10.17438281305641
      ],
      [
        "▁депутат",
        -10.174896354782828
      ],
      [
        "ванной",
        -10.175003492549713
      ],
      [
        "▁гостиниц",
        -10.175014679924633
      ],
      [
        "▁угроз",
        -10.175031240747453
      ],
      [
        "альная",
        -10.175105459938512
      ],
      [
        "▁сектор",
        -10.176060068699428
      ],
      [
        "столько",
        -10.176227025273207
      ],
      [
        "▁глубоко",
        -10.176565469343068
      ],
      [
        "впервые",
        -10.177364111634809
      ],
      [
        "▁рекомендуем",
        -10.177403492035708
      ],
      [
        "it",
        -10.177670358093152
      ],
      [
        "▁народов",
        -10.177884663959512
      ],
      [
        "▁призна",
        -10.177933353753145
      ],
      [
        "ведет",
        -10.177960908831594
      ],
      [
        "▁скоре",
        -10.178042689069606
      ],
      [
        "социальной",
        -10.178659762810137
      ],
      [
        "▁подчеркнул",
        -10.179047295508948
      ],
      [
        "сеть",
        -10.180573745154376
      ],
      [
        "▁четырех",
        -10.18137154313192
      ],
      [
        "ur",
        -10.182856634683205
      ],
      [
        "st",
        -10.18343060518255
      ],
      [
        "служба",
        -10.183944062346898
      ],
      [
        "▁проводить",
        -10.184947671859911
      ],
      [
        "Не",
        -10.185499734879317
      ],
      [
        "▁работают",
        -10.185779141391345
      ],
      [
        "▁района",
        -10.18580456740459
      ],
      [
        "▁показал",
        -10.185877841226718
      ],
      [
        "прошлом",
        -10.18594081572863
      ],
      [
        "▁кг",
        -10.186022011627369
      ],
      [
        "▁Бо",
        -10.186261320076408
      ],
      [
        "казино",
        -10.187831424259617
      ],
      [
        "три",
        -10.187971928748272
      ],
      [
        "▁встрети",
        -10.188459401301227
      ],
      [
        "▁хозяйства",
        -10.188531369916909
      ],
      [
        "▁российского",
        -10.188640057383408
      ],
      [
        "▁годов",
        -10.189939310599405
      ],
      [
        "▁велико",
        -10.189963394746652
      ],
      [
        "каких",
        -10.190066819736225
      ],
      [
        "защите",
        -10.1901003021153
      ],
      [
        "▁бюджет",
        -10.191123788421079
      ],
      [
        "любви",
        -10.191923858123456
      ],
      [
        "▁труб",
        -10.191934273410213
      ],
      [
        "экспертов",
        -10.192585607371937
      ],
      [
        "▁возможны",
        -10.193118289654409
      ],
      [
        "ред",
        -10.193439672257092
      ],
      [
        "„",
        -10.193713147851499
      ],
      [
        "игроков",
        -10.19419463560334
      ],
      [
        "▁документа",
        -10.194680029749788
      ],
      [
        "el",
        -10.194990790001395
      ],
      [
        "▁Co",
        -10.195121750669571
      ],
      [
        "▁Потом",
        -10.195276830603772
      ],
      [
        "▁фонд",
        -10.195405600956635
      ],
      [
        "▁расходы",
        -10.195410842727805
      ],
      [
        "той",
        -10.195745196417361
      ],
      [
        "процедуры",
        -10.196104618369308
      ],
      [
        "провод",
        -10.19619699787252
      ],
      [
        "Ключевые",
        -10.19633166688116
      ],
      [
        "▁параметры",
        -10.196588106013087
      ],
      [
        "▁указанны",
        -10.196719729240357
      ],
      [
        "▁сельскохозяйств",
        -10.197201603805542
      ],
      [
        "▁слабы",
        -10.198289772304618
      ],
      [
        "ата",
        -10.198489794299908
      ],
      [
        "вшей",
        -10.19909568587121
      ],
      [
        "▁игрушки",
        -10.199768621975311
      ],
      [
        "▁позволяют",
        -10.199852397161225
      ],
      [
        "следующую",
        -10.199922462322556
      ],
      [
        "▁квартиры",
        -10.199937441579555
      ],
      [
        "обладает",
        -10.200341302419718
      ],
      [
        "звать",
        -10.20160915554352
      ],
      [
        "▁перевод",
        -10.201789360749583
      ],
      [
        "▁процедур",
        -10.202541623707996
      ],
      [
        "▁ст",
        -10.202763330766
      ],
      [
        "нефти",
        -10.202892013800598
      ],
      [
        "▁кожи",
        -10.203230393095554
      ],
      [
        "▁текуще",
        -10.203659603906363
      ],
      [
        "▁глав",
        -10.20378950232399
      ],
      [
        "основной",
        -10.204083218676615
      ],
      [
        "▁посетить",
        -10.204135380474108
      ],
      [
        "▁комитет",
        -10.204522134427291
      ],
      [
        "U",
        -10.20493527129916
      ],
      [
        "▁главным",
        -10.205513854979172
      ],
      [
        "следующий",
        -10.205942468841434
      ],
      [
        "гер",
        -10.20629220447434
      ],
      [
        "ирует",
        -10.206515054215147
      ],
      [
        "▁будете",
        -10.206755746117832
      ],
      [
        "▁игрок",
        -10.207470085940937
      ],
      [
        "▁договора",
        -10.207601678014186
      ],
      [
        "стра",
        -10.208151142737716
      ],
      [
        "▁способность",
        -10.208903782640366
      ],
      [
        "▁планет",
        -10.208942041330712
      ],
      [
        "▁ясно",
        -10.209747933354492
      ],
      [
        "моя",
        -10.21023268492882
      ],
      [
        "▁атмосфер",
        -10.211427530209441
      ],
      [
        "▁выставка",
        -10.212065872656483
      ],
      [
        "▁блок",
        -10.21216696947324
      ],
      [
        "▁панели",
        -10.212299084830635
      ],
      [
        "▁обратно",
        -10.212710490292599
      ],
      [
        "Республика",
        -10.212896209714197
      ],
      [
        "▁длин",
        -10.213072830240696
      ],
      [
        "▁высоки",
        -10.213506985095494
      ],
      [
        "▁абсолютно",
        -10.213891784196381
      ],
      [
        "▁Вмест",
        -10.214024502573729
      ],
      [
        "туда",
        -10.214209775526905
      ],
      [
        "▁Описание",
        -10.214801491736942
      ],
      [
        "ly",
        -10.21481690558194
      ],
      [
        "исключением",
        -10.21516279182159
      ],
      [
        "эн",
        -10.215887852568502
      ],
      [
        "▁сих",
        -10.215949777945196
      ],
      [
        "▁шанс",
        -10.216187240201663
      ],
      [
        "▁фонда",
        -10.216270104368904
      ],
      [
        "нер",
        -10.216420583566158
      ],
      [
        "▁Су",
        -10.216750697245736
      ],
      [
        "▁Q",
        -10.217209142269231
      ],
      [
        "▁переводит",
        -10.217754075597494
      ],
      [
        "▁рекомендует",
        -10.217832407847588
      ],
      [
        "чер",
        -10.218094318501405
      ],
      [
        "▁теле",
        -10.218648720493489
      ],
      [
        "дается",
        -10.218704349165794
      ],
      [
        "кол",
        -10.218857014232203
      ],
      [
        "▁внешни",
        -10.220020128828505
      ],
      [
        "▁страница",
        -10.22047024852285
      ],
      [
        "Porn",
        -10.221275192654009
      ],
      [
        "▁придет",
        -10.221619924864026
      ],
      [
        "следующим",
        -10.221885661802478
      ],
      [
        "▁обо",
        -10.222130204602182
      ],
      [
        "th",
        -10.22239811837704
      ],
      [
        "чин",
        -10.222499813067706
      ],
      [
        "дел",
        -10.22286122064049
      ],
      [
        "▁клуб",
        -10.223637954510073
      ],
      [
        "▁Кон",
        -10.223874522377397
      ],
      [
        "нию",
        -10.224461586585118
      ],
      [
        "▁образование",
        -10.224596222507907
      ],
      [
        "кал",
        -10.224678423183077
      ],
      [
        "▁общество",
        -10.224709352178746
      ],
      [
        "ставки",
        -10.225690316086398
      ],
      [
        "▁Европейско",
        -10.225880473390903
      ],
      [
        "▁политической",
        -10.225903423872145
      ],
      [
        "OS",
        -10.226378787456529
      ],
      [
        "знаний",
        -10.227677939370638
      ],
      [
        "районе",
        -10.227849215469659
      ],
      [
        "▁Один",
        -10.228157367102684
      ],
      [
        "ch",
        -10.228880274216252
      ],
      [
        "▁обзор",
        -10.228936275730764
      ],
      [
        "▁финансов",
        -10.22928047548898
      ],
      [
        "сен",
        -10.22928934793244
      ],
      [
        "▁назначения",
        -10.229776538391889
      ],
      [
        "▁вкус",
        -10.229846161144984
      ],
      [
        "▁основании",
        -10.229902553695675
      ],
      [
        "осуществляется",
        -10.23028346443054
      ],
      [
        "▁предлагаем",
        -10.230679008784687
      ],
      [
        "▁приоритет",
        -10.230904349499607
      ],
      [
        "▁самостоятельно",
        -10.230946258390878
      ],
      [
        "▁Ле",
        -10.231100655077277
      ],
      [
        "знают",
        -10.231683159382753
      ],
      [
        "▁культур",
        -10.23258324090109
      ],
      [
        "ники",
        -10.232702282268473
      ],
      [
        "▁представлены",
        -10.232786565109537
      ],
      [
        "твор",
        -10.232906331389257
      ],
      [
        "▁считают",
        -10.23354180123984
      ],
      [
        "чат",
        -10.233917515601487
      ],
      [
        "ант",
        -10.23414215717186
      ],
      [
        "▁ради",
        -10.2349555287
      ],
      [
        "▁объявления",
        -10.23507132721368
      ],
      [
        "lt",
        -10.23534330121721
      ],
      [
        "▁свойства",
        -10.235796536293375
      ],
      [
        "российских",
        -10.235805797134915
      ],
      [
        "▁переход",
        -10.235865268336394
      ],
      [
        "▁Гарри",
        -10.236193679509343
      ],
      [
        "пл",
        -10.236741740455374
      ],
      [
        "▁предоставить",
        -10.23706817700725
      ],
      [
        "▁важны",
        -10.237667231197408
      ],
      [
        "▁рождения",
        -10.238885923977334
      ],
      [
        "▁Де",
        -10.239044627615122
      ],
      [
        "▁связь",
        -10.239750472062118
      ],
      [
        "▁комитета",
        -10.239860161856274
      ],
      [
        "▁иде",
        -10.2401349878259
      ],
      [
        "жителей",
        -10.240522246369373
      ],
      [
        "рам",
        -10.240702250744556
      ],
      [
        "▁Конечно",
        -10.241093495090908
      ],
      [
        "▁эффективность",
        -10.241748428197173
      ],
      [
        "▁финансирования",
        -10.242130804651612
      ],
      [
        "пор",
        -10.242170966711608
      ],
      [
        "▁политика",
        -10.24244518030685
      ],
      [
        "▁государство",
        -10.242696361647068
      ],
      [
        "▁доктор",
        -10.242772108904624
      ],
      [
        "▁Камел",
        -10.244056795621274
      ],
      [
        "▁курса",
        -10.244077873391985
      ],
      [
        "▁связан",
        -10.244473346407444
      ],
      [
        "▁обучение",
        -10.244620560880445
      ],
      [
        "вашим",
        -10.246136976194467
      ],
      [
        "▁Хорош",
        -10.246355930081238
      ],
      [
        "любовь",
        -10.246485745065659
      ],
      [
        "▁приложений",
        -10.246838779485124
      ],
      [
        "▁USB",
        -10.246892043533727
      ],
      [
        "оплаты",
        -10.247129371512735
      ],
      [
        "установлена",
        -10.24719881640041
      ],
      [
        "▁выполнять",
        -10.247205741492577
      ],
      [
        "▁Сторон",
        -10.247767048411431
      ],
      [
        "▁Международный",
        -10.248243806297168
      ],
      [
        "местах",
        -10.24826694540906
      ],
      [
        "сердца",
        -10.248419149592978
      ],
      [
        "▁потенциала",
        -10.248672985061905
      ],
      [
        "▁Ма",
        -10.24891095238165
      ],
      [
        "элементы",
        -10.249213188719917
      ],
      [
        "борьбе",
        -10.249359104349415
      ],
      [
        "Франции",
        -10.24943618817598
      ],
      [
        "воз",
        -10.249740930082798
      ],
      [
        "▁столь",
        -10.250384252161654
      ],
      [
        "сможет",
        -10.250766240862063
      ],
      [
        "\\",
        -10.250838136944157
      ],
      [
        "▁отдельных",
        -10.251198468370731
      ],
      [
        "ro",
        -10.251889594943103
      ],
      [
        "▁Туалет",
        -10.252091562911794
      ],
      [
        "▁учет",
        -10.252201870221208
      ],
      [
        "▁помогает",
        -10.252641189576824
      ],
      [
        "▁Дух",
        -10.252763740081896
      ],
      [
        "▁размера",
        -10.253295518442311
      ],
      [
        "▁минимум",
        -10.253728692078216
      ],
      [
        "▁выплат",
        -10.253838018893223
      ],
      [
        "Другие",
        -10.25387186902007
      ],
      [
        "вший",
        -10.255045131540706
      ],
      [
        "▁добро",
        -10.255195152362276
      ],
      [
        "▁Вес",
        -10.255496244936907
      ],
      [
        "▁наград",
        -10.2557813018075
      ],
      [
        "церкви",
        -10.256002595568487
      ],
      [
        "▁техники",
        -10.256584068699208
      ],
      [
        "▁Восток",
        -10.257926955053433
      ],
      [
        "удалось",
        -10.258184135077016
      ],
      [
        "бол",
        -10.258379466549878
      ],
      [
        "am",
        -10.25947365825907
      ],
      [
        "▁получать",
        -10.259477511900394
      ],
      [
        "▁используя",
        -10.259547865368596
      ],
      [
        "▁Ба",
        -10.260884935848757
      ],
      [
        "▁готов",
        -10.260915887431072
      ],
      [
        "▁городов",
        -10.261319452683962
      ],
      [
        "▁алгоритм",
        -10.261726598178374
      ],
      [
        "дар",
        -10.262011293287294
      ],
      [
        "▁конкретно",
        -10.262134938471581
      ],
      [
        "легкий",
        -10.262916015789573
      ],
      [
        "▁выбора",
        -10.263393941929303
      ],
      [
        "▁создавать",
        -10.263731134952637
      ],
      [
        "▁конкурс",
        -10.263847225326083
      ],
      [
        "▁создании",
        -10.264206335423895
      ],
      [
        "▁серьезны",
        -10.264624446157997
      ],
      [
        "▁составил",
        -10.264964547393786
      ],
      [
        "▁поля",
        -10.26510340137722
      ],
      [
        "▁наша",
        -10.265145284224536
      ],
      [
        "<",
        -10.26520819028013
      ],
      [
        "▁наше",
        -10.266455403468425
      ],
      [
        "печати",
        -10.266463203006934
      ],
      [
        "▁диск",
        -10.266559956301268
      ],
      [
        "▁прекрасно",
        -10.266787565649052
      ],
      [
        "▁Номер",
        -10.266986708919287
      ],
      [
        "co",
        -10.267310845036883
      ],
      [
        "Про",
        -10.267514126440908
      ],
      [
        "▁кон",
        -10.267751857303237
      ],
      [
        "ma",
        -10.26871088148106
      ],
      [
        "▁Курен",
        -10.268891865449632
      ],
      [
        "▁Комитета",
        -10.269569923983566
      ],
      [
        "▁Мож",
        -10.269590941630268
      ],
      [
        "▁системой",
        -10.270349870584239
      ],
      [
        "▁настоящи",
        -10.270690152838718
      ],
      [
        "личности",
        -10.271381082310745
      ],
      [
        "научных",
        -10.27159476282949
      ],
      [
        "▁недавно",
        -10.27221304485157
      ],
      [
        "▁увидел",
        -10.272638162938764
      ],
      [
        "▁определения",
        -10.272854378543569
      ],
      [
        "▁купить",
        -10.272913232548921
      ],
      [
        "▁распространения",
        -10.273409454595491
      ],
      [
        "▁окна",
        -10.273596890035293
      ],
      [
        "▁Польш",
        -10.273666208710903
      ],
      [
        "ночь",
        -10.273667222459823
      ],
      [
        "▁ресурсы",
        -10.27373236308848
      ],
      [
        "▁мысли",
        -10.273879747642853
      ],
      [
        "давно",
        -10.274065917208016
      ],
      [
        "позиции",
        -10.274494355942606
      ],
      [
        "▁Ал",
        -10.274635562672369
      ],
      [
        "вид",
        -10.275073422083935
      ],
      [
        "▁секретаря",
        -10.275361939248919
      ],
      [
        "пункта",
        -10.275738486823952
      ],
      [
        "▁влажност",
        -10.276080816827443
      ],
      [
        "▁Материал",
        -10.276269639453497
      ],
      [
        "методы",
        -10.27654467131084
      ],
      [
        "кер",
        -10.276658709165972
      ],
      [
        "шла",
        -10.276713621242047
      ],
      [
        "отсутствие",
        -10.276882155178706
      ],
      [
        "Ю",
        -10.278703074455422
      ],
      [
        "▁твое",
        -10.280012422248818
      ],
      [
        "деть",
        -10.280951036644153
      ],
      [
        "▁Ра",
        -10.282206686846203
      ],
      [
        "пол",
        -10.282340239292063
      ],
      [
        "▁др",
        -10.282546243114368
      ],
      [
        "виды",
        -10.283316583587519
      ],
      [
        "▁культурно",
        -10.28443914461524
      ],
      [
        "▁Мир",
        -10.284590670011516
      ],
      [
        "▁свободно",
        -10.28461515186439
      ],
      [
        "соответствующие",
        -10.285034916372297
      ],
      [
        "▁The",
        -10.285250242889372
      ],
      [
        "▁Мобильный",
        -10.285537135041904
      ],
      [
        "▁воз",
        -10.285750376891025
      ],
      [
        "▁медицински",
        -10.286194956460212
      ],
      [
        "▁традиционны",
        -10.287420562489995
      ],
      [
        "сохранить",
        -10.287967285400397
      ],
      [
        "▁Закон",
        -10.288027295383369
      ],
      [
        "▁необходимы",
        -10.288833755301708
      ],
      [
        "▁Наша",
        -10.288877450298758
      ],
      [
        "▁дал",
        -10.289202593891545
      ],
      [
        "▁Иран",
        -10.289783361168453
      ],
      [
        "▁центрально",
        -10.29032457306374
      ],
      [
        "▁регион",
        -10.290376205533873
      ],
      [
        "▁ущерб",
        -10.291355788796627
      ],
      [
        "▁кандидат",
        -10.292181512858873
      ],
      [
        "зоны",
        -10.292365761128428
      ],
      [
        "▁покер",
        -10.29289962895738
      ],
      [
        "▁Бар",
        -10.293387565238744
      ],
      [
        "▁союз",
        -10.293888621661438
      ],
      [
        "▁избирательно",
        -10.294122496177627
      ],
      [
        "мат",
        -10.294618742316286
      ],
      [
        "▁тут",
        -10.294843847108664
      ],
      [
        "▁мгновенно",
        -10.295610550585698
      ],
      [
        "отметить",
        -10.295730038588166
      ],
      [
        "дополнительных",
        -10.295747985144148
      ],
      [
        "▁команда",
        -10.296213859916843
      ],
      [
        "to",
        -10.296240523785219
      ],
      [
        "▁Пол",
        -10.296378647796024
      ],
      [
        "моего",
        -10.29668563433157
      ],
      [
        "▁полу",
        -10.29671481924102
      ],
      [
        "▁решил",
        -10.29685295043306
      ],
      [
        "▁попытк",
        -10.297384154481518
      ],
      [
        "▁принцип",
        -10.297487945945244
      ],
      [
        "▁телефона",
        -10.297612143684667
      ],
      [
        "▁институт",
        -10.29789516295078
      ],
      [
        "▁Re",
        -10.29795404304125
      ],
      [
        "▁браузера",
        -10.298000414229325
      ],
      [
        "and",
        -10.298457339760303
      ],
      [
        "▁рекомендации",
        -10.298959420417848
      ],
      [
        "став",
        -10.299338681499277
      ],
      [
        "обновить",
        -10.299777507451477
      ],
      [
        "▁азартны",
        -10.299985195017138
      ],
      [
        "часы",
        -10.300553987439242
      ],
      [
        "▁процессов",
        -10.300761806955265
      ],
      [
        "▁символ",
        -10.301660339763911
      ],
      [
        "▁развива",
        -10.301888589665117
      ],
      [
        "▁областя",
        -10.301985960754925
      ],
      [
        "▁веществ",
        -10.30222902875512
      ],
      [
        "▁слов",
        -10.303110081549315
      ],
      [
        "типы",
        -10.3031369738552
      ],
      [
        "▁половин",
        -10.30414384752416
      ],
      [
        "▁указан",
        -10.30468722242009
      ],
      [
        "▁премьер",
        -10.305486878417918
      ],
      [
        "вор",
        -10.305688394871574
      ],
      [
        "том",
        -10.30583931662559
      ],
      [
        "спорта",
        -10.306229385007189
      ],
      [
        "▁час",
        -10.306244747063554
      ],
      [
        "▁операций",
        -10.30650632504394
      ],
      [
        "енной",
        -10.306529447790286
      ],
      [
        "больших",
        -10.306590942127057
      ],
      [
        "которыми",
        -10.306612236425824
      ],
      [
        "▁НАТО",
        -10.307061346257784
      ],
      [
        "▁странами",
        -10.307119160125787
      ],
      [
        "ация",
        -10.307269299418659
      ],
      [
        "▁представления",
        -10.307955340250684
      ],
      [
        "структуры",
        -10.308740322309093
      ],
      [
        "▁сад",
        -10.308831252014135
      ],
      [
        "▁ядерно",
        -10.309234523535176
      ],
      [
        "знал",
        -10.30938917710782
      ],
      [
        "▁Запад",
        -10.309410742004463
      ],
      [
        "▁направлен",
        -10.309699092043383
      ],
      [
        "▁снизи",
        -10.310685193275237
      ],
      [
        "ани",
        -10.310886537699302
      ],
      [
        "▁Армени",
        -10.311034580577957
      ],
      [
        "▁пространства",
        -10.311582368790194
      ],
      [
        "мор",
        -10.311749703879586
      ],
      [
        "▁подобны",
        -10.311773293515381
      ],
      [
        "Поскольку",
        -10.311790487783316
      ],
      [
        "▁отлича",
        -10.31196255239582
      ],
      [
        "▁обе",
        -10.312284488594145
      ],
      [
        "крупных",
        -10.312847292659427
      ],
      [
        "рин",
        -10.312864523239794
      ],
      [
        "▁класс",
        -10.313049869908875
      ],
      [
        "▁форма",
        -10.313355193824524
      ],
      [
        "тро",
        -10.313708918299225
      ],
      [
        "высоким",
        -10.314089943739551
      ],
      [
        "▁фильм",
        -10.314352211046252
      ],
      [
        "▁Америки",
        -10.314425506967252
      ],
      [
        "▁пищ",
        -10.314437785918802
      ],
      [
        "▁рубле",
        -10.314614079832939
      ],
      [
        "▁зарегистрирован",
        -10.314622354731036
      ],
      [
        "фе",
        -10.31483317463073
      ],
      [
        "▁пояс",
        -10.314935930515059
      ],
      [
        "▁фетиш",
        -10.315713742027512
      ],
      [
        "содержание",
        -10.315750331832335
      ],
      [
        "▁рассказал",
        -10.315768484512924
      ],
      [
        "лан",
        -10.315920582541636
      ],
      [
        "дующий",
        -10.316281930767046
      ],
      [
        "▁вполн",
        -10.316938467387077
      ],
      [
        "редактирования",
        -10.31727402691136
      ],
      [
        "мент",
        -10.31754998021125
      ],
      [
        "РСК",
        -10.3176579124758
      ],
      [
        "▁директора",
        -10.31815983733636
      ],
      [
        "тур",
        -10.318263432557552
      ],
      [
        "▁музей",
        -10.318341776495002
      ],
      [
        "la",
        -10.318485319539684
      ],
      [
        "информацией",
        -10.318511572557167
      ],
      [
        "атор",
        -10.318659192601162
      ],
      [
        "ющим",
        -10.318897033195874
      ],
      [
        "мной",
        -10.319289542245773
      ],
      [
        "▁убеди",
        -10.319307975723467
      ],
      [
        "▁название",
        -10.319649596682957
      ],
      [
        "▁делают",
        -10.319769540789757
      ],
      [
        "включают",
        -10.320042002458962
      ],
      [
        "▁Телевизор",
        -10.32041439415039
      ],
      [
        "выше",
        -10.320509897489963
      ],
      [
        "овал",
        -10.320646734949987
      ],
      [
        "▁сервис",
        -10.320937093824522
      ],
      [
        "▁чисто",
        -10.321019477502587
      ],
      [
        "▁нужны",
        -10.321178061691286
      ],
      [
        "енные",
        -10.321344890499216
      ],
      [
        "▁представляют",
        -10.321498041025913
      ],
      [
        "▁парк",
        -10.321591662192425
      ],
      [
        "▁магазин",
        -10.321651474254276
      ],
      [
        "▁Узбекистан",
        -10.321705192678655
      ],
      [
        "▁повестк",
        -10.321720742090353
      ],
      [
        "дальше",
        -10.322173424092783
      ],
      [
        "▁Ирак",
        -10.322565003050004
      ],
      [
        "▁посетил",
        -10.32270062193867
      ],
      [
        "▁особы",
        -10.323290107168019
      ],
      [
        "▁плохо",
        -10.323291983000685
      ],
      [
        "▁боль",
        -10.324169898786598
      ],
      [
        "▁метеоусловия",
        -10.32503206025455
      ],
      [
        "▁депозит",
        -10.325380282206858
      ],
      [
        "▁школа",
        -10.326065761483802
      ],
      [
        "входит",
        -10.32607668120018
      ],
      [
        "молодежь",
        -10.326328876008155
      ],
      [
        "▁отношение",
        -10.327005204233563
      ],
      [
        "честь",
        -10.327235721620912
      ],
      [
        "защиту",
        -10.327240562373555
      ],
      [
        "вперед",
        -10.327357249906465
      ],
      [
        "▁поток",
        -10.32736098472179
      ],
      [
        "землю",
        -10.327833189813006
      ],
      [
        "▁Среди",
        -10.328407190597687
      ],
      [
        "▁отмечает",
        -10.328663817023372
      ],
      [
        "вали",
        -10.330176294505737
      ],
      [
        "▁ледибой",
        -10.330238595038313
      ],
      [
        "▁Система",
        -10.331195878455636
      ],
      [
        "▁настояще",
        -10.331283566363256
      ],
      [
        "ировал",
        -10.331627960210767
      ],
      [
        "тен",
        -10.331668938447182
      ],
      [
        "современных",
        -10.331675158543275
      ],
      [
        "▁образ",
        -10.331948599121185
      ],
      [
        "Статья",
        -10.332222400744055
      ],
      [
        "лон",
        -10.332523740334956
      ],
      [
        "▁спортивны",
        -10.332829882113437
      ],
      [
        "▁вебкамера",
        -10.333431353277465
      ],
      [
        "гре",
        -10.333684570282418
      ],
      [
        "▁инструментов",
        -10.333829359642259
      ],
      [
        "функций",
        -10.334080889916835
      ],
      [
        "▁уход",
        -10.33487474537658
      ],
      [
        "▁огромно",
        -10.334937141664666
      ],
      [
        "▁представление",
        -10.335160420742794
      ],
      [
        "▁Там",
        -10.335216821487101
      ],
      [
        "бит",
        -10.335393942926983
      ],
      [
        "▁последствия",
        -10.335400222402189
      ],
      [
        "▁Использование",
        -10.33546276172264
      ],
      [
        "куда",
        -10.335502721108744
      ],
      [
        "приняли",
        -10.337945681362573
      ],
      [
        "▁жиль",
        -10.338004182326724
      ],
      [
        "▁персонала",
        -10.338130663022774
      ],
      [
        "▁комплект",
        -10.338228888736698
      ],
      [
        "▁направлении",
        -10.338459744897763
      ],
      [
        "▁ту",
        -10.338940151862868
      ],
      [
        "иль",
        -10.339279158097519
      ],
      [
        "▁элемент",
        -10.339491954280602
      ],
      [
        "▁арми",
        -10.339944880053531
      ],
      [
        "▁автомобиля",
        -10.340611588226471
      ],
      [
        "▁знак",
        -10.34066894899248
      ],
      [
        "▁отлично",
        -10.340721662192374
      ],
      [
        "скачать",
        -10.340732554311806
      ],
      [
        "▁предназначен",
        -10.34078952701688
      ],
      [
        "▁международном",
        -10.340978830040926
      ],
      [
        "▁ремонт",
        -10.341364652803943
      ],
      [
        "Мы",
        -10.341545061408562
      ],
      [
        "требований",
        -10.341646827796325
      ],
      [
        "▁Poker",
        -10.34180980105285
      ],
      [
        "▁вода",
        -10.342118419097789
      ],
      [
        "▁сила",
        -10.3422302491098
      ],
      [
        "технического",
        -10.342268678076302
      ],
      [
        "▁кухн",
        -10.34228027652992
      ],
      [
        "▁оста",
        -10.342288021441627
      ],
      [
        "▁зло",
        -10.34237710566633
      ],
      [
        "▁мебель",
        -10.34260458441536
      ],
      [
        "▁Зна",
        -10.342798974018521
      ],
      [
        "▁свободны",
        -10.342959825035962
      ],
      [
        "▁комплекса",
        -10.343087720710042
      ],
      [
        "Доставка",
        -10.343171151923983
      ],
      [
        "▁сделан",
        -10.343492661860974
      ],
      [
        "▁Без",
        -10.343691066207189
      ],
      [
        "▁надежд",
        -10.344072742773593
      ],
      [
        "▁оценка",
        -10.344238529203983
      ],
      [
        "▁Софи",
        -10.344536774091644
      ],
      [
        "▁школ",
        -10.344631382228949
      ],
      [
        "продолжать",
        -10.34527965554149
      ],
      [
        "▁тепло",
        -10.34592451183604
      ],
      [
        "▁Ветер",
        -10.34613822831175
      ],
      [
        "▁списка",
        -10.346532543394115
      ],
      [
        "▁Ответ",
        -10.346770277370394
      ],
      [
        "na",
        -10.34702152999316
      ],
      [
        "ница",
        -10.347908327133046
      ],
      [
        "плоским",
        -10.348011462329048
      ],
      [
        "▁законодательств",
        -10.348685053462663
      ],
      [
        "▁север",
        -10.348947387294498
      ],
      [
        "▁продажи",
        -10.349019701042563
      ],
      [
        "▁преимущества",
        -10.34996826600224
      ],
      [
        "▁ограничения",
        -10.350004557549417
      ],
      [
        "выборах",
        -10.350051693114741
      ],
      [
        "оружие",
        -10.351231058060408
      ],
      [
        "▁описание",
        -10.35139727075245
      ],
      [
        "производителей",
        -10.351891758797906
      ],
      [
        "▁национального",
        -10.352248945999694
      ],
      [
        "▁завтрак",
        -10.352889285505086
      ],
      [
        "куп",
        -10.352936873014434
      ],
      [
        "▁Titan",
        -10.353767845674883
      ],
      [
        "▁случи",
        -10.35431983967811
      ],
      [
        "чем",
        -10.354723656816528
      ],
      [
        "давать",
        -10.354954115177406
      ],
      [
        "▁ежегодно",
        -10.354978125300883
      ],
      [
        "▁кризис",
        -10.356627351592497
      ],
      [
        "▁источников",
        -10.356734677490518
      ],
      [
        "вед",
        -10.356781212458213
      ],
      [
        "слов",
        -10.35679845355668
      ],
      [
        "тар",
        -10.356942789062035
      ],
      [
        "▁дороги",
        -10.357186947343573
      ],
      [
        "▁Название",
        -10.357394127699466
      ],
      [
        "▁Программа",
        -10.357545614872311
      ],
      [
        "▁религиозны",
        -10.358205585273705
      ],
      [
        "▁разум",
        -10.358456730307596
      ],
      [
        "▁источник",
        -10.358593535576096
      ],
      [
        "▁Модель",
        -10.358625951553327
      ],
      [
        "ание",
        -10.358876229709292
      ],
      [
        "▁серьезно",
        -10.359448195074464
      ],
      [
        "▁используют",
        -10.359563853964515
      ],
      [
        "▁заявления",
        -10.359651310347559
      ],
      [
        "▁выпуск",
        -10.359749057656035
      ],
      [
        "произошло",
        -10.360115504432347
      ],
      [
        "проживания",
        -10.360290795871832
      ],
      [
        "▁члены",
        -10.360589013301874
      ],
      [
        "▁продолжает",
        -10.360715501848627
      ],
      [
        "думать",
        -10.360804660515798
      ],
      [
        "▁Безопасности",
        -10.360861912459075
      ],
      [
        "▁острова",
        -10.3608970198912
      ],
      [
        "▁увеличение",
        -10.360971738734369
      ],
      [
        "▁изделия",
        -10.361335257438508
      ],
      [
        "будущее",
        -10.361371819273938
      ],
      [
        "▁зал",
        -10.36137852452219
      ],
      [
        "▁столиц",
        -10.36144120371814
      ],
      [
        "▁отдых",
        -10.361858077892391
      ],
      [
        "▁направления",
        -10.36197144267828
      ],
      [
        "▁функция",
        -10.362142238378686
      ],
      [
        "▁улиц",
        -10.36239796522902
      ],
      [
        "▁проведен",
        -10.362920039283383
      ],
      [
        "▁Гу",
        -10.36293954542434
      ],
      [
        "▁принято",
        -10.364234577649851
      ],
      [
        "добавить",
        -10.364912656099486
      ],
      [
        "▁большинств",
        -10.36491461093808
      ],
      [
        "▁использоваться",
        -10.365179669497527
      ],
      [
        "▁настоящего",
        -10.365496986400137
      ],
      [
        "ует",
        -10.36559260667485
      ],
      [
        "важным",
        -10.365653520897839
      ],
      [
        "▁специализирован",
        -10.365655939166
      ],
      [
        "повышение",
        -10.365869087778686
      ],
      [
        "рас",
        -10.36751201808463
      ],
      [
        "пять",
        -10.367775276842142
      ],
      [
        "▁Гд",
        -10.368145472700457
      ],
      [
        "▁ученик",
        -10.36831310221767
      ],
      [
        "▁домен",
        -10.3683722498225
      ],
      [
        "ряду",
        -10.368480531412816
      ],
      [
        "▁экологически",
        -10.368493283657752
      ],
      [
        "▁Видео",
        -10.368771473766982
      ],
      [
        "ответил",
        -10.368826086145788
      ],
      [
        "▁тенденци",
        -10.369241932345105
      ],
      [
        "станции",
        -10.369500138254828
      ],
      [
        "ила",
        -10.369585616054446
      ],
      [
        "хотят",
        -10.36966035559771
      ],
      [
        "▁мобильны",
        -10.369839724933811
      ],
      [
        "мнение",
        -10.369926460852515
      ],
      [
        "уже",
        -10.370118561787995
      ],
      [
        "▁Выберите",
        -10.370813026328342
      ],
      [
        "насколько",
        -10.370909451797612
      ],
      [
        "Услуги",
        -10.372156037331127
      ],
      [
        "лер",
        -10.372276855646868
      ],
      [
        "▁внутренни",
        -10.37257811628713
      ],
      [
        "▁возвраща",
        -10.373065060290624
      ],
      [
        "▁Центральной",
        -10.373250074172892
      ],
      [
        "▁кажды",
        -10.373644954714193
      ],
      [
        "низу",
        -10.373950981681766
      ],
      [
        "▁учреждений",
        -10.374572718226931
      ],
      [
        "▁Свет",
        -10.3746286421162
      ],
      [
        "▁партнер",
        -10.374653871026414
      ],
      [
        "исты",
        -10.375080955950168
      ],
      [
        "методов",
        -10.375177624522273
      ],
      [
        "▁обязательств",
        -10.37517785356331
      ],
      [
        "анд",
        -10.375913160905688
      ],
      [
        "нул",
        -10.375949348817292
      ],
      [
        "скорости",
        -10.376465830528868
      ],
      [
        "▁зона",
        -10.377578212547684
      ],
      [
        "▁продаж",
        -10.377591103040833
      ],
      [
        "Израиля",
        -10.377624699729727
      ],
      [
        "▁молодых",
        -10.377754716868855
      ],
      [
        "▁сообщества",
        -10.377860394355732
      ],
      [
        "▁масла",
        -10.377872877479005
      ],
      [
        "пас",
        -10.378176937453118
      ],
      [
        "▁занимает",
        -10.37829691395235
      ],
      [
        "▁подключения",
        -10.378442955934776
      ],
      [
        "▁ключевы",
        -10.378645400939174
      ],
      [
        "▁размещения",
        -10.378816995552345
      ],
      [
        "▁возраста",
        -10.378866038445235
      ],
      [
        "▁одежд",
        -10.37904610981253
      ],
      [
        "Увеличение",
        -10.3790568288388
      ],
      [
        "Группы",
        -10.379113491383002
      ],
      [
        "▁далеко",
        -10.37968125963725
      ],
      [
        "▁поддерживать",
        -10.379776310929472
      ],
      [
        "▁Международного",
        -10.380788936839188
      ],
      [
        "Министерство",
        -10.380802887814752
      ],
      [
        "▁график",
        -10.38096656699126
      ],
      [
        "разработке",
        -10.38102116921594
      ],
      [
        "▁полици",
        -10.381182938757037
      ],
      [
        "▁существенно",
        -10.381718718063855
      ],
      [
        "▁хороши",
        -10.382373108552386
      ],
      [
        "вшихся",
        -10.382407581319036
      ],
      [
        "▁визит",
        -10.38251372732959
      ],
      [
        "▁безопасно",
        -10.383055325729579
      ],
      [
        "общественного",
        -10.38350816200817
      ],
      [
        "ция",
        -10.383560209969259
      ],
      [
        "▁прикладн",
        -10.383609590310066
      ],
      [
        "▁отдел",
        -10.38387907042033
      ],
      [
        "▁улучшения",
        -10.385415015714573
      ],
      [
        "▁орган",
        -10.387038371131794
      ],
      [
        "можешь",
        -10.387284029964833
      ],
      [
        "▁согласи",
        -10.387444911797441
      ],
      [
        "▁сожалени",
        -10.38782244114798
      ],
      [
        "▁of",
        -10.387950014275527
      ],
      [
        "точную",
        -10.38833825029891
      ],
      [
        "▁официально",
        -10.38872707259323
      ],
      [
        "▁представитель",
        -10.389426261413401
      ],
      [
        "▁друз",
        -10.38950990979701
      ],
      [
        "▁формирования",
        -10.389707558758937
      ],
      [
        "▁мини",
        -10.391166718041209
      ],
      [
        "▁VPN",
        -10.392030586927218
      ],
      [
        "▁Председатель",
        -10.392238756702483
      ],
      [
        "▁группе",
        -10.392385894052362
      ],
      [
        "▁интересов",
        -10.392755319928265
      ],
      [
        "бл",
        -10.3931826431815
      ],
      [
        "▁исторически",
        -10.393299972511906
      ],
      [
        "▁стен",
        -10.393370383349357
      ],
      [
        "сторону",
        -10.393450145315446
      ],
      [
        "страницы",
        -10.393863788925007
      ],
      [
        "▁альтернатив",
        -10.394475062382341
      ],
      [
        "id",
        -10.39451906647218
      ],
      [
        "окно",
        -10.395360414906992
      ],
      [
        "▁кино",
        -10.395399310085285
      ],
      [
        "▁времена",
        -10.396564617774569
      ],
      [
        "площадью",
        -10.396884018630837
      ],
      [
        "▁пар",
        -10.397250611818508
      ],
      [
        "▁Пред",
        -10.397475361405997
      ],
      [
        "▁кондиционер",
        -10.39789664767003
      ],
      [
        "▁знаем",
        -10.39798038622372
      ],
      [
        "органы",
        -10.398104207062698
      ],
      [
        "▁капитал",
        -10.398143057077313
      ],
      [
        "соотношение",
        -10.3983462995051
      ],
      [
        "▁Анал",
        -10.399413214792665
      ],
      [
        "▁семей",
        -10.39966774581969
      ],
      [
        "▁направленны",
        -10.400020036179457
      ],
      [
        "▁семинар",
        -10.400140584670844
      ],
      [
        "▁форму",
        -10.4003482639407
      ],
      [
        "зже",
        -10.401090906031508
      ],
      [
        "▁воспользоваться",
        -10.401119714608576
      ],
      [
        "▁каждо",
        -10.401236173165591
      ],
      [
        "▁семь",
        -10.401402464989289
      ],
      [
        "наличие",
        -10.402765894072532
      ],
      [
        "Анальны",
        -10.402804230390087
      ],
      [
        "теля",
        -10.402909854771252
      ],
      [
        "нравитс",
        -10.403348351562316
      ],
      [
        "ющую",
        -10.403472426971891
      ],
      [
        "▁ходьб",
        -10.40438118353968
      ],
      [
        "▁Министерства",
        -10.404626285415386
      ],
      [
        "пан",
        -10.404684769593983
      ],
      [
        "▁предварительно",
        -10.405055291134257
      ],
      [
        "кова",
        -10.405565781598884
      ],
      [
        "▁Итак",
        -10.405688926044562
      ],
      [
        "▁белье",
        -10.405918020016957
      ],
      [
        "▁взять",
        -10.406099899884966
      ],
      [
        "index",
        -10.406788353559477
      ],
      [
        "▁апартамент",
        -10.406969724723448
      ],
      [
        "знаешь",
        -10.407997607205768
      ],
      [
        "▁Возможно",
        -10.408094130646063
      ],
      [
        "▁ветер",
        -10.408198082341276
      ],
      [
        "▁Управление",
        -10.40891067690229
      ],
      [
        "▁обеспечивают",
        -10.409288101305615
      ],
      [
        "инфраструктуры",
        -10.409411522028066
      ],
      [
        "ne",
        -10.409502998701411
      ],
      [
        "ней",
        -10.409587655443937
      ],
      [
        "▁протокол",
        -10.410059828940339
      ],
      [
        "▁грех",
        -10.410289812421274
      ],
      [
        "охраны",
        -10.410304300289928
      ],
      [
        "▁вызов",
        -10.410745841604445
      ],
      [
        "йдут",
        -10.410795411112707
      ],
      [
        "▁осадко",
        -10.411085464324726
      ],
      [
        "▁предотвращени",
        -10.411168077732393
      ],
      [
        "▁масло",
        -10.411440405507655
      ],
      [
        "▁Таджикистан",
        -10.41161435524081
      ],
      [
        "форм",
        -10.412025910797633
      ],
      [
        "▁Цена",
        -10.412517597120779
      ],
      [
        "избежать",
        -10.412639680736506
      ],
      [
        "▁бюро",
        -10.412704671518554
      ],
      [
        "▁мастер",
        -10.413596364046226
      ],
      [
        "▁прибыль",
        -10.414482131538353
      ],
      [
        "▁сильны",
        -10.41516671171456
      ],
      [
        "▁пришел",
        -10.415258337122564
      ],
      [
        "▁куда",
        -10.415281434448165
      ],
      [
        "▁Гости",
        -10.41533686124163
      ],
      [
        "▁мышь",
        -10.41549728261633
      ],
      [
        "▁плане",
        -10.41603462095559
      ],
      [
        "Москвы",
        -10.416066447751064
      ],
      [
        "▁границ",
        -10.416342801695562
      ],
      [
        "▁остальны",
        -10.416394231825059
      ],
      [
        "▁домашни",
        -10.416753525408884
      ],
      [
        "▁изменение",
        -10.4172164193612
      ],
      [
        "▁Сын",
        -10.419708893231308
      ],
      [
        "▁помещения",
        -10.419921934584917
      ],
      [
        "режима",
        -10.420148060750407
      ],
      [
        "Петербург",
        -10.42017821634596
      ],
      [
        "клад",
        -10.420222180594756
      ],
      [
        "▁показывает",
        -10.420367017542013
      ],
      [
        "▁карт",
        -10.420727734007107
      ],
      [
        "▁собственно",
        -10.42081105796409
      ],
      [
        "▁построен",
        -10.421466280622605
      ],
      [
        "▁прошлого",
        -10.42197142217103
      ],
      [
        "▁профессор",
        -10.421986913567606
      ],
      [
        "▁целы",
        -10.422279223496611
      ],
      [
        "ост",
        -10.422338772928958
      ],
      [
        "▁соответственно",
        -10.422789613426326
      ],
      [
        "▁долл",
        -10.42297172346428
      ],
      [
        "Игры",
        -10.423037905699902
      ],
      [
        "▁отдельно",
        -10.423294668919787
      ],
      [
        "порт",
        -10.423304028753194
      ],
      [
        "▁низко",
        -10.42338176538548
      ],
      [
        "▁обязательства",
        -10.423395904278335
      ],
      [
        "▁удобно",
        -10.423544046927274
      ],
      [
        "йдет",
        -10.423685215376594
      ],
      [
        "▁Media",
        -10.424161972294488
      ],
      [
        "▁Великобритании",
        -10.42432670945186
      ],
      [
        "▁успеха",
        -10.424772990406431
      ],
      [
        "▁банк",
        -10.424927107889687
      ],
      [
        "▁заседания",
        -10.424978517123598
      ],
      [
        "ания",
        -10.42504932951159
      ],
      [
        "▁Сам",
        -10.42530244985406
      ],
      [
        "▁забот",
        -10.425561455853266
      ],
      [
        "▁номеров",
        -10.425895883362147
      ],
      [
        "▁Иегов",
        -10.426095215959565
      ],
      [
        "▁Молдов",
        -10.426240830703096
      ],
      [
        "▁Или",
        -10.426527284776775
      ],
      [
        "▁обл",
        -10.42660113357049
      ],
      [
        "особенности",
        -10.426755043327743
      ],
      [
        "тельно",
        -10.426783979585403
      ],
      [
        "▁фактор",
        -10.427005518021826
      ],
      [
        "▁отобража",
        -10.427262001844745
      ],
      [
        "▁скоро",
        -10.42742166375273
      ],
      [
        "▁конфликт",
        -10.427814544134593
      ],
      [
        "кан",
        -10.42815960246567
      ],
      [
        "▁капитала",
        -10.428205957264133
      ],
      [
        "требуют",
        -10.428223668156749
      ],
      [
        "идти",
        -10.42875956670375
      ],
      [
        "▁твои",
        -10.429111110973253
      ],
      [
        "заявление",
        -10.429702621105719
      ],
      [
        "Правительство",
        -10.429950611911625
      ],
      [
        "▁чрезвычайно",
        -10.430060010551527
      ],
      [
        "▁каталог",
        -10.430758791553677
      ],
      [
        "▁меж",
        -10.430776602266588
      ],
      [
        "▁азиатки",
        -10.430786733710006
      ],
      [
        "▁рабочи",
        -10.431012537444715
      ],
      [
        "опыта",
        -10.431243588436075
      ],
      [
        "▁расположены",
        -10.431466149585617
      ],
      [
        "▁главно",
        -10.431598693513017
      ],
      [
        "▁Нажмите",
        -10.43221472586393
      ],
      [
        "▁заказа",
        -10.432297560729412
      ],
      [
        "▁голов",
        -10.432745413832732
      ],
      [
        "▁продолжа",
        -10.43279601757168
      ],
      [
        "Первый",
        -10.432956103787395
      ],
      [
        "▁контакт",
        -10.433070801801994
      ],
      [
        "енный",
        -10.433287151248754
      ],
      [
        "▁Игра",
        -10.43372252383447
      ],
      [
        "технических",
        -10.434077157240315
      ],
      [
        "▁Ж",
        -10.435256762722048
      ],
      [
        "▁Канад",
        -10.435422858411012
      ],
      [
        "▁предлагают",
        -10.435454908451883
      ],
      [
        "▁предоставит",
        -10.435547344115964
      ],
      [
        "Сергей",
        -10.435901899400829
      ],
      [
        "зданий",
        -10.435934320562746
      ],
      [
        "▁фактически",
        -10.436023371755944
      ],
      [
        "работать",
        -10.436152930136503
      ],
      [
        "большого",
        -10.436197304887168
      ],
      [
        "▁органа",
        -10.436382636408341
      ],
      [
        "▁крови",
        -10.436750300990818
      ],
      [
        "▁Республика",
        -10.436810657532739
      ],
      [
        "ведения",
        -10.43695984785499
      ],
      [
        "▁экспорт",
        -10.437072181288693
      ],
      [
        "▁Меня",
        -10.437079065419931
      ],
      [
        "▁степен",
        -10.437105030328695
      ],
      [
        "очешь",
        -10.437151408294989
      ],
      [
        "кин",
        -10.437720079016204
      ],
      [
        "гар",
        -10.437881297249797
      ],
      [
        "▁средне",
        -10.43853763566217
      ],
      [
        "пришли",
        -10.439081762836967
      ],
      [
        "решить",
        -10.43915486078198
      ],
      [
        "совершенствовани",
        -10.43931583417129
      ],
      [
        "▁давления",
        -10.43964224628205
      ],
      [
        "▁бумаг",
        -10.439845901204416
      ],
      [
        "un",
        -10.440031391721215
      ],
      [
        "лок",
        -10.440321199439147
      ],
      [
        "▁история",
        -10.440399988880062
      ],
      [
        "заседании",
        -10.440411756455148
      ],
      [
        "▁реально",
        -10.441028112361485
      ],
      [
        "шь",
        -10.441385535472621
      ],
      [
        "▁выразил",
        -10.44141140905867
      ],
      [
        "▁мощност",
        -10.44153260218101
      ],
      [
        "▁анализирует",
        -10.441694479892895
      ],
      [
        "▁част",
        -10.441760747908537
      ],
      [
        "опытом",
        -10.442072682574125
      ],
      [
        "▁пуст",
        -10.442156940074828
      ],
      [
        "▁соответствует",
        -10.442470448622323
      ],
      [
        "следующем",
        -10.442647782581512
      ],
      [
        "▁Ло",
        -10.442680133674983
      ],
      [
        "▁главны",
        -10.443074185758677
      ],
      [
        "ашвили",
        -10.443267994423822
      ],
      [
        "▁почты",
        -10.443622538555605
      ],
      [
        "▁Вид",
        -10.443703518922122
      ],
      [
        "статья",
        -10.44375042304929
      ],
      [
        "▁эпох",
        -10.443825859945866
      ],
      [
        "вниз",
        -10.443921050557245
      ],
      [
        "▁создает",
        -10.444084132297775
      ],
      [
        "▁шесть",
        -10.444498412956305
      ],
      [
        "▁высококачествен",
        -10.444692925919675
      ],
      [
        "пере",
        -10.444769035188685
      ],
      [
        "▁бюджета",
        -10.445018259866341
      ],
      [
        "▁наглядно",
        -10.445354294335717
      ],
      [
        "AC",
        -10.44542499526249
      ],
      [
        "▁странам",
        -10.446207183822544
      ],
      [
        "▁Люб",
        -10.446245818806664
      ],
      [
        "тенге",
        -10.446540698392852
      ],
      [
        "se",
        -10.447334051082501
      ],
      [
        "▁туалет",
        -10.448127911142963
      ],
      [
        "▁интервью",
        -10.448210198837808
      ],
      [
        "▁строк",
        -10.44821666120828
      ],
      [
        "ведущих",
        -10.448224422981014
      ],
      [
        "▁микро",
        -10.448264507216376
      ],
      [
        "▁DVD",
        -10.44885850066012
      ],
      [
        "▁открыл",
        -10.44909583464843
      ],
      [
        "дель",
        -10.449970974189778
      ],
      [
        "вшие",
        -10.450304508642752
      ],
      [
        "молодежи",
        -10.450306724732535
      ],
      [
        "Ы",
        -10.450519322427354
      ],
      [
        "▁работающи",
        -10.450659777381786
      ],
      [
        "историю",
        -10.45070153829132
      ],
      [
        "▁волос",
        -10.45072892344185
      ],
      [
        "▁Дополнительные",
        -10.45080818367538
      ],
      [
        "▁обмена",
        -10.451312340073246
      ],
      [
        "▁производственны",
        -10.45182865681547
      ],
      [
        "цев",
        -10.451899761276419
      ],
      [
        "брать",
        -10.452347826048536
      ],
      [
        "▁заместитель",
        -10.453459044768483
      ],
      [
        "кампании",
        -10.453609397201674
      ],
      [
        "пространство",
        -10.454283209136412
      ],
      [
        "▁She",
        -10.454295249113805
      ],
      [
        "▁конкурса",
        -10.454609689617522
      ],
      [
        "▁Перво",
        -10.454709276465623
      ],
      [
        "туристов",
        -10.454826145321112
      ],
      [
        "законодательства",
        -10.454844312289689
      ],
      [
        "мир",
        -10.45559141285018
      ],
      [
        "▁учитыва",
        -10.455848917894707
      ],
      [
        "сайтов",
        -10.456088673337486
      ],
      [
        "▁щелкну",
        -10.456220653925312
      ],
      [
        "чаще",
        -10.45650722684025
      ],
      [
        "бра",
        -10.456634706441937
      ],
      [
        "одежды",
        -10.456886685332407
      ],
      [
        "относится",
        -10.457065035359829
      ],
      [
        "▁комфортно",
        -10.45731967803847
      ],
      [
        "вопросу",
        -10.457370553679256
      ],
      [
        "▁Банк",
        -10.457515360830962
      ],
      [
        "▁отца",
        -10.457691697548745
      ],
      [
        "правда",
        -10.457695185960354
      ],
      [
        "▁мо",
        -10.45810766647266
      ],
      [
        "▁свобод",
        -10.458257373166129
      ],
      [
        "▁детски",
        -10.458925231216078
      ],
      [
        "▁соглашение",
        -10.459060068047227
      ],
      [
        "бал",
        -10.459121650840034
      ],
      [
        "▁архитектур",
        -10.459326877015302
      ],
      [
        "▁Мак",
        -10.459611577747273
      ],
      [
        "ёр",
        -10.459625634055307
      ],
      [
        "отношению",
        -10.460204421863969
      ],
      [
        "▁открыт",
        -10.460481668111099
      ],
      [
        "▁велосипед",
        -10.460568021498215
      ],
      [
        "▁регулярно",
        -10.460837212627276
      ],
      [
        "▁приняты",
        -10.461184677107523
      ],
      [
        "внутренних",
        -10.461761609614335
      ],
      [
        "▁широкий",
        -10.461798731019526
      ],
      [
        "▁приводит",
        -10.461810472583066
      ],
      [
        "▁региональных",
        -10.461961921563594
      ],
      [
        "▁человечески",
        -10.462283641543172
      ],
      [
        "параметров",
        -10.462347371475593
      ],
      [
        "▁метра",
        -10.462417727536067
      ],
      [
        "Группа",
        -10.462705674947234
      ],
      [
        "порядок",
        -10.462718805144002
      ],
      [
        "любых",
        -10.46296815844012
      ],
      [
        "▁получите",
        -10.462984004740962
      ],
      [
        "пут",
        -10.463404668022818
      ],
      [
        "▁праздник",
        -10.463729850077605
      ],
      [
        "стан",
        -10.463741192925664
      ],
      [
        "▁Доступ",
        -10.46425187073266
      ],
      [
        "следующей",
        -10.464309340989908
      ],
      [
        "держать",
        -10.464332180906295
      ],
      [
        "▁масштаб",
        -10.464941377781253
      ],
      [
        "▁выпуска",
        -10.46549457975811
      ],
      [
        "▁председатель",
        -10.465657329051721
      ],
      [
        "мар",
        -10.466580920369847
      ],
      [
        "▁счета",
        -10.466689458536568
      ],
      [
        "▁этаж",
        -10.467140146841025
      ],
      [
        "▁Фингер",
        -10.467678277892862
      ],
      [
        "ехать",
        -10.467787262483553
      ],
      [
        "▁выгод",
        -10.468167202620112
      ],
      [
        "▁Буд",
        -10.46822139928746
      ],
      [
        "▁компьютере",
        -10.468232626698876
      ],
      [
        "▁Иоанн",
        -10.468597764870815
      ],
      [
        "▁женско",
        -10.469189761318908
      ],
      [
        "▁страна",
        -10.469224164654896
      ],
      [
        "▁просты",
        -10.469549321430756
      ],
      [
        "▁глава",
        -10.469825751058583
      ],
      [
        "▁нарушения",
        -10.469885456755911
      ],
      [
        "насилия",
        -10.47149530657262
      ],
      [
        "понял",
        -10.471746064103762
      ],
      [
        "действовать",
        -10.471752213335655
      ],
      [
        "Спасибо",
        -10.471815971545153
      ],
      [
        "▁единиц",
        -10.472051211468644
      ],
      [
        "партия",
        -10.472293572217056
      ],
      [
        "желание",
        -10.472296537844288
      ],
      [
        "▁Пре",
        -10.472374283391936
      ],
      [
        "света",
        -10.473573721814372
      ],
      [
        "природы",
        -10.473670952897566
      ],
      [
        "использующие",
        -10.473978919595933
      ],
      [
        "▁стара",
        -10.474232021409437
      ],
      [
        "▁имен",
        -10.474334596468738
      ],
      [
        "▁диалог",
        -10.474353657947319
      ],
      [
        "овский",
        -10.474809416194857
      ],
      [
        "▁повышени",
        -10.475115209867747
      ],
      [
        "▁выполнение",
        -10.475400377194756
      ],
      [
        "пил",
        -10.475734163455979
      ],
      [
        "среду",
        -10.475997956765676
      ],
      [
        "ТА",
        -10.476082524461667
      ],
      [
        "лек",
        -10.476090150439973
      ],
      [
        "▁пределах",
        -10.476125151550447
      ],
      [
        "▁порядка",
        -10.476244554131117
      ],
      [
        "Q",
        -10.476437555461025
      ],
      [
        "▁ассоциирует",
        -10.476462040506895
      ],
      [
        "▁доступно",
        -10.476518265152107
      ],
      [
        "▁выступил",
        -10.476689146449754
      ],
      [
        "▁Музей",
        -10.476870223138915
      ],
      [
        "▁естественно",
        -10.477150776469205
      ],
      [
        "против",
        -10.477217302367695
      ],
      [
        "▁затрат",
        -10.477230476356947
      ],
      [
        "▁гаранти",
        -10.47729179997471
      ],
      [
        "ась",
        -10.47733625130052
      ],
      [
        "ические",
        -10.477715507568414
      ],
      [
        "http",
        -10.47783857456
      ],
      [
        "▁золото",
        -10.47811157690276
      ],
      [
        "▁параметр",
        -10.478507751793819
      ],
      [
        "▁отказа",
        -10.478712090481793
      ],
      [
        "лезную",
        -10.478767290138675
      ],
      [
        "▁конфиденциально",
        -10.479005305176338
      ],
      [
        "▁Загрузк",
        -10.47969320545803
      ],
      [
        "▁храм",
        -10.47977870266099
      ],
      [
        "▁Лу",
        -10.480063760235806
      ],
      [
        "▁возрасте",
        -10.480292795766557
      ],
      [
        "▁крупны",
        -10.480447167563634
      ],
      [
        "▁сына",
        -10.480613547137139
      ],
      [
        "пен",
        -10.481270215143802
      ],
      [
        "▁транспорта",
        -10.4814890929009
      ],
      [
        "▁драйвер",
        -10.48162781653566
      ],
      [
        "▁будущи",
        -10.482086323260926
      ],
      [
        "▁па",
        -10.482249664705742
      ],
      [
        "▁библиотек",
        -10.482478975364398
      ],
      [
        "сканирует",
        -10.482756822826502
      ],
      [
        "альный",
        -10.483853544736965
      ],
      [
        "дро",
        -10.484133954794482
      ],
      [
        "▁заявлени",
        -10.48447512857068
      ],
      [
        "▁журнала",
        -10.484522570855573
      ],
      [
        "маленький",
        -10.484574889146085
      ],
      [
        "▁фирмы",
        -10.484865949714639
      ],
      [
        "▁последовательно",
        -10.485287388113253
      ],
      [
        "созданию",
        -10.485599298162361
      ],
      [
        "▁Перед",
        -10.486445841884088
      ],
      [
        "операционной",
        -10.486777145191816
      ],
      [
        "▁привел",
        -10.486871008250853
      ],
      [
        "ических",
        -10.487529998957294
      ],
      [
        "▁активов",
        -10.487576480030947
      ],
      [
        "▁конфликта",
        -10.488815088958123
      ],
      [
        "пользоваться",
        -10.488849242522852
      ],
      [
        "рос",
        -10.489130760197602
      ],
      [
        "▁давление",
        -10.489235571839512
      ],
      [
        "▁развитии",
        -10.489808700775553
      ],
      [
        "меняется",
        -10.490096701105069
      ],
      [
        "▁Бесплатны",
        -10.490166541614265
      ],
      [
        "▁бо",
        -10.490290794227946
      ],
      [
        "▁Вопрос",
        -10.490299660436454
      ],
      [
        "▁наблюда",
        -10.490354395151625
      ],
      [
        "▁Автор",
        -10.49095333735616
      ],
      [
        "▁команд",
        -10.491356574421363
      ],
      [
        "▁муж",
        -10.491622450846892
      ],
      [
        "▁судебно",
        -10.491912115811523
      ],
      [
        "▁общем",
        -10.491927307318635
      ],
      [
        "▁возник",
        -10.492015758946884
      ],
      [
        "информационных",
        -10.492198652154741
      ],
      [
        "старые",
        -10.49244485583078
      ],
      [
        "▁вод",
        -10.492549728914087
      ],
      [
        "▁четко",
        -10.49331137405186
      ],
      [
        "▁домена",
        -10.493408776179592
      ],
      [
        "▁Источник",
        -10.493708533665806
      ],
      [
        "▁голосов",
        -10.494174857746188
      ],
      [
        "▁уникальны",
        -10.494446343636803
      ],
      [
        "достич",
        -10.494486356110707
      ],
      [
        "загрузки",
        -10.494630833142633
      ],
      [
        "бро",
        -10.494937089102363
      ],
      [
        "▁оценк",
        -10.495348875342629
      ],
      [
        "обороны",
        -10.4959594849305
      ],
      [
        "▁предел",
        -10.49600178579202
      ],
      [
        "▁ООО",
        -10.496045573963599
      ],
      [
        "увеличить",
        -10.497111627143674
      ],
      [
        "▁Количество",
        -10.497351320507828
      ],
      [
        "▁добыч",
        -10.497364145111245
      ],
      [
        "ol",
        -10.497407074045878
      ],
      [
        "▁шести",
        -10.49751404841459
      ],
      [
        "▁Эл",
        -10.49754857667258
      ],
      [
        "mo",
        -10.497557627238349
      ],
      [
        "▁обраща",
        -10.497654495799921
      ],
      [
        "▁покрытие",
        -10.497743065124121
      ],
      [
        "шей",
        -10.497900378420576
      ],
      [
        "зал",
        -10.49827985400643
      ],
      [
        "▁семье",
        -10.498379071049122
      ],
      [
        "▁здание",
        -10.498455275730395
      ],
      [
        "▁ежедневно",
        -10.498953128774875
      ],
      [
        "▁учреждения",
        -10.499779491399478
      ],
      [
        "▁Mac",
        -10.500119236450628
      ],
      [
        "какое",
        -10.500186053486948
      ],
      [
        "▁газ",
        -10.500452849589156
      ],
      [
        "▁изделий",
        -10.500784903807169
      ],
      [
        "лечение",
        -10.500883288510396
      ],
      [
        "▁просьб",
        -10.501277866337137
      ],
      [
        "lo",
        -10.501715613364354
      ],
      [
        "▁Ан",
        -10.502142826716263
      ],
      [
        "енного",
        -10.502643622311483
      ],
      [
        "▁спросил",
        -10.504269296272835
      ],
      [
        "▁души",
        -10.504332920234457
      ],
      [
        "дор",
        -10.504820872173928
      ],
      [
        "▁повод",
        -10.505423053345249
      ],
      [
        "▁собрания",
        -10.505487432985708
      ],
      [
        "церковь",
        -10.506187972158838
      ],
      [
        "зер",
        -10.506639088459231
      ],
      [
        "▁пользователям",
        -10.506788348825639
      ],
      [
        "▁популярны",
        -10.506846864200266
      ],
      [
[...]
