{
  "version": "1.0",
  "truncation": null,
  "padding": null,
  "added_tokens": [
    {
      "id": 0,
      "content": "<pad>",
      "single_word": false,
      "lstrip": false,
      "rstrip": false,
      "normalized": false,
      "special": true
    },
    {
      "id": 1,
      "content": "<s>",
      "single_word": false,
      "lstrip": false,
      "rstrip": false,
      "normalized": false,
      "special": true
    },
    {
      "id": 2,
      "content": "</s>",
      "single_word": false,
      "lstrip": false,
      "rstrip": false,
      "normalized": false,
      "special": true
    },
    {
      "id": 3,
      "content": "<unk>",
      "single_word": false,
      "lstrip": false,
      "rstrip": false,
      "normalized": false,
      "special": true
    }
  ],
  "normalizer": {
    "type": "NFKC"
  },
  "pre_tokenizer": {
    "type": "Sequence",
    "pretokenizers": [
      {
        "type": "Metaspace",
        "replacement": "▁",
        "prepend_scheme": "always",
        "split": true
      },
      {
        "type": "Punctuation",
        "behavior": "Isolated"
      },
      {
        "type": "Digits",
        "individual_digits": true
      }
    ]
  },
  "post_processor": {
    "type": "TemplateProcessing",
    "single": [
      {
        "SpecialToken": {
          "id": "<s>",
          "type_id": 0
        }
      },
      {
        "Sequence": {
          "id": "A",
          "type_id": 0
        }
      },
      {
        "SpecialToken": {
          "id": "</s>",
          "type_id": 0
        }
      }
    ],
    "pair": [
      {
        "Sequence": {
          "id": "A",
          "type_id": 0
        }
      },
      {
        "Sequence": {
          "id": "B",
          "type_id": 1
        }
      }
    ],
    "special_tokens": {
      "</s>": {
        "id": "</s>",
        "ids": [
          2
        ],
        "tokens": [
          "</s>"
        ]
      },
      "<s>": {
        "id": "<s>",
        "ids": [
          1
        ],
        "tokens": [
          "<s>"
        ]
      }
    }
  },
  "decoder": {
    "type": "Metaspace",
    "replacement": "▁",
    "prepend_scheme": "always",
    "split": true
  },
  "model": {
    "type": "Unigram",
    "unk_id": 3,
    "vocab": [
      [
        "<pad>",
        0.0
      ],
      [
        "<s>",
        0.0
      ],
      [
        "</s>",
        0.0
      ],
      [
        "<unk>",
        0.0
      ],
      [
        "▁",
        -3.0248872338659414
      ],
      [
        "▁the",
        -3.2030458972231575
      ],
      [
        ",",
        -3.2129072117308137
      ],
      [
        ".",
        -3.216592746459474
      ],
      [
        "s",
        -3.3501880514378755
      ],
      [
        "▁of",
        -3.7373784213479517
      ],
      [
        "▁and",
        -3.9566024588516555
      ],
      [
        "▁to",
        -4.052397139904677
      ],
      [
        "a",
        -4.210415849488635
      ],
      [
        "▁in",
        -4.392948658412903
      ],
      [
        "0",
        -4.566374344067661
      ],
      [
        "ed",
        -4.754362553151575
      ],
      [
        "'",
        -4.807592772575404
      ],
      [
        "-",
        -4.819640012350817
      ],
      [
        "1",
        -4.841997359827232
      ],
      [
        "ing",
        -4.877842286494584
      ],
      [
        "▁is",
        -4.931592429441011
      ],
      [
        "2",
        -4.955725168569327
      ],
      [
        "d",
        -4.965341004459509
      ],
      [
        "▁for",
        -5.0296015419122195
      ],
      [
        "▁that",
        -5.088768663490837
      ],
      [
        "▁I",
        -5.2251657785102115
      ],
      [
        "y",
        -5.2325386027652065
      ],
      [
        "▁you",
        -5.285374977731919
      ],
      [
        "▁on",
        -5.340493564326573
      ],
      [
        "▁The",
        -5.412955572150018
      ],
      [
        "▁with",
        -5.436994312025227
      ],
      [
        "e",
        -5.44537924469771
      ],
      [
        ":",
        -5.4506575783092455
      ],
      [
        ")",
        -5.462252487554036
      ],
      [
        "t",
        -5.473435793933261
      ],
      [
        "ly",
        -5.487967483335927
      ],
      [
        "(",
        -5.49797243093014
      ],
      [
        "▁be",
        -5.5409477904641875
      ],
      [
        "▁it",
        -5.557963284649073
      ],
      [
        "▁are",
        -5.605091721853492
      ],
      [
        "▁as",
        -5.648724156467235
      ],
      [
        "\"",
        -5.6672111056962144
      ],
      [
        "3",
        -5.73559746031926
      ],
      [
        "9",
        -5.754714972485852
      ],
      [
        "?",
        -5.756149428994933
      ],
      [
        "▁by",
        -5.759699018694164
      ],
      [
        "5",
        -5.761763553494205
      ],
      [
        "▁was",
        -5.828861969660515
      ],
      [
        "▁not",
        -5.857457915324957
      ],
      [
        "4",
        -5.905989950821416
      ],
      [
        "o",
        -5.906944815662827
      ],
      [
        "▁from",
        -5.9298064539911355
      ],
      [
        "▁have",
        -5.947965096071858
      ],
      [
        "▁or",
        -5.960718688949994
      ],
      [
        "▁this",
        -5.976892164976832
      ],
      [
        "/",
        -6.026497760930356
      ],
      [
        "6",
        -6.074503695252389
      ],
      [
        "▁at",
        -6.079530392801907
      ],
      [
        "n",
        -6.081001476248577
      ],
      [
        "▁will",
        -6.085802973983926
      ],
      [
        "8",
        -6.141886807522869
      ],
      [
        "7",
        -6.162521488767762
      ],
      [
        ";",
        -6.206836325697717
      ],
      [
        "▁an",
        -6.222815699201693
      ],
      [
        "▁can",
        -6.316361787151841
      ],
      [
        "m",
        -6.339564709297811
      ],
      [
        "▁all",
        -6.352098849703809
      ],
      [
        "i",
        -6.387319967253674
      ],
      [
        "▁your",
        -6.3959627470742735
      ],
      [
        "▁which",
        -6.404515695346051
      ],
      [
        "▁has",
        -6.412573820173355
      ],
      [
        "▁we",
        -6.421775333980403
      ],
      [
        "▁their",
        -6.446758668652231
      ],
      [
        "▁In",
        -6.531471693967253
      ],
      [
        "er",
        -6.555675319784141
      ],
      [
        "!",
        -6.575518203110601
      ],
      [
        "▁he",
        -6.6114072703196065
      ],
      [
        "▁one",
        -6.6396801404348125
      ],
      [
        "▁It",
        -6.641923629808053
      ],
      [
        "▁but",
        -6.675279367134648
      ],
      [
        "▁its",
        -6.695654659561876
      ],
      [
        "▁were",
        -6.696792704724308
      ],
      [
        "▁his",
        -6.759677316507588
      ],
      [
        "ies",
        -6.766149807889052
      ],
      [
        "▁A",
        -6.771749325049072
      ],
      [
        "▁other",
        -6.773156032709
      ],
      [
        "▁they",
        -6.78038843044718
      ],
      [
        "▁who",
        -6.817846548430362
      ],
      [
        "▁more",
        -6.822734918832436
      ],
      [
        "▁about",
        -6.830048266034792
      ],
      [
        "▁me",
        -6.832094825820901
      ],
      [
        "▁You",
        -6.833793101248723
      ],
      [
        "▁been",
        -6.853053379777862
      ],
      [
        "▁also",
        -6.8834752386432
      ],
      [
        "our",
        -6.88537875919047
      ],
      [
        "▁time",
        -6.886854036076347
      ],
      [
        "▁do",
        -6.899465831481507
      ],
      [
        "▁my",
        -6.908705655297547
      ],
      [
        "▁had",
        -6.934818228518926
      ],
      [
        "▁there",
        -6.95179114354201
      ],
      [
        "re",
        -6.95886594753887
      ],
      [
        "▁any",
        -6.9625363389316846
      ],
      [
        "▁We",
        -6.997795077336384
      ],
      [
        "▁would",
        -7.013151936271285
      ],
      [
        "▁out",
        -7.018028773503337
      ],
      [
        "r",
        -7.018901506266648
      ],
      [
        "▁them",
        -7.039570869858107
      ],
      [
        "▁This",
        -7.043207293901618
      ],
      [
        "▁up",
        -7.061360608467204
      ],
      [
        "▁people",
        -7.072497140223781
      ],
      [
        "▁what",
        -7.077460077846547
      ],
      [
        "▁if",
        -7.081659087599434
      ],
      [
        "▁no",
        -7.0907311371535275
      ],
      [
        "▁only",
        -7.092564206445672
      ],
      [
        "▁into",
        -7.120002708149528
      ],
      [
        "▁new",
        -7.127256853264358
      ],
      [
        "▁need",
        -7.1437729434539605
      ],
      [
        "▁such",
        -7.150608379276276
      ],
      [
        "▁should",
        -7.163406652476937
      ],
      [
        "▁when",
        -7.1755184085428
      ],
      [
        "on",
        -7.183665135902375
      ],
      [
        "▁him",
        -7.198465145695016
      ],
      [
        "▁He",
        -7.202419718701366
      ],
      [
        "▁And",
        -7.202956248246341
      ],
      [
        "▁know",
        -7.204859715345249
      ],
      [
        "▁work",
        -7.207194439061423
      ],
      [
        "▁than",
        -7.227958340669996
      ],
      [
        "▁like",
        -7.231344323618018
      ],
      [
        "▁these",
        -7.302416617113655
      ],
      [
        "▁some",
        -7.30434834203969
      ],
      [
        "▁her",
        -7.3062652235744565
      ],
      [
        "▁may",
        -7.33270178851491
      ],
      [
        "l",
        -7.336286378959052
      ],
      [
        "▁just",
        -7.3449930003436155
      ],
      [
        "▁well",
        -7.345922744925845
      ],
      [
        "▁use",
        -7.367597372200629
      ],
      [
        "▁first",
        -7.3695132862488855
      ],
      [
        "c",
        -7.373872109895919
      ],
      [
        "▁want",
        -7.38231572128511
      ],
      [
        "▁information",
        -7.417485070401067
      ],
      [
        "▁right",
        -7.418351538711121
      ],
      [
        "in",
        -7.434319718460033
      ],
      [
        "▁how",
        -7.441803287349494
      ],
      [
        "h",
        -7.44372566883208
      ],
      [
        "▁If",
        -7.454662345233311
      ],
      [
        "▁get",
        -7.458642713252555
      ],
      [
        "▁two",
        -7.460305117755251
      ],
      [
        "▁most",
        -7.4624803822518135
      ],
      [
        "▁over",
        -7.470383101171626
      ],
      [
        "▁provide",
        -7.47391094161679
      ],
      [
        "▁through",
        -7.477380643177504
      ],
      [
        "%",
        -7.491543436465969
      ],
      [
        "▁But",
        -7.500220145645789
      ],
      [
        "▁said",
        -7.506409423720948
      ],
      [
        "▁development",
        -7.507762106105936
      ],
      [
        "▁United",
        -7.510640940875719
      ],
      [
        "▁countries",
        -7.518368689752693
      ],
      [
        "▁now",
        -7.523589883060248
      ],
      [
        "ever",
        -7.534718094057517
      ],
      [
        "▁years",
        -7.535546130400119
      ],
      [
        "▁could",
        -7.540359091448556
      ],
      [
        "▁What",
        -7.544715788934376
      ],
      [
        "▁system",
        -7.548363040979156
      ],
      [
        "▁those",
        -7.5576939518128885
      ],
      [
        "*",
        -7.560214011676342
      ],
      [
        "▁under",
        -7.561769063291651
      ],
      [
        "▁where",
        -7.561801262556614
      ],
      [
        "▁very",
        -7.563262241121972
      ],
      [
        "▁us",
        -7.564475597458438
      ],
      [
        "▁international",
        -7.570759127770696
      ],
      [
        "▁see",
        -7.580280266817773
      ],
      [
        "▁world",
        -7.582291440556926
      ],
      [
        "▁here",
        -7.5958127656580245
      ],
      [
        "▁Russian",
        -7.598447972512602
      ],
      [
        "▁between",
        -7.601188866954178
      ],
      [
        "▁don",
        -7.609829731221955
      ],
      [
        "▁take",
        -7.610158387521658
      ],
      [
        "▁No",
        -7.611601528157845
      ],
      [
        "b",
        -7.614258225355611
      ],
      [
        "▁must",
        -7.616592071410556
      ],
      [
        "—",
        -7.622991218751524
      ],
      [
        "▁many",
        -7.630379843138581
      ],
      [
        "▁every",
        -7.6350145728468295
      ],
      [
        "f",
        -7.64899930086268
      ],
      [
        "able",
        -7.658204403115979
      ],
      [
        "▁make",
        -7.658730252778124
      ],
      [
        "S",
        -7.681938512606008
      ],
      [
        "▁support",
        -7.682966231309329
      ],
      [
        "▁she",
        -7.6849864674846895
      ],
      [
        "▁even",
        -7.688243986972017
      ],
      [
        "▁number",
        -7.690460867746632
      ],
      [
        "ll",
        -7.700836247015788
      ],
      [
        "▁For",
        -7.706680638753403
      ],
      [
        "▁after",
        -7.707081528522277
      ],
      [
        "p",
        -7.7088240949661255
      ],
      [
        "▁made",
        -7.708965997873992
      ],
      [
        "▁way",
        -7.72233459427401
      ],
      [
        "▁place",
        -7.734333731797353
      ],
      [
        "▁say",
        -7.744880204078337
      ],
      [
        "▁How",
        -7.745585654013992
      ],
      [
        "▁Russia",
        -7.755773168310476
      ],
      [
        "▁including",
        -7.756432998086577
      ],
      [
        "▁go",
        -7.771358702982269
      ],
      [
        "g",
        -7.781625936601285
      ],
      [
        "▁case",
        -7.783720756833704
      ],
      [
        "▁because",
        -7.785073630006412
      ],
      [
        "I",
        -7.789601384330846
      ],
      [
        "▁think",
        -7.791302186934418
      ],
      [
        "th",
        -7.7953396587984685
      ],
      [
        "▁year",
        -7.79747060318279
      ],
      [
        "и",
        -7.8003711990865625
      ],
      [
        "al",
        -7.803733094566699
      ],
      [
        "an",
        -7.816850091191185
      ],
      [
        "▁good",
        -7.819158901707615
      ],
      [
        "▁country",
        -7.820475708467619
      ],
      [
        "▁project",
        -7.821001033822794
      ],
      [
        "▁state",
        -7.824293790147122
      ],
      [
        "u",
        -7.8255746939577495
      ],
      [
        "▁same",
        -7.835722982755241
      ],
      [
        "▁did",
        -7.835932468844728
      ],
      [
        "thing",
        -7.8372841966689055
      ],
      [
        "▁part",
        -7.842213593931614
      ],
      [
        "▁life",
        -7.84588849750803
      ],
      [
        "▁used",
        -7.862589232694237
      ],
      [
        "ity",
        -7.866979236939603
      ],
      [
        "▁States",
        -7.870266236339013
      ],
      [
        "▁They",
        -7.8797096271815175
      ],
      [
        "▁That",
        -7.880368119271964
      ],
      [
        "▁help",
        -7.884468014955612
      ],
      [
        "▁There",
        -7.885731020313003
      ],
      [
        "▁human",
        -7.893203486631904
      ],
      [
        "▁before",
        -7.893385002175188
      ],
      [
        "or",
        -7.894351583660969
      ],
      [
        "▁shall",
        -7.894710611099528
      ],
      [
        "▁against",
        -7.900751620057568
      ],
      [
        "ce",
        -7.909661349521494
      ],
      [
        "▁Nations",
        -7.910932645877585
      ],
      [
        "▁own",
        -7.911410146014164
      ],
      [
        "▁back",
        -7.917412980228065
      ],
      [
        "’",
        -7.9188812715663275
      ],
      [
        "ve",
        -7.91968525993499
      ],
      [
        "▁national",
        -7.925691734254016
      ],
      [
        "▁being",
        -7.9267565557996384
      ],
      [
        "▁during",
        -7.938619448344992
      ],
      [
        "▁To",
        -7.939361171695065
      ],
      [
        "▁problem",
        -7.942001302054075
      ],
      [
        "▁order",
        -7.949523301105273
      ],
      [
        "▁Committee",
        -7.949617671808166
      ],
      [
        "▁look",
        -7.952889391513667
      ],
      [
        "▁business",
        -7.97033018679654
      ],
      [
        "▁al",
        -7.974145889589181
      ],
      [
        "▁day",
        -7.980261741696001
      ],
      [
        "▁So",
        -8.000403623410712
      ],
      [
        "self",
        -8.010479036719625
      ],
      [
        "▁each",
        -8.014230352719784
      ],
      [
        "▁start",
        -8.01800165731663
      ],
      [
        "▁long",
        -8.018021575435945
      ],
      [
        "▁both",
        -8.01901619001529
      ],
      [
        "▁rights",
        -8.019677383224996
      ],
      [
        "▁much",
        -8.02566565666338
      ],
      [
        "▁data",
        -8.026702069355425
      ],
      [
        "▁high",
        -8.029301880684638
      ],
      [
        "A",
        -8.029573842760756
      ],
      [
        "▁within",
        -8.029856393734974
      ],
      [
        "▁going",
        -8.031678363519568
      ],
      [
        "▁As",
        -8.032591931250717
      ],
      [
        "▁without",
        -8.034637049453567
      ],
      [
        "▁services",
        -8.056827345286056
      ],
      [
        "“",
        -8.060230417762572
      ],
      [
        "▁public",
        -8.062008144317456
      ],
      [
        "▁name",
        -8.070914024636052
      ],
      [
        "▁important",
        -8.074396371215448
      ],
      [
        "▁report",
        -8.07697054382004
      ],
      [
        "▁end",
        -8.08364374873268
      ],
      [
        "▁while",
        -8.086027120164736
      ],
      [
        "е",
        -8.086390376706229
      ],
      [
        "▁great",
        -8.089763897247058
      ],
      [
        "▁come",
        -8.089972988160145
      ],
      [
        "”",
        -8.09153058590252
      ],
      [
        "▁does",
        -8.101335353129409
      ],
      [
        "ness",
        -8.104443025805782
      ],
      [
        "▁include",
        -8.104583922774347
      ],
      [
        "▁children",
        -8.110718456845877
      ],
      [
        "▁three",
        -8.115878641654906
      ],
      [
        "▁Council",
        -8.118126654654073
      ],
      [
        "▁economic",
        -8.121072768568103
      ],
      [
        "▁process",
        -8.12213667043006
      ],
      [
        "▁down",
        -8.122344084006347
      ],
      [
        "▁God",
        -8.124858625422537
      ],
      [
        "▁find",
        -8.126423990650402
      ],
      [
        "▁region",
        -8.130985402723208
      ],
      [
        "▁Mr",
        -8.131596262677707
      ],
      [
        "▁still",
        -8.131765139330787
      ],
      [
        "▁service",
        -8.136318005333676
      ],
      [
        "▁per",
        -8.141807187530294
      ],
      [
        "▁S",
        -8.142318395865825
      ],
      [
        "▁market",
        -8.1447559577843
      ],
      [
        "▁particular",
        -8.14815599883556
      ],
      [
        "▁different",
        -8.152922964905033
      ],
      [
        "▁State",
        -8.15530347253111
      ],
      [
        "▁last",
        -8.155913996343447
      ],
      [
        "▁All",
        -8.15808151416609
      ],
      [
        "▁set",
        -8.159521512124094
      ],
      [
        "▁man",
        -8.159990226723039
      ],
      [
        "▁law",
        -8.162400098056828
      ],
      [
        "▁When",
        -8.162550094493907
      ],
      [
        "▁following",
        -8.167271267798027
      ],
      [
        "▁M",
        -8.171098782073125
      ],
      [
        "▁offer",
        -8.176022807411318
      ],
      [
        "▁open",
        -8.178614778315678
      ],
      [
        "▁company",
        -8.1810705967702
      ],
      [
        "▁On",
        -8.181657764296556
      ],
      [
        "▁women",
        -8.188525997603028
      ],
      [
        "–",
        -8.190636940134588
      ],
      [
        "▁example",
        -8.190943699889013
      ],
      [
        "▁activities",
        -8.19191958616259
      ],
      [
        "▁program",
        -8.196810486661946
      ],
      [
        "$",
        -8.197066681875851
      ],
      [
        "le",
        -8.19846802781047
      ],
      [
        "▁become",
        -8.19937221617067
      ],
      [
        "▁At",
        -8.201431999293836
      ],
      [
        "▁Republic",
        -8.20578139989499
      ],
      [
        "▁government",
        -8.213416404668722
      ],
      [
        "▁International",
        -8.214821682683182
      ],
      [
        "▁regard",
        -8.215695546813867
      ],
      [
        "▁level",
        -8.21889656442377
      ],
      [
        "▁power",
        -8.224883544121552
      ],
      [
        "▁She",
        -8.242172615387405
      ],
      [
        "▁found",
        -8.242764975581151
      ],
      [
        "▁social",
        -8.242908941695674
      ],
      [
        "▁develop",
        -8.246486234852576
      ],
      [
        "▁access",
        -8.24734792074812
      ],
      [
        "k",
        -8.248591278243493
      ],
      [
        "▁am",
        -8.25157302815483
      ],
      [
        "▁security",
        -8.25473542288561
      ],
      [
        "▁million",
        -8.25619092420692
      ],
      [
        "ready",
        -8.26603428160304
      ],
      [
        "▁meeting",
        -8.27025579608165
      ],
      [
        "▁possible",
        -8.271391924517857
      ],
      [
        "▁decision",
        -8.275243179738352
      ],
      [
        "▁water",
        -8.27699551131414
      ],
      [
        "▁control",
        -8.278909297635431
      ],
      [
        "▁room",
        -8.283324937762737
      ],
      [
        "▁another",
        -8.289015415566395
      ],
      [
        "]",
        -8.291241509259182
      ],
      [
        "▁available",
        -8.29147339408692
      ],
      [
        "▁B",
        -8.292398170231117
      ],
      [
        "[",
        -8.300100574511227
      ],
      [
        "us",
        -8.300272888689694
      ],
      [
        "▁using",
        -8.304103938144207
      ],
      [
        "▁political",
        -8.30652416245438
      ],
      [
        "▁never",
        -8.309074101899942
      ],
      [
        "is",
        -8.322978437487206
      ],
      [
        "▁love",
        -8.330401711943587
      ],
      [
        "▁Oh",
        -8.334132350887765
      ],
      [
        "▁financial",
        -8.335118789240454
      ],
      [
        "▁C",
        -8.34059318405712
      ],
      [
        "▁E",
        -8.345960874854061
      ],
      [
        "▁believe",
        -8.349287724299243
      ],
      [
        "▁President",
        -8.349325179887533
      ],
      [
        "▁local",
        -8.353760398900953
      ],
      [
        "▁play",
        -8.354098152858539
      ],
      [
        "▁among",
        -8.354942612810618
      ],
      [
        "▁something",
        -8.35519869909715
      ],
      [
        "▁European",
        -8.355830913906916
      ],
      [
        "▁situation",
        -8.357574515232585
      ],
      [
        "▁course",
        -8.357970897341367
      ],
      [
        "▁group",
        -8.36656434914082
      ],
      [
        "▁non",
        -8.3673798747771
      ],
      [
        "▁Do",
        -8.367898885788106
      ],
      [
        "▁experience",
        -8.371003314379482
      ],
      [
        "▁free",
        -8.37384680649698
      ],
      [
        "▁result",
        -8.374281664322732
      ],
      [
        "▁value",
        -8.37639714645071
      ],
      [
        "▁health",
        -8.378638868476111
      ],
      [
        "▁General",
        -8.383383408931415
      ],
      [
        "#",
        -8.384093791535925
      ],
      [
        "▁best",
        -8.385256821984013
      ],
      [
        "▁special",
        -8.385742297708253
      ],
      [
        "▁Well",
        -8.396138760167485
      ],
      [
        "▁change",
        -8.39701214308165
      ],
      [
        "▁since",
        -8.401230062306084
      ],
      [
        "▁working",
        -8.402522574610174
      ],
      [
        "▁complete",
        -8.403300037748357
      ],
      [
        "▁Yes",
        -8.403741621237508
      ],
      [
        "▁resolution",
        -8.405417084335161
      ],
      [
        "▁account",
        -8.40643204295153
      ],
      [
        "C",
        -8.406902333718207
      ],
      [
        "▁request",
        -8.406906176553028
      ],
      [
        "+",
        -8.407259163074599
      ],
      [
        "▁always",
        -8.413828010087892
      ],
      [
        "around",
        -8.416270304233466
      ],
      [
        "▁give",
        -8.421957784956021
      ],
      [
        "▁period",
        -8.428024464096772
      ],
      [
        "away",
        -8.428298569413188
      ],
      [
        "▁necessar",
        -8.428806305948598
      ],
      [
        "▁implementation",
        -8.429634997348344
      ],
      [
        "▁person",
        -8.430839002212966
      ],
      [
        "▁form",
        -8.432741981801403
      ],
      [
        "w",
        -8.438843383075998
      ],
      [
        "▁user",
        -8.440608330224729
      ],
      [
        "the",
        -8.446396951183798
      ],
      [
        "▁management",
        -8.447983573214328
      ],
      [
        "▁general",
        -8.449046961588248
      ],
      [
        "▁issue",
        -8.449457524253841
      ],
      [
        "▁full",
        -8.453292631522167
      ],
      [
        "▁event",
        -8.454395139028382
      ],
      [
        "▁ensure",
        -8.457419741040464
      ],
      [
        "▁Convention",
        -8.461015147057735
      ],
      [
        "▁second",
        -8.463050898157434
      ],
      [
        "▁present",
        -8.467759869650997
      ],
      [
        "▁talk",
        -8.467837347448889
      ],
      [
        "▁small",
        -8.47190873771609
      ],
      [
        "▁main",
        -8.472427290820988
      ],
      [
        "▁means",
        -8.473586779005293
      ],
      [
        "▁production",
        -8.474127036953046
      ],
      [
        "▁city",
        -8.474939103102106
      ],
      [
        "▁members",
        -8.47527913072696
      ],
      [
        "▁home",
        -8.476889631604823
      ],
      [
        "▁little",
        -8.487279509981464
      ],
      [
        "▁off",
        -8.487968955552322
      ],
      [
        "▁view",
        -8.489271099311095
      ],
      [
        "est",
        -8.48995402025798
      ],
      [
        "▁again",
        -8.49410554733081
      ],
      [
        "▁really",
        -8.494237908506216
      ],
      [
        "▁further",
        -8.494242987563426
      ],
      [
        "v",
        -8.494736918299827
      ],
      [
        "▁better",
        -8.496738406460416
      ],
      [
        "ation",
        -8.506796581607087
      ],
      [
        "▁measures",
        -8.507106691748023
      ],
      [
        "▁based",
        -8.507174986093279
      ],
      [
        "▁policy",
        -8.508348123515216
      ],
      [
        "▁cooperation",
        -8.511276502456921
      ],
      [
        "▁address",
        -8.511807675984418
      ],
      [
        "▁issues",
        -8.513383932287978
      ],
      [
        "▁May",
        -8.514137452985908
      ],
      [
        "▁resources",
        -8.516549784025148
      ],
      [
        "▁continue",
        -8.516649695676817
      ],
      [
        "▁legal",
        -8.522958515702546
      ],
      [
        "▁large",
        -8.523937033338214
      ],
      [
        "▁turn",
        -8.524447673907746
      ],
      [
        "▁organizations",
        -8.524542711172355
      ],
      [
        "▁held",
        -8.525983570391817
      ],
      [
        "▁future",
        -8.52734552472739
      ],
      [
        "▁put",
        -8.527397106020217
      ],
      [
        "▁direct",
        -8.528264351019041
      ],
      [
        "▁might",
        -8.529320115994388
      ],
      [
        "▁why",
        -8.529804496608383
      ],
      [
        "▁school",
        -8.532321295589108
      ],
      [
        "▁fact",
        -8.542838316976928
      ],
      [
        "▁list",
        -8.548620522734602
      ],
      [
        "▁contain",
        -8.550012726761928
      ],
      [
        "▁tell",
        -8.550566517537987
      ],
      [
        "▁real",
        -8.550957095326279
      ],
      [
        "▁P",
        -8.55302481020318
      ],
      [
        "to",
        -8.554369942674928
      ],
      [
        "▁D",
        -8.554862360844872
      ],
      [
        "▁site",
        -8.555951569908304
      ],
      [
        "▁в",
        -8.55922432937769
      ],
      [
        "▁next",
        -8.561065913240101
      ],
      [
        "▁New",
        -8.562781432035333
      ],
      [
        "▁family",
        -8.563197738876742
      ],
      [
        "▁energy",
        -8.565447374183305
      ],
      [
        "▁area",
        -8.568551713022165
      ],
      [
        "▁follow",
        -8.57263469988497
      ],
      [
        "▁individual",
        -8.572942487992162
      ],
      [
        "▁certain",
        -8.578311761421622
      ],
      [
        "▁Government",
        -8.58031419640352
      ],
      [
        "▁network",
        -8.582880863124688
      ],
      [
        "▁session",
        -8.58467519982929
      ],
      [
        "▁current",
        -8.584889993441688
      ],
      [
        "а",
        -8.586317955224766
      ],
      [
        "out",
        -8.588249748254857
      ],
      [
        "▁concern",
        -8.589862599506032
      ],
      [
        "▁live",
        -8.589904210640608
      ],
      [
        "▁few",
        -8.59055043792363
      ],
      [
        "▁didn",
        -8.59098207405254
      ],
      [
        "▁specific",
        -8.591509035042355
      ],
      [
        "▁got",
        -8.591876628861446
      ],
      [
        "▁point",
        -8.592832067840181
      ],
      [
        "x",
        -8.596859429708278
      ],
      [
        "▁role",
        -8.597627008946658
      ],
      [
        "▁areas",
        -8.603453668877577
      ],
      [
        "▁various",
        -8.60352271168889
      ],
      [
        "▁companies",
        -8.604206901087178
      ],
      [
        "▁things",
        -8.604537017362563
      ],
      [
        "▁position",
        -8.604556046518073
      ],
      [
        "▁old",
        -8.606657303078574
      ],
      [
        "▁products",
        -8.610488852152946
      ],
      [
        "▁T",
        -8.612575906789587
      ],
      [
        "▁conditions",
        -8.613368629271774
      ],
      [
        "▁let",
        -8.614560331647784
      ],
      [
        "▁return",
        -8.614639968181567
      ],
      [
        "▁today",
        -8.615834092603802
      ],
      [
        "D",
        -8.616457309194104
      ],
      [
        "▁several",
        -8.616953963951252
      ],
      [
        "upon",
        -8.618371633427268
      ],
      [
        "▁These",
        -8.619414905496924
      ],
      [
        "▁near",
        -8.619663272646944
      ],
      [
        "▁regional",
        -8.620555265110415
      ],
      [
        "▁file",
        -8.620827438396459
      ],
      [
        "▁increase",
        -8.621653645782171
      ],
      [
        "▁Europe",
        -8.624126069113705
      ],
      [
        "▁One",
        -8.626349511836157
      ],
      [
        "▁U",
        -8.629843936094169
      ],
      [
        "▁called",
        -8.630069528779508
      ],
      [
        "▁money",
        -8.635930925003652
      ],
      [
        "▁Group",
        -8.637611882312704
      ],
      [
        "▁building",
        -8.639649626373776
      ],
      [
        "▁education",
        -8.64004134271418
      ],
      [
        "▁together",
        -8.641094768801956
      ],
      [
        "▁call",
        -8.64644355194356
      ],
      [
        "▁canno",
        -8.648166358117532
      ],
      [
        "▁days",
        -8.65111765227928
      ],
      [
        "▁risk",
        -8.653384231529486
      ],
      [
        "▁effective",
        -8.653978165631923
      ],
      [
        "▁article",
        -8.656829967348486
      ],
      [
        "▁World",
        -8.65922078692979
      ],
      [
        "▁un",
        -8.659838835019318
      ],
      [
        "й",
        -8.659985368815379
      ],
      [
        "▁My",
        -8.66036340763649
      ],
      [
        "▁sector",
        -8.66225946556495
      ],
      [
        "▁global",
        -8.662338900967775
      ],
      [
        "▁results",
        -8.663896615500155
      ],
      [
        "▁took",
        -8.668193654065401
      ],
      [
        "▁thought",
        -8.67313841145277
      ],
      [
        "▁Moscow",
        -8.676210842712274
      ],
      [
        "▁G",
        -8.677415190581584
      ],
      [
        "▁left",
        -8.678034911623875
      ],
      [
        "▁reason",
        -8.678069766578838
      ],
      [
        "▁foreign",
        -8.678939091460695
      ],
      [
        "▁total",
        -8.680865374080296
      ],
      [
        "▁until",
        -8.687344969308104
      ],
      [
        "▁visit",
        -8.689362803483853
      ],
      [
        "▁training",
        -8.693309880285423
      ],
      [
        "it",
        -8.693984604703484
      ],
      [
        "▁agreement",
        -8.696819742559752
      ],
      [
        "▁Commission",
        -8.699944766632237
      ],
      [
        "▁National",
        -8.70041419456517
      ],
      [
        "▁Decemb",
        -8.700714925887702
      ],
      [
        "▁remain",
        -8.7011774048603
      ],
      [
        "▁representative",
        -8.701177734006244
      ],
      [
        "and",
        -8.70366476872176
      ],
      [
        "▁given",
        -8.707588807030216
      ],
      [
        "▁body",
        -8.70850916106846
      ],
      [
        "▁protection",
        -8.709727954278883
      ],
      [
        "▁idea",
        -8.712313119031082
      ],
      [
        "_",
        -8.712801906782943
      ],
      [
        "▁recent",
        -8.719168038119914
      ],
      [
        "▁trade",
        -8.71926886631323
      ],
      [
        "=",
        -8.722694019524091
      ],
      [
        "▁create",
        -8.723845889675168
      ],
      [
        "▁Assembly",
        -8.730800805793953
      ],
      [
        "▁field",
        -8.732219366501283
      ],
      [
        "▁often",
        -8.732352703695893
      ],
      [
        "▁least",
        -8.732931343523376
      ],
      [
        "▁application",
        -8.733499449136376
      ],
      [
        "▁head",
        -8.734749818526337
      ],
      [
        "▁quality",
        -8.735154137954172
      ],
      [
        "▁understand",
        -8.736926033428466
      ],
      [
        "▁kind",
        -8.73706009117446
      ],
      [
        "▁efforts",
        -8.742070695705571
      ],
      [
        "▁With",
        -8.742942457663771
      ],
      [
        "х",
        -8.743750136908481
      ],
      [
        "▁keep",
        -8.74576268586225
      ],
      [
        "▁week",
        -8.754223228927001
      ],
      [
        "▁Development",
        -8.755202176801708
      ],
      [
        "▁private",
        -8.75547991420493
      ],
      [
        "▁After",
        -8.756720635135485
      ],
      [
        "▁community",
        -8.757023799814233
      ],
      [
        ">",
        -8.757480135565382
      ],
      [
        "▁hard",
        -8.762516459015643
      ],
      [
        "▁Ukraine",
        -8.763870369296079
      ],
      [
        "▁less",
        -8.765263865785613
      ],
      [
        "▁key",
        -8.76535349043723
      ],
      [
        "▁office",
        -8.76678832843272
      ],
      [
        "taken",
        -8.76739292590454
      ],
      [
        "▁came",
        -8.76850769089071
      ],
      [
        "▁systems",
        -8.770715032664704
      ],
      [
        "▁Now",
        -8.773684835873418
      ],
      [
        "▁His",
        -8.775047486973943
      ],
      [
        "▁seem",
        -8.775999684963805
      ],
      [
        "▁hand",
        -8.777431678535606
      ],
      [
        "▁action",
        -8.779636834989304
      ],
      [
        "ability",
        -8.780059689174482
      ],
      [
        "▁Windows",
        -8.78037749253376
      ],
      [
        "▁due",
        -8.78052045197309
      ],
      [
        "▁move",
        -8.780771191349801
      ],
      [
        "▁select",
        -8.780947532908364
      ],
      [
        "▁effect",
        -8.784394635389573
      ],
      [
        "▁toward",
        -8.786618149566447
      ],
      [
        "▁far",
        -8.787555828256199
      ],
      [
        "▁Security",
        -8.788328424739307
      ],
      [
        "▁question",
        -8.79330779084696
      ],
      [
        "▁amount",
        -8.794614490137086
      ],
      [
        "▁review",
        -8.795384052923453
      ],
      [
        "com",
        -8.795665022518042
      ],
      [
        "▁car",
        -8.796387441964614
      ],
      [
        "▁light",
        -8.797518317550901
      ],
      [
        "▁happen",
        -8.79845218236712
      ],
      [
        "▁conduct",
        -8.799196285932009
      ],
      [
        "▁mean",
        -8.799729354738036
      ],
      [
        "▁developing",
        -8.800342852534916
      ],
      [
        "▁provid",
        -8.801596550642738
      ],
      [
        "▁young",
        -8.802550795245384
      ],
      [
        "ally",
        -8.80356896593775
      ],
      [
        "▁major",
        -8.803812237631192
      ],
      [
        "▁oil",
        -8.805099931834443
      ],
      [
        "▁econom",
        -8.807380348962289
      ],
      [
        "▁party",
        -8.80739843890604
      ],
      [
        "▁care",
        -8.809279598513337
      ],
      [
        "▁team",
        -8.810824860754076
      ],
      [
        "though",
        -8.811213946947204
      ],
      [
        "▁procedure",
        -8.812967501812025
      ],
      [
        "▁natural",
        -8.814216208309466
      ],
      [
        "я",
        -8.815453819231454
      ],
      [
        "▁Let",
        -8.816112916336948
      ],
      [
        "▁air",
        -8.816310292604506
      ],
      [
        "▁page",
        -8.818793886643006
      ],
      [
        "▁Bank",
        -8.819739294376545
      ],
      [
        "▁above",
        -8.819827422003744
      ],
      [
        "▁facilit",
        -8.820044008364185
      ],
      [
        "▁feel",
        -8.821312445047711
      ],
      [
        "▁principle",
        -8.82401182164289
      ],
      [
        "▁sure",
        -8.824635835010161
      ],
      [
        "▁show",
        -8.825424911043465
      ],
      [
        "ic",
        -8.828419936696246
      ],
      [
        "▁act",
        -8.828841146305408
      ],
      [
        "▁US",
        -8.828987810715901
      ],
      [
        "▁technical",
        -8.830116341368738
      ],
      [
        "▁whole",
        -8.830399748425108
      ],
      [
        "▁subject",
        -8.830619055558728
      ],
      [
        "ism",
        -8.830897112839693
      ],
      [
        "▁according",
        -8.831139759419482
      ],
      [
        "▁locate",
        -8.833049053401036
      ],
      [
        "▁research",
        -8.83458909331317
      ],
      [
        "▁Al",
        -8.836121901471223
      ],
      [
        "▁thing",
        -8.836374342337047
      ],
      [
        "▁war",
        -8.836989766853533
      ],
      [
        "▁Some",
        -8.83966480080054
      ],
      [
        "told",
        -8.840154276169534
      ],
      [
        "▁society",
        -8.84128755954353
      ],
      [
        "▁American",
        -8.841723583627351
      ],
      [
        "▁men",
        -8.842064391353018
      ],
      [
        "▁whether",
        -8.843137067780052
      ],
      [
        "▁basi",
        -8.843237249616106
      ],
      [
        "▁population",
        -8.845163570365996
      ],
      [
        "▁paragraph",
        -8.845314023194272
      ],
      [
        "▁difficult",
        -8.845508747007703
      ],
      [
        "▁authorities",
        -8.845786694030837
      ],
      [
        "▁done",
        -8.847204293287875
      ],
      [
        "▁Secretary",
        -8.847404746913607
      ],
      [
        "▁computer",
        -8.8490344739297
      ],
      [
        "▁yet",
        -8.850729171752858
      ],
      [
        "▁required",
        -8.852168830451173
      ],
      [
        "▁June",
        -8.852705183935756
      ],
      [
        "▁growth",
        -8.8529932518518
      ],
      [
        "▁common",
        -8.85433088933041
      ],
      [
        "▁bring",
        -8.854976947347854
      ],
      [
        "▁equipment",
        -8.855069103785889
      ],
      [
        "▁Article",
        -8.855308411333246
      ],
      [
        "up",
        -8.857219816714279
      ],
      [
        "▁night",
        -8.857512927195923
      ],
      [
        "▁military",
        -8.860002226971616
      ],
      [
        "▁interest",
        -8.860055856807575
      ],
      [
        "▁child",
        -8.863693109495271
      ],
      [
        "▁Septemb",
        -8.863882594009239
      ],
      [
        "▁plan",
        -8.864154093066764
      ],
      [
        "▁center",
        -8.865659099422196
      ],
      [
        "▁clear",
        -8.866024804830754
      ],
      [
        "▁personal",
        -8.870508783054218
      ],
      [
        "▁assistance",
        -8.871459056006485
      ],
      [
        "▁staff",
        -8.871978309644462
      ],
      [
        "gan",
        -8.872768370307272
      ],
      [
        "▁China",
        -8.873655169249204
      ],
      [
        "▁cause",
        -8.874660591860058
      ],
      [
        "B",
        -8.87769625416882
      ],
      [
        "▁An",
        -8.878011464536137
      ],
      [
        "▁groups",
        -8.878672633275446
      ],
      [
        "man",
        -8.879040825299429
      ],
      [
        "▁later",
        -8.879328896235625
      ],
      [
        "▁stay",
        -8.879473580952798
      ],
      [
        "▁pay",
        -8.880584602929726
      ],
      [
        "▁O",
        -8.883307057120286
      ],
      [
        "▁leave",
        -8.885018504685505
      ],
      [
        "General",
        -8.88577713455191
      ],
      [
        "established",
        -8.88684753329399
      ],
      [
        "▁house",
        -8.889181511218029
      ],
      [
        "▁food",
        -8.889455315156324
      ],
      [
        "▁protect",
        -8.891329337720487
      ],
      [
        "▁Conference",
        -8.892568389890508
      ],
      [
        "▁type",
        -8.892984510849569
      ],
      [
        "P",
        -8.895439478480462
      ],
      [
        "▁Why",
        -8.8955269965292
      ],
      [
        "▁four",
        -8.895607153094335
      ],
      [
        "M",
        -8.896499587871618
      ],
      [
        "▁design",
        -8.896875252402818
      ],
      [
        "less",
        -8.897516632691062
      ],
      [
        "relevant",
        -8.897659464509085
      ],
      [
        "▁respect",
        -8.899459759502511
      ],
      [
        "▁nothing",
        -8.900721984506433
      ],
      [
        "▁N",
        -8.903989596466378
      ],
      [
        "▁doing",
        -8.904084957478183
      ],
      [
        "&",
        -8.906507869176261
      ],
      [
        "▁solution",
        -8.907705951236828
      ],
      [
        "▁meet",
        -8.907784263346016
      ],
      [
        "▁times",
        -8.908104121539656
      ],
      [
        "▁ask",
        -8.908997036298828
      ],
      [
        "▁once",
        -8.909141958857727
      ],
      [
        "▁parties",
        -8.909279909983125
      ],
      [
        "▁months",
        -8.90964142394237
      ],
      [
        "▁function",
        -8.91230007930236
      ],
      [
        "▁environment",
        -8.912967796453323
      ],
      [
        "▁Union",
        -8.913222117417574
      ],
      [
        "R",
        -8.913504195269937
      ],
      [
        "▁UN",
        -8.91447334073624
      ],
      [
        "▁gas",
        -8.91577667385146
      ],
      [
        "▁document",
        -8.915786742215493
      ],
      [
        "▁date",
        -8.91670754502583
      ],
      [
        "▁past",
        -8.91729149942715
      ],
      [
        "▁capacity",
        -8.91799409095061
      ],
      [
        "▁lot",
        -8.918858325883257
      ],
      [
        "▁allow",
        -8.920029213555983
      ],
      [
        "▁addition",
        -8.921071023831482
      ],
      [
        "▁face",
        -8.922019697367986
      ],
      [
        "▁R",
        -8.92333503191245
      ],
      [
        "▁age",
        -8.923602968968645
      ],
      [
        "▁Office",
        -8.924055846628498
      ],
      [
        "▁organization",
        -8.925391783719803
      ],
      [
        "▁member",
        -8.926198065864622
      ],
      [
        "▁close",
        -8.928759781320862
      ],
      [
        "▁five",
        -8.929017441946636
      ],
      [
        "▁related",
        -8.929811366310055
      ],
      [
        "▁additional",
        -8.931364072822642
      ],
      [
        "▁device",
        -8.931666606372206
      ],
      [
        "▁final",
        -8.931720243394773
      ],
      [
        "▁draft",
        -8.932060514620254
      ],
      [
        "▁line",
        -8.932878779781726
      ],
      [
        "▁technology",
        -8.933012825347667
      ],
      [
        "▁Octob",
        -8.933819292617843
      ],
      [
        "▁accordan",
        -8.93417492291738
      ],
      [
        "▁cost",
        -8.935729109715703
      ],
      [
        "▁living",
        -8.93776214143023
      ],
      [
        "▁property",
        -8.937848167531639
      ],
      [
        "E",
        -8.937991704158145
      ],
      [
        "▁consider",
        -8.942605697807602
      ],
      [
        "▁terms",
        -8.943315287919072
      ],
      [
        "▁Kazakhstan",
        -8.94407431936706
      ],
      [
        "▁According",
        -8.94484159832239
      ],
      [
        "▁Are",
        -8.946923973702978
      ],
      [
        "▁run",
        -8.947462666451589
      ],
      [
        "▁land",
        -8.947835429466462
      ],
      [
        "▁test",
        -8.949313901619181
      ],
      [
        "▁price",
        -8.94948220248716
      ],
      [
        "▁side",
        -8.95047281520442
      ],
      [
        "▁official",
        -8.952504400167863
      ],
      [
        "▁taking",
        -8.95256822939584
      ],
      [
        "▁strong",
        -8.955524932857578
      ],
      [
        "▁note",
        -8.956449129080806
      ],
      [
        "▁single",
        -8.95673541581069
      ],
      [
        "ous",
        -8.956736824016048
      ],
      [
        "▁institutions",
        -8.956815946181319
      ],
      [
        "▁significant",
        -8.95795957838714
      ],
      [
        "▁especially",
        -8.958845031094608
      ],
      [
        "▁low",
        -8.960597740207884
      ],
      [
        "▁V",
        -8.964436714036818
      ],
      [
        "▁March",
        -8.964634911962147
      ],
      [
        "▁cover",
        -8.96465630817691
      ],
      [
        "▁contact",
        -8.965016492039325
      ],
      [
        "▁won",
        -8.966143263038399
      ],
      [
        "▁having",
        -8.96714642946847
      ],
      [
        "▁Internet",
        -8.967605049595301
      ],
      [
        "▁received",
        -8.967851744139582
      ],
      [
        "▁making",
        -8.96841965171992
      ],
      [
        "▁matter",
        -8.970050608733201
      ],
      [
        "▁industry",
        -8.973261277904413
      ],
      [
        "▁mind",
        -8.973541869161897
      ],
      [
        "▁short",
        -8.975850701726415
      ],
      [
        "▁peace",
        -8.975864330201134
      ],
      [
        "▁enough",
        -8.976828329253149
      ],
      [
        "▁November",
        -8.978923352097292
      ],
      [
        "▁approach",
        -8.980196237352269
      ],
      [
        "▁Don",
        -8.980815434531618
      ],
      [
        "▁considered",
        -8.98090495980545
      ],
      [
        "▁changes",
        -8.981379903175997
      ],
      [
        "▁Our",
        -8.98304930834808
      ],
      [
        "▁hope",
        -8.985739412697058
      ],
      [
        "▁July",
        -8.986631089014812
      ],
      [
        "▁created",
        -8.988883038656237
      ],
      [
        "▁third",
        -8.989806046515083
      ],
      [
        "▁please",
        -8.990175867015727
      ],
      [
        "▁persons",
        -8.99043493578229
      ],
      [
        "▁expert",
        -8.991423255583793
      ],
      [
        "▁serious",
        -8.993364103267597
      ],
      [
        "▁girl",
        -8.993563340085183
      ],
      [
        "▁appropriate",
        -8.99605310777134
      ],
      [
        "▁establish",
        -8.996357818032633
      ],
      [
        "by",
        -8.999651746858808
      ],
      [
        "▁focus",
        -9.001008057169507
      ],
      [
        "▁improve",
        -9.001125231766714
      ],
      [
        "▁Ministry",
        -9.001474358425195
      ],
      [
        "ar",
        -9.002039205049558
      ],
      [
        "▁performance",
        -9.003370556613717
      ],
      [
        "▁professional",
        -9.003876809701584
      ],
      [
        "▁Rights",
        -9.006410251734861
      ],
      [
        "▁media",
        -9.008526478057096
      ],
      [
        "▁lead",
        -9.008949461056234
      ],
      [
        "▁server",
        -9.009232220356381
      ],
      [
        "▁student",
        -9.011855949111501
      ],
      [
        "▁software",
        -9.013866640725974
      ],
      [
        "almost",
        -9.01417404271037
      ],
      [
        "▁space",
        -9.014393003857334
      ],
      [
        "um",
        -9.014448543056218
      ],
      [
        "early",
        -9.01484127488786
      ],
      [
        "▁others",
        -9.015222499136952
      ],
      [
        "▁task",
        -9.01536373852619
      ],
      [
        "▁strengthen",
        -9.015484914555666
      ],
      [
        "▁currently",
        -9.015594544316453
      ],
      [
        "▁previous",
        -9.015709649892688
      ],
      [
        "▁Your",
        -9.015956812450273
      ],
      [
        "▁By",
        -9.016993483712898
      ],
      [
        "▁game",
        -9.017092284270326
      ],
      [
        "у",
        -9.01750216917723
      ],
      [
        "▁study",
        -9.017938094715207
      ],
      [
        "▁force",
        -9.019473408460161
      ],
      [
        "▁attention",
        -9.020918239275453
      ],
      [
        "▁active",
        -9.021281274712639
      ],
      [
        "▁programme",
        -9.021602912299327
      ],
      [
        "▁share",
        -9.023296055565817
      ],
      [
        "January",
        -9.023688555713077
      ],
      [
        "▁guy",
        -9.023749828552662
      ],
      [
        "▁construction",
        -9.024558296072687
      ],
      [
        "▁nuclear",
        -9.024901587733352
      ],
      [
        "▁language",
        -9.026214082437773
      ],
      [
        "T",
        -9.027485154386918
      ],
      [
        "▁requirements",
        -9.028360022333237
      ],
      [
        "▁ago",
        -9.033779299155304
      ],
      [
        "▁knowledge",
        -9.03389569597806
      ],
      [
        "▁Minister",
        -9.036491033268184
      ],
      [
        "one",
        -9.037374464884197
      ],
      [
        "▁rate",
        -9.038471718589024
      ],
      [
        "▁became",
        -9.038635215409647
      ],
      [
        "▁Lord",
        -9.039410788440987
      ],
      [
        "▁claim",
        -9.040383876521725
      ],
      [
        "▁walk",
        -9.04064036467009
      ],
      [
        "▁known",
        -9.042360438339552
      ],
      [
        "The",
        -9.04257378868825
      ],
      [
        "▁range",
        -9.042955680566568
      ],
      [
        "▁Then",
        -9.043201315736612
      ],
      [
        "ы",
        -9.044519988305929
      ],
      [
        "▁budget",
        -9.045341109467175
      ],
      [
        "▁April",
        -9.045591072914114
      ],
      [
        "▁police",
        -9.046967049399367
      ],
      [
        "▁percent",
        -9.047203908224649
      ],
      [
        "▁implement",
        -9.049231831275277
      ],
      [
        "▁investment",
        -9.049649454349133
      ],
      [
        "▁themselves",
        -9.051657626945245
      ],
      [
        "ment",
        -9.052219669942051
      ],
      [
        "▁Human",
        -9.052370449216314
      ],
      [
        "▁thousand",
        -9.054001880478323
      ],
      [
        "▁prevent",
        -9.054970399808203
      ],
      [
        "▁went",
        -9.05816874381577
      ],
      [
        "▁death",
        -9.059220050591852
      ],
      [
        "▁enter",
        -9.061018124029536
      ],
      [
        "▁along",
        -9.061924895463283
      ],
      [
        "▁history",
        -9.062822639753612
      ],
      [
        "▁rather",
        -9.063016919651263
      ],
      [
        "▁check",
        -9.063397855375388
      ],
      [
        "▁exchange",
        -9.064036610253773
      ],
      [
        "\n",
        -9.06697400921069
      ],
      [
        "▁St",
        -9.06983081989354
      ],
      [
        "▁perform",
        -9.071274987479013
      ],
      [
        "▁Federation",
        -9.071343377525528
      ],
      [
        "▁Allah",
        -9.072723566614838
      ],
      [
        "▁product",
        -9.073962253994072
      ],
      [
        "▁higher",
        -9.075048093039369
      ],
      [
        "▁pass",
        -9.075133933236948
      ],
      [
        "▁half",
        -9.076102108357569
      ],
      [
        "▁stage",
        -9.077999620838852
      ],
      [
        "▁equal",
        -9.078720245133821
      ],
      [
        "▁Every",
        -9.0792568432496
      ],
      [
        "▁capital",
        -9.079933789870571
      ],
      [
        "▁section",
        -9.081661019574717
      ],
      [
        "H",
        -9.082085970234571
      ],
      [
        "▁stop",
        -9.08315519381934
      ],
      [
        "▁version",
        -9.085284837786164
      ],
      [
        "▁true",
        -9.085317309369206
      ],
      [
        "▁treatment",
        -9.085739305445431
      ],
      [
        "▁answer",
        -9.085905679818584
      ],
      [
        "▁Central",
        -9.086774912578036
      ],
      [
        "L",
        -9.08708091189583
      ],
      [
        "▁agenc",
        -9.08752182875804
      ],
      [
        "▁speak",
        -9.089358317692245
      ],
      [
        "▁activity",
        -9.089590061669691
      ],
      [
        "▁TV",
        -9.090674110029036
      ],
      [
        "▁heart",
        -9.090899639986986
      ],
      [
        "▁add",
        -9.095090077633317
      ],
      [
        "▁read",
        -9.096153579524238
      ],
      [
        "▁documents",
        -9.096656463739093
      ],
      [
        "▁text",
        -9.099514575753572
      ],
      [
        "▁progress",
        -9.10049995892223
      ],
      [
        "▁treat",
        -9.10156388854137
      ],
      [
        "▁either",
        -9.104622685778228
      ],
      [
        "▁potential",
        -9.107139539697247
      ],
      [
        "▁receive",
        -9.10886299092643
      ],
      [
        "▁release",
        -9.109069966132413
      ],
      [
        "▁Service",
        -9.109458532326995
      ],
      [
        "▁communication",
        -9.109875815295045
      ],
      [
        "▁hours",
        -9.110668675526401
      ],
      [
        "▁increased",
        -9.111109203988084
      ],
      [
        "▁http",
        -9.112200032945507
      ],
      [
        "▁words",
        -9.112288889769822
      ],
      [
        "▁moment",
        -9.113113187848327
      ],
      [
        "▁Not",
        -9.113237380841143
      ],
      [
        "▁click",
        -9.115117338393091
      ],
      [
        "▁deal",
        -9.117716878643396
      ],
      [
        "▁billion",
        -9.11780004972169
      ],
      [
        "▁website",
        -9.119211134825493
      ],
      [
        "▁nature",
        -9.122272759100886
      ],
      [
        "▁South",
        -9.127099243674934
      ],
      [
        "▁Just",
        -9.127150530981131
      ],
      [
        "▁discuss",
        -9.128916868574693
      ],
      [
        "▁reports",
        -9.129633168687514
      ],
      [
        "▁appear",
        -9.129794427111895
      ],
      [
        "where",
        -9.13028016774802
      ],
      [
        "▁W",
        -9.130662063728098
      ],
      [
        "▁L",
        -9.131033799817677
      ],
      [
        "▁adopted",
        -9.131467137343067
      ],
      [
        "▁August",
        -9.132240800905905
      ],
      [
        "▁attack",
        -9.13660815768376
      ],
      [
        "▁try",
        -9.137266312757337
      ],
      [
        "▁F",
        -9.137320289098039
      ],
      [
        "▁modern",
        -9.137740491648541
      ],
      [
        "▁Who",
        -9.138827496595118
      ],
      [
        "▁Hey",
        -9.140494157584403
      ],
      [
        "▁materials",
        -9.140614579859154
      ],
      [
        "▁existing",
        -9.148069711981034
      ],
      [
        "ch",
        -9.148819119323656
      ],
      [
        "▁transport",
        -9.149387733429656
      ],
      [
        "▁levels",
        -9.150387242371963
      ],
      [
        "▁America",
        -9.150398910351983
      ],
      [
        "▁represent",
        -9.153032953526628
      ],
      [
        "▁soon",
        -9.153888454061002
      ],
      [
        "▁conference",
        -9.154770754259873
      ],
      [
        "V",
        -9.1550271950273
      ],
      [
        "▁size",
        -9.159522477898209
      ],
      [
        "▁publish",
        -9.15954554986167
      ],
      [
        "▁fight",
        -9.161356347158893
      ],
      [
        "z",
        -9.162043737127386
      ],
      [
        "N",
        -9.16572887803736
      ],
      [
        "▁father",
        -9.168805407038178
      ],
      [
        "▁status",
        -9.17022205254829
      ],
      [
        "▁successful",
        -9.171121136041537
      ],
      [
        "▁wish",
        -9.173270456136201
      ],
      [
        "▁material",
        -9.173871416857514
      ],
      [
        "▁someone",
        -9.176148690861847
      ],
      [
        "▁Board",
        -9.178414939001222
      ],
      [
        "▁More",
        -9.179465323748511
      ],
      [
        "▁phone",
        -9.180021714695894
      ],
      [
        "aid",
        -9.18033777159706
      ],
      [
        "▁similar",
        -9.180450146143018
      ],
      [
        "▁standards",
        -9.18261501415424
      ],
      [
        "▁enterprise",
        -9.185043927469572
      ],
      [
        "▁produce",
        -9.18554257432737
      ],
      [
        "▁else",
        -9.188029323633637
      ],
      [
        "▁hold",
        -9.188908187047069
      ],
      [
        "▁express",
        -9.192909732360867
      ],
      [
        "▁press",
        -9.193171983099393
      ],
      [
        "▁Where",
        -9.193308197376309
      ],
      [
        "▁Special",
        -9.194580602072476
      ],
      [
        "▁rules",
        -9.194844344088729
      ],
      [
        "▁fully",
        -9.194987015245951
      ],
      [
        "▁minutes",
        -9.195161747476327
      ],
      [
        "▁conflict",
        -9.195616778838684
      ],
      [
        "▁Court",
        -9.195783951506293
      ],
      [
        "▁AM",
        -9.19856595050697
      ],
      [
        "▁operations",
        -9.200835673278444
      ],
      [
        "▁hotel",
        -9.200844327709008
      ],
      [
        "▁practice",
        -9.201850609384115
      ],
      [
        "▁former",
        -9.2024624458795
      ],
      [
        "▁framework",
        -9.203394964254745
      ],
      [
        "▁carrie",
        -9.205911804001989
      ],
      [
        "▁K",
        -9.206761338065881
      ],
      [
        "bodies",
        -9.207007272403565
      ],
      [
        "quite",
        -9.209945064981765
      ],
      [
        "▁Universit",
        -9.211108024608997
      ],
      [
        "term",
        -9.213682815166553
      ],
      [
        "▁remember",
        -9.21403829703731
      ],
      [
        "▁Department",
        -9.214271668863507
      ],
      [
        "During",
        -9.215858587605567
      ],
      [
        "▁serve",
        -9.217035425001507
      ],
      [
        "▁entire",
        -9.217238226960475
      ],
      [
        "▁states",
        -9.21775875776068
      ],
      [
        "▁features",
        -9.218429852755458
      ],
      [
        "▁model",
        -9.218475196734458
      ],
      [
        "▁book",
        -9.220120324558566
      ],
      [
        "▁mechanism",
        -9.22218812718531
      ],
      [
        "uary",
        -9.222929455617875
      ],
      [
        "▁saw",
        -9.223197915567448
      ],
      [
        "▁policies",
        -9.223409915121403
      ],
      [
        "▁everyone",
        -9.226389942971732
      ],
      [
        "▁asked",
        -9.226519373534064
      ],
      [
        "▁immediate",
        -9.22663262458863
      ],
      [
        "▁player",
        -9.232183540051194
      ],
      [
        "▁Come",
        -9.232755033203437
      ],
      [
        "ary",
        -9.234521239615809
      ],
      [
        "▁sent",
        -9.234580534025113
      ],
      [
        "▁Okay",
        -9.235823376492943
      ],
      [
        "▁payment",
        -9.23643770305075
      ],
      [
        "▁across",
        -9.238350687995622
      ],
      [
        "▁PM",
        -9.238904462414258
      ],
      [
        "▁doesn",
        -9.239113095441352
      ],
      [
        "▁connection",
        -9.23926427161535
      ],
      [
        "▁longer",
        -9.239692617797058
      ],
      [
        "▁km",
        -9.241504356099133
      ],
      [
        "▁Soviet",
        -9.242205906676233
      ],
      [
        "▁enjoy",
        -9.2426589357511
      ],
      [
        "▁big",
        -9.242903655915082
      ],
      [
        "▁Israel",
        -9.243955732807873
      ],
      [
        "▁content",
        -9.244990951253826
      ],
      [
        "based",
        -9.245685642360636
      ],
      [
        "▁month",
        -9.245736694340437
      ],
      [
        "▁operation",
        -9.245782231506986
      ],
      [
        "ru",
        -9.245965488612104
      ],
      [
        "▁Organization",
        -9.246460737004027
      ],
      [
        "▁joint",
        -9.247149541534172
      ],
      [
        "▁reform",
        -9.24803773388739
      ],
      [
        "▁From",
        -9.248074819579783
      ],
      [
        "▁impact",
        -9.248148862045584
      ],
      [
        "age",
        -9.248236889166677
      ],
      [
        "▁wide",
        -9.248428876938728
      ],
      [
        "▁save",
        -9.250207679649392
      ],
      [
        "•",
        -9.250761448576183
      ],
      [
        "▁quick",
        -9.251590382479668
      ],
      [
        "▁demand",
        -9.252338499260103
      ],
      [
        "▁H",
        -9.254378439406846
      ],
      [
        "▁Re",
        -9.254850976783091
      ],
      [
        "▁sign",
        -9.255237549096055
      ],
      [
        "▁complex",
        -9.255600817799236
      ],
      [
        "G",
        -9.255897391407041
      ],
      [
        "▁Economic",
        -9.255911226300713
      ],
      [
        "▁top",
        -9.257058249641748
      ],
      [
        "▁Go",
        -9.258407132659782
      ],
      [
        "▁Febr",
        -9.262267138312708
      ],
      [
        "▁relations",
        -9.263758512191737
      ],
      [
        "▁source",
        -9.264247998345558
      ],
      [
        "▁Law",
        -9.265280592316039
      ],
      [
        "▁participation",
        -9.267170761858093
      ],
      [
        "▁discussion",
        -9.267286288031185
      ],
      [
        "▁mention",
        -9.268157712039514
      ],
      [
        "▁purpose",
        -9.268876639390845
      ],
      [
        "F",
        -9.269973431114417
      ],
      [
        "▁freedom",
        -9.2700756334955
      ],
      [
        "K",
        -9.272761040248922
      ],
      [
        "▁mother",
        -9.273682320659864
      ],
      [
        "▁environmental",
        -9.275094103799251
      ],
      [
        "▁music",
        -9.275980977583073
      ],
      [
        "seen",
        -9.276481228201634
      ],
      [
        "▁standard",
        -9.276686057330645
      ],
      [
        "▁на",
        -9.277307885699502
      ],
      [
        "о",
        -9.277714063994011
      ],
      [
        "▁brought",
        -9.277849887954108
      ],
      [
        "▁promote",
        -9.278152594941695
      ],
      [
        "▁Belarus",
        -9.279404857670466
      ],
      [
        "▁location",
        -9.27956599065731
      ],
      [
        "▁costs",
        -9.280073567098466
      ],
      [
        "▁Since",
        -9.281557527685019
      ],
      [
        "▁lack",
        -9.283015833173701
      ],
      [
        "▁physical",
        -9.283138793423316
      ],
      [
        "▁с",
        -9.286534720682932
      ],
      [
        "▁message",
        -9.28781762350362
      ],
      [
        "▁Africa",
        -9.288462734759797
      ],
      [
        "▁First",
        -9.28907839621377
      ],
      [
        "▁etc",
        -9.289297725674906
      ],
      [
        "▁coming",
        -9.289819851326124
      ],
      [
        "▁decided",
        -9.289876921085275
      ],
      [
        "▁opportunity",
        -9.291245164610313
      ],
      [
        "▁table",
        -9.291503971602685
      ],
      [
        "▁Germany",
        -9.292207735652351
      ],
      [
        "ся",
        -9.293556463700826
      ],
      [
        "▁rule",
        -9.29429777101557
      ],
      [
        "▁six",
        -9.295142963118998
      ],
      [
        "▁Director",
        -9.295929862586519
      ],
      [
        "▁therefor",
        -9.297555116957446
      ],
      [
        "▁obtain",
        -9.297903270370552
      ],
      [
        "▁medical",
        -9.298710547167447
      ],
      [
        "▁Please",
        -9.29925662179766
      ],
      [
        "▁structure",
        -9.300780455622334
      ],
      [
        "▁cultural",
        -9.30130049874834
      ],
      [
        "▁court",
        -9.301583845142908
      ],
      [
        "▁provisions",
        -9.302547093251901
      ],
      [
        "▁Member",
        -9.302606342134663
      ],
      [
        "men",
        -9.30304149046648
      ],
      [
        "▁job",
        -9.303625633209284
      ],
      [
        "▁actually",
        -9.305281708829805
      ],
      [
        "▁independent",
        -9.3053695997776
      ],
      [
        "▁simply",
        -9.306560836733983
      ],
      [
        "▁Company",
        -9.306701246838838
      ],
      [
        "▁Parties",
        -9.307377235657796
      ],
      [
        "▁questions",
        -9.308193634967935
      ],
      [
        "▁woman",
        -9.309107725683749
      ],
      [
        "▁search",
        -9.309727852096826
      ],
      [
        "▁initiative",
        -9.309833496918198
      ],
      [
        "▁basic",
        -9.310820096629133
      ],
      [
        "▁display",
        -9.31131306764291
      ],
      [
        "▁trying",
        -9.311506557400115
      ],
      [
        "▁outside",
        -9.31247424128445
      ],
      [
        "▁exist",
        -9.312613143894614
      ],
      [
        "▁leading",
        -9.313690980671476
      ],
      [
        "▁actions",
        -9.313805478375146
      ],
      [
        "▁enable",
        -9.314596566598592
      ],
      [
        "operating",
        -9.314888672964765
      ],
      [
        "▁expected",
        -9.315840501547019
      ],
      [
        "▁participants",
        -9.316345704380465
      ],
      [
        "▁regular",
        -9.3178608574479
      ],
      [
        "м",
        -9.31993654420147
      ],
      [
        "▁Because",
        -9.320697859961946
      ],
      [
        "▁workers",
        -9.321433567077168
      ],
      [
        "▁response",
        -9.322177291586163
      ],
      [
        "▁Other",
        -9.323495847759103
      ],
      [
        "▁safety",
        -9.323572642954689
      ],
      [
        "▁install",
        -9.323974648031486
      ],
      [
        "ization",
        -9.32400676893327
      ],
      [
        "stead",
        -9.324644039414428
      ],
      [
        "▁easy",
        -9.325880586400235
      ],
      [
        "▁files",
        -9.326075684790087
      ],
      [
        "W",
        -9.327085996485575
      ],
      [
        "▁crime",
        -9.327180894651198
      ],
      [
        "O",
        -9.32813054419098
      ],
      [
        "▁bad",
        -9.32854776735398
      ],
      [
        "▁depend",
        -9.329655575441407
      ],
      [
        "▁priorit",
        -9.329858409510631
      ],
      [
        "▁beginning",
        -9.331668722395964
      ],
      [
        "▁civil",
        -9.331815278955885
      ],
      [
        "▁Here",
        -9.331990476114543
      ],
      [
        "▁includes",
        -9.332601532792582
      ],
      [
        "▁lost",
        -9.332808219511573
      ],
      [
        "▁machine",
        -9.33281196910006
      ],
      [
        "▁Party",
        -9.333669584059143
      ],
      [
        "▁programmes",
        -9.333793878410951
      ],
      [
        "▁paper",
        -9.336615892437726
      ],
      [
        "▁export",
        -9.338975824356156
      ],
      [
        "▁cent",
        -9.339008065032544
      ],
      [
        "▁Whil",
        -9.339803124322254
      ],
      [
        "▁drive",
        -9.340038721465902
      ],
      [
        "▁domestic",
        -9.341759221067703
      ],
      [
        "▁apply",
        -9.342143184823207
      ],
      [
        "▁forces",
        -9.343270453621454
      ],
      [
        "▁Phone",
        -9.343501488795612
      ],
      [
        "▁usual",
        -9.344751050356773
      ],
      [
        "▁crisis",
        -9.345803559773502
      ],
      [
        "▁video",
        -9.346474975898657
      ],
      [
        "▁self",
        -9.346556400365813
      ],
      [
        "▁analysis",
        -9.347087139628947
      ],
      [
        "▁transfer",
        -9.347125086887079
      ],
      [
        "▁Microsoft",
        -9.347953088955123
      ],
      [
        "▁die",
        -9.348268475504266
      ],
      [
        "▁Did",
        -9.348552417479764
      ],
      [
        "▁EU",
        -9.353586464526579
      ],
      [
        "▁mission",
        -9.353918967915531
      ],
      [
        "▁join",
        -9.354338409680155
      ],
      [
        "▁funds",
        -9.35514595679782
      ],
      [
        "▁sense",
        -9.355408492358958
      ],
      [
        "▁word",
        -9.35553141617775
      ],
      [
        "▁makes",
        -9.358095180212656
      ],
      [
        "▁violence",
        -9.35833006030307
      ],
      [
        "▁works",
        -9.359245438993277
      ],
      [
        "▁supply",
        -9.359338780964402
      ],
      [
        "▁English",
        -9.359379862862843
      ],
      [
        "▁Server",
        -9.36107046077918
      ],
      [
        "▁parent",
        -9.361242824255276
      ],
      [
        "▁Post",
        -9.361586996932003
      ],
      [
        "▁safe",
        -9.362784778623942
      ],
      [
        "▁hear",
        -9.36424992016556
      ],
      [
        "▁Of",
        -9.36470194468783
      ],
      [
        "▁friends",
        -9.366287243414275
      ],
      [
        "▁maintain",
        -9.367324043440727
      ],
      [
        "▁simple",
        -9.368660428091172
      ],
      [
        "▁letter",
        -9.36992976175116
      ],
      [
        "over",
        -9.370514044631724
      ],
      [
        "▁opinion",
        -9.371209025731677
      ],
      [
        "▁victim",
        -9.373508550169793
      ],
      [
        "▁carry",
        -9.373771875044758
      ],
      [
        "▁target",
        -9.374059046509002
      ],
      [
        "▁deep",
        -9.375256865633832
      ],
      [
        "▁step",
        -9.375931989987398
      ],
      [
        "▁century",
        -9.376113016389377
      ],
      [
        "▁income",
        -9.376241408482752
      ],
      [
        "▁figure",
        -9.377241001876483
      ],
      [
        "▁East",
        -9.377398732239163
      ],
      [
        "▁post",
        -9.377631697913287
      ],
      [
        "for",
        -9.378027882031322
      ],
      [
        "▁traditional",
        -9.378771729227198
      ],
      [
        "▁ready",
        -9.380420675946281
      ],
      [
        "▁okay",
        -9.38053944089178
      ],
      [
        "▁store",
        -9.380776994701892
      ],
      [
        "▁Center",
        -9.382073975074295
      ],
      [
        "▁anti",
        -9.382097633927359
      ],
      [
        "▁plans",
        -9.382457198592824
      ],
      [
        "▁reported",
        -9.383032461482767
      ],
      [
        "▁responsibl",
        -9.384022431761728
      ],
      [
        "▁built",
        -9.38455340049441
      ],
      [
        "▁Fund",
        -9.38510749357015
      ],
      [
        "▁gave",
        -9.385234562522449
      ],
      [
        "▁exact",
        -9.38768633256845
      ],
      [
        "▁prices",
        -9.387776984706166
      ],
      [
        "▁rest",
        -9.387802413006229
      ],
      [
        "▁positive",
        -9.388445530473417
      ],
      [
        "▁contribution",
        -9.388794877150984
      ],
      [
        "▁tax",
        -9.391674236310166
      ],
      [
        "▁son",
        -9.394165818769046
      ],
      [
        "▁below",
        -9.395295014717483
      ],
      [
        "▁bank",
        -9.39643749177872
      ],
      [
        "▁Asia",
        -9.39752483574623
      ],
      [
        "▁fine",
        -9.398180199981178
      ],
      [
        "▁People",
        -9.40124267027453
      ],
      [
        "▁begin",
        -9.401377473060117
      ],
      [
        "▁categor",
        -9.401506092176643
      ],
      [
        "▁though",
        -9.405189946583885
      ],
      [
        "▁lower",
        -9.40525710025763
      ],
      [
        "▁Institute",
        -9.406856665411862
      ],
      [
        "<",
        -9.407330508620255
      ],
      [
        "▁register",
        -9.408422177605441
      ],
      [
        "▁choose",
        -9.41074273931835
      ],
      [
        "▁recommendations",
        -9.41108844208814
      ],
      [
        "▁points",
        -9.411328284405656
      ],
      [
        "▁technologie",
        -9.412152628331702
      ],
      [
        "▁attempt",
        -9.412875901745483
      ],
      [
        "▁reflect",
        -9.413707496613343
      ],
      [
        "▁consideration",
        -9.414651393005505
      ],
      [
        "▁unique",
        -9.4157959096283
      ],
      [
        "▁average",
        -9.415990447445516
      ],
      [
        "▁truth",
        -9.416483369903254
      ],
      [
        "▁wrong",
        -9.41714125742161
      ],
      [
        "▁legislation",
        -9.418451135688935
      ],
      [
        "▁agreed",
        -9.418727348697088
      ],
      [
        "eries",
        -9.418747579115287
      ],
      [
        "▁alone",
        -9.419782606588821
      ],
      [
        "▁sea",
        -9.420482091695892
      ],
      [
        "▁involv",
        -9.421243222008236
      ],
      [
        "▁buy",
        -9.421799590590469
      ],
      [
        "▁reach",
        -9.422316832017664
      ],
      [
        "▁methods",
        -9.422360512432311
      ],
      [
        "▁code",
        -9.422439253108262
      ],
      [
        "▁inform",
        -9.422670707983238
      ],
      [
        "▁scientific",
        -9.423980676547936
      ],
      [
        "▁interests",
        -9.424180575102609
      ],
      [
        "▁reduce",
        -9.425106611090044
      ],
      [
        "▁War",
        -9.42521522543795
      ],
      [
        "▁responsibility",
        -9.427504383815702
      ],
      [
        "▁database",
        -9.427757072019443
      ],
      [
        "▁applie",
        -9.42872366147095
      ],
      [
        "▁heard",
        -9.430646745185987
      ],
      [
        "▁kill",
        -9.43149051487159
      ],
      [
        "▁Programme",
        -9.431820500092877
      ],
      [
        "▁recognize",
        -9.432080608265988
      ],
      [
        "▁late",
        -9.435279695862077
      ],
      [
        "▁volume",
        -9.435301898205402
      ],
      [
        "▁success",
        -9.436369766751296
      ],
      [
        "▁sound",
        -9.43637340883429
      ],
      [
        "▁threat",
        -9.436975552589473
      ],
      [
        "yourself",
        -9.438295973998791
      ],
      [
        "more",
        -9.439108612526756
      ],
      [
        "▁culture",
        -9.439328146902529
      ],
      [
        "▁processe",
        -9.440569167318998
      ],
      [
        "▁Web",
        -9.442492105937173
      ],
      [
        "▁Can",
        -9.443613216011274
      ],
      [
        "▁partners",
        -9.44390321679234
      ],
      [
        "▁submitt",
        -9.44465880358534
      ],
      [
        "▁prepared",
        -9.444892364955532
      ],
      [
        "▁designed",
        -9.445406116734215
      ],
      [
        "▁achieve",
        -9.445503475486301
      ],
      [
        "▁types",
        -9.446051124851506
      ],
      [
        "▁fast",
        -9.447733430818126
      ],
      [
        "▁Services",
        -9.448512740385315
      ],
      [
        "▁concerning",
        -9.448748943479911
      ],
      [
        "▁importan",
        -9.448781121000566
      ],
      [
        "°C",
        -9.448840645680463
      ],
      [
        "year",
        -9.450004763910226
      ],
      [
        "▁build",
        -9.450033073811051
      ],
      [
        "▁command",
        -9.45034267763562
      ],
      [
        "▁beautiful",
        -9.452309028094614
      ],
      [
        "▁co",
        -9.453186071607202
      ],
      [
        "▁criminal",
        -9.456573877972902
      ],
      [
        "▁inter",
        -9.456818474214703
      ],
      [
        "▁participate",
        -9.456829588661927
      ],
      [
        "ory",
        -9.457988315799646
      ],
      [
        "strategy",
        -9.458124126019248
      ],
      [
        "▁morning",
        -9.458124224965763
      ],
      [
        "▁centre",
        -9.458365234516611
      ],
      [
        "▁restaurant",
        -9.460471164351027
      ],
      [
        "▁annual",
        -9.461854952947178
      ],
      [
        "▁send",
        -9.46231272864883
      ],
      [
        "▁sorry",
        -9.463704389417112
      ],
      [
        "▁explain",
        -9.464048079739092
      ],
      [
        "▁image",
        -9.464107104993612
      ],
      [
        "▁manage",
        -9.46555575066114
      ],
      [
        "▁poor",
        -9.466176661315957
      ],
      [
        "▁territory",
        -9.468037775685959
      ],
      [
        "▁involve",
        -9.468566832219645
      ],
      [
        "▁behind",
        -9.469930535819543
      ],
      [
        "▁break",
        -9.470334629885718
      ],
      [
        "▁agenda",
        -9.471856356414092
      ],
      [
        "▁HIV",
        -9.471998477573432
      ],
      [
        "▁difference",
        -9.472870835380956
      ],
      [
        "▁limit",
        -9.474091581873148
      ],
      [
        "▁separate",
        -9.474179083504904
      ],
      [
        "▁citizens",
        -9.475090212803781
      ],
      [
        "▁Room",
        -9.475389331904013
      ],
      [
        "▁relative",
        -9.476059892948273
      ],
      [
        "▁whom",
        -9.476982003624027
      ],
      [
        "ish",
        -9.477228436651966
      ],
      [
        "▁anyone",
        -9.478288558652316
      ],
      [
        "▁forward",
        -9.47858792817411
      ],
      [
        "▁patient",
        -9.479126404374345
      ],
      [
        "▁weapons",
        -9.479140853743234
      ],
      [
        "ов",
        -9.4799965819555
      ],
      [
        "▁describe",
        -9.481221173801606
      ],
      [
        "▁guest",
        -9.481880482608796
      ],
      [
        "▁blood",
        -9.481904796094428
      ],
      [
        "▁commitment",
        -9.482219490811378
      ],
      [
        "▁eyes",
        -9.482346719725012
      ],
      [
        "▁item",
        -9.484127849801736
      ],
      [
        "▁speed",
        -9.48550729190662
      ],
      [
        "▁front",
        -9.485788799522314
      ],
      [
        "▁context",
        -9.486079615348913
      ],
      [
        "▁likely",
        -9.486115850664872
      ],
      [
        "▁statement",
        -9.488490354913772
      ],
      [
        "▁Social",
        -9.48876199612859
      ],
      [
        "▁evidence",
        -9.49009066576498
      ],
      [
        "▁applications",
        -9.491328460968319
      ],
      [
        "▁competition",
        -9.492082530107593
      ],
      [
        "un",
        -9.49222584034771
      ],
      [
        "▁class",
        -9.492442573426855
      ],
      [
        "of",
        -9.493885350468675
      ],
      [
        "▁North",
        -9.49445470436395
      ],
      [
        "▁leaders",
        -9.495444697846366
      ],
      [
        "▁meetings",
        -9.496334440921977
      ],
      [
        "▁Information",
        -9.496338453006718
      ],
      [
        "▁central",
        -9.4972905513879
      ],
      [
        "time",
        -9.497543203844875
      ],
      [
        "▁administration",
        -9.497961639930466
      ],
      [
        "▁Look",
        -9.49889501731963
      ],
      [
        "www",
        -9.49889931920742
      ],
      [
        "▁regulation",
        -9.499311860654723
      ],
      [
        "▁box",
        -9.499573264702263
      ],
      [
        "▁aspect",
        -9.499964802783241
      ],
      [
        "▁presented",
        -9.50070943609723
      ],
      [
        "▁continued",
        -9.500800370841109
      ],
      [
        "▁limited",
        -9.501991780725433
      ],
      [
        "▁character",
        -9.50214759004211
      ],
      [
        "▁town",
        -9.50218807085596
      ],
      [
        "▁friend",
        -9.503216061854511
      ],
      [
        "▁allows",
        -9.503323759051693
      ],
      [
        "▁term",
        -9.50365914778647
      ],
      [
        "▁по",
        -9.50419529292909
      ],
      [
        "▁dead",
        -9.504429263465212
      ],
      [
        "▁writte",
        -9.504875540836746
      ],
      [
        "▁creation",
        -9.505239940745604
      ],
      [
        "▁essential",
        -9.505427867416195
      ],
      [
        "▁Even",
        -9.505978143425443
      ],
      [
        "▁import",
        -9.506767099103751
      ],
      [
        "▁online",
        -9.50748227174225
      ],
      [
        "▁greater",
        -9.508214593306123
      ],
      [
        "▁learn",
        -9.509586457519758
      ],
      [
        "▁art",
        -9.510012337804897
      ],
      [
        "▁pool",
        -9.510366207665106
      ],
      [
        "▁paid",
        -9.511703728099459
      ],
      [
        "▁station",
        -9.513459131541424
      ],
      [
        "▁assessment",
        -9.51481445196499
      ],
      [
        "▁dollar",
        -9.51519623716019
      ],
      [
        "▁Armenia",
        -9.517614126853303
      ],
      [
        "▁Yeah",
        -9.518841295388189
      ],
      [
        "▁tour",
        -9.519075482807656
      ],
      [
        "▁indicate",
        -9.519128876978915
      ],
      [
        "▁credit",
        -9.52008078101868
      ],
      [
        "governmental",
        -9.52039014190311
      ],
      [
        "▁expand",
        -9.520751272127395
      ],
      [
        "▁laws",
        -9.521193109364221
      ],
      [
        "▁Dr",
        -9.522531391607103
      ],
      [
        "▁French",
        -9.523686951866498
      ],
      [
        "▁chance",
        -9.525885772036833
      ],
      [
        "▁planning",
        -9.52645041256021
      ],
      [
        "▁via",
        -9.526482399939477
      ],
      [
        "▁Working",
        -9.526914971128358
      ],
      [
        "▁fall",
        -9.527108341409026
      ],
      [
        "▁practical",
        -9.527992594523722
      ],
      [
        "▁influence",
        -9.528469135583295
      ],
      [
        "▁fire",
        -9.529012712498547
      ],
      [
        "▁High",
        -9.530362304106001
      ],
      [
        "▁delegation",
        -9.530493200548609
      ],
      [
        "▁floor",
        -9.53188295918378
      ],
      [
        "▁update",
        -9.532391317703082
      ],
      [
        "▁establishment",
        -9.532897173955762
      ],
      [
        "▁German",
        -9.533363061750718
      ],
      [
        "▁industrial",
        -9.53443420828046
      ],
      [
        "▁Good",
        -9.534804437136053
      ],
      [
        "▁contract",
        -9.535421227527413
      ],
      [
        "▁avoid",
        -9.536802098577212
      ],
      [
        "body",
        -9.537087748330963
      ],
      [
        "▁brother",
        -9.53805188116989
      ],
      [
        "▁goods",
        -9.538555873022863
      ],
      [
        "▁plant",
        -9.53888374265616
      ],
      [
        "▁pre",
        -9.540000197004064
      ],
      [
        "▁Or",
        -9.540412033621838
      ],
      [
        "▁knew",
        -9.541706320596369
      ],
      [
        "ov",
        -9.541857740488618
      ],
      [
        "▁lives",
        -9.54190761193936
      ],
      [
        "see",
        -9.542449611332824
      ],
      [
        "▁vote",
        -9.542460454342613
      ],
      [
        "▁hands",
        -9.544883341449179
      ],
      [
        "▁met",
        -9.545077306798063
      ],
      [
        "▁consist",
        -9.545132316933143
      ],
      [
        "▁understanding",
        -9.545344884608884
      ],
      [
        "▁forms",
        -9.54656134217526
      ],
      [
        "▁encourage",
        -9.547377852224392
      ],
      [
        "▁require",
        -9.54969659226554
      ],
      [
        "▁propose",
        -9.550317901148778
      ],
      [
        "▁steps",
        -9.550319216794893
      ],
      [
        "▁Ukrainian",
        -9.551662339524835
      ],
      [
        "▁choice",
        -9.551828315658195
      ],
      [
        "▁host",
        -9.551916331847556
      ],
      [
        "▁button",
        -9.552330308218508
      ],
      [
        "▁advantage",
        -9.552486222771973
      ],
      [
        "▁invite",
        -9.5524911621929
      ],
      [
        "▁France",
        -9.552544891011896
      ],
      [
        "▁internal",
        -9.553021498761352
      ],
      [
        "▁bit",
        -9.553203971319954
      ],
      [
        "▁campaign",
        -9.555783137402404
      ],
      [
        "▁card",
        -9.558156899461789
      ],
      [
        "▁infrastructure",
        -9.558741021793306
      ],
      [
        "▁customers",
        -9.559587600184779
      ],
      [
        "▁comes",
        -9.560018987183097
      ],
      [
        "▁road",
        -9.56075127456427
      ],
      [
        "▁aim",
        -9.560964437465325
      ],
      [
        "▁method",
        -9.561602952195486
      ],
      [
        "▁increasing",
        -9.563335083275696
      ],
      [
        "▁West",
        -9.564014689544036
      ],
      [
        "▁define",
        -9.564522264357858
      ],
      [
        "Y",
        -9.566463318409859
      ],
      [
        "▁officer",
        -9.56678303022571
      ],
      [
        "▁spend",
        -9.567080092807544
      ],
      [
        "▁feeling",
        -9.567337964243594
      ],
      [
        "▁goal",
        -9.567535182399077
      ],
      [
        "▁Management",
        -9.568190602932562
      ],
      [
        "▁Azerbaijan",
        -9.571455069179253
      ],
      [
        "▁wait",
        -9.571737718300753
      ],
      [
        "▁fuel",
        -9.573091802741255
      ],
      [
        "▁commercial",
        -9.573579875934266
      ],
      [
        "▁saying",
        -9.573870419380047
      ],
      [
        "▁opportunities",
        -9.574406448340515
      ],
      [
        "▁religious",
        -9.574843349539464
      ],
      [
        "▁village",
        -9.577026584904708
      ],
      [
        "▁remains",
        -9.577629957301879
      ],
      [
        "▁probably",
        -9.577692264112846
      ],
      [
        "▁president",
        -9.578232286868904
      ],
      [
        "▁See",
        -9.578371408210518
      ],
      [
        "▁collection",
        -9.580646554732306
      ],
      [
        "▁Hello",
        -9.581384205763644
      ],
      [
        "▁welcome",
        -9.58246729067228
      ],
      [
        "▁mass",
        -9.582488018946515
      ],
      [
        "▁ground",
        -9.583671740261538
      ],
      [
        "▁Many",
        -9.584046334190262
      ],
      [
        "▁Thus",
        -9.584517441648007
      ],
      [
        "▁nor",
        -9.584860306445877
      ],
      [
        "▁launch",
        -9.58498781522128
      ],
      [
        "▁client",
        -9.585479609062075
      ],
      [
        "▁Jesus",
        -9.586081724723043
      ],
      [
        "▁gain",
        -9.58649907475797
      ],
      [
        "▁damage",
        -9.587548151240435
      ],
      [
        "▁benefit",
        -9.587767842516156
      ],
      [
        "monitoring",
        -9.587780610993661
      ],
      [
        "▁pressure",
        -9.588397117561463
      ],
      [
        "▁concept",
        -9.588591800579955
      ],
      [
        "▁J",
        -9.588746195338954
      ],
      [
        "▁direction",
        -9.591008207001705
      ],
      [
        "▁path",
        -9.591037651934403
      ],
      [
        "▁travel",
        -9.591258849559974
      ],
      [
        "▁reached",
        -9.59181461666974
      ],
      [
        "▁extend",
        -9.59402657538221
      ],
      [
        "▁movement",
        -9.595061883655518
      ],
      [
        "▁listen",
        -9.596221667108935
      ],
      [
        "▁object",
        -9.596477696909572
      ],
      [
        "▁officials",
        -9.596514229171506
      ],
      [
        "▁markets",
        -9.59694610863036
      ],
      [
        "▁assets",
        -9.597655290015656
      ],
      [
        "▁miss",
        -9.598424081593018
      ],
      [
        "▁Foreign",
        -9.598909095496984
      ],
      [
        "▁Great",
        -9.599248491511196
      ],
      [
        "▁unit",
        -9.600050997073076
      ],
      [
        "land",
        -9.602224806830343
      ],
      [
        "▁discover",
        -9.603261430130406
      ],
      [
        "▁wife",
        -9.604055902153533
      ],
      [
        "▁department",
        -9.604254009607038
      ],
      [
        "▁exhibition",
        -9.604421190323334
      ],
      [
        "▁York",
        -9.604694432568472
      ],
      [
        "▁Most",
        -9.605368724827414
      ],
      [
        "▁poverty",
        -9.6055759508475
      ],
      [
        "▁led",
        -9.607536153223261
      ],
      [
        "▁normal",
        -9.607614892960681
      ],
      [
        "ive",
        -9.609988589695828
      ],
      [
        "▁associate",
        -9.610245653277001
      ],
      [
        "▁organized",
        -9.61043371687455
      ],
      [
        "▁Chinese",
        -9.610441969752252
      ],
      [
        "▁thus",
        -9.610647646248553
      ],
      [
        "▁Report",
        -9.611150897694765
      ],
      [
        "▁authority",
        -9.612367297566788
      ],
      [
        "▁record",
        -9.613933202531861
      ],
      [
        "▁Affairs",
        -9.614701755616567
      ],
      [
        "▁sources",
        -9.616687456261213
      ],
      [
        "▁stand",
        -9.616815895369644
      ],
      [
        "▁base",
        -9.617245361468859
      ],
      [
        "▁parts",
        -9.61725840111872
      ],
      [
        "▁fair",
        -9.619090296668933
      ],
      [
        "▁earth",
        -9.620354043600694
      ],
      [
        "▁elements",
        -9.620686467377325
      ],
      [
        "▁African",
        -9.620877929039205
      ],
      [
        "▁original",
        -9.62088274002869
      ],
      [
        "▁extreme",
        -9.625366470306016
      ],
      [
        "▁rates",
        -9.625954349821521
      ],
      [
        "be",
        -9.626948512314732
      ],
      [
        "▁creat",
        -9.627181434365031
      ],
      [
        "▁violation",
        -9.628135772072497
      ],
      [
        "▁notice",
        -9.629138619448309
      ],
      [
        "▁contribute",
        -9.62936166122292
      ],
      [
        "▁district",
        -9.629980120195905
      ],
      [
        "▁film",
        -9.631504949330203
      ],
      [
        "▁promise",
        -9.632008785589155
      ],
      [
        "▁running",
        -9.632737099206826
      ],
      [
        "▁sales",
        -9.633361333757563
      ],
      [
        "▁ways",
        -9.636220052721917
      ],
      [
        "▁purchase",
        -9.636550515913916
      ],
      [
        "▁shows",
        -9.637633087079518
      ],
      [
        "▁exercise",
        -9.638676907200225
      ],
      [
        "▁Western",
        -9.638684085819598
      ],
      [
        "▁loss",
        -9.640378314613091
      ],
      [
        "▁не",
        -9.641846868825708
      ],
      [
        "▁option",
        -9.642328319529996
      ],
      [
        "▁Centre",
        -9.643216339070795
      ],
      [
        "▁affect",
        -9.643661007259603
      ],
      [
        "▁destroy",
        -9.645034533339553
      ],
      [
        "▁Sea",
        -9.645089730413572
      ],
      [
        "▁sometime",
        -9.64519713139751
      ],
      [
        "▁ten",
        -9.645727856614469
      ],
      [
        "▁proper",
        -9.647491878120919
      ],
      [
        "▁growing",
        -9.647661770375846
      ],
      [
        "▁fear",
        -9.647849038915849
      ],
      [
        "▁guarantee",
        -9.64816195389282
      ],
      [
        "▁popular",
        -9.65002437823722
      ],
      [
        "day",
        -9.651595911098863
      ],
      [
        "▁strategic",
        -9.65242600113741
      ],
      [
        "▁gender",
        -9.654109449251983
      ],
      [
        "▁Japan",
        -9.654464531710772
      ],
      [
        "▁suggest",
        -9.655921587774879
      ],
      [
        "▁relationship",
        -9.657453619076849
      ],
      [
        "▁Iraq",
        -9.657852086029697
      ],
      [
        "▁zone",
        -9.65975917346576
      ],
      [
        "▁bar",
        -9.659999656559545
      ],
      [
        "▁remove",
        -9.660540543104114
      ],
      [
        "▁II",
        -9.661450521393057
      ],
      [
        "▁format",
        -9.661768863278098
      ],
      [
        "▁story",
        -9.662827570391146
      ],
      [
        "▁X",
        -9.662866542324718
      ],
      [
        "▁Church",
        -9.664185168063746
      ],
      [
        "▁inside",
        -9.664896434664762
      ],
      [
        "▁comprehensive",
        -9.665066444620752
      ],
      [
        "head",
        -9.665754126331388
      ],
      [
        "▁provision",
        -9.667323846165308
      ],
      [
        "▁changed",
        -9.667570482773003
      ],
      [
        "▁write",
        -9.672053518664645
      ],
      [
        "▁Be",
        -9.674646744039249
      ],
      [
        "▁confirm",
        -9.677843208178036
      ],
      [
        "▁Today",
        -9.678629826822664
      ],
      [
        "▁preparation",
        -9.679902461855177
      ],
      [
        "▁degree",
        -9.682094226874032
      ],
      [
        "▁agree",
        -9.682469672403546
      ],
      [
        "▁memory",
        -9.682499913894128
      ],
      [
        "▁allowed",
        -9.682603277340649
      ],
      [
        "▁options",
        -9.682750706005766
      ],
      [
        "▁sub",
        -9.683497314138735
      ],
      [
        "▁assist",
        -9.684378750051817
      ],
      [
        "▁Georgia",
        -9.68540350847487
      ],
      [
        "▁Act",
        -9.686746103869313
      ],
      [
        "▁secret",
        -9.686830001625403
      ],
      [
        "▁signed",
        -9.687064959963475
      ],
      [
        "▁doctor",
        -9.687838472046943
      ],
      [
        "▁Health",
        -9.688036030358482
      ],
      [
        "▁church",
        -9.688177747516868
      ],
      [
        "▁larges",
        -9.68888161959242
      ],
      [
        "▁determine",
        -9.689025152532103
      ],
      [
        "▁balance",
        -9.689519754115468
      ],
      [
        "▁approved",
        -9.689594878288144
      ],
      [
        "▁custom",
        -9.690386193863857
      ],
      [
        "▁Agreement",
        -9.691960252526568
      ],
      [
        "▁Thank",
        -9.692498973434116
      ],
      [
        "▁Executive",
        -9.69315244999965
      ],
      [
        "▁reduction",
        -9.693187535639217
      ],
      [
        "▁external",
        -9.693840777037568
      ],
      [
        "▁fundamental",
        -9.694223836498118
      ],
      [
        "▁award",
        -9.694639815891922
      ],
      [
        "▁Protocol",
        -9.694654904336733
      ],
      [
        "▁Christ",
        -9.695193316369446
      ],
      [
        "▁Therefor",
        -9.697108509825458
      ],
      [
        "▁India",
        -9.69726434297469
      ],
      [
        "▁Wi",
        -9.697993254160297
      ],
      [
        "▁drink",
        -9.698669895901997
      ],
      [
        "▁monitor",
        -9.698800444658845
      ],
      [
        "killed",
        -9.698961452804364
      ],
      [
        "▁aimed",
        -9.69918441072425
      ],
      [
        "▁instance",
        -9.701004261648407
      ],
      [
        "▁climate",
        -9.70217139751312
      ],
      [
        "▁fish",
        -9.702459763013222
      ],
      [
        "▁door",
        -9.702725401379611
      ],
      [
        "▁realize",
        -9.702848211635054
      ],
      [
        "т",
        -9.703422797502174
      ],
      [
        "▁administrative",
        -9.703574872761166
      ],
      [
        "▁Day",
        -9.704145288723495
      ],
      [
        "▁improv",
        -9.704360248857267
      ],
      [
        "▁benefits",
        -9.705018282475198
      ],
      [
        "▁desire",
        -9.705784303428887
      ],
      [
        "▁science",
        -9.7059002295214
      ],
      [
        "▁Iran",
        -9.705910846543201
      ],
      [
        "▁web",
        -9.70742767417907
      ],
      [
        "▁personne",
        -9.708267336713416
      ],
      [
        "▁highly",
        -9.70906273859406
      ],
      [
        "▁screen",
        -9.709111944269932
      ],
      [
        "▁distribution",
        -9.709975239341924
      ],
      [
        "▁accept",
        -9.710175492317294
      ],
      [
        "▁white",
        -9.710439069174274
      ],
      [
        "gonn",
        -9.710744722824204
      ],
      [
        "▁banks",
        -9.7108939734478
      ],
      [
        "▁recommend",
        -9.711840286104184
      ],
      [
        "▁identify",
        -9.712514701139899
      ],
      [
        "▁wall",
        -9.712604832265658
      ],
      [
        "▁initial",
        -9.712604984494627
      ],
      [
        "▁shown",
        -9.713169057072706
      ],
      [
        "▁details",
        -9.713508602277605
      ],
      [
        "▁interested",
        -9.714506055153427
      ],
      [
        "▁consumer",
        -9.715173430302167
      ],
      [
        "▁Maybe",
        -9.716724636939036
      ],
      [
        "▁employees",
        -9.717000248673848
      ],
      [
        "▁generation",
        -9.717015423034697
      ],
      [
        "▁Get",
        -9.71756846501418
      ],
      [
        "▁teacher",
        -9.71760836783421
      ],
      [
        "▁feature",
        -9.718150709384506
      ],
      [
        "▁System",
        -9.719175433454394
      ],
      [
        "▁cross",
        -9.719271702583724
      ],
      [
        "▁Chairman",
        -9.719297081093572
      ],
      [
        "▁primary",
        -9.719479188450338
      ],
      [
        "▁Any",
        -9.720177151534878
      ],
      [
        "▁Such",
        -9.72508765357196
      ],
      [
        "▁Code",
        -9.725654761891157
      ],
      [
        "▁sustainabl",
        -9.726756088829138
      ],
      [
        "▁educational",
        -9.726847085174876
      ],
      [
        "▁happy",
        -9.727269720831174
      ],
      [
        "▁views",
        -9.728442107743751
      ],
      [
        "▁indicator",
        -9.731096874414737
      ],
      [
        "▁items",
        -9.73184147017166
      ],
      [
        "▁practices",
        -9.73235462859179
      ],
      [
        "▁easily",
        -9.732947118657902
      ],
      [
        "▁forest",
        -9.733649708699295
      ],
      [
        "▁drug",
        -9.734417603022981
      ],
      [
        "▁trust",
        -9.735478418901833
      ],
      [
        "▁worth",
        -9.736696895991729
      ],
      [
        "▁tools",
        -9.73725340730154
      ],
      [
        "▁City",
        -9.738101828623254
      ],
      [
        "▁mode",
        -9.740961596931832
      ],
      [
        "▁constant",
        -9.74110474795145
      ],
      [
        "▁board",
        -9.742086376572566
      ],
      [
        "ur",
        -9.742790731475552
      ],
      [
        "▁schedule",
        -9.743466689031642
      ],
      [
        "▁sexual",
        -9.743800073860488
      ],
      [
        "▁color",
        -9.744354321526
      ],
      [
        "▁thank",
        -9.745158763083793
      ],
      [
        "▁partnership",
        -9.745381159635832
      ],
      [
        "▁investigation",
        -9.74541597398968
      ],
      [
        "▁insurance",
        -9.745862738453267
      ],
      [
        "▁regime",
        -9.746180150676576
      ],
      [
        "j",
        -9.746685383051776
      ],
      [
        "▁watch",
        -9.748646449276272
      ],
      [
        "▁clearly",
        -9.748931057682544
      ],
      [
        "@",
        -9.749395949193424
      ],
      [
        "▁multi",
        -9.749505623659704
      ],
      [
        "familie",
        -9.750633858818189
      ],
      [
        "▁maximum",
        -9.75185781864037
      ],
      [
        "▁leader",
        -9.75195539107932
      ],
      [
        "▁package",
        -9.7522227455746
      ],
      [
        "▁circumstance",
        -9.753126031883049
      ],
      [
        "▁window",
        -9.75342313269801
      ],
      [
        "▁interesting",
        -9.754441937158294
      ],
      [
        "▁requires",
        -9.754678535276195
      ],
      [
        "▁factors",
        -9.75510942698849
      ],
      [
        "▁improvement",
        -9.756153954440506
      ],
      [
        "▁electronic",
        -9.757340376329758
      ],
      [
        "▁specialist",
        -9.758160942537026
      ],
      [
        "▁heat",
        -9.758832792831868
      ],
      [
        "▁goals",
        -9.760136616142265
      ],
      [
        "▁slow",
        -9.760467117839507
      ],
      [
        "▁border",
        -9.76218286765899
      ],
      [
        "▁condition",
        -9.762338772421467
      ],
      [
        "Fi",
        -9.762450562613044
      ],
      [
        "▁registration",
        -9.76294838774492
      ],
      [
        "▁map",
        -9.7633746279392
      ],
      [
        "▁Action",
        -9.76337561851862
      ],
      [
        "▁presence",
        -9.76543277898092
      ],
      [
        "▁consequence",
        -9.766119888483821
      ],
      [
        "▁beyon",
        -9.768122384795447
      ],
      [
        "▁voice",
        -9.768448545326997
      ],
      [
        "▁THE",
        -9.768471021880195
      ],
      [
        "ance",
        -9.769821773652875
      ],
      [
        "▁black",
        -9.770855374372973
      ],
      [
        "▁round",
        -9.771514790436687
      ],
      [
        "ю",
        -9.772798799958311
      ],
      [
        "▁cities",
        -9.774878173221028
      ],
      [
        "▁processing",
        -9.775169764846467
      ],
      [
        "▁correct",
        -9.775434597253916
      ],
      [
        "▁employment",
        -9.776507971368845
      ],
      [
        "▁sex",
        -9.776546806740699
      ],
      [
        "▁elections",
        -9.776660887665908
      ],
      [
        "▁implemented",
        -9.77801170578995
      ],
      [
        "▁fill",
        -9.778070236413036
      ],
      [
        "го",
        -9.77815883630933
      ],
      [
        "aught",
        -9.778296465614957
      ],
      [
        "mail",
        -9.7799045588602
      ],
      [
        "▁charge",
        -9.782613427056141
      ],
      [
        "▁settlement",
        -9.78502002792616
      ],
      [
        "▁Putin",
        -9.786256365481663
      ],
      [
        "▁author",
        -9.786823682806205
      ],
      [
        "▁mandate",
        -9.787947903487346
      ],
      [
        "▁faith",
        -9.788035974516825
      ],
      [
        "▁ensur",
        -9.788994639683757
      ],
      [
        "daily",
        -9.789471363839366
      ],
      [
        "▁Only",
        -9.790172016760913
      ],
      [
        "▁couple",
        -9.790346342143831
      ],
      [
        "▁obligations",
        -9.791063968416411
      ],
      [
        "▁justice",
        -9.791089667046371
      ],
      [
        "▁effort",
        -9.791681216891442
      ],
      [
        "deed",
        -9.792577980178589
      ],
      [
        "▁thinking",
        -9.792752883645539
      ],
      [
        "▁secure",
        -9.793479331543002
      ],
      [
        "▁mobile",
        -9.79369016480479
      ],
      [
        "giving",
        -9.794721703553105
      ],
      [
        "U",
        -9.795183207586197
      ],
      [
        "▁communit",
        -9.795501900440119
      ],
      [
        "▁menu",
        -9.795970124613737
      ],
      [
        "ial",
        -9.796607773207846
      ],
      [
        "▁negative",
        -9.79691204888291
      ],
      [
        "▁useful",
        -9.79723425029972
      ],
      [
        "▁arrive",
        -9.797587713080377
      ],
      [
        "▁Him",
        -9.798010130658685
      ],
      [
        "▁electric",
        -9.79857200612435
      ],
      [
        "▁piece",
        -9.798939808976911
      ],
      [
        "▁factor",
        -9.799849240458181
      ],
      [
        "▁Business",
        -9.801709754366929
      ],
      [
        "▁reporting",
        -9.803252666638842
      ],
      [
        "am",
        -9.803805675585604
      ],
      [
        "▁operate",
        -9.805599366891672
      ],
      [
        "▁Further",
        -9.806505520028942
      ],
      [
        "▁respective",
        -9.807745892249674
      ],
      [
        "▁soul",
        -9.808536849598589
      ],
      [
        "▁Science",
        -9.808882203333628
      ],
      [
        "▁engage",
        -9.808899145218465
      ],
      [
        "▁Women",
        -9.808916829017065
      ],
      [
        "▁Meeting",
        -9.81077161013953
      ],
      [
        "▁manager",
        -9.810772779588195
      ],
      [
        "ling",
        -9.81150580238528
      ],
      [
        "added",
        -9.811638708015586
      ],
      [
        "▁Secretariat",
        -9.812345526452713
      ],
      [
        "▁Armenian",
        -9.812892728385357
      ],
      [
        "▁finish",
        -9.81320027258798
      ],
      [
        "▁Turkey",
        -9.814050312606103
      ],
      [
        "▁storage",
        -9.814072385474562
      ],
      [
        "▁introduce",
        -9.814524849839973
      ],
      [
        "▁tool",
        -9.816210530929192
      ],
      [
        "▁recommended",
        -9.816392072378239
      ],
      [
        "▁tree",
        -9.816504484941763
      ],
      [
        "▁flight",
        -9.81763159090021
      ],
      [
        "▁takes",
        -9.817854658332678
      ],
      [
        "▁partner",
        -9.818232880816971
      ],
      [
        "▁humanitarian",
        -9.818572163637585
      ],
      [
        "▁Free",
        -9.818780375042362
      ],
      [
        "▁earlie",
        -9.819589129610563
      ],
      [
        "▁intend",
        -9.820614608083226
      ],
      [
        "▁stock",
        -9.821187044644734
      ],
      [
        "▁Co",
        -9.821845488584735
      ],
      [
        "▁temperature",
        -9.823061525734317
      ],
      [
        "▁highest",
        -9.824369345702891
      ],
      [
        "▁cut",
        -9.82587153637957
      ],
      [
        "▁whos",
        -9.826467772140557
      ],
      [
        "ka",
        -9.826740899057329
      ],
      [
        "▁Use",
        -9.827555371622553
      ],
      [
        "▁variet",
        -9.828056643236422
      ],
      [
        "▁director",
        -9.828128636493968
      ],
      [
        "▁arrest",
        -9.828241787345966
      ],
      [
        "▁clients",
        -9.829039113417835
      ],
      [
        "▁surface",
        -9.829273903379757
      ],
      [
        "▁purposes",
        -9.829330385875444
      ],
      [
        "▁manner",
        -9.829380808745267
      ],
      [
        "▁units",
        -9.829513161380376
      ],
      [
        "▁calls",
        -9.831859998839942
      ],
      [
        "»",
        -9.831909693196717
      ],
      [
        "▁felt",
        -9.832376888597903
      ],
      [
        "▁connected",
        -9.83425290574111
      ],
      [
        "▁spiritual",
        -9.834443003597166
      ],
      [
        "▁negotiation",
        -9.83444729106097
      ],
      [
        "▁seek",
        -9.834772094660089
      ],
      [
        "▁setting",
        -9.835720873532967
      ],
      [
        "▁election",
        -9.836773995900657
      ],
      [
        "▁debt",
        -9.837988492066074
      ],
      [
        "ent",
        -9.83800896829777
      ],
      [
        "▁De",
        -9.841660238590492
      ],
      [
        "▁reveal",
        -9.842626877787193
      ],
      [
        "▁overall",
        -9.842729502387327
      ],
      [
        "▁reference",
        -9.843524940392692
      ],
      [
        "▁alternative",
        -9.843673844129551
      ],
      [
        "▁block",
        -9.844430462575634
      ],
      [
        "▁John",
        -9.845497108795225
      ],
      [
        "▁link",
        -9.84571909612714
      ],
      [
        "org",
        -9.847483362868488
      ],
      [
        "▁Association",
        -9.84771363026955
      ],
      [
        "▁apartment",
        -9.848225015344198
      ],
      [
        "▁challenges",
        -9.848943103425643
      ],
      [
        "▁specified",
        -9.84910519891514
      ],
      [
        "▁track",
        -9.849191610118655
      ],
      [
        "▁efficiency",
        -9.850420516243947
      ],
      [
        "line",
        -9.851386847302578
      ],
      [
        "▁spirit",
        -9.85262488289758
      ],
      [
        "▁powerful",
        -9.852992842822793
      ],
      [
        "▁settings",
        -9.853270395776224
      ],
      [
        "▁summer",
        -9.853410053026227
      ],
      [
        "▁candidate",
        -9.853464446624281
      ],
      [
        "▁deliver",
        -9.853725406021821
      ],
      [
        "▁dialogue",
        -9.85383801971686
      ],
      [
        "▁committed",
        -9.854609065834229
      ],
      [
        "▁dis",
        -9.855082485631602
      ],
      [
        "▁achieved",
        -9.855609800123531
      ],
      [
        "▁statements",
        -9.85597954859092
      ],
      [
        "way",
        -9.856348490739988
      ],
      [
        "not",
        -9.856554581479086
      ],
      [
        "▁PC",
        -9.857202004907583
      ],
      [
        "▁OF",
        -9.857278543451272
      ],
      [
        "▁nation",
        -9.857454311606617
      ],
      [
        "J",
        -9.85881712243249
      ],
      [
        "▁combat",
        -9.859462474586945
      ],
      [
        "▁Petersburg",
        -9.85981123843045
      ],
      [
        "▁decrease",
        -9.86017138473607
      ],
      [
        "▁enhance",
        -9.860354666561557
      ],
      [
        "▁weight",
        -9.860407792560805
      ],
      [
        "▁interview",
        -9.860646671144327
      ],
      [
        "▁arms",
        -9.861013638359939
      ],
      [
        "▁spread",
        -9.862231908987397
      ],
      [
        "▁rich",
        -9.863061138430218
      ],
      [
        "▁except",
        -9.864593081399036
      ],
      [
        "▁Two",
        -9.866394474864066
      ],
      [
        "▁nice",
        -9.866660179666653
      ],
      [
        "▁terrorist",
        -9.86763911879407
      ],
      [
        "▁sufficient",
        -9.868227826484507
      ],
      [
        "▁brand",
        -9.870245913115513
      ],
      [
        "▁waste",
        -9.871610746580052
      ],
      [
        "▁promotion",
        -9.872307388559726
      ],
      [
        "ities",
        -9.873317196520016
      ],
      [
        "▁default",
        -9.873563037693419
      ],
      [
        "▁studies",
        -9.873831827030127
      ],
      [
        "▁commission",
        -9.874813052542738
      ],
      [
        "▁hour",
        -9.875095710100467
      ],
      [
        "▁flow",
        -9.876634099825358
      ],
      [
        "▁hell",
        -9.877046710189376
      ],
      [
        "▁installation",
        -9.877324022557218
      ],
      [
        "▁firm",
        -9.877645388352507
      ],
      [
        "▁Hotel",
        -9.878012253870164
      ],
      [
        "▁touch",
        -9.880627423950102
      ],
      [
        "▁Exchange",
        -9.881235387611888
      ],
      [
        "▁Air",
        -9.881481162120043
      ],
      [
        "▁majorit",
        -9.882226321977484
      ],
      [
        "▁rapid",
        -9.882465583313529
      ],
      [
        "▁disease",
        -9.883337285450123
      ],
      [
        "▁race",
        -9.884279480491507
      ],
      [
        "▁Project",
        -9.884567654651171
      ],
      [
        "▁customer",
        -9.88668788387618
      ],
      [
        "▁critical",
        -9.88707454597853
      ],
      [
        "▁enem",
        -9.888504049674886
      ],
      [
        "▁doubt",
        -9.888640971814073
      ],
      [
        "▁Global",
        -9.888764485948597
      ],
      [
        "▁grow",
        -9.889281310465158
      ],
      [
        "▁Take",
        -9.889633242423741
      ],
      [
        "▁investor",
        -9.889996447743256
      ],
      [
        "▁topic",
        -9.89000168328781
      ],
      [
        "▁Trade",
        -9.890273485683723
      ],
      [
        "▁religion",
        -9.890927343640673
      ],
      [
        "▁double",
        -9.892294794497904
      ],
      [
        "▁planne",
        -9.89288611058525
      ],
      [
        "ized",
        -9.893015750217753
      ],
      [
        "▁title",
        -9.896162716511697
      ],
      [
        "ь",
        -9.896496480397726
      ],
      [
        "armed",
        -9.896795195050597
      ],
      [
        "▁seven",
        -9.896799362858204
      ],
      [
        "▁Right",
        -9.896803894680314
      ],
      [
        "▁Also",
        -9.900251061428769
      ],
      [
        "▁respond",
        -9.900340363668292
      ],
      [
        "▁facilitate",
        -9.901297131720801
      ],
      [
        "▁huge",
        -9.90197141401918
      ],
      [
        "▁skills",
        -9.90300884223473
      ],
      [
        "▁announced",
        -9.903073899956377
      ],
      [
        "▁Under",
        -9.903266644467779
      ],
      [
        "▁Declaration",
        -9.903342615691397
      ],
      [
        "▁historical",
        -9.904011185937971
      ],
      [
        "▁Agency",
        -9.904451435035625
      ],
      [
        "either",
        -9.905708127741836
      ],
      [
        "▁agent",
        -9.905916743772483
      ],
      [
        "▁style",
        -9.90601551769156
      ],
      [
        "▁careful",
        -9.906191256319307
      ],
      [
        "▁perfect",
        -9.907291629245906
      ],
      [
        "▁Federal",
        -9.909229423160783
      ],
      [
        "▁Additional",
        -9.909367354322342
      ],
      [
        "▁Public",
        -9.909458601974597
      ],
      [
        "▁famous",
        -9.909492203624986
      ],
      [
        "▁radio",
        -9.909522211012673
      ],
      [
        "▁Have",
        -9.909704627376678
      ],
      [
        "▁born",
        -9.909943734226733
      ],
      [
        "▁corporate",
        -9.91032270585669
      ],
      [
        "▁Reply",
        -9.911774093382563
      ],
      [
        "▁terroris",
        -9.913583964177786
      ],
      [
        "▁objective",
        -9.913729465821296
      ],
      [
        "▁leadership",
        -9.913886051276059
      ],
      [
        "▁House",
        -9.914938201100117
      ],
      [
        "▁matters",
        -9.915395876549947
      ],
      [
        "▁decide",
        -9.915660705866596
      ],
      [
        "ill",
        -9.916192938707422
      ],
      [
        "possibility",
        -9.91633336981265
      ],
      [
        "▁integration",
        -9.917467572585926
      ],
      [
        "▁baby",
        -9.918237275785378
      ],
      [
        "▁sell",
        -9.920088949580304
      ],
      [
        "▁determined",
        -9.920113352190537
      ],
      [
        "▁Earth",
        -9.920160947843868
      ],
      [
        "▁copy",
        -9.922175556096153
      ],
      [
        "▁efficient",
        -9.922291146599282
      ],
      [
        "▁components",
        -9.923195498982224
      ],
      [
        "▁wrot",
        -9.923549664110762
      ],
      [
        "▁lose",
        -9.923849440717763
      ],
      [
        "▁holding",
        -9.924405999075931
      ],
      [
        "▁integrated",
        -9.924842728528006
      ],
      [
        "▁chemical",
        -9.92530275720057
      ],
      [
        "▁fund",
        -9.92590063117776
      ],
      [
        "▁Afghanistan",
        -9.926284902558603
      ],
      [
        "▁shop",
        -9.927068880444384
      ],
      [
        "▁hit",
        -9.92784752238894
      ],
      [
        "▁resource",
        -9.929291438489791
      ],
      [
        "▁license",
        -9.930311559717996
      ],
      [
        "per",
        -9.930628533102881
      ],
      [
        "▁games",
        -9.93166398415264
      ],
      [
        "▁stress",
        -9.932663100420065
      ],
      [
        "▁gone",
        -9.932904734028593
      ],
      [
        "ought",
        -9.933125160095923
      ],
      [
        "▁clean",
        -9.933522592312794
      ],
      [
        "▁airport",
        -9.933643792629585
      ],
      [
        "▁hair",
        -9.934680823919827
      ],
      [
        "go",
        -9.934915927227129
      ],
      [
        "▁prior",
        -9.93494145997203
      ],
      [
        "▁failure",
        -9.9352197239883
      ],
      [
        "ver",
        -9.935592179027623
      ],
      [
        "haps",
        -9.935787048606649
      ],
      [
        "▁Representative",
        -9.936841987742989
      ],
      [
        "▁Palestinian",
        -9.937524767133066
      ],
      [
        "▁cash",
        -9.937580659410864
      ],
      [
        "▁goes",
        -9.938498124435672
      ],
      [
        "▁approximately",
        -9.939191359355709
      ],
      [
        "▁objects",
        -9.940041152377049
      ],
      [
        "▁guide",
        -9.941360038443607
      ],
      [
        "▁currency",
        -9.94242198718976
      ],
      [
        "▁Arab",
        -9.943243190258087
      ],
      [
        "▁entitle",
        -9.943277429841057
      ],
      [
        "▁Education",
        -9.94377516972537
      ],
      [
        "▁extent",
        -9.94380884096444
      ],
      [
        "ны",
        -9.943814958547637
      ],
      [
        "▁funding",
        -9.944281028865742
      ],
      [
        "▁train",
        -9.944415010701462
      ],
      [
        "▁Children",
        -9.944462196428555
      ],
      [
        "▁compare",
        -9.946275123884337
      ],
      [
        "▁suffer",
        -9.946496866506429
      ],
      [
        "▁sort",
        -9.947159231700734
      ],
      [
        "selves",
        -9.9474324876463
      ],
      [
        "▁Q",
        -9.948949646338885
      ],
      [
        "▁assess",
        -9.949091281674674
      ],
      [
        "▁opening",
        -9.949346234432385
      ],
      [
        "▁impossibl",
        -9.94957787139234
      ],
      [
        "▁USA",
        -9.949939059386253
      ],
      [
        "▁Plan",
        -9.950903386134861
      ],
      [
        "▁island",
        -9.951505759316786
      ],
      [
        "▁instruments",
        -9.951866952183641
      ],
      [
        "side",
        -9.952854921018059
      ],
      [
        "▁trial",
        -9.953299225201366
      ],
      [
        "▁moving",
        -9.953649421283277
      ],
      [
        "▁achievement",
        -9.95433169890157
      ],
      [
        "▁warm",
        -9.954919822286243
      ],
      [
        "▁financing",
        -9.955053158438396
      ],
      [
        "▁detailed",
        -9.955605283499143
      ],
      [
        "▁fit",
        -9.9557588949314
      ],
      [
        "▁London",
        -9.95602518554691
      ],
      [
        "▁preventi",
        -9.956399074794149
      ],
      [
        "с",
        -9.956424947564898
      ],
      [
        "▁Force",
        -9.95645887596005
      ],
      [
        "▁Second",
        -9.958844946854441
      ],
      [
        "▁output",
        -9.95911118917391
      ],
      [
        "▁delivery",
        -9.959161699973844
      ],
      [
        "▁fields",
        -9.959325742176425
      ],
      [
        "▁spen",
        -9.961410954528489
      ],
      [
        "▁camera",
        -9.961675494203913
      ],
      [
        "▁port",
        -9.961697402223354
      ],
      [
        "ki",
        -9.962722304887972
      ],
      [
        "level",
        -9.96382842202419
      ],
      [
        "▁connect",
        -9.964060715645392
      ],
      [
        "▁platform",
        -9.965878551786648
      ],
      [
        "▁sleep",
        -9.966407311894015
      ],
      [
        "▁obvious",
        -9.966488581814493
      ],
      [
        "▁finance",
        -9.967007206286778
      ],
      [
        "▁rise",
        -9.96741880938854
      ],
      [
        "▁expect",
        -9.967502318364904
      ],
      [
        "▁daughter",
        -9.967939075238558
      ],
      [
        "▁writing",
        -9.968680096734289
      ],
      [
        "▁discrimination",
        -9.969293833544977
      ],
      [
        "▁strategies",
        -9.969644378047752
      ],
      [
        "▁red",
        -9.97083542371545
      ],
      [
        "he",
        -9.971672259058078
      ],
      [
        "▁lines",
        -9.972767275265245
      ],
      [
        "▁appeal",
        -9.973416984647663
      ],
      [
        "ли",
        -9.974319131932084
      ],
      [
        "▁hot",
        -9.97551593356587
      ],
      [
        "▁husband",
        -9.975856516151381
      ],
      [
        "▁promot",
        -9.976231386309799
      ],
      [
        "▁relat",
        -9.977111116426224
      ],
      [
        "▁demonstrate",
        -9.977877336811224
      ],
      [
        "▁master",
        -9.979111993571411
      ],
      [
        "▁wear",
        -9.979220322935188
      ],
      [
        "▁Kingdom",
        -9.979374470921872
      ],
      [
        "▁Forum",
        -9.980075396912028
      ],
      [
        "▁quarter",
        -9.980215750049705
      ],
      [
        "▁survey",
        -9.980226784007186
      ],
      [
        "▁supplie",
        -9.980599579176658
      ],
      [
        "▁Park",
        -9.981453280764129
      ],
      [
        "▁boy",
        -9.98216660147719
      ],
      [
        "▁certificate",
        -9.982292943269682
      ],
      [
        "▁yes",
        -9.982511682557023
      ],
      [
        "▁mutual",
        -9.983215706059388
      ],
      [
        "▁advance",
        -9.983836498535805
      ],
      [
        "▁signal",
        -9.983837775792152
      ],
      [
        "▁Christian",
        -9.984321048369049
      ],
      [
        "latest",
        -9.985138045920301
      ],
      [
        "▁strength",
        -9.987299457184653
      ],
      [
        "▁Head",
        -9.987436353877126
      ],
      [
        "▁scale",
        -9.987779355570881
      ],
      [
        "▁outcome",
        -9.987943616444834
      ],
      [
        "ate",
        -9.989724397555165
      ],
      [
        "▁labor",
        -9.990402614164628
      ],
      [
        "▁equipp",
        -9.990443268443427
      ],
      [
        "▁forced",
        -9.99125183822851
      ],
      [
        "▁internet",
        -9.992491762594119
      ],
      [
        "▁di",
        -9.994264265108807
      ],
      [
        "▁Note",
        -9.994672634335682
      ],
      [
        "old",
        -9.994745403357578
      ],
      [
        "▁route",
        -9.99490201177781
      ],
      [
        "▁wouldn",
        -9.995199365580614
      ],
      [
        "▁tradition",
        -9.995424847234329
      ],
      [
        "▁Open",
        -9.99582695383319
      ],
      [
        "▁attend",
        -9.996369771434173
      ],
      [
        "▁estimate",
        -9.997392718918238
      ],
      [
        "▁evaluation",
        -9.997657713888898
      ],
      [
        "▁refugee",
        -9.999459256949788
      ],
      [
        "▁Regional",
        -9.999489724954582
      ],
      [
        "▁Over",
        -10.000217459165874
      ],
      [
        "▁consumption",
        -10.00047021533019
      ],
      [
        "▁raise",
        -10.001388031864618
      ],
      [
        "«",
        -10.003082452693738
      ],
      [
        "▁length",
        -10.003649768379134
      ],
      [
        "▁CD",
        -10.004314999787727
      ],
      [
        "▁movie",
        -10.005142499029748
      ],
      [
        "▁ethnic",
        -10.005399276886568
      ],
      [
        "▁sports",
        -10.006519692287352
      ],
      [
        "▁objectives",
        -10.006567178108135
      ],
      [
        "Another",
        -10.007022767046099
      ],
      [
        "▁democratic",
        -10.00729959233877
      ],
      [
        "▁affected",
        -10.007503628608273
      ],
      [
        "ritish",
        -10.007831786564243
      ],
      [
        "▁despite",
        -10.008154350332317
      ],
      [
        "▁challenge",
        -10.00835391660669
      ],
      [
        "▁stability",
        -10.008740941475816
      ],
      [
        "▁traffic",
        -10.008792369902775
      ],
      [
        "▁sale",
        -10.009436925567329
      ],
      [
        "Once",
        -10.010065610436786
      ],
      [
        "▁excellent",
        -10.010086207393952
      ],
      [
        "▁struggle",
        -10.010410990244326
      ],
      [
        "king",
        -10.010539575055134
      ],
      [
        "▁news",
        -10.010632401048435
      ],
      [
        "▁picture",
        -10.010664609689634
      ],
      [
        "night",
        -10.010856394996905
      ],
      [
        "▁Z",
        -10.011276130932519
      ],
      [
        "▁attract",
        -10.011741303084204
      ],
      [
        "▁trip",
        -10.012584820952673
      ],
      [
        "▁Vladimir",
        -10.013059499217306
      ],
      [
        "▁youth",
        -10.013175192227855
      ],
      [
        "▁automatical",
        -10.014198528328269
      ],
      [
        "▁skin",
        -10.016002125635568
      ],
      [
        "\\",
        -10.016697067687618
      ],
      [
        "▁Me",
        -10.0170992787228
      ],
      [
        "▁wipe",
        -10.01867392123688
      ],
      [
        "▁Wait",
        -10.018963334162137
      ],
      [
        "▁breakfast",
        -10.019359669457291
      ],
      [
        "▁solve",
        -10.01979320334971
      ],
      [
        "▁minimum",
        -10.020097206479967
      ],
      [
        "▁otherwise",
        -10.021458725635213
      ],
      [
        "▁permanent",
        -10.021572662163246
      ],
      [
        "▁indigen",
        -10.022541056525938
      ],
      [
        "▁Italy",
        -10.022742046790611
      ],
      [
        "▁Bar",
        -10.02363483487786
      ],
      [
        "▁technique",
        -10.023797164284677
      ],
      [
        "▁extra",
        -10.023922596490458
      ],
      [
        "▁aware",
        -10.024873557450615
      ],
      [
        "▁labour",
        -10.024918020560023
      ],
      [
        "▁profit",
        -10.025580429719783
      ],
      [
        "▁evening",
        -10.026500753378798
      ],
      [
        "▁domain",
        -10.02794796774758
      ],
      [
        "▁Research",
        -10.029059144294994
      ],
      [
        "▁eight",
        -10.030662685284671
      ],
      [
        "▁Protection",
        -10.030826657302956
      ],
      [
        "▁album",
        -10.03086587011385
      ],
      [
        "▁sir",
        -10.032327711426458
      ],
      [
        "▁realit",
        -10.032601644669882
      ],
      [
        "▁Will",
        -10.033081652183899
      ],
      [
        "▁illegal",
        -10.033809445963985
      ],
      [
        "▁books",
        -10.034389448016398
      ],
      [
        "▁entry",
        -10.034941464297656
      ],
      [
        "▁Canada",
        -10.0349768278966
      ],
      [
        "▁kept",
        -10.034996530776436
      ],
      [
        "trading",
        -10.035073350035283
      ],
      [
        "▁compliance",
        -10.035247422154583
      ],
      [
        "▁distance",
        -10.035786891903186
      ],
      [
        "▁forget",
        -10.03580366437085
      ],
      [
        "▁garden",
        -10.035902867729147
      ],
      [
        "▁prove",
        -10.036619800373241
      ],
      [
        "▁IP",
        -10.036698729137093
      ],
      [
        "▁cold",
        -10.036756368330462
      ],
      [
        "▁emission",
        -10.038630008715081
      ],
      [
        "▁awareness",
        -10.03940268883446
      ],
      [
        "▁phase",
        -10.043677704744022
      ],
      [
        "▁maintenance",
        -10.044505713412782
      ],
      [
        "referred",
        -10.044724582486648
      ],
      [
        "▁Prime",
        -10.045047375555892
      ],
      [
        "▁manufacturer",
        -10.045268846071245
      ],
      [
        "▁actual",
        -10.045596801008228
      ],
      [
        "▁participat",
        -10.045709596785802
      ],
      [
        "▁Israeli",
        -10.045764638312846
      ],
      [
        "▁middle",
        -10.046555580159547
      ],
      [
        "▁submit",
        -10.047518666902146
      ],
      [
        "▁plants",
        -10.047813784857762
      ],
      [
        "▁belong",
        -10.04806720985448
      ],
      [
        "▁что",
        -10.049279404075293
      ],
      [
        "▁proposal",
        -10.049403068521928
      ],
      [
        "▁proposals",
        -10.050310533759678
      ],
      [
        "▁operational",
        -10.050459073494398
      ],
      [
        "▁hundred",
        -10.05150254220041
      ],
      [
        "▁Red",
        -10.052807150061309
      ],
      [
        "▁murder",
        -10.053119975222357
      ],
      [
        "▁coordination",
        -10.054557026401419
      ],
      [
        "▁prison",
        -10.054731302067257
      ],
      [
        "▁street",
        -10.054743205572272
      ],
      [
        "▁transition",
        -10.054842596046317
      ],
      [
        "▁maybe",
        -10.055009324362008
      ],
      [
        "▁becoming",
        -10.055461120177764
      ],
      [
        "▁shot",
        -10.055729877052926
      ],
      [
        "▁La",
        -10.05574118628136
      ],
      [
        "▁hospital",
        -10.05589762627716
      ],
      [
        "▁typical",
        -10.056401101302873
      ],
      [
        "▁adoption",
        -10.057311598352669
      ],
      [
        "▁ancient",
        -10.057432698836575
      ],
      [
        "▁subsequent",
        -10.057767822339011
      ],
      [
        "▁seat",
        -10.05958315767558
      ],
      [
        "▁waiting",
        -10.060067548779596
      ],
      [
        "▁dangerous",
        -10.060643610254715
      ],
      [
        "▁prepare",
        -10.061495078450346
      ],
      [
        "behalf",
        -10.061819574923668
      ],
      [
        "▁Add",
        -10.062448784265815
      ],
      [
        "▁email",
        -10.063264703118909
      ],
      [
        "▁advanced",
        -10.06349255324298
      ],
      [
        "▁surprise",
        -10.063775233238973
      ],
      [
        "▁Eac",
        -10.06393178783322
      ],
      [
        "▁governments",
        -10.064440745827604
      ],
      [
        "▁foundation",
        -10.064562478123
      ],
      [
        "▁vehicle",
        -10.06459241353297
      ],
      [
        "▁error",
        -10.065373931605667
      ],
      [
        "▁operator",
        -10.065425179182714
      ],
      [
        "▁win",
        -10.06768814729406
      ],
      [
        "▁Region",
        -10.067869852369874
      ],
      [
        "▁numerous",
        -10.067955454719048
      ],
      [
        "▁capabilit",
        -10.069167167281975
      ],
      [
        "▁count",
        -10.069797551235325
      ],
      [
        "▁Policy",
        -10.070667112183756
      ],
      [
        "▁leav",
        -10.07106802142129
      ],
      [
        "▁closed",
        -10.072287109291498
      ],
      [
        "▁bathroom",
        -10.073103631677995
      ],
      [
        "▁visitor",
        -10.073632141461339
      ],
      [
        "▁Final",
        -10.074379742640534
      ],
      [
        "▁delay",
        -10.076391375953904
      ],
      [
        "▁Mobile",
        -10.077138214827627
      ],
      [
        "▁Jew",
        -10.077466913876926
      ],
      [
        "▁definition",
        -10.077946277478445
      ],
      [
        "▁gives",
        -10.07802722542126
      ],
      [
        "▁Power",
        -10.07848429044877
      ],
      [
        "▁multiple",
        -10.078757685635864
      ],
      [
        "related",
        -10.07905912672972
      ],
      [
        "▁digital",
        -10.07920505283665
      ],
      [
        "▁dream",
        -10.079627591571017
      ],
      [
        "▁housing",
        -10.080132342335553
      ],
      [
        "▁gold",
        -10.082333427771491
      ],
      [
        "me",
        -10.082473542402292
      ],
      [
        "▁committee",
        -10.082787756596364
      ],
      [
        "▁meaning",
        -10.08399797833487
      ],
      [
        "▁Car",
        -10.084985367926777
      ],
      [
        "▁wind",
        -10.087180421867867
      ],
      [
        "▁sphere",
        -10.087184304074611
      ],
      [
        "▁raised",
        -10.087758100821727
      ],
      [
        "▁consistent",
        -10.087787478962479
      ],
      [
        "▁NATO",
        -10.088265414849273
      ],
      [
        "▁engine",
        -10.088319397654521
      ],
      [
        "▁Like",
        -10.089379066157928
      ],
      [
        "making",
        -10.089596474540482
      ],
      [
        "▁birth",
        -10.089652435071969
      ],
      [
        "▁agricultural",
        -10.08973808389871
      ],
      [
        "▁virtual",
        -10.091365560778268
      ],
      [
        "▁medium",
        -10.091507142094237
      ],
      [
        "▁Support",
        -10.091873407288368
      ],
      [
        "▁existence",
        -10.092155084214525
      ],
      [
        "▁к",
        -10.093015519736252
      ],
      [
        "▁opposition",
        -10.094157871311012
      ],
      [
        "▁remote",
        -10.094368553198649
      ],
      [
        "▁names",
        -10.094399152643685
      ],
      [
        "▁enforcement",
        -10.094501214405522
      ],
      [
        "▁scientist",
        -10.094996579191461
      ],
      [
        "▁Energy",
        -10.09501522035302
      ],
      [
        "▁combine",
        -10.095161613617087
      ],
      [
        "▁reduced",
        -10.096357820560092
      ],
      [
        "▁panel",
        -10.096850101520008
      ],
      [
        "▁counter",
        -10.0969032689147
      ],
      [
        "▁Her",
        -10.097781641452276
      ],
      [
        "http",
        -10.098646471160002
      ],
      [
        "▁за",
        -10.098897037791787
      ],
      [
        "▁shares",
        -10.098973666658942
      ],
      [
        "▁Airport",
        -10.099181678555045
      ],
      [
        "▁folder",
        -10.100400428776725
      ],
      [
        "▁languages",
        -10.101013999806911
      ],
      [
        "▁exceed",
        -10.101641968537052
      ],
      [
        "▁forum",
        -10.101986043633108
      ],
      [
        "back",
        -10.10204636850883
      ],
      [
        "▁democracy",
        -10.102831074158086
      ],
      [
        "▁shared",
        -10.102857613743058
      ],
      [
        "▁civilian",
        -10.103971343091395
      ],
      [
        "▁selection",
        -10.104300587275741
      ],
      [
        "▁competitive",
        -10.10442273383386
      ],
      [
        "▁Muslim",
        -10.104695236986327
      ],
      [
        "▁El",
        -10.104702648826795
      ],
      [
        "▁household",
        -10.105158886984928
      ],
      [
        "▁investments",
        -10.105226546972695
      ],
      [
        "▁learned",
        -10.105610805461883
      ],
      [
        "▁messages",
        -10.107059035562713
      ],
      [
        "X",
        -10.10769119742935
      ],
      [
        "▁Jewish",
        -10.10783742462893
      ],
      [
        "▁applicant",
        -10.108806537254475
      ],
      [
        "▁effectively",
        -10.10963098973339
      ],
      [
        "▁Eastern",
        -10.110051994050938
      ],
      [
        "▁Poland",
        -10.11048856513413
      ],
      [
        "▁structures",
        -10.110537927009325
      ],
      [
        "▁comfortabl",
        -10.111241592950119
      ],
      [
        "▁Middle",
        -10.11230296475522
      ],
      [
        "▁mine",
        -10.112441298271426
      ],
      [
        "▁sustain",
        -10.112568345309196
      ],
      [
        "▁tri",
        -10.112787479661154
      ],
      [
        "▁San",
        -10.11279032479947
      ],
      [
        "▁sentence",
        -10.114830882072877
      ],
      [
        "▁Man",
        -10.11492532952628
      ],
      [
        "▁Iron",
        -10.115660329353592
      ],
      [
        "▁Uzbekistan",
        -10.115675594808687
      ],
      [
        "▁fruit",
        -10.11606576977429
      ],
      [
        "▁sun",
        -10.116407353551011
      ],
      [
        "▁propertie",
        -10.117166994873097
      ],
      [
        "▁universal",
        -10.11888196008791
      ],
      [
        "▁Data",
        -10.118936242040359
      ],
      [
        "▁occurr",
        -10.11969971793225
      ],
      [
        "ом",
        -10.119812776998689
      ],
      [
        "▁teaching",
        -10.12187579091967
      ],
      [
        "▁origin",
        -10.124272366087329
      ],
      [
        "▁photo",
        -10.124418163847327
      ],
      [
        "▁band",
        -10.125138508246184
      ],
      [
        "▁interface",
        -10.125447963787765
      ],
      [
        "▁approval",
        -10.12605759389687
      ],
      [
        "▁entiti",
        -10.126516925334373
      ],
      [
        "▁forth",
        -10.127131133437686
      ],
      [
        "▁federal",
        -10.127357699884211
      ],
      [
        "▁decline",
        -10.127413284604296
      ],
      [
        "▁adult",
        -10.127562615901446
      ],
      [
        "▁pain",
        -10.127810657373526
      ],
      [
        "▁finding",
        -10.127838228241245
      ],
      [
        "▁provider",
        -10.128652694154436
      ],
      [
        "▁audit",
        -10.128760876428707
      ],
      [
        "▁models",
        -10.12895289397467
      ],
      [
        "▁fun",
        -10.129519126265647
      ],
      [
        "▁Inde",
        -10.130180312245502
      ],
      [
        "▁injur",
        -10.131018501570443
      ],
      [
        "▁core",
        -10.131026432463667
      ],
      [
        "▁Deputy",
        -10.13129318166019
      ],
      [
        "▁pick",
        -10.131953421172085
      ],
      [
        "▁speech",
        -10.132555657141628
      ],
      [
        "▁trul",
        -10.133264054148473
      ],
      [
        "▁primari",
        -10.133471965704263
      ],
      [
        "▁Paris",
        -10.134361300404866
      ],
      [
        "▁Hi",
        -10.134586966815917
      ],
      [
        "▁gather",
        -10.13819650973722
      ],
      [
        "▁download",
        -10.138502445728335
      ],
      [
        "▁Alexander",
        -10.138809903048259
      ],
      [
        "▁appeared",
        -10.139995025640994
      ],
      [
        "▁worldwide",
        -10.140159404130278
      ],
      [
        "▁handle",
        -10.140444510253966
      ],
      [
        "▁broad",
        -10.141249382940149
      ],
      [
        "▁television",
        -10.141330580616625
      ],
      [
        "ter",
        -10.141482632124513
      ],
      [
        "▁substance",
        -10.141830748133778
      ],
      [
        "▁Select",
        -10.142853760394267
      ],
      [
        "▁independence",
        -10.143837281304819
      ],
      [
        "▁minute",
        -10.143901558323948
      ],
      [
        "▁Constitution",
        -10.143947955653708
      ],
      [
        "▁stone",
        -10.145265901429445
      ],
      [
        "▁exclusive",
        -10.145372268930863
      ],
      [
        "▁applicab",
        -10.145737679026407
      ],
      [
        "▁Before",
        -10.146193889342818
      ],
      [
        "▁Black",
        -10.146244332688116
      ],
      [
        "▁fresh",
        -10.146877093827248
      ],
      [
        "▁Control",
        -10.146928384038004
      ],
      [
        "▁square",
        -10.147632068103047
      ],
      [
        "▁Washington",
        -10.14832779685665
      ],
      [
        "▁proceeding",
        -10.14836834311255
      ],
      [
        "▁refer",
        -10.148769764074702
      ],
      [
        "▁pattern",
        -10.149280328128716
      ],
      [
        "▁formal",
        -10.150914479296159
      ],
      [
        "▁coffee",
        -10.152498302058245
      ],
      [
        "▁nations",
        -10.152603164120702
      ],
      [
        "▁gift",
        -10.152724096542801
      ],
      [
        "▁dark",
        -10.152741509373797
      ],
      [
        "▁adequate",
        -10.15299731113549
      ],
      [
        "▁afr",
        -10.154568053063656
      ],
      [
        "▁recovery",
        -10.155435580554677
      ],
      [
        "▁organisation",
        -10.155480070585831
      ],
      [
        "▁sister",
        -10.155735908438274
      ],
      [
        "▁shift",
        -10.1563610542483
      ],
      [
        "▁grant",
        -10.156678220119407
      ],
      [
        "▁female",
        -10.157021472577004
      ],
      [
        "▁offering",
        -10.157335497869674
      ],
      [
        "▁frequent",
        -10.157996779978752
      ],
      [
        "▁aircraft",
        -10.158573414174885
      ],
      [
        "▁manag",
        -10.158847805847405
      ],
      [
        "▁Korea",
        -10.159308566317097
      ],
      [
        "▁union",
        -10.15944013885762
      ],
      [
        "ha",
        -10.159558019806537
      ],
      [
        "▁bigge",
        -10.160726710842177
      ],
      [
        "▁pro",
        -10.160916772076952
      ],
      [
        "▁peaceful",
        -10.161309289205322
      ],
      [
        "▁evil",
        -10.161653918418297
      ],
      [
        "▁Academ",
        -10.161924775490299
      ],
      [
        "▁sold",
        -10.162550626521778
      ],
      [
        "▁accepted",
        -10.163374700167207
      ],
      [
        "ring",
        -10.163969912604728
      ],
      [
        "▁measure",
        -10.164409840087494
      ],
      [
        "▁load",
        -10.165743103358169
      ],
      [
        "▁fulfill",
        -10.165784719934951
      ],
      [
        "▁couldn",
        -10.16584862751515
      ],
      [
        "▁cool",
        -10.166852988945731
      ],
      [
        "▁background",
        -10.167268268082832
      ],
      [
        "▁Their",
        -10.167400660279732
      ],
      [
        "▁assign",
        -10.167880190439213
      ],
      [
        "off",
        -10.16811349891018
      ],
      [
        "▁rural",
        -10.168241760277816
      ],
      [
        "▁combination",
        -10.16834483992715
      ],
      [
        "▁quiet",
        -10.16871592596187
      ],
      [
        "▁season",
        -10.16891233177728
      ],
      [
        "AIDS",
        -10.169592095737165
      ],
      [
        "▁annex",
        -10.1697326583356
      ],
      [
        "▁introduc",
        -10.17122861526444
      ],
      [
        "han",
        -10.171846379194253
      ],
      [
        "▁recall",
        -10.172270274065472
      ],
      [
        "▁abroad",
        -10.172426464100763
      ],
      [
        "▁drugs",
        -10.17247533120796
      ],
      [
        "▁executive",
        -10.173337915637632
      ],
      [
        "▁Click",
        -10.173785793864539
      ],
      [
        "▁thanks",
        -10.174187310044857
      ],
      [
        "▁mental",
        -10.175137763569381
      ],
      [
        "▁emerg",
        -10.17693184054286
      ],
      [
        "▁mix",
        -10.177168955834105
      ],
      [
        "▁beach",
        -10.177855509260711
      ],
      [
        "building",
        -10.17824082238122
      ],
      [
        "▁reading",
        -10.178241417170671
      ],
      [
        "▁lawyer",
        -10.17967774522635
      ],
      [
        "▁publication",
        -10.180555490207452
      ],
      [
        "▁resolve",
        -10.180851263418276
      ],
      [
        "▁Paul",
        -10.180870534091536
      ],
      [
        "▁debate",
        -10.181243217470449
      ],
      [
        "▁saving",
        -10.18150763228972
      ],
      [
        "▁twenty",
        -10.181703272674454
      ],
      [
        "▁eye",
        -10.181951311709458
      ],
      [
        "▁punishment",
        -10.182297120690464
      ],
      [
        "ть",
        -10.182459926941512
      ],
      [
        "▁sit",
        -10.183173029216562
      ],
      [
        "▁favor",
        -10.183642799012866
      ],
      [
        "▁whatever",
        -10.1837328138846
      ],
      [
        "▁seminar",
        -10.183863400054022
      ],
      [
        "▁sudden",
        -10.184314087789684
      ],
      [
        "▁School",
        -10.18440116433333
      ],
      [
        "▁guideline",
        -10.184716832271725
      ],
      [
        "▁constitute",
        -10.184868240072861
      ],
      [
        "▁Museum",
        -10.186256781596363
      ],
      [
        "▁learning",
        -10.186302134815831
      ],
      [
        "▁moral",
        -10.186426364839516
      ],
      [
        "▁от",
        -10.186545860301969
      ],
      [
        "bar",
        -10.186695924218299
      ],
      [
        "▁dynamic",
        -10.186947008851153
      ],
      [
        "▁Last",
        -10.186962038544166
      ],
      [
        "ev",
        -10.18826313201597
      ],
      [
        "end",
        -10.189707498020464
      ],
      [
        "We",
        -10.190528257915236
      ],
      [
        "▁refuse",
        -10.190789543572809
      ],
      [
        "▁ideal",
        -10.19112312202596
      ],
      [
        "▁easie",
        -10.19131412667367
      ],
      [
        "▁urge",
        -10.19304939998411
      ],
      [
        "▁accounts",
        -10.193510842826477
      ],
      [
        "▁♪",
        -10.193955613815557
      ],
      [
        "▁trouble",
        -10.194765898132038
      ],
      [
        "▁produc",
        -10.194776653473099
      ],
      [
        "▁advice",
        -10.194826672737065
      ],
      [
        "▁lesson",
        -10.196581093448795
      ],
      [
        "▁Asian",
        -10.196586038413761
      ],
      [
        "▁abuse",
        -10.196654612214507
      ],
      [
        "▁mid",
        -10.1971660095204
      ],
      [
        "▁slight",
        -10.19768731510845
      ],
      [
        "▁drop",
        -10.19782387661358
      ],
      [
        "▁observe",
        -10.198631281647053
      ],
      [
        "army",
        -10.199262500413294
      ],
      [
        "▁images",
        -10.19960650261997
      ],
      [
        "hose",
        -10.20018202211548
      ],
      [
        "all",
        -10.200933363483621
      ],
      [
        "▁prett",
        -10.200965002274112
      ],
      [
        "▁attitude",
        -10.20118904668558
      ],
      [
        "▁В",
        -10.201227263988283
      ],
      [
        "▁cell",
        -10.201722021847242
      ],
      [
        "▁disaster",
        -10.202123861279699
      ],
      [
        "▁manufactur",
        -10.202211433224996
      ],
      [
        "armament",
        -10.202826397952164
      ],
      [
        "▁Holy",
        -10.202844894789429
      ],
      [
        "ten",
        -10.203835124226455
      ],
      [
        "her",
        -10.204114063683567
      ],
      [
        "In",
        -10.204230857349778
      ],
      [
        "▁Annex",
        -10.20423736568213
      ],
      [
        "▁prepar",
        -10.204539509331997
      ],
      [
        "▁emergency",
        -10.204834649136075
      ],
      [
        "▁specify",
        -10.204918131791455
      ],
      [
        "▁diseases",
        -10.205249313297792
      ],
      [
        "▁testing",
        -10.205614467222935
      ],
      [
        "▁species",
        -10.206534162872355
      ],
      [
        "▁Na",
        -10.206870781973683
      ],
      [
        "▁comments",
        -10.207048990748415
      ],
      [
        "▁wonderful",
        -10.207154549257726
      ],
      [
        "▁cable",
        -10.207494937661046
      ],
      [
        "▁Mission",
        -10.208142114422692
      ],
      [
        "▁Year",
        -10.208193997593138
      ],
      [
        "▁heaven",
        -10.208667502403326
      ],
      [
        "▁vision",
        -10.208947512903862
      ],
      [
        "▁Moldova",
        -10.209634104009428
      ],
      [
        "▁compar",
        -10.2101764075918
      ],
      [
        "▁component",
        -10.211959527534946
      ],
      [
        "▁match",
        -10.213033082371496
      ],
      [
        "sky",
        -10.21310855771821
      ],
      [
        "▁producer",
        -10.213149841548784
      ],
      [
        "ke",
        -10.213372680533649
      ],
      [
        "▁cycle",
        -10.214404937835813
      ],
      [
        "▁torture",
        -10.21443643908674
      ],
      [
        "▁worry",
        -10.215023544576884
      ],
      [
        "▁career",
        -10.21615894441415
      ],
      [
        "▁scope",
        -10.217270522848228
      ],
      [
        "▁trafficking",
        -10.217603606276501
      ],
      [
        "▁corresponding",
        -10.218300093042316
      ],
      [
        "ach",
        -10.218437951478961
      ],
      [
        "including",
        -10.21877024385333
      ],
      [
        "▁Area",
        -10.219145432377594
      ],
      [
        "▁statistic",
        -10.220761912786733
      ],
      [
        "html",
        -10.221187258523866
      ],
      [
        "▁fell",
        -10.221627716436013
      ],
      [
        "▁Access",
        -10.221993528543937
      ],
      [
        "▁fixed",
        -10.222011765005927
      ],
      [
        "▁guess",
        -10.222709735243146
      ],
      [
        "▁granted",
        -10.223228895605576
      ],
      [
        "▁description",
        -10.223275088193313
      ],
      [
        "▁rating",
        -10.223574450848961
      ],
      [
        "ship",
        -10.224033854828827
      ],
      [
        "ley",
        -10.224186344299882
      ],
      [
        "▁Spain",
        -10.224526126135041
      ],
      [
        "elected",
        -10.224986607100567
      ],
      [
        "▁Inter",
        -10.225793760915419
      ],
      [
        "д",
        -10.226375606877578
      ],
      [
        "▁larger",
        -10.226499581085694
      ],
      [
        "▁luck",
        -10.227281325818382
      ],
      [
        "▁satellite",
        -10.22837713200308
      ],
      [
        "▁behavior",
        -10.228948973183886
      ],
      [
        "▁dedicated",
        -10.22927053428003
      ],
      [
        "▁permission",
        -10.229277112726393
      ],
      [
        "▁showed",
        -10.229324156437237
      ],
      [
        "free",
        -10.229844415545239
      ],
      [
        "▁Islamic",
        -10.23056105272639
      ],
      [
        "ет",
        -10.23130014884501
      ],
      [
        "▁manual",
        -10.231443464184215
      ],
      [
        "▁links",
        -10.232105366481061
      ],
      [
        "▁lie",
        -10.232129043340045
      ],
      [
        "▁Congress",
        -10.233291140759961
      ],
      [
        "▁formation",
        -10.23390735197857
      ],
      [
        "▁looks",
        -10.236210704211864
      ],
      [
        "▁encounter",
        -10.236364490319342
      ],
      [
        "▁draw",
        -10.23645677067313
      ],
      [
        "▁records",
        -10.23654112336894
      ],
      [
        "▁intellectual",
        -10.23711967485081
      ],
      [
        "▁perspective",
        -10.239122323360796
      ],
      [
        "▁marrie",
        -10.23926025585725
      ],
      [
        "▁highlight",
        -10.239271252771093
      ],
      [
        "▁accident",
        -10.240523264843345
      ],
      [
        "▁Foundation",
        -10.24081159402862
      ],
      [
        "▁reliabl",
        -10.241378977640762
      ],
      [
        "▁heavy",
        -10.241699767891387
      ],
      [
        "▁metal",
        -10.242211327529269
      ],
      [
        "▁destruction",
        -10.242421142275806
      ],
      [
        "▁estate",
        -10.24312153482214
      ],
      [
        "▁mere",
        -10.24328698225424
      ],
      [
        "▁net",
        -10.244238686467966
      ],
      [
        "▁element",
        -10.244559418047936
      ],
      [
        "▁holiday",
        -10.244660973607484
      ],
      [
        "▁Program",
        -10.245219815982686
      ],
      [
        "▁consultations",
        -10.245825557076408
      ],
      [
        "served",
        -10.246112309729865
      ],
      [
        "▁accommodation",
        -10.246328675039639
      ],
      [
        "▁feet",
        -10.247814263297254
      ],
      [
        "▁animals",
        -10.24795303970516
      ],
      [
        "▁resort",
        -10.247999012389544
      ],
      [
        "▁Father",
        -10.248046191163139
      ],
      [
        "minute",
        -10.248554626730723
      ],
      [
        "▁Table",
        -10.250622738008666
      ],
      [
        "significantly",
        -10.250873101170598
      ],
      [
        "в",
        -10.251706018938144
      ],
      [
        "▁increasingly",
        -10.251774934445127
      ],
      [
        "▁regulator",
        -10.252027655383138
      ],
      [
        "▁Follow",
        -10.252098174162809
      ],
      [
        "▁View",
        -10.252099513088634
      ],
      [
        "▁Current",
        -10.252554102832937
      ],
      [
        "▁Belarusian",
        -10.252733372758174
      ],
      [
        "▁Manager",
        -10.252813287701878
      ],
      [
        "▁expression",
        -10.252883966656793
      ],
      [
        "▁examine",
        -10.253143576690405
      ],
      [
        "▁Treaty",
        -10.253668666025408
      ],
      [
        "▁expansion",
        -10.254147646870573
      ],
      [
        "▁substantial",
        -10.254705220628185
      ],
      [
        "▁criteria",
        -10.254708513188941
      ],
      [
        "ists",
        -10.255284090583714
      ],
      [
        "▁supposed",
        -10.255333319770717
      ],
      [
        "▁danger",
        -10.25573528846973
      ],
      [
        "▁minorit",
        -10.256003696463344
      ],
      [
        "▁failed",
        -10.257686633729492
      ],
      [
        "▁extension",
        -10.259208232333112
      ],
      [
        "▁changing",
        -10.261135464818917
      ],
      [
        "▁collect",
        -10.261603150205378
      ],
      [
        "▁shape",
        -10.261727055439462
      ],
      [
        "▁deposit",
        -10.261826947508673
      ],
      [
        "▁JSC",
        -10.263386293832163
      ],
      [
        "▁tomorrow",
        -10.263735635225267
      ],
      [
        "▁capabl",
        -10.264082411647994
      ],
      [
        "▁dog",
        -10.264951109349632
      ],
      [
        "▁Start",
        -10.26504879565586
      ],
      [
        "▁для",
        -10.265425398911713
      ],
      [
        "▁actor",
        -10.265988895287215
      ],
      [
        "▁hurt",
        -10.267147420836157
      ],
      [
        "▁chief",
        -10.267262229178714
      ],
      [
        "▁Technical",
        -10.267725981331786
      ],
      [
        "espite",
        -10.26790288457679
      ],
      [
        "▁fuck",
        -10.26888489190377
      ],
      [
        "ful",
        -10.269366692226043
      ],
      [
        "▁club",
        -10.269463519848138
      ],
      [
        "▁collective",
        -10.270802050816679
      ],
      [
        "▁secretariat",
        -10.272087801341714
      ],
      [
        "▁atmosphere",
        -10.272252809431915
      ],
      [
        "tended",
        -10.27265793209547
      ],
      [
        "▁guidance",
        -10.272836186911523
      ],
      [
        "▁vehicles",
        -10.27320083689556
      ],
      [
        "▁delivered",
        -10.273359382925562
      ],
      [
        "▁conclusion",
        -10.273788968996712
      ],
      [
        "▁passenger",
        -10.273967146027099
      ],
      [
        "▁Sun",
        -10.274415175182758
      ],
      [
        "▁restore",
        -10.275497372363162
      ],
      [
        "▁impose",
        -10.275518417875176
      ],
      [
        "▁suit",
        -10.27555031563066
      ],
      [
        "▁honor",
        -10.27561047902799
      ],
      [
        "▁acquire",
        -10.27622444006927
      ],
      [
        "▁Administration",
        -10.276257390434349
      ],
      [
        "▁spoke",
        -10.276796654280316
      ],
      [
        "▁David",
        -10.276813510800695
      ],
      [
        "▁brain",
        -10.277189118174878
      ],
      [
        "▁ship",
        -10.27725729839989
      ],
      [
        "▁Japanese",
        -10.277429123493782
      ],
      [
        "▁tourist",
        -10.277696419465144
      ],
      [
        "▁Time",
        -10.277939687351537
      ],
      [
        "▁duty",
        -10.277942058486705
      ],
      [
        "▁trie",
        -10.278118119909117
      ],
      [
        "▁recorded",
        -10.278118366439731
      ],
      [
        "▁arm",
        -10.27852160081441
      ],
      [
        "▁spring",
        -10.279411034156052
      ],
      [
        "▁green",
        -10.280350303593476
      ],
      [
        "▁cards",
        -10.280410981734397
      ],
      [
        "▁Network",
        -10.280761957575084
      ],
      [
        "▁foot",
        -10.280949614398272
      ],
      [
        "Z",
        -10.281028815562905
      ],
      [
        "▁expenses",
        -10.28132375463916
      ],
      [
        "ical",
        -10.281593672182147
      ],
      [
        "▁IT",
        -10.281724058220952
      ],
      [
        "▁mainly",
        -10.28272475037905
      ],
      [
        "▁defense",
        -10.282887747206374
      ],
      [
        "▁USD",
        -10.2830343791683
      ],
      [
        "▁extensive",
        -10.283737287079651
      ],
      [
        "▁Non",
        -10.283789881977722
      ],
      [
        "▁neighbor",
        -10.28404358810544
      ],
      [
        "▁Section",
        -10.284500109386638
      ],
      [
        "quality",
        -10.285308467409081
      ],
      [
        "kin",
        -10.285429362752279
      ],
      [
        "▁Sorr",
        -10.285495867077646
      ],
      [
        "▁Un",
        -10.285499892452261
      ],
      [
        "▁scheme",
        -10.287212621738938
      ],
      [
        "▁calling",
        -10.287690960742179
      ],
      [
        "▁recognition",
        -10.287793238574848
      ],
      [
        "▁fly",
        -10.289153700548336
      ],
      [
        "▁rare",
        -10.289576032029215
      ],
      [
        "coming",
        -10.2898424525937
      ],
      [
        "▁Georgian",
        -10.290493272529172
      ],
      [
        "▁affair",
        -10.292201502174471
      ],
      [
        "▁witness",
        -10.292315566782174
      ],
      [
        "▁approache",
        -10.292426192864195
      ],
      [
        "▁supporting",
        -10.293490807074644
      ],
      [
        "ordinary",
        -10.293601303396219
      ],
      [
        "▁Peter",
        -10.293610014012827
      ],
      [
        "▁judge",
        -10.294220666240381
      ],
      [
        "▁ruble",
        -10.295402044150542
      ],
      [
        "▁Cooperation",
        -10.29657566494949
      ],
      [
        "▁newspaper",
        -10.297175828546113
      ],
      [
        "▁occur",
        -10.297554191570136
      ],
      [
        "▁reject",
        -10.297665106986791
      ],
      [
        "▁ongoing",
        -10.297859532202844
      ],
      [
        "▁Listen",
        -10.298205779830043
      ],
      [
        "▁SQL",
        -10.298417433142644
      ],
      [
        "▁presentation",
        -10.298425966206043
      ],
      [
        "▁Saint",
        -10.298632796188517
      ],
      [
        "▁glass",
        -10.298961353134478
      ],
      [
        "▁prompt",
        -10.299524436013042
      ],
      [
        "▁Turkish",
        -10.299845857045971
      ],
      [
        "▁filter",
        -10.300311081053412
      ],
      [
        "▁symbol",
        -10.300392058104322
      ],
      [
        "▁relation",
        -10.300855884797176
      ],
      [
        "▁wine",
        -10.30090481076449
      ],
      [
        "like",
        -10.301001610567877
      ],
      [
        "▁causes",
        -10.30100962564178
      ],
      [
        "▁permit",
        -10.301060968469674
      ],
      [
        "▁Among",
        -10.301227336693877
      ],
      [
        "▁achiev",
        -10.301230487084446
      ],
      [
        "▁Contract",
        -10.301235636052407
      ],
      [
        "▁older",
        -10.301430638987028
      ],
      [
        "▁absence",
        -10.301803054263015
      ],
      [
        "▁bus",
        -10.30192312580736
      ],
      [
        "▁dinner",
        -10.302414465083913
      ],
      [
        "ler",
        -10.303628057241266
      ],
      [
        "▁Italian",
        -10.303821253272009
      ],
      [
        "▁Rapporteur",
        -10.304256271916065
      ],
      [
        "к",
        -10.304503242877873
      ],
      [
        "▁sample",
        -10.30469434649525
      ],
      [
        "▁Australia",
        -10.304758200364851
      ],
      [
        "▁museum",
        -10.304887557339082
      ],
      [
        "▁Czech",
        -10.305109643009082
      ],
      [
        "▁star",
        -10.306293505539767
      ],
      [
        "▁Street",
        -10.306376310450343
      ],
      [
        "▁Friday",
        -10.306537987087735
      ],
      [
        "▁river",
        -10.307161695535033
      ],
      [
        "▁driver",
        -10.307881104353227
      ],
      [
        "▁chair",
        -10.308342758348557
      ],
      [
        "▁Democratic",
        -10.30861837511305
      ],
      [
        "▁Tajikistan",
        -10.308885772301505
      ],
      [
        "▁owner",
        -10.30895581550456
      ],
      [
        "▁supplier",
        -10.30898825050544
      ],
      [
        "▁south",
        -10.30938752931867
      ],
      [
        "▁collaboration",
        -10.31007236303665
      ],
      [
        "▁complaint",
        -10.310504525621823
      ],
      [
        "called",
        -10.310641049321266
      ],
      [
        "▁transportation",
        -10.310716559666886
      ],
      [
        "▁protocol",
        -10.311256588662031
      ],
      [
        "▁concrete",
        -10.311257093493143
      ],
      [
        "▁kitchen",
        -10.312430356071095
      ],
      [
        "▁log",
        -10.312430602136883
      ],
      [
        "▁Sunday",
        -10.312542468662262
      ],
      [
        "▁coast",
        -10.31282419253504
      ],
      [
        "▁caus",
        -10.312914848643423
      ],
      [
        "▁Financial",
        -10.313308063422403
      ],
      [
        "▁CIS",
        -10.313437919084926
      ],
      [
        "▁Justice",
        -10.313690105451304
      ],
      [
        "▁precise",
        -10.314229243289144
      ],
      [
        "▁imagine",
        -10.314825079136906
      ],
      [
        "ем",
        -10.31586558819561
      ],
      [
        "▁password",
        -10.315936216975809
      ],
      [
        "▁dated",
        -10.316037434914652
      ],
      [
        "▁King",
        -10.317193005245038
      ],
      [
        "▁corruption",
        -10.317252231794164
      ],
      [
        "▁innovation",
        -10.3178089583995
      ],
      [
        "▁Regulation",
        -10.318234695414352
      ],
      [
        "ей",
        -10.318328255398066
      ],
      [
        "▁marriage",
        -10.31855477739079
      ],
      [
        "▁DVD",
        -10.319309434016926
      ],
      [
        "▁weather",
        -10.320200636412237
      ],
      [
        "▁About",
        -10.320257576980183
      ],
      [
        "▁instrument",
        -10.32084459496579
      ],
      [
        "▁dance",
        -10.321683810421359
      ],
      [
        "▁transferr",
        -10.322146040161467
      ],
      [
        "▁min",
        -10.322163060127941
      ],
      [
        "▁Pro",
        -10.32372840435451
      ],
      [
        "▁adopt",
        -10.323781288799216
      ],
      [
        "▁senior",
        -10.324402877466532
      ],
      [
        "▁confidence",
        -10.326326102083977
      ],
      [
        "▁push",
        -10.32650347278876
      ],
      [
        "▁meant",
        -10.328260806181751
      ],
      [
        "we",
        -10.328540314546302
      ],
      [
        "which",
        -10.329716856129405
      ],
      [
        "▁Both",
        -10.330361216733198
      ],
      [
        "▁Genev",
        -10.331109614729495
      ],
      [
        "é",
        -10.331233834403221
      ],
      [
        "▁characteristics",
        -10.333026292598625
      ],
      [
        "▁hate",
        -10.333342702429375
      ],
      [
        "▁Stop",
        -10.333704572914435
      ],
      [
        "▁Bush",
        -10.336621931519598
      ],
      [
        "appointed",
        -10.337766551320527
      ],
      [
        "▁weak",
        -10.337903052008887
      ],
      [
        "▁Civil",
        -10.338531813709501
      ],
      [
        "▁apartments",
        -10.339142166408095
      ],
      [
        "▁configuration",
        -10.339320998847485
      ],
      [
        "▁segment",
        -10.339500754516406
      ],
      [
        "▁Monday",
        -10.339601586119347
      ],
      [
        "▁Expert",
        -10.339966758154254
      ],
      [
        "▁rent",
        -10.340041244231415
      ],
      [
        "Add",
        -10.340110896258814
      ],
      [
        "▁Mar",
        -10.340968285129769
      ],
      [
        "▁receiv",
        -10.341277553284726
      ],
      [
        "▁Criminal",
        -10.341965652555803
      ],
      [
        "▁telephone",
        -10.341971873674408
      ],
      [
        "▁switch",
        -10.342098301442878
      ],
      [
        "▁dealing",
        -10.342816100684901
      ],
      [
        "▁Real",
        -10.343180278656924
      ],
      [
        "▁bright",
        -10.343803360057654
      ],
      [
        "▁Safety",
        -10.344924355118915
      ],
      [
        "▁park",
        -10.347115148898276
      ],
      [
        "▁continu",
        -10.347148584348474
      ],
      [
        "▁stable",
        -10.347458201496021
      ],
      [
        "▁Society",
        -10.348753782668014
      ],
      [
        "▁prospect",
        -10.348948079522637
      ],
      [
        "▁governance",
        -10.349304168514326
      ],
      [
        "▁Tell",
        -10.350465584779823
      ],
      [
        "▁suspect",
        -10.350607919975108
      ],
      [
        "▁profile",
        -10.351261319636901
      ],
      [
        "▁song",
        -10.351401574182958
      ],
      [
        "ой",
        -10.352033427664981
      ],
      [
        "▁desk",
        -10.353232143996635
      ],
      [
        "▁module",
        -10.353713511012398
      ],
      [
        "ja",
        -10.354278652282343
      ],
      [
        "▁Press",
        -10.354868942967236
      ],
      [
        "▁River",
        -10.354964423545905
      ],
      [
        "▁adjust",
        -10.355727366961467
      ],
      [
        "▁AND",
        -10.356096124191364
      ],
      [
        "▁none",
        -10.359293208763404
      ],
      [
        "min",
        -10.359515315418026
      ],
      [
        "▁generate",
        -10.35952770512448
      ],
      [
        "▁ratio",
        -10.360224217016384
      ],
      [
        "▁ticket",
        -10.360347732349549
      ],
      [
        "▁technological",
        -10.360501949400726
      ],
      [
        "▁prohibit",
        -10.361073062608536
      ],
      [
        "▁temporar",
        -10.361523805697578
      ],
      [
        "▁tons",
        -10.361561173819545
      ],
      [
        "▁exception",
        -10.36182702278936
      ],
      [
        "▁dry",
        -10.362403114070085
      ],
      [
        "▁medicine",
        -10.362932325357189
      ],
      [
        "ak",
        -10.363741197795882
      ],
      [
        "▁URL",
        -10.364269237682384
      ],
      [
        "▁belief",
        -10.364405862072651
      ],
      [
        "▁closely",
        -10.36542260972228
      ],
      [
        "▁plane",
        -10.365760727012841
      ],
      [
        "▁convince",
        -10.366792516519123
      ],
      [
        "▁lies",
        -10.36748400979416
      ],
      [
        "▁govern",
        -10.367703775425186
      ],
      [
        "▁destination",
        -10.367961612116499
      ],
      [
        "▁urban",
        -10.368026185288585
      ],
      [
        "▁copie",
        -10.36811477316477
      ],
      [
        "▁hall",
        -10.368193277424531
      ],
      [
        "▁Water",
        -10.368406814849234
      ],
      [
        "▁hire",
        -10.368629608066705
      ],
      [
        "▁instructions",
        -10.368849938607102
      ],
      [
        "▁north",
        -10.369473200928743
      ],
      [
        "▁definite",
        -10.369935830888881
      ],
      [
        "▁swimming",
        -10.369938432755239
      ],
      [
        "▁institutional",
        -10.370636205267896
      ],
      [
        "▁chosen",
        -10.371075093578948
      ],
      [
        "▁unable",
        -10.371322510750655
      ],
      [
        "▁suffering",
        -10.371657560256288
      ],
      [
        "▁edit",
        -10.371830317643305
      ],
      [
        "▁residents",
        -10.372141095225066
      ],
      [
        "scale",
        -10.372820881517532
      ],
      [
        "▁Chief",
        -10.372874027037925
      ],
      [
        "▁Parliament",
        -10.372966772525817
      ],
      [
        "▁trend",
        -10.374277417921581
      ],
      [
        "▁detention",
        -10.374984116467774
      ],
      [
        "▁Beside",
        -10.375090995987051
      ],
      [
        "▁Up",
        -10.375230290238985
      ],
      [
        "▁fourth",
        -10.375363771665631
      ],
      [
        "▁vessel",
        -10.376250645548168
      ],
      [
        "▁rock",
        -10.377075336759988
      ],
      [
        "▁blue",
        -10.377362832603858
      ],
      [
        "ification",
        -10.377428958961932
      ],
      [
        "ра",
        -10.378138337927961
      ],
      [
        "▁proceed",
        -10.378154733520265
      ],
      [
        "▁George",
        -10.378206809229013
      ],
      [
        "▁wage",
        -10.37840896769153
      ],
      [
        "▁employ",
        -10.37853464491544
      ],
      [
        "▁Mexico",
        -10.378853539161952
      ],
      [
        "▁print",
        -10.379516356669098
      ],
      [
        "▁bottom",
        -10.379541283799984
      ],
      [
        "▁worse",
        -10.379712812339367
      ],
      [
        "▁stoppe",
        -10.379731894836326
      ],
      [
        "▁Governments",
        -10.380333606433172
      ],
      [
        "▁UNESCO",
        -10.38046518961164
      ],
      [
        "▁audience",
        -10.381271324455161
      ],
      [
        "▁journalists",
        -10.382151235805114
      ],
      [
        "screen",
        -10.383317430620895
      ],
      [
        "▁reduc",
        -10.383739033197493
      ],
      [
        "▁standing",
        -10.383870180155007
      ],
      [
        "▁Latin",
        -10.383883351378127
      ],
      [
        "▁banking",
        -10.384289625716157
      ],
      [
        "▁dimension",
        -10.38435524998063
      ],
      [
        "▁detail",
        -10.384510813303313
      ],
      [
        "▁alive",
        -10.384831546298685
      ],
      [
        "▁winter",
        -10.384929797718081
      ],
      [
        "▁Spanish",
        -10.385037667534828
      ],
      [
        "bit",
        -10.385047879958158
      ],
      [
        "▁creative",
        -10.385416146437084
      ],
      [
        "▁delete",
        -10.38630366868745
      ],
      [
        "▁harm",
        -10.386962557019343
      ],
      [
        "▁institution",
        -10.386984359155907
      ],
      [
        "▁prayer",
        -10.388223894124298
      ],
      [
        "▁division",
        -10.389094596715399
      ],
      [
        "▁Charter",
        -10.389161721874055
      ],
      [
        "▁theme",
        -10.389272870272416
      ],
      [
        "▁repair",
        -10.389345362981947
      ],
      [
        "▁republic",
        -10.38986160191116
      ],
      [
        "▁parking",
        -10.38996586327275
      ],
      [
        "care",
        -10.390090537225438
      ],
      [
        "л",
        -10.390784349730055
      ],
      [
        "▁stations",
        -10.391008286037419
      ],
      [
        "▁remind",
        -10.39181536312946
      ],
      [
        "▁rental",
        -10.392013673840326
      ],
      [
        "▁Latvia",
        -10.39352042138356
      ],
      [
        "€",
        -10.394147448316591
      ],
      [
        "▁Britain",
        -10.394178541328621
      ],
      [
        "▁bear",
        -10.39423811343925
      ],
      [
        "▁repeated",
        -10.394746953143375
      ],
      [
        "▁Next",
        -10.394887802631885
      ],
      [
        "▁translation",
        -10.395825521711853
      ],
      [
        "▁Unit",
        -10.395905682800826
      ],
      [
        "▁marketing",
        -10.396211807415845
      ],
      [
        "▁bilateral",
        -10.396732954841024
      ],
      [
        "▁documentation",
        -10.397621653150644
      ],
      [
        "led",
        -10.397992194280615
      ],
      [
        "▁argument",
        -10.398153404747816
      ],
      [
        "▁organ",
        -10.39851508862343
      ],
      [
        "▁wonder",
        -10.398743835295166
      ],
      [
        "▁membership",
        -10.398854880745894
      ],
      [
        "q",
        -10.399163961574736
      ],
      [
        "▁understo",
        -10.399319914165204
      ],
      [
        "▁reserves",
        -10.399787865056364
      ],
      [
        "▁disk",
        -10.399816514242534
      ],
      [
        "▁conclude",
        -10.40023847513632
      ],
      [
        "▁appreciate",
        -10.401219977559306
      ],
      [
        "▁planet",
        -10.401568907839492
      ],
      [
        "enko",
        -10.401816802892606
      ],
      [
        "▁transactions",
        -10.402331439724938
      ],
      [
        "▁eliminate",
        -10.402760361281809
      ],
      [
        "▁nine",
        -10.402882203174618
      ],
      [
        "▁Advisor",
        -10.403218307072095
      ],
      [
        "▁pure",
        -10.403534717809439
      ],
      [
        "▁Google",
        -10.403845053513736
      ],
      [
        "▁execution",
        -10.405223544017392
      ],
      [
        "▁judicial",
        -10.405286533789056
      ],
      [
        "▁Ha",
        -10.405356776175655
      ],
      [
        "▁arrangements",
        -10.405792366087013
      ],
      [
        "▁gre",
        -10.405903705824114
      ],
      [
        "▁declared",
        -10.405926511552483
      ],
      [
        "▁compensation",
        -10.406477750558604
      ],
      [
        "▁classe",
        -10.406916135995582
      ],
      [
        "▁developer",
        -10.407092181147684
      ],
      [
        "▁chapter",
        -10.407114696747907
      ],
      [
        "▁strange",
        -10.408200736621266
      ],
      [
        "use",
        -10.408246260455904
      ],
      [
        "▁vital",
        -10.40848075981813
      ],
      [
        "gen",
        -10.408699963348772
      ],
      [
        "Q",
        -10.409000777564087
      ],
      [
        "▁urgent",
        -10.409105323222596
      ],
      [
        "▁lift",
        -10.409628342765796
      ],
      [
        "wise",
        -10.409657336468047
      ],
      [
        "▁recogniz",
        -10.409904745958698
      ],
      [
        "▁courts",
        -10.410896872860068
      ],
      [
        "illennium",
        -10.411629410174736
      ],
      [
        "▁pipeline",
        -10.411762027196298
      ],
      [
        "tic",
        -10.4123689487111
      ],
      [
        "▁Finland",
        -10.412448836587973
      ],
      [
        "▁cheap",
        -10.412717156339399
      ],
      [
        "▁observation",
        -10.413814147953635
      ],
      [
        "▁Word",
        -10.413977689681843
      ],
      [
        "▁identity",
        -10.415151363380275
      ],
      [
        "▁lay",
        -10.41543278908884
      ],
      [
        "▁channel",
        -10.417008466452588
      ],
      [
        "▁introduction",
        -10.417482480279869
      ],
      [
        "▁camp",
        -10.417969896508513
      ],
      [
        "▁parameters",
        -10.418287276693995
      ],
      [
        "▁engineering",
        -10.418423085608747
      ],
      [
        "▁cars",
        -10.418527300037624
      ],
      [
        "р",
        -10.41930673900672
      ],
      [
        "▁male",
        -10.419812427469914
      ],
      [
        "▁troops",
        -10.420125127618308
      ],
      [
        "▁Art",
        -10.420273382944478
      ],
      [
        "▁Summit",
        -10.420294075706344
      ],
      [
        "▁appearance",
        -10.4204885565458
      ],
      [
        "▁pursue",
        -10.420948674840352
      ],
      [
        "▁animal",
        -10.421004619513957
      ],
      [
        "▁healthy",
        -10.421079798114668
      ],
      [
        "dvertising",
        -10.421196609623617
      ],
      [
        "▁losses",
        -10.421279046333908
      ],
      [
        "▁USSR",
        -10.421737735642264
      ],
      [
        "▁kids",
        -10.42296801202761
      ],
      [
        "ties",
        -10.423589916832574
      ],
      [
        "▁consult",
        -10.424083543944086
      ],
      [
        "▁forecast",
        -10.424185509691846
      ],
      [
        "▁Home",
        -10.424440351329466
      ],
      [
        "▁White",
        -10.424714231904929
      ],
      [
        "▁houses",
        -10.425158363701545
      ],
      [
        "▁steel",
        -10.42537456623893
      ],
      [
        "▁legislative",
        -10.425489354533012
      ],
      [
        "▁при",
        -10.42556731746199
      ],
      [
        "▁gradual",
        -10.426260874516672
      ],
      [
        "ware",
        -10.426513890645957
      ],
      [
        "authorized",
        -10.427344193421423
      ],
      [
        "pp",
        -10.427365790257891
      ],
      [
        "▁happens",
        -10.428222840059197
      ],
      [
        "▁tea",
        -10.428926202080302
      ],
      [
        "▁loans",
        -10.428927822787223
      ],
      [
        "▁intention",
        -10.42926670988361
      ],
      [
        "▁cancer",
        -10.429318975770698
      ],
      [
        "▁revolution",
        -10.43066368177509
      ],
      [
        "izing",
        -10.4307567119168
      ],
      [
        "▁Review",
        -10.430987989841046
      ],
      [
        "▁computers",
        -10.432024179927767
      ],
      [
        "▁para",
        -10.432036423832216
      ],
      [
        "▁trends",
        -10.432244282833878
      ],
      [
        "▁undertaken",
        -10.432722212361146
      ],
      [
        "▁metre",
        -10.432759276533258
      ],
      [
        "AD",
        -10.43282040412857
      ],
      [
        "▁continuous",
        -10.433771599334378
      ],
      [
        "▁channels",
        -10.433927315965146
      ],
      [
        "▁Environment",
        -10.434146092645715
      ],
      [
        "▁severe",
        -10.434364288449919
      ],
      [
        "▁photos",
        -10.434938490707253
      ],
      [
        "▁latter",
        -10.43497543128919
      ],
      [
        "▁Yet",
        -10.435173814521423
      ],
      [
        "bank",
        -10.435544601740233
      ],
      [
        "▁battle",
        -10.435662158527808
      ],
      [
        "sk",
        -10.43619136289146
      ],
      [
        "▁closer",
        -10.436304296550738
      ],
      [
        "▁Division",
        -10.436977587952628
      ],
      [
        "▁Channel",
        -10.43727901308032
      ],
      [
        "▁warning",
        -10.437439810311222
      ],
      [
        "▁Mac",
        -10.438245354692047
      ],
      [
        "▁jurisdiction",
        -10.438321206097127
      ],
      [
        "▁anniversar",
        -10.438321206106615
      ],
      [
        "▁declaration",
        -10.438352510498868
      ],
      [
        "▁cells",
        -10.440577859076559
      ],
      [
        "▁Part",
        -10.440596417459794
      ],
      [
        "▁conversation",
        -10.441026073871276
      ],
      [
        "▁widely",
        -10.44132835247974
      ],
      [
        "▁examination",
        -10.441453330280492
      ],
      [
        "▁sole",
        -10.441633880480296
      ],
      [
        "▁mountain",
        -10.443301477744047
      ],
      [
        "▁comment",
        -10.443647030142998
      ],
      [
        "gun",
        -10.443679765379354
      ],
      [
        "▁soldiers",
        -10.443774438355927
      ],
      [
        "▁из",
        -10.4438312083205
      ],
      [
        "▁gap",
        -10.444438693209811
      ],
      [
        "▁Work",
        -10.44657271568821
      ],
      [
        "after",
        -10.44670274221955
      ],
      [
        "з",
        -10.446861846132158
      ],
      [
        "▁straight",
        -10.447426107953895
      ],
      [
        "▁addresse",
        -10.447621257557937
      ],
      [
        "▁linked",
        -10.448773331030269
      ],
      [
        "▁III",
        -10.449422150714366
      ],
      [
        "▁dear",
        -10.449489257999904
      ],
      [
        "▁recording",
        -10.449737529302022
      ],
      [
        "▁disappear",
        -10.450342874634213
      ],
      [
        "▁beauty",
        -10.450455570161505
      ],
      [
        "▁contracts",
        -10.450793015408195
      ],
      [
        "▁Perhap",
        -10.451081748093134
      ],
      [
        "Netherlands",
        -10.451211480950278
      ],
      [
        "▁hearing",
        -10.451351510416796
      ],
      [
        "▁concert",
        -10.451453256920963
      ],
      [
        "▁Radio",
        -10.452382139161738
      ],
      [
        "▁availabilit",
        -10.453178591319887
      ],
      [
        "▁eventual",
        -10.45472632676913
      ],
      [
        "▁farm",
        -10.454828551370523
      ],
      [
        "▁branch",
        -10.455166887487543
      ],
      [
        "▁relax",
        -10.45539855091878
      ],
      [
        "▁settle",
        -10.455803090282245
      ],
      [
        "erritories",
        -10.455815836131947
      ],
      [
        "▁consent",
        -10.456012126622841
      ],
      [
        "▁Egypt",
        -10.456654620027242
      ],
      [
        "▁jobs",
        -10.457329675872835
      ],
      [
        "▁reward",
        -10.458814756044873
      ],
      [
        "▁blow",
        -10.459110502740524
      ],
      [
        "▁seeking",
        -10.459183737212138
      ],
      [
        "▁conflicts",
        -10.459973369637027
      ],
      [
        "▁drawing",
        -10.459997998303123
      ],
      [
        "▁loan",
        -10.46009689058849
      ],
      [
        "On",
        -10.460235231056199
      ],
      [
        "▁throw",
        -10.460275801717984
      ],
      [
        "▁acting",
        -10.461397249102756
      ],
      [
        "▁intervention",
        -10.462731683384392
      ],
      [
        "▁Fax",
        -10.463379452883594
      ],
      [
        "▁Commissioner",
        -10.46361143863118
      ],
      [
        "▁convention",
        -10.463792629480336
      ],
      [
        "▁OK",
        -10.46386224350568
      ],
      [
        "▁sides",
        -10.464088276406747
      ],
      [
        "▁magazine",
        -10.464724649556054
      ],
      [
        "▁absolutely",
        -10.465186270191186
      ],
      [
        "▁Does",
        -10.465296529574553
      ],
      [
        "▁Brazil",
        -10.465633483248066
      ],
      [
        "▁protest",
        -10.467710946410328
      ],
      [
        "▁Michael",
        -10.46773113246857
      ],
      [
        "▁circle",
        -10.467808692886972
      ],
      [
        "▁Panel",
        -10.467855116782385
      ],
      [
        "▁onto",
        -10.467967769934733
      ],
      [
        "▁comfort",
        -10.468418421600463
      ],
      [
        "▁replace",
        -10.468439013657694
      ],
      [
        "▁vast",
        -10.4684717333045
      ],
      [
        "▁taste",
        -10.468749311971502
      ],
      [
        "▁innovative",
        -10.469135636728165
      ],
      [
        "▁secondary",
        -10.469849926162746
      ],
      [
        "▁servant",
        -10.47127869023322
      ],
      [
        "▁Check",
        -10.471676848144224
      ],
      [
        "▁brief",
        -10.471944988592131
      ],
      [
        "▁Spirit",
        -10.472605191024442
      ],
      [
        "▁honest",
        -10.472606535489888
      ],
      [
        "▁www",
        -10.47263295443453
      ],
      [
        "▁Mom",
        -10.473064069108494
      ],
      [
        "house",
        -10.473325228706223
      ],
      [
        "▁Technology",
        -10.474002936010471
      ],
      [
        "▁convenient",
        -10.475997226854094
      ],
      [
        "▁flat",
        -10.476174666007667
      ],
      [
        "▁Make",
        -10.477395224198428
      ],
      [
        "▁driving",
        -10.477689942970084
      ],
      [
        "▁migrant",
        -10.47828405905446
      ],
      [
        "tion",
        -10.479373399654618
      ],
      [
        "▁universit",
        -10.480009000953387
      ],
      [
        "▁hardware",
        -10.480475716157176
      ],
      [
        "▁residence",
        -10.48103801405929
      ],
      [
        "▁liquid",
        -10.481597224298687
      ],
      [
        "▁valuable",
        -10.481828697667291
      ],
      [
        "▁detect",
        -10.482486923900439
      ],
      [
        "▁input",
        -10.48436429697249
      ],
      [
        "▁capture",
        -10.485187748502398
      ],
      [
        "▁crazy",
        -10.48524341899418
      ],
      [
        "▁burn",
        -10.485335205825688
      ],
      [
        "▁organize",
        -10.485917863056901
      ],
      [
        "▁obligation",
        -10.48624722391001
      ],
      [
        "▁grounds",
        -10.486594976503664
      ],
      [
        "▁succeed",
        -10.486656467491233
      ],
      [
        "▁Euro",
        -10.487040319199473
      ],
      [
        "▁telling",
        -10.487209181091997
      ],
      [
        "▁expensive",
        -10.487370327670535
      ],
      [
        "▁sick",
        -10.487796250298626
      ],
      [
        "vi",
        -10.488938443963807
      ],
      [
        "▁heads",
        -10.489604763323026
      ],
      [
        "▁transmission",
        -10.490202551030016
      ],
      [
        "▁Indian",
        -10.490255089225277
      ],
      [
        "▁District",
        -10.49044936296079
      ],
      [
        "with",
        -10.490597565482027
      ],
      [
        "▁migration",
        -10.490707648160274
      ],
      [
        "▁pilot",
        -10.491031933128088
      ],
      [
        "▁terribl",
        -10.491621306340328
      ],
      [
        "▁strike",
        -10.492813854534049
      ],
      [
        "▁identifie",
        -10.493032991004648
      ],
      [
        "air",
        -10.493496223167899
      ],
      [
        "▁Master",
        -10.493527517400166
      ],
      [
        "▁vulnerab",
        -10.496103485189192
      ],
      [
        "▁informal",
        -10.496645048676555
      ],
      [
        "twic",
        -10.496966925246237
      ],
      [
        "▁architecture",
        -10.49733430538716
      ],
      [
        "▁Professor",
        -10.49792689339304
      ],
      [
        "▁tab",
        -10.49837787200552
      ],
      [
        "ng",
        -10.499048558293886
      ],
      [
        "▁wealth",
        -10.50005740192835
      ],
      [
        "▁securities",
        -10.500210532571284
      ],
      [
        "▁Nothing",
        -10.500213337593165
      ],
      [
        "▁sitting",
        -10.501669031094846
      ],
      [
        "▁scenario",
        -10.502343062491594
      ],
      [
        "▁Thursday",
        -10.50241219205691
      ],
      [
        "▁assume",
        -10.502596546399584
      ],
      [
        "▁reservation",
        -10.502681038343182
      ],
      [
        "▁library",
        -10.502705336352927
      ],
      [
        "▁UK",
        -10.504031014087657
      ],
      [
        "▁responsibilit",
        -10.504201810040769
      ],
      [
        "▁diet",
        -10.504657152217948
      ],
      [
        "▁Transport",
        -10.504700145282577
      ],
      [
        "▁Show",
        -10.505595231645641
      ],
      [
        "▁association",
        -10.505601116632361
      ],
      [
        "AL",
        -10.505724423563144
      ],
      [
        "▁restrictions",
        -10.505902533152412
      ],
      [
        "▁suitabl",
        -10.505927913076734
      ],
      [
        "▁argue",
        -10.506669031776587
      ],
      [
        "▁bill",
        -10.506688356478438
      ],
      [
        "Re",
        -10.507339792398495
      ],
      [
        "▁sharp",
        -10.508908674907879
      ],
      [
        "▁conclud",
        -10.5092651944955
      ],
      [
        "ING",
        -10.509645518071629
      ],
      [
        "art",
        -10.510087372177303
      ],
      [
        "▁Ma",
        -10.510543828033487
      ],
      [
        "▁involvement",
        -10.5106177232273
      ],
      [
        "▁Roman",
        -10.51066016325342
      ],
      [
        "▁preserve",
        -10.5111210899201
      ],
      [
        "▁glad",
        -10.512511447008212
      ],
      [
        "▁dress",
        -10.512711086707961
      ],
      [
        "▁meter",
        -10.5136842743462
      ],
      [
        "▁visa",
        -10.514462511580657
      ],
      [
        "▁reasonable",
        -10.514562689456783
      ],
      [
        "▁retain",
        -10.514636486195279
      ],
      [
        "▁shar",
        -10.514697019244654
      ],
      [
        "▁surrounding",
        -10.514755807065914
      ],
      [
        "▁expertise",
[...]
