{
  "version": "1.0",
  "truncation": null,
  "padding": null,
  "added_tokens": [
    {
      "id": 0,
      "content": "<pad>",
      "single_word": false,
      "lstrip": false,
      "rstrip": false,
      "normalized": false,
      "special": true
    },
    {
      "id": 1,
      "content": "<s>",
      "single_word": false,
      "lstrip": false,
      "rstrip": false,
      "normalized": false,
      "special": true
    },
    {
      "id": 2,
      "content": "</s>",
      "single_word": false,
      "lstrip": false,
      "rstrip": false,
      "normalized": false,
      "special": true
    },
    {
      "id": 3,
      "content": "<unk>",
      "single_word": false,
      "lstrip": false,
      "rstrip": false,
      "normalized": false,
      "special": true
    }
  ],
  "normalizer": {
    "type": "NFKC"
  },
  "pre_tokenizer": {
    "type": "Sequence",
    "pretokenizers": [
      {
        "type": "Metaspace",
        "replacement": "▁",
        "prepend_scheme": "always",
        "split": true
      },
      {
        "type": "Punctuation",
        "behavior": "Isolated"
      },
      {
        "type": "Digits",
        "individual_digits": true
      }
    ]
  },
  "post_processor": {
    "type": "TemplateProcessing",
    "single": [
      {
        "SpecialToken": {
          "id": "<s>",
          "type_id": 0
        }
      },
      {
        "Sequence": {
          "id": "A",
          "type_id": 0
        }
      },
      {
        "SpecialToken": {
          "id": "</s>",
          "type_id": 0
        }
      }
    ],
    "pair": [
      {
        "Sequence": {
          "id": "A",
          "type_id": 0
        }
      },
      {
        "Sequence": {
          "id": "B",
          "type_id": 1
        }
      }
    ],
    "special_tokens": {
      "</s>": {
        "id": "</s>",
        "ids": [
          2
        ],
        "tokens": [
          "</s>"
        ]
      },
      "<s>": {
        "id": "<s>",
        "ids": [
          1
        ],
        "tokens": [
          "<s>"
        ]
      }
    }
  },
  "decoder": {
    "type": "Metaspace",
    "replacement": "▁",
    "prepend_scheme": "always",
    "split": true
  },
  "model": {
    "type": "Unigram",
    "unk_id": 3,
    "vocab": [
      [
        "<pad>",
        0.0
      ],
      [
        "<s>",
        0.0
      ],
      [
        "</s>",
        0.0
      ],
      [
        "<unk>",
        0.0
      ],
      [
        "▁",
        -2.8893410794350736
      ],
      [
        ",",
        -3.139960822462408
      ],
      [
        "▁the",
        -3.220759078463189
      ],
      [
        ".",
        -3.3236425916784285
      ],
      [
        "s",
        -3.660412759134111
      ],
      [
        "▁of",
        -3.665719535215473
      ],
      [
        "▁and",
        -3.953372658073061
      ],
      [
        "a",
        -4.097433884504412
      ],
      [
        "▁to",
        -4.128763082493505
      ],
      [
        "▁in",
        -4.384854836573531
      ],
      [
        "0",
        -4.412652721608948
      ],
      [
        "1",
        -4.5623540851498845
      ],
      [
        "-",
        -4.720160215399167
      ],
      [
        "2",
        -4.747814966287235
      ],
      [
        "▁is",
        -4.883004515322481
      ],
      [
        ":",
        -4.941921604714208
      ],
      [
        "▁for",
        -5.014258752876231
      ],
      [
        "t",
        -5.135858454384778
      ],
      [
        "▁that",
        -5.267108885468412
      ],
      [
        "ing",
        -5.320704492652782
      ],
      [
        "▁The",
        -5.3381359653106895
      ],
      [
        "▁with",
        -5.355252763096987
      ],
      [
        "ed",
        -5.397860743695425
      ],
      [
        "3",
        -5.403213161547701
      ],
      [
        "'",
        -5.4077074394787665
      ],
      [
        "▁on",
        -5.431531304559304
      ],
      [
        "5",
        -5.437385099521
      ],
      [
        ")",
        -5.446972522844831
      ],
      [
        "▁you",
        -5.4487682669011015
      ],
      [
        "d",
        -5.466222994862838
      ],
      [
        "(",
        -5.482020374331926
      ],
      [
        "4",
        -5.555545191710973
      ],
      [
        "\"",
        -5.556605435647741
      ],
      [
        "y",
        -5.618366029808019
      ],
      [
        "▁are",
        -5.620275461343217
      ],
      [
        "e",
        -5.625083480379045
      ],
      [
        "▁be",
        -5.635428241165833
      ],
      [
        "▁as",
        -5.700526355847375
      ],
      [
        "9",
        -5.703858154182768
      ],
      [
        "▁it",
        -5.74715145722902
      ],
      [
        "6",
        -5.783929393647641
      ],
      [
        "▁I",
        -5.789375678949332
      ],
      [
        "▁by",
        -5.796298829474564
      ],
      [
        "8",
        -5.8470651809200245
      ],
      [
        "▁from",
        -5.87197061148138
      ],
      [
        "7",
        -5.890112560949751
      ],
      [
        "ly",
        -5.909405463449664
      ],
      [
        "▁or",
        -5.975648806456217
      ],
      [
        "▁not",
        -5.978758999519227
      ],
      [
        "o",
        -5.979215349378144
      ],
      [
        "▁will",
        -5.986836586397089
      ],
      [
        ";",
        -5.98739243894269
      ],
      [
        "/",
        -6.02432618527734
      ],
      [
        "▁was",
        -6.026151701574477
      ],
      [
        "▁this",
        -6.063505462935366
      ],
      [
        "n",
        -6.085041992103083
      ],
      [
        "▁have",
        -6.100879285411702
      ],
      [
        "▁your",
        -6.123029811651145
      ],
      [
        "▁can",
        -6.246346987983655
      ],
      [
        "▁an",
        -6.25208593822112
      ],
      [
        "i",
        -6.294746567609591
      ],
      [
        "?",
        -6.316914524353201
      ],
      [
        "▁all",
        -6.368683535909355
      ],
      [
        "▁which",
        -6.415920833760225
      ],
      [
        "m",
        -6.43112435416109
      ],
      [
        "▁has",
        -6.446834637841054
      ],
      [
        "▁In",
        -6.534285741931015
      ],
      [
        "▁their",
        -6.562552075179044
      ],
      [
        "▁we",
        -6.581341433155899
      ],
      [
        "he",
        -6.685638562371093
      ],
      [
        "▁one",
        -6.6871974854235905
      ],
      [
        "’",
        -6.740161405719542
      ],
      [
        "▁A",
        -6.752872766713887
      ],
      [
        "▁but",
        -6.773821313541289
      ],
      [
        "r",
        -6.794629825974434
      ],
      [
        "▁his",
        -6.795663270983447
      ],
      [
        "▁other",
        -6.810313493177922
      ],
      [
        "▁our",
        -6.81275439059627
      ],
      [
        "▁its",
        -6.815231055259186
      ],
      [
        "▁more",
        -6.831964824754037
      ],
      [
        "▁It",
        -6.850716378081248
      ],
      [
        "▁also",
        -6.863473979099812
      ],
      [
        "▁they",
        -6.867920392559139
      ],
      [
        "▁ago",
        -6.874092446534604
      ],
      [
        "▁about",
        -6.891110294856885
      ],
      [
        "▁were",
        -6.895449134562721
      ],
      [
        "▁who",
        -6.918174381099615
      ],
      [
        "!",
        -6.940149029727085
      ],
      [
        "▁time",
        -6.944334374031174
      ],
      [
        "▁This",
        -6.981435317674924
      ],
      [
        "▁been",
        -7.033285553209632
      ],
      [
        "▁there",
        -7.048564716679715
      ],
      [
        "▁do",
        -7.059191313151494
      ],
      [
        "▁new",
        -7.0809530479123985
      ],
      [
        "g",
        -7.096252008063429
      ],
      [
        "▁up",
        -7.097251278679353
      ],
      [
        "▁file",
        -7.111823607998126
      ],
      [
        "▁only",
        -7.1131571188926905
      ],
      [
        "h",
        -7.11448347768391
      ],
      [
        "▁them",
        -7.1288583205884795
      ],
      [
        "▁You",
        -7.143621630173362
      ],
      [
        "“",
        -7.152667123631163
      ],
      [
        "▁We",
        -7.1578514865769165
      ],
      [
        "”",
        -7.166746449212146
      ],
      [
        "▁people",
        -7.189209345349534
      ],
      [
        "▁into",
        -7.195345410866164
      ],
      [
        "▁any",
        -7.196723273400677
      ],
      [
        "▁had",
        -7.203522295387904
      ],
      [
        "▁out",
        -7.211511740969311
      ],
      [
        "*",
        -7.233984156737023
      ],
      [
        "▁years",
        -7.239030021701764
      ],
      [
        "–",
        -7.24866783764627
      ],
      [
        "▁when",
        -7.254053502122151
      ],
      [
        "▁And",
        -7.255331046287672
      ],
      [
        "▁no",
        -7.277950793691831
      ],
      [
        "▁if",
        -7.279961639314347
      ],
      [
        "▁information",
        -7.291584152735375
      ],
      [
        "%",
        -7.307132878175006
      ],
      [
        "in",
        -7.314225260997436
      ],
      [
        "▁than",
        -7.320120144191343
      ],
      [
        "▁use",
        -7.321237640147489
      ],
      [
        "▁my",
        -7.330010538548375
      ],
      [
        "▁such",
        -7.341047774016232
      ],
      [
        "▁what",
        -7.347724735233738
      ],
      [
        "c",
        -7.365675129810761
      ],
      [
        "▁would",
        -7.371144686510018
      ],
      [
        "▁first",
        -7.37297178952983
      ],
      [
        "▁me",
        -7.374515085983942
      ],
      [
        "▁If",
        -7.381608865871312
      ],
      [
        "▁well",
        -7.387854795726707
      ],
      [
        "l",
        -7.390076724611207
      ],
      [
        "▁should",
        -7.4055496657203275
      ],
      [
        "▁these",
        -7.406582478244941
      ],
      [
        "▁may",
        -7.408432680947607
      ],
      [
        "f",
        -7.411684329641249
      ],
      [
        "▁most",
        -7.4494797623647155
      ],
      [
        "re",
        -7.45472796277004
      ],
      [
        "▁work",
        -7.459872884230332
      ],
      [
        "&",
        -7.492075930461725
      ],
      [
        "on",
        -7.492540003951699
      ],
      [
        "▁For",
        -7.492778067184696
      ],
      [
        "▁year",
        -7.513456525255382
      ],
      [
        "▁said",
        -7.513613041234802
      ],
      [
        "▁him",
        -7.5140524438279215
      ],
      [
        "▁system",
        -7.52115806433741
      ],
      [
        "ies",
        -7.522447503473604
      ],
      [
        "▁Russian",
        -7.52326366182311
      ],
      [
        "▁two",
        -7.5401977127883715
      ],
      [
        "▁us",
        -7.551665744142674
      ],
      [
        "▁like",
        -7.556055981197057
      ],
      [
        "▁He",
        -7.556817694924449
      ],
      [
        "▁some",
        -7.56836663523044
      ],
      [
        "▁world",
        -7.570099856601283
      ],
      [
        "b",
        -7.583086499100169
      ],
      [
        "▁very",
        -7.583429381824894
      ],
      [
        "▁how",
        -7.5921469074304735
      ],
      [
        "—",
        -7.595872825038704
      ],
      [
        "▁over",
        -7.601385877227431
      ],
      [
        "u",
        -7.606313447028107
      ],
      [
        "▁know",
        -7.609534831131731
      ],
      [
        "p",
        -7.619942691269777
      ],
      [
        "▁need",
        -7.647566411031233
      ],
      [
        "th",
        -7.659705039370374
      ],
      [
        "▁her",
        -7.673360985784955
      ],
      [
        "▁after",
        -7.6808655359524085
      ],
      [
        "▁development",
        -7.689749524978195
      ],
      [
        "▁number",
        -7.691640819605869
      ],
      [
        "▁many",
        -7.700345163170628
      ],
      [
        "S",
        -7.706315033397766
      ],
      [
        "▁now",
        -7.715566789425166
      ],
      [
        "▁To",
        -7.72162732973057
      ],
      [
        "▁through",
        -7.7264299083255885
      ],
      [
        "▁where",
        -7.732330214366129
      ],
      [
        "▁open",
        -7.736313607801698
      ],
      [
        "▁under",
        -7.741727757052747
      ],
      [
        "▁Russia",
        -7.742347838293972
      ],
      [
        "▁between",
        -7.746182117830777
      ],
      [
        "▁shall",
        -7.752180018498093
      ],
      [
        "▁used",
        -7.754214552101045
      ],
      [
        "▁But",
        -7.766229134185384
      ],
      [
        "▁even",
        -7.776509000198983
      ],
      [
        "▁must",
        -7.777038609355175
      ],
      [
        "+",
        -7.779867784797425
      ],
      [
        "A",
        -7.7838494898066415
      ],
      [
        "▁make",
        -7.7877695597088845
      ],
      [
        "▁those",
        -7.788215823697428
      ],
      [
        "▁just",
        -7.7887915520001805
      ],
      [
        "▁see",
        -7.790339861442414
      ],
      [
        "able",
        -7.792084707405012
      ],
      [
        "▁right",
        -7.793312163858436
      ],
      [
        "▁months",
        -7.796703494427394
      ],
      [
        "▁made",
        -7.803085715160547
      ],
      [
        "▁way",
        -7.806815154807303
      ],
      [
        "▁life",
        -7.815195594224585
      ],
      [
        "k",
        -7.820253912026605
      ],
      [
        "▁want",
        -7.829000639285535
      ],
      [
        "▁take",
        -7.837992071962873
      ],
      [
        "▁high",
        -7.844562218248484
      ],
      [
        "▁free",
        -7.847173651917014
      ],
      [
        "▁day",
        -7.8543066167933695
      ],
      [
        "▁part",
        -7.855356176664671
      ],
      [
        "I",
        -7.860748840030746
      ],
      [
        "▁place",
        -7.874876595651946
      ],
      [
        "▁countries",
        -7.881202871756946
      ],
      [
        "|",
        -7.882941396870802
      ],
      [
        "or",
        -7.8833948438164665
      ],
      [
        "▁God",
        -7.886156927669887
      ],
      [
        "▁international",
        -7.888636498324329
      ],
      [
        "▁same",
        -7.895281177068183
      ],
      [
        "▁could",
        -7.914930847732245
      ],
      [
        "al",
        -7.9173144922087175
      ],
      [
        "an",
        -7.932969505037018
      ],
      [
        "▁company",
        -7.935441501615575
      ],
      [
        "▁get",
        -7.937653820620346
      ],
      [
        "▁service",
        -7.940366323953086
      ],
      [
        "▁during",
        -7.94606770348047
      ],
      [
        "▁support",
        -7.948272834443225
      ],
      [
        "▁every",
        -7.948466516303984
      ],
      [
        "▁before",
        -7.953567040800511
      ],
      [
        "▁S",
        -7.955865439305361
      ],
      [
        "▁available",
        -7.957722151849932
      ],
      [
        "▁No",
        -7.968732824006787
      ],
      [
        "▁because",
        -7.971668799172406
      ],
      [
        "▁What",
        -7.973182936971625
      ],
      [
        "▁country",
        -7.973746211834889
      ],
      [
        "▁big",
        -7.985154960068099
      ],
      [
        "▁software",
        -7.993732212711954
      ],
      [
        "▁within",
        -7.997854434410035
      ],
      [
        "▁own",
        -8.00234037834683
      ],
      [
        "▁using",
        -8.004385638250957
      ],
      [
        "▁There",
        -8.009745105821096
      ],
      [
        "▁data",
        -8.018459910622221
      ],
      [
        "▁against",
        -8.019981401307968
      ],
      [
        "▁here",
        -8.020522369454854
      ],
      [
        "▁order",
        -8.022315750969694
      ],
      [
        "▁being",
        -8.026420831909288
      ],
      [
        "▁including",
        -8.029531982022684
      ],
      [
        "▁without",
        -8.029817887298421
      ],
      [
        "▁state",
        -8.037277356929954
      ],
      [
        "▁good",
        -8.040738112071287
      ],
      [
        "]",
        -8.042120975887153
      ],
      [
        "▁long",
        -8.044981301663476
      ],
      [
        "▁As",
        -8.045767802274113
      ],
      [
        "▁days",
        -8.046445028573888
      ],
      [
        "▁power",
        -8.047495535782637
      ],
      [
        "▁each",
        -8.05157077578551
      ],
      [
        "▁On",
        -8.055210352861724
      ],
      [
        "▁help",
        -8.064920236870739
      ],
      [
        "▁Republic",
        -8.075514439006623
      ],
      [
        "▁different",
        -8.09034249917979
      ],
      [
        "[",
        -8.090365638956236
      ],
      [
        "▁following",
        -8.099560235623127
      ],
      [
        "▁she",
        -8.102881613506604
      ],
      [
        "▁They",
        -8.102914929918633
      ],
      [
        "▁All",
        -8.104988448407337
      ],
      [
        "▁public",
        -8.105352474843436
      ],
      [
        "▁children",
        -8.110200325329405
      ],
      [
        "▁services",
        -8.110584906778255
      ],
      [
        "▁great",
        -8.130778162873694
      ],
      [
        "▁program",
        -8.135525406402675
      ],
      [
        "▁back",
        -8.14018582390791
      ],
      [
        "▁process",
        -8.145833422728597
      ],
      [
        "is",
        -8.147883113419994
      ],
      [
        "▁both",
        -8.1486800958009
      ],
      [
        "▁does",
        -8.149784102777344
      ],
      [
        "to",
        -8.154469645155988
      ],
      [
        "▁three",
        -8.154534349818741
      ],
      [
        "x",
        -8.156069208006585
      ],
      [
        "▁business",
        -8.15714473778017
      ],
      [
        "▁How",
        -8.157798390021826
      ],
      [
        "▁name",
        -8.158832136844982
      ],
      [
        "ll",
        -8.16282219494647
      ],
      [
        "▁city",
        -8.164153737713857
      ],
      [
        "▁best",
        -8.168088361643997
      ],
      [
        "▁did",
        -8.168513473978427
      ],
      [
        "$",
        -8.168617699270115
      ],
      [
        "▁water",
        -8.170167537219614
      ],
      [
        "▁go",
        -8.170531575247924
      ],
      [
        "▁important",
        -8.175883642918153
      ],
      [
        "▁find",
        -8.177747277151697
      ],
      [
        "▁United",
        -8.178513800581447
      ],
      [
        "▁per",
        -8.18616006863502
      ],
      [
        "▁small",
        -8.189196798428233
      ],
      [
        "▁man",
        -8.190366116578266
      ],
      [
        "▁When",
        -8.196568071115761
      ],
      [
        "▁President",
        -8.196799049701795
      ],
      [
        "▁International",
        -8.206134626389236
      ],
      [
        "▁case",
        -8.207117837652387
      ],
      [
        "▁while",
        -8.208404893948423
      ],
      [
        "▁products",
        -8.214367672499403
      ],
      [
        "▁much",
        -8.224539472696453
      ],
      [
        "▁end",
        -8.2248144826035
      ],
      [
        "D",
        -8.226029319266548
      ],
      [
        "▁come",
        -8.236699084122938
      ],
      [
        "▁set",
        -8.243012043500615
      ],
      [
        "▁level",
        -8.246554280688217
      ],
      [
        "▁human",
        -8.246769630174311
      ],
      [
        "▁project",
        -8.252856090742382
      ],
      [
        "▁At",
        -8.25643184916
      ],
      [
        "v",
        -8.256692065096784
      ],
      [
        "▁Ukraine",
        -8.257090835547569
      ],
      [
        "#",
        -8.257951640788972
      ],
      [
        "▁C",
        -8.260406350160347
      ],
      [
        "▁application",
        -8.260955291454893
      ],
      [
        "▁last",
        -8.261060105627523
      ],
      [
        "▁market",
        -8.271179970697705
      ],
      [
        "the",
        -8.27466963968564
      ],
      [
        "▁Windows",
        -8.276101628887618
      ],
      [
        "▁possible",
        -8.2773604249839
      ],
      [
        "▁production",
        -8.277571186210686
      ],
      [
        "▁provide",
        -8.278051115370806
      ],
      [
        "▁New",
        -8.278801142006696
      ],
      [
        "▁State",
        -8.28347473615896
      ],
      [
        "▁don",
        -8.289698168925764
      ],
      [
        "▁T",
        -8.294118500618207
      ],
      [
        "▁security",
        -8.313212889959955
      ],
      [
        "▁room",
        -8.314442809358193
      ],
      [
        "▁national",
        -8.317015088355195
      ],
      [
        "ity",
        -8.31917183198901
      ],
      [
        "▁control",
        -8.32042771138667
      ],
      [
        "▁group",
        -8.32117595218592
      ],
      [
        "▁special",
        -8.325292944217582
      ],
      [
        "▁M",
        -8.327169305265269
      ],
      [
        "▁main",
        -8.327272289937842
      ],
      [
        "▁E",
        -8.33070037154406
      ],
      [
        "▁local",
        -8.331273946584822
      ],
      [
        "▁File",
        -8.332240684439396
      ],
      [
        "▁experience",
        -8.334395688249618
      ],
      [
        "▁Kazakhstan",
        -8.338508936713401
      ],
      [
        "▁law",
        -8.338623748038994
      ],
      [
        "▁quality",
        -8.340474658083963
      ],
      [
        "▁region",
        -8.34616417436071
      ],
      [
        "▁area",
        -8.352717838813632
      ],
      [
        "▁economic",
        -8.361446785576444
      ],
      [
        "▁air",
        -8.368588462208168
      ],
      [
        "▁view",
        -8.377595801050576
      ],
      [
        "▁still",
        -8.380231197679867
      ],
      [
        "▁B",
        -8.382982672648666
      ],
      [
        "▁change",
        -8.387487105951834
      ],
      [
        "▁down",
        -8.387603885365365
      ],
      [
        "▁China",
        -8.387901258966176
      ],
      [
        "▁So",
        -8.39045587950706
      ],
      [
        "▁held",
        -8.392750383097503
      ],
      [
        "▁think",
        -8.394065548265486
      ],
      [
        "▁present",
        -8.394766753184278
      ],
      [
        "M",
        -8.394789238296855
      ],
      [
        "▁Phone",
        -8.394957666694772
      ],
      [
        "▁xHamster",
        -8.397375441188581
      ],
      [
        "▁D",
        -8.397614374780956
      ],
      [
        "▁building",
        -8.398189431979054
      ],
      [
        "▁activities",
        -8.399089627062695
      ],
      [
        "▁type",
        -8.401449973311827
      ],
      [
        "▁conditions",
        -8.406181953477667
      ],
      [
        "▁another",
        -8.40786362044149
      ],
      [
        "com",
        -8.410009242960403
      ],
      [
        "▁access",
        -8.413613171377188
      ],
      [
        "▁European",
        -8.416063168797407
      ],
      [
        "ness",
        -8.416921912106057
      ],
      [
        "▁become",
        -8.424744534102565
      ],
      [
        "▁report",
        -8.425276215734367
      ],
      [
        "▁say",
        -8.426111476811476
      ],
      [
        "▁meeting",
        -8.427893439278439
      ],
      [
        "▁social",
        -8.428010920252678
      ],
      [
        "▁full",
        -8.436582303968317
      ],
      [
        "▁shemale",
        -8.436726786102197
      ],
      [
        "▁point",
        -8.437627017986399
      ],
      [
        "▁online",
        -8.441136448179213
      ],
      [
        "▁Moscow",
        -8.4427549525052
      ],
      [
        "▁example",
        -8.445165485962645
      ],
      [
        "▁management",
        -8.451049362405788
      ],
      [
        "ve",
        -8.452697085520386
      ],
      [
        "▁according",
        -8.453969430511345
      ],
      [
        "C",
        -8.454163719783196
      ],
      [
        "▁million",
        -8.455253515821038
      ],
      [
        "▁Your",
        -8.45760840130276
      ],
      [
        "▁among",
        -8.45810684995365
      ],
      [
        "amp",
        -8.461224399981852
      ],
      [
        "▁energy",
        -8.461905891759637
      ],
      [
        "▁person",
        -8.467992090186737
      ],
      [
        "▁TV",
        -8.46907699300661
      ],
      [
        "▁house",
        -8.470350770827856
      ],
      [
        "▁body",
        -8.475069624395703
      ],
      [
        "▁political",
        -8.475791621201346
      ],
      [
        "▁result",
        -8.476683949718339
      ],
      [
        "▁light",
        -8.478221111427052
      ],
      [
        "▁large",
        -8.480670242773723
      ],
      [
        "▁am",
        -8.481853766774899
      ],
      [
        "mm",
        -8.48540216538316
      ],
      [
        "▁look",
        -8.487190137969183
      ],
      [
        "▁found",
        -8.488682343884454
      ],
      [
        "▁G",
        -8.493687458270848
      ],
      [
        "▁always",
        -8.494980137073439
      ],
      [
        "▁States",
        -8.49639871531747
      ],
      [
        "▁Home",
        -8.496445683255866
      ],
      [
        "▁necessary",
        -8.497255015758707
      ],
      [
        "▁already",
        -8.499602475441797
      ],
      [
        "▁That",
        -8.504264170195206
      ],
      [
        "▁working",
        -8.510309887163091
      ],
      [
        "▁course",
        -8.515821832282837
      ],
      [
        "▁Our",
        -8.521726864491438
      ],
      [
        "▁rights",
        -8.52308396411339
      ],
      [
        "▁government",
        -8.525968935676978
      ],
      [
        "▁give",
        -8.528492329885063
      ],
      [
        "le",
        -8.529978328115755
      ],
      [
        "▁second",
        -8.530402929775322
      ],
      [
        "▁design",
        -8.53051473192133
      ],
      [
        "▁various",
        -8.531151071811928
      ],
      [
        "▁V",
        -8.531856112216294
      ],
      [
        "▁list",
        -8.53324694203144
      ],
      [
        "▁around",
        -8.534444280657477
      ],
      [
        "▁period",
        -8.535920121654582
      ],
      [
        "▁network",
        -8.536173675402216
      ],
      [
        "▁account",
        -8.546425717601302
      ],
      [
        "▁created",
        -8.547201155949843
      ],
      [
        "▁general",
        -8.547937127095752
      ],
      [
        "The",
        -8.548283701330009
      ],
      [
        ">",
        -8.549386167263057
      ],
      [
        "▁since",
        -8.550377517030842
      ],
      [
        "▁National",
        -8.552742757859287
      ],
      [
        "▁results",
        -8.55318432198339
      ],
      [
        "▁situation",
        -8.561241287195914
      ],
      [
        "▁based",
        -8.563972882883244
      ],
      [
        "▁old",
        -8.564216245867645
      ],
      [
        "▁Council",
        -8.567339716371372
      ],
      [
        "▁upon",
        -8.572456794298361
      ],
      [
        "▁means",
        -8.574330029335181
      ],
      [
        "▁un",
        -8.575455211951404
      ],
      [
        "▁site",
        -8.58048666564344
      ],
      [
        "▁request",
        -8.581151093756619
      ],
      [
        "▁With",
        -8.582186617595127
      ],
      [
        "▁University",
        -8.582272360561067
      ],
      [
        "▁non",
        -8.589437425207116
      ],
      [
        "▁St",
        -8.591200895682558
      ],
      [
        "▁Do",
        -8.593611385182632
      ],
      [
        "▁May",
        -8.594591586611132
      ],
      [
        "▁financial",
        -8.595965982831425
      ],
      [
        "us",
        -8.599381344995175
      ],
      [
        "B",
        -8.600108341811998
      ],
      [
        "▁women",
        -8.601792473976728
      ],
      [
        "▁equipment",
        -8.60287383816794
      ],
      [
        "▁going",
        -8.606959226840077
      ],
      [
        "▁natural",
        -8.614159192459619
      ],
      [
        "▁personal",
        -8.614588611972252
      ],
      [
        "▁General",
        -8.615305272994682
      ],
      [
        "▁form",
        -8.616694962254593
      ],
      [
        "▁offer",
        -8.619238375593827
      ],
      [
        "▁provided",
        -8.620437234834379
      ],
      [
        "▁real",
        -8.621890366280812
      ],
      [
        "▁P",
        -8.624836455762962
      ],
      [
        "▁never",
        -8.625115228548658
      ],
      [
        "▁away",
        -8.625880803958589
      ],
      [
        "▁These",
        -8.62735528943902
      ],
      [
        "and",
        -8.628985236557797
      ],
      [
        "▁again",
        -8.630374050091751
      ],
      [
        "▁Committee",
        -8.63116495559411
      ],
      [
        "▁future",
        -8.63490818228455
      ],
      [
        "▁speed",
        -8.63714287195759
      ],
      [
        "▁certain",
        -8.638863883247417
      ],
      [
        "▁Live",
        -8.640870893695496
      ],
      [
        "▁km",
        -8.641916041330434
      ],
      [
        "▁One",
        -8.644631014164789
      ],
      [
        "▁things",
        -8.653757703376085
      ],
      [
        "T",
        -8.654579355946792
      ],
      [
        "▁members",
        -8.655205373234786
      ],
      [
        "▁However",
        -8.656874759944879
      ],
      [
        "▁companies",
        -8.65888353448782
      ],
      [
        "▁create",
        -8.660441881139402
      ],
      [
        "▁current",
        -8.661833035731693
      ],
      [
        "▁located",
        -8.662331586617785
      ],
      [
        "▁love",
        -8.663908928184796
      ],
      [
        "▁home",
        -8.664361327470468
      ],
      [
        "▁World",
        -8.665872933444218
      ],
      [
        "▁week",
        -8.666004282443534
      ],
      [
        "▁several",
        -8.666387001604244
      ],
      [
        "▁computer",
        -8.666597741481542
      ],
      [
        "▁oil",
        -8.66828662158004
      ],
      [
        "▁total",
        -8.66937373747789
      ],
      [
        "▁took",
        -8.670071362939362
      ],
      [
        "▁fact",
        -8.679363328688664
      ],
      [
        "▁Jesus",
        -8.680813224907656
      ],
      [
        "▁price",
        -8.681939856533123
      ],
      [
        "▁better",
        -8.68227828562056
      ],
      [
        "▁return",
        -8.684258509178907
      ],
      [
        "▁systems",
        -8.68447532318756
      ],
      [
        "▁article",
        -8.68530321177396
      ],
      [
        "▁next",
        -8.68601182197046
      ],
      [
        "▁legal",
        -8.686078990697368
      ],
      [
        "▁address",
        -8.688510272677771
      ],
      [
        "▁might",
        -8.691012739452677
      ],
      [
        "▁increase",
        -8.69109998973859
      ],
      [
        "▁effect",
        -8.691204423954593
      ],
      [
        "▁together",
        -8.692658389510788
      ],
      [
        "▁cannot",
        -8.697358490733494
      ],
      [
        "▁ensure",
        -8.697799433686805
      ],
      [
        "»",
        -8.698490459446445
      ],
      [
        "▁foreign",
        -8.701679108672025
      ],
      [
        "w",
        -8.70318955802414
      ],
      [
        "▁issues",
        -8.703379060187881
      ],
      [
        "▁weeks",
        -8.703856877286487
      ],
      [
        "▁After",
        -8.70399474804418
      ],
      [
        "▁training",
        -8.705706699790113
      ],
      [
        "▁start",
        -8.70738803000084
      ],
      [
        "▁put",
        -8.708558723690784
      ],
      [
        "▁family",
        -8.708756126789503
      ],
      [
        "▁According",
        -8.710983203168805
      ],
      [
        "▁hotel",
        -8.71473999833953
      ],
      [
        "▁field",
        -8.716760880446373
      ],
      [
        "▁problems",
        -8.71897906958556
      ],
      [
        "▁everything",
        -8.719988415338113
      ],
      [
        "▁hand",
        -8.720009333612207
      ],
      [
        "▁page",
        -8.720781849633589
      ],
      [
        "▁came",
        -8.722911006965361
      ],
      [
        "▁few",
        -8.729003674287569
      ],
      [
        "▁further",
        -8.731034338131181
      ],
      [
        "▁believe",
        -8.732715779422394
      ],
      [
        "▁called",
        -8.737169604065977
      ],
      [
        "▁product",
        -8.742954300691986
      ],
      [
        "▁something",
        -8.74361575174709
      ],
      [
        "▁analysis",
        -8.744060373798364
      ],
      [
        "▁cooperation",
        -8.744326256877107
      ],
      [
        "▁protection",
        -8.751886770748497
      ],
      [
        "▁month",
        -8.751893272701405
      ],
      [
        "ever",
        -8.753084523295001
      ],
      [
        "▁value",
        -8.75404313430705
      ],
      [
        "▁head",
        -8.755067527953674
      ],
      [
        "▁policy",
        -8.75594131869457
      ],
      [
        "▁health",
        -8.756398344407307
      ],
      [
        "▁Europe",
        -8.757180321984352
      ],
      [
        "H",
        -8.759117654271375
      ],
      [
        "_",
        -8.759432048085234
      ],
      [
        "▁education",
        -8.760529472719687
      ],
      [
        "▁given",
        -8.760901274640199
      ],
      [
        "▁contact",
        -8.762666061613794
      ],
      [
        "▁money",
        -8.767467753288404
      ],
      [
        "▁July",
        -8.768330737780513
      ],
      [
        "▁website",
        -8.769072742442193
      ],
      [
        "less",
        -8.770065335115534
      ],
      [
        "▁N",
        -8.771554210276905
      ],
      [
        "▁young",
        -8.773290203860178
      ],
      [
        "▁She",
        -8.775237234999869
      ],
      [
        "▁include",
        -8.776804144529656
      ],
      [
        "▁tits",
        -8.778138367541162
      ],
      [
        "V",
        -8.779286261353482
      ],
      [
        "▁words",
        -8.780286939176664
      ],
      [
        "▁event",
        -8.780345066358725
      ],
      [
        "▁media",
        -8.781100627590146
      ],
      [
        "▁today",
        -8.781135527248255
      ],
      [
        "▁U",
        -8.782855174640156
      ],
      [
        "▁until",
        -8.784614900911288
      ],
      [
        "up",
        -8.787116460396204
      ],
      [
        "▁offers",
        -8.787715990150286
      ],
      [
        "▁visit",
        -8.7882977041935
      ],
      [
        "▁reason",
        -8.788369759638455
      ],
      [
        "▁game",
        -8.788816071435273
      ],
      [
        "▁third",
        -8.789173841305486
      ],
      [
        "▁construction",
        -8.789198515346339
      ],
      [
        "▁material",
        -8.790206086978653
      ],
      [
        "L",
        -8.79056066577835
      ],
      [
        "▁Casino",
        -8.790838936022725
      ],
      [
        "▁men",
        -8.79154570930797
      ],
      [
        "▁Nations",
        -8.796628396970961
      ],
      [
        "▁property",
        -8.798264960452087
      ],
      [
        "▁due",
        -8.800503720437057
      ],
      [
        "z",
        -8.800889864292218
      ],
      [
        "▁My",
        -8.803936473815627
      ],
      [
        "▁Group",
        -8.805652518527795
      ],
      [
        "▁idea",
        -8.808703564427041
      ],
      [
        "▁click",
        -8.809240447893583
      ],
      [
        "ic",
        -8.813608286224854
      ],
      [
        "▁modern",
        -8.81542774638478
      ],
      [
        "▁why",
        -8.816979463662241
      ],
      [
        "▁O",
        -8.817378426207062
      ],
      [
        "ation",
        -8.822444494891151
      ],
      [
        "K",
        -8.824018059076753
      ],
      [
        "▁research",
        -8.824114043498081
      ],
      [
        "▁living",
        -8.825432122206324
      ],
      [
        "▁Foundation",
        -8.827327882336588
      ],
      [
        "▁L",
        -8.828379351077617
      ],
      [
        "▁Mr",
        -8.831578293124414
      ],
      [
        "▁areas",
        -8.831790434153229
      ],
      [
        "▁Now",
        -8.83215211426619
      ],
      [
        "▁model",
        -8.83428160848912
      ],
      [
        "▁little",
        -8.834961818602114
      ],
      [
        "▁range",
        -8.835165935717676
      ],
      [
        "▁call",
        -8.841694346813052
      ],
      [
        "▁times",
        -8.842365044585474
      ],
      [
        "▁implementation",
        -8.84523358520946
      ],
      [
        "°C",
        -8.845441539562184
      ],
      [
        "▁activity",
        -8.847260946010678
      ],
      [
        "▁below",
        -8.84953654962151
      ],
      [
        "▁land",
        -8.84998027443631
      ],
      [
        "E",
        -8.852072853324898
      ],
      [
        "▁space",
        -8.853575182893058
      ],
      [
        "▁team",
        -8.854170144130693
      ],
      [
        "▁near",
        -8.85420940624655
      ],
      [
        "▁December",
        -8.854476395617597
      ],
      [
        "▁often",
        -8.855240261574922
      ],
      [
        "▁W",
        -8.855674115915791
      ],
      [
        "▁play",
        -8.85621877540641
      ],
      [
        "▁projects",
        -8.858293431430699
      ],
      [
        "P",
        -8.858507763879288
      ],
      [
        "€",
        -8.859746434374596
      ],
      [
        "▁R",
        -8.86180270776983
      ],
      [
        "▁temperature",
        -8.864946745844565
      ],
      [
        "▁Ministry",
        -8.865398947477624
      ],
      [
        "▁whole",
        -8.865760162289611
      ],
      [
        "▁Center",
        -8.866568432377615
      ],
      [
        "▁An",
        -8.867808248182325
      ],
      [
        "▁server",
        -8.870877691317457
      ],
      [
        "▁live",
        -8.872718205606049
      ],
      [
        "▁professional",
        -8.87441568416111
      ],
      [
        "it",
        -8.875356011305009
      ],
      [
        "▁decision",
        -8.876287306552403
      ],
      [
        "▁left",
        -8.87660115888679
      ],
      [
        "▁taken",
        -8.87795995074893
      ],
      [
        "▁easy",
        -8.884233619715296
      ],
      [
        "▁Department",
        -8.884703455991707
      ],
      [
        "▁kind",
        -8.886303869977095
      ],
      [
        "▁addition",
        -8.89294767839368
      ],
      [
        "G",
        -8.893764684506984
      ],
      [
        "▁user",
        -8.895509751143917
      ],
      [
        "▁organizations",
        -8.89675042375766
      ],
      [
        "▁select",
        -8.897410759774484
      ],
      [
        "▁features",
        -8.898209173224854
      ],
      [
        "▁problem",
        -8.898989944530062
      ],
      [
        "▁agreement",
        -8.900098285255398
      ],
      [
        "▁center",
        -8.901632402817103
      ],
      [
        "▁resources",
        -8.90261604254681
      ],
      [
        "▁above",
        -8.905583433081738
      ],
      [
        "▁required",
        -8.905798461043757
      ],
      [
        "▁materials",
        -8.906178771934528
      ],
      [
        "▁talk",
        -8.909667451671757
      ],
      [
        "▁industry",
        -8.910181023042524
      ],
      [
        "▁apartment",
        -8.910617597040742
      ],
      [
        "▁technology",
        -8.91089489140854
      ],
      [
        "▁side",
        -8.911111906434598
      ],
      [
        "▁private",
        -8.911419660610838
      ],
      [
        "▁particular",
        -8.911528725382565
      ],
      [
        "▁events",
        -8.91305907538051
      ],
      [
        "▁Internet",
        -8.914354839875859
      ],
      [
        "▁orgasm",
        -8.915847397279162
      ],
      [
        "▁Minister",
        -8.915904930303144
      ],
      [
        "▁sea",
        -8.91740210313621
      ],
      [
        "ar",
        -8.918731545547088
      ],
      [
        "▁His",
        -8.91962929382866
      ],
      [
        "▁Hotel",
        -8.922709937439041
      ],
      [
        "▁risk",
        -8.922997113068082
      ],
      [
        "▁food",
        -8.92584978095959
      ],
      [
        "▁top",
        -8.927891732167652
      ],
      [
        "▁thought",
        -8.928344483477462
      ],
      [
        "▁show",
        -8.928935531013211
      ],
      [
        "▁less",
        -8.929091803445766
      ],
      [
        "▁higher",
        -8.929766942046726
      ],
      [
        "▁clear",
        -8.930135656366717
      ],
      [
        "▁far",
        -8.930380003158275
      ],
      [
        "▁low",
        -8.931876877014476
      ],
      [
        "▁school",
        -8.932233098018987
      ],
      [
        "▁key",
        -8.932625085793685
      ],
      [
        "▁March",
        -8.935158807176215
      ],
      [
        "▁knowledge",
        -8.941169345324383
      ],
      [
        "▁amount",
        -8.941513915541282
      ],
      [
        "▁please",
        -8.941523723994457
      ],
      [
        "▁types",
        -8.943566652086295
      ],
      [
        "▁display",
        -8.943701311219982
      ],
      [
        "▁June",
        -8.943799375058166
      ],
      [
        "▁exact",
        -8.944183963768129
      ],
      [
        "▁works",
        -8.94567305554464
      ],
      [
        "▁growth",
        -8.94620356653685
      ],
      [
        "▁technical",
        -8.946859140368357
      ],
      [
        "▁interest",
        -8.94691870657741
      ],
      [
        "▁Some",
        -8.949172246721952
      ],
      [
        "▁receive",
        -8.950457044322434
      ],
      [
        "▁really",
        -8.950973631145487
      ],
      [
        "▁allows",
        -8.951412258082453
      ],
      [
        "▁K",
        -8.95147369032705
      ],
      [
        "▁facilities",
        -8.953783013277251
      ],
      [
        "▁additional",
        -8.95391906199123
      ],
      [
        "▁provides",
        -8.95474371807651
      ],
      [
        "▁etc",
        -8.956108057511962
      ],
      [
        "▁bring",
        -8.956171406925677
      ],
      [
        "▁performance",
        -8.956227402344966
      ],
      [
        "▁students",
        -8.95703363048288
      ],
      [
        "▁least",
        -8.958644198675499
      ],
      [
        "▁improve",
        -8.959432164196247
      ],
      [
        "▁common",
        -8.959743942682431
      ],
      [
        "▁cost",
        -8.962526274444711
      ],
      [
        "▁needs",
        -8.962792857568072
      ],
      [
        "▁Development",
        -8.965251288232114
      ],
      [
        "▁specific",
        -8.965385536394296
      ],
      [
        "▁stay",
        -8.96666546555542
      ],
      [
        "▁regional",
        -8.96690708110628
      ],
      [
        "▁reports",
        -8.967084873270093
      ],
      [
        "▁let",
        -8.967116483789288
      ],
      [
        "▁line",
        -8.967232448353355
      ],
      [
        "man",
        -8.968748084327853
      ],
      [
        "▁history",
        -8.96905353824671
      ],
      [
        "▁party",
        -8.969215844409312
      ],
      [
        "▁measures",
        -8.96930088979858
      ],
      [
        "▁terms",
        -8.969792925834415
      ],
      [
        "▁US",
        -8.970989856473352
      ],
      [
        "▁September",
        -8.971639911433861
      ],
      [
        "▁role",
        -8.972904479195535
      ],
      [
        "▁heart",
        -8.97407132374396
      ],
      [
        "▁single",
        -8.974372538337436
      ],
      [
        "▁double",
        -8.976914955178096
      ],
      [
        "▁position",
        -8.978476090447542
      ],
      [
        "▁once",
        -8.978590006719887
      ],
      [
        "▁action",
        -8.979211806885166
      ],
      [
        "▁care",
        -8.979276052248386
      ],
      [
        "▁car",
        -8.97940504176468
      ],
      [
        "▁By",
        -8.979493290124012
      ],
      [
        "▁four",
        -8.979962789161382
      ],
      [
        "▁final",
        -8.980033979871362
      ],
      [
        "ers",
        -8.980283920371468
      ],
      [
        "▁phone",
        -8.980414969841176
      ],
      [
        "▁mind",
        -8.982481647661471
      ],
      [
        "▁understand",
        -8.985608078035629
      ],
      [
        "▁basi",
        -8.986094188903499
      ],
      [
        "▁language",
        -8.986622742004656
      ],
      [
        "ability",
        -8.986782266193718
      ],
      [
        "▁changes",
        -8.987884195337346
      ],
      [
        "▁difficult",
        -8.989842637816482
      ],
      [
        "▁military",
        -8.989962100893734
      ],
      [
        "▁April",
        -8.990492035055881
      ],
      [
        "▁organization",
        -8.991601348996598
      ],
      [
        "▁tell",
        -8.994560982264527
      ],
      [
        "▁currently",
        -8.994921307174533
      ],
      [
        "▁received",
        -8.995945100834286
      ],
      [
        "▁Federation",
        -8.996056805603112
      ],
      [
        "▁status",
        -8.99843942064741
      ],
      [
        "▁October",
        -8.998994847032591
      ],
      [
        "▁Economic",
        -8.999972558183531
      ],
      [
        "▁treatment",
        -9.000201037710948
      ],
      [
        "▁yet",
        -9.002989282472834
      ],
      [
        "▁Lord",
        -9.00383373804384
      ],
      [
        "▁keep",
        -9.004286476478773
      ],
      [
        "▁check",
        -9.00693787099698
      ],
      [
        "▁sale",
        -9.007458674651566
      ],
      [
        "▁requirements",
        -9.007749814534863
      ],
      [
        "▁night",
        -9.008620584598434
      ],
      [
        "▁gas",
        -9.009451292609961
      ],
      [
        "▁done",
        -9.009951473733398
      ],
      [
        "▁Striptease",
        -9.01121835634837
      ],
      [
        "▁Israel",
        -9.011513012287411
      ],
      [
        "▁established",
        -9.0123736800397
      ],
      [
        "▁Aliyev",
        -9.01646224646307
      ],
      [
        "▁directly",
        -9.016466734383089
      ],
      [
        "▁issue",
        -9.017118587831805
      ],
      [
        "▁developed",
        -9.017841760623
      ],
      [
        "•",
        -9.019155610039052
      ],
      [
        "▁users",
        -9.019430740915023
      ],
      [
        "sky",
        -9.020372736184934
      ],
      [
        "▁operation",
        -9.0214106380611
      ],
      [
        "▁November",
        -9.023612655024595
      ],
      [
        "▁size",
        -9.024211411506963
      ],
      [
        "▁making",
        -9.02581513436438
      ],
      [
        "▁F",
        -9.026179950316292
      ],
      [
        "▁global",
        -9.027624835682161
      ],
      [
        "▁continue",
        -9.028682194311692
      ],
      [
        "▁PC",
        -9.030295802721092
      ],
      [
        "▁says",
        -9.03329060820988
      ],
      [
        "▁Government",
        -9.033688902805192
      ],
      [
        "N",
        -9.034425909713942
      ],
      [
        "▁office",
        -9.034969673645342
      ],
      [
        "▁Open",
        -9.035655735843584
      ],
      [
        "▁known",
        -9.035835958818192
      ],
      [
        "▁lot",
        -9.036641302127645
      ],
      [
        "▁society",
        -9.036653299232547
      ],
      [
        "▁plan",
        -9.036750598757786
      ],
      [
        "▁nature",
        -9.03802650720366
      ],
      [
        "▁First",
        -9.038158352198284
      ],
      [
        "▁member",
        -9.038393588041844
      ],
      [
        "▁feel",
        -9.038462419487761
      ],
      [
        "▁trade",
        -9.039858944040473
      ],
      [
        "▁complex",
        -9.040359384141238
      ],
      [
        "F",
        -9.041087957788587
      ],
      [
        "▁January",
        -9.041566757785493
      ],
      [
        "R",
        -9.041771692964494
      ],
      [
        "▁individual",
        -9.042801427247046
      ],
      [
        "▁Region",
        -9.04328408638451
      ],
      [
        "▁close",
        -9.043919174150338
      ],
      [
        "▁run",
        -9.044726038162022
      ],
      [
        "▁Union",
        -9.044838924875329
      ],
      [
        "▁official",
        -9.045258391107513
      ],
      [
        "▁Bank",
        -9.045406654336643
      ],
      [
        "▁thing",
        -9.045722997653854
      ],
      [
        "▁safety",
        -9.04579307343988
      ],
      [
        "▁effective",
        -9.046610862659591
      ],
      [
        "▁sex",
        -9.046863273957374
      ],
      [
        "▁hours",
        -9.047950351955345
      ],
      [
        "▁More",
        -9.05055947541548
      ],
      [
        "▁Here",
        -9.05096284297315
      ],
      [
        "▁short",
        -9.05159525865605
      ],
      [
        "▁pay",
        -9.052059242154906
      ],
      [
        "▁went",
        -9.054701613070787
      ],
      [
        "▁whether",
        -9.05502255761566
      ],
      [
        "▁Azerbaijan",
        -9.057203378631439
      ],
      [
        "▁rate",
        -9.059083055194671
      ],
      [
        "▁floor",
        -9.060024553965311
      ],
      [
        "▁extension",
        -9.061196124091538
      ],
      [
        "▁District",
        -9.062830911051527
      ],
      [
        "▁hard",
        -9.066921559165344
      ],
      [
        "▁Free",
        -9.067083560634176
      ],
      [
        "▁five",
        -9.067971622039922
      ],
      [
        "▁files",
        -9.072467775295996
      ],
      [
        "▁question",
        -9.073133984616732
      ],
      [
        "▁major",
        -9.073467045403842
      ],
      [
        "▁groups",
        -9.074442279790262
      ],
      [
        "▁others",
        -9.075514971468527
      ],
      [
        "▁From",
        -9.075972775645589
      ],
      [
        "▁parties",
        -9.07613275088177
      ],
      [
        "▁rooms",
        -9.076521479339396
      ],
      [
        "▁video",
        -9.079707054024594
      ],
      [
        "▁environment",
        -9.080045339298938
      ],
      [
        "▁almost",
        -9.08024447802328
      ],
      [
        "▁Service",
        -9.081004036496555
      ],
      [
        "▁having",
        -9.08145840184869
      ],
      [
        "▁subject",
        -9.081790032937503
      ],
      [
        "▁capital",
        -9.081826288649177
      ],
      [
        "▁share",
        -9.081985548962237
      ],
      [
        "▁cases",
        -9.084487600933633
      ],
      [
        "▁regard",
        -9.084710601426762
      ],
      [
        "▁capacity",
        -9.085737383304552
      ],
      [
        "▁authorities",
        -9.088078049472267
      ],
      [
        "▁later",
        -9.090030085865651
      ],
      [
        "▁simply",
        -9.091293897644633
      ],
      [
        "▁wrong",
        -9.093717752579128
      ],
      [
        "▁anal",
        -9.094841910865402
      ],
      [
        "▁format",
        -9.09566304898583
      ],
      [
        "▁H",
        -9.095769320246959
      ],
      [
        "▁City",
        -9.097806735784525
      ],
      [
        "▁version",
        -9.097847967933152
      ],
      [
        "▁complete",
        -9.099272702009518
      ],
      [
        "▁community",
        -9.105304980390365
      ],
      [
        "▁learn",
        -9.105917887970511
      ],
      [
        "▁remain",
        -9.109060458554863
      ],
      [
        "▁became",
        -9.11054380918727
      ],
      [
        "▁begin",
        -9.111322868968822
      ],
      [
        "▁related",
        -9.112133038922169
      ],
      [
        "▁cock",
        -9.112913224434537
      ],
      [
        "▁unique",
        -9.11299525473001
      ],
      [
        "▁especially",
        -9.11324872426235
      ],
      [
        "▁war",
        -9.115388516305334
      ],
      [
        "▁expected",
        -9.117627484393251
      ],
      [
        "▁Commission",
        -9.118030892321693
      ],
      [
        "▁press",
        -9.119545906536537
      ],
      [
        "▁correct",
        -9.120836581200212
      ],
      [
        "▁Analysis",
        -9.120958860214873
      ],
      [
        "▁child",
        -9.12345395475048
      ],
      [
        "▁attention",
        -9.12533926365076
      ],
      [
        "=",
        -9.125802142147357
      ],
      [
        "▁along",
        -9.12774819277843
      ],
      [
        "▁Central",
        -9.128254217706914
      ],
      [
        "▁physical",
        -9.132554994981666
      ],
      [
        "▁minutes",
        -9.13370377157901
      ],
      [
        "▁investment",
        -9.134855441068169
      ],
      [
        "During",
        -9.135650725362558
      ],
      [
        "▁client",
        -9.135724087579701
      ],
      [
        "▁self",
        -9.135942525243163
      ],
      [
        "W",
        -9.13691932600011
      ],
      [
        "▁themselves",
        -9.137331819901197
      ],
      [
        "▁past",
        -9.137518653020614
      ],
      [
        "▁age",
        -9.138158984247008
      ],
      [
        "▁produce",
        -9.141153355716378
      ],
      [
        "▁ShemaleZ",
        -9.143223027372414
      ],
      [
        "est",
        -9.143251029750617
      ],
      [
        "▁amateur",
        -9.14364985502463
      ],
      [
        "▁Christ",
        -9.14514985054083
      ],
      [
        "▁staff",
        -9.14551976593611
      ],
      [
        "▁cover",
        -9.14578866235636
      ],
      [
        "▁previous",
        -9.146233147847315
      ],
      [
        "▁persons",
        -9.146575520933073
      ],
      [
        "▁prevent",
        -9.147443702878082
      ],
      [
        "▁told",
        -9.148190416844908
      ],
      [
        "▁taking",
        -9.150647877336809
      ],
      [
        "▁itself",
        -9.152116688933727
      ],
      [
        "▁Law",
        -9.153920968961545
      ],
      [
        "▁son",
        -9.154235472812223
      ],
      [
        "▁built",
        -9.155508561933237
      ],
      [
        "▁allow",
        -9.15579057866405
      ],
      [
        "ism",
        -9.157798121404278
      ],
      [
        "▁beautiful",
        -9.158141141770566
      ],
      [
        "▁machine",
        -9.158552197206655
      ],
      [
        "▁true",
        -9.161340738501476
      ],
      [
        "▁Article",
        -9.161596828181061
      ],
      [
        "▁Convention",
        -9.161935326775573
      ],
      [
        "▁date",
        -9.163318361364404
      ],
      [
        "▁High",
        -9.164128118841548
      ],
      [
        "▁considered",
        -9.164745653623173
      ],
      [
        "▁wish",
        -9.165852151838143
      ],
      [
        "▁turn",
        -9.166825912990735
      ],
      [
        "▁book",
        -9.166938617596525
      ],
      [
        "▁participants",
        -9.167588750046164
      ],
      [
        "▁connection",
        -9.16777405276664
      ],
      [
        "▁study",
        -9.169041506376624
      ],
      [
        "▁nothing",
        -9.169263370305838
      ],
      [
        "▁sure",
        -9.169335304481237
      ],
      [
        "▁conference",
        -9.170576889833251
      ],
      [
        "▁includes",
        -9.170948669819277
      ],
      [
        "▁Heydar",
        -9.171756191911234
      ],
      [
        "▁Director",
        -9.173154783720827
      ],
      [
        "▁district",
        -9.173227653213845
      ],
      [
        "▁session",
        -9.17451653162989
      ],
      [
        "▁potential",
        -9.175029465207354
      ],
      [
        "▁Centre",
        -9.175233444692507
      ],
      [
        "▁Oil",
        -9.17674086555071
      ],
      [
        "▁ask",
        -9.177617639054512
      ],
      [
        "O",
        -9.182032041294086
      ],
      [
        "▁text",
        -9.183484686667608
      ],
      [
        "▁face",
        -9.183724013207366
      ],
      [
        "▁got",
        -9.184111541635062
      ],
      [
        "▁Yes",
        -9.184200703464022
      ],
      [
        "▁Board",
        -9.185078229115158
      ],
      [
        "▁English",
        -9.185318069055132
      ],
      [
        "▁choose",
        -9.185666090087146
      ],
      [
        "▁documents",
        -9.185824789777405
      ],
      [
        "▁economy",
        -9.186777300179251
      ],
      [
        "▁meet",
        -9.187233499662137
      ],
      [
        "▁exhibition",
        -9.189232187376446
      ],
      [
        "▁scientific",
        -9.189822684169249
      ],
      [
        "▁Security",
        -9.190780823881767
      ],
      [
        "▁representatives",
        -9.191495327220743
      ],
      [
        "▁sector",
        -9.19592912386846
      ],
      [
        "▁box",
        -9.196170818998658
      ],
      [
        "▁death",
        -9.19630760293405
      ],
      [
        "▁Company",
        -9.196416511368001
      ],
      [
        "▁transport",
        -9.196624504222024
      ],
      [
        "▁Danc",
        -9.196880652389106
      ],
      [
        "▁August",
        -9.197027604322495
      ],
      [
        "▁Office",
        -9.199732738373607
      ],
      [
        "▁included",
        -9.20311618147999
      ],
      [
        "▁bathroom",
        -9.20452152350032
      ],
      [
        "▁fully",
        -9.204679028536
      ],
      [
        "▁unto",
        -9.207991070560094
      ],
      [
        "▁force",
        -9.209297865161314
      ],
      [
        "▁Day",
        -9.21114663868346
      ],
      [
        "▁designed",
        -9.21132401075772
      ],
      [
        "▁sent",
        -9.212430457498533
      ],
      [
        "▁American",
        -9.217479959128811
      ],
      [
        "▁opportunity",
        -9.217839374945532
      ],
      [
        "▁entire",
        -9.219190511210662
      ],
      [
        "▁increased",
        -9.22020838606806
      ],
      [
        "▁units",
        -9.221142361206516
      ],
      [
        "▁peace",
        -9.221917349125953
      ],
      [
        "▁customers",
        -9.222236872391989
      ],
      [
        "▁institutions",
        -9.222470783449452
      ],
      [
        "▁quickly",
        -9.222691292997576
      ],
      [
        "▁early",
        -9.222890884076348
      ],
      [
        "▁half",
        -9.223515025557385
      ],
      [
        "▁Manager",
        -9.224301626220937
      ],
      [
        "▁matter",
        -9.225517147639597
      ],
      [
        "▁accordance",
        -9.225569254772354
      ],
      [
        "▁Please",
        -9.225952379214608
      ],
      [
        "▁highly",
        -9.227541545754708
      ],
      [
        "▁develop",
        -9.230450039307597
      ],
      [
        "▁http",
        -9.231996597205823
      ],
      [
        "▁content",
        -9.232040190177871
      ],
      [
        "▁supply",
        -9.232706523174265
      ],
      [
        "▁appear",
        -9.23279724413512
      ],
      [
        "▁table",
        -9.233970016386877
      ],
      [
        "▁collection",
        -9.234476983331657
      ],
      [
        "▁art",
        -9.235092987524656
      ],
      [
        "▁games",
        -9.235468411559726
      ],
      [
        "▁device",
        -9.238535564085137
      ],
      [
        "▁regarding",
        -9.239110859799816
      ],
      [
        "▁parts",
        -9.240823763759915
      ],
      [
        "‘",
        -9.241994429376478
      ],
      [
        "▁purpose",
        -9.243684064382144
      ],
      [
        "▁population",
        -9.244381803610988
      ],
      [
        "▁doesn",
        -9.246037992115259
      ],
      [
        "out",
        -9.24817414429146
      ],
      [
        "▁relations",
        -9.248635190574376
      ],
      [
        "▁strong",
        -9.248871666938127
      ],
      [
        "▁word",
        -9.249519468328463
      ],
      [
        "▁operating",
        -9.252400884268171
      ],
      [
        "▁respect",
        -9.252853803840889
      ],
      [
        "▁read",
        -9.252855170781071
      ],
      [
        "ru",
        -9.254374375060882
      ],
      [
        "▁standard",
        -9.254982343148347
      ],
      [
        "▁settings",
        -9.255152215966314
      ],
      [
        "▁enjoy",
        -9.258732271988766
      ],
      [
        "▁South",
        -9.258832796201926
      ],
      [
        "▁developing",
        -9.259816254961807
      ],
      [
        "▁either",
        -9.260478618104695
      ],
      [
        "▁resolution",
        -9.261102488429396
      ],
      [
        "▁Server",
        -9.264157818372244
      ],
      [
        "▁started",
        -9.265580437437963
      ],
      [
        "▁won",
        -9.266377612748583
      ],
      [
        "▁System",
        -9.266641898859849
      ],
      [
        "▁levels",
        -9.267714102909679
      ],
      [
        "▁enough",
        -9.267820481372324
      ],
      [
        "▁manufacturer",
        -9.267915972102216
      ],
      [
        "▁Sea",
        -9.268089968760043
      ],
      [
        "▁Other",
        -9.269415859958308
      ],
      [
        "▁approach",
        -9.270008088625797
      ],
      [
        "▁structure",
        -9.270049256489187
      ],
      [
        "ov",
        -9.270516442791282
      ],
      [
        "▁bank",
        -9.271276372765351
      ],
      [
        "▁stage",
        -9.271310457154055
      ],
      [
        "▁quite",
        -9.273966239235184
      ],
      [
        "▁Roleplay",
        -9.274020832497074
      ],
      [
        "▁ever",
        -9.274191026399011
      ],
      [
        "one",
        -9.27466624697021
      ],
      [
        "▁moment",
        -9.275832010261826
      ],
      [
        "▁discover",
        -9.276569783847634
      ],
      [
        "▁black",
        -9.276860754736605
      ],
      [
        "▁card",
        -9.277410853682357
      ],
      [
        "▁PornHub",
        -9.27746933422097
      ],
      [
        "▁himself",
        -9.277507275760078
      ],
      [
        "▁components",
        -9.277877405146453
      ],
      [
        "▁significant",
        -9.277954595976624
      ],
      [
        "▁leading",
        -9.279196533347903
      ],
      [
        "▁therefore",
        -9.280263997892504
      ],
      [
        "▁Well",
        -9.281159763085801
      ],
      [
        "▁music",
        -9.281833431550373
      ],
      [
        "▁February",
        -9.282242331530176
      ],
      [
        "▁associated",
        -9.283352942437835
      ],
      [
        "▁makes",
        -9.284034560003327
      ],
      [
        "▁thousand",
        -9.284488576028165
      ],
      [
        "▁didn",
        -9.284747813578281
      ],
      [
        "▁father",
        -9.284795654028704
      ],
      [
        "▁simple",
        -9.2868175528063
      ],
      [
        "▁exchange",
        -9.28732735126799
      ],
      [
        "▁active",
        -9.289626507644636
      ],
      [
        "▁citizens",
        -9.290593866702855
      ],
      [
        "▁Management",
        -9.291870214088112
      ],
      [
        "▁began",
        -9.2920096318348
      ],
      [
        "▁code",
        -9.292493661487182
      ],
      [
        "▁stop",
        -9.293268753552834
      ],
      [
        "▁consist",
        -9.294533358254489
      ],
      [
        "▁efforts",
        -9.295294394596956
      ],
      [
        "▁similar",
        -9.296417903837122
      ],
      [
        "▁recommend",
        -9.296763798063232
      ],
      [
        "▁Information",
        -9.299066182036924
      ],
      [
        "▁mature",
        -9.29918724077119
      ],
      [
        "▁programs",
        -9.29965630923365
      ],
      [
        "▁points",
        -9.299866271460843
      ],
      [
        "www",
        -9.300806825869078
      ],
      [
        "▁beginning",
        -9.301935977763057
      ],
      [
        "▁via",
        -9.30200132498555
      ],
      [
        "um",
        -9.303808739972512
      ],
      [
        "▁hotels",
        -9.308540499937296
      ],
      [
        "▁Snapshot",
        -9.309706218635128
      ],
      [
        "▁billion",
        -9.310025598333919
      ],
      [
        "▁answer",
        -9.310810626240547
      ],
      [
        "▁Museum",
        -9.311243540367233
      ],
      [
        "▁methods",
        -9.311642684847142
      ],
      [
        "▁Of",
        -9.311672464640887
      ],
      [
        "▁walk",
        -9.312119444910435
      ],
      [
        "▁series",
        -9.312895373546024
      ],
      [
        "▁inside",
        -9.313393585311868
      ],
      [
        "▁lower",
        -9.313865439443756
      ],
      [
        "▁rather",
        -9.314693594661337
      ],
      [
        "▁longer",
        -9.315702470527084
      ],
      [
        "▁spiritual",
        -9.318391447725295
      ],
      [
        "▁mean",
        -9.319144137297357
      ],
      [
        "▁review",
        -9.319813718336796
      ],
      [
        "▁hope",
        -9.32182599276029
      ],
      [
        "▁EU",
        -9.321905146981534
      ],
      [
        "▁message",
        -9.323198264051234
      ],
      [
        "▁Germany",
        -9.3235681917825
      ],
      [
        "▁prices",
        -9.324090999224223
      ],
      [
        "▁download",
        -9.324721392567984
      ],
      [
        "▁presented",
        -9.327267037060352
      ],
      [
        "ch",
        -9.32734613864513
      ],
      [
        "▁weather",
        -9.329900317577465
      ],
      [
        "▁practice",
        -9.331373338738086
      ],
      [
        "▁anti",
        -9.331557608415068
      ],
      [
        "▁joint",
        -9.332429939166504
      ],
      [
        "▁Let",
        -9.332475224808752
      ],
      [
        "▁competition",
        -9.334453194074147
      ],
      [
        "▁Ukrainian",
        -9.335318723065486
      ],
      [
        "▁Re",
        -9.335815596583762
      ],
      [
        "▁popular",
        -9.336376100568406
      ],
      [
        "▁Why",
        -9.338451679619117
      ],
      [
        "▁elections",
        -9.338488507072297
      ],
      [
        "▁leave",
        -9.338745246993856
      ],
      [
        "▁document",
        -9.339955217618636
      ],
      [
        "▁freedom",
        -9.340540921792986
      ],
      [
        "▁Extension",
        -9.341621211798278
      ],
      [
        "▁wind",
        -9.341792892966053
      ],
      [
        "▁restaurant",
        -9.34283996527402
      ],
      [
        "▁questions",
        -9.344036370567146
      ],
      [
        "▁Party",
        -9.344715387374182
      ],
      [
        "▁try",
        -9.345555041935624
      ],
      [
        "▁cause",
        -9.347007895193467
      ],
      [
        "▁culture",
        -9.347193801771112
      ],
      [
        "▁variet",
        -9.347234342479513
      ],
      [
        "▁likely",
        -9.350103054675694
      ],
      [
        "▁test",
        -9.350925329872391
      ],
      [
        "▁carried",
        -9.350996376306533
      ],
      [
        "▁Special",
        -9.352052393946073
      ],
      [
        "▁brought",
        -9.352433531037974
      ],
      [
        "▁pool",
        -9.354192593644846
      ],
      [
        "▁rules",
        -9.354944784886344
      ],
      [
        "▁enter",
        -9.355476316597892
      ],
      [
        "▁assistance",
        -9.355534900164493
      ],
      [
        "▁Institute",
        -9.35567532582576
      ],
      [
        "▁Church",
        -9.356075246054708
      ],
      [
        "▁centre",
        -9.35639123462605
      ],
      [
        "▁location",
        -9.356509398055744
      ],
      [
        "▁X",
        -9.358644805824616
      ],
      [
        "▁solution",
        -9.359601261960437
      ],
      [
        "▁paper",
        -9.359611167121502
      ],
      [
        "▁cultural",
        -9.360092039642783
      ],
      [
        "▁image",
        -9.360518545893527
      ],
      [
        "▁customer",
        -9.36083160366236
      ],
      [
        "▁anything",
        -9.36107519707126
      ],
      [
        "▁actions",
        -9.362283977566907
      ],
      [
        "▁ready",
        -9.362733671260074
      ],
      [
        "▁Air",
        -9.363013122600572
      ],
      [
        "▁update",
        -9.363032206737786
      ],
      [
        "▁transfer",
        -9.36341606269847
      ],
      [
        "▁Moldova",
        -9.365393550567784
      ],
      [
        "▁source",
        -9.366073497385944
      ],
      [
        "▁looking",
        -9.366879537113597
      ],
      [
        "▁existing",
        -9.367766925932493
      ],
      [
        "▁budget",
        -9.368920014977075
      ],
      [
        "▁saw",
        -9.369222975452688
      ],
      [
        "▁drive",
        -9.369460209702382
      ],
      [
        "▁applications",
        -9.36975506038754
      ],
      [
        "▁comes",
        -9.372975480328027
      ],
      [
        "▁friends",
        -9.373639521615411
      ],
      [
        "▁useful",
        -9.373922408429687
      ],
      [
        "▁medical",
        -9.375451761548234
      ],
      [
        "▁wide",
        -9.376422179581516
      ],
      [
        "▁basic",
        -9.37698124187359
      ],
      [
        "▁Finger",
        -9.378339841394554
      ],
      [
        "▁players",
        -9.379307581754434
      ],
      [
        "▁providing",
        -9.379336924177794
      ],
      [
        "▁German",
        -9.379716027491348
      ],
      [
        "▁relevant",
        -9.379999033863738
      ],
      [
        "▁America",
        -9.380330740406189
      ],
      [
        "▁details",
        -9.380403230255421
      ],
      [
        "ary",
        -9.386552232862554
      ],
      [
        "▁Conference",
        -9.387221313957392
      ],
      [
        "Y",
        -9.387658478708136
      ],
      [
        "▁standards",
        -9.389745374509886
      ],
      [
        "▁analyze",
        -9.389853090560964
      ],
      [
        "▁wife",
        -9.391658446138669
      ],
      [
        "▁window",
        -9.392400653950027
      ],
      [
        "▁Close",
        -9.392572841048251
      ],
      [
        "▁spirit",
        -9.396226024241209
      ],
      [
        "▁Georgia",
        -9.397245283624931
      ],
      [
        "▁Latvia",
        -9.399384735673523
      ],
      [
        "▁add",
        -9.399751671059768
      ],
      [
        "▁UN",
        -9.399844316174661
      ],
      [
        "▁technologies",
        -9.400585477606686
      ],
      [
        "term",
        -9.40166582094016
      ],
      [
        "▁Assembly",
        -9.401784373613289
      ],
      [
        "▁sq",
        -9.402148333412265
      ],
      [
        "▁behind",
        -9.402316411557461
      ],
      [
        "▁mobile",
        -9.403499727244581
      ],
      [
        "▁House",
        -9.404290768478642
      ],
      [
        "▁option",
        -9.404334499168804
      ],
      [
        "▁blowjob",
        -9.404686260221395
      ],
      [
        "▁direct",
        -9.404736121770986
      ],
      [
        "▁lead",
        -9.405613309754756
      ],
      [
        "▁added",
        -9.4065597134692
      ],
      [
        "▁carry",
        -9.406782288496947
      ],
      [
        "▁Since",
        -9.406918091540598
      ],
      [
        "▁rest",
        -9.408367729076275
      ],
      [
        "ment",
        -9.409079899223704
      ],
      [
        "While",
        -9.409591341613334
      ],
      [
        "▁implement",
        -9.409662449571348
      ],
      [
        "▁Use",
        -9.410781346156877
      ],
      [
        "▁century",
        -9.411013714041413
      ],
      [
        "▁across",
        -9.41365059469996
      ],
      [
        "▁send",
        -9.413984291599595
      ],
      [
        "▁appropriate",
        -9.414015895104608
      ],
      [
        "▁progress",
        -9.41439524325901
      ],
      [
        "▁truth",
        -9.414669554167032
      ],
      [
        "▁noted",
        -9.415837072090856
      ],
      [
        "▁pressure",
        -9.41599875388411
      ],
      [
        "▁king",
        -9.416146455571171
      ],
      [
        "▁payment",
        -9.416871804837475
      ],
      [
        "▁earth",
        -9.417113339441418
      ],
      [
        "▁domain",
        -9.417131837959747
      ],
      [
        "▁LORD",
        -9.421488697360324
      ],
      [
        "▁lines",
        -9.421784626762761
      ],
      [
        "▁soon",
        -9.422548433688911
      ],
      [
        "▁everyone",
        -9.42270764642003
      ],
      [
        "▁travel",
        -9.423354496280126
      ],
      [
        "▁section",
        -9.423693558646523
      ],
      [
        "▁independent",
        -9.42390018026275
      ],
      [
        "▁towards",
        -9.423994863728725
      ],
      [
        "▁function",
        -9.424666863881122
      ],
      [
        "▁Court",
        -9.425005274587244
      ],
      [
        "▁creation",
        -9.425316036706295
      ],
      [
        "▁doing",
        -9.425337258073094
      ],
      [
        "▁steel",
        -9.425656885878377
      ],
      [
        "▁blood",
        -9.42588177069023
      ],
      [
        "▁original",
        -9.42608499752186
      ],
      [
        "▁claim",
        -9.426672558765762
      ],
      [
        "▁traditional",
        -9.427499507807811
      ],
      [
        "▁deal",
        -9.428368661277426
      ],
      [
        "▁disease",
        -9.4294360358017
      ],
      [
        "▁clients",
        -9.42976163465352
      ],
      [
        "▁costs",
        -9.42999428533917
      ],
      [
        "▁court",
        -9.432276845469406
      ],
      [
        "of",
        -9.432737350576932
      ],
      [
        "▁girl",
        -9.435416931922042
      ],
      [
        "▁opinion",
        -9.435549400835932
      ],
      [
        "by",
        -9.435560162500922
      ],
      [
        "▁HD",
        -9.435821546184544
      ],
      [
        "▁search",
        -9.43617509894616
      ],
      [
        "▁bodies",
        -9.436396974198182
      ],
      [
        "be",
        -9.437032015543828
      ],
      [
        "▁serve",
        -9.437909087452754
      ],
      [
        "▁direction",
        -9.438038910550691
      ],
      [
        "▁buy",
        -9.441704852077116
      ],
      [
        "▁Year",
        -9.442374450667414
      ],
      [
        "▁choice",
        -9.443599613446581
      ],
      [
        "▁tourist",
        -9.44393108769651
      ],
      [
        "«",
        -9.44460741856269
      ],
      [
        "▁participation",
        -9.444979177520047
      ],
      [
        "▁initiative",
        -9.445159441775202
      ],
      [
        "▁asked",
        -9.445407917127778
      ],
      [
        "▁front",
        -9.447041820113368
      ],
      [
        "▁French",
        -9.44706274590345
      ],
      [
        "for",
        -9.447222235583611
      ],
      [
        "▁export",
        -9.447448812037424
      ],
      [
        "▁TXXX",
        -9.447713197067895
      ],
      [
        "▁J",
        -9.449448160739253
      ],
      [
        "▁pre",
        -9.452566860760978
      ],
      [
        "▁demand",
        -9.457686171041956
      ],
      [
        "▁operations",
        -9.458326292076125
      ],
      [
        "▁method",
        -9.458513754230973
      ],
      [
        "based",
        -9.45890593239338
      ],
      [
        "▁regions",
        -9.4604581975175
      ],
      [
        "▁outside",
        -9.460512501409069
      ],
      [
        "▁educational",
        -9.461485014495205
      ],
      [
        "▁Oh",
        -9.461694921862033
      ],
      [
        "▁post",
        -9.462226892429545
      ],
      [
        "▁though",
        -9.46247769756319
      ],
      [
        "▁saying",
        -9.462875226978541
      ],
      [
        "▁Secretary",
        -9.46435684084046
      ],
      [
        "▁move",
        -9.465013485772435
      ],
      [
        "▁maintain",
        -9.46603964272645
      ],
      [
        "men",
        -9.4665633997687
      ],
      [
        "▁safe",
        -9.466570461790942
      ],
      [
        "▁white",
        -9.46675771140934
      ],
      [
        "▁experts",
        -9.468003359006495
      ],
      [
        "▁framework",
        -9.468284723771536
      ],
      [
        "▁largest",
        -9.468401732543837
      ],
      [
        "▁command",
        -9.46868826354322
      ],
      [
        "▁former",
        -9.468706898182301
      ],
      [
        "▁whose",
        -9.469329180434128
      ],
      [
        "▁sense",
        -9.469377142323715
      ],
      [
        "▁ground",
        -9.470402194571847
      ],
      [
        "▁station",
        -9.471100094805971
      ],
      [
        "▁warm",
        -9.471600507504482
      ],
      [
        "▁photo",
        -9.47179901799187
      ],
      [
        "▁percent",
        -9.471877532643243
      ],
      [
        "▁rule",
        -9.473011559632237
      ],
      [
        "▁Products",
        -9.473151547939171
      ],
      [
        "▁Today",
        -9.47353978619722
      ],
      [
        "▁speak",
        -9.473964176275695
      ],
      [
        "▁feature",
        -9.474568123875272
      ],
      [
        "▁central",
        -9.474983625966896
      ],
      [
        "▁tax",
        -9.476111741484827
      ],
      [
        "▁Media",
        -9.476204657460832
      ],
      [
        "▁processing",
        -9.477276263953382
      ],
      [
        "▁practical",
        -9.4789734139802
      ],
      [
        "▁act",
        -9.479644515422937
      ],
      [
        "ka",
        -9.479828365199582
      ],
      [
        "▁Father",
        -9.481386184400732
      ],
      [
        "▁devices",
        -9.481477664300893
      ],
      [
        "▁draft",
        -9.482384602114918
      ],
      [
        "▁concept",
        -9.48248012839055
      ],
      [
        "▁campaign",
        -9.48320044567411
      ],
      [
        "▁perfect",
        -9.483453493574723
      ],
      [
        "▁represent",
        -9.483671886649006
      ],
      [
        "▁Code",
        -9.484040172352476
      ],
      [
        "▁coming",
        -9.484373395043429
      ],
      [
        "▁masturbation",
        -9.484463054672737
      ],
      [
        "▁task",
        -9.485279225816136
      ],
      [
        "▁step",
        -9.48554533374726
      ],
      [
        "▁positive",
        -9.485860118552454
      ],
      [
        "▁procedure",
        -9.486085791431366
      ],
      [
        "▁installation",
        -9.487634160687028
      ],
      [
        "▁yourself",
        -9.488141653428555
      ],
      [
        "▁contain",
        -9.48835835390422
      ],
      [
        "▁election",
        -9.488820803637148
      ],
      [
        "▁six",
        -9.49021302190103
      ],
      [
        "▁gave",
        -9.490595672341557
      ],
      [
        "▁states",
        -9.491859104438625
      ],
      [
        "▁town",
        -9.493737817291017
      ],
      [
        "▁processes",
        -9.49391966596107
      ],
      [
        "▁credit",
        -9.494135778730156
      ],
      [
        "▁completely",
        -9.49530819368275
      ],
      [
        "▁Games",
        -9.496965793285993
      ],
      [
        "▁religious",
        -9.497080841983992
      ],
      [
        "▁Q",
        -9.497491402923547
      ],
      [
        "▁Public",
        -9.497801480690768
      ],
      [
        "▁plans",
        -9.49788084489443
      ],
      [
        "▁published",
        -9.499559099626422
      ],
      [
        "▁Room",
        -9.499820652452625
      ],
      [
        "▁consider",
        -9.499828520261135
      ],
      [
        "▁industrial",
        -9.500448983086878
      ],
      [
        "▁Head",
        -9.500773706769698
      ],
      [
        "▁East",
        -9.502874894476367
      ],
      [
        "▁Zoom",
        -9.504186765980222
      ],
      [
        "▁eyes",
        -9.50494371648723
      ],
      [
        "▁communication",
        -9.505177265614337
      ],
      [
        "▁mention",
        -9.50547788794852
      ],
      [
        "▁territory",
        -9.507227591572855
      ],
      [
        "▁success",
        -9.507784531429746
      ],
      [
        "ally",
        -9.507879306044186
      ],
      [
        "▁Can",
        -9.508804288210282
      ],
      [
        "▁cities",
        -9.511345380796609
      ],
      [
        "▁fire",
        -9.513644877033645
      ],
      [
        "▁Show",
        -9.5142082500201
      ],
      [
        "over",
        -9.51558130036883
      ],
      [
        "▁color",
        -9.515827471033864
      ],
      [
        "▁guests",
        -9.515856284631022
      ],
      [
        "ization",
        -9.516015165257965
      ],
      [
        "▁discussion",
        -9.516582186346604
      ],
      [
        "▁formats",
        -9.518851448764693
      ],
      [
        "▁volume",
        -9.519886555299541
      ],
      [
        "▁People",
        -9.522476107803516
      ],
      [
        "▁reported",
        -9.52251507755617
      ],
      [
        "day",
        -9.522915946879987
      ],
      [
        "▁follow",
        -9.525842843386757
      ],
      [
        "seen",
        -9.526072599758718
      ],
      [
        "▁install",
        -9.526943161986651
      ],
      [
        "▁Additional",
        -9.527362633664556
      ],
      [
        "▁funds",
        -9.529374249720998
      ],
      [
        "▁solutions",
        -9.530888573628797
      ],
      [
        "▁elements",
        -9.531433118999615
      ],
      [
        "▁damage",
        -9.53170674990871
      ],
      [
        "self",
        -9.53197550621708
      ],
      [
        "▁co",
        -9.532077422088951
      ],
      [
        "▁establish",
        -9.533243409654492
      ],
      [
        "▁note",
        -9.533283779983039
      ],
      [
        "▁needed",
        -9.533676907954346
      ],
      [
        "▁Art",
        -9.534882268094767
      ],
      [
        "time",
        -9.535949889599154
      ],
      [
        "▁forces",
        -9.536864665365048
      ],
      [
        "stalled",
        -9.538856801116722
      ],
      [
        "▁Association",
        -9.541032417086951
      ],
      [
        "▁Business",
        -9.541062438369929
      ],
      [
        "▁weight",
        -9.543416061455567
      ],
      [
        "▁AShemaleTube",
        -9.54445758796836
      ],
      [
        "▁mass",
        -9.546710620114233
      ],
      [
        "▁Services",
        -9.546749778964177
      ],
      [
        "▁nor",
        -9.54688278138962
      ],
      [
        "▁Not",
        -9.548094592629269
      ],
      [
        "▁organized",
        -9.548836804610765
      ],
      [
        "▁attempt",
        -9.549174493329607
      ],
      [
        "▁brother",
        -9.549303290162547
      ],
      [
        "▁build",
        -9.549370782760493
      ],
      [
        "▁Be",
        -9.5496298799729
      ],
      [
        "▁written",
        -9.551042575973801
      ],
      [
        "▁apply",
        -9.55187477035987
      ],
      [
        "▁mechanism",
        -9.552311518026057
      ],
      [
        "▁contains",
        -9.552508832810823
      ],
      [
        "▁goods",
        -9.553528308885815
      ],
      [
        "▁unit",
        -9.55498134999479
      ],
      [
        "▁kitchen",
        -9.555231039560567
      ],
      [
        "▁average",
        -9.557127913065631
      ],
      [
        "▁Human",
        -9.558986424579766
      ],
      [
        "▁focus",
        -9.559596423641704
      ],
      [
        "▁surface",
        -9.559659142832034
      ],
      [
        "▁skin",
        -9.561793014660092
      ],
      [
        "▁throughout",
        -9.562595495576234
      ],
      [
        "▁serious",
        -9.563156471335665
      ],
      [
        "▁lost",
        -9.563863316138155
      ],
      [
        "▁heard",
        -9.564289656900561
      ],
      [
        "▁decided",
        -9.565990346508684
      ],
      [
        "▁easie",
        -9.567354837018387
      ],
      [
        "▁police",
        -9.567368142694377
      ],
      [
        "▁conflict",
        -9.567914796564008
      ],
      [
        "▁woman",
        -9.56893736653977
      ],
      [
        "▁plant",
        -9.56961188769862
      ],
      [
        "▁brand",
        -9.57023674976141
      ],
      [
        "▁North",
        -9.57049054185365
      ],
      [
        "▁mouth",
        -9.57065887562393
      ],
      [
        "▁Spirit",
        -9.57139889013357
      ],
      [
        "▁path",
        -9.571886899557484
      ],
      [
        "▁hold",
        -9.572284378818043
      ],
      [
        "▁Anal",
        -9.573360401249266
      ],
      [
        "▁impact",
        -9.57391805453364
      ],
      [
        "▁promote",
        -9.574016328582822
      ],
      [
        "▁Foreign",
        -9.574048839684599
      ],
      [
        "▁maximum",
        -9.575091640045015
      ],
      [
        "▁reform",
        -9.575417601630006
      ],
      [
        "▁goal",
        -9.575524634841686
      ],
      [
        "▁influence",
        -9.575589810715682
      ],
      [
        "▁equal",
        -9.575948607383744
      ],
      [
        "▁vote",
        -9.576813079657557
      ],
      [
        "▁leader",
        -9.576973507277115
      ],
      [
        "▁aware",
        -9.577347698455771
      ],
      [
        "▁Software",
        -9.57793945140354
      ],
      [
        "▁Serbia",
        -9.578169481606682
      ],
      [
        "▁easily",
        -9.578184330560692
      ],
      [
        "▁recent",
        -9.578517970066677
      ],
      [
        "▁See",
        -9.57903304398654
      ],
      [
        "▁protect",
        -9.57957254558066
      ],
      [
        "▁maintenance",
        -9.580533037745052
      ],
      [
        "▁highest",
        -9.580772978446268
      ],
      [
        "▁interests",
        -9.581261638483163
      ],
      [
        "▁San",
        -9.581837014172633
      ],
      [
        "▁particularly",
        -9.582522039681036
      ],
      [
        "▁ways",
        -9.582913735390266
      ],
      [
        "▁master",
        -9.583066418054546
      ],
      [
        "▁immediately",
        -9.583112503024733
      ],
      [
        "▁News",
        -9.583656908201895
      ],
      [
        "▁Chinese",
        -9.583944352324973
      ],
      [
        "▁domestic",
        -9.584601323946929
      ],
      [
        "▁mother",
        -9.585721948706162
      ],
      [
        "▁options",
        -9.587680867353509
      ],
      [
        "▁programme",
        -9.588170411056296
      ],
      [
        "▁season",
        -9.588183070629594
      ],
      [
        "▁Power",
        -9.588742553738221
      ],
      [
        "▁Thus",
        -9.589937148810671
      ],
      [
        "▁items",
        -9.592147538961841
      ],
      [
        "▁response",
        -9.592272046862101
      ],
      [
        "▁annual",
        -9.593414636597158
      ],
      [
        "▁Each",
        -9.593583475551364
      ],
      [
        "▁Online",
        -9.594170034847764
      ],
      [
        "▁bar",
        -9.594286424681298
      ],
      [
        "▁morning",
        -9.595071796980744
      ],
      [
        "▁Al",
        -9.595249537074041
      ],
      [
        "▁term",
        -9.59547023270703
      ],
      [
        "▁fall",
        -9.596175856203896
      ],
      [
        "▁forecast",
        -9.596448118634678
      ],
      [
        "▁multi",
        -9.5969406644328
      ],
      [
        "▁Microsoft",
        -9.596988829230442
      ],
      [
        "▁distribution",
        -9.5984125659688
      ],
      [
        "▁Therefor",
        -9.598656890119358
      ],
      [
        "▁village",
        -9.599260050675257
      ],
      [
        "▁Model",
        -9.6002490723585
      ],
      [
        "▁responsible",
        -9.600534507330378
      ],
      [
        "▁monitoring",
        -9.600944744435349
      ],
      [
        "▁Rights",
        -9.602193549224104
      ],
      [
        "▁difference",
        -9.602519468396697
      ],
      [
        "▁length",
        -9.603054662222647
      ],
      [
        "▁extensions",
        -9.603114696886704
      ],
      [
        "▁Go",
        -9.603755462592432
      ],
      [
        "▁summer",
        -9.60418400813796
      ],
      [
        "▁separate",
        -9.604394417464968
      ],
      [
        "▁regulation",
        -9.604636672031868
      ],
      [
        "▁whom",
        -9.604664636109305
      ],
      [
        "▁Dildo",
        -9.6047468041565
      ],
      [
        "▁importance",
        -9.605215884722107
      ],
      [
        "▁equipped",
        -9.605449097003905
      ],
      [
        "ate",
        -9.60561595746077
      ],
      [
        "▁enable",
        -9.606135338056214
      ],
      [
        "▁commission",
        -9.60894146330752
      ],
      [
        "▁involved",
        -9.608996332653794
      ],
      [
        "land",
        -9.609315921280121
      ],
      [
        "year",
        -9.60946273058045
      ],
      [
        "▁job",
        -9.610245611610946
      ],
      [
        "▁famous",
        -9.611140752402939
      ],
      [
        "▁employees",
        -9.611246138336982
      ],
      [
        "▁road",
        -9.611897236438738
      ],
      [
        "▁degree",
        -9.612067306173088
      ],
      [
        "▁base",
        -9.612196924312402
      ],
      [
        "▁button",
        -9.612502482134177
      ],
      [
        "▁hands",
        -9.612876002089367
      ],
      [
        "▁Y",
        -9.612962749277354
      ],
      [
        "▁condition",
        -9.613670250259
      ],
      [
        "▁limited",
        -9.613722479011315
      ],
      [
        "▁Georgian",
        -9.614381988468379
      ],
      [
        "▁chance",
        -9.614408513277743
      ],
      [
        "▁France",
        -9.615256212382317
      ],
      [
        "▁Black",
        -9.615407194000143
      ],
      [
        "▁reach",
        -9.616174053131028
      ],
      [
        "▁selected",
        -9.616577557302518
      ],
      [
        "▁avoid",
        -9.616759303452742
      ],
      [
        "▁church",
        -9.618139585862854
      ],
      [
        "▁nuclear",
        -9.619516433250624
      ],
      [
        "▁successful",
        -9.61984222845718
      ],
      [
        "▁prepared",
        -9.620250777998569
      ],
      [
        "▁paid",
        -9.620333315214058
      ],
      [
        "▁contract",
        -9.62184525558831
      ],
      [
        "▁forms",
        -9.622287788983375
      ],
      [
        "▁skills",
        -9.622976246609946
      ],
      [
        "▁class",
        -9.622988361995752
      ],
      [
        "▁delivery",
        -9.623027210788457
      ],
      [
        "▁met",
        -9.62360589702631
      ],
      [
        "▁storage",
        -9.62372430134327
      ],
      [
        "▁forward",
        -9.624381799101856
      ],
      [
        "off",
        -9.625175089445266
      ],
      [
        "▁deposit",
        -9.625774751604707
      ],
      [
        "▁someone",
        -9.625996778022246
      ],
      [
        "▁partners",
        -9.626017081817146
      ],
      [
        "▁legislation",
        -9.626119365619017
      ],
      [
        "▁thus",
        -9.626198021031755
      ],
      [
        "▁attend",
        -9.627541926233446
      ],
      [
        "▁shows",
        -9.62854925303389
      ],
      [
        "▁takes",
        -9.629364806491916
      ],
      [
        "▁places",
        -9.62986137155935
      ],
      [
        "▁specified",
        -9.630152770445282
      ],
      [
        "▁running",
        -9.630290668881221
      ],
      [
        "▁Great",
        -9.630973685518498
      ],
      [
        "▁daily",
        -9.631057340347567
      ],
      [
        "▁object",
        -9.632608041769618
      ],
      [
        "▁interested",
        -9.634149788951886
      ],
      [
        "▁Co",
        -9.63416193621159
      ],
      [
        "▁sales",
        -9.635530155300973
      ],
      [
        "▁Configuration",
        -9.635701304313423
      ],
      [
        "▁achieve",
        -9.635806323089707
      ],
      [
        "General",
        -9.635887762437529
      ],
      [
        "▁commercial",
        -9.635919176265038
      ],
      [
        "▁association",
        -9.636415422462987
      ],
      [
        "▁solo",
        -9.636455571618718
      ],
      [
        "▁presence",
        -9.636726237514676
      ],
      [
        "▁opening",
        -9.637206250462375
      ],
      [
        "▁player",
        -9.638419074723755
      ],
      [
        "▁seem",
        -9.638705680272368
      ],
      [
        "▁sound",
        -9.63956309301267
      ],
      [
        "▁Asia",
        -9.639802217335363
      ],
      [
        "▁internal",
        -9.64089018791954
      ],
      [
        "▁extreme",
        -9.640975298366321
      ],
      [
        "▁pass",
        -9.64124320474069
      ],
      [
        "▁registration",
        -9.641302798765784
      ],
      [
        "▁destroy",
        -9.641805695886118
      ],
      [
        "▁civil",
        -9.642156101934402
      ],
      [
        "▁Many",
        -9.642464007329416
      ],
      [
        "▁OF",
        -9.643425392298749
      ],
      [
        "▁save",
        -9.643951212973267
      ],
      [
        "▁lives",
        -9.644730102811817
      ],
      [
        "▁efficiency",
        -9.645276922961292
      ],
      [
        "▁adopted",
        -9.645346119920433
      ],
      [
        "▁aspect",
        -9.64582793080809
      ],
      [
        "▁deep",
        -9.646544102256499
      ],
      [
        "▁Even",
        -9.647616397861382
      ],
      [
        "▁movement",
        -9.650610311682312
      ],
      [
        "▁remember",
        -9.651094930207895
      ],
      [
        "▁cable",
        -9.651524595455575
      ],
      [
        "▁round",
        -9.652269274331235
      ],
      [
        "▁reality",
        -9.652667696279803
      ],
      [
        "▁Just",
        -9.65339316914189
      ],
      [
        "▁principles",
        -9.656212130248445
      ],
      [
        "▁compare",
        -9.656774200847897
      ],
      [
        "deed",
        -9.657567632263111
      ],
      [
        "▁leaders",
        -9.657589260787901
      ],
      [
        "▁interesting",
        -9.658001664042734
      ],
      [
        "▁Mobile",
        -9.658227374899122
      ],
      [
        "▁fair",
        -9.658329535093324
      ],
      [
        "▁usually",
        -9.658515397398226
      ],
      [
        "▁gold",
        -9.658785417232227
      ],
      [
        "▁cumshot",
        -9.659083302679171
      ],
      [
        "▁War",
        -9.660332796407634
      ],
      [
        "▁president",
        -9.660657296847349
      ],
      [
        "▁perform",
        -9.661370546882258
      ],
      [
        "▁environmental",
        -9.662067099038842
      ],
      [
        "▁Add",
        -9.662395551666043
      ],
      [
        "▁comfortable",
        -9.662413557278445
      ],
      [
        "▁administration",
        -9.662444089591512
      ],
      [
        "▁policies",
        -9.662687381159245
      ],
      [
        "▁holiday",
        -9.662808942313344
      ],
      [
        "▁actually",
        -9.663030682509868
      ],
      [
        "▁tools",
        -9.663866341641137
      ],
      [
        "▁values",
        -9.664504626452514
      ],
      [
        "j",
        -9.66515502264018
      ],
      [
        "▁steps",
        -9.666167253922781
      ],
      [
        "▁essential",
        -9.666173094401966
      ],
      [
        "▁Putin",
        -9.666912974165376
      ],
      [
        "▁reduce",
        -9.66719437467692
      ],
      [
        "▁Most",
        -9.667444440369428
      ],
      [
        "▁mission",
        -9.66761954069323
      ],
      [
        "\n",
        -9.668329258857957
      ],
      [
        "ities",
        -9.668358370873221
      ],
      [
        "▁charge",
        -9.66972090825369
      ],
      [
        "▁store",
        -9.670947506154098
      ],
      [
        "▁feeling",
        -9.672237606516843
      ],
      [
        "▁signed",
        -9.673224115823896
      ],
      [
        "▁Are",
        -9.673553661931598
      ],
      [
        "▁Belarus",
        -9.673631537320636
      ],
      [
        "▁responsibility",
        -9.67428366629755
      ],
      [
        "▁infrastructure",
        -9.674287010649094
      ],
      [
        "▁named",
        -9.67435686035583
      ],
      [
        "▁detail",
        -9.675025757264661
      ],
      [
        "▁tool",
        -9.675163913112655
      ],
      [
        "▁PM",
        -9.675740325541835
      ],
      [
        "▁Soviet",
        -9.67716406021167
      ],
      [
        "▁statement",
        -9.677289352656592
      ],
      [
        "▁mode",
        -9.678802742712348
      ],
      [
        "▁loss",
        -9.678943242533617
      ],
      [
        "▁De",
        -9.680444118775004
      ],
      [
        "▁sports",
        -9.680574740365344
      ],
      [
        "▁Don",
        -9.68092844846807
      ],
      [
        "▁THE",
        -9.68093648512315
      ],
      [
        "▁compilation",
        -9.681213270126143
      ],
      [
        "▁stand",
        -9.681238043092671
      ],
      [
        "▁schedule",
        -9.682283877115662
      ],
      [
        "▁participate",
        -9.682616638705651
      ],
      [
        "▁West",
        -9.684221115283801
      ],
      [
        "▁Park",
        -9.684301166389181
      ],
      [
        "▁turned",
        -9.684661143325654
      ],
      [
        "▁lack",
        -9.684768249028972
      ],
      [
        "▁income",
        -9.685719441087482
      ],
      [
        "▁decide",
        -9.686130796869254
      ],
      [
        "▁Or",
        -9.686170970767186
      ],
      [
        "▁symbol",
        -9.687085561296037
      ],
      [
        "▁Product",
        -9.687110661030806
      ],
      [
        "▁understanding",
        -9.687399621333808
      ],
      [
        "▁else",
        -9.688295844697727
      ],
      [
        "▁generation",
        -9.688588144505985
      ],
      [
        "▁require",
        -9.689101929146101
      ],
      [
        "▁style",
        -9.69053543601353
      ],
      [
        "▁breeze",
        -9.691149032205232
      ],
      [
        "▁hear",
        -9.691551016288509
      ],
      [
        "▁Weather",
        -9.693015994017562
      ],
      [
        "ive",
        -9.693043146682768
      ],
      [
        "age",
        -9.693095389218394
      ],
      [
        "▁John",
        -9.693521547757765
      ],
      [
        "▁reached",
        -9.694365442946033
      ],
      [
        "▁White",
        -9.694462607833326
      ],
      [
        "▁happy",
        -9.695405006914003
      ],
      [
        "▁fear",
        -9.696828377835091
      ],
      [
        "▁creating",
        -9.697112801000308
      ],
      [
        "▁Because",
        -9.698393901771341
      ],
      [
        "▁conducted",
        -9.698452832612691
      ],
      [
        "▁seven",
        -9.69892683994277
      ],
      [
        "▁enterprises",
        -9.698932564764709
      ],
      [
        "▁Social",
        -9.699713513738619
      ],
      [
        "▁Where",
        -9.699913242632203
      ],
      [
        "▁latest",
        -9.700636515631647
      ],
      [
        "▁browser",
        -9.701716865174236
      ],
      [
        "▁relative",
        -9.702450874459425
      ],
      [
        "▁race",
        -9.702882916947985
      ],
      [
        "▁Web",
        -9.703574115457185
      ],
      [
        "▁functions",
        -9.705191898865435
      ],
      [
        "▁convert",
        -9.705785504947693
      ],
      [
        "▁fish",
        -9.70585048184074
      ],
      [
        "▁conduct",
        -9.705919603564137
      ],
      [
        "▁alternative",
        -9.706165381453406
      ],
      [
        "▁web",
        -9.706811150504237
      ],
      [
        "▁Organization",
        -9.707534960860094
      ],
      [
        "▁science",
        -9.707967119206723
      ],
      [
        "▁external",
        -9.708906022708332
      ],
      [
        "▁PVC",
        -9.709090521366866
      ],
      [
        "▁package",
        -9.70920604253886
      ],
      [
        "▁crisis",
        -9.709504264537989
      ],
      [
        "▁Z",
        -9.709969783354435
      ],
      [
        "▁exercise",
        -9.712415939890054
      ],
      [
        "▁couple",
        -9.712559225682035
      ],
      [
        "▁Armenia",
        -9.713459456589831
      ],
      [
        "▁meters",
        -9.71419603579091
      ],
      [
        "▁break",
        -9.71445067548777
      ],
      [
        "▁sometime",
        -9.714668163493489
      ],
      [
        "▁watch",
        -9.714807928157054
      ],
      [
        "▁allowed",
        -9.71576929613235
      ],
      [
        "▁Fund",
        -9.716067356506837
      ],
      [
        "▁screen",
        -9.716530285659113
      ],
      [
        "▁planning",
        -9.717253103502268
      ],
      [
        "▁offered",
        -9.71774351234984
      ],
      [
        "▁excellent",
        -9.718124676209893
      ],
      [
        "▁Pro",
        -9.71827723134233
      ],
      [
        "▁laws",
        -9.718774834806066
      ],
      [
        "▁Delivery",
        -9.71950083136403
      ],
      [
        "▁Name",
        -9.719962578861194
      ],
      [
        "▁announced",
        -9.720429844722018
      ],
      [
        "▁film",
        -9.72062303071896
      ],
      [
        "org",
        -9.721010684646272
      ],
      [
        "▁fight",
        -9.721256099351082
      ],
      [
        "▁repair",
        -9.722045011158297
      ],
      [
        "▁Jerusalem",
        -9.722171064957504
      ],
      [
        "▁beach",
        -9.722204130337579
      ],
      [
        "▁Vladimir",
        -9.722322313513128
      ],
      [
        "▁hair",
        -9.723101863545958
      ],
      [
        "▁release",
        -9.723989767332412
      ],
      [
        "▁rates",
        -9.726959409352833
      ],
      [
        "▁secret",
        -9.727882069056864
      ],
      [
        "▁opportunities",
        -9.727915699244505
      ],
      [
        "▁airport",
        -9.728361577704046
      ],
      [
        "▁database",
        -9.72929160274354
      ],
      [
        "▁Tool",
        -9.72932007386147
      ],
      [
        "▁Airport",
        -9.72976013346171
      ],
      [
        "▁combination",
        -9.73070989588858
      ],
      [
        "▁faith",
        -9.731413353624948
      ],
      [
        "▁depend",
        -9.731594764779178
      ],
      [
        "▁target",
        -9.732444524294223
      ],
      [
        "▁IP",
        -9.73297032138454
      ],
      [
        "▁dry",
        -9.734466552892066
      ],
      [
        "▁issued",
        -9.734565990509344
      ],
      [
        "ized",
        -9.735516948561878
      ],
      [
        "▁Sex",
        -9.736143915696012
      ],
      [
        "▁Red",
        -9.737673539470522
      ],
      [
        "▁Who",
        -9.737969841494442
      ],
      [
        "▁messages",
        -9.7380871176567
      ],
      [
        "▁Vibrator",
        -9.738246649170385
      ],
      [
        "▁completed",
        -9.740477580134623
      ],
      [
        "▁topic",
        -9.740626927378866
      ],
      [
        "▁properties",
        -9.741456756310969
      ],
      [
        "▁consciousness",
        -9.742171013726443
      ],
      [
        "▁improvement",
        -9.743835069390686
      ],
      [
        "▁Affairs",
        -9.743991063469045
      ],
      [
        "▁Chairman",
        -9.744137859798233
      ],
      [
        "▁greater",
        -9.744256866490055
      ],
      [
        "▁crime",
        -9.744424092921692
      ],
      [
        "▁workers",
        -9.744452153249552
      ],
      [
        "и",
        -9.744729584937009
      ],
      [
        "▁square",
        -9.745994573594126
      ],
      [
        "▁memory",
        -9.746308523646999
      ],
      [
        "▁remains",
        -9.746738073894326
      ],
      [
        "▁sites",
        -9.746965384862362
      ],
      [
        "▁trying",
        -9.749122932318446
      ],
      [
        "▁Petersburg",
        -9.75068387597736
      ],
      [
        "We",
        -9.75093012040559
      ],
      [
        "ur",
        -9.751092497798533
      ],
      [
        "▁Holy",
        -9.751196544558912
      ],
      [
        "▁deliver",
        -9.752573180388685
      ],
      [
        "▁fuel",
        -9.752584104196103
      ],
      [
        "▁changed",
        -9.755560743661754
      ],
      [
        "▁Radio",
        -9.755631827759936
      ],
      [
        "▁bad",
        -9.755765911338369
      ],
      [
        "▁balance",
        -9.757127075091573
      ],
      [
        "▁Health",
        -9.757510609317542
      ],
      [
        "▁partner",
        -9.757723103659778
      ],
      [
        "▁AM",
        -9.75793460661558
      ],
      [
        "▁increasing",
        -9.758168933046132
      ],
      [
        "▁electronic",
        -9.758981574239032
      ],
      [
        "▁news",
        -9.759686058787128
      ],
      [
        "mail",
        -9.760248590030546
      ],
      [
        "▁Aliyeva",
        -9.760606018557578
      ],
      [
        "▁stated",
        -9.760618581757171
      ],
      [
        "▁Computer",
        -9.761796454422509
      ],
      [
        "▁threat",
        -9.761982560812722
      ],
      [
        "▁offering",
        -9.762422790434396
      ],
      [
        "▁possibility",
        -9.76332864263843
      ],
      [
        "▁alone",
        -9.763741068614223
      ],
      [
        "▁views",
        -9.763868193086413
      ],
      [
        "▁discussed",
        -9.764075505403142
      ],
      [
        "▁USA",
        -9.765009131679816
      ],
      [
        "▁blow",
        -9.765122213455486
      ],
      [
        "▁applied",
        -9.76541761926954
      ],
      [
        "†",
        -9.765584008770904
      ],
      [
        "▁concerning",
        -9.765625217901734
      ],
      [
        "▁connected",
        -9.767022467769463
      ],
      [
        "▁red",
        -9.768318601826705
      ],
      [
        "▁determine",
        -9.769032674830584
      ],
      [
        "▁factory",
        -9.770298319605383
      ],
      [
        "▁recommended",
        -9.770355614933845
      ],
      [
        "▁strength",
        -9.771636014625116
      ],
      [
        "▁connect",
        -9.772951571131681
      ],
      [
        "▁attack",
        -9.773851753622674
      ],
      [
        "▁accept",
        -9.777337239443368
      ],
      [
        "▁continued",
        -9.777686353218996
      ],
      [
        "▁Education",
        -9.777875278387585
      ],
      [
        "strategy",
        -9.777954000544884
      ],
      [
        "▁door",
        -9.778467788280444
      ],
      [
        "▁Time",
        -9.778703800582619
      ],
      [
        "▁distance",
        -9.778972812243552
      ],
      [
        "▁proper",
        -9.779339423534488
      ],
      [
        "▁Main",
        -9.77971774951071
      ],
      [
        "▁sign",
        -9.78015281876671
      ],
      [
        "▁operate",
        -9.780259790242972
      ],
      [
        "▁voice",
        -9.780761103506936
      ],
      [
        "▁Earth",
        -9.780875993935561
      ],
      [
        "▁decisions",
        -9.781507689888269
      ],
      [
        "▁shown",
        -9.781651349377304
      ],
      [
        "▁license",
        -9.781661237656676
      ],
      [
        "▁picture",
        -9.781856602508373
      ],
      [
        "▁paragraph",
        -9.781896175507482
      ],
      [
        "▁Dr",
        -9.782785329215935
      ],
      [
        "click",
        -9.783161907709417
      ],
      [
        "▁regular",
        -9.783191994470558
      ],
      [
        "▁aimed",
        -9.784378451814536
      ],
      [
        "▁patent",
        -9.784898570732356
      ],
      [
        "▁Policy",
        -9.786209761271618
      ],
      [
        "▁dedicated",
        -9.786681659204834
      ],
      [
        "▁led",
        -9.786911055400433
      ],
      [
        "▁automatically",
        -9.787732163944408
      ],
      [
        "▁huge",
        -9.78778456059921
      ],
      [
        "▁Africa",
        -9.788224307555756
      ],
      [
        "▁Best",
        -9.788270805712965
      ],
      [
        "▁worth",
        -9.788594689519028
      ],
      [
        "▁www",
        -9.788864863782907
      ],
      [
        "▁Only",
        -9.789116392050714
      ],
      [
        "▁majority",
        -9.789306115648248
      ],
      [
        "▁contribution",
        -9.790124045772494
      ],
      [
        "▁representative",
        -9.790210029882852
      ],
      [
        "planned",
        -9.790345450692026
      ],
      [
        "▁Also",
        -9.791718009609674
      ],
      [
        "▁seconds",
        -9.79231869213107
      ],
      [
        "▁bed",
        -9.792703892791973
      ],
      [
        "▁secure",
        -9.79383145798054
      ],
      [
        "U",
        -9.79395766717911
      ],
      [
        "▁ten",
        -9.794179165519227
      ],
      [
        "▁objects",
        -9.79435035179102
      ],
      [
        "J",
        -9.794521145522271
      ],
      [
        "▁Download",
        -9.794839215966471
      ],
      [
        "▁dead",
        -9.795476111178779
      ],
      [
        "▁affect",
        -9.796731584025709
      ],
      [
        "▁artist",
        -9.796821586477828
      ],
      [
        "▁department",
        -9.797187709487126
      ],
      [
        "▁agencies",
        -9.798279626422577
      ],
      [
        "▁email",
        -9.798786194410562
      ],
      [
        "▁powerful",
        -9.79936821892383
      ],
      [
        "▁supported",
        -9.800502672179594
      ],
      [
        "▁fast",
        -9.800753014780412
      ],
      [
        "▁victim",
        -9.80186110447562
      ],
      [
        "▁obtain",
        -9.802258082672537
      ],
      [
        "▁casino",
        -9.803428858681073
      ],
      [
        "▁soul",
        -9.80618860196365
      ],
      [
        "▁rating",
        -9.806511912711565
      ],
      [
        "▁Western",
        -9.80711799005718
      ],
      [
        "per",
        -9.807432028370398
      ],
      [
        "▁toward",
        -9.807434195493336
      ],
      [
        "▁happened",
        -9.808390206280063
      ],
      [
        "▁teaching",
        -9.8086521204837
      ],
      [
        "▁David",
        -9.80890002572655
      ],
      [
        "▁playing",
        -9.80973967331319
      ],
      [
        "▁purchase",
        -9.810103173803627
      ],
      [
        "▁record",
        -9.810336588679732
      ],
      [
        "▁bit",
        -9.810623284856089
      ],
      [
        "▁forest",
        -9.810945940833427
      ],
      [
        "▁trust",
        -9.81217351946443
      ],
      [
        "▁guide",
        -9.81248225175583
      ],
      [
        "▁extend",
        -9.813107107940022
      ],
      [
        "▁Meeting",
        -9.813247919725208
      ],
      [
        "▁markets",
        -9.813394327456715
      ],
      [
        "▁ideal",
        -9.813585667339185
      ],
      [
        "▁setting",
        -9.813723632568777
      ],
      [
        "▁Deputy",
        -9.814440397145814
      ],
      [
        "▁benefits",
        -9.815762459808662
      ],
      [
        "▁Forum",
        -9.815944710949736
      ],
      [
        "▁promotion",
        -9.816365339429513
      ],
      [
        "▁meetings",
        -9.816635206371668
      ],
      [
        "▁Network",
        -9.817014139715731
      ],
      [
        "▁massage",
        -9.817698368040617
      ],
      [
        "▁expressed",
        -9.817714888506988
      ],
      [
        "▁Light",
        -9.817892371558438
      ],
      [
        "▁beauty",
        -9.820432282308769
      ],
      [
        "▁Women",
        -9.820602154105995
      ],
      [
        "▁anyone",
        -9.821706584934798
      ],
      [
        "▁internet",
        -9.82184593844269
      ],
      [
        "▁hot",
        -9.822489687663042
      ],
      [
        "▁efficient",
        -9.822910880770364
      ],
      [
        "▁India",
        -9.824353075966629
      ],
      [
        "▁Poker",
        -9.825270181524727
      ],
      [
        "line",
        -9.825781831690614
      ],
      [
        "▁remove",
        -9.82589634117607
      ],
      [
        "▁fine",
        -9.826152545526645
      ],
      [
        "▁School",
        -9.827400473550826
      ],
      [
        "▁historical",
        -9.828658017879247
      ],
      [
        "▁instead",
        -9.829263522892994
      ],
      [
        "▁cross",
        -9.82979861859041
      ],
      [
        "▁benefit",
        -9.82985208755659
      ],
      [
        "▁Iron",
        -9.829970357082363
      ],
      [
        "▁evening",
        -9.830003468343962
      ],
      [
        "▁criminal",
        -9.831752247161829
      ],
      [
        "▁remote",
        -9.832505704426076
      ],
      [
        "▁zone",
        -9.832732516313921
      ],
      [
        "▁listen",
        -9.833291710095445
      ],
      [
        "ver",
        -9.833453509421066
      ],
      [
        "▁gives",
        -9.833545419321373
      ],
      [
        "▁although",
        -9.833825701976409
      ],
      [
        "▁Kazakh",
        -9.834364949993049
      ],
      [
        "ance",
        -9.834432404197582
      ],
      [
        "▁universe",
        -9.834672466048504
      ],
      [
        "▁negative",
        -9.835225565385734
      ],
      [
        "▁sources",
        -9.835786094173761
      ],
      [
        "▁Any",
        -9.836216666485548
      ],
      [
        "▁author",
        -9.836325452701589
      ],
      [
        "go",
        -9.8397467483029
      ],
      [
        "▁hour",
        -9.840136331189056
      ],
      [
        "registry",
        -9.840913881880867
      ],
      [
        "▁authority",
        -9.84204843238987
      ],
      [
        "▁evidence",
        -9.842176144058204
      ],
      [
        "▁registered",
        -9.843031758667127
      ],
      [
        "▁Two",
        -9.843883275310628
      ],
      [
        "▁heat",
        -9.84474359790108
      ],
      [
        "▁visitors",
        -9.845603098671967
      ],
      [
        "▁banks",
        -9.84689708865637
      ],
      [
        "▁assets",
        -9.848200504549505
      ],
      [
        "ter",
        -9.84825464222949
      ],
      [
        "▁schools",
        -9.84911983956905
      ],
      [
        "▁inter",
        -9.849375883800565
      ],
      [
        "▁link",
        -9.849805196227745
      ],
      [
        "quality",
        -9.850038163530657
      ],
      [
        "▁item",
        -9.850317438481952
      ],
      [
        "▁approved",
        -9.8504332432738
      ],
      [
        "▁electric",
        -9.850487797502879
      ],
      [
        "▁Member",
        -9.851027068014018
      ],
      [
        "▁Son",
        -9.851183852628917
      ],
      [
        "▁tour",
        -9.851226056836323
      ],
      [
        "▁proposed",
        -9.851983478198221
      ],
      [
        "▁Parliament",
        -9.854142653902539
      ],
      [
        "▁import",
        -9.854321496103987
      ],
      [
        "▁apartments",
        -9.854324676375425
      ],
      [
        "▁UNESCO",
        -9.856916818552238
      ],
      [
        "▁JSC",
        -9.857742186881426
      ],
      [
        "▁growing",
        -9.85778955068252
      ],
      [
        "▁electoral",
        -9.857809077563227
      ],
      [
        "▁acts",
        -9.858633039097361
      ],
      [
        "▁suitable",
        -9.858771678330713
      ],
      [
        "▁submitted",
        -9.858924139133936
      ],
      [
        "released",
        -9.859672602443464
      ],
      [
        "▁winter",
        -9.86030718992397
      ],
      [
        "X",
        -9.860499086794983
      ],
      [
        "▁sphere",
        -9.860590302285848
      ],
      [
        "▁agreed",
        -9.860912234425275
      ],
      [
        "▁cold",
        -9.861092297794862
      ],
      [
        "▁Box",
        -9.861738462294547
      ],
      [
        "▁Professor",
        -9.861753735248987
      ],
      [
        "▁factors",
        -9.862316783451007
      ],
      [
        "▁certificate",
        -9.862602730294489
      ],
      [
        "▁flow",
        -9.863367745450635
      ],
      [
        "▁plants",
        -9.86372762825656
      ],
      [
        "▁Master",
        -9.86411317927631
      ],
      [
        "▁drink",
        -9.86420407803929
      ],
      [
        "▁Google",
        -9.864234416230914
      ],
      [
        "▁Such",
        -9.864301631928267
      ],
      [
        "▁provisions",
        -9.864317806461324
      ],
      [
        "▁caused",
        -9.864521505131693
      ],
      [
        "▁enterprise",
        -9.864621055617988
      ],
      [
        "▁violence",
        -9.866568837581879
      ],
      [
        "▁Support",
        -9.866751864145192
      ],
      [
        "▁context",
        -9.868129018217905
      ],
      [
        "▁Riga",
        -9.868652198197138
      ],
      [
        "▁implemented",
        -9.868671745616679
      ],
      [
        "▁cam",
        -9.869651231905383
      ],
      [
        "▁guarantee",
        -9.870419007788774
      ],
      [
        "▁agent",
        -9.871478907195243
      ],
      [
        "▁exist",
        -9.87337737332966
      ],
      [
        "▁Japanese",
        -9.873767845040788
      ],
      [
        "▁II",
        -9.874195057763451
      ],
      [
        "▁requires",
        -9.87485985857354
      ],
      [
        "▁establishment",
        -9.875370040254024
      ],
      [
        "▁reveal",
        -9.875679935652762
      ],
      [
        "▁performed",
        -9.87585962670961
      ],
      [
        "▁assessment",
        -9.877347257468303
      ],
      [
        "▁starting",
        -9.878569393341165
      ],
      [
        "▁seems",
        -9.879430546588837
      ],
      [
        "▁Next",
        -9.879839433381571
      ],
      [
        "▁visited",
        -9.88119922287639
      ],
      [
        "▁formation",
        -9.88200770914261
      ],
      [
        "▁copy",
        -9.88256284639774
      ],
      [
        "▁advanced",
        -9.88274515142431
      ],
      [
        "▁default",
        -9.883234988983572
      ],
      [
        "▁corporate",
        -9.884144443815824
      ],
      [
        "ling",
        -9.884620556793044
      ],
      [
        "▁individuals",
        -9.88519331305659
      ],
      [
        "▁knew",
        -9.88553326228209
      ],
      [
        "▁student",
        -9.885717584339178
      ],
      [
        "▁Christian",
        -9.88585455149426
      ],
      [
        "Fi",
        -9.885933960950307
      ],
      [
        "▁parents",
        -9.886085192794836
      ],
      [
        "▁ancient",
        -9.886479663373697
      ],
      [
        "▁strengthen",
        -9.886488590751055
      ],
      [
        "▁relationship",
        -9.886652869079523
      ],
      [
        "▁selection",
        -9.887818896669902
      ],
      [
        "▁visa",
        -9.888673807962688
      ],
      [
        "▁metal",
        -9.888868676271262
      ],
      [
        "▁Project",
        -9.889375458363443
      ],
      [
        "▁images",
        -9.889537635384155
      ],
      [
        "▁cash",
        -9.889555073465065
      ],
      [
        "▁edit",
        -9.890159500181204
      ],
      [
        "▁late",
        -9.890930908265311
      ],
      [
        "▁principle",
        -9.891257337577361
      ],
      [
        "▁digital",
        -9.891448458781195
      ],
      [
        "▁Tag",
        -9.891474997484062
      ],
      [
        "ten",
        -9.892731402570375
      ],
      [
        "▁Number",
        -9.892859238535426
      ],
      [
        "▁green",
        -9.894022532842154
      ],
      [
        "▁Alexander",
        -9.89419505854598
      ],
      [
        "▁board",
        -9.896542958789738
      ],
      [
        "▁camera",
        -9.8973014824516
      ],
      [
        "▁preparation",
        -9.897500119182306
      ],
      [
        "▁poor",
        -9.898123240313348
      ],
      [
        "▁attract",
        -9.898824718847848
      ],
      [
        "▁Prime",
        -9.8990602411688
      ],
      [
        "▁Force",
        -9.899168764901837
      ],
      [
        "▁weapons",
        -9.899428229530859
      ],
      [
        "▁manager",
        -9.899714716319382
      ],
      [
        "▁York",
        -9.901081376954519
      ],
      [
        "▁fruit",
        -9.901553997478505
      ],
      [
        "▁enem",
        -9.902118200459354
      ],
      [
        "▁View",
        -9.903528354876943
      ],
      [
        "▁strategic",
        -9.90426058520551
      ],
      [
        "▁elegant",
        -9.904659365062153
      ],
      [
        "▁Energy",
        -9.905097538845181
      ],
      [
        "▁specialists",
        -9.905423246651726
      ],
      [
        "▁tasks",
        -9.905566518048715
      ],
      [
        "▁parking",
        -9.905927228931573
      ],
      [
        "▁menu",
        -9.906028197168402
      ],
      [
        "▁Size",
        -9.90606929569917
      ],
      [
        "▁engine",
        -9.906834693615231
      ],
      [
        "▁concerned",
        -9.9076136501043
      ],
      [
        "▁primary",
        -9.907661202779728
      ],
      [
        "ice",
        -9.90878205475437
      ],
      [
        "▁born",
        -9.908806965507072
      ],
      [
        "▁consideration",
        -9.909215865601707
      ],
      [
        "▁procedures",
        -9.909361263533018
      ],
      [
        "▁Water",
        -9.909408219908597
      ],
      [
        "▁passed",
        -9.909753398601529
      ],
      [
        "In",
        -9.910036934122767
      ],
      [
        "▁story",
        -9.910319030640458
      ],
      [
        "▁purposes",
        -9.911044471933181
      ],
      [
        "▁Children",
        -9.911955128925845
      ],
      [
        "▁clean",
        -9.912049022528926
      ],
      [
        "▁expand",
        -9.912406097262192
      ],
      [
        "▁Allah",
        -9.912783106980298
      ],
      [
        "▁Exhibition",
        -9.912900304926222
      ],
      [
        "▁normal",
        -9.913195546369487
      ],
      [
        "screen",
        -9.913515950265872
      ],
      [
        "▁Research",
        -9.913703456379393
      ],
      [
        "▁recommendations",
        -9.913899466957128
      ],
      [
        "▁placed",
        -9.914524151299526
      ],
      [
        "▁island",
        -9.915628903665128
      ],
      [
        "▁studies",
        -9.915672564662666
      ],
      [
        "▁administrative",
        -9.917448036869498
      ],
      [
        "free",
        -9.918070406870674
      ],
      [
        "▁families",
        -9.918711709943386
      ],
      [
        "▁Click",
        -9.918897955125772
      ],
      [
        "▁Italy",
        -9.919224330851616
      ],
      [
        "▁Book",
        -9.9193889065561
      ],
      [
        "aid",
        -9.919921184862941
      ],
      [
        "ous",
        -9.920003111281678
      ],
      [
        "▁getting",
        -9.920083999485579
      ],
      [
        "▁insurance",
        -9.92025585006241
      ],
      [
        "▁officer",
        -9.920617175633959
      ],
      [
        "▁agree",
        -9.921764121399017
      ],
      [
        "▁Man",
        -9.921790758120672
      ],
      [
        "@",
        -9.92196385365781
      ],
      [
        "▁seat",
        -9.922090489112248
      ],
      [
        "▁recently",
        -9.922274583137977
      ],
      [
        "▁describe",
        -9.923150504066353
      ],
      [
        "▁museum",
        -9.92343464223544
      ],
      [
        "ill",
        -9.923525932292955
      ],
      [
        "▁La",
        -9.924128503763983
      ],
      [
        "▁welcome",
        -9.924205863899603
      ],
      [
        "▁Mehriban",
        -9.925494619829973
      ],
      [
        "▁discuss",
        -9.925905070992217
      ],
      [
        "▁Finally",
        -9.926567220847494
      ],
      [
        "▁tourism",
        -9.926814772959544
      ],
      [
        "▁Science",
        -9.926850464931324
      ],
      [
        "▁grow",
        -9.928673771423203
      ],
      [
        "▁Wind",
        -9.929503317901576
      ],
      [
        "▁Heating",
        -9.929615835560215
      ],
      [
        "▁clearly",
        -9.929621251721652
      ],
      [
        "hose",
        -9.929674842596942
      ],
      [
        "▁category",
        -9.929838341953749
      ],
      [
        "▁Bar",
        -9.931320853459587
      ],
      [
        "▁youth",
        -9.932557460092355
      ],
      [
        "Q",
        -9.932807186189493
      ],
      [
        "▁Him",
        -9.932861778049691
      ],
      [
        "▁About",
        -9.933273434872977
      ],
      [
        "▁Protection",
        -9.93425282001288
      ],
      [
        "▁treat",
        -9.935557294247369
      ],
      [
        "▁Although",
        -9.936241648987368
      ],
      [
        "▁character",
        -9.936510076620971
      ],
      [
        "▁Un",
        -9.936808506655725
      ],
      [
        "▁Federal",
        -9.937559583325873
      ],
      [
        "▁furniture",
        -9.93758583831862
      ],
      [
        "▁Turkey",
        -9.938132149141941
      ],
      [
        "▁mom",
        -9.938216561474208
      ],
      [
        "▁Paul",
        -9.93834094454479
      ],
      [
        "▁delegation",
        -9.938678854828634
      ],
      [
        "▁evil",
        -9.938754155285414
      ],
      [
        "▁Academy",
        -9.93897609978221
      ],
      [
        "▁output",
        -9.939081320490347
      ],
      [
        "▁cm",
        -9.939390397625928
      ],
      [
        "▁feet",
        -9.939760336490957
      ],
      [
        "▁win",
        -9.941627989560509
      ],
      [
        "▁beyon",
        -9.942270042003695
      ],
      [
        "▁Channel",
        -9.942285294319975
      ],
      [
        "▁integration",
        -9.942321389476295
      ],
      [
        "▁personnel",
        -9.942866395097367
      ],
      [
        "▁Every",
        -9.943076779056145
      ],
      [
        "▁border",
        -9.944803969451772
      ],
      [
        "▁webcam",
        -9.945650667286285
      ],
      [
        "▁respective",
        -9.94568496295246
      ],
      [
        "▁touch",
        -9.946040140971228
      ],
      [
        "▁rent",
        -9.946684303318726
      ],
      [
        "▁Armenian",
        -9.947647096479784
      ],
      [
        "▁Wi",
        -9.947738831192789
      ],
      [
        "▁slow",
        -9.948665817307047
      ],
      [
        "▁competitive",
        -9.949558209357136
      ],
      [
        "▁circumstance",
        -9.949776473680686
      ],
      [
        "▁innovation",
        -9.949887388390124
      ],
      [
        "▁Over",
        -9.950101974158516
      ],
      [
        "me",
        -9.950217017568109
      ],
      [
        "▁park",
        -9.951551935578092
      ],
      [
        "▁becomes",
        -9.951734839471223
      ],
      [
        "▁Private",
        -9.952043899172153
      ],
      [
        "▁daughter",
        -9.952436829338527
      ],
      [
        "▁rich",
        -9.954405691718044
      ],
      [
        "▁letter",
        -9.954652684252931
      ],
      [
        "▁description",
        -9.954917484252318
      ],
      [
        "▁permission",
        -9.954947534565676
      ],
      [
        "▁friend",
        -9.956571856128578
      ],
      [
        "▁initial",
        -9.957522580286353
      ],
      [
        "ent",
        -9.958333931532996
      ],
      [
        "▁multiple",
        -9.959981071462432
      ],
      [
        "▁foundation",
        -9.960270550867756
      ],
      [
        "▁comprehensive",
        -9.960412147056347
      ],
      [
        "▁probably",
        -9.961148094801132
      ],
      [
        "▁reflect",
        -9.961723639941638
      ],
      [
        "▁join",
        -9.962735434963784
      ],
      [
        "▁seek",
        -9.963387974116337
      ],
      [
        "▁ratio",
        -9.963421029310105
      ],
      [
        "▁Design",
        -9.963654543749803
      ],
      [
        "▁garden",
        -9.96369363712669
      ],
      [
        "▁platform",
        -9.963806242374543
      ],
      [
        "▁worked",
        -9.963890403959654
      ],
      [
        "▁computers",
        -9.963922798092728
      ],
      [
        "▁Japan",
        -9.9642250636768
      ],
      [
        "▁specify",
        -9.965273930626914
      ],
      [
        "▁identify",
        -9.966809328463816
      ],
      [
        "▁cut",
        -9.966869890229031
      ],
      [
        "▁anniversar",
        -9.967068503415033
      ],
      [
        "▁host",
        -9.967586139767555
      ],
      [
        "▁bedroom",
        -9.967917203006694
      ],
      [
        "▁configure",
        -9.968818988081313
      ],
      [
        "▁Data",
        -9.969432349782192
      ],
      [
        "▁milf",
        -9.97004951718102
      ],
      [
        "▁director",
        -9.970184062797722
      ],
      [
        "▁meaning",
        -9.97025414555728
      ],
      [
        "▁names",
        -9.970423043611707
      ],
      [
        "▁resistance",
        -9.970437067219196
      ],
      [
        "▁HIV",
        -9.970859269731976
      ],
      [
        "▁Up",
        -9.971044137328777
      ],
      [
        "▁wall",
        -9.97114403437151
      ],
      [
        "▁Technical",
        -9.97129297545232
      ],
      [
        "▁fields",
        -9.971804388728406
      ],
      [
        "▁Material",
        -9.971805940557042
      ],
      [
        "▁Toilet",
        -9.972201340592576
      ],
      [
        "▁Working",
        -9.972905180451587
      ],
      [
        "▁estate",
        -9.973345345101782
      ],
      [
        "▁fresh",
        -9.973546113738891
      ],
      [
        "▁accommodation",
        -9.975044679294202
      ],
      [
        "▁Camel",
        -9.97516075995441
      ],
      [
        "▁manage",
        -9.975326013408097
      ],
      [
        "▁dark",
        -9.975516110035299
      ],
      [
        "▁Jew",
        -9.976028962920775
      ],
      [
        "▁goals",
        -9.976150187786844
      ],
      [
        "▁intelligence",
        -9.978690131148744
      ],
      [
        "▁reliable",
        -9.97951445113686
      ],
      [
        "▁officials",
        -9.980494703536383
      ],
      [
        "▁Account",
        -9.981371206323628
      ],
      [
        "▁regime",
        -9.982175514725947
      ],
      [
        "▁Mother",
        -9.98254920443956
      ],
      [
        "▁suggest",
        -9.982580085601741
      ],
      [
        "▁extra",
        -9.98298345350536
      ],
      [
        "her",
        -9.983868980936595
      ],
      [
        "▁wait",
        -9.984661066727748
      ],
      [
        "▁Video",
        -9.984814570211359
      ],
      [
        "▁south",
        -9.985348325635867
      ],
      [
        "▁detailed",
        -9.985350721376133
      ],
      [
        "▁title",
        -9.986040156063074
      ],
      [
        "▁Jewish",
        -9.987320531392617
      ],
      [
        "▁speech",
        -9.987457991037502
      ],
      [
        "▁closed",
        -9.988176784631788
      ],
      [
        "▁Car",
        -9.988983767814014
      ],
      [
        "▁radio",
        -9.990529891141684
      ],
      [
        "▁heating",
        -9.990628048098674
      ],
      [
        "▁adult",
        -9.990854476783886
      ],
      [
        "▁Agency",
        -9.99097452927978
      ],
      [
        "▁stone",
        -9.992263022443716
      ],
      [
        "▁models",
        -9.99253375574742
      ],
      [
        "▁Top",
        -9.992805249264299
      ],
      [
        "▁factor",
        -9.992953219506685
      ],
      [
        "party",
        -9.993837928682561
      ],
      [
        "▁shower",
        -9.99397429841094
      ],
      [
        "▁spread",
        -9.994382681142763
      ],
      [
        "▁manner",
        -9.994425040785856
      ],
      [
        "▁drug",
        -9.994523675256348
      ],
      [
        "▁photos",
        -9.994574966541366
      ],
      [
        "▁port",
        -9.994961893927023
      ],
      [
        "ev",
        -9.997200138231406
      ],
      [
        "▁Total",
        -9.997462009336742
      ],
      [
        "▁provision",
        -9.997486413987037
      ],
      [
        "▁Asian",
        -9.998658597532858
      ],
      [
        "▁train",
        -9.999843365661329
      ],
      [
        "▁traffic",
        -10.000227884267641
      ],
      [
        "▁wear",
        -10.00051521359909
      ],
      [
        "▁debt",
        -10.000558631181107
      ],
      [
        "▁advantage",
        -10.000660775886177
      ],
      [
        "▁Android",
        -10.001833035569108
      ],
      [
        "▁Friday",
        -10.00293989815242
      ],
      [
        "▁determined",
        -10.003037064760148
      ],
      [
        "▁sun",
        -10.003623096603535
      ],
      [
        "▁hundred",
        -10.004255605683086
      ],
      [
        "Smoking",
        -10.004327627589484
      ],
      [
        "▁Trade",
        -10.00510753179331
      ],
      [
        "▁bonus",
        -10.005367379507332
      ],
      [
        "sustainable",
        -10.005676639070828
      ],
      [
        "▁write",
        -10.005958230499076
      ],
      [
        "▁Regional",
        -10.006202443614523
      ],
      [
        "▁tons",
        -10.006412317448355
      ],
      [
        "▁folder",
        -10.007900838287773
      ],
      [
        "▁dress",
        -10.00797823060334
      ],
      [
        "▁Agreement",
        -10.00816321316623
      ],
      [
        "▁existence",
        -10.008534039393666
      ],
      [
        "▁sub",
        -10.008896789359957
      ],
      [
        "▁holding",
        -10.008997214593371
      ],
      [
        "▁Select",
        -10.009317582061504
      ],
      [
        "▁terrace",
        -10.010236596487658
      ],
      [
        "▁consumption",
        -10.011681803433078
      ],
      [
        "▁books",
        -10.01365730063566
      ],
      [
        "▁glass",
        -10.01569514996896
      ],
      [
        "▁London",
        -10.016119607798359
      ],
      [
        "▁Shower",
        -10.016386348335773
      ],
      [
        "▁followed",
        -10.016517532800732
      ],
      [
        "▁demonstrate",
        -10.016667757499189
      ],
      [
        "▁exclusive",
        -10.017153304495846
      ],
      [
        "▁Paris",
        -10.018217866491367
      ],
      [
        "▁Flower",
        -10.018341355697755
      ],
      [
        "▁innovative",
        -10.019043991833335
      ],
      [
        "▁integrated",
        -10.019176861950939
      ],
      [
        "▁blonde",
        -10.019292891943348
      ],
      [
        "▁utilize",
        -10.01931450412875
      ],
      [
        "▁Create",
        -10.020020309457255
      ],
      [
        "▁except",
        -10.020165684135415
      ],
      [
        "▁commitment",
        -10.02041243696626
      ],
      [
        "▁thanks",
        -10.022252345650479
      ],
      [
        "▁register",
        -10.022255258114964
      ],
      [
        "▁felt",
        -10.023850647925586
      ],
      [
        "▁match",
        -10.023996000050026
      ],
      [
        "Z",
        -10.024035482453957
      ],
      [
        "▁entry",
        -10.024236176479091
      ],
      [
        "▁expect",
        -10.024907863289254
      ],
      [
        "▁Get",
        -10.024988181706657
      ],
      [
        "▁slight",
        -10.025450986927277
      ],
      [
        "▁machines",
        -10.02570018433119
      ],
      [
        "▁programmes",
        -10.027071083543753
      ],
      [
        "▁provider",
        -10.027211387190297
      ],
      [
        "▁poker",
        -10.028060692819155
      ],
      [
        "▁breakfast",
        -10.028185909229142
      ],
      [
        "▁cool",
        -10.02874299750419
      ],
      [
        "▁numerous",
        -10.028833065035098
      ],
      [
        "way",
        -10.028863848250113
      ],
      [
        "▁availabilit",
        -10.029786992847036
      ],
      [
        "▁seminar",
        -10.031368329455152
      ],
      [
        "▁minimum",
        -10.031827724884312
      ],
      [
        "▁die",
        -10.032115661167346
      ],
      [
        "▁limit",
        -10.032627026114938
      ],
      [
        "▁ensuring",
        -10.034565594659211
      ],
      [
        "▁Italian",
        -10.03496635810402
      ],
      [
        "▁toys",
        -10.03602006250683
      ],
      [
        "▁thinking",
        -10.036135621833896
      ],
      [
        "▁pain",
        -10.036456010237671
      ],
      [
        "▁reduction",
        -10.036651683097821
      ],
      [
        "▁desire",
        -10.036936264418166
      ],
      [
        "▁tea",
        -10.039269806790106
      ],
      [
        "▁stability",
        -10.039530119564382
      ],
      [
        "▁Good",
        -10.040087058947895
      ],
      [
        "der",
        -10.041270383633465
      ],
      [
        "▁employment",
        -10.041284095984892
      ],
      [
        "selves",
        -10.041467929504352
      ],
      [
        "▁British",
        -10.04200068935476
      ],
      [
        "▁heaven",
        -10.04316468859384
      ],
      [
        "▁climate",
        -10.04378144919628
      ],
      [
        "▁Current",
        -10.044093522388874
      ],
      [
        "▁journalists",
        -10.045233505254465
      ],
      [
        "▁writing",
        -10.045970105595822
      ],
      [
        "▁Parties",
        -10.046408798599984
      ],
      [
        "▁Control",
        -10.046574883523785
      ],
      [
        "▁filter",
        -10.046972820791021
      ],
      [
        "▁permanent",
        -10.04700288207322
      ],
      [
        "▁currency",
        -10.048623736236255
      ],
      [
        "▁recovery",
        -10.048730471327291
      ],
      [
        "▁resource",
        -10.049269346874693
      ],
      [
        "▁configuration",
        -10.049720913348372
      ],
      [
        "▁stock",
        -10.05015904180946
      ],
      [
        "▁interview",
        -10.050213824564871
      ],
      [
        "▁cent",
        -10.050371768475461
      ],
      [
        "▁enhance",
        -10.051175673223764
      ],
      [
        "▁passenger",
        -10.052116932229898
      ],
      [
        "▁aim",
        -10.053162754875673
      ],
      [
        "▁gather",
        -10.053410649360368
      ],
      [
        "▁agricultural",
        -10.053527751605605
      ],
      [
        "▁introduced",
        -10.053786258586452
      ],
      [
        "▁teen",
        -10.054022962108023
      ],
      [
        "▁Price",
        -10.055418491153285
      ],
      [
        "▁committed",
        -10.05567605247661
      ],
      [
        "▁impossible",
        -10.056637917614047
      ],
      [
        "▁Vacation",
        -10.056638663174912
      ],
      [
        "▁concert",
        -10.056800004230073
      ],
      [
        "▁happen",
        -10.058700924400627
      ],
      [
        "▁Under",
        -10.059476662631983
      ],
      [
        "▁giving",
        -10.059938918523402
      ],
      [
        "TM",
        -10.060175487153193
      ],
      [
        "▁driver",
        -10.060439034943192
      ],
      [
        "▁Egypt",
        -10.060601903843894
      ],
      [
        "see",
        -10.06064573092844
      ],
      [
        "tended",
        -10.061061754531439
      ],
      [
        "▁Once",
        -10.06158796033977
      ],
      [
        "▁approximately",
        -10.06195523935204
      ],
      [
        "▁flat",
        -10.062585457439944
      ],
      [
        "▁street",
        -10.063143840761166
      ],
      [
        "▁achieved",
        -10.063216385395084
      ],
      [
        "▁religion",
        -10.063741082770084
      ],
      [
        "▁actual",
        -10.065077940055609
      ],
      [
        "▁wine",
        -10.06520155862746
      ],
      [
        "▁recognized",
        -10.065687167121556
      ],
      [
        "bedroom",
        -10.06610536505272
      ],
      [
        "▁EUR",
        -10.066182598867478
      ],
      [
        "▁waste",
        -10.068497254977052
      ],
      [
        "▁wood",
        -10.069129067237546
      ],
      [
        "▁forum",
        -10.069206308464421
      ],
      [
        "▁nation",
        -10.069871301622728
      ],
      [
        "▁Saint",
        -10.070156978771045
      ],
      [
        "▁advance",
        -10.07036114212071
      ],
      [
        "▁Sciences",
        -10.071084620710034
      ],
      [
        "▁Czech",
        -10.071661053991424
      ],
      [
        "▁Club",
        -10.072421120794877
      ],
      [
        "▁Programme",
        -10.072644597999362
      ],
      [
        "▁club",
        -10.073270320565431
      ],
      [
        "▁effort",
        -10.073286350363574
      ],
      [
        "▁overall",
        -10.073729770169518
      ],
      [
        "▁successfully",
        -10.075981041105669
      ],
      [
        "▁Street",
        -10.076254496866923
      ],
      [
        "▁appeal",
        -10.076882805171806
      ],
      [
        "▁destination",
        -10.07716664637423
      ],
      [
        "▁failure",
        -10.077280676350512
      ],
      [
        "▁Last",
        -10.079413699807247
      ],
      [
        "▁rise",
        -10.080020528786807
      ],
      [
        "▁Grand",
        -10.080433432688434
      ],
      [
        "▁plastic",
        -10.080816833638282
      ],
      [
        "▁dew",
        -10.080900180194568
      ],
      [
        "▁creative",
        -10.08098610407834
      ],
      [
        "▁medium",
        -10.081603853513174
      ],
      [
        "▁Life",
        -10.081971088098319
      ],
      [
        "▁follows",
        -10.082672556597064
      ],
      [
        "▁calls",
        -10.082808647865072
      ],
      [
        "▁assist",
        -10.08283398932905
      ],
      [
        "read",
        -10.083880374906965
      ],
      [
        "▁significantly",
        -10.08425357936465
      ],
      [
        "▁expert",
        -10.084665918181994
      ],
      [
        "е",
        -10.084682112730082
      ],
      [
        "▁sufficient",
        -10.084821313479884
      ],
      [
        "▁Play",
        -10.08495630335402
      ],
      [
        "▁block",
        -10.086244797816793
      ],
      [
        "▁belong",
        -10.087435181470829
      ],
      [
        "▁profile",
        -10.087812742680095
      ],
      [
        "▁Sunday",
        -10.088477507398963
      ],
      [
        "▁appearance",
        -10.088478093133398
      ],
      [
        "▁instance",
        -10.088532503997792
      ],
      [
        "▁labor",
        -10.088617673410058
      ],
      [
        "▁monitor",
        -10.089113678513545
      ],
      [
        "▁launched",
        -10.089625288671213
      ],
      [
        "Another",
        -10.090860328271777
      ],
      [
        "▁flowers",
        -10.091610083312133
      ],
      [
        "▁printing",
        -10.092159893334545
      ],
      [
        "▁Order",
        -10.092608934690704
      ],
      [
        "▁Poland",
        -10.092657199401241
      ],
      [
        "▁coffee",
        -10.092776387510064
      ],
      [
        "▁languages",
        -10.093401445995754
      ],
      [
        "▁contribute",
        -10.094472166705817
      ],
      [
        "▁quiet",
        -10.09520955689433
      ],
      [
        "▁dynamic",
        -10.095421793867144
      ],
      [
        "▁opens",
        -10.095506491829106
      ],
      [
        "▁reading",
        -10.095791824306055
      ],
      [
        "▁revolutionary",
        -10.09665931384795
      ],
      [
        "▁university",
        -10.096798363665362
      ],
      [
        "▁Contact",
        -10.09696977787904
      ],
      [
        "▁channel",
        -10.097693167674239
      ],
      [
        "▁priority",
        -10.097737482575413
      ],
      [
        "▁shares",
        -10.097762054221592
      ],
      [
        "▁error",
        -10.097809025643812
      ],
      [
        "▁indicate",
        -10.09843942462222
      ],
      [
        "▁delivered",
        -10.098756367300398
      ],
      [
        "▁spoke",
        -10.100147044092774
      ],
      [
        "▁candidates",
        -10.100822228399112
      ],
      [
        "▁Global",
        -10.101111014262289
      ],
      [
        "▁Serbian",
        -10.101244829853547
      ],
      [
        "▁Astana",
        -10.101538437253481
      ],
      [
        "▁Peter",
        -10.101904329243107
      ],
      [
        "▁abroad",
        -10.102360683259468
      ],
      [
        "▁Jehovah",
        -10.102363836387639
      ],
      [
        "▁rank",
        -10.102813437587816
      ],
      [
        "▁Supplier",
        -10.103047235060055
      ],
      [
        "▁goes",
        -10.103748208395452
      ],
      [
        "▁birth",
        -10.104154298622129
      ],
      [
        "▁hall",
        -10.10468184215985
      ],
      [
        "▁drag",
        -10.105013409484254
      ],
      [
        "▁killed",
        -10.105450735138756
      ],
      [
        "▁bus",
        -10.105590008881428
      ],
      [
        "▁Men",
        -10.10630941078811
      ],
      [
        "▁casinos",
        -10.106318470719668
      ],
      [
        "▁cards",
        -10.10688763202963
      ],
      [
        "▁decrease",
        -10.107014495883172
      ],
      [
        "<",
        -10.108121139900687
      ],
      [
        "▁newspaper",
        -10.108274987187897
      ],
      [
        "▁dialogue",
        -10.108476535306838
      ],
      [
        "▁kill",
        -10.108709322139951
      ],
      [
        "▁NATO",
        -10.108713259798831
      ],
      [
        "▁investors",
        -10.10897216863812
      ],
      [
        "▁height",
        -10.109541950223136
      ],
      [
        "▁Finance",
        -10.109560790725668
      ],
      [
        "▁agency",
        -10.109632310795618
      ],
      [
        "▁resort",
        -10.109718534652444
      ],
      [
        "▁prior",
        -10.11026415895815
      ],
      [
        "▁tried",
        -10.11041649090286
      ],
      [
        "▁Travel",
        -10.110696419121243
      ],
      [
        "▁thy",
        -10.111005449587848
      ],
      [
        "▁Harry",
        -10.111334700363637
      ],
      [
        "▁algorithm",
        -10.111483974920873
      ],
      [
        "▁divine",
        -10.11155231013956
      ],
      [
        "▁swimming",
        -10.114503664995567
      ],
      [
        "▁trip",
        -10.115389389454444
      ],
      [
        "▁houses",
        -10.116051544121635
      ],
      [
        "▁served",
        -10.116108114608938
      ],
      [
        "▁engineering",
        -10.116383858020779
      ],
      [
        "▁lose",
        -10.116458564049879
      ],
      [
        "▁express",
        -10.116659702699609
      ],
      [
        "▁combat",
        -10.116681535186308
      ],
      [
        "▁fetish",
        -10.117480938851177
      ],
      [
        "▁Quality",
        -10.11803749565017
      ],
      [
        "▁ladyboy",
        -10.118176631890679
      ],
      [
        "▁managed",
        -10.118245362426846
      ],
      [
        "▁Type",
        -10.119001745273236
      ],
      [
        "▁animals",
        -10.119382463289844
      ],
      [
        "▁saving",
        -10.11967731317282
      ],
      [
        "é",
        -10.119726034993416
      ],
      [
        "▁Description",
        -10.120003515065633
      ],
      [
        "▁presentation",
        -10.120012221431912
      ],
      [
        "▁moments",
        -10.120161682889199
      ],
      [
        "▁universal",
        -10.121192550316417
      ],
      [
        "▁element",
        -10.12152284703453
      ],
      [
        "▁dis",
        -10.12175478994195
      ],
      [
        "▁Festival",
        -10.12237670571097
      ],
      [
        "▁outdoor",
        -10.12252393662779
      ],
      [
        "▁origin",
        -10.122666213004718
      ],
      [
        "▁load",
        -10.123091097712845
      ],
      [
        "▁concrete",
        -10.123243060401455
      ],
      [
        "▁Executive",
        -10.124337438694607
      ],
      [
        "▁Non",
        -10.124385878215673
      ],
      [
        "▁reference",
        -10.124767643600885
      ],
      [
        "▁muscle",
        -10.125589030720516
      ],
      [
        "▁opposition",
        -10.125590501907741
      ],
      [
        "▁notice",
        -10.12559475757563
      ],
      [
        "minute",
        -10.125599456686091
      ],
      [
        "ring",
        -10.12642263165535
      ],
      [
        "▁doubt",
        -10.126441532009514
      ],
      [
        "▁investments",
        -10.127314381770155
      ],
      [
        "room",
        -10.12736705973631
      ],
      [
        "▁manufactur",
        -10.12803044620651
      ],
      [
        "▁continues",
        -10.128194053683748
      ],
      [
        "▁reduced",
        -10.128393033439094
      ],
      [
        "▁fundamental",
        -10.129318389359225
      ],
      [
        "▁informed",
        -10.130167735565061
      ],
      [
        "▁doctor",
        -10.130621516642405
      ],
      [
        "▁Start",
        -10.130768625319549
      ],
      [
        "▁spend",
        -10.132657209356793
      ],
      [
        "▁nations",
        -10.132696163264683
      ],
      [
        "®",
        -10.133807846434616
      ],
      [
        "▁vehicle",
        -10.133861323673273
      ],
      [
        "▁Old",
        -10.134544642212974
      ],
      [
        "▁sleep",
        -10.135672989333555
      ],
      [
        "▁earlier",
        -10.136610840364787
      ],
      [
        "ler",
        -10.137231327885123
      ],
      [
        "▁fun",
        -10.137531477229983
      ],
      [
        "▁Industry",
        -10.13759642908107
      ],
      [
        "▁kg",
        -10.137852566589991
      ],
      [
        "▁map",
        -10.137951372937792
      ],
      [
        "▁Photo",
        -10.137994113871443
      ],
      [
        "▁learning",
        -10.138486886480763
      ],
      [
        "▁El",
        -10.138539678753538
      ],
      [
        "▁precipitation",
        -10.138801788143681
      ],
      [
        "▁sort",
        -10.139375034315417
      ],
      [
        "electricity",
        -10.1394793306147
      ],
      [
        "▁situate",
        -10.140098853798685
      ],
      [
        "▁suffer",
        -10.140486577535963
      ],
      [
        "▁conditioning",
        -10.140575419215077
      ],
      [
        "▁typical",
        -10.140626574189614
      ],
      [
        "▁publisher",
        -10.141294790827725
      ],
      [
        "we",
        -10.141340178063608
      ],
      [
        "▁priest",
        -10.141532657932157
      ],
      [
        "▁shape",
        -10.142008041669683
      ],
      [
        "▁kept",
        -10.142271782781815
      ],
      [
        "▁movie",
        -10.143335608971494
      ],
      [
        "▁servant",
        -10.143748897427633
      ],
      [
        "▁eye",
        -10.144157751977634
      ],
      [
        "▁bag",
        -10.144834176655094
      ],
      [
        "▁decline",
        -10.1448427385116
      ],
      [
        "▁atmosphere",
        -10.145199084506169
      ],
      [
        "▁structures",
        -10.145300363968213
      ],
      [
        "▁leadership",
        -10.145632739621647
      ],
      [
        "▁Program",
        -10.145949574347831
      ],
      [
        "▁neither",
        -10.145972345697897
      ],
      [
        "▁Standard",
        -10.146524186564076
      ],
      [
        "▁statements",
        -10.147201885628332
      ],
      [
        "▁manual",
        -10.147285683076122
      ],
      [
        "▁Supreme",
        -10.147401947132348
      ],
      [
        "▁Hotels",
        -10.147488378867683
      ],
      [
        "trading",
        -10.147769625144202
      ],
      [
        "▁otherwise",
        -10.147877562470201
      ],
      [
        "▁agenda",
        -10.148196499570629
      ],
      [
        "▁lesson",
        -10.149611506574383
      ],
      [
        "▁north",
        -10.149915871614185
      ],
      [
        "▁Before",
        -10.15005348838169
      ],
      [
        "▁ceremony",
        -10.151084159173053
      ],
      [
        "▁Iran",
        -10.151247042861986
      ],
      [
        "▁password",
        -10.15130988939939
      ],
      [
        "▁objective",
        -10.152247703247948
      ],
      [
        "▁shared",
        -10.152723353454805
      ],
      [
        "▁terrorist",
        -10.153262543335106
      ],
      [
        "▁tournament",
        -10.153527664196071
      ],
      [
        "▁sexual",
        -10.153670739167735
      ],
      [
        "▁granted",
        -10.154125620364137
      ],
      [
        "▁candidate",
        -10.154865063853734
      ],
      [
        "▁defined",
        -10.155061272138317
      ],
      [
        "rated",
        -10.155586167535606
      ],
      [
        "▁finished",
        -10.155981287353727
      ],
      [
        "▁teachers",
        -10.156173771707245
      ],
      [
        "▁dream",
        -10.157283351019126
      ],
      [
        "▁fastest",
        -10.157715154065098
      ],
      [
        "▁loans",
        -10.157982465478618
      ],
      [
        "▁Second",
        -10.1580709220512
      ],
      [
        "▁dollars",
        -10.158689452854066
      ],
      [
        "▁net",
        -10.158789866242957
      ],
      [
        "▁concern",
        -10.15974938688242
      ],
      [
        "▁Convert",
        -10.162162647130838
      ],
      [
        "▁rubles",
        -10.162322230591657
      ],
      [
        "▁encourage",
        -10.162617470668444
      ],
      [
        "▁supplier",
        -10.16264020605294
      ],
      [
        "▁servers",
        -10.162723195707773
      ],
      [
        "▁girls",
        -10.163097685071186
      ],
      [
        "▁Press",
        -10.163565239432856
      ],
      [
        "▁practices",
        -10.163702342114743
      ],
      [
        "▁Ambassador",
        -10.165988552886892
      ],
      [
        "▁comfort",
        -10.16648294480616
      ],
      [
        "▁transportation",
        -10.167276195788169
      ],
      [
        "▁hardware",
        -10.167334155674453
      ],
      [
        "▁pictures",
        -10.167537716176172
      ],
      [
        "▁Uzbekistan",
        -10.167818888467611
      ],
      [
        "▁Spain",
        -10.168838851468594
      ],
      [
        "▁pair",
        -10.168882368578958
      ],
      [
        "▁USB",
        -10.16903138449897
      ],
      [
        "▁flight",
        -10.169068553212341
      ],
      [
        "▁Plan",
        -10.169147728178789
      ],
      [
        "▁Table",
        -10.169586209543475
      ],
      [
        "▁mutual",
        -10.170077391436498
      ],
      [
        "▁improving",
        -10.170082260364932
      ],
      [
        "old",
        -10.170593058801991
      ],
      [
        "▁King",
        -10.170672149370734
      ],
      [
        "▁accepted",
        -10.170804051442248
      ],
      [
        "▁pump",
        -10.1709406375259
      ],
      [
        "▁figure",
        -10.172293204428408
      ],
      [
        "index",
        -10.172685636100947
      ],
      [
        "▁testing",
        -10.174133525618355
      ],
      [
        "▁teacher",
        -10.174857808291653
      ],
      [
        "▁tree",
        -10.175268778754829
      ],
      [
        "▁husband",
        -10.176059693091283
      ],
      [
        "▁festival",
        -10.177805582666718
      ],
      [
        "▁arrival",
        -10.177814848998676
      ],
      [
        "▁appeared",
        -10.178539102040993
      ],
      [
        "▁uses",
        -10.178611194883429
      ],
      [
        "side",
        -10.17862644284448
      ],
      [
        "▁trial",
        -10.17873259208644
      ],
      [
        "▁humidity",
        -10.179024554368231
      ],
      [
        "spent",
        -10.179195723679834
      ],
      [
        "▁Real",
        -10.180452414938049
      ],
      [
        "▁interface",
        -10.18110032962793
      ],
      [
        "▁advertising",
        -10.181974273424512
      ],
      [
        "▁branch",
        -10.182286160237608
      ],
      [
        "▁Machine",
        -10.183288040340724
      ],
      [
        "▁marketing",
        -10.183541549394343
      ],
      [
        "▁Apartment",
        -10.184025583448031
      ],
      [
        "Browse",
        -10.184214614780396
      ],
      [
        "▁moving",
        -10.184370986249416
      ],
      [
        "▁Electric",
        -10.184752698825562
      ],
      [
        "▁dialog",
        -10.186569767358096
      ],
      [
        "▁Monday",
        -10.18707361697147
      ],
      [
        "▁instructions",
        -10.187251192828375
      ],
      [
        "ger",
        -10.187586577805103
      ],
      [
        "▁Read",
        -10.188134999870321
      ],
      [
        "▁compliance",
        -10.188190344776887
      ],
      [
        "▁contest",
        -10.188273656737389
      ],
      [
        "▁acquire",
        -10.188579632552553
      ],
      [
        "▁raise",
        -10.188723831067536
      ],
      [
        "▁blue",
        -10.188844153090125
      ],
      [
        "▁spring",
        -10.189134949107398
      ],
      [
        "▁becoming",
        -10.189572616395784
      ],
      [
        "▁track",
        -10.189673827983283
      ],
      [
        "▁delete",
        -10.190031769271954
      ],
      [
        "▁convenient",
        -10.190510761301889
      ],
      [
        "▁nice",
        -10.190697232662082
      ],
      [
        "▁challenges",
        -10.191360468994684
      ],
      [
        "▁Iraq",
        -10.191729327118443
      ],
      [
        "▁Take",
        -10.192385497756788
      ],
      [
        "▁Date",
        -10.192498979936326
      ],
      [
        "▁panel",
        -10.193567640905451
      ],
      [
        "all",
        -10.194742889990806
      ],
      [
        "▁accounts",
        -10.195197419234667
      ],
      [
        "▁chemical",
        -10.19520230556422
      ],
      [
        "▁meteo",
        -10.195447189993455
      ],
      [
        "▁vision",
        -10.19557448052316
      ],
      [
        "kin",
        -10.195615396789972
      ],
      [
        "▁thou",
        -10.195855278421673
      ],
      [
        "▁Client",
        -10.195904335406013
      ],
      [
        "▁satellite",
        -10.196015049100057
      ],
      [
        "▁drop",
        -10.196522828605753
      ],
      [
        "drop",
        -10.196782564565218
      ],
      [
        "▁quarter",
        -10.197399623451
      ],
      [
        "▁UK",
        -10.197807770445161
      ],
      [
        "▁dangerous",
        -10.198033948323157
      ],
      [
        "▁experienced",
        -10.19846347561795
      ],
      [
        "wanted",
        -10.198530796056342
      ],
      [
        "▁estimate",
        -10.199097831698445
      ],
      [
        "▁channels",
        -10.199193398290426
      ],
      [
        "air",
        -10.19958925429995
      ],
      [
        "▁obvious",
        -10.200474159193693
      ],
      [
        "▁IT",
        -10.200530912865299
      ],
      [
        "▁pure",
        -10.201301510124011
      ],
      [
        "lv",
        -10.201463820028474
      ],
      [
        "▁union",
        -10.202524064671831
      ],
      [
        "▁Did",
        -10.203188062242669
      ],
      [
        "▁reporting",
        -10.203553880100108
      ],
      [
        "where",
        -10.203704056890766
      ],
      [
        "▁exceed",
        -10.203883307822444
      ],
      [
        "▁bareback",
        -10.204116351368766
      ],
      [
        "▁indicators",
        -10.204125599267389
      ],
      [
        "▁centers",
        -10.204203123744755
      ],
      [
        "▁chief",
        -10.204386043667634
      ],
      [
        "▁component",
        -10.20575415770822
      ],
      [
        "▁television",
        -10.205864605292259
      ],
      [
        "▁Kyiv",
        -10.206349436196318
      ],
      [
        "▁patients",
        -10.206658595718865
      ],
      [
        "▁collect",
        -10.207265443697649
      ],
      [
        "▁Culture",
        -10.207830824933163
      ],
      [
        "ja",
        -10.208255946188356
      ],
      [
        "▁subsequent",
        -10.208399910677771
      ],
      [
        "▁wonderful",
        -10.208707072330565
      ],
      [
        "▁Congress",
        -10.208986086541694
      ],
      [
        "▁launch",
        -10.209281666565113
      ],
      [
        "▁Titan",
        -10.209342918930355
      ],
      [
        "▁prepare",
        -10.209495423275177
      ],
      [
        "▁Color",
        -10.211580535205037
      ],
      [
        "▁app",
        -10.212343531781942
      ],
      [
        "▁deput",
        -10.212510527067455
      ],
      [
        "▁explain",
        -10.21251230901815
      ],
      [
        "▁permit",
        -10.212798284832733
      ],
      [
        "▁settlement",
        -10.212913728659121
      ],
      [
        "▁gain",
        -10.215333997537709
      ],
      [
        "▁consequences",
        -10.215511457659753
      ],
      [
        "▁Green",
        -10.216178438603928
      ],
      [
        "▁plug",
        -10.21856129112174
      ],
      [
        "▁combined",
        -10.218735218018548
      ],
      [
        "▁loan",
        -10.218988827004328
      ],
      [
        "▁japanese",
        -10.219333592586997
      ],
      [
        "▁DVD",
        -10.21948325961173
      ],
      [
        "▁truly",
        -10.219598668738147
      ],
      [
        "▁sold",
        -10.219997026952083
      ],
      [
        "▁stable",
        -10.220906764472668
      ],
      [
        "▁River",
        -10.22152106474353
      ],
      [
        "▁mental",
        -10.221989389047664
      ],
      [
        "▁frequent",
        -10.222365519650523
      ],
      [
        "▁Representative",
        -10.222366377278009
      ],
      [
        "▁Kingdom",
        -10.222380884675964
      ],
      [
        "▁ski",
        -10.222459761856802
      ],
      [
        "▁Access",
        -10.222554605337239
      ],
      [
        "▁speaking",
        -10.222759817111747
      ],
      [
        "▁finance",
        -10.222837279462972
      ],
      [
        "yan",
        -10.22284378168781
      ],
      [
        "▁cycle",
        -10.223060920354493
      ],
      [
        "▁fulfill",
        -10.223287365429096
      ],
      [
        "▁characteristics",
        -10.224769616777017
      ],
      [
        "▁scale",
        -10.225027064523799
      ],
      [
        "▁chosen",
        -10.22586247325983
      ],
      [
        "▁print",
        -10.226010137858353
      ],
      [
        "▁Act",
        -10.226058811077918
      ],
      [
        "▁interior",
        -10.22680374178187
      ],
      [
        "▁obligations",
        -10.22799017646539
      ],
      [
        "▁cleaning",
        -10.228093144904198
      ],
      [
        "ING",
        -10.228211510586991
      ],
      [
        "▁Their",
        -10.22843026645454
      ],
      [
        "▁continuous",
        -10.22856025070857
      ],
      [
        "▁owner",
        -10.228760113265523
      ],
      [
        "▁mainly",
        -10.22961086583803
      ],
      [
        "▁Thank",
        -10.229979826514397
      ],
      [
        "▁housing",
        -10.230321448850463
      ],
      [
        "▁Technology",
        -10.23081860934425
      ],
      [
        "▁USD",
        -10.231999929567458
      ],
      [
        "▁gift",
        -10.23205013553606
      ],
      [
        "▁residents",
        -10.232685112842054
      ],
      [
        "▁consultation",
        -10.233012303237498
      ],
      [
        "era",
        -10.23309070729437
      ],
      [
        "▁profit",
        -10.233269677170245
      ],
      [
        "tted",
        -10.233556289312794
      ],
      [
        "▁animal",
        -10.2337235761731
      ],
      [
        "▁automatic",
        -10.23429380282171
      ],
      [
        "▁neighbor",
        -10.234758464732332
      ],
      [
        "armed",
        -10.23499090988689
      ],
      [
        "▁protected",
        -10.23540923803396
      ],
      [
        "▁creature",
        -10.235483275894117
      ],
      [
        "more",
        -10.236246943044113
      ],
      [
        "▁plot",
        -10.236738521112434
      ],
      [
        "▁phase",
        -10.23676291111359
      ],
      [
        "▁heavy",
        -10.237223421360733
      ],
      [
        "▁despite",
        -10.237326428173873
      ],
      [
        "▁justice",
        -10.237718344221411
      ],
      [
        "▁expression",
        -10.238270575911079
      ],
      [
        "▁core",
        -10.238916416977665
      ],
      [
        "▁fee",
        -10.241211021404862
      ],
      [
        "enko",
        -10.24136387625294
      ],
      [
        "▁defense",
        -10.241771186750091
      ],
      [
        "▁Eastern",
        -10.241963507662598
      ],
      [
        "▁eight",
        -10.24289288086439
      ],
      [
        "▁awarded",
        -10.24292638762896
      ],
      [
        "▁IDGC",
        -10.243592604360696
      ],
      [
        "▁extensive",
        -10.244192577129489
      ],
      [
        "▁vehicles",
        -10.244759625249706
      ],
      [
        "body",
        -10.245258179258542
      ],
      [
        "▁Mo",
        -10.245353565832298
      ],
      [
        "haps",
        -10.246608329838343
      ],
      [
        "▁fixed",
        -10.24679537092745
      ],
      [
        "▁star",
        -10.246864040719196
      ],
      [
        "▁fat",
        -10.24738037911988
      ],
      [
        "our",
        -10.247648636817202
      ],
      [
        "pending",
        -10.24791332988211
      ],
      [
        "▁AND",
        -10.248345706480242
      ],
      [
        "\\",
        -10.248453082598859
      ],
      [
        "▁Action",
        -10.248927042367383
      ],
      [
        "▁offices",
        -10.249067552512843
      ],
      [
        "▁Hot",
        -10.250255432519737
      ],
      [
        "▁critical",
        -10.250734754067611
      ],
      [
        "▁flower",
        -10.251822795341399
      ],
      [
        "died",
        -10.252137660451167
      ],
      [
        "▁Part",
        -10.253765042313812
      ],
      [
        "▁attitude",
        -10.253958338440066
      ],
      [
        "ner",
        -10.254014366296024
      ],
      [
        "capable",
        -10.255101310628396
      ],
      [
        "▁sell",
        -10.255166459989798
      ],
      [
        "▁magazine",
        -10.256142234598615
      ],
      [
        "▁forth",
        -10.256763919958058
      ],
      [
        "▁instruments",
        -10.257846836668715
      ],
      [
        "▁Set",
        -10.257976579129403
      ],
      [
        "▁metres",
        -10.258723227906875
      ],
      [
        "▁wrote",
        -10.258943537539638
      ],
      [
        "▁Tajikistan",
        -10.259493318334004
      ],
      [
        "▁Financial",
        -10.26001105356064
      ],
      [
        "▁binary",
        -10.260952758768765
      ],
      [
        "▁moral",
        -10.260984367790229
      ],
      [
        "▁Area",
        -10.261086168993407
      ],
      [
        "▁worldwide",
        -10.261701819845705
      ],
      [
        "▁Application",
        -10.262029259418494
      ],
      [
        "▁entitled",
        -10.262116265148583
      ],
      [
        "▁Page",
        -10.262601587752295
      ],
      [
        "▁strengthening",
        -10.262720350795865
      ],
      [
        "▁cars",
        -10.26307333292647
      ],
      [
        "▁submit",
        -10.263450726570428
      ],
      [
        "▁extent",
        -10.264234068504955
      ],
      [
        "▁fell",
        -10.264602617101433
      ],
      [
        "▁battery",
        -10.264831677542666
      ],
      [
        "▁Sun",
        -10.265248992545843
      ],
      [
        "▁entities",
        -10.26529406710273
      ],
      [
        "▁thank",
        -10.26542456864694
      ],
      [
        "▁User",
        -10.265644905239773
      ],
      [
        "▁Love",
        -10.265751654172487
      ],
      [
        "min",
        -10.266483532732867
      ],
      [
        "▁Spanish",
        -10.26679200133086
      ],
      [
        "▁Bath",
        -10.266931382292805
      ],
      [
        "▁advantages",
        -10.267073296158953
      ],
      [
        "stantly",
        -10.267697855925825
      ],
      [
        "▁Arctic",
        -10.268218280800056
      ],
      [
        "▁depends",
        -10.268488398892737
      ],
      [
        "▁Land",
        -10.268548255219612
      ],
      [
        "▁Square",
        -10.268579255518071
      ],
      [
        "▁Like",
        -10.268642998637178
      ],
      [
        "izing",
        -10.268648642651877
      ],
      [
        "▁Saturday",
        -10.268657884964897
      ],
      [
        "▁middle",
        -10.268756195144164
      ],
      [
        "▁raised",
        -10.268818106859465
      ],
      [
        "▁Euro",
        -10.269516578402627
      ],
      [
        "▁gone",
        -10.270889002342555
      ],
      [
        "▁Files",
        -10.271147950964398
      ],
      [
        "▁Note",
        -10.271284894066493
      ],
      [
        "▁positions",
        -10.271746428091568
      ],
      [
        "▁Mac",
        -10.271794817322437
      ],
      [
        "▁attacks",
        -10.272368210813555
      ],
      [
        "▁thousands",
        -10.273374313991237
      ],
      [
        "▁Steel",
        -10.273392059888518
      ],
      [
        "ship",
        -10.273971611164155
      ],
      [
        "▁sentence",
        -10.274031433553398
      ],
      [
        "▁advice",
        -10.27482190239152
      ],
      [
        "▁pages",
        -10.275086707391026
      ],
      [
        "▁lived",
        -10.275214749354635
      ],
      [
        "▁forget",
        -10.275326012568392
      ],
      [
        "▁constantly",
        -10.275557640800905
      ],
      [
        "▁refuse",
        -10.276050592782845
      ],
      [
        "▁Report",
        -10.276124321241602
      ],
      [
        "entered",
        -10.276260117777563
      ],
      [
        "▁asian",
        -10.277491099569868
      ],
      [
        "ier",
        -10.277559215410717
      ],
      [
        "▁cell",
        -10.278514370789907
      ],
      [
        "▁intellectual",
        -10.278605587776907
      ],
      [
        "▁virtual",
        -10.278755243094226
      ],
      [
        "▁Protocol",
        -10.279282765471788
      ],
      [
        "▁arms",
        -10.279452093922641
      ],
      [
        "▁Me",
        -10.279480494308444
      ],
      [
        "ated",
        -10.279564923379922
      ],
      [
        "▁CD",
        -10.279640124689175
      ],
      [
        "▁flights",
        -10.280252438107244
      ],
      [
        "hopping",
        -10.28083029127399
      ],
      [
        "▁Gold",
        -10.280902873227658
      ],
      [
        "▁Palace",
        -10.281737882883256
      ],
      [
        "▁helps",
        -10.282076530762165
      ],
      [
        "▁financing",
        -10.282131601386588
      ],
      [
        "▁sister",
        -10.282208756975994
      ],
      [
        "▁Middle",
        -10.282692857431993
      ],
      [
        "▁Sofia",
        -10.28269482181486
      ],
      [
        "▁library",
        -10.282754432086065
      ],
      [
        "▁Christmas",
        -10.282843820754016
      ],
      [
        "▁moved",
        -10.282945143170057
      ],
      [
        "▁Medical",
        -10.284446855966234
      ],
      [
        "▁river",
        -10.284513154933132
      ],
      [
        "▁publication",
        -10.284524433715648
      ],
      [
        "▁links",
        -10.284544941915373
      ],
      [
        "▁Come",
        -10.285576714503174
      ],
      [
        "▁primarily",
        -10.286225876652372
      ],
      [
        "level",
        -10.286516728828328
      ],
      [
        "▁funding",
        -10.286525539493331
      ],
      [
        "elected",
        -10.286532302285542
      ],
      [
        "▁waiting",
        -10.286874483336213
      ],
      [
        "▁recognize",
        -10.287198566689087
      ],
      [
        "▁Downloads",
        -10.287199391617731
      ],
      [
        "▁bottom",
        -10.287431299229848
      ],
      [
        "▁scans",
        -10.289612681960573
      ],
      [
        "▁healthy",
        -10.290061993556707
      ],
      [
        "▁sheet",
        -10.29009331227637
      ],
      [
        "bit",
        -10.290340428706314
      ],
      [
        "▁changing",
        -10.29037547805557
      ],
      [
        "▁baby",
        -10.290642178497535
      ],
      [
        "▁parameters",
        -10.290785096019851
      ],
      [
        "▁Lake",
        -10.291247735805287
      ],
      [
        "▁seeking",
        -10.291726161676223
      ],
      [
        "▁tab",
        -10.291739740641528
      ],
      [
        "▁Professional",
        -10.29222299059686
      ],
      [
        "▁specialized",
        -10.293087655147477
      ],
      [
        "▁gentle",
        -10.294075754801655
      ],
      [
        "▁promise",
        -10.294967833062508
      ],
      [
        "▁prayer",
        -10.295159041280513
      ],
      [
        "▁background",
        -10.295767677535952
      ],
      [
        "▁removed",
        -10.296013437738917
      ],
      [
        "▁stations",
        -10.296390508623626
      ],
      [
        "▁Urantia",
        -10.297411048396196
      ],
      [
        "▁matters",
        -10.2974728218648
      ],
      [
        "▁invited",
        -10.297708938086048
      ],
      [
        "▁African",
        -10.298438555157148
      ],
      [
        "▁milk",
        -10.299352763555857
      ],
      [
        "army",
        -10.299622562383094
      ],
      [
        "▁respond",
        -10.300366291100042
      ],
      [
        "▁receiving",
        -10.300536745104989
      ],
      [
        "▁medicine",
        -10.301014651855347
      ],
      [
        "▁contained",
        -10.301045048015604
      ],
      [
        "▁Keyword",
        -10.302128948514227
      ],
      [
        "▁mountain",
        -10.30258585539611
      ],
      [
        "▁valid",
        -10.303214535943653
      ],
      [
        "▁communities",
        -10.303842022201467
      ],
      [
        "▁occasion",
        -10.304129418532048
      ],
      [
        "▁mid",
        -10.30413709167721
      ],
      [
        "▁residence",
        -10.305148084728366
      ],
      [
        "▁division",
        -10.305565883933227
      ],
      [
        "▁inner",
        -10.305768264716049
      ],
      [
        "▁associat",
        -10.306724499401199
      ],
      [
        "▁audit",
        -10.308121476050923
      ],
      [
        "▁partnership",
        -10.308240618028947
      ],
      [
        "▁customs",
        -10.308478076603732
      ],
      [
        "▁telephone",
        -10.308588947944813
      ],
      [
        "▁courses",
        -10.309104920104339
      ],
      [
        "▁transition",
        -10.309269525716859
      ],
      [
        "▁facilitate",
        -10.310147352693374
      ],
      [
        "end",
        -10.310338232595281
      ],
      [
        "▁Among",
        -10.31053287955794
      ],
      [
        "▁evaluation",
        -10.310592988450487
      ],
      [
        "▁arrest",
        -10.310885057053031
      ],
      [
        "▁patient",
        -10.311213989720283
      ],
      [
        "▁operational",
        -10.311663198568136
      ],
      [
        "▁villa",
        -10.311816732178762
      ],
      [
        "▁planet",
        -10.312375971921567
      ],
      [
        "▁larger",
        -10.312522478717767
      ],
      [
        "▁organisation",
        -10.312616199250218
      ],
      [
        "▁Key",
        -10.313308474708222
      ],
      [
        "▁refer",
        -10.313782791017328
      ],
      [
        "with",
        -10.313949323223705
      ],
      [
        "▁humanitarian",
        -10.314242015037992
      ],
      [
        "▁lift",
        -10.315216438795606
      ],
      [
        "▁Have",
        -10.31612600711961
      ],
      [
        "▁Drag",
        -10.316798754206825
      ],
      [
        "▁solve",
        -10.316993046594732
      ],
      [
        "▁Dubai",
        -10.31702845121356
      ],
      [
        "▁entrance",
        -10.317685607283494
      ],
      [
        "▁Watch",
        -10.318093810638953
      ],
      [
        "▁federal",
        -10.318293150358315
      ],
      [
        "controlled",
        -10.318509618846567
      ],
      [
        "▁inform",
        -10.32042608272578
      ],
      [
        "▁female",
        -10.320682147001694
      ],
      [
        "▁motor",
        -10.320866818886431
      ],
      [
        "▁specifically",
        -10.320896547303121
      ],
      [
        "▁Arab",
        -10.32111101743084
      ],
      [
        "▁joy",
        -10.321570193961698
      ],
      [
        "▁CIS",
        -10.32184851959727
      ],
      [
        "▁Administration",
        -10.32205289856652
      ],
      [
        "▁Source",
        -10.322283355488931
      ],
      [
        "▁actively",
        -10.322952121376705
      ],
      [
        "▁draw",
        -10.323268907418143
      ],
      [
        "▁Thursday",
        -10.323334245166034
      ],
      [
        "▁foot",
        -10.323521077332488
      ],
      [
        "▁Tatarstan",
        -10.32390321860584
      ],
      [
        "▁Will",
        -10.324310258793343
      ],
      [
        "▁Island",
        -10.324621430152071
      ],
      [
        "▁colour",
        -10.324711662952273
      ],
      [
        "▁Review",
        -10.324729584762538
      ],
      [
        "including",
        -10.324849107435798
      ],
      [
        "▁delay",
        -10.32514782008176
      ],
      [
        "▁insect",
        -10.325201019116793
      ],
      [
        "▁prevention",
        -10.325934951686612
      ],
      [
        "▁Chamber",
        -10.326221643792671
      ],
      [
        "▁effectively",
        -10.326581690564172
      ],
      [
        "▁eternal",
        -10.326639267719438
      ],
      [
        "▁Muslim",
        -10.327287196665973
      ],
      [
        "related",
        -10.327565452059359
      ],
      [
        "▁introduction",
        -10.327768645064637
      ],
      [
        "▁Work",
        -10.328204404513551
      ],
      [
        "▁struggle",
        -10.328581168403733
      ],
      [
        "▁guest",
        -10.329234221644423
      ],
      [
        "▁Canada",
        -10.330154361547383
      ],
      [
        "▁Happy",
        -10.330487400263108
      ],
      [
        "▁liquid",
        -10.330912479022162
      ],
      [
        "▁technological",
        -10.330922226886951
      ],
      [
        "ful",
        -10.331330732301753
      ],
      [
        "▁affected",
        -10.331582117781254
      ],
      [
        "▁causes",
        -10.331637081650182
      ],
      [
        "ists",
        -10.331668768684619
      ],
      [
        "▁steroid",
        -10.33169879013712
      ],
      [
        "▁expansion",
        -10.332391749982422
      ],
      [
        "▁Pre",
        -10.333395038943925
      ],
      [
        "у",
        -10.333896964452968
      ],
      [
        "▁Drop",
        -10.333976899898014
      ],
      [
        "▁soft",
        -10.334744670233471
      ],
      [
        "▁frame",
        -10.335785315203827
      ],
      [
        "▁firm",
        -10.335948360620916
      ],
      [
        "art",
        -10.33622927892591
      ],
      [
        "▁Constitution",
        -10.33686647610705
      ],
      [
        "▁notes",
        -10.337110619436094
      ],
      [
        "▁poverty",
        -10.337493786403881
      ],
      [
        "▁walls",
        -10.337708204026962
      ],
      [
        "▁independence",
        -10.337712719708222
      ],
      [
        "▁kingdom",
        -10.337749132099406
      ],
      [
        "▁rare",
        -10.338032352631068
      ],
      [
        "Posted",
        -10.338332992082032
      ],
      [
        "▁Lady",
        -10.338849693568218
      ],
      [
        "▁vital",
        -10.339496377194337
      ],
      [
        "▁career",
        -10.33988249666121
      ],
      [
        "▁bath",
        -10.339957228043877
      ],
      [
        "▁categories",
        -10.340620177015095
      ],
      [
        "▁recover",
        -10.341225900086382
      ],
      [
        "▁ship",
        -10.341227849526252
      ],
      [
        "▁taste",
        -10.341591673328873
      ],
      [
        "▁scientists",
        -10.341689500971482
      ],
      [
        "▁forced",
        -10.341843721671946
      ],
      [
        "▁relax",
        -10.342160363244497
      ],
      [
        "▁ads",
        -10.34255461347785
      ],
      [
        "▁greeting",
        -10.343009843175048
      ],
      [
        "▁records",
        -10.343168307057452
      ],
      [
        "▁corresponding",
        -10.343275090962296
      ],
      [
        "▁updated",
        -10.343821233702315
      ],
      [
        "▁Baku",
        -10.344270795192884
      ],
      [
        "behalf",
        -10.34436095007297
      ],
      [
        "▁Her",
        -10.344545833501895
      ],
      [
        "▁Estonia",
        -10.345167638916074
      ],
      [
        "▁negotiations",
        -10.345188933977614
      ],
      [
        "▁objectives",
        -10.345560368899394
      ],
      [
        "▁pro",
        -10.346306292043378
      ],
      [
        "▁obtained",
        -10.346408603853133
      ],
      [
        "▁comment",
        -10.347646247589704
      ],
      [
        "▁investigation",
        -10.348018973893035
      ],
      [
        "▁Azerbaijani",
        -10.348286112338238
      ],
      [
        "▁Right",
        -10.348850177491451
      ],
      [
        "con",
        -10.349283100332121
      ],
      [
        "▁prize",
        -10.349375068083484
      ],
      [
        "▁emergency",
        -10.349394493610617
      ],
      [
        "▁composition",
        -10.349791855392258
      ],
      [
        "▁finding",
        -10.350585796176176
      ],
      [
        "▁executive",
        -10.350689447588007
      ],
      [
        "▁Roman",
        -10.351025732686177
      ],
      [
        "▁signal",
        -10.351357054771439
      ],
      [
        "▁terrorism",
        -10.351777586201969
      ],
      [
        "▁sons",
        -10.352180460547606
      ],
      [
        "called",
        -10.353529717947888
      ],
      [
        "▁addresse",
        -10.353539105210537
      ],
      [
        "▁updates",
        -10.353861307600305
      ],
      [
        "▁translation",
        -10.353967798963952
      ],
      [
        "▁Make",
        -10.354099508067971
      ],
      [
        "▁classes",
        -10.35570823777464
      ],
      [
        "▁peaceful",
        -10.356336829644892
      ],
      [
        "▁battle",
        -10.35669011077648
      ],
      [
        "▁wants",
        -10.357914739284436
      ],
      [
        "▁identified",
        -10.357933689503964
      ],
      [
        "▁Divine",
        -10.358718127964604
      ],
      [
        "▁Wednesday",
        -10.358876394934995
      ],
      [
        "ng",
        -10.35949051472772
      ],
      [
        "▁friendly",
        -10.360319560748867
      ],
      [
        "▁participated",
        -10.360326216941695
      ],
      [
        "▁challenge",
        -10.360462898576115
      ],
      [
        "▁cutting",
        -10.360464092210165
      ],
      [
        "▁floors",
        -10.360518250917883
      ],
      [
        "о",
        -10.360524972553801
      ],
      [
        "▁Domain",
        -10.360802591619873
      ],
      [
        "▁Modern",
        -10.360873199301086
      ],
      [
        "▁fund",
        -10.361017548550691
      ],
      [
        "▁attractive",
        -10.361200093772148
      ],
      [
        "▁destruction",
        -10.361256254644662
      ],
      [
        "▁learned",
        -10.361815418485378
      ],
      [
        "▁trend",
        -10.362701825811055
      ],
      [
        "▁MP",
        -10.362923952321028
      ],
      [
        "▁handle",
        -10.363101851909068
      ],
      [
        "▁Look",
        -10.363160053493427
      ],
      [
        "▁dildo",
        -10.36338555007094
      ],
      [
        "▁Finland",
        -10.364123442344274
      ],
      [
        "You",
        -10.364334592901919
      ],
      [
        "▁allowing",
        -10.364437552343375
      ],
      [
        "▁twenty",
        -10.364522303988675
      ],
      [
        "▁species",
        -10.365045064499308
      ],
      [
        "▁disk",
        -10.36530901082999
      ],
      [
        "▁Building",
        -10.365433171784808
      ],
      [
        "▁confirmed",
        -10.36596191238466
      ],
      [
        "▁filled",
        -10.366395397892507
      ],
      [
        "▁household",
        -10.366845390653907
      ],
      [
        "▁realize",
        -10.367512751702193
      ],
      [
        "▁definition",
        -10.367865687403356
      ],
      [
        "skaya",
        -10.36831691618504
      ],
      [
        "▁wishes",
        -10.370811732137152
      ],
      [
        "▁classic",
        -10.371563518260626
      ],
      [
        "▁route",
        -10.372022848953538
      ],
      [
        "▁Begin",
        -10.372319851805988
      ],
      [
        "▁Moses",
        -10.372551104371786
      ],
      [
        "▁Using",
        -10.373469274225384
      ],
      [
        "▁leather",
        -10.374286888897261
      ],
      [
        "▁voter",
        -10.37435634850324
      ],
      [
        "▁Society",
        -10.374859935568223
      ],
      [
        "▁resolve",
        -10.375431607142042
      ],
      [
        "▁criteria",
        -10.376235627031292
      ],
      [
        "▁minute",
        -10.377387364403743
      ],
      [
        "▁в",
        -10.377670675669975
      ],
      [
        "▁Vice",
        -10.377795496158146
      ],
      [
        "▁List",
        -10.377880923286416
      ],
      [
        "▁count",
        -10.378040973599646
      ],
      [
        "▁brunette",
        -10.378279628439568
      ],
      [
        "▁History",
        -10.378397301267944
      ],
      [
        "▁gender",
        -10.378563843607687
      ],
      [
        "▁album",
        -10.378978430102524
      ],
      [
        "▁Ka",
        -10.379154171372416
      ],
      [
        "▁Hall",
        -10.37965113512649
      ],
      [
        "New",
        -10.380047196222174
      ],
      [
        "▁enforcement",
        -10.38019333417483
      ],
      [
        "▁Star",
        -10.380293361362137
      ],
      [
        "▁quick",
        -10.380796964002972
      ],
      [
        "▁danger",
        -10.380819732702474
      ],
      [
        "▁Anti",
        -10.380876536889849
      ],
      [
        "▁drugs",
        -10.381698543679759
      ],
      [
        "On",
        -10.38207213889294
      ],
      [
        "governmental",
        -10.382383270660046
      ],
      [
        "▁Lithuania",
        -10.383249655892941
      ],
      [
        "▁transferr",
        -10.383332394306258
      ],
      [
        "▁architecture",
        -10.383663206391754
      ],
      [
        "▁counter",
        -10.384355217715338
      ],
      [
        "▁Kiev",
        -10.384387258249651
      ],
      [
        "▁heads",
        -10.385202403795308
      ],
      [
        "▁prove",
        -10.3855915269478
      ],
      [
        "▁Ne",
        -10.385608108725163
      ],
      [
        "▁Communication",
        -10.385830796774814
      ],
      [
        "▁Flowers",
        -10.386024667235132
      ],
      [
        "http",
        -10.386040079064237
      ],
      [
        "ak",
        -10.386144483290144
      ],
      [
        "▁cum",
        -10.386500024136081
      ],
      [
        "Russian",
        -10.386714308171191
      ],
      [
        "▁grant",
        -10.387199370034443
      ],
      [
        "▁democratic",
        -10.387419108694033
      ],
      [
        "▁banking",
        -10.387851571975231
      ],
      [
        "▁Hey",
        -10.387858931277218
      ],
      [
        "▁painting",
        -10.387923414314423
      ],
      [
        "▁IN",
        -10.388052391918269
      ],
      [
        "▁Rose",
        -10.388199774777078
      ],
      [
        "▁behavior",
        -10.388770718364487
      ],
      [
        "▁comments",
        -10.38922247514751
      ],
      [
        "▁Cable",
        -10.38961013794781
      ],
      [
        "▁coast",
        -10.390110427629367
      ],
      [
        "▁supplement",
        -10.390208250339716
      ],
      [
        "ex",
        -10.39058937521822
      ],
      [
        "▁ball",
        -10.390631598063818
      ],
      [
        "▁Afghanistan",
        -10.39113311063691
      ],
      [
        "▁prepar",
        -10.39187968331269
      ],
      [
        "▁camp",
        -10.392141214819345
      ],
      [
        "▁Beach",
        -10.3943138593506
      ],
      [
        "▁custom",
        -10.394497414443066
      ],
      [
        "▁honor",
        -10.394686700481818
      ],
      [
        "▁Anavar",
        -10.395131554492847
      ],
      [
        "▁promot",
        -10.395301116282997
      ],
      [
        "▁Washington",
        -10.395661111869272
      ],
      [
        "▁signs",
        -10.396012786915618
      ],
      [
        "▁Unsur",
        -10.396078876448954
      ],
      [
        "▁judge",
        -10.396218538596713
      ],
      [
        "▁studio",
        -10.396423915704725
      ],
      [
        "▁applicable",
        -10.396957524782817
      ],
      [
        "▁plane",
        -10.39708341155254
      ],
      [
        "▁measure",
        -10.397436424734108
      ],
      [
        "▁Le",
        -10.398012397946466
      ],
      [
        "▁Previous",
        -10.398503228691341
      ],
      [
        "▁proposals",
        -10.398719057620319
      ],
      [
        "▁developer",
        -10.400054507769473
      ],
      [
        "▁Oblast",
        -10.40103211617339
      ],
      [
        "▁lawyer",
        -10.401327494210909
      ],
      [
        "▁occur",
        -10.401354468322381
      ],
      [
        "▁approval",
        -10.40174005612905
      ],
      [
        "ordinary",
        -10.401996946199217
      ],
      [
        "led",
        -10.402828965145975
      ],
      [
        "▁orders",
        -10.402992306379764
      ],
      [
        "▁referred",
        -10.403193977840806
      ],
      [
        "▁rose",
        -10.403248151432383
      ],
      [
        "▁homemade",
        -10.403322541740355
      ],
      [
        "ahead",
        -10.403806530805122
      ],
      [
        "▁showed",
        -10.403856037984097
      ],
      [
        "▁bright",
        -10.40410252767511
      ],
      [
        "▁constant",
        -10.40486885786116
      ],
      [
        "tic",
        -10.405351814047153
      ],
      [
        "▁involve",
        -10.407428360207241
      ],
      [
        "▁theory",
        -10.408053716035168
      ],
      [
        "gstad",
        -10.408394725048195
      ],
      [
        "▁outcome",
        -10.408656475324015
      ],
      [
        "▁Check",
        -10.408814038005906
      ],
      [
        "za",
        -10.408971697370395
      ],
      [
        "▁VPN",
        -10.40997180001726
      ],
      [
        "▁failed",
        -10.411101528971477
      ],
      [
        "▁log",
        -10.411610451222684
      ],
      [
        "▁greatest",
        -10.412317286541121
      ],
      [
        "▁ethnic",
        -10.412399651190517
      ],
      [
        "wise",
        -10.41264276210004
      ],
      [
        "▁journey",
        -10.412701675591602
      ],
      [
        "▁Details",
        -10.413524547222291
      ],
      [
        "▁explained",
        -10.413943187923552
      ],
      [
        "known",
        -10.41414914415089
      ],
      [
        "▁piece",
        -10.415745509656276
      ],
      [
        "▁looks",
        -10.415969934424243
      ],
      [
        "▁secondary",
        -10.416043592886258
      ],
      [
        "▁identity",
        -10.416323728253376
      ],
      [
        "▁colors",
        -10.41675821342931
      ],
      [
        "▁illegal",
        -10.416875681709366
      ],
      [
        "Chisinau",
        -10.417264605371912
      ],
      [
        "▁consumer",
[...]
