{
  "version": "1.0",
  "truncation": null,
  "padding": null,
  "added_tokens": [
    {
      "id": 0,
      "content": "<pad>",
      "single_word": false,
      "lstrip": false,
      "rstrip": false,
      "normalized": false,
      "special": true
    },
    {
      "id": 1,
      "content": "<s>",
      "single_word": false,
      "lstrip": false,
      "rstrip": false,
      "normalized": false,
      "special": true
    },
    {
      "id": 2,
      "content": "</s>",
      "single_word": false,
      "lstrip": false,
      "rstrip": false,
      "normalized": false,
      "special": true
    },
    {
      "id": 3,
      "content": "<unk>",
      "single_word": false,
      "lstrip": false,
      "rstrip": false,
      "normalized": false,
      "special": true
    },
    {
      "id": 4,
      "content": "<ru>",
      "single_word": false,
      "lstrip": false,
      "rstrip": false,
      "normalized": false,
      "special": true
    },
    {
      "id": 5,
      "content": "<en>",
      "single_word": false,
      "lstrip": false,
      "rstrip": false,
      "normalized": false,
      "special": true
    }
  ],
  "normalizer": {
    "type": "NFKC"
  },
  "pre_tokenizer": {
    "type": "Sequence",
    "pretokenizers": [
      {
        "type": "Metaspace",
        "replacement": "▁",
        "prepend_scheme": "always",
        "split": true
      },
      {
        "type": "Punctuation",
        "behavior": "Isolated"
      },
      {
        "type": "Digits",
        "individual_digits": true
      }
    ]
  },
  "post_processor": {
    "type": "TemplateProcessing",
    "single": [
      {
        "SpecialToken": {
          "id": "<s>",
          "type_id": 0
        }
      },
      {
        "SpecialToken": {
          "id": "<ru>",
          "type_id": 0
        }
      },
      {
        "Sequence": {
          "id": "A",
          "type_id": 0
        }
      },
      {
        "SpecialToken": {
          "id": "<en>",
          "type_id": 0
        }
      }
    ],
    "pair": [
      {
        "SpecialToken": {
          "id": "<s>",
          "type_id": 0
        }
      },
      {
        "SpecialToken": {
          "id": "<ru>",
          "type_id": 0
        }
      },
      {
        "Sequence": {
          "id": "A",
          "type_id": 0
        }
      },
      {
        "SpecialToken": {
          "id": "<en>",
          "type_id": 1
        }
      },
      {
        "Sequence": {
          "id": "B",
          "type_id": 1
        }
      },
      {
        "SpecialToken": {
          "id": "</s>",
          "type_id": 1
        }
      }
    ],
    "special_tokens": {
      "</s>": {
        "id": "</s>",
        "ids": [
          3
        ],
        "tokens": [
          "</s>"
        ]
      },
      "<en>": {
        "id": "<en>",
        "ids": [
          7
        ],
        "tokens": [
          "<en>"
        ]
      },
      "<ru>": {
        "id": "<ru>",
        "ids": [
          6
        ],
        "tokens": [
          "<ru>"
        ]
      },
      "<s>": {
        "id": "<s>",
        "ids": [
          2
        ],
        "tokens": [
          "<s>"
        ]
      }
    }
  },
  "decoder": {
    "type": "Metaspace",
    "replacement": "▁",
    "prepend_scheme": "always",
    "split": true
  },
  "model": {
    "type": "Unigram",
    "unk_id": 3,
    "vocab": [
      [
        "<pad>",
        0.0
      ],
      [
        "<s>",
        0.0
      ],
      [
        "</s>",
        0.0
      ],
      [
        "<unk>",
        0.0
      ],
      [
        "<ru>",
        0.0
      ],
      [
        "<en>",
        0.0
      ],
      [
        "▁",
        -2.16495418123041
      ],
      [
        ",",
        -3.1476168780526077
      ],
      [
        ".",
        -3.308287525682239
      ],
      [
        "и",
        -3.989117517123365
      ],
      [
        "▁the",
        -3.993302443745435
      ],
      [
        "s",
        -4.1606934943874485
      ],
      [
        "▁of",
        -4.509525791276104
      ],
      [
        "е",
        -4.594229496765442
      ],
      [
        "0",
        -4.665110860872266
      ],
      [
        "▁в",
        -4.686703439738924
      ],
      [
        "▁and",
        -4.730100478097739
      ],
      [
        "й",
        -4.835142996630193
      ],
      [
        "▁to",
        -4.83892242612651
      ],
      [
        "-",
        -4.843725532511227
      ],
      [
        "1",
        -4.9307587108182265
      ],
      [
        "a",
        -4.983666980188062
      ],
      [
        "х",
        -5.035643063433588
      ],
      [
        "2",
        -5.043440121426661
      ],
      [
        "▁in",
        -5.157186925575008
      ],
      [
        "а",
        -5.240463534822267
      ],
      [
        "ed",
        -5.370028306860272
      ],
      [
        "▁на",
        -5.496392413043532
      ],
      [
        ":",
        -5.503087796131366
      ],
      [
        ")",
        -5.504890807648227
      ],
      [
        "ы",
        -5.530460862088363
      ],
      [
        "'",
        -5.543645409039785
      ],
      [
        "я",
        -5.544320711379767
      ],
      [
        "(",
        -5.568085813589104
      ],
      [
        "ing",
        -5.610333081106694
      ],
      [
        "у",
        -5.640530632769549
      ],
      [
        "▁с",
        -5.656489250534669
      ],
      [
        "м",
        -5.666555185380711
      ],
      [
        "▁is",
        -5.709155220585213
      ],
      [
        "\"",
        -5.7559102354686065
      ],
      [
        "▁не",
        -5.788821890776701
      ],
      [
        "▁for",
        -5.798127262803579
      ],
      [
        "3",
        -5.821370993802756
      ],
      [
        "?",
        -5.844346256165391
      ],
      [
        "9",
        -5.845253917357118
      ],
      [
        "▁по",
        -5.846437893083419
      ],
      [
        "5",
        -5.84821422972438
      ],
      [
        "▁that",
        -5.864333878291031
      ],
      [
        "го",
        -5.904373769448693
      ],
      [
        "о",
        -5.922403975196037
      ],
      [
        "y",
        -5.934223515194475
      ],
      [
        "▁I",
        -5.976149940583717
      ],
      [
        "▁что",
        -5.9765518676172835
      ],
      [
        "4",
        -5.995279557043212
      ],
      [
        "▁you",
        -6.063140574415458
      ],
      [
        "d",
        -6.0702116534646695
      ],
      [
        "▁on",
        -6.115968885449782
      ],
      [
        "/",
        -6.126645749654378
      ],
      [
        "ю",
        -6.126677223599625
      ],
      [
        "▁The",
        -6.154293746917256
      ],
      [
        "6",
        -6.159979568091735
      ],
      [
        "▁with",
        -6.210618095896008
      ],
      [
        "ly",
        -6.224057020651415
      ],
      [
        "8",
        -6.23115403583034
      ],
      [
        "к",
        -6.235009417854869
      ],
      [
        "7",
        -6.2504161193246155
      ],
      [
        "t",
        -6.25742439905458
      ],
      [
        "▁be",
        -6.285046018810906
      ],
      [
        "ов",
        -6.294573608384235
      ],
      [
        "ся",
        -6.308369809327429
      ],
      [
        "▁it",
        -6.356347147526925
      ],
      [
        ";",
        -6.35865049857359
      ],
      [
        "▁для",
        -6.386031681721899
      ],
      [
        "▁are",
        -6.394593211387274
      ],
      [
        "▁as",
        -6.416800763949416
      ],
      [
        "ом",
        -6.470452829462122
      ],
      [
        "▁by",
        -6.535823381621503
      ],
      [
        "ми",
        -6.549621322382498
      ],
      [
        "▁это",
        -6.566861185814172
      ],
      [
        "▁В",
        -6.57408593753464
      ],
      [
        "▁was",
        -6.607567911304857
      ],
      [
        "e",
        -6.609777432580405
      ],
      [
        "▁not",
        -6.625359804107751
      ],
      [
        "!",
        -6.631138168033514
      ],
      [
        "ь",
        -6.6432097655087965
      ],
      [
        "▁from",
        -6.704647199009177
      ],
      [
        "▁как",
        -6.726381078908483
      ],
      [
        "▁have",
        -6.734269232784801
      ],
      [
        "▁or",
        -6.746225333584668
      ],
      [
        "▁this",
        -6.752426326274421
      ],
      [
        "▁из",
        -6.789688317271352
      ],
      [
        "▁от",
        -6.806687995977779
      ],
      [
        "▁за",
        -6.826134031168824
      ],
      [
        "ая",
        -6.8303031042818105
      ],
      [
        "▁will",
        -6.852281100795015
      ],
      [
        "т",
        -6.858193289012121
      ],
      [
        "▁at",
        -6.858572060514211
      ],
      [
        "▁или",
        -6.916729333877049
      ],
      [
        "—",
        -6.9286147462827365
      ],
      [
        "»",
        -6.968776427595261
      ],
      [
        "«",
        -6.9755020328592945
      ],
      [
        "▁an",
        -7.009800833928821
      ],
      [
        "▁can",
        -7.084271146508279
      ],
      [
        "▁all",
        -7.125938055561351
      ],
      [
        "ой",
        -7.132211827093386
      ],
      [
        "▁your",
        -7.175275322054635
      ],
      [
        "ей",
        -7.176297916788611
      ],
      [
        "n",
        -7.180434021665983
      ],
      [
        "▁which",
        -7.180523773978944
      ],
      [
        "▁has",
        -7.186622745904646
      ],
      [
        "▁we",
        -7.187519982984902
      ],
      [
        "▁Я",
        -7.192243574358018
      ],
      [
        "его",
        -7.202951243530551
      ],
      [
        "m",
        -7.214916918801052
      ],
      [
        "▁their",
        -7.222983060104573
      ],
      [
        "▁вы",
        -7.233990612335953
      ],
      [
        "ть",
        -7.245094150413895
      ],
      [
        "▁он",
        -7.246221973146152
      ],
      [
        "er",
        -7.261775574193811
      ],
      [
        "▁In",
        -7.281550754751125
      ],
      [
        "их",
        -7.293433528846512
      ],
      [
        "ую",
        -7.301178076565453
      ],
      [
        "▁также",
        -7.325985976912914
      ],
      [
        "в",
        -7.341150542042337
      ],
      [
        "▁при",
        -7.372500286798115
      ],
      [
        "▁A",
        -7.380008717992164
      ],
      [
        "▁he",
        -7.391265432952922
      ],
      [
        "▁чтобы",
        -7.398611563370293
      ],
      [
        "▁так",
        -7.400528328869806
      ],
      [
        "ться",
        -7.409872932084367
      ],
      [
        "▁its",
        -7.412545711860705
      ],
      [
        "▁It",
        -7.4188244301619335
      ],
      [
        "▁года",
        -7.4282151521753
      ],
      [
        "▁but",
        -7.4491548696326095
      ],
      [
        "▁все",
        -7.4563839456226955
      ],
      [
        "▁they",
        -7.4630723774366725
      ],
      [
        "▁one",
        -7.463752209253023
      ],
      [
        "▁were",
        -7.471735936834936
      ],
      [
        "▁до",
        -7.493947930085719
      ],
      [
        "%",
        -7.525294695327382
      ],
      [
        "▁мы",
        -7.530428020357192
      ],
      [
        "▁his",
        -7.535462436687498
      ],
      [
        "с",
        -7.546242477002801
      ],
      [
        "ами",
        -7.549052243532783
      ],
      [
        "▁who",
        -7.550098047419436
      ],
      [
        "▁other",
        -7.5678396578501115
      ],
      [
        "i",
        -7.572832551859802
      ],
      [
        "about",
        -7.589478146974951
      ],
      [
        "▁то",
        -7.599230991989652
      ],
      [
        "▁more",
        -7.602752635415364
      ],
      [
        "▁которые",
        -7.604625322150749
      ],
      [
        "▁но",
        -7.6070048470128455
      ],
      [
        "▁me",
        -7.607704712408632
      ],
      [
        "▁You",
        -7.610121905617913
      ],
      [
        "es",
        -7.623256763952163
      ],
      [
        "▁do",
        -7.627101700313814
      ],
      [
        "▁been",
        -7.628315670621589
      ],
      [
        "ies",
        -7.6294698698940895
      ],
      [
        "*",
        -7.634588017061466
      ],
      [
        "▁any",
        -7.641154671460683
      ],
      [
        "▁С",
        -7.644762497390335
      ],
      [
        "г",
        -7.651101433469398
      ],
      [
        "му",
        -7.657903882769794
      ],
      [
        "▁also",
        -7.658224790872598
      ],
      [
        "▁И",
        -7.669059081116814
      ],
      [
        "o",
        -7.6730083767176005
      ],
      [
        "▁my",
        -7.684796085297462
      ],
      [
        "▁time",
        -7.688454623684194
      ],
      [
        "▁there",
        -7.697283874567992
      ],
      [
        "▁had",
        -7.70969012463752
      ],
      [
        "re",
        -7.712465770811722
      ],
      [
        "▁our",
        -7.7168325825701345
      ],
      [
        "ем",
        -7.725782506428397
      ],
      [
        "▁бы",
        -7.7278503515499
      ],
      [
        "▁может",
        -7.729219196199152
      ],
      [
        "▁Это",
        -7.733436741679487
      ],
      [
        "▁будет",
        -7.740856278407744
      ],
      [
        "то",
        -7.761913870458395
      ],
      [
        "▁them",
        -7.764213672616663
      ],
      [
        "▁We",
        -7.767000259652713
      ],
      [
        "▁По",
        -7.777181072618937
      ],
      [
        "▁out",
        -7.777363144192654
      ],
      [
        "▁would",
        -7.790176809762185
      ],
      [
        "▁This",
        -7.818995706731581
      ],
      [
        "▁ты",
        -7.820161869795111
      ],
      [
        "того",
        -7.820936628770193
      ],
      [
        "▁up",
        -7.827406757811765
      ],
      [
        "▁so",
        -7.832127766798186
      ],
      [
        "▁был",
        -7.835030251857091
      ],
      [
        "▁время",
        -7.839038952895878
      ],
      [
        "▁же",
        -7.839506620167445
      ],
      [
        "▁было",
        -7.839701908457641
      ],
      [
        "▁no",
        -7.845929990024354
      ],
      [
        "▁people",
        -7.848367810201973
      ],
      [
        "▁быть",
        -7.851235069622712
      ],
      [
        "▁what",
        -7.854288236148941
      ],
      [
        "▁only",
        -7.856352810109016
      ],
      [
        "▁if",
        -7.8652532588462645
      ],
      [
        "▁только",
        -7.888712774792374
      ],
      [
        "▁new",
        -7.8887499694944605
      ],
      [
        "▁into",
        -7.893097120814879
      ],
      [
        "если",
        -7.893223453317562
      ],
      [
        "▁О",
        -7.895823572424419
      ],
      [
        "▁более",
        -7.9015295017841485
      ],
      [
        "н",
        -7.907108678562038
      ],
      [
        "▁need",
        -7.91854295690646
      ],
      [
        "▁such",
        -7.927587708862276
      ],
      [
        "▁should",
        -7.931483910373846
      ],
      [
        "▁том",
        -7.9341555062953795
      ],
      [
        "▁when",
        -7.951429240464254
      ],
      [
        "–",
        -7.953518616824438
      ],
      [
        "▁He",
        -7.955654414359369
      ],
      [
        "▁And",
        -7.9639237034147445
      ],
      [
        "▁На",
        -7.972347012509655
      ],
      [
        "▁him",
        -7.975206823788907
      ],
      [
        "они",
        -7.978326683390872
      ],
      [
        "▁work",
        -7.980386018117219
      ],
      [
        "▁know",
        -7.983567336873131
      ],
      [
        "▁like",
        -8.00084428672363
      ],
      [
        "▁than",
        -8.004691914313842
      ],
      [
        "▁когда",
        -8.010951852401211
      ],
      [
        "▁А",
        -8.040391541879215
      ],
      [
        "▁may",
        -8.045220456736452
      ],
      [
        "▁эти",
        -8.053480712016544
      ],
      [
        "able",
        -8.057827900804185
      ],
      [
        "▁со",
        -8.069450761745383
      ],
      [
        "▁these",
        -8.070003604710223
      ],
      [
        "ется",
        -8.071832247305789
      ],
      [
        "▁No",
        -8.079781363589369
      ],
      [
        "лись",
        -8.080288564495477
      ],
      [
        "▁some",
        -8.080686402830816
      ],
      [
        "c",
        -8.081177187464144
      ],
      [
        "b",
        -8.081443430134838
      ],
      [
        "▁меня",
        -8.084006435027835
      ],
      [
        "in",
        -8.088444630407423
      ],
      [
        "ity",
        -8.090397944001275
      ],
      [
        "▁just",
        -8.105045659937405
      ],
      [
        "▁her",
        -8.10670937611744
      ],
      [
        "▁во",
        -8.111117820422363
      ],
      [
        "ная",
        -8.114138701222219
      ],
      [
        "▁well",
        -8.116006241337697
      ],
      [
        "▁Он",
        -8.125617892310677
      ],
      [
        "▁об",
        -8.129046451670183
      ],
      [
        "▁были",
        -8.130875824954686
      ],
      [
        "▁use",
        -8.134359844285175
      ],
      [
        "▁Мы",
        -8.13747681513237
      ],
      [
        "▁под",
        -8.140931051682216
      ],
      [
        "ются",
        -8.143591842425264
      ],
      [
        "▁first",
        -8.146873301754807
      ],
      [
        "▁want",
        -8.158441858994113
      ],
      [
        "▁этого",
        -8.161002965052212
      ],
      [
        "▁является",
        -8.16564953184626
      ],
      [
        "▁этом",
        -8.166647094142771
      ],
      [
        "r",
        -8.166923900201814
      ],
      [
        "▁Не",
        -8.176424924200152
      ],
      [
        "Если",
        -8.177574476616394
      ],
      [
        "ет",
        -8.186173979485922
      ],
      [
        "▁information",
        -8.19263919070435
      ],
      [
        "▁году",
        -8.193444250109282
      ],
      [
        "h",
        -8.21019576980556
      ],
      [
        "▁Но",
        -8.21542558272632
      ],
      [
        "▁right",
        -8.216333476725664
      ],
      [
        "▁over",
        -8.219882639702197
      ],
      [
        "▁how",
        -8.220878411978754
      ],
      [
        "▁every",
        -8.226095660154147
      ],
      [
        "▁который",
        -8.22652670224107
      ],
      [
        "▁did",
        -8.226789450432914
      ],
      [
        "▁If",
        -8.230964594045915
      ],
      [
        "▁get",
        -8.234163025763314
      ],
      [
        "▁two",
        -8.236970130554935
      ],
      [
        "▁Вы",
        -8.238144227437203
      ],
      [
        "она",
        -8.240139922910043
      ],
      [
        "▁most",
        -8.24103478864881
      ],
      [
        "▁could",
        -8.246309268516288
      ],
      [
        "▁us",
        -8.249006027075838
      ],
      [
        "▁through",
        -8.253732575959107
      ],
      [
        "▁чем",
        -8.259287780902945
      ],
      [
        "al",
        -8.262628722337478
      ],
      [
        "▁make",
        -8.265098645809513
      ],
      [
        "▁But",
        -8.271234050767495
      ],
      [
        "S",
        -8.272308874060077
      ],
      [
        "▁мне",
        -8.273885474655495
      ],
      [
        "▁есть",
        -8.279095236407988
      ],
      [
        "▁United",
        -8.280409364399505
      ],
      [
        "said",
        -8.281264120932121
      ],
      [
        "C",
        -8.284096901376412
      ],
      [
        "▁countries",
        -8.293328109849323
      ],
      [
        "▁now",
        -8.295130487407416
      ],
      [
        "▁years",
        -8.29516531786955
      ],
      [
        "ных",
        -8.298488846007734
      ],
      [
        "▁What",
        -8.300060204975727
      ],
      [
        "▁ни",
        -8.30541450326622
      ],
      [
        "▁тем",
        -8.309031045499179
      ],
      [
        "▁всех",
        -8.314998175402145
      ],
      [
        "▁take",
        -8.31606534575558
      ],
      [
        "▁where",
        -8.316885754243879
      ],
      [
        "▁У",
        -8.3182126331156
      ],
      [
        "на",
        -8.318667681095961
      ],
      [
        "very",
        -8.321275451255383
      ],
      [
        "▁under",
        -8.321336088882253
      ],
      [
        "▁можно",
        -8.321579262305349
      ],
      [
        "those",
        -8.326072267142898
      ],
      [
        "▁provide",
        -8.327458926237576
      ],
      [
        "▁могут",
        -8.329934185358354
      ],
      [
        "▁development",
        -8.331783480183606
      ],
      [
        "▁Ты",
        -8.334895621665563
      ],
      [
        "ного",
        -8.338058084404492
      ],
      [
        "▁system",
        -8.344430916842278
      ],
      [
        "ной",
        -8.345641837894101
      ],
      [
        "▁international",
        -8.347693050180942
      ],
      [
        "▁world",
        -8.35393525293936
      ],
      [
        "▁S",
        -8.354419843427516
      ],
      [
        "ого",
        -8.357262189260613
      ],
      [
        "f",
        -8.366751900602415
      ],
      [
        "▁К",
        -8.367192154865089
      ],
      [
        "▁don",
        -8.368927085393997
      ],
      [
        "▁here",
        -8.370257387100567
      ],
      [
        "▁Russian",
        -8.370663806457289
      ],
      [
        "▁go",
        -8.371066142757602
      ],
      [
        "]",
        -8.373612383556566
      ],
      [
        "▁between",
        -8.375601581797145
      ],
      [
        "[",
        -8.383036000331943
      ],
      [
        "▁must",
        -8.389281197475334
      ],
      [
        "еще",
        -8.395246086956876
      ],
      [
        "▁уже",
        -8.399860508812022
      ],
      [
        "была",
        -8.410662486620485
      ],
      [
        "▁после",
        -8.410831845006436
      ],
      [
        "many",
        -8.411154328161569
      ],
      [
        "ever",
        -8.411885316661152
      ],
      [
        "▁see",
        -8.411956226605463
      ],
      [
        "▁должны",
        -8.416218306836802
      ],
      [
        "▁между",
        -8.417525037246461
      ],
      [
        "▁Да",
        -8.41838537171341
      ],
      [
        "▁раз",
        -8.419360236583097
      ],
      [
        "тся",
        -8.423284801299415
      ],
      [
        "▁support",
        -8.424872391467085
      ],
      [
        "l",
        -8.425224905377068
      ],
      [
        "очень",
        -8.426033298545146
      ],
      [
        "on",
        -8.426325726459744
      ],
      [
        "p",
        -8.42697112674048
      ],
      [
        "▁good",
        -8.429033045033334
      ],
      [
        "▁лет",
        -8.435389662021178
      ],
      [
        "▁C",
        -8.443170958314507
      ],
      [
        "▁even",
        -8.443316059538846
      ],
      [
        "ах",
        -8.444797284806578
      ],
      [
        "▁way",
        -8.449542676440219
      ],
      [
        "но",
        -8.452716357568423
      ],
      [
        "ные",
        -8.458159909247296
      ],
      [
        "▁part",
        -8.46473208877669
      ],
      [
        "▁number",
        -8.465749227357934
      ],
      [
        "▁E",
        -8.465909915263957
      ],
      [
        "ную",
        -8.468982658859657
      ],
      [
        "▁she",
        -8.469674447722687
      ],
      [
        "области",
        -8.470080456655866
      ],
      [
        "▁Как",
        -8.470848405828768
      ],
      [
        "A",
        -8.470885021849625
      ],
      [
        "▁after",
        -8.47279363902594
      ],
      [
        "or",
        -8.48171990715449
      ],
      [
        "ll",
        -8.484011843308187
      ],
      [
        "▁про",
        -8.487757060170328
      ],
      [
        "▁made",
        -8.488249123713178
      ],
      [
        "лась",
        -8.49260562434755
      ],
      [
        "+",
        -8.492620095969105
      ],
      [
        "▁say",
        -8.498678296968722
      ],
      [
        "ce",
        -8.502237277774707
      ],
      [
        "▁For",
        -8.508510064934471
      ],
      [
        "▁B",
        -8.51926765977513
      ],
      [
        "▁then",
        -8.520610562504716
      ],
      [
        "▁How",
        -8.521547476645518
      ],
      [
        "▁Russia",
        -8.526516710849268
      ],
      [
        "где",
        -8.531474076992543
      ],
      [
        "ли",
        -8.53533734692243
      ],
      [
        "thing",
        -8.536285933340467
      ],
      [
        "▁including",
        -8.53848209517894
      ],
      [
        "▁think",
        -8.538786678453553
      ],
      [
        "#",
        -8.541444518646056
      ],
      [
        "because",
        -8.551644978588604
      ],
      [
        "Что",
        -8.565025011844032
      ],
      [
        "лось",
        -8.567402102721854
      ],
      [
        "д",
        -8.572734964536071
      ],
      [
        "▁нас",
        -8.582493994792284
      ],
      [
        "th",
        -8.583215506749163
      ],
      [
        "▁просто",
        -8.58354368458332
      ],
      [
        "▁больше",
        -8.587974990504026
      ],
      [
        "▁life",
        -8.590639808124418
      ],
      [
        "ers",
        -8.591169466485729
      ],
      [
        "других",
        -8.592370577370666
      ],
      [
        "▁project",
        -8.594737021417068
      ],
      [
        "▁place",
        -8.596181696791637
      ],
      [
        "▁ли",
        -8.596944760286478
      ],
      [
        "▁country",
        -8.59699162762231
      ],
      [
        "▁вам",
        -8.597407932217298
      ],
      [
        "л",
        -8.602931457399022
      ],
      [
        "▁year",
        -8.606896955233893
      ],
      [
        "▁стран",
        -8.609712380686236
      ],
      [
        "▁same",
        -8.609977516179752
      ],
      [
        "▁без",
        -8.61054244101111
      ],
      [
        "▁таки",
        -8.61802562455015
      ],
      [
        "ve",
        -8.620491550265212
      ],
      [
        "за",
        -8.621472553703446
      ],
      [
        "▁state",
        -8.623568616291937
      ],
      [
        "▁кто",
        -8.624139826973527
      ],
      [
        "▁help",
        -8.62721837935738
      ],
      [
        "▁будут",
        -8.627802310362576
      ],
      [
        "▁States",
        -8.629298183297312
      ],
      [
        "▁человека",
        -8.629654539456084
      ],
      [
        "▁high",
        -8.633888894929642
      ],
      [
        "▁нет",
        -8.63543932593728
      ],
      [
        "▁look",
        -8.635907109329167
      ],
      [
        "▁To",
        -8.640077947219323
      ],
      [
        "▁развития",
        -8.642384604329967
      ],
      [
        "ный",
        -8.644545434738784
      ],
      [
        "этому",
        -8.64836678266768
      ],
      [
        "▁себя",
        -8.650036184648297
      ],
      [
        "▁F",
        -8.65570832194851
      ],
      [
        "▁There",
        -8.657109636171132
      ],
      [
        "▁That",
        -8.657616054359842
      ],
      [
        "▁Так",
        -8.658488333913576
      ],
      [
        "▁случае",
        -8.660894277955416
      ],
      [
        "▁before",
        -8.661110391775
      ],
      [
        "’",
        -8.661379488581561
      ],
      [
        "▁вас",
        -8.66278361948003
      ],
      [
        "▁being",
        -8.664689586923156
      ],
      [
        "▁shall",
        -8.670207970661897
      ],
      [
        "▁M",
        -8.674203751326088
      ],
      [
        "“",
        -8.6748134699827
      ],
      [
        "▁against",
        -8.6757022478141
      ],
      [
        "used",
        -8.676085345301335
      ],
      [
        "▁свое",
        -8.676189218284295
      ],
      [
        "▁всего",
        -8.67655632516068
      ],
      [
        "▁day",
        -8.677361052609788
      ],
      [
        "▁human",
        -8.677472898102364
      ],
      [
        "▁Nations",
        -8.678883654094815
      ],
      [
        "$",
        -8.679172049183537
      ],
      [
        "w",
        -8.67999466968398
      ],
      [
        "▁back",
        -8.681582187736803
      ],
      [
        "тебя",
        -8.691500720828689
      ],
      [
        "▁own",
        -8.692558841404516
      ],
      [
        "▁которы",
        -8.692794428244836
      ],
      [
        "▁которая",
        -8.69990206236665
      ],
      [
        "даже",
        -8.702867085214368
      ],
      [
        "▁national",
        -8.705403202608979
      ],
      [
        "during",
        -8.707486524943867
      ],
      [
        "”",
        -8.713418074464117
      ],
      [
        "▁работы",
        -8.71539532559651
      ],
      [
        "▁T",
        -8.71657354528403
      ],
      [
        "▁problem",
        -8.716854013655736
      ],
      [
        "▁As",
        -8.71951637802912
      ],
      [
        "▁них",
        -8.720964273155934
      ],
      [
        "▁Committee",
        -8.724327636169551
      ],
      [
        "▁order",
        -8.724919087753534
      ],
      [
        "▁США",
        -8.73591951010987
      ],
      [
        "пример",
        -8.737588937228006
      ],
      [
        "▁Наций",
        -8.738151394149188
      ],
      [
        "g",
        -8.738661821268272
      ],
      [
        "self",
        -8.739381323132246
      ],
      [
        "each",
        -8.744670480503451
      ],
      [
        "▁business",
        -8.74480006073909
      ],
      [
        "▁им",
        -8.749799779116376
      ],
      [
        "лся",
        -8.754150272040656
      ],
      [
        "ready",
        -8.757321265423256
      ],
      [
        "▁P",
        -8.757484537868514
      ],
      [
        "▁So",
        -8.757498045197169
      ],
      [
        "▁Объединенных",
        -8.757783461972807
      ],
      [
        "▁rights",
        -8.75831441838782
      ],
      [
        "one",
        -8.7627942634346
      ],
      [
        "while",
        -8.766975695164588
      ],
      [
        "Организации",
        -8.767361699200562
      ],
      [
        "▁данных",
        -8.774326346494389
      ],
      [
        "▁come",
        -8.779195770963325
      ],
      [
        "▁сказал",
        -8.779426576206683
      ],
      [
        "Для",
        -8.780897112851306
      ],
      [
        "ion",
        -8.782673836326518
      ],
      [
        "ют",
        -8.783377897509789
      ],
      [
        "▁data",
        -8.791345216675207
      ],
      [
        "much",
        -8.79211950383146
      ],
      [
        "▁стать",
        -8.793399966988177
      ],
      [
        "an",
        -8.794630337499383
      ],
      [
        "▁report",
        -8.794885662613686
      ],
      [
        "▁long",
        -8.795568354716307
      ],
      [
        "_",
        -8.795707361741318
      ],
      [
        "▁both",
        -8.795808353325866
      ],
      [
        "здес",
        -8.79712572767665
      ],
      [
        "▁On",
        -8.797907950325897
      ],
      [
        "going",
        -8.800064674687205
      ],
      [
        "▁системы",
        -8.80056162065632
      ],
      [
        "▁within",
        -8.802110543460724
      ],
      [
        "▁проект",
        -8.806028044738357
      ],
      [
        "▁without",
        -8.80874972063993
      ],
      [
        "▁через",
        -8.80952360627535
      ],
      [
        "▁law",
        -8.812182925303782
      ],
      [
        "▁D",
        -8.812280580389965
      ],
      [
        "▁services",
        -8.81394797065722
      ],
      [
        "ам",
        -8.825821795528613
      ],
      [
        "сё",
        -8.825999795544018
      ],
      [
        "▁public",
        -8.828829299375379
      ],
      [
        "либо",
        -8.832273149852657
      ],
      [
        "▁деятельности",
        -8.833200129357412
      ],
      [
        "ary",
        -8.833256084659553
      ],
      [
        "▁al",
        -8.8338703341515
      ],
      [
        "I",
        -8.834094550670578
      ],
      [
        "=",
        -8.838757633813495
      ],
      [
        "▁связи",
        -8.841692631057125
      ],
      [
        "▁людей",
        -8.844428034338346
      ],
      [
        "образом",
        -8.8456607985231
      ],
      [
        "▁G",
        -8.846089342317534
      ],
      [
        "▁un",
        -8.849226459176943
      ],
      [
        "▁important",
        -8.84967119250981
      ],
      [
        "▁своей",
        -8.851724017828207
      ],
      [
        "ка",
        -8.855183381377984
      ],
      [
        "is",
        -8.860280082016194
      ],
      [
        "▁страны",
        -8.861388869034954
      ],
      [
        ">",
        -8.861637443676683
      ],
      [
        "▁прав",
        -8.861869512709792
      ],
      [
        "▁case",
        -8.862044945617043
      ],
      [
        "ness",
        -8.863956402468594
      ],
      [
        "▁наше",
        -8.863968341505696
      ],
      [
        "▁great",
        -8.864938234068415
      ],
      [
        "▁При",
        -8.866042417552874
      ],
      [
        "▁down",
        -8.866404714381357
      ],
      [
        "▁безопасности",
        -8.866902686914633
      ],
      [
        "сь",
        -8.867703698753376
      ],
      [
        "▁process",
        -8.867960123626023
      ],
      [
        "сти",
        -8.87131268627328
      ],
      [
        "They",
        -8.875207939904808
      ],
      [
        "▁Windows",
        -8.878016886795841
      ],
      [
        "▁самы",
        -8.878167327966098
      ],
      [
        "▁find",
        -8.879015688905103
      ],
      [
        "▁does",
        -8.879739067039495
      ],
      [
        "▁свои",
        -8.882650882056142
      ],
      [
        "▁economic",
        -8.885014249019084
      ],
      [
        "▁children",
        -8.88825021534156
      ],
      [
        "▁человек",
        -8.890358420662162
      ],
      [
        "▁Council",
        -8.891414125718883
      ],
      [
        "based",
        -8.89192668528127
      ],
      [
        "▁three",
        -8.892106341963027
      ],
      [
        "▁level",
        -8.894845591493132
      ],
      [
        "▁один",
        -8.895156385033028
      ],
      [
        "▁God",
        -8.89728734171847
      ],
      [
        "▁set",
        -8.900135120978161
      ],
      [
        "▁Mr",
        -8.904229826127162
      ],
      [
        "▁per",
        -8.905340150296976
      ],
      [
        "▁still",
        -8.907984767643628
      ],
      [
        "▁России",
        -8.910068007779994
      ],
      [
        "When",
        -8.912568731987857
      ],
      [
        "▁имеет",
        -8.913920874647582
      ],
      [
        "▁power",
        -8.915338682045453
      ],
      [
        "▁International",
        -8.915609468978877
      ],
      [
        "▁market",
        -8.919567430649412
      ],
      [
        "▁All",
        -8.919749019062804
      ],
      [
        "▁last",
        -8.920431649468016
      ],
      [
        "▁start",
        -8.923508601551973
      ],
      [
        "▁particular",
        -8.923642867975497
      ],
      [
        "свою",
        -8.926086728450663
      ],
      [
        "▁different",
        -8.927861982606736
      ],
      [
        "▁service",
        -8.931944971991184
      ],
      [
        "▁include",
        -8.932401924951456
      ],
      [
        "ему",
        -8.939806341382457
      ],
      [
        "▁following",
        -8.940210002209087
      ],
      [
        "▁At",
        -8.942972034672742
      ],
      [
        "▁man",
        -8.94591213604296
      ],
      [
        "▁State",
        -8.9481204769683
      ],
      [
        "us",
        -8.9517186446662
      ],
      [
        "▁наши",
        -8.955594095706644
      ],
      [
        "▁end",
        -8.95588985613693
      ],
      [
        "▁O",
        -8.955979671578307
      ],
      [
        "▁company",
        -8.956541362228938
      ],
      [
        "▁компании",
        -8.958807229787649
      ],
      [
        "тесь",
        -8.959163727167853
      ],
      [
        "▁account",
        -8.960815502168453
      ],
      [
        "▁пере",
        -8.964029006238993
      ],
      [
        "▁women",
        -8.964399224028174
      ],
      [
        "▁должен",
        -8.965222247955289
      ],
      [
        "▁example",
        -8.965802282751401
      ],
      [
        "▁activities",
        -8.967555748591694
      ],
      [
        "▁program",
        -8.973039554256758
      ],
      [
        "▁много",
        -8.974326360914828
      ],
      [
        "▁open",
        -8.976383474860095
      ],
      [
        "▁become",
        -8.978040406165103
      ],
      [
        "ен",
        -8.978980177272502
      ],
      [
        "▁Они",
        -8.979142318146987
      ],
      [
        "▁Republic",
        -8.98043761288343
      ],
      [
        "▁отношении",
        -8.98508377093633
      ],
      [
        "▁необходимо",
        -8.989302797469152
      ],
      [
        "включая",
        -8.990636408306008
      ],
      [
        "▁develop",
        -8.990756994283593
      ],
      [
        "▁работ",
        -8.990785409804648
      ],
      [
        "u",
        -8.99283064260079
      ],
      [
        "▁regard",
        -8.993086412880267
      ],
      [
        "▁соответствии",
        -8.996027368175744
      ],
      [
        "▁времени",
        -8.996757352793082
      ],
      [
        "▁Wh",
        -9.000232292681048
      ],
      [
        "▁нам",
        -9.006260193235622
      ],
      [
        "com",
        -9.006838997943245
      ],
      [
        "тебе",
        -9.008199728507561
      ],
      [
        "▁информации",
        -9.00893507777287
      ],
      [
        "▁name",
        -9.011977973366479
      ],
      [
        "▁government",
        -9.012555070303232
      ],
      [
        "est",
        -9.014093643874801
      ],
      [
        "▁give",
        -9.016436783193456
      ],
      [
        "▁access",
        -9.017094822273334
      ],
      [
        "▁social",
        -9.018105356589041
      ],
      [
        "possible",
        -9.018796366122618
      ],
      [
        "en",
        -9.021864014545814
      ],
      [
        "▁She",
        -9.022819960836339
      ],
      [
        "▁am",
        -9.025462473012015
      ],
      [
        "▁тех",
        -9.026702225363762
      ],
      [
        "▁нужно",
        -9.027231895442066
      ],
      [
        "▁show",
        -9.027842554575797
      ],
      [
        "▁год",
        -9.028646850279179
      ],
      [
        "x",
        -9.028862509077056
      ],
      [
        "жизни",
        -9.02952003655587
      ],
      [
        "▁million",
        -9.031369283482462
      ],
      [
        "▁security",
        -9.031529427504362
      ],
      [
        "чему",
        -9.03414275771584
      ],
      [
        "▁права",
        -9.03486542861867
      ],
      [
        "ла",
        -9.035291108703603
      ],
      [
        "▁group",
        -9.0363445207096
      ],
      [
        "▁качестве",
        -9.036977396382333
      ],
      [
        "рамка",
        -9.038937056729571
      ],
      [
        "своих",
        -9.042946608665536
      ],
      [
        "ок",
        -9.047577649120422
      ],
      [
        "▁Все",
        -9.051685811694375
      ],
      [
        "▁decision",
        -9.052022052524892
      ],
      [
        "▁control",
        -9.054029813028388
      ],
      [
        "▁Она",
        -9.058206371527804
      ],
      [
        "▁несколько",
        -9.05906024629442
      ],
      [
        "to",
        -9.06103528129676
      ],
      [
        "же",
        -9.061320921663539
      ],
      [
        "▁person",
        -9.061452835473595
      ],
      [
        "которой",
        -9.06195239921533
      ],
      [
        "▁another",
        -9.062504386664136
      ],
      [
        "▁день",
        -9.063188186765938
      ],
      [
        "▁Нет",
        -9.063463220666954
      ],
      [
        "▁meeting",
        -9.064552561255256
      ],
      [
        "▁available",
        -9.06790181776138
      ],
      [
        "▁found",
        -9.069208460468424
      ],
      [
        "▁жизн",
        -9.071017541605869
      ],
      [
        "▁женщин",
        -9.074467995393883
      ],
      [
        "▁area",
        -9.077423117636377
      ],
      [
        "▁real",
        -9.077594055265582
      ],
      [
        "▁другие",
        -9.077733379648562
      ],
      [
        "▁U",
        -9.07776796758651
      ],
      [
        "▁main",
        -9.079851753768517
      ],
      [
        "▁view",
        -9.082216798848108
      ],
      [
        "▁political",
        -9.082608095960396
      ],
      [
        "▁non",
        -9.084325434872499
      ],
      [
        "▁never",
        -9.084775302482855
      ],
      [
        "▁free",
        -9.09091047537361
      ],
      [
        "▁water",
        -9.095187121832694
      ],
      [
        "▁процесс",
        -9.095245124702684
      ],
      [
        "▁всем",
        -9.097047474732355
      ],
      [
        "▁local",
        -9.098802764093074
      ],
      [
        "using",
        -9.101613026881576
      ],
      [
        "▁form",
        -9.1022895444628
      ],
      [
        "▁За",
        -9.104561753721855
      ],
      [
        "▁financial",
        -9.109857929477194
      ],
      [
        "D",
        -9.109998437303178
      ],
      [
        "▁Oh",
        -9.111758209403073
      ],
      [
        "\n",
        -9.112000261454565
      ],
      [
        "▁против",
        -9.113077488865388
      ],
      [
        "▁region",
        -9.113225326568402
      ],
      [
        "▁возможность",
        -9.113584351621055
      ],
      [
        "▁too",
        -9.114478640829955
      ],
      [
        "the",
        -9.115693338108166
      ],
      [
        "стороны",
        -9.119334788202616
      ],
      [
        "▁мира",
        -9.1194385144901
      ],
      [
        "ally",
        -9.120517829707714
      ],
      [
        "▁управления",
        -9.120651748286871
      ],
      [
        "▁issue",
        -9.121157421941401
      ],
      [
        "among",
        -9.123723454338112
      ],
      [
        "▁European",
        -9.12407938711896
      ],
      [
        "▁М",
        -9.124794552408318
      ],
      [
        "▁использовать",
        -9.12893419631986
      ],
      [
        "▁Е",
        -9.12898102364167
      ],
      [
        "▁something",
        -9.131125932375706
      ],
      [
        "▁situation",
        -9.1320479463059
      ],
      [
        "▁period",
        -9.132973072593003
      ],
      [
        "▁believe",
        -9.133099822417302
      ],
      [
        "▁программы",
        -9.133651898277503
      ],
      [
        "▁turn",
        -9.133730868392906
      ],
      [
        "▁вопросам",
        -9.134674179813484
      ],
      [
        "▁course",
        -9.13625946330389
      ],
      [
        "▁L",
        -9.138606744866136
      ],
      [
        "▁President",
        -9.139562501392087
      ],
      [
        "▁health",
        -9.14110245705879
      ],
      [
        "▁second",
        -9.141368492486519
      ],
      [
        "▁Do",
        -9.143020364254255
      ],
      [
        "▁этим",
        -9.143757325441563
      ],
      [
        "часть",
        -9.14654273469852
      ],
      [
        "вести",
        -9.14902012027087
      ],
      [
        "▁Well",
        -9.151365667630337
      ],
      [
        "▁best",
        -9.152562171568533
      ],
      [
        "▁value",
        -9.152846453912899
      ],
      [
        "▁experience",
        -9.152858554877737
      ],
      [
        "днако",
        -9.153318940874192
      ],
      [
        "п",
        -9.156103497807697
      ],
      [
        "▁since",
        -9.158574170760016
      ],
      [
        "ешь",
        -9.160992805164954
      ],
      [
        "▁цель",
        -9.16141431429949
      ],
      [
        "▁течение",
        -9.163405943256933
      ],
      [
        "когда",
        -9.165206827673332
      ],
      [
        "▁result",
        -9.165625248757113
      ],
      [
        "▁working",
        -9.166976231746846
      ],
      [
        "▁являются",
        -9.167568449126192
      ],
      [
        "лишь",
        -9.170785089612178
      ],
      [
        "▁период",
        -9.170943054225997
      ],
      [
        "▁talk",
        -9.1722784499581
      ],
      [
        "ation",
        -9.174117018218826
      ],
      [
        "▁организации",
        -9.176645042924752
      ],
      [
        "▁request",
        -9.17948926994595
      ],
      [
        "▁change",
        -9.179650603196611
      ],
      [
        "▁Yes",
        -9.181328049328188
      ],
      [
        "сейчас",
        -9.183996871548963
      ],
      [
        "потому",
        -9.18589924653949
      ],
      [
        "always",
        -9.186103120635257
      ],
      [
        "▁General",
        -9.187168573672793
      ],
      [
        "around",
        -9.18935755937655
      ],
      [
        "▁special",
        -9.189597942139951
      ],
      [
        "Когд",
        -9.192138260554493
      ],
      [
        "▁complete",
        -9.192192205724108
      ],
      [
        "з",
        -9.193629374149332
      ],
      [
        "помощи",
        -9.196178262776206
      ],
      [
        "▁которое",
        -9.197077652256043
      ],
      [
        "▁перед",
        -9.197922100661993
      ],
      [
        "▁вопрос",
        -9.198349200904989
      ],
      [
        "следует",
        -9.198806380384726
      ],
      [
        "away",
        -9.200878588213188
      ],
      [
        "▁Government",
        -9.202162759249763
      ],
      [
        "▁necessar",
        -9.203477234556471
      ],
      [
        "▁implementation",
        -9.206099791740412
      ],
      [
        "▁May",
        -9.206323259222813
      ],
      [
        "▁N",
        -9.207963771090201
      ],
      [
        "▁event",
        -9.209376678154936
      ],
      [
        "▁лиц",
        -9.210317651366728
      ],
      [
        "▁обеспечения",
        -9.21280708954025
      ],
      [
        "▁present",
        -9.213384105823298
      ],
      [
        "▁home",
        -9.21362187521945
      ],
      [
        "▁над",
        -9.21477785212293
      ],
      [
        "▁full",
        -9.21540561544964
      ],
      [
        "▁general",
        -9.215527744148492
      ],
      [
        "▁хотел",
        -9.218524148682727
      ],
      [
        "её",
        -9.218918487365064
      ],
      [
        "▁wh",
        -9.219080121164927
      ],
      [
        "▁детей",
        -9.219165731925772
      ],
      [
        "▁мл",
        -9.219564359535953
      ],
      [
        "▁management",
        -9.22196855058155
      ],
      [
        "k",
        -9.224233982995036
      ],
      [
        "▁решения",
        -9.224511756020595
      ],
      [
        "▁говорит",
        -9.225933179637451
      ],
      [
        "▁room",
        -9.22743216407028
      ],
      [
        "▁дня",
        -9.227648764136962
      ],
      [
        "▁R",
        -9.228188645952454
      ],
      [
        "▁http",
        -9.228389607509662
      ],
      [
        "▁друго",
        -9.2307689996637
      ],
      [
        "▁всегда",
        -9.230913707692366
      ],
      [
        "▁Г",
        -9.233405756004977
      ],
      [
        "ensure",
        -9.233662540468421
      ],
      [
        "▁Convention",
        -9.233817041466088
      ],
      [
        "▁два",
        -9.233866966518182
      ],
      [
        "▁off",
        -9.236201791562644
      ],
      [
        "v",
        -9.23698935007058
      ],
      [
        "можете",
        -9.23726230708094
      ],
      [
        "▁members",
        -9.237610797692149
      ],
      [
        "▁fact",
        -9.241365422910562
      ],
      [
        "less",
        -9.241609009403168
      ],
      [
        "▁small",
        -9.242778803073302
      ],
      [
        "E",
        -9.242988831590683
      ],
      [
        "held",
        -9.244656626082367
      ],
      [
        "B",
        -9.247035316101428
      ],
      [
        "▁love",
        -9.249095208523542
      ],
      [
        "▁борьб",
        -9.249486424338222
      ],
      [
        "▁различны",
        -9.25030402247752
      ],
      [
        "▁address",
        -9.250331798741335
      ],
      [
        "▁production",
        -9.250380834656728
      ],
      [
        "▁сделать",
        -9.25398880079903
      ],
      [
        "called",
        -9.254204695418773
      ],
      [
        "▁city",
        -9.254514409264809
      ],
      [
        "ый",
        -9.258105868296886
      ],
      [
        "▁little",
        -9.263466449814286
      ],
      [
        "▁него",
        -9.266853389217285
      ],
      [
        "▁ваше",
        -9.268123264423846
      ],
      [
        "С",
        -9.268530694116695
      ],
      [
        "▁further",
        -9.26913491255134
      ],
      [
        "▁again",
        -9.269586895814378
      ],
      [
        "▁better",
        -9.271041409982955
      ],
      [
        "and",
        -9.272552293673753
      ],
      [
        "&",
        -9.272792718150338
      ],
      [
        "▁close",
        -9.274691674249079
      ],
      [
        "out",
        -9.275101472314315
      ],
      [
        "▁offer",
        -9.276695168748201
      ],
      [
        "www",
        -9.278208383314752
      ],
      [
        "▁там",
        -9.279720261742542
      ],
      [
        "▁measures",
        -9.279732966256656
      ],
      [
        "▁provid",
        -9.280030938393438
      ],
      [
        "▁уровне",
        -9.281297816625415
      ],
      [
        "▁ряд",
        -9.281436771276162
      ],
      [
        "▁информаци",
        -9.281723917066294
      ],
      [
        "▁continue",
        -9.282431047073535
      ],
      [
        "▁policy",
        -9.282619691460006
      ],
      [
        "really",
        -9.285148926895818
      ],
      [
        "▁внимание",
        -9.285173070916207
      ],
      [
        "▁major",
        -9.285848539014411
      ],
      [
        "▁organizations",
        -9.28614402754471
      ],
      [
        "▁средств",
        -9.286570125684268
      ],
      [
        "▁cooperation",
        -9.287080181385134
      ],
      [
        "Кроме",
        -9.287087019288771
      ],
      [
        "▁Генерально",
        -9.287458862920168
      ],
      [
        "▁My",
        -9.290598053097952
      ],
      [
        "А",
        -9.291923867644394
      ],
      [
        "▁собо",
        -9.292445275273739
      ],
      [
        "▁legal",
        -9.293311842001007
      ],
      [
        "котором",
        -9.293819579201356
      ],
      [
        "▁себе",
        -9.29427204796631
      ],
      [
        "▁New",
        -9.294495671896325
      ],
      [
        "▁государства",
        -9.294617383363024
      ],
      [
        "▁любо",
        -9.298590252489285
      ],
      [
        "▁H",
        -9.300606475458393
      ],
      [
        "▁защит",
        -9.300991871692496
      ],
      [
        "▁follow",
        -9.301291674712262
      ],
      [
        "▁future",
        -9.301558593638044
      ],
      [
        "▁группы",
        -9.304078211647703
      ],
      [
        "▁large",
        -9.304350250565436
      ],
      [
        "▁might",
        -9.304588633338357
      ],
      [
        "▁tell",
        -9.30513284765242
      ],
      [
        "▁try",
        -9.306925606746713
      ],
      [
        "few",
        -9.307734865314258
      ],
      [
        "resources",
        -9.309295795223516
      ],
      [
        "▁school",
        -9.310015572738097
      ],
      [
        "▁Group",
        -9.310030750336722
      ],
      [
        "▁место",
        -9.31342708795942
      ],
      [
        "ное",
        -9.313505531366465
      ],
      [
        "▁сил",
        -9.317010636121065
      ],
      [
        "▁лучше",
        -9.319142629455595
      ],
      [
        "▁UN",
        -9.320274788750716
      ],
      [
        "▁пока",
        -9.321266161166793
      ],
      [
        "resolution",
        -9.321421705159171
      ],
      [
        "▁list",
        -9.322287273358118
      ],
      [
        "▁play",
        -9.322539751084038
      ],
      [
        "те",
        -9.322983260777198
      ],
      [
        "▁Ну",
        -9.32304434580198
      ],
      [
        "next",
        -9.323975651038532
      ],
      [
        "▁люди",
        -9.326139148694596
      ],
      [
        "▁contain",
        -9.326316929087668
      ],
      [
        "▁доступ",
        -9.326623329832145
      ],
      [
        "йти",
        -9.326830753461673
      ],
      [
        "upon",
        -9.330293528720526
      ],
      [
        "не",
        -9.331595150688264
      ],
      [
        "means",
        -9.332772983549143
      ],
      [
        "•",
        -9.33393888690283
      ],
      [
        "▁family",
        -9.339071422673237
      ],
      [
        "▁concern",
        -9.340446198276592
      ],
      [
        "▁hard",
        -9.340941781368931
      ],
      [
        "▁energy",
        -9.341525251061219
      ],
      [
        "▁право",
        -9.34414435196908
      ],
      [
        "▁помощью",
        -9.344776736002974
      ],
      [
        "P",
        -9.346439791284197
      ],
      [
        "▁individual",
        -9.34786409900788
      ],
      [
        "▁слова",
        -9.349678250052927
      ],
      [
        "▁current",
        -9.350413464260477
      ],
      [
        "le",
        -9.350725882641376
      ],
      [
        "йте",
        -9.35239918724273
      ],
      [
        "▁certain",
        -9.353797910964012
      ],
      [
        "▁network",
        -9.355020254023572
      ],
      [
        "▁K",
        -9.355580966231948
      ],
      [
        "▁age",
        -9.356054522818328
      ],
      [
        "основе",
        -9.356667180924534
      ],
      [
        "▁point",
        -9.356745398355274
      ],
      [
        "▁W",
        -9.356970030119662
      ],
      [
        "▁got",
        -9.357115436012363
      ],
      [
        "ось",
        -9.361532241949527
      ],
      [
        "▁пункт",
        -9.361557525065885
      ],
      [
        "▁должна",
        -9.362961103236993
      ],
      [
        "▁доклад",
        -9.365917748166234
      ],
      [
        "▁двух",
        -9.366636065017332
      ],
      [
        "▁remain",
        -9.36697360980342
      ],
      [
        "article",
        -9.36797470779118
      ],
      [
        "▁друг",
        -9.368256447538931
      ],
      [
        "▁happen",
        -9.368894134463266
      ],
      [
        "▁call",
        -9.37004772643581
      ],
      [
        "одной",
        -9.370666339349448
      ],
      [
        "▁products",
        -9.372031929801082
      ],
      [
        "▁role",
        -9.372104316343327
      ],
      [
        "▁car",
        -9.372130012744565
      ],
      [
        "▁решение",
        -9.372596990752672
      ],
      [
        "▁visit",
        -9.373060040841354
      ],
      [
        "▁specific",
        -9.37400799317342
      ],
      [
        "▁World",
        -9.37401925057239
      ],
      [
        "▁целя",
        -9.374270173602728
      ],
      [
        "°",
        -9.375386921021377
      ],
      [
        "companies",
        -9.375579355551196
      ],
      [
        "▁Europe",
        -9.375862516518184
      ],
      [
        "▁create",
        -9.376752157346747
      ],
      [
        "man",
        -9.377250981260563
      ],
      [
        "These",
        -9.377460047920271
      ],
      [
        "▁return",
        -9.378169078223683
      ],
      [
        "▁various",
        -9.378708261722254
      ],
      [
        "▁One",
        -9.380600901007758
      ],
      [
        "▁сегодня",
        -9.38137662683936
      ],
      [
        "▁conditions",
        -9.382131975479991
      ],
      [
        "▁session",
        -9.383556428611435
      ],
      [
        "▁знаю",
        -9.384806824073513
      ],
      [
        "▁position",
        -9.385812370783492
      ],
      [
        "▁live",
        -9.386204188207145
      ],
      [
        "▁проблемы",
        -9.387181127386276
      ],
      [
        "up",
        -9.387453553103164
      ],
      [
        "several",
        -9.387535502433686
      ],
      [
        "участие",
        -9.38970150800424
      ],
      [
        "▁тот",
        -9.39148544932371
      ],
      [
        "▁direct",
        -9.39321713245355
      ],
      [
        "issues",
        -9.393276668862546
      ],
      [
        "▁особенно",
        -9.394066121390226
      ],
      [
        "ни",
        -9.396560879067275
      ],
      [
        "▁regional",
        -9.3972808493507
      ],
      [
        "▁old",
        -9.397460198802177
      ],
      [
        "▁менее",
        -9.39751820512308
      ],
      [
        "▁near",
        -9.397678642357734
      ],
      [
        "▁put",
        -9.397966851721495
      ],
      [
        "▁города",
        -9.399062843579202
      ],
      [
        "В",
        -9.39920440696877
      ],
      [
        "▁foreign",
        -9.399229227472986
      ],
      [
        "▁хорошо",
        -9.399292236997454
      ],
      [
        "▁file",
        -9.400528688257689
      ],
      [
        "▁услуг",
        -9.400674579749422
      ],
      [
        "today",
        -9.404162543137234
      ],
      [
        "it",
        -9.404992877474992
      ],
      [
        "▁числе",
        -9.405199477399494
      ],
      [
        "▁ним",
        -9.40633668504303
      ],
      [
        "▁должно",
        -9.406527720306128
      ],
      [
        "юсь",
        -9.407847533895398
      ],
      [
        "▁своим",
        -9.407967082251723
      ],
      [
        "могли",
        -9.409385597906608
      ],
      [
        "▁После",
        -9.41044643578011
      ],
      [
        "▁money",
        -9.411151464985878
      ],
      [
        "▁results",
        -9.411766710686388
      ],
      [
        "▁проекта",
        -9.41181702198044
      ],
      [
        "▁V",
        -9.412215934537853
      ],
      [
        "▁возможно",
        -9.413812488902677
      ],
      [
        "по",
        -9.414837404325837
      ],
      [
        "T",
        -9.416443011767969
      ],
      [
        "▁field",
        -9.416691235015206
      ],
      [
        "▁education",
        -9.41700844464412
      ],
      [
        "▁странах",
        -9.41817333046733
      ],
      [
        "ru",
        -9.418738996319068
      ],
      [
        "▁населения",
        -9.420416014739281
      ],
      [
        "▁let",
        -9.420569949701658
      ],
      [
        "▁together",
        -9.420779173464238
      ],
      [
        "▁effective",
        -9.421657359734205
      ],
      [
        "▁increase",
        -9.42167841963269
      ],
      [
        "taken",
        -9.424167201030231
      ],
      [
        "▁соответствующи",
        -9.424386271161167
      ],
      [
        "▁global",
        -9.424814637226756
      ],
      [
        "▁reason",
        -9.425813338042161
      ],
      [
        "took",
        -9.42625790173184
      ],
      [
        "L",
        -9.426478500894858
      ],
      [
        "▁amount",
        -9.428070930958027
      ],
      [
        "сть",
        -9.428753355472269
      ],
      [
        "▁building",
        -9.430648902747196
      ],
      [
        "▁risk",
        -9.431323921282557
      ],
      [
        "эту",
        -9.432279548522576
      ],
      [
        "▁программ",
        -9.432945889391176
      ],
      [
        "Decemb",
        -9.433703490919227
      ],
      [
        "новых",
        -9.434901836662972
      ],
      [
        "▁question",
        -9.4354063299167
      ],
      [
        "▁резолюци",
        -9.436301070926625
      ],
      [
        "related",
        -9.436357436060405
      ],
      [
        "▁computer",
        -9.436689268710873
      ],
      [
        "▁Мне",
        -9.436944252218046
      ],
      [
        "такой",
        -9.43851952162972
      ],
      [
        "training",
        -9.43985889419809
      ],
      [
        "▁leas",
        -9.441150751519181
      ],
      [
        "▁sector",
        -9.441671791456743
      ],
      [
        "▁проблем",
        -9.442497274263332
      ],
      [
        "▁П",
        -9.443985411969921
      ],
      [
        "▁thought",
        -9.446036959808243
      ],
      [
        "▁Moscow",
        -9.446931855211949
      ],
      [
        "▁средства",
        -9.447409429880713
      ],
      [
        "▁total",
        -9.4478566465211
      ],
      [
        "▁тво",
        -9.448089388575857
      ],
      [
        "▁action",
        -9.448848331701866
      ],
      [
        "▁мое",
        -9.449629730598629
      ],
      [
        "until",
        -9.451290226402081
      ],
      [
        "▁возможности",
        -9.453173039719193
      ],
      [
        "▁left",
        -9.454518554471813
      ],
      [
        "▁National",
        -9.455377770865224
      ],
      [
        "ability",
        -9.456219663855174
      ],
      [
        "▁частност",
        -9.456344152718511
      ],
      [
        "▁оценк",
        -9.456594536178859
      ],
      [
        "▁подготовк",
        -9.46116156275966
      ],
      [
        "▁служб",
        -9.463967363418618
      ],
      [
        "▁использования",
        -9.4652370640076
      ],
      [
        "▁ваш",
        -9.467136787249533
      ],
      [
        "given",
        -9.467369806545408
      ],
      [
        "▁места",
        -9.469326081243382
      ],
      [
        "▁mean",
        -9.46977695284126
      ],
      [
        "▁agreement",
        -9.471697684905127
      ],
      [
        "ясь",
        -9.472154174050647
      ],
      [
        "▁cause",
        -9.472728937364204
      ],
      [
        "▁Commission",
        -9.472976979920004
      ],
      [
        "ж",
        -9.47343352258208
      ],
      [
        "▁Совета",
        -9.473973815624122
      ],
      [
        "▁тепер",
        -9.474525430952601
      ],
      [
        "▁которого",
        -9.474857497263255
      ],
      [
        "▁мире",
        -9.476488280546405
      ],
      [
        "▁canno",
        -9.477394845516221
      ],
      [
        "▁representative",
        -9.477498508198961
      ],
      [
        "▁systems",
        -9.478674035721415
      ],
      [
        "▁осуществлени",
        -9.481905162242649
      ],
      [
        "р",
        -9.483126370935596
      ],
      [
        "things",
        -9.48336380137612
      ],
      [
        "▁house",
        -9.483602448965177
      ],
      [
        "▁Его",
        -9.484122214082431
      ],
      [
        "меры",
        -9.484169576964197
      ],
      [
        "▁protection",
        -9.485359839250783
      ],
      [
        "▁Al",
        -9.487732793083463
      ],
      [
        "▁plan",
        -9.488131199632853
      ],
      [
        "▁государств",
        -9.488457199897312
      ],
      [
        "<",
        -9.488525402550152
      ],
      [
        "▁prevent",
        -9.48903789573394
      ],
      [
        "▁hand",
        -9.491186482986897
      ],
      [
        "имеют",
        -9.491828041930514
      ],
      [
        "▁recent",
        -9.49266473368606
      ],
      [
        "▁trade",
        -9.492673126229834
      ],
      [
        "находится",
        -9.493060098098697
      ],
      [
        "▁могу",
        -9.494759255271823
      ],
      [
        "▁социально",
        -9.496481708359422
      ],
      [
        "▁war",
        -9.498562244925795
      ],
      [
        "▁свой",
        -9.49958840479868
      ],
      [
        "▁начал",
        -9.502625007843768
      ],
      [
        "days",
        -9.503142151212797
      ],
      [
        "▁private",
        -9.504461529633161
      ],
      [
        "▁результат",
        -9.504745596571121
      ],
      [
        "хотя",
        -9.506211294735445
      ],
      [
        "▁sure",
        -9.50636808747399
      ],
      [
        "▁often",
        -9.506629162321223
      ],
      [
        "▁Development",
        -9.50679783983173
      ],
      [
        "▁Assembly",
        -9.507056487752667
      ],
      [
        "▁Office",
        -9.50836952147897
      ],
      [
        "▁After",
        -9.508475665420223
      ],
      [
        "either",
        -9.509294461705998
      ],
      [
        "▁политики",
        -9.509858011238512
      ],
      [
        "▁seem",
        -9.512475050180965
      ],
      [
        "though",
        -9.513185129934941
      ],
      [
        "ным",
        -9.514368054575963
      ],
      [
        "▁With",
        -9.514974860600976
      ],
      [
        "▁Microsoft",
        -9.515153434467399
      ],
      [
        "▁среди",
        -9.515937656039984
      ],
      [
        "▁approach",
        -9.516552066671604
      ],
      [
        "by",
        -9.516642100305644
      ],
      [
        "▁understand",
        -9.516906949958702
      ],
      [
        "▁Security",
        -9.518702775252537
      ],
      [
        "▁Now",
        -9.519132749914693
      ],
      [
        "▁Bank",
        -9.519716047612352
      ],
      [
        "▁week",
        -9.520326170044731
      ],
      [
        "▁kind",
        -9.523223012055517
      ],
      [
        "чего",
        -9.525197655413875
      ],
      [
        "▁одного",
        -9.526492085361967
      ],
      [
        "▁body",
        -9.527179010483248
      ],
      [
        "▁application",
        -9.528179848902784
      ],
      [
        "▁важно",
        -9.52851488767072
      ],
      [
        "▁quality",
        -9.52975873301352
      ],
      [
        "▁keep",
        -9.530682286441797
      ],
      [
        "▁community",
        -9.530901931921976
      ],
      [
        "работать",
        -9.532155434775472
      ],
      [
        "▁Ukraine",
        -9.532996897670845
      ],
      [
        "О",
        -9.53454243191284
      ],
      [
        "▁три",
        -9.537480004356999
      ],
      [
        "▁office",
        -9.53834751072134
      ],
      [
        "established",
        -9.53870235234074
      ],
      [
        "▁His",
        -9.538802301179759
      ],
      [
        "▁research",
        -9.53884769588915
      ],
      [
        "▁принцип",
        -9.541880651158449
      ],
      [
        "▁site",
        -9.54197573476054
      ],
      [
        "▁ничего",
        -9.542252987682046
      ],
      [
        "areas",
        -9.542517987523983
      ],
      [
        "▁times",
        -9.543143266187712
      ],
      [
        "вместе",
        -9.543327508404415
      ],
      [
        "ic",
        -9.5441264487609
      ],
      [
        "▁due",
        -9.545753703223692
      ],
      [
        "F",
        -9.546442536931032
      ],
      [
        "▁именно",
        -9.546605346147315
      ],
      [
        "▁allow",
        -9.547299090506952
      ],
      [
        "▁key",
        -9.548101384934775
      ],
      [
        "▁изменения",
        -9.550039839122222
      ],
      [
        "▁номер",
        -9.551366421311206
      ],
      [
        "▁момент",
        -9.55183150816825
      ],
      [
        "▁move",
        -9.55610346711715
      ],
      [
        "▁Во",
        -9.55656906810436
      ],
      [
        "зад",
        -9.556919607270325
      ],
      [
        "▁effect",
        -9.558330718096943
      ],
      [
        "ry",
        -9.55885200388653
      ],
      [
        "▁части",
        -9.559185484143393
      ],
      [
        "▁Мож",
        -9.559688399785077
      ],
      [
        "▁far",
        -9.560078162494644
      ],
      [
        "▁поскольку",
        -9.560911531563265
      ],
      [
        "▁page",
        -9.561038773769015
      ],
      [
        "H",
        -9.561715858329888
      ],
      [
        "efforts",
        -9.561983213277749
      ],
      [
        "▁данные",
        -9.562215948756146
      ],
      [
        "▁light",
        -9.563500435303004
      ],
      [
        "ходе",
        -9.565855858680974
      ],
      [
        "▁Server",
        -9.567125569313202
      ],
      [
        "▁conduct",
        -9.567430357710245
      ],
      [
        "или",
        -9.567554411939906
      ],
      [
        "▁выбор",
        -9.56782819135369
      ],
      [
        "▁team",
        -9.56861429034554
      ],
      [
        "▁air",
        -9.568670050716685
      ],
      [
        "▁young",
        -9.569524198605588
      ],
      [
        "▁US",
        -9.571142565857079
      ],
      [
        "▁уровня",
        -9.571904894888116
      ],
      [
        "▁review",
        -9.57190911475987
      ],
      [
        "▁select",
        -9.572075421026641
      ],
      [
        "▁oil",
        -9.574111491336723
      ],
      [
        "▁долларов",
        -9.575591604190926
      ],
      [
        "G",
        -9.577865881382214
      ],
      [
        "▁Article",
        -9.578493711849859
      ],
      [
        "▁strong",
        -9.579606033745756
      ],
      [
        "▁personal",
        -9.58076269442139
      ],
      [
        "ской",
        -9.580895247289298
      ],
      [
        "according",
        -9.581950782853937
      ],
      [
        "▁party",
        -9.584187449803078
      ],
      [
        "June",
        -9.584425208540317
      ],
      [
        "▁econom",
        -9.584432664304412
      ],
      [
        "▁toward",
        -9.584907854919727
      ],
      [
        "▁natural",
        -9.584929513981207
      ],
      [
        "ью",
        -9.58576552466001
      ],
      [
        "▁мир",
        -9.586228130693089
      ],
      [
        "General",
        -9.5869004361828
      ],
      [
        "▁procedure",
        -9.587570184352781
      ],
      [
        "known",
        -9.589555436034098
      ],
      [
        "▁способ",
        -9.589961514237602
      ],
      [
        "▁American",
        -9.590524868557686
      ],
      [
        "▁Let",
        -9.590992606583978
      ],
      [
        "▁групп",
        -9.591472810915493
      ],
      [
        "б",
        -9.592161676258549
      ],
      [
        "ч",
        -9.59219487398816
      ],
      [
        "таким",
        -9.593747071581355
      ],
      [
        "▁действия",
        -9.593899967058771
      ],
      [
        "▁subject",
        -9.59464501288339
      ],
      [
        "▁above",
        -9.594891868332388
      ],
      [
        "whether",
        -9.595526530728154
      ],
      [
        "▁server",
        -9.595779175228342
      ],
      [
        "▁whole",
        -9.596167108569633
      ],
      [
        "▁interest",
        -9.596596270344518
      ],
      [
        "Septemb",
        -9.596863855777258
      ],
      [
        "▁facilit",
        -9.597947729681842
      ],
      [
        "▁principle",
        -9.599308185743974
      ],
      [
        "хочу",
        -9.599416546588884
      ],
      [
        "▁feel",
        -9.599741044891607
      ],
      [
        "он",
        -9.601075683175106
      ],
      [
        "▁clear",
        -9.601955737716741
      ],
      [
        "▁метод",
        -9.602697123770472
      ],
      [
        "▁head",
        -9.603612370644164
      ],
      [
        "результате",
        -9.604064735001764
      ],
      [
        "told",
        -9.604733733972704
      ],
      [
        "▁некоторы",
        -9.604923482043056
      ],
      [
        "society",
        -9.605164835616451
      ],
      [
        "▁деятельность",
        -9.60599085997879
      ],
      [
        "▁необходимы",
        -9.605997833189608
      ],
      [
        "▁technical",
        -9.606900578619909
      ],
      [
        "▁design",
        -9.607154616700123
      ],
      [
        "M",
        -9.608463679356461
      ],
      [
        "▁действий",
        -9.609359130891729
      ],
      [
        "yet",
        -9.610569354928652
      ],
      [
        "The",
        -9.612350666330364
      ],
      [
        "▁Some",
        -9.613245576148026
      ],
      [
        "▁вопросы",
        -9.613638211535426
      ],
      [
        "▁common",
        -9.614409376048071
      ],
      [
        "developing",
        -9.616327345717393
      ],
      [
        "▁документ",
        -9.61657538666571
      ],
      [
        "done",
        -9.617498959233103
      ],
      [
        "▁official",
        -9.6189112680814
      ],
      [
        "▁others",
        -9.61897471044754
      ],
      [
        "К",
        -9.619797022271143
      ],
      [
        "▁authorities",
        -9.619845018081463
      ],
      [
        "▁difficult",
        -9.620245344031197
      ],
      [
        "▁basi",
        -9.620632857866484
      ],
      [
        "▁care",
        -9.621644258410885
      ],
      [
        "coming",
        -9.621982493701006
      ],
      [
        "▁gas",
        -9.62227157014706
      ],
      [
        "▁власти",
        -9.62308523403721
      ],
      [
        "▁de",
        -9.62363454845407
      ],
      [
        "▁paragraph",
        -9.625451061252932
      ],
      [
        "▁pay",
        -9.625496994832032
      ],
      [
        "▁China",
        -9.625911419535987
      ],
      [
        "▁Internet",
        -9.626219347938825
      ],
      [
        "ями",
        -9.62668097723847
      ],
      [
        "▁эта",
        -9.627456276188958
      ],
      [
        "▁Secretary",
        -9.627621742207976
      ],
      [
        "▁путе",
        -9.627667685770428
      ],
      [
        "▁growth",
        -9.627715026616949
      ],
      [
        "▁equipment",
        -9.629861021960176
      ],
      [
        "▁мере",
        -9.629969303894425
      ],
      [
        "▁four",
        -9.63173158276894
      ],
      [
        "ном",
        -9.63280357130254
      ],
      [
        "▁child",
        -9.633274593187538
      ],
      [
        "▁свобод",
        -9.633952406713812
      ],
      [
        "gan",
        -9.634050521474018
      ],
      [
        "▁short",
        -9.634163892616682
      ],
      [
        "▁military",
        -9.6358931379146
      ],
      [
        "▁matter",
        -9.636933557040484
      ],
      [
        "Республики",
        -9.637152394226263
      ],
      [
        "▁An",
        -9.637815564608518
      ],
      [
        "▁которую",
        -9.638294039454244
      ],
      [
        "▁locat",
        -9.639475868524224
      ],
      [
        "▁respect",
        -9.639618232488637
      ],
      [
        "▁population",
        -9.639958924293465
      ],
      [
        "required",
        -9.639985247157911
      ],
      [
        "▁значение",
        -9.640250937751478
      ],
      [
        "сказать",
        -9.641044320895002
      ],
      [
        "▁force",
        -9.641135729302144
      ],
      [
        "▁объем",
        -9.641720153522428
      ],
      [
        "▁декабр",
        -9.64352527476514
      ],
      [
        "▁затем",
        -9.644415281891323
      ],
      [
        "assistance",
        -9.644524085077773
      ],
      [
        "▁деле",
        -9.644750329808518
      ],
      [
        "нибудь",
        -9.64482708791349
      ],
      [
        "▁J",
        -9.646494814923184
      ],
      [
        "▁center",
        -9.647144183924167
      ],
      [
        "▁staff",
        -9.647374843364524
      ],
      [
        "▁реализаци",
        -9.64758203673498
      ],
      [
        "территории",
        -9.648805236404494
      ],
      [
        "ейчас",
        -9.64905530588087
      ],
      [
        "▁men",
        -9.649852748920363
      ],
      [
        "▁тогда",
        -9.650275527697064
      ],
      [
        "▁came",
        -9.650751590666095
      ],
      [
        "ского",
        -9.650934561891539
      ],
      [
        "O",
        -9.65215427792823
      ],
      [
        "▁wide",
        -9.652293573012027
      ],
      [
        "ку",
        -9.652687283335892
      ],
      [
        "▁Вот",
        -9.652747163067144
      ],
      [
        "И",
        -9.653457496525812
      ],
      [
        "▁ask",
        -9.653830653435334
      ],
      [
        "ская",
        -9.6543086454178
      ],
      [
        "полностью",
        -9.654957137271358
      ],
      [
        "▁опыт",
        -9.654990619103845
      ],
      [
        "▁later",
        -9.655766971571987
      ],
      [
        "▁stay",
        -9.657161406361599
      ],
      [
        "came",
        -9.657440181574104
      ],
      [
        "▁роль",
        -9.65777443751293
      ],
      [
        "▁да",
        -9.65848593279113
      ],
      [
        "▁ресурсов",
        -9.658937294186417
      ],
      [
        "▁самом",
        -9.659042567423743
      ],
      [
        "▁Conference",
        -9.659532089672965
      ],
      [
        "▁Minister",
        -9.65953369171393
      ],
      [
        "▁достаточно",
        -9.660920388473153
      ],
      [
        "▁function",
        -9.661044395652697
      ],
      [
        "▁test",
        -9.661081441914233
      ],
      [
        "▁night",
        -9.661423425884443
      ],
      [
        "▁document",
        -9.664080396243634
      ],
      [
        "▁mind",
        -9.664137050705909
      ],
      [
        "▁позволяет",
        -9.664260417914445
      ],
      [
        "▁leave",
        -9.664557798076757
      ],
      [
        "▁Re",
        -9.666015180525246
      ],
      [
        "▁Are",
        -9.666561123998875
      ],
      [
        "▁protect",
        -9.66723953180906
      ],
      [
        "▁те",
        -9.66749514763524
      ],
      [
        "▁share",
        -9.667835382994422
      ],
      [
        "▁bring",
        -9.668847135487185
      ],
      [
        "▁срок",
        -9.669171167400574
      ],
      [
        "▁многих",
        -9.670309055682955
      ],
      [
        "ло",
        -9.67136185269216
      ],
      [
        "▁мер",
        -9.671403712362823
      ],
      [
        "▁Эти",
        -9.671591355010207
      ],
      [
        "relevant",
        -9.672890161350047
      ],
      [
        "▁past",
        -9.67305120575916
      ],
      [
        "▁Union",
        -9.674239828620673
      ],
      [
        "nothing",
        -9.674689229757934
      ],
      [
        "▁дела",
        -9.675245989186013
      ],
      [
        "▁система",
        -9.675463538542088
      ],
      [
        "▁почти",
        -9.67704160613305
      ],
      [
        "▁От",
        -9.677272952984994
      ],
      [
        "▁работе",
        -9.679525859235405
      ],
      [
        "▁получить",
        -9.679770913189241
      ],
      [
        "N",
        -9.681902651805236
      ],
      [
        "▁около",
        -9.682100267055239
      ],
      [
        "▁less",
        -9.682612995568903
      ],
      [
        "▁focus",
        -9.682670681008375
      ],
      [
        "можем",
        -9.68327149764816
      ],
      [
        "taking",
        -9.683306338189063
      ],
      [
        "▁parties",
        -9.683947422567718
      ],
      [
        "▁пор",
        -9.684426935471159
      ],
      [
        "especially",
        -9.68455390657163
      ],
      [
        "та",
        -9.684570324504929
      ],
      [
        "▁lot",
        -9.684600025566098
      ],
      [
        "многие",
        -9.686067659263207
      ],
      [
        "Этот",
        -9.686523139368454
      ],
      [
        "▁компьютер",
        -9.686601218342002
      ],
      [
        "▁meet",
        -9.687992745397173
      ],
      [
        "▁date",
        -9.688025182164369
      ],
      [
        "▁type",
        -9.688602896022614
      ],
      [
        "▁food",
        -9.688904580247694
      ],
      [
        "▁environment",
        -9.688951423000614
      ],
      [
        "▁thing",
        -9.689305848579492
      ],
      [
        "▁сессии",
        -9.689951355834557
      ],
      [
        "▁face",
        -9.690549609579193
      ],
      [
        "ism",
        -9.69344091539631
      ],
      [
        "R",
        -9.693743606054966
      ],
      [
        "device",
        -9.694029115537411
      ],
      [
        "▁language",
        -9.694063694185159
      ],
      [
        "▁Комитет",
        -9.694593687324039
      ],
      [
        "▁addition",
        -9.695031911913418
      ],
      [
        "▁capacity",
        -9.695166383785487
      ],
      [
        "ting",
        -9.69524520401514
      ],
      [
        "▁final",
        -9.696455383717506
      ],
      [
        "▁минут",
        -9.696504909132463
      ],
      [
        "▁сотрудничества",
        -9.696618550305473
      ],
      [
        "▁мой",
        -9.697785283750079
      ],
      [
        "ский",
        -9.698630054992334
      ],
      [
        "▁Octob",
        -9.700615464588035
      ],
      [
        "▁consider",
        -9.70211066527723
      ],
      [
        "once",
        -9.70225737305333
      ],
      [
        "▁усилия",
        -9.702319287821846
      ],
      [
        "having",
        -9.706105846461424
      ],
      [
        "be",
        -9.70630806566895
      ],
      [
        "новые",
        -9.706851419532123
      ],
      [
        "▁terms",
        -9.706941064065633
      ],
      [
        "▁количество",
        -9.707403189217992
      ],
      [
        "ities",
        -9.70772207274587
      ],
      [
        "November",
        -9.70789217907505
      ],
      [
        "▁additional",
        -9.708306994653718
      ],
      [
        "▁technology",
        -9.708432759533608
      ],
      [
        "▁часто",
        -9.709023295073944
      ],
      [
        "▁дело",
        -9.709445403495895
      ],
      [
        "▁сентябр",
        -9.709464238967087
      ],
      [
        "▁draft",
        -9.709851574876792
      ],
      [
        "▁five",
        -9.709948019264264
      ],
      [
        "смотря",
        -9.711265322912675
      ],
      [
        "тоже",
        -9.711637882478287
      ],
      [
        "▁Совет",
        -9.711857891904943
      ],
      [
        "▁торговл",
        -9.712036618177178
      ],
      [
        "▁require",
        -9.71297023485079
      ],
      [
        "▁property",
        -9.71332160510844
      ],
      [
        "▁run",
        -9.71358947272112
      ],
      [
        "▁мая",
        -9.714105005315771
      ],
      [
        "According",
        -9.71462011187645
      ],
      [
        "▁living",
        -9.714737759483445
      ],
      [
        "▁счет",
        -9.7157732371258
      ],
      [
        "▁accordan",
        -9.716138292709767
      ],
      [
        "▁одна",
        -9.716150210653755
      ],
      [
        "▁Kazakhstan",
        -9.718767583978066
      ],
      [
        "▁которым",
        -9.718912082450888
      ],
      [
        "▁changes",
        -9.718956189118122
      ],
      [
        "каждый",
        -9.719043004051542
      ],
      [
        "July",
        -9.720573727890482
      ],
      [
        "некоторые",
        -9.720845451327635
      ],
      [
        "▁organization",
        -9.72179536419135
      ],
      [
        "▁AM",
        -9.722963884081448
      ],
      [
        "▁настоящее",
        -9.724185883319363
      ],
      [
        "▁правительство",
        -9.724452889533154
      ],
      [
        "▁March",
        -9.724596969880787
      ],
      [
        "▁peace",
        -9.726215060161437
      ],
      [
        "▁heart",
        -9.726341912670982
      ],
      [
        "▁institutions",
        -9.726689932078358
      ],
      [
        "▁систем",
        -9.726701087185385
      ],
      [
        "▁member",
        -9.728105010576689
      ],
      [
        "▁учет",
        -9.728202426889293
      ],
      [
        "▁постоянно",
        -9.731341141382192
      ],
      [
        "▁single",
        -9.731591418141033
      ],
      [
        "▁делать",
        -9.731967238280614
      ],
      [
        "▁death",
        -9.732054649857757
      ],
      [
        "▁образования",
        -9.732497863825168
      ],
      [
        "тому",
        -9.732820933086213
      ],
      [
        "▁won",
        -9.733855722510121
      ],
      [
        "▁cost",
        -9.734669305379827
      ],
      [
        "▁быстро",
        -9.734694499013223
      ],
      [
        "▁организаций",
        -9.735608516923163
      ],
      [
        "▁однако",
        -9.735687160160868
      ],
      [
        "▁развитие",
        -9.736235597944576
      ],
      [
        "lmost",
        -9.736587830471455
      ],
      [
        "▁received",
        -9.738246717263669
      ],
      [
        "▁contact",
        -9.739648801585398
      ],
      [
        "▁idea",
        -9.740346288221305
      ],
      [
        "▁line",
        -9.74149059418286
      ],
      [
        "▁land",
        -9.742156911893463
      ],
      [
        "▁создания",
        -9.742485984496007
      ],
      [
        "▁rate",
        -9.743112336904916
      ],
      [
        "▁price",
        -9.7446509018452
      ],
      [
        "▁ответ",
        -9.744851158633411
      ],
      [
        "▁помощь",
        -9.745363360021333
      ],
      [
        "▁low",
        -9.745593663938857
      ],
      [
        "▁cover",
        -9.745766820132223
      ],
      [
        "▁Be",
        -9.746450830345868
      ],
      [
        "▁Rights",
        -9.747982042950039
      ],
      [
        "▁industry",
        -9.74804045920151
      ],
      [
        "enough",
        -9.749806737365796
      ],
      [
        "▁задач",
        -9.750360276921246
      ],
      [
        "▁положения",
        -9.750433687388698
      ],
      [
        "▁режим",
        -9.750763034276412
      ],
      [
        "▁группа",
        -9.753485225792584
      ],
      [
        "▁язык",
        -9.754787650235778
      ],
      [
        "▁одно",
        -9.754992359864408
      ],
      [
        "▁обычно",
        -9.755528388097764
      ],
      [
        "▁entire",
        -9.75566776469309
      ],
      [
        "▁St",
        -9.757686544547129
      ],
      [
        "▁Конвенции",
        -9.757883184365106
      ],
      [
        "▁услови",
        -9.757977704032669
      ],
      [
        "▁Our",
        -9.758130540631097
      ],
      [
        "▁Don",
        -9.759816550347097
      ],
      [
        "fully",
        -9.760805439672147
      ],
      [
        "▁стране",
        -9.760979292731017
      ],
      [
        "ive",
        -9.76273793765797
      ],
      [
        "▁Then",
        -9.763802409763262
      ],
      [
        "months",
        -9.764662087643373
      ],
      [
        "▁международных",
        -9.765414365372793
      ],
      [
        "ile",
        -9.765981891853174
      ],
      [
        "▁user",
        -9.7664562934131
      ],
      [
        "▁expert",
        -9.766526262527133
      ],
      [
        "Ministry",
        -9.767439786786863
      ],
      [
        "▁Post",
        -9.767572785554288
      ],
      [
        "▁making",
        -9.768677917790704
      ],
      [
        "▁веб",
        -9.768965060098049
      ],
      [
        "▁please",
        -9.769183583266235
      ],
      [
        "▁client",
        -9.76929914548538
      ],
      [
        "▁By",
        -9.769808788864983
      ],
      [
        "▁serious",
        -9.769841176684762
      ],
      [
        "▁дел",
        -9.770305474169309
      ],
      [
        "▁отношения",
        -9.770755330109786
      ],
      [
        "▁appropriate",
        -9.771783414091427
      ],
      [
        "ными",
        -9.772100994694974
      ],
      [
        "▁check",
        -9.772161506582647
      ],
      [
        "ё",
        -9.77286803700166
      ],
      [
        "юда",
        -9.772996904157624
      ],
      [
        "▁express",
        -9.77404618949731
      ],
      [
        "▁книг",
        -9.77455214141937
      ],
      [
        "study",
        -9.774635002929166
      ],
      [
        "▁demand",
        -9.77474993419631
      ],
      [
        "▁уровень",
        -9.775431929171976
      ],
      [
        "слишком",
        -9.775822338143426
      ],
      [
        "▁Your",
        -9.776369238706627
      ],
      [
        "▁годы",
        -9.777496124994244
      ],
      [
        "▁рынка",
        -9.778251796776813
      ],
      [
        "▁прямо",
        -9.778830253594208
      ],
      [
        "▁third",
        -9.77900401413143
      ],
      [
        "currently",
        -9.779074025232386
      ],
      [
        "age",
        -9.77919104042388
      ],
      [
        "early",
        -9.779985802487733
      ],
      [
        "▁professional",
        -9.780234548648872
      ],
      [
        "Я",
        -9.78036447358982
      ],
      [
        "▁performance",
        -9.780574036210163
      ],
      [
        "previous",
        -9.780985667394669
      ],
      [
        "▁media",
        -9.781579687652023
      ],
      [
        "▁side",
        -9.781928385964942
      ],
      [
        "created",
        -9.783375179451053
      ],
      [
        "▁software",
        -9.78471069290357
      ],
      [
        "considered",
        -9.784761440924543
      ],
      [
        "went",
        -9.786828806130218
      ],
      [
        "▁производства",
        -9.787578822435764
      ],
      [
        "▁общества",
        -9.789748045658133
      ],
      [
        "guy",
        -9.790586791684921
      ],
      [
        "▁task",
        -9.79064004607364
      ],
      [
        "▁strengthen",
        -9.791324703049604
      ],
      [
        "▁perform",
        -9.792833018857865
      ],
      [
        "▁implement",
        -9.792959702662165
      ],
      [
        "▁план",
        -9.793574680508904
      ],
      [
        "over",
        -9.79387021511087
      ],
      [
        "K",
        -9.793951822234657
      ],
      [
        "attention",
        -9.79405674554293
      ],
      [
        "▁государственно",
        -9.795407427176404
      ],
      [
        "▁стал",
        -9.796218287695362
      ],
      [
        "▁дома",
        -9.796436304153596
      ],
      [
        "▁директор",
        -9.79800400326866
      ],
      [
        "▁hope",
        -9.798284827609928
      ],
      [
        "▁случая",
        -9.79851918307566
      ],
      [
        "▁мои",
        -9.798891847268436
      ],
      [
        "▁Human",
        -9.79902164398497
      ],
      [
        "▁construction",
        -9.799202475460591
      ],
      [
        "найти",
        -9.799279538994446
      ],
      [
        "▁requirements",
        -9.799527028185894
      ],
      [
        "▁active",
        -9.802104669486903
      ],
      [
        "▁Janu",
        -9.80223355374812
      ],
      [
        "@",
        -9.802866557889843
      ],
      [
        "▁nuclear",
        -9.803307969863496
      ],
      [
        "▁стратеги",
        -9.803340617364462
      ],
      [
        "▁X",
        -9.803373077957989
      ],
      [
        "▁цен",
        -9.803856776415568
      ],
      [
        "▁game",
        -9.80418363470304
      ],
      [
        "дней",
        -9.804709136576562
      ],
      [
        "▁significant",
        -9.80527624896115
      ],
      [
        "▁connection",
        -9.805472563778322
      ],
      [
        "▁April",
        -9.80594895754179
      ],
      [
        "▁PM",
        -9.807611360128178
      ],
      [
        "▁knowledge",
        -9.810361329343127
      ],
      [
        "▁получени",
        -9.810884844405841
      ],
      [
        "▁правительства",
        -9.811624948668767
      ],
      [
        "▁hotel",
        -9.813060530993948
      ],
      [
        "▁бизнес",
        -9.814509683214618
      ],
      [
        "▁Lord",
        -9.81482388651998
      ],
      [
        "▁сети",
        -9.81544572467779
      ],
      [
        "▁space",
        -9.815532160951781
      ],
      [
        "▁programme",
        -9.815615778426261
      ],
      [
        "▁Go",
        -9.816751124570285
      ],
      [
        "▁нескольки",
        -9.817425342947981
      ],
      [
        "▁claim",
        -9.817446498757056
      ],
      [
        "▁walk",
        -9.818152531752991
      ],
      [
        "▁ago",
        -9.819572587882666
      ],
      [
        "▁percent",
        -9.8211193737723
      ],
      [
        "▁police",
        -9.821246065335616
      ],
      [
        "▁обеспечить",
        -9.821384079854488
      ],
      [
        "history",
        -9.821472679594427
      ],
      [
        "along",
        -9.821607449893126
      ],
      [
        "▁budget",
        -9.821649703689785
      ],
      [
        "порядке",
        -9.82178483331429
      ],
      [
        "▁проведения",
        -9.823623147042905
      ],
      [
        "▁пол",
        -9.824670537450105
      ],
      [
        "▁каждо",
        -9.824700411318219
      ],
      [
        "rather",
        -9.82526511159238
      ],
      [
        "▁октябр",
        -9.825965719287726
      ],
      [
        "where",
        -9.8265701028766
      ],
      [
        "▁themselves",
        -9.82658972024847
      ],
      [
        "▁attack",
        -9.826723144907742
      ],
      [
        "▁поддержки",
        -9.827233137736016
      ],
      [
        "▁range",
        -9.828866451441147
      ],
      [
        "▁относительно",
        -9.829014176108567
      ],
      [
        "▁TV",
        -9.82961404962567
      ],
      [
        "одним",
        -9.829684831857794
      ],
      [
        "▁выше",
        -9.829778801190606
      ],
      [
        "▁improve",
        -9.830544616669462
      ],
      [
        "▁июл",
        -9.830722709046658
      ],
      [
        "▁note",
        -9.831065201121415
      ],
      [
        "▁II",
        -9.831110327926002
      ],
      [
        "▁thousand",
        -9.831236370104481
      ],
      [
        "groups",
        -9.831556316350174
      ],
      [
        "▁действительно",
        -9.831669441623397
      ],
      [
        "▁Service",
        -9.83189999464131
      ],
      [
        "▁сам",
        -9.832705016681567
      ],
      [
        "seen",
        -9.83275397697415
      ],
      [
        "▁июн",
        -9.83284702953319
      ],
      [
        "▁вот",
        -9.83334501195363
      ],
      [
        "▁appli",
        -9.834246057683327
      ],
      [
        "иметь",
        -9.83469199451844
      ],
      [
        "▁компания",
        -9.834714386900961
      ],
      [
        "▁разработк",
        -9.835428849061215
      ],
      [
        "▁состав",
        -9.835682148714769
      ],
      [
        "▁stop",
        -9.836933525610839
      ],
      [
        "V",
        -9.837389962542144
      ],
      [
        "▁использует",
        -9.837804578452301
      ],
      [
        "▁product",
        -9.838112433379656
      ],
      [
        "▁phone",
        -9.838552474662748
      ],
      [
        "от",
        -9.838963539792983
      ],
      [
        "▁Central",
        -9.839468716355075
      ],
      [
        "▁январ",
        -9.839509102869231
      ],
      [
        "▁условия",
        -9.839757004410416
      ],
      [
        "▁material",
        -9.840337688955682
      ],
      [
        "▁регион",
        -9.842090237548916
      ],
      [
        "▁поддержк",
        -9.842404872304625
      ],
      [
        "▁Federation",
        -9.842477793481825
      ],
      [
        "▁investment",
        -9.844805208022825
      ],
      [
        "конец",
        -9.844957311846619
      ],
      [
        "▁discuss",
        -9.845073302646659
      ],
      [
        "▁любы",
        -9.8455928159243
      ],
      [
        "▁Эта",
        -9.846058305502865
      ],
      [
        "▁представляет",
        -9.846448427065779
      ],
      [
        "▁exchange",
        -9.847153481150295
      ],
      [
        "▁думаю",
        -9.84725560334875
      ],
      [
        "▁процесса",
        -9.847486477464193
      ],
      [
        "▁documents",
        -9.847604633623344
      ],
      [
        "▁higher",
        -9.847750482015764
      ],
      [
        "▁работа",
        -9.848841799590229
      ],
      [
        "▁read",
        -9.849055409089502
      ],
      [
        "▁reports",
        -9.852582166265167
      ],
      [
        "▁Allah",
        -9.852816484326265
      ],
      [
        "Чтоб",
        -9.853614729186626
      ],
      [
        "▁мог",
        -9.854502790112232
      ],
      [
        "ще",
        -9.854906102320733
      ],
      [
        "▁Every",
        -9.855615864366634
      ],
      [
        "▁capital",
        -9.855709040800344
      ],
      [
        "▁stage",
        -9.857463363957686
      ],
      [
        "▁международного",
        -9.857900498013517
      ],
      [
        "▁ООН",
        -9.858787354580922
      ],
      [
        "▁equal",
        -9.858813966874925
      ],
      [
        "▁true",
        -9.85916270801857
      ],
      [
        "▁section",
        -9.86050781502592
      ],
      [
        "ous",
        -9.8609228336517
      ],
      [
        "▁version",
        -9.86200385114219
      ],
      [
        "▁answer",
        -9.862840251461796
      ],
      [
        "▁цели",
        -9.864257834584695
      ],
      [
        "▁activity",
        -9.865179373263103
      ],
      [
        "▁treatment",
        -9.866899744304456
      ],
      [
        "▁ваши",
        -9.86709306483059
      ],
      [
        "ец",
        -9.86786631864092
      ],
      [
        "емся",
        -9.868792321623443
      ],
      [
        "▁potential",
        -9.869008050727734
      ],
      [
        "▁ко",
        -9.869311327284152
      ],
      [
        "▁practice",
        -9.869681971158288
      ],
      [
        "▁deal",
        -9.869840761134373
      ],
      [
        "▁impact",
        -9.869947927709585
      ],
      [
        "▁Hey",
        -9.870560332141595
      ],
      [
        "какой",
        -9.871458933943078
      ],
      [
        "▁content",
        -9.872054003173893
      ],
      [
        "▁appear",
        -9.87243486189126
      ],
      [
        "▁speak",
        -9.872668289185798
      ],
      [
        "оно",
        -9.874336875544286
      ],
      [
        "▁progress",
        -9.874766555090291
      ],
      [
        "М",
        -9.874977257018147
      ],
      [
        "да",
        -9.875466889323292
      ],
      [
        "▁text",
        -9.87740747279941
      ],
      [
        "doing",
        -9.878211337162764
      ],
      [
        "▁Not",
        -9.879274083249129
      ],
      [
        "▁increased",
        -9.87942726766265
      ],
      [
        "▁treat",
        -9.87961680080377
      ],
      [
        "чи",
        -9.88024994488777
      ],
      [
        "▁model",
        -9.88215820962468
      ],
      [
        "▁пути",
        -9.884220203349097
      ],
      [
        "no",
        -9.885181300721396
      ],
      [
        "▁государственны",
        -9.886084261536158
      ],
      [
        "▁Director",
        -9.886939676257304
      ],
      [
        "▁communication",
        -9.887396657001734
      ],
      [
        "▁Украин",
        -9.88833583166934
      ],
      [
        "▁receive",
        -9.888658546086184
      ],
      [
        "▁moment",
        -9.888900166498672
      ],
      [
        "▁South",
        -9.889436978260395
      ],
      [
        "cases",
        -9.889838598695958
      ],
      [
        "▁Интернет",
        -9.890968277421312
      ],
      [
        "дать",
        -9.891232578797588
      ],
      [
        "своем",
        -9.89147669445847
      ],
      [
        "▁establish",
        -9.89267429829554
      ],
      [
        "▁lead",
        -9.893156382344731
      ],
      [
        "▁website",
        -9.893852928242003
      ],
      [
        "такое",
        -9.894077653638211
      ],
      [
        "term",
        -9.89505832816024
      ],
      [
        "▁сделал",
        -9.895118059357346
      ],
      [
        "▁billion",
        -9.895179471228788
      ],
      [
        "▁August",
        -9.895465498651498
      ],
      [
        "▁механизм",
        -9.895701512623862
      ],
      [
        "▁начала",
        -9.896340364707163
      ],
      [
        "▁nature",
        -9.897634634821175
      ],
      [
        "▁предлагает",
        -9.898940923118284
      ],
      [
        "▁До",
        -9.899474892651854
      ],
      [
        "▁fight",
        -9.899815293477035
      ],
      [
        "▁America",
        -9.900305092905835
      ],
      [
        "▁Just",
        -9.900904714822023
      ],
      [
        "conference",
        -9.901292013763788
      ],
      [
        "рд",
        -9.90235408644232
      ],
      [
        "▁half",
        -9.90238124435313
      ],
      [
        "▁Wi",
        -9.90311100091563
      ],
      [
        "▁закон",
        -9.903154308552192
      ],
      [
        "▁click",
        -9.903842100014167
      ],
      [
        "▁target",
        -9.903856460650637
      ],
      [
        "▁class",
        -9.904930466935259
      ],
      [
        "▁стали",
        -9.904957779324468
      ],
      [
        "▁Таки",
        -9.905878107583117
      ],
      [
        "▁modern",
        -9.908686279157326
      ],
      [
        "условиях",
        -9.908964337869225
      ],
      [
        "▁форм",
        -9.909355197763514
      ],
      [
        "ещё",
        -9.911466082849602
      ],
      [
        "adopted",
        -9.911870264725751
      ],
      [
        "▁Б",
        -9.911959127020882
      ],
      [
        "▁целе",
        -9.912138119810496
      ],
      [
        "▁число",
        -9.91305087734853
      ],
      [
        "знать",
        -9.913871017869866
      ],
      [
        "▁states",
        -9.91516796294788
      ],
      [
        "ты",
        -9.915756960962208
      ],
      [
        "herefore",
        -9.916831409249914
      ],
      [
        "ходят",
        -9.91750598529248
      ],
      [
        "▁month",
        -9.917591921809615
      ],
      [
        "hours",
        -9.919073345846876
      ],
      [
        "▁происходит",
        -9.921005891482729
      ],
      [
        "▁size",
        -9.921611722694955
      ],
      [
        "▁надо",
        -9.922109843073939
      ],
      [
        "▁услуги",
        -9.9221665188141
      ],
      [
        "▁Хот",
        -9.922433880559057
      ],
      [
        "um",
        -9.923056656640682
      ],
      [
        "▁региона",
        -9.923751542217282
      ],
      [
        "▁другим",
        -9.924039311171661
      ],
      [
        "▁апрел",
        -9.925226667570621
      ],
      [
        "▁source",
        -9.926077051615229
      ],
      [
        "▁transport",
        -9.926435232904886
      ],
      [
        "▁заявил",
        -9.92655648060636
      ],
      [
        "▁fall",
        -9.927437798924581
      ],
      [
        "▁represent",
        -9.927843112582025
      ],
      [
        "▁машин",
        -9.928092377049884
      ],
      [
        "ите",
        -9.928530291724407
      ],
      [
        "existing",
        -9.929162536984975
      ],
      [
        "▁Where",
        -9.929285676701252
      ],
      [
        "▁Web",
        -9.929546181427014
      ],
      [
        "▁снова",
        -9.931693907094187
      ],
      [
        "▁complex",
        -9.931844338786066
      ],
      [
        "▁связанны",
        -9.933329425457366
      ],
      [
        "▁км",
        -9.933644610464446
      ],
      [
        "▁Who",
        -9.933845918867133
      ],
      [
        "▁purpose",
        -9.934714425446428
      ],
      [
        "имя",
        -9.934956841437286
      ],
      [
        "ш",
        -9.934969996156324
      ],
      [
        "▁технологи",
        -9.93692180199402
      ],
      [
        "▁Вам",
        -9.937520995354038
      ],
      [
        "▁Из",
        -9.93768858279299
      ],
      [
        "▁standards",
        -9.939076080088165
      ],
      [
        "▁тысяч",
        -9.939368065545281
      ],
      [
        "▁факт",
        -9.939555069041209
      ],
      [
        "▁six",
        -9.940083797773964
      ],
      [
        "▁Universit",
        -9.940435518498962
      ],
      [
        "ment",
        -9.941122367551387
      ],
      [
        "▁совместно",
        -9.941405524705557
      ],
      [
        "▁пыта",
        -9.941469735349047
      ],
      [
        "else",
        -9.942597292387358
      ],
      [
        "▁членов",
        -9.943751832387482
      ],
      [
        "org",
        -9.944225949905814
      ],
      [
        "▁status",
        -9.94426147608006
      ],
      [
        "▁More",
        -9.9442945754675
      ],
      [
        "ись",
        -9.944907540550755
      ],
      [
        "другими",
        -9.945356282290627
      ],
      [
        "▁договор",
        -9.94613213480419
      ],
      [
        "▁wish",
        -9.946426697650677
      ],
      [
        "▁hold",
        -9.947008011130666
      ],
      [
        "▁Board",
        -9.947150167284342
      ],
      [
        "▁последние",
        -9.94759590830596
      ],
      [
        "Fi",
        -9.94881517586604
      ],
      [
        "новый",
        -9.948854883239584
      ],
      [
        "▁father",
        -9.949450397309517
      ],
      [
        "▁наш",
        -9.949951736237264
      ],
      [
        "▁successful",
        -9.951462135719277
      ],
      [
        "▁принять",
        -9.951553422485365
      ],
      [
        "at",
        -9.951773945437537
      ],
      [
        "words",
        -9.951801381968021
      ],
      [
        "men",
        -9.952392115792607
      ],
      [
        "▁органов",
        -9.953241556303954
      ],
      [
        "▁считает",
        -9.953297056257165
      ],
      [
        "▁someone",
        -9.953501444766632
      ],
      [
        "▁разны",
        -9.953547786733115
      ],
      [
        "▁Court",
        -9.953815516588024
      ],
      [
        "▁pass",
        -9.954281484952569
      ],
      [
        "▁мужчин",
        -9.954707992959381
      ],
      [
        "▁подход",
        -9.954748768179277
      ],
      [
        "aid",
        -9.956764346330555
      ],
      [
        "▁operations",
        -9.957208877328416
      ],
      [
        "▁rule",
        -9.957258754316728
      ],
      [
        "▁release",
        -9.95846914389989
      ],
      [
        "▁enterprise",
        -9.959377046410705
      ],
      [
        "▁Special",
        -9.960111286539577
      ],
      [
        "▁Ф",
        -9.960733172869174
      ],
      [
        "▁стоит",
        -9.961971426540405
      ],
      [
        "▁ноябр",
        -9.962444419339743
      ],
      [
        "▁similar",
        -9.962599926437822
      ],
      [
        "▁решений",
        -9.963333564535402
      ],
      [
        "▁оста",
        -9.965636045297268
      ],
      [
        "▁display",
        -9.965774570955297
      ],
      [
        "▁второ",
        -9.967958341026547
      ],
      [
        "time",
        -9.969484323875145
      ],
      [
        "▁job",
        -9.97139770434097
      ],
      [
        "следующие",
        -9.972749788695841
      ],
      [
        "▁involv",
        -9.972953861738516
      ],
      [
        "ant",
        -9.974529763876935
      ],
      [
        "▁carrie",
        -9.975307736385355
      ],
      [
        "quite",
        -9.97539285812756
      ],
      [
        "▁framework",
        -9.975593128985043
      ],
      [
        "▁enter",
        -9.977983504403584
      ],
      [
        "▁город",
        -9.978162161612973
      ],
      [
        "body",
        -9.978815518760065
      ],
      [
        "кого",
        -9.978825261291698
      ],
      [
        "▁former",
        -9.978836118529353
      ],
      [
        "During",
        -9.979222059776674
      ],
      [
        "▁прежде",
        -9.979921063205543
      ],
      [
        "доступа",
        -9.98027694133313
      ],
      [
        "z",
        -9.980420860583726
      ],
      [
        "▁word",
        -9.980494743311834
      ],
      [
        "▁Д",
        -9.980888758644214
      ],
      [
        "▁features",
        -9.981555520361427
      ],
      [
        "bodies",
        -9.981656797608323
      ],
      [
        "основных",
        -9.981905674962926
      ],
      [
        "▁Department",
        -9.982896672568835
      ],
      [
        "soon",
        -9.983298481104804
      ],
      [
        "▁bank",
        -9.98333932748353
      ],
      [
        "▁sustain",
        -9.98428317756411
      ],
      [
        "▁court",
        -9.985619137939178
      ],
      [
        "persons",
        -9.985752665975916
      ],
      [
        "▁деньг",
        -9.986017961723183
      ],
      [
        "▁развитию",
        -9.98734072983801
      ],
      [
        "▁легко",
        -9.987363473622906
      ],
      [
        "▁компаний",
        -9.98761893816477
      ],
      [
        "▁works",
        -9.987792656970447
      ],
      [
        "▁remember",
        -9.988722712241323
      ],
      [
        "▁информация",
        -9.988962550349662
      ],
      [
        "воды",
        -9.989221435013073
      ],
      [
        "▁video",
        -9.990268978544329
      ],
      [
        "▁вопросов",
        -9.990375180056235
      ],
      [
        "ну",
        -9.991785296458458
      ],
      [
        "▁силу",
        -9.992288664898616
      ],
      [
        "▁De",
        -9.9926918816377
      ],
      [
        "▁август",
        -9.994094533303382
      ],
      [
        "▁рабочи",
        -9.994109123370514
      ],
      [
        "▁Телефон",
        -9.994455161448505
      ],
      [
        "▁Штат",
        -9.994699666368883
      ],
      [
        "▁conflict",
        -9.99571089675409
      ],
      [
        "Е",
        -9.995720179322866
      ],
      [
        "▁mechanism",
        -9.995846932894283
      ],
      [
        "войны",
        -9.995956331701924
      ],
      [
        "▁сервер",
        -9.997192226740909
      ],
      [
        "▁трех",
        -9.997709011447974
      ],
      [
        "▁policies",
        -9.997845891409614
      ],
      [
        "▁sent",
        -9.998256390847617
      ],
      [
        "▁top",
        -9.99902985168598
      ],
      [
        "▁представлен",
        -9.999223265278683
      ],
      [
        "ebruar",
        -10.000372744795671
      ],
      [
        "▁Oka",
        -10.000621912712429
      ],
      [
        "▁reform",
        -10.001574317107451
      ],
      [
        "▁Law",
        -10.002256484980395
      ],
      [
        "ишь",
        -10.0025173910273
      ],
      [
        "▁Of",
        -10.003227694044316
      ],
      [
        "▁immediate",
        -10.003227773648947
      ],
      [
        "▁меньше",
        -10.003728955141945
      ],
      [
        "▁конце",
        -10.00476927790562
      ],
      [
        "across",
        -10.00615727055075
      ],
      [
        "ir",
        -10.007244873592667
      ],
      [
        "▁качества",
        -10.007764025502896
      ],
      [
        "▁ЮН",
        -10.008189934933302
      ],
      [
        "▁Come",
        -10.008812663981471
      ],
      [
        "▁крайне",
        -10.009167642985082
      ],
      [
        "▁km",
        -10.009506015309848
      ],
      [
        "▁saw",
        -10.00988976039298
      ],
      [
        "▁мест",
        -10.010450163348287
      ],
      [
        "▁doesn",
        -10.011212282210431
      ],
      [
        "▁longer",
        -10.012251088378816
      ],
      [
        "minutes",
        -10.012394050923467
      ],
      [
        "Г",
        -10.013624545841507
      ],
      [
        "▁составляет",
        -10.015333487612896
      ],
      [
        "materials",
        -10.015469902326828
      ],
      [
        "▁enjoy",
        -10.015469992304357
      ],
      [
        "▁thank",
        -10.015846748937241
      ],
      [
        "ния",
        -10.016741162240194
      ],
      [
        "▁труда",
        -10.016942121946823
      ],
      [
        "▁Economic",
        -10.017172576986091
      ],
      [
        "▁Israel",
        -10.017510447515372
      ],
      [
        "▁ниже",
        -10.017713394640719
      ],
      [
        "users",
        -10.017954119529065
      ],
      [
        "▁joint",
        -10.018049256284266
      ],
      [
        "▁касается",
        -10.018112725370543
      ],
      [
        "▁среды",
        -10.018151059214057
      ],
      [
        "▁работает",
        -10.018333378674841
      ],
      [
        "▁act",
        -10.018528263505418
      ],
      [
        "▁From",
        -10.018948487622673
      ],
      [
        "▁drug",
        -10.019415311386908
      ],
      [
        "лица",
        -10.020125912523014
      ],
      [
        "ach",
        -10.021095871401947
      ],
      [
        "▁book",
        -10.022697365356857
      ],
      [
        "Y",
        -10.022748195148846
      ],
      [
        "▁Soviet",
        -10.023170727725702
      ],
      [
        "▁практически",
        -10.023708178035863
      ],
      [
        "▁big",
        -10.024137485891002
      ],
      [
        "▁Company",
        -10.0243409531324
      ],
      [
        "▁виде",
        -10.02439194866233
      ],
      [
        "▁означает",
        -10.024480119226983
      ],
      [
        "▁quick",
        -10.025707291500144
      ],
      [
        "▁costs",
        -10.026488579326344
      ],
      [
        "сфере",
        -10.026677758673335
      ],
      [
        "Б",
        -10.026754726181656
      ],
      [
        "freedom",
        -10.02748508332801
      ],
      [
        "▁relations",
        -10.027781751468671
      ],
      [
        "▁необходимости",
        -10.027954924587293
      ],
      [
        "▁Н",
        -10.028568445279891
      ],
      [
        "▁install",
        -10.029248294286242
      ],
      [
        "▁создание",
        -10.029305838362944
      ],
      [
        "▁press",
        -10.029707614489173
      ],
      [
        "▁контроля",
        -10.030171507103386
      ],
      [
        "▁structure",
        -10.030228390414615
      ],
      [
        "way",
        -10.030375057415144
      ],
      [
        "▁отметил",
        -10.030701968045236
      ],
      [
        "▁publish",
        -10.031511574884055
      ],
      [
        "W",
        -10.031580562863542
      ],
      [
        "▁Т",
        -10.032235299789813
      ],
      [
        "▁занима",
        -10.032958261591212
      ],
      [
        "▁Organization",
        -10.033417574837504
      ],
      [
        "▁пришл",
        -10.033799037974969
      ],
      [
        "▁значительно",
        -10.033940397840341
      ],
      [
        "благодаря",
        -10.033990287368717
      ],
      [
        "зрения",
        -10.034022407349852
      ],
      [
        "▁Тепер",
        -10.034269519777972
      ],
      [
        "Д",
        -10.03548636274848
      ],
      [
        "▁обеспечени",
        -10.035512646524833
      ],
      [
        "▁две",
        -10.03609318893047
      ],
      [
        "каждого",
        -10.036960756503555
      ],
      [
        "▁save",
        -10.036965218196245
      ],
      [
        "▁Services",
        -10.037698066291236
      ],
      [
        "asked",
        -10.038503787339158
      ],
      [
        "АО",
        -10.039264914541075
      ],
      [
        "▁согласно",
        -10.040299457635044
      ],
      [
        "▁Мо",
        -10.040969870109043
      ],
      [
        "▁includes",
        -10.04178274395919
      ],
      [
        "▁participation",
        -10.041884067841725
      ],
      [
        "discussion",
        -10.043010861080646
      ],
      [
        "▁использование",
        -10.043425412200184
      ],
      [
        "▁post",
        -10.044578634182123
      ],
      [
        "mail",
        -10.045357160237717
      ],
      [
        "▁tax",
        -10.04555210944239
      ],
      [
        "▁имени",
        -10.04626922933428
      ],
      [
        "▁First",
        -10.046870429574179
      ],
      [
        "ра",
        -10.047559454197922
      ],
      [
        "▁конференци",
        -10.048655842906784
      ],
      [
        "▁сравнени",
        -10.048916792046617
      ],
      [
        "▁высоко",
        -10.049482489585994
      ],
      [
        "▁целом",
        -10.050214290085007
      ],
      [
        "▁music",
        -10.050250549593676
      ],
      [
        "мочь",
        -10.050404337492093
      ],
      [
        "Please",
        -10.051638217615857
      ],
      [
        "▁буду",
        -10.051877137659094
      ],
      [
        "▁Belarus",
        -10.052087339862506
      ],
      [
        "▁environmental",
        -10.052402109587781
      ],
      [
        "▁установк",
        -10.053789008098185
      ],
      [
        "▁operation",
        -10.054156398777828
      ],
      [
        "▁сумм",
        -10.054202795525018
      ],
      [
        "safety",
        -10.054618252244891
      ],
      [
        "▁Москв",
        -10.054753732873621
      ],
      [
        "brough",
        -10.05492251848463
      ],
      [
        "▁Africa",
        -10.055087358398463
      ],
      [
        "DP",
        -10.055093254791059
      ],
      [
        "▁социальны",
        -10.05514715741028
      ],
      [
        "▁location",
        -10.055763604551078
      ],
      [
        "▁сред",
        -10.056623389548186
      ],
      [
        "▁Хорош",
        -10.056970953970582
      ],
      [
        "▁Since",
        -10.057009831191884
      ],
      [
        "▁То",
        -10.057123060094805
      ],
      [
        "▁mother",
        -10.057293236795607
      ],
      [
        "▁culture",
        -10.058153653952111
      ],
      [
        "land",
        -10.05818412182466
      ],
      [
        "▁создать",
        -10.05830349772929
      ],
      [
        "▁lack",
        -10.059300898235705
      ],
      [
        "▁mention",
        -10.061128552829244
      ],
      [
        "существует",
        -10.061350086383282
      ],
      [
        "▁расположен",
        -10.061494565216044
      ],
      [
        "▁physical",
        -10.062101578736705
      ],
      [
        "▁search",
        -10.062381778321546
      ],
      [
        "▁exist",
        -10.062756779715363
      ],
      [
        "\\",
        -10.063258167980388
      ],
      [
        "opportunity",
        -10.06347079826176
      ],
      [
        "ны",
        -10.063765648298446
      ],
      [
        "▁Germany",
        -10.064476173342209
      ],
      [
        "▁files",
        -10.0645514102991
      ],
      [
        "▁promote",
        -10.06627415394407
      ],
      [
        "▁etc",
        -10.066718629662834
      ],
      [
        "▁потребност",
        -10.066823401866085
      ],
      [
        "▁High",
        -10.066989277729661
      ],
      [
        "decided",
        -10.067087485596849
      ],
      [
        "▁Center",
        -10.067872531960555
      ],
      [
        "▁номера",
        -10.06793010400997
      ],
      [
        "rules",
        -10.067953473346433
      ],
      [
        "▁достижения",
        -10.068925651616894
      ],
      [
        "▁границ",
        -10.071567850935576
      ],
      [
        "точки",
        -10.071852937440287
      ],
      [
        "▁активно",
        -10.072730461809115
      ],
      [
        "первый",
        -10.073647954773076
      ],
      [
        "▁obtain",
        -10.073730588504809
      ],
      [
        "Parties",
        -10.074333741574652
      ],
      [
        "марта",
        -10.07531880689382
      ],
      [
        "▁последни",
        -10.075940958749383
      ],
      [
        "Because",
        -10.076134960848636
      ],
      [
        "сколько",
        -10.076144209879953
      ],
      [
        "большой",
        -10.076297298511395
      ],
      [
        "▁medical",
        -10.07714996141202
      ],
      [
        "▁export",
        -10.077721228307098
      ],
      [
        "actually",
        -10.078195047180717
      ],
      [
        "▁message",
        -10.078867142867661
      ],
      [
        "response",
        -10.080413086394248
      ],
      [
        "▁секретаря",
        -10.080685448558166
      ],
      [
        "▁угроз",
        -10.08071661524202
      ],
      [
        "▁machine",
        -10.080741893609371
      ],
      [
        "▁independent",
        -10.081546316740257
      ],
      [
        "initiative",
        -10.081587881173615
      ],
      [
        "▁исследования",
        -10.082115830334894
      ],
      [
        "j",
        -10.082276020870786
      ],
      [
        "built",
        -10.082361572327754
      ],
      [
        "▁programmes",
        -10.082388394666879
      ],
      [
        "▁Про",
        -10.082782521899963
      ],
      [
        "▁cultural",
        -10.082858562012257
      ],
      [
        "степени",
        -10.082893836754973
      ],
      [
        "workers",
        -10.083018313640595
      ],
      [
        "▁нового",
        -10.083144804760247
      ],
      [
        "mm",
        -10.083384644321159
      ],
      [
        "▁школ",
        -10.083825885978772
      ],
      [
        "▁simpl",
        -10.083886440875728
      ],
      [
        "lost",
        -10.084578804862847
      ],
      [
        "▁basic",
        -10.084819937788767
      ],
      [
        "leading",
        -10.08500505417321
      ],
      [
        "▁outside",
        -10.086066948323735
      ],
      [
        "▁делает",
        -10.08737133380343
      ],
      [
        "operating",
        -10.087449530907966
      ],
      [
        "состоит",
        -10.088162857292302
      ],
      [
        "▁сами",
        -10.088251348179245
      ],
      [
        "▁pre",
        -10.088282740653446
      ],
      [
        "▁participants",
        -10.088818294945234
      ],
      [
        "▁standard",
        -10.088864850560766
      ],
      [
        "▁материал",
        -10.089035809714959
      ],
      [
        "el",
        -10.089318432460816
      ],
      [
        "▁woman",
        -10.090662145323922
      ],
      [
        "▁expected",
        -10.090817895008842
      ],
      [
        "▁Phone",
        -10.09135299558627
      ],
      [
        "окружающей",
        -10.092289164400544
      ],
      [
        "▁Party",
        -10.09233924542258
      ],
      [
        "▁вид",
        -10.092513493266805
      ],
      [
        "▁image",
        -10.092960807736857
      ],
      [
        "ory",
        -10.093182297124034
      ],
      [
        "▁центра",
        -10.09329760843628
      ],
      [
        "ф",
        -10.093633255404614
      ],
      [
        "▁regular",
        -10.093809886363038
      ],
      [
        "▁специалист",
        -10.094212418479824
      ],
      [
        "▁table",
        -10.094299595970124
      ],
      [
        "▁Other",
        -10.094567602745695
      ],
      [
        "▁экономики",
        -10.094842679180987
      ],
      [
        "шел",
        -10.095322266548452
      ],
      [
        "▁produce",
        -10.09551223466354
      ],
      [
        "more",
        -10.096310275309197
      ],
      [
        "месяцев",
        -10.096628109468863
      ],
      [
        "▁элемент",
        -10.096694148963843
      ],
      [
        "▁Member",
        -10.096742481964094
      ],
      [
        "▁Here",
        -10.097271188044639
      ],
      [
        "▁civil",
        -10.097732673415067
      ],
      [
        "▁grant",
        -10.09839877558746
      ],
      [
        "stead",
        -10.09840156117705
      ],
      [
        "▁detail",
        -10.099176171511056
      ],
      [
        "▁EU",
        -10.099964443795871
      ],
      [
        "▁комитет",
        -10.102459625688875
      ],
      [
        "▁конечно",
        -10.10298886291022
      ],
      [
        "▁reach",
        -10.103070036783395
      ],
      [
        "▁crime",
        -10.103203488784276
      ],
      [
        "▁easy",
        -10.1033152474919
      ],
      [
        "ch",
        -10.10344135517304
      ],
      [
        "▁depend",
        -10.103972386271412
      ],
      [
        "▁hear",
        -10.10507382894489
      ],
      [
        "▁сторон",
        -10.105125548607361
      ],
      [
        "▁beginning",
        -10.106046964529465
      ],
      [
        "students",
        -10.107017312243432
      ],
      [
        "yourself",
        -10.107511144417584
      ],
      [
        "violence",
        -10.108043927485046
      ],
      [
        "▁инициатив",
        -10.110089800924596
      ],
      [
        "▁говорил",
        -10.11012501992381
      ],
      [
        "▁Эй",
        -10.110551576107751
      ],
      [
        "▁sea",
        -10.110584905159548
      ],
      [
        "apply",
        -10.11117380134606
      ],
      [
        "▁вариант",
        -10.111500411845626
      ],
      [
        "▁российски",
        -10.111933917167184
      ],
      [
        "▁телефон",
        -10.112352814030945
      ],
      [
        "▁English",
        -10.112780243049706
      ],
      [
        "▁bad",
        -10.112841698072893
      ],
      [
        "▁Can",
        -10.113478221433528
      ],
      [
        "▁domestic",
        -10.114402408945745
      ],
      [
        "▁граждан",
        -10.114641567066023
      ],
      [
        "би",
        -10.114747654645976
      ],
      [
        "▁проблема",
        -10.114908500052529
      ],
      [
        "▁изменени",
        -10.115303580358706
      ],
      [
        "роста",
        -10.11553411420091
      ],
      [
        "▁maintain",
        -10.115912335799885
      ],
      [
        "ообще",
        -10.116181401283747
      ],
      [
        "▁ней",
        -10.116497662194822
      ],
      [
        "▁cent",
        -10.11750336901681
      ],
      [
        "Т",
        -10.118377665178398
      ],
      [
        "до",
        -10.11861746938791
      ],
      [
        "▁рост",
        -10.119507016582542
      ],
      [
        "▁solution",
        -10.1196619628137
      ],
      [
        "▁позици",
        -10.119729025918247
      ],
      [
        "▁analysis",
        -10.11988543805311
      ],
      [
        "▁fast",
        -10.122193086857642
      ],
      [
        "▁War",
        -10.122910995398033
      ],
      [
        "http",
        -10.123345993633917
      ],
      [
        "▁семь",
        -10.123467718889911
      ],
      [
        "▁transfer",
        -10.123697121360767
      ],
      [
        "ко",
        -10.123861424612357
      ],
      [
        "▁необходимость",
        -10.12413870949979
      ],
      [
        "▁crisis",
        -10.124565739911892
      ],
      [
        "▁East",
        -10.12537623109048
      ],
      [
        "▁blood",
        -10.125688298173747
      ],
      [
        "▁Did",
        -10.125821352852785
      ],
      [
        "ncies",
        -10.125873867702195
      ],
      [
        "▁одном",
        -10.125915960717409
      ],
      [
        "alone",
        -10.127451629766679
      ],
      [
        "▁centre",
        -10.127502725143836
      ],
      [
        "▁месте",
        -10.127988568729005
      ],
      [
        "▁enable",
        -10.129377050859187
      ],
      [
        "какие",
        -10.129404447964305
      ],
      [
        "требуется",
        -10.129536794688505
      ],
      [
        "▁prices",
        -10.129936787990566
      ],
      [
        "дает",
        -10.130070129060844
      ],
      [
        "▁join",
        -10.130668569403161
      ],
      [
        "▁Безопасности",
        -10.131446052158369
      ],
      [
        "▁передач",
        -10.132735945821114
      ],
      [
        "eries",
        -10.132923598566945
      ],
      [
        "▁art",
        -10.133484478200867
      ],
      [
        "▁inter",
        -10.133545456967434
      ],
      [
        "Европы",
        -10.133556733160045
      ],
      [
        "▁drive",
        -10.133700273015009
      ],
      [
        "▁немного",
        -10.133710699558724
      ],
      [
        "▁co",
        -10.13395362606029
      ],
      [
        "▁sense",
        -10.134113174787046
      ],
      [
        "▁supply",
        -10.134826944299434
      ],
      [
        "▁равно",
        -10.135020792440336
      ],
      [
        "▁высоки",
        -10.135954921061966
      ],
      [
        "▁son",
        -10.136315098708314
      ],
      [
        "co",
        -10.136315146536543
      ],
      [
        "▁parent",
        -10.13788654245838
      ],
      [
        "национальных",
        -10.137991350257634
      ],
      [
        "▁крупны",
        -10.138573123904676
      ],
      [
        "новой",
        -10.138762481416336
      ],
      [
        "▁заседани",
        -10.138817716348473
      ],
      [
        "▁находя",
        -10.138962772650453
      ],
      [
        "▁store",
        -10.138968769980528
      ],
      [
        "ization",
        -10.139187667424146
      ],
      [
        "▁программа",
        -10.139213855681986
      ],
      [
        "▁points",
        -10.140225211932886
      ],
      [
        "year",
        -10.141998802606192
      ],
      [
        "▁переговор",
        -10.142154297176077
      ],
      [
        "▁priorit",
        -10.142247376034312
      ],
      [
        "ц",
        -10.142536690598304
      ],
      [
        "▁safe",
        -10.142969771447776
      ],
      [
        "▁Fund",
        -10.143061516359245
      ],
      [
        "paid",
        -10.143245886728298
      ],
      [
        "▁собственно",
        -10.143634645202605
      ],
      [
        "▁opinion",
        -10.143805952776068
      ],
      [
        "▁letter",
        -10.14391483500226
      ],
      [
        "▁большинство",
        -10.145040288507895
      ],
      [
        "gave",
        -10.14573227623322
      ],
      [
        "▁victim",
        -10.146113060569762
      ],
      [
        "▁carry",
        -10.146962218568675
      ],
      [
        "сотрудников",
        -10.1477416099048
      ],
      [
        "for",
        -10.14777884012888
      ],
      [
        "▁Asia",
        -10.148224830678018
      ],
      [
        "систему",
        -10.149178575866257
      ],
      [
        "▁точно",
        -10.149212819487312
      ],
      [
        "▁Россия",
        -10.150703869661843
      ],
      [
        "▁Аллах",
        -10.151152005333042
      ],
      [
        "виду",
        -10.151336326078331
      ],
      [
        "▁мнени",
        -10.151685367674858
      ],
      [
        "okay",
        -10.15185804961141
      ],
      [
        "▁Привет",
        -10.152119316800173
      ],
      [
        "▁Institute",
        -10.152145007282185
      ],
      [
        "▁deep",
        -10.152980894543086
      ],
      [
        "рынке",
        -10.153411426185071
      ],
      [
        "обеспечение",
        -10.153545594909469
      ],
      [
        "▁rest",
        -10.153644432161899
      ],
      [
        "ov",
        -10.153763611903265
      ],
      [
        "▁station",
        -10.154728726098673
      ],
      [
        "of",
        -10.154918228485425
      ],
      [
        "▁box",
        -10.154943144377638
      ],
      [
        "▁traditional",
        -10.155031716871427
      ],
      [
        "▁send",
        -10.155041469243617
      ],
      [
        "▁особо",
        -10.155927604295085
      ],
      [
        "▁friend",
        -10.156204140259575
      ],
      [
        "▁Report",
        -10.156759368897976
      ],
      [
        "▁Соединенны",
        -10.157166759360525
      ],
      [
        "ер",
        -10.15730194644797
      ],
      [
        "▁base",
        -10.15751405499488
      ],
      [
        "▁responsibl",
        -10.158661797629486
      ],
      [
        "▁item",
        -10.158833606579442
      ],
      [
        "▁buy",
        -10.159197129403566
      ],
      [
        "чь",
        -10.159302010720399
      ],
      [
        "выполнения",
        -10.159843879594355
      ],
      [
        "иностранных",
        -10.160401213619258
      ],
      [
        "▁poor",
        -10.160654885839659
      ],
      [
        "▁century",
        -10.160763951006684
      ],
      [
        "▁add",
        -10.161288340843345
      ],
      [
        "ющихся",
        -10.161714524822857
      ],
      [
        "У",
        -10.162291036421177
      ],
      [
        "provisions",
        -10.162899285939302
      ],
      [
        "▁хочет",
        -10.163353478490647
      ],
      [
        "▁района",
        -10.16349274448969
      ],
      [
        "▁exact",
        -10.163514921519393
      ],
      [
        "▁contribution",
        -10.164447167230728
      ],
      [
        "ar",
        -10.16459311397987
      ],
      [
        "▁лучши",
        -10.164849278275838
      ],
      [
        "▁positive",
        -10.165277608816709
      ],
      [
        "▁этап",
        -10.165559527174606
      ],
      [
        "▁процентов",
        -10.165564895532597
      ],
      [
        "ногда",
        -10.166183727693966
      ],
      [
        "▁interests",
        -10.166476619081504
      ],
      [
        "▁People",
        -10.166523349864216
      ],
      [
        "▁объект",
        -10.167056455434059
      ],
      [
        "▁файл",
        -10.167107208333366
      ],
      [
        "below",
        -10.167124340353901
      ],
      [
        "▁anti",
        -10.16793675244443
      ],
      [
        "▁часов",
        -10.168005722027058
      ],
      [
        "▁дальнейше",
        -10.169128963729433
      ],
      [
        "▁Был",
        -10.169343170518236
      ],
      [
        "▁управление",
        -10.171879864381012
      ],
      [
        "database",
        -10.173633484369082
      ],
      [
        "▁film",
        -10.173844115768748
      ],
      [
        "станет",
        -10.173967336495801
      ],
      [
        "▁seek",
        -10.174171173987958
      ],
      [
        "▁верну",
        -10.175213878722225
      ],
      [
        "offers",
        -10.175246044170692
      ],
      [
        "▁begin",
        -10.17532849180602
      ],
      [
        "▁build",
        -10.175701793495342
      ],
      [
        "▁встреча",
        -10.176205903223591
      ],
      [
        "▁categor",
        -10.176373837376227
      ],
      [
        "▁мало",
        -10.176677518792625
      ],
      [
        "▁наибол",
        -10.176893611066024
      ],
      [
        "▁bar",
        -10.176903907774152
      ],
      [
        "technologie",
        -10.17693177098246
      ],
      [
        "▁income",
        -10.17731129574564
      ],
      [
        "▁lower",
        -10.177456127312446
      ],
      [
        "хотите",
        -10.177785939067302
      ],
      [
        "▁step",
        -10.17823183699375
      ],
      [
        "всю",
        -10.179699394217131
      ],
      [
        "▁methods",
        -10.180172378880762
      ],
      [
        "▁специально",
        -10.180802051177643
      ],
      [
        "▁ЕС",
        -10.180924184231584
      ],
      [
        "▁recommendations",
        -10.181458438073248
      ],
      [
        "▁стало",
        -10.181635066408727
      ],
      [
        "▁register",
        -10.182249437204812
      ],
      [
        "▁возраст",
        -10.182981037583055
      ],
      [
        "▁Look",
        -10.18332421932243
      ],
      [
        "новь",
        -10.183416478843682
      ],
      [
        "▁суд",
        -10.18408058893192
      ],
      [
        "▁Российско",
        -10.184692636472784
      ],
      [
        "▁здравоохранения",
        -10.185481981508156
      ],
      [
        "▁choose",
        -10.186299489658955
      ],
      [
        "▁wrong",
        -10.18738222700762
      ],
      [
        "ish",
        -10.187464367265667
      ],
      [
        "▁types",
        -10.187553165523218
      ],
      [
        "▁технологии",
        -10.188019263520651
      ],
      [
        "▁attempt",
        -10.188246269397332
      ],
      [
        "▁card",
        -10.188307111523592
      ],
      [
        "▁reduce",
        -10.188604434083938
      ],
      [
        "во",
        -10.188687656635508
      ],
      [
        "▁pool",
        -10.188844002643844
      ],
      [
        "мной",
        -10.189205338687543
      ],
      [
        "ситуации",
        -10.18945722425652
      ],
      [
        "▁применения",
        -10.189563112091435
      ],
      [
        "▁floor",
        -10.19042844556851
      ],
      [
        "▁дом",
        -10.190745094893352
      ],
      [
        "▁consideration",
        -10.190790647777495
      ],
      [
        "▁unique",
        -10.19100361443437
      ],
      [
        "▁определенны",
        -10.191309450702477
      ],
      [
        "▁truth",
        -10.191697421920011
      ],
      [
        "▁потом",
        -10.19177614557966
      ],
      [
        "heard",
        -10.191985222106924
      ],
      [
        "▁fine",
        -10.193001327805781
      ],
      [
        "▁German",
        -10.193094935761703
      ],
      [
        "▁inform",
        -10.193131413957126
      ],
      [
        "see",
        -10.193355496968854
      ],
      [
        "▁reflect",
        -10.1938496079183
      ],
      [
        "▁average",
        -10.194011927974675
      ],
      [
        "▁record",
        -10.194248752391532
      ],
      [
        "ности",
        -10.194307835583498
      ],
      [
        "▁legislation",
        -10.194377855284221
      ],
      [
        "▁получил",
        -10.194627226702616
      ],
      [
        "▁Ни",
        -10.194645752056054
      ],
      [
        "▁Бог",
        -10.195012432673773
      ],
      [
        "▁choice",
        -10.19510552646283
      ],
      [
        "вер",
        -10.195408243796757
      ],
      [
        "▁отношени",
        -10.195578046213376
      ],
      [
        "разу",
        -10.19574484258434
      ],
      [
        "▁встреч",
        -10.19594108181534
      ],
      [
        "ne",
        -10.196353822862726
      ],
      [
        "▁оружия",
        -10.19667428156952
      ],
      [
        "funds",
        -10.196761856377396
      ],
      [
        "▁Тем",
        -10.196804289573405
      ],
      [
        "agreed",
        -10.198395012358972
      ],
      [
        "▁code",
        -10.19858693081752
      ],
      [
        "кажется",
        -10.198605246108684
      ],
      [
        "▁contract",
        -10.199260213258468
      ],
      [
        "ian",
        -10.199344903372845
      ],
      [
        "▁причин",
        -10.199384741364117
      ],
      [
        "▁пользу",
        -10.200437566094594
      ],
      [
        "▁responsibility",
        -10.201224769928444
      ],
      [
        "▁scientific",
        -10.201465756069648
      ],
      [
        "▁содержит",
        -10.20169889590141
      ],
      [
        "▁Programme",
        -10.203393400471564
      ],
      [
        "▁success",
        -10.20351699516958
      ],
      [
        "▁внутренни",
        -10.20365829434586
      ],
      [
        "▁интернет",
        -10.203990175790604
      ],
      [
        "▁Армени",
        -10.204197992247998
      ],
      [
        "мимо",
        -10.204259463328373
      ],
      [
        "▁stand",
        -10.204724646138018
      ],
      [
        "▁meetings",
        -10.20570723692138
      ],
      [
        "▁Dr",
        -10.205919312124914
      ],
      [
        "▁partners",
        -10.206007981384039
      ],
      [
        "▁import",
        -10.206011384419638
      ],
      [
        "▁credit",
        -10.206379446080701
      ],
      [
        "▁achieve",
        -10.206795079497251
      ],
      [
        "более",
        -10.206934502185629
      ],
      [
        "Х",
        -10.206965480893658
      ],
      [
        "▁международной",
        -10.208934211385895
      ],
      [
        "▁предприятия",
        -10.209268064286661
      ],
      [
        "▁отчет",
        -10.209593784012192
      ],
      [
        "▁размер",
        -10.209759843463447
      ],
      [
        "▁Exchange",
        -10.20980552288775
      ],
      [
        "▁содействи",
        -10.210088099031164
      ],
      [
        "▁повестк",
        -10.210397617997135
      ],
      [
        "▁само",
        -10.210765026124468
      ],
      [
        "из",
        -10.211379254600564
      ],
      [
        "prepared",
        -10.211622033957793
      ],
      [
        "▁volume",
        -10.21194550357421
      ],
      [
        "овых",
        -10.211978998342728
      ],
      [
        "▁threat",
        -10.212089432462523
      ],
      [
        "J",
        -10.212246473748818
      ],
      [
        "знаешь",
        -10.212524383781863
      ],
      [
        "▁damage",
        -10.212869067383535
      ],
      [
        "▁avoid",
        -10.213042185377946
      ],
      [
        "ance",
        -10.213109709901044
      ],
      [
        "▁suggest",
        -10.213719524946564
      ],
      [
        "▁submitt",
        -10.214873958704779
      ],
      [
        "истории",
        -10.215096118236636
      ],
      [
        "▁forward",
        -10.215520561544347
      ],
      [
        "▁fire",
        -10.21629493996381
      ],
      [
        "continued",
        -10.217167009469096
      ],
      [
        "▁command",
        -10.217976556289464
      ],
      [
        "▁больш",
        -10.218677319513418
      ],
      [
        "ских",
        -10.21873859095679
      ],
      [
        "▁типа",
        -10.218972826427656
      ],
      [
        "▁Ази",
        -10.219971556320793
      ],
      [
        "orning",
        -10.220200058723176
      ],
      [
        "▁applications",
        -10.221019153688092
      ],
      [
        "▁ответственность",
        -10.22111362230921
      ],
      [
        "▁sub",
        -10.221215246097103
      ],
      [
        "▁late",
        -10.221608595029824
      ],
      [
        "▁прогресс",
        -10.221679433947536
      ],
      [
        "правам",
        -10.221731925885631
      ],
      [
        "deed",
        -10.222370439956045
      ],
      [
        "▁Room",
        -10.222660445457379
      ],
      [
        "▁Thu",
        -10.22267328449789
      ],
      [
        "▁Management",
        -10.22319469966995
      ],
      [
        "▁gain",
        -10.224453980442902
      ],
      [
        "▁внутри",
        -10.224854217987055
      ],
      [
        "▁воздух",
        -10.224920265751454
      ],
      [
        "regulation",
        -10.225143393831221
      ],
      [
        "▁городе",
        -10.225868858949902
      ],
      [
        "▁центр",
        -10.226051419169401
      ],
      [
        "здоровья",
        -10.226118568498988
      ],
      [
        "▁большинств",
        -10.226120880573706
      ],
      [
        "▁beautiful",
        -10.227398001438134
      ],
      [
        "▁Or",
        -10.229036099437227
      ],
      [
        "haps",
        -10.229571084847636
      ],
      [
        "signed",
        -10.230778700301641
      ],
      [
        "▁системе",
        -10.23106242729904
      ],
      [
        "▁break",
        -10.231160164932147
      ],
      [
        "writte",
        -10.23119620505748
      ],
      [
        "▁simple",
        -10.23125713113018
      ],
      [
        "▁норм",
        -10.231436602836146
      ],
      [
        "▁продукции",
        -10.231757273046986
      ],
      [
        "игры",
        -10.231820497416473
      ],
      [
        "столько",
        -10.232389636878327
      ],
      [
        "▁анализ",
        -10.2324663128665
      ],
      [
        "ком",
        -10.232583879150098
      ],
      [
        "strategy",
        -10.232599847394274
      ],
      [
        "nna",
        -10.232641213739948
      ],
      [
        "принятия",
        -10.232906379916754
      ],
      [
        "де",
        -10.233007974551775
      ],
      [
        "▁learn",
        -10.233473173616742
      ],
      [
        "X",
        -10.233702862922845
      ],
      [
        "▁goal",
        -10.233708262417418
      ],
      [
        "▁ВИЧ",
        -10.23373688448425
      ],
      [
        "▁sound",
        -10.23449829634283
      ],
      [
        "friends",
        -10.23535735226644
      ],
      [
        "zone",
        -10.23542015110194
      ],
      [
        "▁girl",
        -10.235754101432923
      ],
      [
        "▁paper",
        -10.236407869564571
      ],
      [
        "▁зависимост",
        -10.236408667949483
      ],
      [
        "designed",
        -10.236481570566724
      ],
      [
        "▁значит",
        -10.237103891172815
      ],
      [
        "▁Information",
        -10.237303305612109
      ],
      [
        "▁restaurant",
        -10.237322120983688
      ],
      [
        "нять",
        -10.237456290612805
      ],
      [
        "▁усили",
        -10.239107765948361
      ],
      [
        "очередь",
        -10.239183234290882
      ],
      [
        "▁пример",
        -10.239452174763908
      ],
      [
        "что",
        -10.239485449580924
      ],
      [
        "▁North",
        -10.239722989559352
      ],
      [
        "▁annual",
        -10.239730965628283
      ],
      [
        "▁guest",
        -10.24088691231496
      ],
      [
        "▁используют",
        -10.240990416110172
      ],
      [
        "▁criminal",
        -10.242189826258748
      ],
      [
        "▁Z",
        -10.244038961096049
      ],
      [
        "▁separate",
        -10.244052425424428
      ],
      [
        "▁электронно",
        -10.244070411637068
      ],
      [
        "▁HIV",
        -10.244277838806727
      ],
      [
        "▁territory",
        -10.244326286978968
      ],
      [
        "▁предоставляет",
        -10.244740542144493
      ],
      [
        "limited",
        -10.244875554783533
      ],
      [
        "▁citizens",
        -10.244970931124367
      ],
      [
        "▁положение",
        -10.245056696900654
      ],
      [
        "▁полици",
        -10.245474014067293
      ],
      [
        "line",
        -10.245612810755219
      ],
      [
        "▁behind",
        -10.245811248877056
      ],
      [
        "▁System",
        -10.246891456699815
      ],
      [
        "▁relative",
        -10.247424565338239
      ],
      [
        "▁vehicle",
        -10.247940007126394
      ],
      [
        "▁глаза",
        -10.248134784629825
      ],
      [
        "▁Social",
        -10.248906692674408
      ],
      [
        "▁правила",
        -10.249184313696938
      ],
      [
        "▁agenda",
        -10.24988734876004
      ],
      [
        "▁общего",
        -10.250395971001321
      ],
      [
        "▁difference",
        -10.250865079066124
      ],
      [
        "ков",
        -10.251219196065868
      ],
      [
        "место",
        -10.252143708551609
      ],
      [
        "▁международным",
        -10.252973796401385
      ],
      [
        "monitoring",
        -10.253424495650094
      ],
      [
        "▁характер",
        -10.253496498536462
      ],
      [
        "будем",
        -10.254224947246813
      ],
      [
        "▁ведь",
        -10.254235725331919
      ],
      [
        "▁leaders",
        -10.254940661484568
      ],
      [
        "▁сообщения",
        -10.255105524275342
      ],
      [
        "assessment",
        -10.255385638259606
      ],
      [
        "▁документов",
        -10.255515737731308
      ],
      [
        "▁eyes",
        -10.255544356726947
      ],
      [
        "▁benefit",
        -10.256139387386614
      ],
      [
        "▁стоимость",
        -10.257022200737739
      ],
      [
        "▁commitment",
        -10.257204118908279
      ],
      [
        "il",
        -10.257388719643357
      ],
      [
        "▁рабоче",
        -10.257444641417193
      ],
      [
        "▁материалов",
        -10.25805206139882
      ],
      [
        "▁patient",
        -10.258676823928266
      ],
      [
        "▁context",
        -10.25879304731008
      ],
      [
        "▁Казахстан",
        -10.258982462866484
      ],
      [
        "▁movement",
        -10.25904084326209
      ],
      [
        "▁central",
        -10.259319327323704
      ],
      [
        "одну",
        -10.259693256507841
      ],
      [
        "отеля",
        -10.261199057477336
      ],
      [
        "▁object",
        -10.2618729129091
      ],
      [
        "▁Комитета",
        -10.26204579003766
      ],
      [
        "▁исследований",
        -10.262142019919182
      ],
      [
        "▁техническо",
        -10.262751569595634
      ],
      [
        "путь",
        -10.263081121926044
      ],
      [
        "▁возможностей",
        -10.263379815848767
      ],
      [
        "▁отдельны",
        -10.263511852181765
      ],
      [
        "▁evidence",
        -10.26414149291425
      ],
      [
        "levels",
        -10.264406503674584
      ],
      [
        "▁competition",
        -10.265441887289247
      ],
      [
        "un",
        -10.266230831344407
      ],
      [
        "▁сильно",
        -10.266314172097914
      ],
      [
        "▁lives",
        -10.267296478234321
      ],
      [
        "данной",
        -10.26768364484684
      ],
      [
        "▁продуктов",
        -10.268204206422013
      ],
      [
        "▁importan",
        -10.26868181710728
      ],
      [
        "участия",
        -10.268801704717331
      ],
      [
        "жить",
        -10.26895993603001
      ],
      [
        "reported",
        -10.269628387543712
      ],
      [
        "▁предоставлени",
        -10.27048096530625
      ],
      [
        "▁front",
        -10.270806750422876
      ],
      [
        "▁совершенно",
        -10.270833474289349
      ],
      [
        "первой",
        -10.271836601002883
      ],
      [
        "▁aspect",
        -10.273018355651603
      ],
      [
        "▁administration",
        -10.27319977299554
      ],
      [
        "▁сообщил",
        -10.273915346064715
      ],
      [
        "могла",
        -10.27398173880838
      ],
      [
        "▁Дава",
        -10.274370885107539
      ],
      [
        "▁организациям",
        -10.274603802196832
      ],
      [
        "▁town",
        -10.275044687467847
      ],
      [
        "▁online",
        -10.275454654537505
      ],
      [
        "▁уверен",
        -10.275631459029825
      ],
      [
        "▁Сегодня",
        -10.27668123462982
      ],
      [
        "можеш",
        -10.276741712801623
      ],
      [
        "▁greater",
        -10.277477522900647
      ],
      [
        "▁составил",
        -10.277695309109358
      ],
      [
        "▁hands",
        -10.279490839811867
      ],
      [
        "concerning",
        -10.279789471587112
      ],
      [
        "net",
        -10.279909588086685
      ],
      [
        "▁Un",
        -10.279959124139772
      ],
      [
        "▁Even",
        -10.280328508653692
      ],
      [
        "killed",
        -10.280343006036729
      ],
      [
        "day",
        -10.280551789307822
      ],
      [
        "▁языка",
        -10.28080161125821
      ],
      [
        "weapons",
        -10.281302169385663
      ],
      [
        "▁появи",
        -10.281308859912466
      ],
      [
        "▁предложения",
        -10.281401044155347
      ],
      [
        "▁creation",
        -10.281699188316544
      ],
      [
        "▁travel",
        -10.281789477854582
      ],
      [
        "▁dead",
        -10.282012086330852
      ],
      [
        "planning",
        -10.28202682110539
      ],
      [
        "actions",
        -10.282125656529818
      ],
      [
        "▁Л",
        -10.282341228929162
      ],
      [
        "▁начина",
        -10.282415008056558
      ],
      [
        "▁ever",
        -10.28249737844353
      ],
      [
        "▁essential",
        -10.282636279301862
      ],
      [
        "▁обо",
        -10.283285796350977
      ],
      [
        "Working",
        -10.283766820297052
      ],
      [
        "ля",
        -10.284424074696409
      ],
      [
        "▁феврал",
        -10.286047907276988
      ],
      [
        "▁plant",
        -10.286414919982594
      ],
      [
        "▁statement",
        -10.28697153271337
      ],
      [
        "прежнему",
        -10.28737925331744
      ],
      [
        "▁fear",
        -10.287473960007638
      ],
      [
        "▁York",
        -10.288344275602853
      ],
      [
        "становится",
        -10.288393961404191
      ],
      [
        "▁influence",
        -10.289312769257407
      ],
      [
        "▁West",
        -10.289879592709513
      ],
      [
        "▁character",
        -10.290376927437304
      ],
      [
        "▁markets",
        -10.290416051747442
      ],
      [
        "▁wait",
        -10.290603472184273
      ],
      [
        "▁Armenia",
        -10.291146061213617
      ],
      [
        "▁участников",
        -10.291230486550587
      ],
      [
        "числа",
        -10.291612960752786
      ],
      [
        "энергии",
        -10.29191800117459
      ],
      [
        "▁option",
        -10.292186098128864
      ],
      [
        "▁speed",
        -10.293032373548197
      ],
      [
        "▁dollar",
        -10.293256039164508
      ],
      [
        "forces",
        -10.293570654044112
      ],
      [
        "am",
        -10.294103907654486
      ],
      [
        "▁launch",
        -10.29470338047611
      ],
      [
        "▁expand",
        -10.294755679709484
      ],
      [
        "▁French",
        -10.294893177731582
      ],
      [
        "▁стала",
        -10.295246189639062
      ],
      [
        "▁представителей",
        -10.295317767650035
      ],
      [
        "сайта",
        -10.295568542744046
      ],
      [
        "▁рас",
        -10.295585727685404
      ],
      [
        "моя",
        -10.295825069707043
      ],
      [
        "▁kne",
        -10.295937042210747
      ],
      [
        "▁институт",
        -10.296126400143304
      ],
      [
        "▁видел",
        -10.296683414125118
      ],
      [
        "людьми",
        -10.297169624697196
      ],
      [
        "▁pressure",
        -10.297993486035338
      ],
      [
        "▁participate",
        -10.29817273438447
      ],
      [
        "▁тут",
        -10.298728519950462
      ],
      [
        "▁видео",
        -10.298882819238074
      ],
      [
        "▁бизнеса",
        -10.298919637374674
      ],
      [
        "questions",
        -10.299050717600226
      ],
      [
        "▁chance",
        -10.299599204754346
      ],
      [
        "▁президент",
        -10.299678429192788
      ],
      [
        "▁Сторон",
        -10.300103122331013
      ],
      [
        "html",
        -10.301249851760923
      ],
      [
        "▁kill",
        -10.30161069378031
      ],
      [
        "▁говорить",
        -10.301704673518802
      ],
      [
        "▁категори",
        -10.301781788781271
      ],
      [
        "▁village",
        -10.302107679566289
      ],
      [
        "▁France",
        -10.302588228407117
      ],
      [
        "▁успешно",
        -10.302653717592396
      ],
      [
        "овсем",
        -10.302728667482237
      ],
      [
        "▁die",
        -10.303969596272427
      ],
      [
        "ьте",
        -10.304978246413159
      ],
      [
        "▁функции",
        -10.304984850530502
      ],
      [
        "governmental",
        -10.305029665524495
      ],
      [
        "▁примерно",
        -10.305149175222232
      ],
      [
        "очешь",
        -10.305609709896407
      ],
      [
        "▁practical",
        -10.306410358378667
      ],
      [
        "▁bit",
        -10.306447196628879
      ],
      [
        "▁fail",
        -10.306709973229104
      ],
      [
        "▁IP",
        -10.308549517847336
      ],
      [
        "▁mission",
        -10.308566814157194
      ],
      [
        "▁delegation",
        -10.308788207328105
      ],
      [
        "▁ситуаци",
        -10.308819194150617
      ],
      [
        "▁приняты",
        -10.30896159471047
      ],
      [
        "▁steps",
        -10.308969431066028
      ],
      [
        "ские",
        -10.309268376420148
      ],
      [
        "▁industrial",
        -10.309269363554757
      ],
      [
        "▁шаг",
        -10.309331537170772
      ],
      [
        "▁Good",
        -10.309765136955281
      ],
      [
        "▁met",
        -10.310013098483275
      ],
      [
        "▁Yea",
        -10.310073104732744
      ],
      [
        "▁основани",
        -10.31023570822952
      ],
      [
        "▁via",
        -10.310339675422615
      ],
      [
        "▁welcome",
        -10.310699012996642
      ],
      [
        "▁establishment",
        -10.31083857896942
      ],
      [
        "▁understanding",
        -10.311029998203308
      ],
      [
        "▁пункта",
        -10.311052029953148
      ],
      [
        "члены",
        -10.312795445214402
      ],
      [
        "▁известно",
        -10.313037225839132
      ],
      [
        "при",
        -10.31307535478451
      ],
      [
        "▁See",
        -10.31394795262306
      ],
      [
        "side",
        -10.314138648266807
      ],
      [
        "следующих",
        -10.3150841948246
      ],
      [
        "э",
        -10.315098190362175
      ],
      [
        "▁выберите",
        -10.315699054656013
      ],
      [
        "▁internal",
        -10.315856195242144
      ],
      [
        "▁миллионов",
        -10.316202415652489
      ],
      [
        "▁brother",
        -10.316456483231441
      ],
      [
        "▁ядерно",
        -10.31677531792038
      ],
      [
        "▁Great",
        -10.317896197821055
      ],
      [
        "▁consist",
        -10.318250612363661
      ],
      [
        "▁unit",
        -10.318371108713942
      ],
      [
        "▁sign",
        -10.318559218018564
      ],
      [
        "▁Некоторы",
        -10.31859097034109
      ],
      [
        "whom",
        -10.31936247085271
      ],
      [
        "▁ресторан",
        -10.319522435986933
      ],
      [
        "▁provision",
        -10.319737612518738
      ],
      [
        "▁долл",
        -10.319767406802661
      ],
      [
        "▁лично",
        -10.31992660801372
      ],
      [
        "▁включает",
        -10.319931218912645
      ],
      [
        "▁друга",
        -10.320406644915176
      ],
      [
        "округ",
        -10.320566826342004
      ],
      [
        "▁customers",
        -10.320808516155685
      ],
      [
        "▁fee",
        -10.321142256171962
      ],
      [
        "▁Зде",
        -10.322848723509571
      ],
      [
        "organized",
        -10.322876187124482
      ],
      [
        "▁Просто",
        -10.323023256224078
      ],
      [
        "▁encourage",
        -10.323522431017485
      ],
      [
        "head",
        -10.323540838059765
      ],
      [
        "ними",
        -10.324093670643292
      ],
      [
        "▁положени",
        -10.324264421533208
      ],
      [
        "den",
        -10.324298545629047
      ],
      [
        "П",
        -10.324474621476867
      ],
      [
        "▁tri",
        -10.324970804039198
      ],
      [
        "▁потенциала",
        -10.325172014924563
      ],
      [
        "▁представить",
        -10.325387335570953
      ],
      [
        "▁invite",
        -10.325460936128904
      ],
      [
        "Федерации",
        -10.32555099648209
      ],
      [
        "ние",
        -10.32573145635318
      ],
      [
        "ман",
        -10.325962171570806
      ],
      [
        "▁Sea",
        -10.32625797461368
      ],
      [
        "▁имел",
        -10.326291217850818
      ],
      [
        "▁button",
        -10.326438582680774
      ],
      [
        "▁advantage",
        -10.326888277981377
      ],
      [
        "▁Ukrainian",
        -10.327881888948784
      ],
      [
        "▁campaign",
        -10.329104621728538
      ],
      [
        "▁church",
        -10.329122512612672
      ],
      [
        "стью",
        -10.330027460838885
      ],
      [
        "▁ответственности",
        -10.330518899453132
      ],
      [
        "▁infrastructure",
        -10.330541665832882
      ],
      [
        "▁though",
        -10.330547097507552
      ],
      [
        "wife",
        -10.33104949048808
      ],
      [
        "▁path",
        -10.33186193980478
      ],
      [
        "presented",
        -10.332340204668368
      ],
      [
        "▁руководство",
        -10.332506441501327
      ],
      [
        "▁результатов",
        -10.332760977969675
      ],
      [
        "▁оборудования",
        -10.333244093816859
      ],
      [
        "вопросу",
        -10.333419167996169
      ],
      [
        "▁обеспечивает",
        -10.333942998708944
      ],
      [
        "▁feeling",
        -10.334247388505183
      ],
      [
        "▁notice",
        -10.336454203801193
      ],
      [
        "▁находи",
        -10.337268577639485
      ],
      [
        "▁название",
        -10.337599899641685
      ],
      [
        "▁host",
        -10.337809877881973
      ],
      [
        "▁годов",
        -10.33826815100452
      ],
      [
        "▁mass",
        -10.339073437391122
      ],
      [
        "thus",
        -10.339327913671807
      ],
      [
        "▁sorr",
        -10.339372221866807
      ],
      [
        "ность",
        -10.339411141203195
      ],
      [
        "probably",
        -10.33959073838547
      ],
      [
        "likely",
        -10.340274954228535
      ],
      [
        "нажмите",
        -10.340821897927253
      ],
      [
        "▁сведения",
        -10.341444492180566
      ],
      [
        "if",
        -10.341653576276684
      ],
      [
        "▁increasing",
        -10.341701838444093
      ],
      [
        "▁processe",
        -10.341804901321549
      ],
      [
        "тобой",
        -10.342500394788228
      ],
      [
        "▁Европе",
        -10.342765056675864
      ],
      [
        "officer",
        -10.343003664535
      ],
      [
        "▁Azerbaijan",
        -10.343715846714181
      ],
      [
        "▁соглашения",
        -10.344090734151642
      ],
      [
        "▁научно",
        -10.344174618866743
      ],
      [
        "▁самого",
        -10.344997813666575
      ],
      [
        "▁CD",
        -10.345436755880565
      ],
      [
        "added",
        -10.34548659317928
      ],
      [
        "▁культуры",
        -10.345678375443258
      ],
      [
        "▁Air",
        -10.346306992996501
      ],
      [
        "▁мероприятия",
        -10.346471590367296
      ],
      [
        "▁случи",
        -10.346782798718465
      ],
      [
        "▁opportunities",
        -10.347297118859995
      ],
      [
        "ду",
        -10.347895682570648
      ],
      [
        "▁бассейн",
        -10.348356624975509
      ],
      [
        "▁список",
        -10.349059579988936
      ],
      [
        "▁кроме",
        -10.349648987950905
      ],
      [
        "▁реформ",
        -10.350097798310571
      ],
      [
        "payment",
        -10.351296433556593
      ],
      [
        "▁Hello",
        -10.351826457460186
      ],
      [
        "▁fuel",
        -10.352168704839062
      ],
      [
        "Только",
        -10.3526881040073
      ],
      [
        "▁road",
        -10.35276254564852
      ],
      [
        "данного",
        -10.353514505084233
      ],
      [
        "▁commercial",
        -10.353695781303816
      ],
      [
        "▁method",
        -10.354028113633893
      ],
      [
        "▁religious",
        -10.354053860686458
      ],
      [
        "▁spend",
        -10.354115927923514
      ],
      [
        "▁комитета",
        -10.35413610673585
      ],
      [
        "ете",
        -10.354377349816861
      ],
      [
        "могут",
        -10.354382105016313
      ],
      [
        "▁видов",
        -10.354633326690589
      ],
      [
        "мероприятий",
        -10.354651947618324
      ],
      [
        "правительственны",
        -10.354715443328281
      ],
      [
        "▁collection",
        -10.354819646835669
      ],
      [
        "▁привел",
        -10.35566072125897
      ],
      [
        "▁Many",
        -10.355964681925688
      ],
      [
        "тер",
        -10.35611014667162
      ],
      [
        "ньше",
        -10.35646542057856
      ],
      [
        "ст",
        -10.358456536423748
      ],
      [
        "▁president",
        -10.358727786752853
      ],
      [
        "▁принимать",
        -10.358894341371826
      ],
      [
        "▁Германи",
        -10.359785423937494
      ],
      [
        "▁♪",
        -10.359969367687741
      ],
      [
        "чень",
        -10.360490881666387
      ],
      [
        "▁Комиссии",
        -10.360776865559247
      ],
      [
        "финансовых",
        -10.3618392589623
      ],
      [
        "▁Jesus",
        -10.36189445275242
      ],
      [
        "▁Foreign",
        -10.36190177067046
      ],
      [
        "▁рынк",
        -10.362298090223632
      ],
      [
        "▁concept",
        -10.362475993200263
      ],
      [
        "▁множество",
        -10.36259546230367
      ],
      [
        "▁color",
        -10.362619202792098
      ],
      [
        "▁явля",
        -10.362788112706225
      ],
      [
        "овые",
        -10.36310241465074
      ],
      [
        "▁министр",
        -10.36310523425851
      ],
      [
        "есьма",
        -10.363618363214973
      ],
      [
        "▁женщины",
        -10.363898583082246
      ],
      [
        "▁Day",
        -10.364271256399434
      ],
      [
        "▁Co",
        -10.364321438421221
      ],
      [
        "▁суда",
        -10.364475753440148
      ],
      [
        "▁ground",
        -10.364751366575875
      ],
      [
        "▁сектора",
        -10.365295083968439
      ],
      [
        "ka",
        -10.36584048624807
      ],
      [
        "▁пользователей",
        -10.366088129453843
      ],
      [
        "▁assets",
        -10.366330429330457
      ],
      [
        "▁Western",
        -10.366795346076183
      ],
      [
        "▁update",
        -10.367270450967693
      ],
      [
        "▁риск",
        -10.36727066782356
      ],
      [
        "▁Thank",
        -10.367457950863077
      ],
      [
        "▁direction",
        -10.367872090981678
      ],
      [
        "жа",
        -10.367948527862914
      ],
      [
        "▁desire",
        -10.368002388693611
      ],
      [
        "▁di",
        -10.36807011428257
      ],
      [
        "▁extend",
        -10.36847617833144
      ],
      [
        "▁остава",
        -10.368932355394394
      ],
      [
        "born",
        -10.369224766643677
      ],
      [
        "▁Affair",
        -10.369285451476058
      ],
      [
        "▁arriv",
        -10.369289179158157
      ],
      [
        "▁Господ",
        -10.369386622330056
      ],
      [
        "▁door",
        -10.369913824974594
      ],
      [
        "▁nor",
        -10.369936936525798
      ],
      [
        "Тогда",
        -10.370152281969764
      ],
      [
        "влияние",
        -10.37059479320534
      ],
      [
        "growing",
        -10.370777763357097
      ],
      [
        "▁Ваш",
        -10.371135075172207
      ],
      [
        "▁Потом",
        -10.371421108054726
      ],
      [
        "▁четыре",
        -10.371469920171506
      ],
      [
        "▁manage",
        -10.371674819425365
      ],
      [
        "▁вывод",
        -10.371998725915944
      ],
      [
        "▁listen",
        -10.372371854023635
      ],
      [
        "▁экономического",
        -10.37261039868959
      ],
      [
        "▁Иисус",
        -10.373805620564289
      ],
      [
        "▁Р",
        -10.374043015099573
      ],
      [
        "играть",
        -10.374481223964258
      ],
      [
        "▁Инди",
        -10.37479231038333
      ],
      [
        "▁Centre",
        -10.375282755079256
      ],
      [
        "Add",
        -10.375362830333223
      ],
      [
        "воду",
        -10.376498665983998
      ],
      [
        "▁непосредственно",
        -10.376774438598016
      ],
      [
        "▁сфер",
        -10.377062372878061
      ],
      [
        "▁Ирак",
        -10.377606464921378
      ],
      [
        "plans",
        -10.37763025718568
      ],
      [
        "▁poverty",
        -10.377696867783285
      ],
      [
        "▁Most",
        -10.377810752197686
      ],
      [
        "▁dis",
        -10.37842749209377
      ],
      [
        "▁miss",
        -10.37874920134041
      ],
      [
        "общей",
        -10.378886894662314
      ],
      [
        "ющие",
        -10.378945212226043
      ],
      [
        "▁Боле",
        -10.378960335971051
      ],
      [
        "▁расходов",
        -10.37929933958963
      ],
      [
        "▁improv",
        -10.379815153060092
      ],
      [
        "running",
        -10.38007269913277
      ],
      [
        "▁department",
        -10.380553201944798
      ],
      [
        "▁discover",
        -10.381442802997869
      ],
      [
        "▁exhibition",
        -10.38206205081975
      ],
      [
        "▁двум",
        -10.382385693874179
      ],
      [
        "▁хороши",
        -10.382569398149025
      ],
      [
        "▁Chinese",
        -10.382664048844035
      ],
      [
        "▁recognize",
        -10.38274288975335
      ],
      [
        "▁creat",
        -10.38285825820352
      ],
      [
        "знает",
        -10.384018985377432
      ],
      [
        "authority",
        -10.384299901291664
      ],
      [
        "▁государство",
        -10.38458906446351
      ],
      [
        "весь",
        -10.38486154920509
      ],
      [
        "▁automatic",
        -10.385056566981719
      ],
      [
        "▁normal",
        -10.385902337343541
      ],
      [
        "▁совет",
        -10.38590555952282
      ],
      [
        "нельзя",
        -10.386282666412551
      ],
      [
        "▁original",
        -10.38653497258341
      ],
      [
        "▁современны",
        -10.386836432888488
      ],
      [
        "▁African",
        -10.387532130717142
      ],
      [
        "▁правило",
        -10.387713302685288
      ],
      [
        "▁sales",
        -10.38797914373808
      ],
      [
        "овая",
        -10.388649522551388
      ],
      [
        "▁affect",
        -10.38898326561729
      ],
      [
        "данным",
        -10.389852884841043
      ],
      [
        "me",
        -10.390254171138936
      ],
      [
        "▁финансово",
        -10.390276693338752
      ],
      [
        "▁приложения",
        -10.390596404145423
      ],
      [
        "овой",
        -10.391198478254097
      ],
      [
        "▁осуществляет",
        -10.391244339110347
      ],
      [
        "sometime",
        -10.391361795866946
      ],
      [
        "son",
        -10.391702309759479
      ],
      [
        "▁установлен",
        -10.391997041683236
      ],
      [
        "▁работник",
        -10.392443172631033
      ],
      [
        "▁кнопку",
        -10.393127272905062
      ],
      [
        "га",
        -10.393946562618709
      ],
      [
        "AIDS",
        -10.394214709464695
      ],
      [
        "▁час",
        -10.394764721135006
      ],
      [
        "▁наук",
        -10.397682225406696
      ],
      [
        "▁indicate",
        -10.397784689356937
      ],
      [
        "▁предмет",
        -10.397848195924098
      ],
      [
        "▁Ассамблеи",
        -10.398626040383764
      ],
      [
        "▁border",
        -10.398656097203968
      ],
      [
        "▁известны",
        -10.398701262986593
      ],
      [
        "▁fair",
        -10.398999421787433
      ],
      [
        "ребенка",
        -10.399216688300436
      ],
      [
        "▁earth",
        -10.399427166692707
      ],
      [
        "▁клиентов",
        -10.400120322747322
      ],
      [
        "▁extreme",
        -10.400601053152979
      ],
      [
        "violation",
        -10.40171026764725
      ],
      [
        "▁larges",
        -10.401974975315397
      ],
      [
        "▁serve",
        -10.402742078826844
      ],
      [
        "▁независимо",
        -10.403132814494594
      ],
      [
        "▁вклад",
        -10.403145843415444
      ],
      [
        "reached",
        -10.403432613891683
      ],
      [
        "▁документа",
        -10.405381289064197
      ],
      [
        "▁предприятий",
        -10.405554333908151
      ],
      [
        "самое",
        -10.405808981284228
      ],
      [
        "▁Business",
        -10.405897345188137
      ],
      [
        "▁Грузи",
        -10.406074909234988
      ],
      [
        "▁district",
        -10.406889613187946
      ],
      [
        "▁web",
        -10.406911787805885
      ],
      [
        "▁текст",
        -10.407377353035205
      ],
      [
        "другом",
        -10.408152804336112
      ],
      [
        "▁запрос",
        -10.408702564831575
      ],
      [
        "▁proper",
        -10.408908198192462
      ],
      [
        "degree",
        -10.409971325230659
      ],
      [
        "состоянии",
        -10.410043197313525
      ],
      [
        "▁пять",
        -10.410595742234094
      ],
      [
        "▁popular",
        -10.411523075154072
      ],
      [
        "данном",
        -10.412168678222288
      ],
      [
        "▁центре",
        -10.412221967028689
      ],
      [
        "▁term",
        -10.41223859379934
      ],
      [
        "▁никаки",
        -10.412455254375255
      ],
      [
        "▁повышения",
        -10.41304836975141
      ],
      [
        "▁City",
        -10.413227812061958
      ],
      [
        "▁официально",
        -10.41347213999037
      ],
      [
        "▁события",
        -10.414078408345285
      ],
      [
        "▁структур",
        -10.414196337830369
      ],
      [
        "▁органа",
        -10.414223728152017
      ],
      [
        "▁ра",
        -10.414296215029681
      ],
      [
        "▁будущем",
        -10.414620942359896
      ],
      [
        "▁народ",
        -10.414905323803518
      ],
      [
        "смерти",
        -10.41528734377595
      ],
      [
        "▁знал",
        -10.415435142964556
      ],
      [
        "▁loss",
        -10.415487213461066
      ],
      [
        "▁Japan",
        -10.415685455267154
      ],
      [
        "▁Health",
        -10.415795806983093
      ],
      [
        "▁выбора",
        -10.415898962623592
      ],
      [
        "▁сайт",
        -10.416517235186356
      ],
      [
        "▁ошибк",
        -10.416813639490037
      ],
      [
        "▁сотрудничество",
        -10.417073117346362
      ],
      [
        "▁эффективности",
        -10.418284398145069
      ],
      [
        "▁exercise",
        -10.418479357650826
      ],
      [
        "▁SQL",
        -10.418777222220276
      ],
      [
        "бо",
        -10.418891101935687
      ],
      [
        "not",
        -10.418969109073574
      ],
      [
        "▁приходит",
        -10.41910591711362
      ],
      [
        "▁destroy",
        -10.42022491626703
      ],
      [
        "▁Any",
        -10.420273053713336
      ],
      [
        "▁программно",
        -10.420422165269324
      ],
      [
        "▁ситуация",
        -10.42044709893825
      ],
      [
        "▁поле",
        -10.420566371378547
      ],
      [
        "im",
        -10.421276462637634
      ],
      [
        "основном",
        -10.421486668986203
      ],
      [
        "happy",
        -10.421742576121455
      ],
      [
        "▁соответствующе",
        -10.421938692850482
      ],
      [
        "говорят",
        -10.421952188884967
      ],
      [
        "▁Iraq",
        -10.422212944668637
      ],
      [
        "▁Нью",
        -10.423126885430912
      ],
      [
        "▁ране",
        -10.424727542072176
      ],
      [
        "▁effort",
        -10.424836238987126
      ],
      [
        "▁story",
        -10.426591296469448
      ],
      [
        "▁компани",
        -10.428705929192382
      ],
      [
        "▁gender",
        -10.429072728682701
      ],
      [
        "▁guarantee",
        -10.42935029993748
      ],
      [
        "▁Республик",
        -10.429362138613394
      ],
      [
        "▁strategic",
        -10.429439723024622
      ],
      [
        "▁де",
        -10.429452215790056
      ],
      [
        "▁DVD",
        -10.430392918337835
      ],
      [
        "▁народа",
        -10.430457165860037
      ],
      [
        "никто",
        -10.431229778040331
      ],
      [
        "▁буд",
        -10.431338361771118
      ],
      [
        "approved",
        -10.43144291802801
      ],
      [
        "▁готовы",
        -10.431568870273143
      ],
      [
        "▁Act",
        -10.431958439015672
      ],
      [
        "базы",
        -10.43239451736013
      ],
      [
        "▁Church",
        -10.432696792913449
      ],
      [
        "ling",
        -10.432732110349148
      ],
      [
        "▁экспертов",
        -10.433062184369868
      ],
      [
        "объектов",
        -10.433598037653976
      ],
      [
        "▁Со",
        -10.433690616537431
      ],
      [
        "▁Today",
        -10.433997752747803
      ],
      [
        "▁Европейско",
        -10.43408220043327
      ],
      [
        "▁primar",
        -10.434162135691205
      ],
      [
        "▁истори",
        -10.434358481121485
      ],
      [
        "остается",
        -10.434801804559548
      ],
      [
        "ware",
        -10.434840631066658
      ],
      [
        "▁направлен",
        -10.435108559749322
      ],
      [
        "▁посредством",
        -10.435235950942076
      ],
      [
        "▁существующи",
        -10.435269250760172
      ],
      [
        "vote",
        -10.435512478598685
      ],
      [
        "▁сохранени",
        -10.435519933530404
      ],
      [
        "▁файлов",
        -10.436035758655347
      ],
      [
        "▁self",
        -10.436215233705726
      ],
      [
        "идет",
        -10.43683295560474
      ],
      [
        "▁заключает",
        -10.437062241908585
      ],
      [
        "▁cross",
        -10.4372977313006
      ],
      [
        "▁reference",
        -10.437554488859437
      ],
      [
        "▁inside",
        -10.43790511715256
      ],
      [
        "▁led",
        -10.438242989031389
      ],
      [
        "memory",
        -10.438418551963498
      ],
      [
        "Chairman",
        -10.438611673448
      ],
      [
        "▁протяжени",
        -10.438928154490656
      ],
      [
        "▁движения",
        -10.439107947281943
      ],
      [
        "▁comprehensive",
        -10.439555610179587
      ],
      [
        "▁успех",
        -10.439711058841926
      ],
      [
        "▁интерес",
        -10.440104293596441
      ],
      [
        "▁Hotel",
        -10.440807470383097
      ],
      [
        "гг",
        -10.441087243669722
      ],
      [
        "▁Executive",
        -10.441418394991821
      ],
      [
        "ich",
        -10.44158075953607
      ],
      [
        "▁рекомендации",
        -10.441663834640545
      ],
      [
        "ночь",
        -10.442399398371048
      ],
      [
        "▁dut",
        -10.442769629852053
      ],
      [
        "▁процедур",
        -10.443677301639068
      ],
      [
        "предложение",
        -10.444567784850598
      ],
      [
        "▁дети",
        -10.44502632866965
      ],
      [
        "▁author",
        -10.44586923990872
      ],
      [
        "▁Protocol",
        -10.446665182719924
      ],
      [
        "ри",
        -10.446736737307265
      ],
      [
        "▁fundamental",
        -10.446770787991031
      ],
      [
        "▁secret",
        -10.446861933120912
      ],
      [
        "▁устройства",
        -10.446905091957467
      ],
      [
        "ятся",
        -10.447331789531056
      ],
      [
        "▁write",
        -10.447418799614717
      ],
      [
        "▁пресс",
        -10.447526900309551
      ],
      [
        "▁Конечно",
        -10.447688385838246
      ],
      [
        "регистрации",
        -10.448133609924554
      ],
      [
        "▁accept",
        -10.44820971574645
      ],
      [
        "▁contribute",
        -10.448468232437227
      ],
      [
        "разработки",
        -10.448709303637846
      ],
      [
        "▁произошл",
        -10.44888191009117
      ],
      [
        "▁purchase",
        -10.448897179239035
      ],
      [
        "▁форме",
        -10.45001186434445
      ],
      [
        "▁PC",
        -10.450106826282887
      ],
      [
        "▁качество",
        -10.450156241105894
      ],
      [
        "preparation",
        -10.450586195325437
      ],
      [
        "elements",
        -10.45129430671108
      ],
      [
        "▁провел",
        -10.45162886335598
      ],
      [
        "местных",
        -10.451684797748275
      ],
      [
        "▁drink",
        -10.45234938569772
      ],
      [
        "▁relationship",
        -10.452813589327814
      ],
      [
        "Agreement",
        -10.452955839957466
      ],
      [
        "века",
        -10.453020692094878
      ],
      [
        "▁роли",
        -10.453183888190509
      ],
      [
        "▁propos",
        -10.453260357349917
      ],
      [
        "начала",
        -10.453381754498148
      ],
      [
        "▁плана",
        -10.453973401155574
      ],
      [
        "▁наде",
        -10.454595073209001
      ],
      [
        "▁Georgia",
        -10.454834005462786
      ],
      [
        "процедуры",
        -10.455072865584542
      ],
      [
        "▁сбор",
        -10.455375021523457
      ],
      [
        "цены",
        -10.45598308904493
      ],
      [
        "▁recommend",
        -10.456002483199585
      ],
      [
        "скую",
        -10.456936436926005
      ],
      [
        "▁charge",
        -10.456989080794807
      ],
      [
        "▁confirm",
        -10.457155931478592
      ],
      [
        "▁остальны",
        -10.457464525063894
      ],
      [
        "семьи",
        -10.457694588743204
      ],
      [
        "▁эффективно",
        -10.458119778226425
      ],
      [
        "▁Зна",
        -10.459112040800782
      ],
      [
        "▁agree",
        -10.45912601469739
      ],
      [
        "▁сообщение",
        -10.459355322161569
      ],
      [
        "aimed",
        -10.459482963645462
      ],
      [
        "ру",
        -10.459718694253555
      ],
      [
        "justice",
        -10.460030449600563
      ],
      [
        "правда",
        -10.460401804148544
      ],
      [
        "▁explain",
        -10.460736424745068
      ],
      [
        "▁India",
        -10.461077762275771
      ],
      [
        "ал",
        -10.461356707628811
      ],
      [
        "▁экспорт",
        -10.461419110079456
      ],
      [
        "▁doctor",
        -10.461468738600567
      ],
      [
        "сайте",
        -10.462172715454898
      ],
      [
        "▁Согласн",
        -10.46242358092288
      ],
      [
        "▁assist",
        -10.46303695373875
      ],
      [
        "insurance",
        -10.463079688622482
      ],
      [
        "▁долго",
        -10.464486337131579
      ],
      [
        "▁Иран",
        -10.464489900014442
      ],
      [
        "▁La",
        -10.464501882009124
      ],
      [
        "▁использованием",
        -10.465174045793198
      ],
      [
        "▁describe",
        -10.465494949988473
      ],
      [
        "▁debt",
        -10.465723355515564
      ],
      [
        "прошлом",
        -10.466276608872672
      ],
      [
        "▁initial",
        -10.4663318921209
      ],
      [
        "Ф",
        -10.466700251371142
      ],
      [
        "▁reduction",
        -10.466904083047766
      ],
      [
        "▁меню",
        -10.467370400007699
      ],
      [
        "▁требует",
        -10.467485567941482
      ],
      [
        "гораздо",
        -10.467523892862184
      ],
      [
        "▁cap",
        -10.468065141298464
      ],
      [
        "▁Ответ",
        -10.46841112919001
      ],
      [
        "▁контекст",
        -10.468505846489274
      ],
      [
        "ль",
        -10.46854002315254
      ],
      [
        "▁жертв",
        -10.468643916481891
      ],
      [
        "▁determine",
        -10.468660355432487
      ],
      [
        "знаете",
        -10.468822863906983
      ],
      [
        "▁external",
        -10.469742509447833
      ],
      [
        "▁политических",
        -10.470256013071205
      ],
      [
        "▁promise",
        -10.47109540055072
      ],
      [
        "▁award",
        -10.471140655239148
      ],
      [
        "▁контроль",
        -10.471352747828057
      ],
      [
        "▁наличи",
        -10.47167998558942
      ],
      [
        "▁требования",
        -10.47217793719018
      ],
      [
        "▁Christ",
        -10.472240072895207
      ],
      [
        "гостей",
        -10.472721359411974
      ],
      [
        "▁instance",
        -10.473064188572087
      ],
      [
        "первого",
        -10.47339408273236
      ],
      [
        "▁sex",
        -10.473885672727818
      ],
      [
        "▁операций",
        -10.474025621652892
      ],
      [
        "▁heat",
        -10.474555244029096
      ],
      [
        "▁обязательств",
        -10.47458492150366
      ],
      [
        "▁Iran",
        -10.474892441927317
      ],
      [
        "лицо",
        -10.475059255264453
      ],
      [
        "▁правил",
        -10.475227104583139
      ],
      [
        "▁принял",
        -10.475290462906973
      ],
      [
        "▁интереса",
        -10.475530529936778
      ],
      [
        "▁сотрудник",
        -10.475745150220105
      ],
      [
        "▁trust",
        -10.476423683773632
      ],
      [
        "▁доступны",
        -10.476555456214216
      ],
      [
        "▁climate",
        -10.476826540143083
      ],
      [
        "туда",
        -10.477821796155691
      ],
      [
        "▁национальной",
        -10.478097956844536
      ],
      [
        "▁включен",
        -10.479328132808497
      ],
      [
        "▁закона",
        -10.479506647465547
      ],
      [
        "▁Code",
        -10.479804021511491
      ],
      [
        "▁watch",
        -10.480034080955111
      ],
      [
        "▁wall",
        -10.481123859340318
      ],
      [
        "▁administrative",
        -10.481427171443361
      ],
      [
        "▁voice",
        -10.481434307969277
      ],
      [
        "видеть",
        -10.481643009736839
      ],
      [
        "▁организация",
        -10.482827322435618
      ],
      [
        "identify",
        -10.482909050767601
      ],
      [
        "▁всеми",
        -10.483072335914125
      ],
      [
        "▁distribution",
        -10.483302861237886
      ],
      [
        "▁fish",
        -10.483508094390027
      ],
      [
        "кой",
        -10.483701916448139
      ],
      [
        "changed",
        -10.483945793669369
      ],
      [
        "▁дене",
        -10.484134513822621
      ],
      [
        "▁практик",
        -10.484373394991756
      ],
      [
        "ша",
        -10.484705262919325
      ],
      [
        "▁странами",
        -10.484745170512943
      ],
      [
        "▁employees",
        -10.484901306327412
      ],
      [
        "▁link",
        -10.485270279417085
      ],
      [
        "▁курс",
        -10.485313222731989
      ],
      [
        "каким",
        -10.48588684497964
      ],
      [
        "▁модели",
        -10.485970308275053
      ],
      [
        "записи",
        -10.486051840589763
      ],
      [
        "▁одновременно",
        -10.486084407255797
      ],
      [
        "▁white",
        -10.486138819362887
      ],
      [
        "▁black",
        -10.487269287140153
      ],
      [
        "▁Президент",
        -10.48766832361935
      ],
      [
        "▁Америки",
        -10.487751561386549
      ],
      [
        "teacher",
        -10.487937500660411
      ],
      [
        "про",
        -10.488482857559658
      ],
      [
        "▁внешне",
        -10.48850010865903
      ],
      [
        "▁значения",
        -10.490018318025154
      ],
      [
        "▁обучения",
        -10.490138745675209
      ],
      [
        "▁consumer",
        -10.490896264835367
      ],
      [
        "▁подобно",
        -10.491457706984864
      ],
      [
        "▁поиск",
        -10.491582729368465
      ],
      [
        "ized",
        -10.491825393249847
      ],
      [
        "▁бюджет",
        -10.491979249445063
      ],
      [
        "▁Компания",
        -10.492088545284798
      ],
      [
        "па",
        -10.492091275606324
      ],
      [
        "▁проводить",
        -10.49209779732609
      ],
      [
        "▁finish",
        -10.492167295223538
      ],
      [
        "▁tools",
        -10.492564577519145
      ],
      [
        "▁стол",
        -10.493298413289617
      ],
      [
        "новым",
        -10.493362939791616
      ],
      [
        "▁товаров",
        -10.493933271976275
      ],
      [
        "пожалуйста",
        -10.494983670977245
      ],
      [
        "▁проверк",
        -10.495066448943748
      ],
      [
        "▁multi",
        -10.49516094077412
      ],
      [
        "▁тип",
        -10.49557156317447
      ],
      [
        "▁forest",
        -10.495945851464434
      ],
      [
        "▁полно",
        -10.496067078953075
      ],
      [
        "▁основ",
        -10.496122354813066
      ],
      [
        "indicator",
        -10.496180116163195
      ],
      [
        "изменить",
        -10.496693459495555
      ],
      [
        "▁сектор",
        -10.496976251022009
      ],
      [
        "▁suit",
        -10.497119239296335
      ],
      [
        "do",
        -10.497404148318285
      ],
      [
        "▁серьезны",
        -10.497418283470592
      ],
      [
        "▁правильно",
        -10.497853984254222
      ],
      [
        "▁Вас",
        -10.49848016915452
      ],
      [
        "▁Q",
        -10.498505693975236
      ],
      [
        "продолжать",
        -10.498871848632946
      ],
      [
        "▁Such",
        -10.498885546962027
      ],
      [
        "▁народов",
        -10.499258203686555
      ],
      [
        "▁финансирования",
        -10.499364698713988
      ],
      [
        "увидеть",
        -10.499541769443077
      ],
      [
        "▁доклада",
        -10.49992778826898
      ],
      [
        "▁generation",
        -10.500103154508542
      ],
      [
        "жды",
        -10.500129089874989
      ],
      [
        "▁Get",
        -10.500970416026957
      ],
      [
        "ча",
        -10.501187358982113
      ],
      [
        "▁частны",
        -10.50134507691903
      ],
      [
        "▁оборудование",
        -10.502041666915746
      ],
      [
        "▁cut",
        -10.502229093038418
      ],
      [
        "большое",
        -10.502439889179167
      ],
      [
        "▁educational",
        -10.502484442678703
      ],
      [
        "▁дополнительны",
        -10.50285289429381
      ],
      [
        "▁рыно",
        -10.503954834919833
      ],
      [
        "Спасибо",
        -10.504060242065913
      ],
      [
        "▁touch",
        -10.504236481818033
      ],
      [
        "▁URL",
        -10.50454243663386
      ],
      [
        "▁позволит",
        -10.50545759345587
      ],
      [
        "▁Per",
        -10.505665129687939
      ],
      [
        "saying",
        -10.505929558786564
      ],
      [
        "▁развивающихся",
        -10.506162586991307
      ],
      [
        "▁специальны",
        -10.506361424296657
      ],
      [
        "▁mode",
        -10.506459498667528
      ],
      [
        "▁возможны",
        -10.506504423945099
      ],
      [
        "▁screen",
        -10.506756880580538
      ],
      [
        "▁science",
        -10.507164713032912
      ],
      [
        "▁Нам",
        -10.507980106752633
      ],
      [
        "мер",
        -10.508090643036754
      ],
      [
        "▁news",
        -10.508830295961328
      ],
      [
        "allows",
        -10.509074047582494
      ],
      [
        "▁ten",
        -10.50946818635794
      ],
      [
        "▁фонд",
        -10.510034384231673
      ],
      [
        "▁общин",
        -10.51051442197656
      ],
      [
        "▁разделе",
        -10.510695441881692
      ],
      [
        "▁setting",
        -10.510929261282397
      ],
      [
        "▁экономической",
        -10.51113220027456
      ],
      [
        "▁intend",
        -10.511973996106091
      ],
      [
        "▁election",
        -10.512462171005563
      ],
      [
        "▁Meeting",
        -10.512484486072024
      ],
      [
        "▁периода",
        -10.512520836944347
      ],
      [
        "▁придет",
        -10.51318970373539
      ],
      [
        "▁Google",
        -10.514166441357938
      ],
      [
        "operate",
        -10.514266775429693
      ],
      [
        "отеле",
        -10.514507611872043
      ],
      [
        "easily",
        -10.514972682545887
      ],
      [
        "▁sexual",
        -10.515335500161967
      ],
      [
        "▁constant",
        -10.515457464980168
      ],
      [
        "Р",
        -10.515517464190474
      ],
      [
        "rates",
        -10.515935924321338
      ],
      [
        "▁apartment",
        -10.516000891143246
      ],
      [
        "▁Action",
        -10.516681295065933
      ],
      [
        "▁довольно",
        -10.517500541690923
      ],
      [
        "▁промышленности",
        -10.517848568521874
      ],
      [
        "▁поддерживает",
        -10.518347948981281
      ],
      [
        "▁Car",
        -10.518888048392123
      ],
      [
        "▁investigation",
        -10.518921972621458
      ],
      [
        "▁ресурсы",
        -10.519080994767958
      ],
      [
        "насилия",
        -10.519316898856426
      ],
      [
        "▁THE",
        -10.519434399574124
      ],
      [
        "▁плохо",
        -10.519452126193087
      ],
      [
        "▁regime",
        -10.520142307070316
      ],
      [
        "Многи",
        -10.520178138195256
      ],
      [
        "ась",
        -10.520370162010465
      ],
      [
        "▁schedule",
        -10.52053965902568
      ],
      [
        "▁данны",
        -10.520739005371372
      ],
      [
        "▁fill",
        -10.520788973840872
      ],
      [
        "ющих",
        -10.520943671741026
      ],
      [
        "▁partnership",
        -10.521049857240936
      ],
      [
        "▁президента",
        -10.521736479802913
      ],
      [
        "ор",
        -10.52181974050729
      ],
      [
        "▁compar",
        -10.521858136519938
      ],
      [
        "▁нужда",
        -10.522306118944122
      ],
      [
        "ent",
        -10.523251696781378
      ],
      [
        "▁собственности",
        -10.523387368245169
      ],
      [
        "▁minor",
        -10.524647424070764
      ],
      [
        "▁circumstance",
        -10.524856693648204
      ],
      [
        "▁экран",
        -10.524897749665264
      ],
      [
        "cities",
        -10.525529478706789
      ],
      [
        "▁package",
        -10.525571893795917
      ],
      [
        "▁сердце",
        -10.525749834412721
[...]
