{
  "version": "1.0",
  "truncation": null,
  "padding": null,
  "added_tokens": [
    {
      "id": 0,
      "content": "<pad>",
      "single_word": false,
      "lstrip": false,
      "rstrip": false,
      "normalized": false,
      "special": true
    },
    {
      "id": 1,
      "content": "<s>",
      "single_word": false,
      "lstrip": false,
      "rstrip": false,
      "normalized": false,
      "special": true
    },
    {
      "id": 2,
      "content": "</s>",
      "single_word": false,
      "lstrip": false,
      "rstrip": false,
      "normalized": false,
      "special": true
    },
    {
      "id": 3,
      "content": "<unk>",
      "single_word": false,
      "lstrip": false,
      "rstrip": false,
      "normalized": false,
      "special": true
    },
    {
      "id": 4,
      "content": "<2ru>",
      "single_word": false,
      "lstrip": false,
      "rstrip": false,
      "normalized": false,
      "special": true
    },
    {
      "id": 5,
      "content": "<2en>",
      "single_word": false,
      "lstrip": false,
      "rstrip": false,
      "normalized": false,
      "special": true
    }
  ],
  "normalizer": {
    "type": "NFKC"
  },
  "pre_tokenizer": {
    "type": "Sequence",
    "pretokenizers": [
      {
        "type": "Metaspace",
        "replacement": "▁",
        "prepend_scheme": "always",
        "split": true
      },
      {
        "type": "Punctuation",
        "behavior": "Isolated"
      },
      {
        "type": "Digits",
        "individual_digits": true
      }
    ]
  },
  "post_processor": {
    "type": "TemplateProcessing",
    "single": [
      {
        "SpecialToken": {
          "id": "<s>",
          "type_id": 0
        }
      },
      {
        "Sequence": {
          "id": "A",
          "type_id": 0
        }
      },
      {
        "SpecialToken": {
          "id": "</s>",
          "type_id": 0
        }
      }
    ],
    "pair": [
      {
        "Sequence": {
          "id": "A",
          "type_id": 0
        }
      },
      {
        "Sequence": {
          "id": "B",
          "type_id": 1
        }
      }
    ],
    "special_tokens": {
      "</s>": {
        "id": "</s>",
        "ids": [
          2
        ],
        "tokens": [
          "</s>"
        ]
      },
      "<s>": {
        "id": "<s>",
        "ids": [
          1
        ],
        "tokens": [
          "<s>"
        ]
      }
    }
  },
  "decoder": {
    "type": "Metaspace",
    "replacement": "▁",
    "prepend_scheme": "always",
    "split": true
  },
  "model": {
    "type": "WordPiece",
    "unk_token": "[UNK]",
    "continuing_subword_prefix": "##",
    "max_input_chars_per_word": 100,
    "vocab": {
      "<pad>": 0,
      "<s>": 1,
      "</s>": 2,
      "<unk>": 3,
      "<2ru>": 4,
      "<2en>": 5,
      "\t": 6,
      "\n": 7,
      "!": 8,
      "\"": 9,
      "#": 10,
      "%": 11,
      "&": 12,
      "'": 13,
      "(": 14,
      ")": 15,
      "*": 16,
      ",": 17,
      "-": 18,
      ".": 19,
      "/": 20,
      "0": 21,
      "1": 22,
      "2": 23,
      "3": 24,
      "4": 25,
      "5": 26,
      "6": 27,
      "7": 28,
      "8": 29,
      "9": 30,
      ":": 31,
      ";": 32,
      "<": 33,
      ">": 34,
      "?": 35,
      "@": 36,
      "A": 37,
      "B": 38,
      "C": 39,
      "D": 40,
      "E": 41,
      "F": 42,
      "G": 43,
      "H": 44,
      "I": 45,
      "J": 46,
      "K": 47,
      "L": 48,
      "M": 49,
      "N": 50,
      "O": 51,
      "P": 52,
      "Q": 53,
      "R": 54,
      "S": 55,
      "T": 56,
      "U": 57,
      "V": 58,
      "W": 59,
      "X": 60,
      "Y": 61,
      "Z": 62,
      "[": 63,
      "\\": 64,
      "]": 65,
      "_": 66,
      "a": 67,
      "b": 68,
      "c": 69,
      "d": 70,
      "e": 71,
      "f": 72,
      "g": 73,
      "h": 74,
      "i": 75,
      "j": 76,
      "k": 77,
      "l": 78,
      "m": 79,
      "n": 80,
      "o": 81,
      "p": 82,
      "q": 83,
      "r": 84,
      "s": 85,
      "t": 86,
      "u": 87,
      "v": 88,
      "w": 89,
      "x": 90,
      "y": 91,
      "z": 92,
      "{": 93,
      "}": 94,
      "¡": 95,
      "§": 96,
      "«": 97,
      "¶": 98,
      "·": 99,
      "»": 100,
      "¿": 101,
      "À": 102,
      "Á": 103,
      "Â": 104,
      "Ã": 105,
      "Ä": 106,
      "Å": 107,
      "Æ": 108,
      "Ç": 109,
      "È": 110,
      "É": 111,
      "Ê": 112,
      "Ë": 113,
      "Ì": 114,
      "Í": 115,
      "Î": 116,
      "Ï": 117,
      "Ð": 118,
      "Ñ": 119,
      "Ò": 120,
      "Ó": 121,
      "Ô": 122,
      "Õ": 123,
      "Ö": 124,
      "Ø": 125,
      "Ù": 126,
      "Ú": 127,
      "Û": 128,
      "Ü": 129,
      "Ý": 130,
      "Þ": 131,
      "ß": 132,
      "à": 133,
      "á": 134,
      "â": 135,
      "ã": 136,
      "ä": 137,
      "å": 138,
      "æ": 139,
      "ç": 140,
      "è": 141,
      "é": 142,
      "ê": 143,
      "ë": 144,
      "ì": 145,
      "í": 146,
      "î": 147,
      "ï": 148,
      "ð": 149,
      "ñ": 150,
      "ò": 151,
      "ó": 152,
      "ô": 153,
      "õ": 154,
      "ö": 155,
      "ø": 156,
      "ù": 157,
      "ú": 158,
      "û": 159,
      "ü": 160,
      "ý": 161,
      "þ": 162,
      "ÿ": 163,
      "Ā": 164,
      "ā": 165,
      "Ă": 166,
      "ă": 167,
      "Ą": 168,
      "ą": 169,
      "Ć": 170,
      "ć": 171,
      "ĉ": 172,
      "ċ": 173,
      "Č": 174,
      "č": 175,
      "Ď": 176,
      "ď": 177,
      "Đ": 178,
      "đ": 179,
      "Ē": 180,
      "ē": 181,
      "ĕ": 182,
      "Ė": 183,
      "ė": 184,
      "Ę": 185,
      "ę": 186,
      "Ě": 187,
      "ě": 188,
      "ĝ": 189,
      "Ğ": 190,
      "ğ": 191,
      "ġ": 192,
      "Ģ": 193,
      "ģ": 194,
      "Ħ": 195,
      "ĩ": 196,
      "Ī": 197,
      "ī": 198,
      "Į": 199,
      "į": 200,
      "İ": 201,
      "ı": 202,
      "Ķ": 203,
      "ķ": 204,
      "ĸ": 205,
      "Ĺ": 206,
      "ĺ": 207,
      "Ļ": 208,
      "ļ": 209,
      "Ľ": 210,
      "ľ": 211,
      "Ł": 212,
      "ł": 213,
      "Ń": 214,
      "ń": 215,
      "Ņ": 216,
      "ņ": 217,
      "Ň": 218,
      "ň": 219,
      "ŋ": 220,
      "Ō": 221,
      "ō": 222,
      "ŏ": 223,
      "Ő": 224,
      "ő": 225,
      "Œ": 226,
      "œ": 227,
      "ŕ": 228,
      "ŗ": 229,
      "Ř": 230,
      "ř": 231,
      "Ś": 232,
      "ś": 233,
      "ŝ": 234,
      "Ş": 235,
      "ş": 236,
      "Š": 237,
      "š": 238,
      "Ţ": 239,
      "ţ": 240,
      "Ť": 241,
      "ť": 242,
      "Ū": 243,
      "ū": 244,
      "ŭ": 245,
      "Ů": 246,
      "ů": 247,
      "Ű": 248,
      "ű": 249,
      "Ų": 250,
      "ų": 251,
      "ŵ": 252,
      "ŷ": 253,
      "Ÿ": 254,
      "Ź": 255,
      "ź": 256,
      "Ż": 257,
      "ż": 258,
      "Ž": 259,
      "ž": 260,
      "Ə": 261,
      "ƒ": 262,
      "ơ": 263,
      "ư": 264,
      "ǂ": 265,
      "ǎ": 266,
      "ǐ": 267,
      "ǧ": 268,
      "Ǻ": 269,
      "ȏ": 270,
      "Ș": 271,
      "ș": 272,
      "Ț": 273,
      "ț": 274,
      "ə": 275,
      "ɛ": 276,
      "ɜ": 277,
      "ʔ": 278,
      "ʕ": 279,
      "̳": 280,
      "Ё": 281,
      "Ђ": 282,
      "Ѓ": 283,
      "Є": 284,
      "Ѕ": 285,
      "І": 286,
      "Ї": 287,
      "Ј": 288,
      "Љ": 289,
      "Њ": 290,
      "Ћ": 291,
      "Ќ": 292,
      "Ў": 293,
      "Џ": 294,
      "А": 295,
      "Б": 296,
      "В": 297,
      "Г": 298,
      "Д": 299,
      "Е": 300,
      "Ж": 301,
      "З": 302,
      "И": 303,
      "Й": 304,
      "К": 305,
      "Л": 306,
      "М": 307,
      "Н": 308,
      "О": 309,
      "П": 310,
      "Р": 311,
      "С": 312,
      "Т": 313,
      "У": 314,
      "Ф": 315,
      "Х": 316,
      "Ц": 317,
      "Ч": 318,
      "Ш": 319,
      "Щ": 320,
      "Ъ": 321,
      "Ы": 322,
      "Ь": 323,
      "Э": 324,
      "Ю": 325,
      "Я": 326,
      "а": 327,
      "б": 328,
      "в": 329,
      "г": 330,
      "д": 331,
      "е": 332,
      "ж": 333,
      "з": 334,
      "и": 335,
      "й": 336,
      "к": 337,
      "л": 338,
      "м": 339,
      "н": 340,
      "о": 341,
      "п": 342,
      "р": 343,
      "с": 344,
      "т": 345,
      "у": 346,
      "ф": 347,
      "х": 348,
      "ц": 349,
      "ч": 350,
      "ш": 351,
      "щ": 352,
      "ъ": 353,
      "ы": 354,
      "ь": 355,
      "э": 356,
      "ю": 357,
      "я": 358,
      "ѐ": 359,
      "ё": 360,
      "ђ": 361,
      "ѓ": 362,
      "є": 363,
      "ѕ": 364,
      "і": 365,
      "ї": 366,
      "ј": 367,
      "љ": 368,
      "њ": 369,
      "ћ": 370,
      "ќ": 371,
      "ѝ": 372,
      "ў": 373,
      "џ": 374,
      "ѣ": 375,
      "Ѧ": 376,
      "Ѭ": 377,
      "Ѳ": 378,
      "ѳ": 379,
      "ѵ": 380,
      "҈": 381,
      "҉": 382,
      "Ҍ": 383,
      "ҍ": 384,
      "ґ": 385,
      "Ғ": 386,
      "ғ": 387,
      "Җ": 388,
      "Қ": 389,
      "қ": 390,
      "Ң": 391,
      "ң": 392,
      "Ү": 393,
      "ү": 394,
      "Ұ": 395,
      "ұ": 396,
      "Ҳ": 397,
      "ҷ": 398,
      "һ": 399,
      "Ә": 400,
      "ә": 401,
      "Ӟ": 402,
      "ӣ": 403,
      "ӥ": 404,
      "Ө": 405,
      "ө": 406,
      "ӯ": 407,
      "՛": 408,
      "՝": 409,
      "։": 410,
      "٧": 411,
      "٬": 412,
      "٭": 413,
      "ᴓ": 414,
      "ᴥ": 415,
      "ḍ": 416,
      "Ḥ": 417,
      "ḥ": 418,
      "Ḩ": 419,
      "ḩ": 420,
      "ḷ": 421,
      "ṁ": 422,
      "ṃ": 423,
      "ṅ": 424,
      "ṇ": 425,
      "Ṛ": 426,
      "ṛ": 427,
      "Ṣ": 428,
      "ṣ": 429,
      "ṧ": 430,
      "Ṭ": 431,
      "ṭ": 432,
      "ṯ": 433,
      "ẕ": 434,
      "ạ": 435,
      "ả": 436,
      "ấ": 437,
      "ẩ": 438,
      "ậ": 439,
      "ẻ": 440,
      "ế": 441,
      "ề": 442,
      "ễ": 443,
      "ệ": 444,
      "ồ": 445,
      "ộ": 446,
      "ợ": 447,
      "ứ": 448,
      "‐": 449,
      "‒": 450,
      "–": 451,
      "—": 452,
      "―": 453,
      "‖": 454,
      "‘": 455,
      "’": 456,
      "‚": 457,
      "‛": 458,
      "“": 459,
      "”": 460,
      "„": 461,
      "‟": 462,
      "†": 463,
      "‡": 464,
      "•": 465,
      "‣": 466,
      "‧": 467,
      "‰": 468,
      "′": 469,
      "‹": 470,
      "›": 471,
      "※": 472,
      "⁄": 473,
      "▁": 474,
      "❶": 475,
      "❷": 476,
      "➀": 477,
      "➁": 478,
      "➃": 479,
      "➄": 480,
      "➆": 481,
      "➊": 482,
      "➋": 483,
      "➍": 484,
      "➏": 485,
      "⟨": 486,
      "⟩": 487,
      "。": 488,
      "〇": 489,
      "〈": 490,
      "〉": 491,
      "《": 492,
      "》": 493,
      "」": 494,
      "『": 495,
      "』": 496,
      "【": 497,
      "】": 498,
      "・": 499,
      "##е": 500,
      "##х": 501,
      "##н": 502,
      "##о": 503,
      "##л": 504,
      "##г": 505,
      "##и": 506,
      "##ч": 507,
      "##с": 508,
      "##к": 509,
      "##з": 510,
      "##а": 511,
      "##р": 512,
      "##я": 513,
      "##ж": 514,
      "##L": 515,
      "##N": 516,
      "##A": 517,
      "##U": 518,
      "##K": 519,
      "##a": 520,
      "##k": 521,
      "##u": 522,
      "##l": 523,
      "##i": 524,
      "##Н": 525,
      "##Ц": 526,
      "##п": 527,
      "##в": 528,
      "##т": 529,
      "##у": 530,
      "##ю": 531,
      "##щ": 532,
      "##м": 533,
      "##ь": 534,
      "##r": 535,
      "##c": 536,
      "##e": 537,
      "##d": 538,
      "##h": 539,
      "##n": 540,
      "##С": 541,
      "##E": 542,
      "##f": 543,
      "##б": 544,
      "##p": 545,
      "##t": 546,
      "##М": 547,
      "##э": 548,
      "##д": 549,
      "##S": 550,
      "##G": 551,
      "##R": 552,
      "##b": 553,
      "##o": 554,
      "##v": 555,
      "##F": 556,
      "##m": 557,
      "##О": 558,
      "##К": 559,
      "##ц": 560,
      "##s": 561,
      "##y": 562,
      "##ф": 563,
      "##Т": 564,
      "##У": 565,
      "##\n": 566,
      "##g": 567,
      "##Y": 568,
      "##Б": 569,
      "##Щ": 570,
      "##Е": 571,
      "##Я": 572,
      "##ш": 573,
      "##ы": 574,
      "##C": 575,
      "##B": 576,
      "##З": 577,
      "##й": 578,
      "##А": 579,
      "##å": 580,
      "##z": 581,
      "##M": 582,
      "##H": 583,
      "##Л": 584,
      "##O": 585,
      "##Х": 586,
      "##P": 587,
      "##Ф": 588,
      "##ё": 589,
      "##j": 590,
      "##Ч": 591,
      "##X": 592,
      "##Z": 593,
      "##П": 594,
      "##Р": 595,
      "##Д": 596,
      "##D": 597,
      "##I": 598,
      "##Ю": 599,
      "##В": 600,
      "##И": 601,
      "##W": 602,
      "##T": 603,
      "##w": 604,
      "##V": 605,
      "##Ь": 606,
      "##í": 607,
      "##Г": 608,
      "##Й": 609,
      "##ъ": 610,
      "##x": 611,
      "##q": 612,
      "##Ш": 613,
      "##ē": 614,
      "##Ы": 615,
      "##š": 616,
      "##á": 617,
      "##ä": 618,
      "##é": 619,
      "##ł": 620,
      "##J": 621,
      "##Э": 622,
      "##ų": 623,
      "##ü": 624,
      "##Ж": 625,
      "##Q": 626,
      "##Ё": 627,
      "##è": 628,
      "##ī": 629,
      "##ö": 630,
      "##Ö": 631,
      "##ā": 632,
      "##ï": 633,
      "##ć": 634,
      "##ñ": 635,
      "##ė": 636,
      "##Š": 637,
      "##қ": 638,
      "##ţ": 639,
      "##Ć": 640,
      "##ѣ": 641,
      "##Å": 642,
      "##і": 643,
      "##ú": 644,
      "##ľ": 645,
      "##ž": 646,
      "##ż": 647,
      "##ś": 648,
      "##ę": 649,
      "##â": 650,
      "##ѳ": 651,
      "##Ā": 652,
      "##ņ": 653,
      "##ê": 654,
      "##ë": 655,
      "##Ģ": 656,
      "##Ł": 657,
      "##Ђ": 658,
      "##ū": 659,
      "##č": 660,
      "##Č": 661,
      "##ó": 662,
      "##Ü": 663,
      "##Ъ": 664,
      "##ң": 665,
      "##ź": 666,
      "##ß": 667,
      "##ұ": 668,
      "##ø": 669,
      "##ț": 670,
      "##ș": 671,
      "##ş": 672,
      "##ý": 673,
      "##ů": 674,
      "##Á": 675,
      "##ḥ": 676,
      "##ô": 677,
      "##ç": 678,
      "##É": 679,
      "##Ó": 680,
      "##ģ": 681,
      "##ṣ": 682,
      "##ṁ": 683,
      "##ә": 684,
      "##İ": 685,
      "##Ѕ": 686,
      "##ň": 687,
      "##ò": 688,
      "##Ñ": 689,
      "##ҍ": 690,
      "##ѕ": 691,
      "##ї": 692,
      "##Ķ": 693,
      "##Ä": 694,
      "##Ә": 695,
      "##þ": 696,
      "##ı": 697,
      "##ř": 698,
      "##І": 699,
      "##Ī": 700,
      "##Ž": 701,
      "##Ç": 702,
      "##ğ": 703,
      "##ì": 704,
      "##Ê": 705,
      "##ď": 706,
      "##ě": 707,
      "##є": 708,
      "##ō": 709,
      "##æ": 710,
      "##ļ": 711,
      "##ă": 712,
      "##Ř": 713,
      "##ù": 714,
      "##ķ": 715,
      "##û": 716,
      "##ү": 717,
      "##î": 718,
      "##Ø": 719,
      "##ậ": 720,
      "##Ś": 721,
      "##ő": 722,
      "##à": 723,
      "##õ": 724,
      "##ṛ": 725,
      "##ń": 726,
      "##ã": 727,
      "##Ğ": 728,
      "##Đ": 729,
      "##ө": 730,
      "##Ż": 731,
      "##ћ": 732,
      "##ə": 733,
      "##Į": 734,
      "##đ": 735,
      "##ṇ": 736,
      "##ű": 737,
      "##Ô": 738,
      "##Ș": 739,
      "##Ě": 740,
      "##Í": 741,
      "##ŭ": 742,
      "##џ": 743,
      "##Ă": 744,
      "##ӣ": 745,
      "##Â": 746,
      "##Ã": 747,
      "##ą": 748,
      "##Ѭ": 749,
      "##ќ": 750,
      "##Ý": 751,
      "##Ѧ": 752,
      "##Ө": 753,
      "##ґ": 754,
      "##Ē": 755,
      "##њ": 756,
      "##œ": 757,
      "##ċ": 758,
      "##Ғ": 759,
      "##Қ": 760,
      "##ǧ": 761,
      "##ғ": 762,
      "##ƒ": 763,
      "##Õ": 764,
      "##Ң": 765,
      "##Ү": 766,
      "##Æ": 767,
      "##Ú": 768,
      "##ǐ": 769,
      "##ѐ": 770,
      "##Ļ": 771,
      "##Ѓ": 772,
      "##ĉ": 773,
      "##Џ": 774,
      "##Ť": 775,
      "##Ț": 776,
      "##ѓ": 777,
      "##ј": 778,
      "##ṅ": 779,
      "##Є": 780,
      "##ĕ": 781,
      "##Ş": 782,
      "##љ": 783,
      "##Ň": 784,
      "##ӯ": 785,
      "##ð": 786,
      "##ў": 787,
      "##Ő": 788,
      "##Î": 789,
      "##һ": 790,
      "##Ћ": 791,
      "##ḍ": 792,
      "##ư": 793,
      "##ơ": 794,
      "##ề": 795,
      "##Ė": 796,
      "##Ű": 797,
      "##Ń": 798,
      "##Ë": 799,
      "##Ï": 800,
      "##ɜ": 801,
      "##Ұ": 802,
      "##Ţ": 803,
      "##È": 804,
      "##ǎ": 805,
      "##ђ": 806,
      "##Ѳ": 807,
      "##Ō": 808,
      "##į": 809,
      "##Ҳ": 810,
      "##Ū": 811,
      "##ĺ": 812,
      "##Ų": 813,
      "##ŝ": 814,
      "##ṭ": 815,
      "##Ę": 816,
      "##ѵ": 817,
      "##ṧ": 818,
      "##ÿ": 819,
      "##ạ": 820,
      "##Ð": 821,
      "##ѝ": 822,
      "##ǂ": 823,
      "##ế": 824,
      "##Ў": 825,
      "##ĸ": 826,
      "##Ľ": 827,
      "##Ĺ": 828,
      "##ṃ": 829,
      "##Œ": 830,
      "##Ј": 831,
      "##ȏ": 832,
      "##Ḩ": 833,
      "##ӥ": 834,
      "##À": 835,
      "##Û": 836,
      "##Ќ": 837,
      "##Ď": 838,
      "##Þ": 839,
      "##Ə": 840,
      "##ĝ": 841,
      "##Ņ": 842,
      "##ť": 843,
      "##ɛ": 844,
      "##Ṭ": 845,
      "##҉": 846,
      "##ᴓ": 847,
      "##ệ": 848,
      "##ḩ": 849,
      "##Ṛ": 850,
      "##ẩ": 851,
      "##ŕ": 852,
      "##ṯ": 853,
      "##\t": 854,
      "##Ÿ": 855,
      "##Њ": 856,
      "##ộ": 857,
      "##Ї": 858,
      "##ợ": 859,
      "##ẻ": 860,
      "##ŋ": 861,
      "##Ḥ": 862,
      "##Ҍ": 863,
      "##ồ": 864,
      "##ḷ": 865,
      "##ġ": 866,
      "##ẕ": 867,
      "##ҷ": 868,
      "##Ą": 869,
      "##Љ": 870,
      "##Ò": 871,
      "##ễ": 872,
      "##ĩ": 873,
      "##̳": 874,
      "##ŏ": 875,
      "##Ů": 876,
      "##Ź": 877,
      "##ʕ": 878,
      "##ŵ": 879,
      "##ŷ": 880,
      "##ứ": 881,
      "##ấ": 882,
      "##҈": 883,
      "##Ì": 884,
      "##Җ": 885,
      "##ŗ": 886,
      "##ả": 887,
      "▁t": 888,
      "▁a": 889,
      "##he": 890,
      "▁п": 891,
      "##ст": 892,
      "##in": 893,
      "##on": 894,
      "##ен": 895,
      "▁the": 896,
      "##re": 897,
      "▁в": 898,
      "##но": 899,
      "##ti": 900,
      "##ра": 901,
      "▁с": 902,
      "▁o": 903,
      "▁и": 904,
      "##er": 905,
      "##en": 906,
      "▁о": 907,
      "##на": 908,
      "##ро": 909,
      "##ре": 910,
      "##то": 911,
      "▁of": 912,
      "##nd": 913,
      "##ко": 914,
      "▁s": 915,
      "##es": 916,
      "##or": 917,
      "▁c": 918,
      "##ни": 919,
      "##го": 920,
      "##al": 921,
      "##tion": 922,
      "▁p": 923,
      "##ны": 924,
      "##it": 925,
      "▁по": 926,
      "##ed": 927,
      "##ени": 928,
      "▁in": 929,
      "##ль": 930,
      "▁д": 931,
      "▁w": 932,
      "##at": 933,
      "##is": 934,
      "##an": 935,
      "##ва": 936,
      "##те": 937,
      "▁and": 938,
      "##ли": 939,
      "▁f": 940,
      "##ing": 941,
      "##ar": 942,
      "▁to": 943,
      "##ри": 944,
      "##ет": 945,
      "##ци": 946,
      "▁b": 947,
      "##ou": 948,
      "▁на": 949,
      "▁м": 950,
      "##за": 951,
      "##ation": 952,
      "##во": 953,
      "##ка": 954,
      "▁m": 955,
      "##ent": 956,
      "##ro": 957,
      "▁d": 958,
      "##не": 959,
      "##ic": 960,
      "▁re": 961,
      "##ла": 962,
      "##та": 963,
      "##да": 964,
      "##le": 965,
      "##ми": 966,
      "##ти": 967,
      "##ть": 968,
      "▁у": 969,
      "▁б": 970,
      "##ле": 971,
      "##ер": 972,
      "##om": 973,
      "##ло": 974,
      "##ec": 975,
      "##ки": 976,
      "##as": 977,
      "##ви": 978,
      "▁со": 979,
      "▁ко": 980,
      "▁ч": 981,
      "##ля": 982,
      "##ес": 983,
      "▁th": 984,
      "▁ра": 985,
      "##ve": 986,
      "▁про": 987,
      "▁h": 988,
      "##ения": 989,
      "##il": 990,
      "##сти": 991,
      "▁T": 992,
      "##ру": 993,
      "##ся": 994,
      "##ных": 995,
      "▁об": 996,
      "▁S": 997,
      "##ment": 998,
      "▁n": 999,
      "▁C": 1000,
      "▁e": 1001,
      "▁A": 1002,
      "▁не": 1003,
      "##ди": 1004,
      "##st": 1005,
      "##ем": 1006,
      "##ста": 1007,
      "▁за": 1008,
      "##ce": 1009,
      "##ra": 1010,
      "##ред": 1011,
      "▁for": 1012,
      "▁I": 1013,
      "▁э": 1014,
      "##ств": 1015,
      "##ol": 1016,
      "▁до": 1017,
      "▁при": 1018,
      "##ri": 1019,
      "##мо": 1020,
      "▁on": 1021,
      "##щи": 1022,
      "##ей": 1023,
      "##тель": 1024,
      "▁pro": 1025,
      "##si": 1026,
      "##ly": 1027,
      "##ur": 1028,
      "▁be": 1029,
      "##ма": 1030,
      "##по": 1031,
      "##lo": 1032,
      "##ду": 1033,
      "▁con": 1034,
      "▁го": 1035,
      "▁от": 1036,
      "##ции": 1037,
      "##га": 1038,
      "▁ре": 1039,
      "##бо": 1040,
      "##ве": 1041,
      "##ного": 1042,
      "▁во": 1043,
      "▁а": 1044,
      "##до": 1045,
      "##et": 1046,
      "##си": 1047,
      "▁к": 1048,
      "##ной": 1049,
      "▁that": 1050,
      "▁g": 1051,
      "▁С": 1052,
      "##im": 1053,
      "▁is": 1054,
      "▁К": 1055,
      "▁В": 1056,
      "##ча": 1057,
      "##су": 1058,
      "##se": 1059,
      "##ter": 1060,
      "▁The": 1061,
      "▁P": 1062,
      "##зо": 1063,
      "##ts": 1064,
      "▁О": 1065,
      "##ver": 1066,
      "▁что": 1067,
      "##сто": 1068,
      "##со": 1069,
      "##ение": 1070,
      "▁П": 1071,
      "▁l": 1072,
      "▁M": 1073,
      "##ul": 1074,
      "##ры": 1075,
      "##ot": 1076,
      "##ith": 1077,
      "##хо": 1078,
      "##ги": 1079,
      "##де": 1080,
      "##ir": 1081,
      "##чи": 1082,
      "▁ка": 1083,
      "##id": 1084,
      "▁u": 1085,
      "##ные": 1086,
      "▁as": 1087,
      "##ac": 1088,
      "▁with": 1089,
      "##ate": 1090,
      "▁пред": 1091,
      "▁вы": 1092,
      "##лю": 1093,
      "##ig": 1094,
      "▁то": 1095,
      "##ще": 1096,
      "##ad": 1097,
      "##чес": 1098,
      "##ut": 1099,
      "##се": 1100,
      "▁it": 1101,
      "##мен": 1102,
      "##же": 1103,
      "##el": 1104,
      "▁st": 1105,
      "##вани": 1106,
      "##ity": 1107,
      "##uc": 1108,
      "##са": 1109,
      "▁ме": 1110,
      "##ме": 1111,
      "##ности": 1112,
      "##лу": 1113,
      "▁раз": 1114,
      "##па": 1115,
      "▁Н": 1116,
      "##res": 1117,
      "▁al": 1118,
      "▁R": 1119,
      "##ую": 1120,
      "##ort": 1121,
      "##ты": 1122,
      "▁y": 1123,
      "▁de": 1124,
      "▁г": 1125,
      "▁для": 1126,
      "##ab": 1127,
      "##ations": 1128,
      "##ек": 1129,
      "##стра": 1130,
      "▁та": 1131,
      "##вл": 1132,
      "##жи": 1133,
      "▁com": 1134,
      "##pp": 1135,
      "▁бы": 1136,
      "##сть": 1137,
      "▁пра": 1138,
      "▁D": 1139,
      "##ско": 1140,
      "▁мо": 1141,
      "##ers": 1142,
      "##tic": 1143,
      "##ства": 1144,
      "▁под": 1145,
      "▁те": 1146,
      "▁G": 1147,
      "##вы": 1148,
      "##um": 1149,
      "▁or": 1150,
      "##em": 1151,
      "##her": 1152,
      "##ay": 1153,
      "▁ac": 1154,
      "▁кото": 1155,
      "▁an": 1156,
      "##am": 1157,
      "▁U": 1158,
      "##ld": 1159,
      "▁by": 1160,
      "▁N": 1161,
      "##ши": 1162,
      "##пе": 1163,
      "▁ex": 1164,
      "▁из": 1165,
      "▁wh": 1166,
      "##ff": 1167,
      "▁ф": 1168,
      "##ор": 1169,
      "##ня": 1170,
      "##ство": 1171,
      "##ess": 1172,
      "▁E": 1173,
      "##qu": 1174,
      "▁е": 1175,
      "##ge": 1176,
      "##ain": 1177,
      "▁т": 1178,
      "##ку": 1179,
      "##ный": 1180,
      "▁are": 1181,
      "▁М": 1182,
      "##oun": 1183,
      "▁де": 1184,
      "##му": 1185,
      "##us": 1186,
      "▁F": 1187,
      "▁B": 1188,
      "▁это": 1189,
      "##зи": 1190,
      "▁W": 1191,
      "▁А": 1192,
      "##ere": 1193,
      "▁H": 1194,
      "##рга": 1195,
      "##ется": 1196,
      "▁ин": 1197,
      "##жа": 1198,
      "##ial": 1199,
      "##вет": 1200,
      "##ow": 1201,
      "##он": 1202,
      "##ist": 1203,
      "##od": 1204,
      "▁v": 1205,
      "##our": 1206,
      "##ют": 1207,
      "##ту": 1208,
      "▁en": 1209,
      "##op": 1210,
      "##че": 1211,
      "▁Г": 1212,
      "▁par": 1213,
      "##це": 1214,
      "##аль": 1215,
      "▁su": 1216,
      "##ря": 1217,
      "##ational": 1218,
      "##енных": 1219,
      "##oc": 1220,
      "▁кон": 1221,
      "▁at": 1222,
      "##про": 1223,
      "▁res": 1224,
      "##ill": 1225,
      "##ak": 1226,
      "▁In": 1227,
      "##ным": 1228,
      "##ud": 1229,
      "##sion": 1230,
      "▁O": 1231,
      "##тов": 1232,
      "##gh": 1233,
      "▁я": 1234,
      "##ion": 1235,
      "##об": 1236,
      "##un": 1237,
      "##стви": 1238,
      "##and": 1239,
      "##est": 1240,
      "##вер": 1241,
      "▁сво": 1242,
      "▁im": 1243,
      "##iz": 1244,
      "▁Д": 1245,
      "##гра": 1246,
      "##ров": 1247,
      "##сь": 1248,
      "##вля": 1249,
      "##ких": 1250,
      "##ющи": 1251,
      "##вать": 1252,
      "##tive": 1253,
      "##ении": 1254,
      "##ew": 1255,
      "##спо": 1256,
      "##th": 1257,
      "##te": 1258,
      "▁not": 1259,
      "##ure": 1260,
      "##rom": 1261,
      "▁стра": 1262,
      "##ore": 1263,
      "▁На": 1264,
      "##ties": 1265,
      "▁так": 1266,
      "##ргани": 1267,
      "##omm": 1268,
      "▁пе": 1269,
      "##мы": 1270,
      "##сле": 1271,
      "▁he": 1272,
      "##ан": 1273,
      "##ность": 1274,
      "##бы": 1275,
      "##тив": 1276,
      "▁Р": 1277,
      "##дер": 1278,
      "▁И": 1279,
      "▁ad": 1280,
      "▁St": 1281,
      "▁was": 1282,
      "##end": 1283,
      "▁которы": 1284,
      "##ould": 1285,
      "▁imp": 1286,
      "##ary": 1287,
      "##ций": 1288,
      "##зна": 1289,
      "▁sh": 1290,
      "##пра": 1291,
      "##if": 1292,
      "▁from": 1293,
      "▁L": 1294,
      "##жду": 1295,
      "##tern": 1296,
      "##ep": 1297,
      "▁рас": 1298,
      "##ance": 1299,
      "##дар": 1300,
      "▁все": 1301,
      "##ное": 1302,
      "##рганиза": 1303,
      "##ению": 1304,
      "▁Б": 1305,
      "##вания": 1306,
      "##она": 1307,
      "▁бо": 1308,
      "▁но": 1309,
      "▁ha": 1310,
      "##pec": 1311,
      "▁le": 1312,
      "##os": 1313,
      "▁ми": 1314,
      "▁ста": 1315,
      "##ция": 1316,
      "##ну": 1317,
      "▁its": 1318,
      "##ствен": 1319,
      "▁ag": 1320,
      "##ated": 1321,
      "▁си": 1322,
      "##ount": 1323,
      "##лен": 1324,
      "##жен": 1325,
      "▁ли": 1326,
      "##дин": 1327,
      "##ther": 1328,
      "▁inc": 1329,
      "##lop": 1330,
      "##ted": 1331,
      "##род": 1332,
      "##ork": 1333,
      "##velop": 1334,
      "▁года": 1335,
      "##rou": 1336,
      "##ния": 1337,
      "▁ch": 1338,
      "##ber": 1339,
      "▁rep": 1340,
      "▁cont": 1341,
      "##ard": 1342,
      "▁Т": 1343,
      "##ies": 1344,
      "##tions": 1345,
      "##ant": 1346,
      "##igh": 1347,
      "##orm": 1348,
      "▁или": 1349,
      "▁you": 1350,
      "▁Ко": 1351,
      "##ich": 1352,
      "##all": 1353,
      "##ven": 1354,
      "##пи": 1355,
      "▁Un": 1356,
      "▁воз": 1357,
      "##ip": 1358,
      "▁ма": 1359,
      "##ческо": 1360,
      "##lic": 1361,
      "##ном": 1362,
      "##ная": 1363,
      "▁comp": 1364,
      "##ке": 1365,
      "▁как": 1366,
      "▁пре": 1367,
      "▁me": 1368,
      "##судар": 1369,
      "##ше": 1370,
      "▁также": 1371,
      "##нов": 1372,
      "##жд": 1373,
      "##ited": 1374,
      "▁have": 1375,
      "##от": 1376,
      "##ia": 1377,
      "##ust": 1378,
      "▁между": 1379,
      "##сту": 1380,
      "##би": 1381,
      "##ren": 1382,
      "##ub": 1383,
      "▁Comm": 1384,
      "##каза": 1385,
      "##ch": 1386,
      "▁which": 1387,
      "##over": 1388,
      "##able": 1389,
      "##ap": 1390,
      "▁бу": 1391,
      "▁this": 1392,
      "▁will": 1393,
      "##gra": 1394,
      "##ments": 1395,
      "▁По": 1396,
      "##фор": 1397,
      "▁reg": 1398,
      "▁государ": 1399,
      "##form": 1400,
      "▁су": 1401,
      "##ений": 1402,
      "▁develop": 1403,
      "##ональ": 1404,
      "▁their": 1405,
      "##вя": 1406,
      "##клю": 1407,
      "##ществ": 1408,
      "##ates": 1409,
      "##един": 1410,
      "▁разви": 1411,
      "##зы": 1412,
      "▁рабо": 1413,
      "▁бе": 1414,
      "##ran": 1415,
      "▁ва": 1416,
      "##ities": 1417,
      "##ными": 1418,
      "##стоя": 1419,
      "▁Со": 1420,
      "▁all": 1421,
      "##цен": 1422,
      "##per": 1423,
      "▁це": 1424,
      "##ходи": 1425,
      "##iv": 1426,
      "##ous": 1427,
      "▁вопро": 1428,
      "##ternational": 1429,
      "▁дол": 1430,
      "▁предста": 1431,
      "##ear": 1432,
      "##ран": 1433,
      "▁Об": 1434,
      "▁ос": 1435,
      "▁че": 1436,
      "##народ": 1437,
      "##лож": 1438,
      "▁dis": 1439,
      "▁app": 1440,
      "##сси": 1441,
      "##age": 1442,
      "##ние": 1443,
      "▁Con": 1444,
      "##ван": 1445,
      "▁J": 1446,
      "##eral": 1447,
      "▁has": 1448,
      "▁we": 1449,
      "##гу": 1450,
      "▁обес": 1451,
      "##ски": 1452,
      "##циаль": 1453,
      "##ления": 1454,
      "##нима": 1455,
      "##ord": 1456,
      "▁пере": 1457,
      "##тия": 1458,
      "##ct": 1459,
      "##пу": 1460,
      "▁United": 1461,
      "##рганизации": 1462,
      "▁prov": 1463,
      "▁count": 1464,
      "▁pl": 1465,
      "▁int": 1466,
      "##чески": 1467,
      "▁per": 1468,
      "##ене": 1469,
      "##фи": 1470,
      "##кла": 1471,
      "▁Э": 1472,
      "##ost": 1473,
      "▁ни": 1474,
      "▁дру": 1475,
      "##вед": 1476,
      "▁acc": 1477,
      "▁comm": 1478,
      "▁па": 1479,
      "##ace": 1480,
      "##sid": 1481,
      "▁rec": 1482,
      "##low": 1483,
      "##жно": 1484,
      "▁У": 1485,
      "##ков": 1486,
      "##duc": 1487,
      "▁se": 1488,
      "##ную": 1489,
      "▁K": 1490,
      "##ry": 1491,
      "##ire": 1492,
      "▁ne": 1493,
      "##ress": 1494,
      "##ща": 1495,
      "▁ri": 1496,
      "##ine": 1497,
      "▁обеспе": 1498,
      "##so": 1499,
      "▁ab": 1500,
      "##дни": 1501,
      "##ice": 1502,
      "##og": 1503,
      "##ence": 1504,
      "▁pre": 1505,
      "##ды": 1506,
      "▁их": 1507,
      "##lud": 1508,
      "##ъедин": 1509,
      "▁пу": 1510,
      "##раль": 1511,
      "##руп": 1512,
      "▁k": 1513,
      "##ty": 1514,
      "##tiv": 1515,
      "##ome": 1516,
      "##ution": 1517,
      "▁sec": 1518,
      "##емы": 1519,
      "▁work": 1520,
      "▁ча": 1521,
      "##ces": 1522,
      "##nder": 1523,
      "##hen": 1524,
      "##зу": 1525,
      "##бе": 1526,
      "##коно": 1527,
      "##при": 1528,
      "▁ar": 1529,
      "##ответ": 1530,
      "▁ком": 1531,
      "##ag": 1532,
      "▁обра": 1533,
      "▁его": 1534,
      "▁other": 1535,
      "##мите": 1536,
      "▁righ": 1537,
      "##витель": 1538,
      "##лее": 1539,
      "▁man": 1540,
      "▁хо": 1541,
      "▁Е": 1542,
      "##грам": 1543,
      "##uman": 1544,
      "▁испо": 1545,
      "▁Объедин": 1546,
      "##ild": 1547,
      "##ются": 1548,
      "##erv": 1549,
      "##overn": 1550,
      "▁соответ": 1551,
      "##вой": 1552,
      "▁un": 1553,
      "##eneral": 1554,
      "##ба": 1555,
      "▁can": 1556,
      "▁обла": 1557,
      "▁которые": 1558,
      "##гла": 1559,
      "##ша": 1560,
      "##ействи": 1561,
      "##gan": 1562,
      "▁международ": 1563,
      "▁r": 1564,
      "##лове": 1565,
      "##tee": 1566,
      "▁Nations": 1567,
      "##pport": 1568,
      "▁свя": 1569,
      "▁j": 1570,
      "▁eff": 1571,
      "▁чтобы": 1572,
      "▁осу": 1573,
      "##чен": 1574,
      "▁отно": 1575,
      "▁had": 1576,
      "▁Объединенных": 1577,
      "▁Наций": 1578,
      "##ign": 1579,
      "##min": 1580,
      "▁lo": 1581,
      "##лей": 1582,
      "##ast": 1583,
      "▁pe": 1584,
      "▁з": 1585,
      "##ца": 1586,
      "▁се": 1587,
      "▁also": 1588,
      "##мот": 1589,
      "##are": 1590,
      "##мя": 1591,
      "##правл": 1592,
      "##ue": 1593,
      "▁V": 1594,
      "##нк": 1595,
      "##ble": 1596,
      "##ical": 1597,
      "##тся": 1598,
      "##ха": 1599,
      "##форма": 1600,
      "##ться": 1601,
      "##чения": 1602,
      "▁Организации": 1603,
      "##ис": 1604,
      "##льзо": 1605,
      "##ittee": 1606,
      "▁челове": 1607,
      "▁ус": 1608,
      "▁са": 1609,
      "##uch": 1610,
      "▁includ": 1611,
      "##ide": 1612,
      "##ries": 1613,
      "▁international": 1614,
      "▁were": 1615,
      "▁under": 1616,
      "##том": 1617,
      "▁pol": 1618,
      "▁been": 1619,
      "##нии": 1620,
      "##пас": 1621,
      "##бле": 1622,
      "▁явля": 1623,
      "##шения": 1624,
      "##жда": 1625,
      "##ong": 1626,
      "▁после": 1627,
      "##пол": 1628,
      "##дов": 1629,
      "##ual": 1630,
      "##сам": 1631,
      "##ющих": 1632,
      "##out": 1633,
      "##ian": 1634,
      "##ree": 1635,
      "▁слу": 1636,
      "▁ass": 1637,
      "▁осуществ": 1638,
      "##ell": 1639,
      "▁Th": 1640,
      "##ак": 1641,
      "▁лю": 1642,
      "▁Committee": 1643,
      "##мер": 1644,
      "##ult": 1645,
      "▁сек": 1646,
      "##рен": 1647,
      "##ission": 1648,
      "##пы": 1649,
      "##ской": 1650,
      "##дет": 1651,
      "▁co": 1652,
      "▁поли": 1653,
      "##жет": 1654,
      "▁ind": 1655,
      "##lement": 1656,
      "▁вре": 1657,
      "▁Ch": 1658,
      "▁tra": 1659,
      "##циональ": 1660,
      "▁фи": 1661,
      "##ech": 1662,
      "▁ве": 1663,
      "▁ис": 1664,
      "##gram": 1665,
      "##сов": 1666,
      "##di": 1667,
      "##me": 1668,
      "##вание": 1669,
      "▁информа": 1670,
      "▁As": 1671,
      "▁Sec": 1672,
      "▁зна": 1673,
      "##стро": 1674,
      "##ublic": 1675,
      "▁us": 1676,
      "##еся": 1677,
      "##ase": 1678,
      "▁приня": 1679,
      "▁програм": 1680,
      "##ric": 1681,
      "##ision": 1682,
      "##reat": 1683,
      "▁sub": 1684,
      "##сы": 1685,
      "##ganiz": 1686,
      "##тру": 1687,
      "##зво": 1688,
      "##resent": 1689,
      "##ose": 1690,
      "##ish": 1691,
      "##лы": 1692,
      "##бли": 1693,
      "##льта": 1694,
      "##li": 1695,
      "▁Кон": 1696,
      "##jec": 1697,
      "##смот": 1698,
      "▁inform": 1699,
      "##зда": 1700,
      "##ake": 1701,
      "▁States": 1702,
      "▁ро": 1703,
      "##ors": 1704,
      "##щих": 1705,
      "##цион": 1706,
      "##чение": 1707,
      "##ением": 1708,
      "##обходи": 1709,
      "▁помо": 1710,
      "##кра": 1711,
      "▁том": 1712,
      "▁сист": 1713,
      "▁partic": 1714,
      "##yst": 1715,
      "##цию": 1716,
      "##ствую": 1717,
      "##ского": 1718,
      "▁З": 1719,
      "▁поддер": 1720,
      "▁други": 1721,
      "▁Ф": 1722,
      "▁докла": 1723,
      "▁should": 1724,
      "▁exp": 1725,
      "▁It": 1726,
      "##ети": 1727,
      "▁эти": 1728,
      "##ail": 1729,
      "▁sp": 1730,
      "▁ви": 1731,
      "▁сред": 1732,
      "##tit": 1733,
      "▁боль": 1734,
      "▁report": 1735,
      "▁out": 1736,
      "##вых": 1737,
      "##onom": 1738,
      "▁сто": 1739,
      "▁dec": 1740,
      "##aw": 1741,
      "##кономи": 1742,
      "▁пер": 1743,
      "##eren": 1744,
      "##ok": 1745,
      "▁жи": 1746,
      "▁Y": 1747,
      "##трудни": 1748,
      "##гда": 1749,
      "▁development": 1750,
      "▁Pro": 1751,
      "##ystem": 1752,
      "▁сотрудни": 1753,
      "▁countries": 1754,
      "##ures": 1755,
      "▁requ": 1756,
      "▁необходи": 1757,
      "▁уча": 1758,
      "##вает": 1759,
      "##ческих": 1760,
      "##ms": 1761,
      "▁human": 1762,
      "▁пла": 1763,
      "##енераль": 1764,
      "##кой": 1765,
      "##eration": 1766,
      "▁off": 1767,
      "##сте": 1768,
      "▁year": 1769,
      "##ons": 1770,
      "▁возмо": 1771,
      "▁того": 1772,
      "##ских": 1773,
      "▁области": 1774,
      "##вен": 1775,
      "▁up": 1776,
      "##влен": 1777,
      "▁Л": 1778,
      "##anc": 1779,
      "##ach": 1780,
      "##зопас": 1781,
      "##ov": 1782,
      "▁дея": 1783,
      "▁would": 1784,
      "▁fin": 1785,
      "▁име": 1786,
      "##ret": 1787,
      "▁Генераль": 1788,
      "##соб": 1789,
      "##one": 1790,
      "▁conc": 1791,
      "▁your": 1792,
      "##overnment": 1793,
      "##ory": 1794,
      "##щей": 1795,
      "##ступ": 1796,
      "▁созда": 1797,
      "▁тех": 1798,
      "##iew": 1799,
      "##ска": 1800,
      "##pecial": 1801,
      "▁вклю": 1802,
      "▁proc": 1803,
      "##кре": 1804,
      "##логи": 1805,
      "##тельно": 1806,
      "▁сле": 1807,
      "▁more": 1808,
      "▁которо": 1809,
      "▁более": 1810,
      "##ative": 1811,
      "##act": 1812,
      "▁жен": 1813,
      "▁же": 1814,
      "##лько": 1815,
      "##ph": 1816,
      "##ating": 1817,
      "▁полити": 1818,
      "##дя": 1819,
      "▁деятель": 1820,
      "▁ob": 1821,
      "▁cons": 1822,
      "##art": 1823,
      "##rans": 1824,
      "▁such": 1825,
      "▁дан": 1826,
      "##ент": 1827,
      "▁да": 1828,
      "▁rel": 1829,
      "##ack": 1830,
      "##сили": 1831,
      "▁будет": 1832,
      "▁they": 1833,
      "▁груп": 1834,
      "##ember": 1835,
      "##пред": 1836,
      "▁rights": 1837,
      "▁there": 1838,
      "##orts": 1839,
      "▁inv": 1840,
      "##les": 1841,
      "▁права": 1842,
      "▁тре": 1843,
      "▁уров": 1844,
      "##теля": 1845,
      "##enti": 1846,
      "▁qu": 1847,
      "▁so": 1848,
      "▁долж": 1849,
      "▁system": 1850,
      "##ней": 1851,
      "▁do": 1852,
      "▁sa": 1853,
      "##roup": 1854,
      "##tical": 1855,
      "▁tim": 1856,
      "▁one": 1857,
      "##ll": 1858,
      "##ility": 1859,
      "##ight": 1860,
      "##ru": 1861,
      "▁од": 1862,
      "##ву": 1863,
      "##ular": 1864,
      "▁Комите": 1865,
      "##чая": 1866,
      "##ious": 1867,
      "##urity": 1868,
      "▁implement": 1869,
      "▁pers": 1870,
      "##тро": 1871,
      "##mb": 1872,
      "##ame": 1873,
      "##рета": 1874,
      "▁new": 1875,
      "▁need": 1876,
      "▁развития": 1877,
      "##кти": 1878,
      "##very": 1879,
      "##ft": 1880,
      "##циа": 1881,
      "▁человека": 1882,
      "▁использо": 1883,
      "##rib": 1884,
      "▁but": 1885,
      "##rop": 1886,
      "##гово": 1887,
      "▁полу": 1888,
      "▁реги": 1889,
      "▁information": 1890,
      "##шении": 1891,
      "▁право": 1892,
      "##ческой": 1893,
      "▁пот": 1894,
      "▁Ка": 1895,
      "▁his": 1896,
      "##бу": 1897,
      "##ile": 1898,
      "▁who": 1899,
      "▁program": 1900,
      "##стве": 1901,
      "##три": 1902,
      "##ounc": 1903,
      "▁проек": 1904,
      "▁support": 1905,
      "▁resol": 1906,
      "##rac": 1907,
      "##тер": 1908,
      "##преде": 1909,
      "##ev": 1910,
      "##рабо": 1911,
      "##нан": 1912,
      "▁свои": 1913,
      "##ern": 1914,
      "##omen": 1915,
      "##ession": 1916,
      "▁am": 1917,
      "▁он": 1918,
      "▁мы": 1919,
      "##ству": 1920,
      "▁женщи": 1921,
      "##ному": 1922,
      "##емо": 1923,
      "▁organiz": 1924,
      "##hed": 1925,
      "##жения": 1926,
      "##ings": 1927,
      "##лет": 1928,
      "##ond": 1929,
      "##rough": 1930,
      "##есси": 1931,
      "##vel": 1932,
      "▁any": 1933,
      "▁образо": 1934,
      "▁bet": 1935,
      "##рован": 1936,
      "##vention": 1937,
      "▁them": 1938,
      "##зопасности": 1939,
      "##лов": 1940,
      "##ade": 1941,
      "##телей": 1942,
      "##ood": 1943,
      "▁экономи": 1944,
      "▁гра": 1945,
      "##ках": 1946,
      "##лек": 1947,
      "▁serv": 1948,
      "▁ro": 1949,
      "##ke": 1950,
      "##enc": 1951,
      "##стано": 1952,
      "##седа": 1953,
      "▁Rep": 1954,
      "##ruc": 1955,
      "##ческого": 1956,
      "▁including": 1957,
      "▁Ч": 1958,
      "▁им": 1959,
      "▁осно": 1960,
      "▁является": 1961,
      "##au": 1962,
      "##ite": 1963,
      "##onomic": 1964,
      "▁сооб": 1965,
      "▁ди": 1966,
      "▁national": 1967,
      "##золю": 1968,
      "##сп": 1969,
      "##ouncil": 1970,
      "##ive": 1971,
      "▁trans": 1972,
      "▁region": 1973,
      "▁soc": 1974,
      "##фек": 1975,
      "▁следу": 1976,
      "▁согла": 1977,
      "▁националь": 1978,
      "▁прои": 1979,
      "▁может": 1980,
      "▁тем": 1981,
      "##рии": 1982,
      "##щего": 1983,
      "##ему": 1984,
      "##uring": 1985,
      "▁году": 1986,
      "▁into": 1987,
      "##вого": 1988,
      "▁время": 1989,
      "##ues": 1990,
      "▁ку": 1991,
      "##echn": 1992,
      "▁Council": 1993,
      "▁di": 1994,
      "▁ec": 1995,
      "##ater": 1996,
      "##пре": 1997,
      "##лага": 1998,
      "▁пунк": 1999,
      "▁Про": 2000,
      "##orld": 2001,
      "##ление": 2002,
      "##iti": 2003,
      "##вления": 2004,
      "##чет": 2005,
      "▁peop": 2006,
      "▁пробле": 2007,
      "▁ру": 2008,
      "##тра": 2009,
      "▁UN": 2010,
      "▁meet": 2011,
      "▁em": 2012,
      "▁всех": 2013,
      "##we": 2014,
      "##рт": 2015,
      "▁финан": 2016,
      "▁правитель": 2017,
      "##oin": 2018,
      "▁time": 2019,
      "▁We": 2020,
      "▁было": 2021,
      "##вые": 2022,
      "▁мер": 2023,
      "▁our": 2024,
      "##ффек": 2025,
      "▁conf": 2026,
      "##abl": 2027,
      "▁этой": 2028,
      "▁действи": 2029,
      "##вали": 2030,
      "▁спо": 2031,
      "##ang": 2032,
      "▁эк": 2033,
      "▁ее": 2034,
      "▁over": 2035,
      "▁cent": 2036,
      "▁no": 2037,
      "##ждения": 2038,
      "▁государства": 2039,
      "▁State": 2040,
      "▁За": 2041,
      "▁прав": 2042,
      "▁резолю": 2043,
      "▁Х": 2044,
      "##цес": 2045,
      "▁ter": 2046,
      "##ind": 2047,
      "##стран": 2048,
      "▁law": 2049,
      "▁iss": 2050,
      "##стру": 2051,
      "▁быть": 2052,
      "▁они": 2053,
      "##olog": 2054,
      "##av": 2055,
      "▁полож": 2056,
      "##ника": 2057,
      "▁again": 2058,
      "##ком": 2059,
      "▁Я": 2060,
      "##ased": 2061,
      "##ices": 2062,
      "▁цен": 2063,
      "▁provid": 2064,
      "▁Совет": 2065,
      "▁well": 2066,
      "##und": 2067,
      "▁буду": 2068,
      "▁необходимо": 2069,
      "▁child": 2070,
      "▁activ": 2071,
      "▁disc": 2072,
      "##ень": 2073,
      "▁pri": 2074,
      "##кон": 2075,
      "##шение": 2076,
      "▁consid": 2077,
      "▁пол": 2078,
      "▁use": 2079,
      "##стей": 2080,
      "##фер": 2081,
      "##оста": 2082,
      "##ark": 2083,
      "▁contin": 2084,
      "##ef": 2085,
      "##ten": 2086,
      "##рования": 2087,
      "▁объ": 2088,
      "▁представи": 2089,
      "##ass": 2090,
      "▁This": 2091,
      "▁about": 2092,
      "▁тер": 2093,
      "▁leg": 2094,
      "##ific": 2095,
      "##бря": 2096,
      "▁были": 2097,
      "##ших": 2098,
      "##ях": 2099,
      "▁возмож": 2100,
      "▁отношении": 2101,
      "▁процес": 2102,
      "▁эффек": 2103,
      "▁Ра": 2104,
      "##here": 2105,
      "##дол": 2106,
      "##ссии": 2107,
      "##ний": 2108,
      "▁Ю": 2109,
      "##lec": 2110,
      "▁защи": 2111,
      "##кры": 2112,
      "##ством": 2113,
      "▁He": 2114,
      "##get": 2115,
      "▁sc": 2116,
      "▁mon": 2117,
      "##чить": 2118,
      "▁ref": 2119,
      "##dition": 2120,
      "##hi": 2121,
      "##щения": 2122,
      "▁women": 2123,
      "##ful": 2124,
      "▁des": 2125,
      "▁through": 2126,
      "▁дости": 2127,
      "##цией": 2128,
      "▁ins": 2129,
      "##яза": 2130,
      "##рта": 2131,
      "▁effec": 2132,
      "##air": 2133,
      "▁деятельности": 2134,
      "##now": 2135,
      "##ove": 2136,
      "▁than": 2137,
      "▁li": 2138,
      "▁провед": 2139,
      "▁каче": 2140,
      "##рио": 2141,
      "##следо": 2142,
      "##тор": 2143,
      "##ural": 2144,
      "▁only": 2145,
      "##irst": 2146,
      "##old": 2147,
      "▁секрета": 2148,
      "▁inter": 2149,
      "##публи": 2150,
      "▁part": 2151,
      "##вая": 2152,
      "▁produc": 2153,
      "▁Secret": 2154,
      "▁commun": 2155,
      "##зульта": 2156,
      "▁ак": 2157,
      "▁орга": 2158,
      "▁aut": 2159,
      "##ays": 2160,
      "▁ra": 2161,
      "▁people": 2162,
      "▁соответствую": 2163,
      "##ween": 2164,
      "##лови": 2165,
      "##комен": 2166,
      "##ting": 2167,
      "▁tw": 2168,
      "▁организа": 2169,
      "##тери": 2170,
      "##стре": 2171,
      "##ствии": 2172,
      "▁est": 2173,
      "▁предоста": 2174,
      "##tec": 2175,
      "##ents": 2176,
      "▁resolution": 2177,
      "##ks": 2178,
      "▁those": 2179,
      "##ens": 2180,
      "▁cl": 2181,
      "▁опреде": 2182,
      "▁made": 2183,
      "▁Это": 2184,
      "##мента": 2185,
      "▁поддерж": 2186,
      "▁between": 2187,
      "▁связи": 2188,
      "▁обяза": 2189,
      "▁страна": 2190,
      "##прия": 2191,
      "▁стать": 2192,
      "##tain": 2193,
      "▁эффектив": 2194,
      "##лиза": 2195,
      "▁ав": 2196,
      "▁перио": 2197,
      "▁ок": 2198,
      "▁Ма": 2199,
      "▁част": 2200,
      "▁ба": 2201,
      "##води": 2202,
      "▁import": 2203,
      "##ollow": 2204,
      "▁настоя": 2205,
      "▁techn": 2206,
      "▁результа": 2207,
      "▁process": 2208,
      "▁rem": 2209,
      "▁соб": 2210,
      "##erence": 2211,
      "##ex": 2212,
      "▁Ме": 2213,
      "##ин": 2214,
      "▁ш": 2215,
      "##пециаль": 2216,
      "▁был": 2217,
      "▁resp": 2218,
      "▁num": 2219,
      "▁Af": 2220,
      "##ден": 2221,
      "##rin": 2222,
      "##red": 2223,
      "##als": 2224,
      "##ussi": 2225,
      "▁этого": 2226,
      "##действи": 2227,
      "##ью": 2228,
      "▁стран": 2229,
      "##тере": 2230,
      "##рения": 2231,
      "▁ev": 2232,
      "##semb": 2233,
      "▁рекомен": 2234,
      "##чных": 2235,
      "▁могу": 2236,
      "▁these": 2237,
      "##торы": 2238,
      "##ору": 2239,
      "▁establ": 2240,
      "##utions": 2241,
      "▁may": 2242,
      "▁сотрудниче": 2243,
      "##ris": 2244,
      "▁вс": 2245,
      "▁bec": 2246,
      "▁подго": 2247,
      "##ровать": 2248,
      "##ром": 2249,
      "▁years": 2250,
      "▁основ": 2251,
      "▁ле": 2252,
      "▁concern": 2253,
      "##тей": 2254,
      "##mit": 2255,
      "▁some": 2256,
      "##твер": 2257,
      "▁уч": 2258,
      "##ered": 2259,
      "##ans": 2260,
      "▁сторо": 2261,
      "▁An": 2262,
      "▁incre": 2263,
      "▁каса": 2264,
      "▁op": 2265,
      "▁женщин": 2266,
      "##ally": 2267,
      "##кие": 2268,
      "▁рассмот": 2269,
      "▁ens": 2270,
      "▁meas": 2271,
      "▁add": 2272,
      "##мина": 2273,
      "##sembly": 2274,
      "▁cap": 2275,
      "▁against": 2276,
      "##cc": 2277,
      "##щие": 2278,
      "##мени": 2279,
      "▁det": 2280,
      "▁вопросам": 2281,
      "##graph": 2282,
      "##пера": 2283,
      "▁polic": 2284,
      "##держа": 2285,
      "▁Ас": 2286,
      "##ев": 2287,
      "##ound": 2288,
      "▁усили": 2289,
      "##енно": 2290,
      "▁particular": 2291,
      "##gy": 2292,
      "##лись": 2293,
      "##fore": 2294,
      "▁важ": 2295,
      "▁зая": 2296,
      "▁социаль": 2297,
      "##ский": 2298,
      "▁рам": 2299,
      "▁обще": 2300,
      "▁General": 2301,
      "##vers": 2302,
      "##ale": 2303,
      "▁который": 2304,
      "▁только": 2305,
      "##eg": 2306,
      "▁Russi": 2307,
      "##нер": 2308,
      "▁Ad": 2309,
      "▁session": 2310,
      "▁Commission": 2311,
      "##der": 2312,
      "▁сер": 2313,
      "▁Convention": 2314,
      "▁соответствии": 2315,
      "##лях": 2316,
      "##ферен": 2317,
      "##дом": 2318,
      "▁гражда": 2319,
      "▁разрабо": 2320,
      "##ommend": 2321,
      "▁On": 2322,
      "##тя": 2323,
      "##лось": 2324,
      "▁Assembly": 2325,
      "▁follow": 2326,
      "▁доку": 2327,
      "##нет": 2328,
      "▁До": 2329,
      "##lear": 2330,
      "▁Par": 2331,
      "##сур": 2332,
      "##хи": 2333,
      "▁произво": 2334,
      "▁Ш": 2335,
      "##ник": 2336,
      "▁фор": 2337,
      "▁dra": 2338,
      "▁activities": 2339,
      "▁prom": 2340,
      "▁тран": 2341,
      "▁level": 2342,
      "▁член": 2343,
      "##ffic": 2344,
      "▁выпол": 2345,
      "##ari": 2346,
      "▁соста": 2347,
      "##pos": 2348,
      "##чно": 2349,
      "##ality": 2350,
      "▁set": 2351,
      "▁государств": 2352,
      "##лан": 2353,
      "▁implementation": 2354,
      "▁Пред": 2355,
      "##лся": 2356,
      "▁vi": 2357,
      "##ческие": 2358,
      "##hip": 2359,
      "▁ресур": 2360,
      "▁country": 2361,
      "##hor": 2362,
      "▁oper": 2363,
      "##ized": 2364,
      "##дей": 2365,
      "▁продол": 2366,
      "▁сесси": 2367,
      "▁form": 2368,
      "▁могут": 2369,
      "##ards": 2370,
      "##ностью": 2371,
      "##луч": 2372,
      "▁Government": 2373,
      "##sible": 2374,
      "▁этом": 2375,
      "##ration": 2376,
      "##rimin": 2377,
      "##вори": 2378,
      "##amp": 2379,
      "▁Ц": 2380,
      "▁coop": 2381,
      "▁Ar": 2382,
      "##man": 2383,
      "▁Во": 2384,
      "▁ful": 2385,
      "##вро": 2386,
      "##tives": 2387,
      "▁protec": 2388,
      "▁Ро": 2389,
      "▁Ассам": 2390,
      "▁if": 2391,
      "##зад": 2392,
      "▁учре": 2393,
      "##нитель": 2394,
      "▁recommend": 2395,
      "▁связа": 2396,
      "##leg": 2397,
      "##ied": 2398,
      "##тельства": 2399,
      "▁назад": 2400,
      "##rit": 2401,
      "▁ago": 2402,
      "▁преду": 2403,
      "##ism": 2404,
      "▁управл": 2405,
      "##ources": 2406,
      "##шей": 2407,
      "##bers": 2408,
      "##lect": 2409,
      "▁For": 2410,
      "▁Dec": 2411,
      "▁примен": 2412,
      "##част": 2413,
      "▁безопасности": 2414,
      "▁других": 2415,
      "▁Комитет": 2416,
      "##если": 2417,
      "▁tak": 2418,
      "##щее": 2419,
      "##ticle": 2420,
      "##еспубли": 2421,
      "##струк": 2422,
      "▁если": 2423,
      "##казы": 2424,
      "▁целях": 2425,
      "##ys": 2426,
      "▁услови": 2427,
      "▁рамках": 2428,
      "▁two": 2429,
      "▁main": 2430,
      "▁му": 2431,
      "##rate": 2432,
      "##mes": 2433,
      "▁when": 2434,
      "##sive": 2435,
      "▁случа": 2436,
      "▁De": 2437,
      "▁know": 2438,
      "▁Не": 2439,
      "▁public": 2440,
      "▁тор": 2441,
      "▁Republic": 2442,
      "##alth": 2443,
      "▁Республи": 2444,
      "▁number": 2445,
      "##rent": 2446,
      "▁должны": 2447,
      "▁peace": 2448,
      "##нию": 2449,
      "▁first": 2450,
      "▁rev": 2451,
      "##сли": 2452,
      "▁жиз": 2453,
      "▁equ": 2454,
      "▁group": 2455,
      "General": 2456,
      "▁чи": 2457,
      "▁Бо": 2458,
      "##iron": 2459,
      "▁most": 2460,
      "▁exper": 2461,
      "▁над": 2462,
      "▁Вы": 2463,
      "▁Pre": 2464,
      "##ob": 2465,
      "##its": 2466,
      "▁комп": 2467,
      "▁loc": 2468,
      "##ющихся": 2469,
      "▁тру": 2470,
      "▁require": 2471,
      "##ject": 2472,
      "▁когда": 2473,
      "##ющие": 2474,
      "##wn": 2475,
      "##пла": 2476,
      "▁particip": 2477,
      "▁ответ": 2478,
      "##ters": 2479,
      "##лаго": 2480,
      "▁represent": 2481,
      "▁пос": 2482,
      "▁высо": 2483,
      "▁ed": 2484,
      "▁Ex": 2485,
      "▁Secretary": 2486,
      "▁world": 2487,
      "▁работы": 2488,
      "▁участи": 2489,
      "▁призна": 2490,
      "▁разли": 2491,
      "##stan": 2492,
      "##agement": 2493,
      "▁children": 2494,
      "▁резолюции": 2495,
      "##дь": 2496,
      "▁assist": 2497,
      "▁sit": 2498,
      "▁Бе": 2499,
      "▁вне": 2500,
      "▁При": 2501,
      "▁viol": 2502,
      "##тели": 2503,
      "▁financ": 2504,
      "##тора": 2505,
      "##ющей": 2506,
      "▁International": 2507,
      "##ников": 2508,
      "##ute": 2509,
      "▁could": 2510,
      "▁пи": 2511,
      "▁обеспечения": 2512,
      "▁economic": 2513,
      "##viron": 2514,
      "▁col": 2515,
      "##ар": 2516,
      "##ning": 2517,
      "##ены": 2518,
      "▁po": 2519,
      "▁системы": 2520,
      "##pt": 2521,
      "##лом": 2522,
      "##arm": 2523,
      "##вести": 2524,
      "▁лиц": 2525,
      "##сма": 2526,
      "▁Eu": 2527,
      "▁security": 2528,
      "##гов": 2529,
      "##ilit": 2530,
      "▁включая": 2531,
      "##fic": 2532,
      "▁right": 2533,
      "▁га": 2534,
      "##хра": 2535,
      "▁само": 2536,
      "▁pos": 2537,
      "▁mem": 2538,
      "##сно": 2539,
      "▁послед": 2540,
      "▁gu": 2541,
      "▁adop": 2542,
      "▁граждан": 2543,
      "▁measures": 2544,
      "##кого": 2545,
      "##vironment": 2546,
      "▁high": 2547,
      "▁направл": 2548,
      "##цев": 2549,
      "##венции": 2550,
      "##креп": 2551,
      "##az": 2552,
      "▁para": 2553,
      "##led": 2554,
      "##urther": 2555,
      "##бой": 2556,
      "##рез": 2557,
      "▁развити": 2558,
      "##сматри": 2559,
      "▁av": 2560,
      "##ise": 2561,
      "▁go": 2562,
      "▁min": 2563,
      "▁fac": 2564,
      "▁inst": 2565,
      "▁систем": 2566,
      "##стой": 2567,
      "▁потре": 2568,
      "▁author": 2569,
      "##шь": 2570,
      "▁страны": 2571,
      "▁present": 2572,
      "##вление": 2573,
      "##ез": 2574,
      "▁order": 2575,
      "▁must": 2576,
      "##uild": 2577,
      "▁оказа": 2578,
      "▁Is": 2579,
      "##унк": 2580,
      "▁respon": 2581,
      "##ходя": 2582,
      "▁гла": 2583,
      "▁доклад": 2584,
      "##de": 2585,
      "##ety": 2586,
      "##uation": 2587,
      "▁Wh": 2588,
      "##king": 2589,
      "##iod": 2590,
      "##ished": 2591,
      "▁social": 2592,
      "▁Conf": 2593,
      "##ges": 2594,
      "▁сов": 2595,
      "▁деле": 2596,
      "▁опера": 2597,
      "▁att": 2598,
      "▁Но": 2599,
      "▁Мо": 2600,
      "##oth": 2601,
      "▁практи": 2602,
      "##зя": 2603,
      "##рак": 2604,
      "##вить": 2605,
      "▁regard": 2606,
      "▁Mr": 2607,
      "▁этих": 2608,
      "##ati": 2609,
      "▁person": 2610,
      "##теги": 2611,
      "▁Мы": 2612,
      "▁внима": 2613,
      "##ency": 2614,
      "▁Al": 2615,
      "▁нача": 2616,
      "▁cooperation": 2617,
      "##вод": 2618,
      "##нения": 2619,
      "▁said": 2620,
      "##ough": 2621,
      "##рая": 2622,
      "##irect": 2623,
      "▁которых": 2624,
      "##rope": 2625,
      "▁неза": 2626,
      "▁met": 2627,
      "▁оста": 2628,
      "##land": 2629,
      "▁лет": 2630,
      "##ever": 2631,
      "▁позво": 2632,
      "▁appro": 2633,
      "▁my": 2634,
      "▁руко": 2635,
      "▁where": 2636,
      "##дела": 2637,
      "▁decision": 2638,
      "▁organizations": 2639,
      "##ена": 2640,
      "▁состоя": 2641,
      "##реди": 2642,
      "▁provide": 2643,
      "▁помощи": 2644,
      "▁можно": 2645,
      "##тки": 2646,
      "▁plan": 2647,
      "##sel": 2648,
      "▁mod": 2649,
      "▁измен": 2650,
      "▁услу": 2651,
      "##той": 2652,
      "##hem": 2653,
      "▁без": 2654,
      "##itical": 2655,
      "▁прин": 2656,
      "##ining": 2657,
      "▁Ассамбле": 2658,
      "##ские": 2659,
      "▁take": 2660,
      "##шо": 2661,
      "##рон": 2662,
      "▁sign": 2663,
      "▁state": 2664,
      "##ким": 2665,
      "▁сессии": 2666,
      "▁cre": 2667,
      "##ваться": 2668,
      "##ner": 2669,
      "##слу": 2670,
      "▁You": 2671,
      "▁efforts": 2672,
      "▁мира": 2673,
      "▁meeting": 2674,
      "▁дву": 2675,
      "▁special": 2676,
      "##кая": 2677,
      "▁насе": 2678,
      "▁cur": 2679,
      "▁ensure": 2680,
      "▁Europe": 2681,
      "##round": 2682,
      "##ability": 2683,
      "##row": 2684,
      "##loy": 2685,
      "▁address": 2686,
      "▁повы": 2687,
      "▁Коми": 2688,
      "##шений": 2689,
      "▁spec": 2690,
      "##ститу": 2691,
      "##нг": 2692,
      "▁дис": 2693,
      "▁заклю": 2694,
      "##нами": 2695,
      "##ская": 2696,
      "▁pur": 2697,
      "▁своей": 2698,
      "▁связан": 2699,
      "▁how": 2700,
      "##ights": 2701,
      "##меча": 2702,
      "##кан": 2703,
      "▁много": 2704,
      "▁информации": 2705,
      "##ved": 2706,
      "▁будут": 2707,
      "▁оцен": 2708,
      "▁ты": 2709,
      "▁services": 2710,
      "##лась": 2711,
      "▁educ": 2712,
      "##вест": 2713,
      "▁rele": 2714,
      "▁содержа": 2715,
      "▁чис": 2716,
      "▁many": 2717,
      "##bal": 2718,
      "##рова": 2719,
      "##ction": 2720,
      "▁accord": 2721,
      "##дель": 2722,
      "▁doc": 2723,
      "▁дела": 2724,
      "▁At": 2725,
      "▁Ин": 2726,
      "▁Го": 2727,
      "##pl": 2728,
      "##ata": 2729,
      "##ов": 2730,
      "▁impro": 2731,
      "##rol": 2732,
      "▁And": 2733,
      "▁non": 2734,
      "##грани": 2735,
      "▁финансо": 2736,
      "##ization": 2737,
      "##oint": 2738,
      "▁period": 2739,
      "##шего": 2740,
      "##ур": 2741,
      "▁способ": 2742,
      "##ремен": 2743,
      "▁shall": 2744,
      "##нут": 2745,
      "▁Min": 2746,
      "##тий": 2747,
      "▁помощ": 2748,
      "##фри": 2749,
      "▁car": 2750,
      "▁принци": 2751,
      "▁dep": 2752,
      "##цы": 2753,
      "▁view": 2754,
      "##ince": 2755,
      "▁ph": 2756,
      "##виси": 2757,
      "##емых": 2758,
      "##ause": 2759,
      "##вра": 2760,
      "##urn": 2761,
      "▁была": 2762,
      "##ote": 2763,
      "▁стратеги": 2764,
      "##тных": 2765,
      "##ванию": 2766,
      "##которы": 2767,
      "▁ent": 2768,
      "##чита": 2769,
      "▁выра": 2770,
      "##вается": 2771,
      "▁ию": 2772,
      "##aff": 2773,
      "##кую": 2774,
      "▁ser": 2775,
      "▁like": 2776,
      "▁которая": 2777,
      "##ибо": 2778,
      "▁ад": 2779,
      "▁bas": 2780,
      "▁бор": 2781,
      "▁комите": 2782,
      "##вый": 2783,
      "▁Все": 2784,
      "▁members": 2785,
      "▁dem": 2786,
      "##vant": 2787,
      "##ife": 2788,
      "##ряд": 2789,
      "##ступа": 2790,
      "▁Ми": 2791,
      "▁resources": 2792,
      "▁принима": 2793,
      "▁within": 2794,
      "▁Та": 2795,
      "▁during": 2796,
      "▁Afric": 2797,
      "▁качестве": 2798,
      "▁чем": 2799,
      "▁меры": 2800,
      "▁От": 2801,
      "▁детей": 2802,
      "##ено": 2803,
      "##ral": 2804,
      "▁подготов": 2805,
      "##год": 2806,
      "##сульта": 2807,
      "▁Совета": 2808,
      "▁уче": 2809,
      "##ange": 2810,
      "##ily": 2811,
      "▁ю": 2812,
      "▁контро": 2813,
      "▁issues": 2814,
      "##ума": 2815,
      "▁Develop": 2816,
      "##ower": 2817,
      "##бя": 2818,
      "##вляет": 2819,
      "▁бес": 2820,
      "##ines": 2821,
      "▁Ва": 2822,
      "##ход": 2823,
      "##med": 2824,
      "##ствовать": 2825,
      "▁особ": 2826,
      "##сколь": 2827,
      "▁Он": 2828,
      "##бра": 2829,
      "▁образом": 2830,
      "##нее": 2831,
      "▁фак": 2832,
      "##имо": 2833,
      "##lobal": 2834,
      "##ОН": 2835,
      "##tice": 2836,
      "##ases": 2837,
      "▁prev": 2838,
      "▁ext": 2839,
      "##жение": 2840,
      "##тому": 2841,
      "▁what": 2842,
      "▁fe": 2843,
      "##нако": 2844,
      "##lu": 2845,
      "▁совер": 2846,
      "##ption": 2847,
      "##вели": 2848,
      "##ss": 2849,
      "▁реа": 2850,
      "▁частности": 2851,
      "▁ры": 2852,
      "▁она": 2853,
      "##гре": 2854,
      "▁ана": 2855,
      "▁ж": 2856,
      "##pect": 2857,
      "▁мас": 2858,
      "▁financial": 2859,
      "▁health": 2860,
      "▁fund": 2861,
      "##ждународ": 2862,
      "##ina": 2863,
      "▁уровне": 2864,
      "▁региональ": 2865,
      "##чной": 2866,
      "##рь": 2867,
      "##тори": 2868,
      "##sident": 2869,
      "▁draft": 2870,
      "▁regional": 2871,
      "▁вос": 2872,
      "▁работа": 2873,
      "##reng": 2874,
      "▁говори": 2875,
      "▁борь": 2876,
      "##yp": 2877,
      "##мент": 2878,
      "##ulation": 2879,
      "▁te": 2880,
      "##фе": 2881,
      "##ug": 2882,
      "▁En": 2883,
      "▁prac": 2884,
      "##ями": 2885,
      "▁paragraph": 2886,
      "▁цель": 2887,
      "▁еще": 2888,
      "##ination": 2889,
      "▁end": 2890,
      "▁допол": 2891,
      "▁исто": 2892,
      "▁рай": 2893,
      "▁Or": 2894,
      "▁environment": 2895,
      "##ivil": 2896,
      "##arch": 2897,
      "▁свобо": 2898,
      "▁компа": 2899,
      "участ": 2900,
      "##orn": 2901,
      "▁интере": 2902,
      "▁af": 2903,
      "▁make": 2904,
      "##ружи": 2905,
      "▁Евро": 2906,
      "##лению": 2907,
      "▁матери": 2908,
      "▁provision": 2909,
      "##go": 2910,
      "▁def": 2911,
      "▁instit": 2912,
      "▁вер": 2913,
      "▁her": 2914,
      "##дук": 2915,
      "##ix": 2916,
      "▁diff": 2917,
      "##ath": 2918,
      "▁эксп": 2919,
      "▁техни": 2920,
      "##хран": 2921,
      "##вании": 2922,
      "▁addition": 2923,
      "▁укреп": 2924,
      "▁effective": 2925,
      "▁мно": 2926,
      "▁prin": 2927,
      "▁Group": 2928,
      "▁access": 2929,
      "▁устано": 2930,
      "##til": 2931,
      "▁call": 2932,
      "▁party": 2933,
      "##читель": 2934,
      "##tor": 2935,
      "##низ": 2936,
      "##писа": 2937,
      "##ize": 2938,
      "▁ann": 2939,
      "##eld": 2940,
      "##ages": 2941,
      "▁Конвенции": 2942,
      "▁продолжа": 2943,
      "##вают": 2944,
      "▁кор": 2945,
      "##мини": 2946,
      "▁осуществления": 2947,
      "##ям": 2948,
      "▁программы": 2949,
      "▁further": 2950,
      "▁период": 2951,
      "▁sm": 2952,
      "▁Международ": 2953,
      "##own": 2954,
      "▁mark": 2955,
      "##йте": 2956,
      "▁important": 2957,
      "##ivers": 2958,
      "▁преступ": 2959,
      "▁political": 2960,
      "▁чет": 2961,
      "##teg": 2962,
      "▁ЮН": 2963,
      "##ving": 2964,
      "▁med": 2965,
      "##нологи": 2966,
      "##atives": 2967,
      "▁кра": 2968,
      "##роме": 2969,
      "▁прави": 2970,
      "▁docu": 2971,
      "▁Security": 2972,
      "▁achi": 2973,
      "▁being": 2974,
      "▁би": 2975,
      "▁avail": 2976,
      "##gin": 2977,
      "##reed": 2978,
      "##aj": 2979,
      "▁lead": 2980,
      "▁основе": 2981,
      "▁заседа": 2982,
      "▁article": 2983,
      "▁сем": 2984,
      "▁зада": 2985,
      "##ecess": 2986,
      "▁год": 2987,
      "▁программ": 2988,
      "▁comple": 2989,
      "▁fore": 2990,
      "##сут": 2991,
      "▁provided": 2992,
      "▁вла": 2993,
      "▁inf": 2994,
      "##cip": 2995,
      "▁rece": 2996,
      "##чные": 2997,
      "##ium": 2998,
      "▁stand": 2999,
      "▁откры": 3000,
      "▁management": 3001,
      "▁Генерального": 3002,
      "▁him": 3003,
      "##структу": 3004,
      "▁used": 3005,
      "##ilities": 3006,
      "▁ши": 3007,
      "▁следует": 3008,
      "##вши": 3009,
      "▁month": 3010,
      "##лизации": 3011,
      "▁потен": 3012,
      "▁developing": 3013,
      "▁held": 3014,
      "##сс": 3015,
      "▁должно": 3016,
      "▁показа": 3017,
      "▁every": 3018,
      "▁свое": 3019,
      "▁commit": 3020,
      "▁see": 3021,
      "▁areas": 3022,
      "▁streng": 3023,
      "##sition": 3024,
      "##mer": 3025,
      "▁data": 3026,
      "##hes": 3027,
      "▁propos": 3028,
      "▁кли": 3029,
      "▁very": 3030,
      "▁мест": 3031,
      "##ruct": 3032,
      "##sib": 3033,
      "▁решения": 3034,
      "▁great": 3035,
      "##льту": 3036,
      "▁Генеральной": 3037,
      "▁Conference": 3038,
      "##торо": 3039,
      "##ющим": 3040,
      "##енные": 3041,
      "▁осуществля": 3042,
      "▁To": 3043,
      "▁законо": 3044,
      "▁mat": 3045,
      "##up": 3046,
      "▁sol": 3047,
      "▁Man": 3048,
      "▁Па": 3049,
      "▁благо": 3050,
      "▁same": 3051,
      "▁assistance": 3052,
      "▁cour": 3053,
      "##щение": 3054,
      "▁prep": 3055,
      "▁данных": 3056,
      "▁Если": 3057,
      "▁ха": 3058,
      "▁Ки": 3059,
      "▁after": 3060,
      "##ants": 3061,
      "##minist": 3062,
      "▁рекоменда": 3063,
      "▁review": 3064,
      "▁своих": 3065,
      "▁секретаря": 3066,
      "▁bod": 3067,
      "##iness": 3068,
      "▁both": 3069,
      "▁удо": 3070,
      "▁fact": 3071,
      "▁account": 3072,
      "▁hel": 3073,
      "##дели": 3074,
      "▁contrib": 3075,
      "▁таких": 3076,
      "▁Development": 3077,
      "▁How": 3078,
      "▁меха": 3079,
      "▁уже": 3080,
      "##ложи": 3081,
      "▁stud": 3082,
      "##ared": 3083,
      "##ят": 3084,
      "▁бю": 3085,
      "##ге": 3086,
      "▁programme": 3087,
      "▁Rights": 3088,
      "▁нару": 3089,
      "##сса": 3090,
      "▁расши": 3091,
      "##mp": 3092,
      "##ield": 3093,
      "▁Co": 3094,
      "▁proble": 3095,
      "##веща": 3096,
      "##icial": 3097,
      "▁терри": 3098,
      "##чер": 3099,
      "▁уровня": 3100,
      "##спек": 3101,
      "▁положения": 3102,
      "▁функ": 3103,
      "▁long": 3104,
      "##then": 3105,
      "##ственной": 3106,
      "##aking": 3107,
      "##ness": 3108,
      "▁меся": 3109,
      "▁некоторы": 3110,
      "▁necess": 3111,
      "▁авто": 3112,
      "##ology": 3113,
      "##став": 3114,
      "##ческий": 3115,
      "▁capac": 3116,
      "##есь": 3117,
      "▁policy": 3118,
      "▁наро": 3119,
      "▁распро": 3120,
      "▁aw": 3121,
      "##omes": 3122,
      "##тем": 3123,
      "▁процен": 3124,
      "▁help": 3125,
      "▁establish": 3126,
      "▁дня": 3127,
      "##ained": 3128,
      "▁good": 3129,
      "▁dist": 3130,
      "##орди": 3131,
      "##чень": 3132,
      "##eve": 3133,
      "▁обеспечи": 3134,
      "▁current": 3135,
      "▁before": 3136,
      "##шин": 3137,
      "##sh": 3138,
      "▁потреб": 3139,
      "▁Russian": 3140,
      "##xt": 3141,
      "▁bo": 3142,
      "▁If": 3143,
      "##ай": 3144,
      "##раз": 3145,
      "▁числе": 3146,
      "##ложен": 3147,
      "▁Z": 3148,
      "##лоб": 3149,
      "▁own": 3150,
      "▁request": 3151,
      "▁оружи": 3152,
      "▁following": 3153,
      "##рение": 3154,
      "##стойчи": 3155,
      "▁уни": 3156,
      "▁управления": 3157,
      "##рти": 3158,
      "▁Special": 3159,
      "▁II": 3160,
      "##tim": 3161,
      "##ском": 3162,
      "▁place": 3163,
      "##щая": 3164,
      "##erest": 3165,
      "##ссий": 3166,
      "##мет": 3167,
      "▁education": 3168,
      "##вым": 3169,
      "##ential": 3170,
      "##гро": 3171,
      "▁свою": 3172,
      "▁внимание": 3173,
      "##нист": 3174,
      "▁действий": 3175,
      "##omp": 3176,
      "▁существ": 3177,
      "##ствует": 3178,
      "##тах": 3179,
      "▁es": 3180,
      "▁strate": 3181,
      "##мых": 3182,
      "##мети": 3183,
      "▁There": 3184,
      "▁Cent": 3185,
      "▁aff": 3186,
      "▁сдела": 3187,
      "##мати": 3188,
      "▁международного": 3189,
      "▁возможно": 3190,
      "##риа": 3191,
      "##ience": 3192,
      "▁эта": 3193,
      "▁applic": 3194,
      "##него": 3195,
      "▁законода": 3196,
      "▁legal": 3197,
      "##цеду": 3198,
      "▁Human": 3199,
      "##port": 3200,
      "▁protection": 3201,
      "▁механиз": 3202,
      "##тами": 3203,
      "##gress": 3204,
      "▁торгов": 3205,
      "▁конкре": 3206,
      "▁против": 3207,
      "##оне": 3208,
      "##uclear": 3209,
      "▁Ind": 3210,
      "▁adv": 3211,
      "▁supp": 3212,
      "##uilding": 3213,
      "▁организации": 3214,
      "▁догово": 3215,
      "##ками": 3216,
      "▁President": 3217,
      "▁fam": 3218,
      "##рование": 3219,
      "▁ke": 3220,
      "▁производ": 3221,
      "##other": 3222,
      "##мой": 3223,
      "##eli": 3224,
      "##кри": 3225,
      "▁differen": 3226,
      "▁without": 3227,
      "▁Председа": 3228,
      "▁ограни": 3229,
      "▁призы": 3230,
      "##вал": 3231,
      "##ued": 3232,
      "##бира": 3233,
      "▁persons": 3234,
      "##лик": 3235,
      "▁обо": 3236,
      "▁emp": 3237,
      "▁технологи": 3238,
      "▁pop": 3239,
      "##ax": 3240,
      "▁among": 3241,
      "##ron": 3242,
      "▁указа": 3243,
      "##ee": 3244,
      "##роприя": 3245,
      "▁культу": 3246,
      "▁ресурсов": 3247,
      "##туа": 3248,
      "▁situation": 3249,
      "##вое": 3250,
      "▁interest": 3251,
      "##крати": 3252,
      "▁процеду": 3253,
      "##шен": 3254,
      "##вле": 3255,
      "▁cri": 3256,
      "##лия": 3257,
      "##ition": 3258,
      "##ank": 3259,
      "▁rest": 3260,
      "##льзу": 3261,
      "##щем": 3262,
      "##ady": 3263,
      "th": 3264,
      "▁civil": 3265,
      "▁available": 3266,
      "▁счита": 3267,
      "▁нау": 3268,
      "▁compan": 3269,
      "##них": 3270,
      "▁харак": 3271,
      "##ament": 3272,
      "▁strengthen": 3273,
      "▁even": 3274,
      "##щий": 3275,
      "▁являются": 3276,
      "##ets": 3277,
      "##рия": 3278,
      "##чению": 3279,
      "▁исследо": 3280,
      "▁now": 3281,
      "##лении": 3282,
      "▁ну": 3283,
      "▁Кроме": 3284,
      "▁cor": 3285,
      "##ваний": 3286,
      "▁содействи": 3287,
      "▁этот": 3288,
      "▁утвер": 3289,
      "▁initi": 3290,
      "##фика": 3291,
      "##стоян": 3292,
      "▁Специаль": 3293,
      "##сла": 3294,
      "▁clo": 3295,
      "▁life": 3296,
      "▁предлага": 3297,
      "▁soci": 3298,
      "##тар": 3299,
      "##чного": 3300,
      "▁taken": 3301,
      "▁усилия": 3302,
      "▁ядер": 3303,
      "▁ходе": 3304,
      "##щим": 3305,
      "##itor": 3306,
      "▁всего": 3307,
      "▁programmes": 3308,
      "▁ques": 3309,
      "▁населения": 3310,
      "▁global": 3311,
      "▁участ": 3312,
      "##там": 3313,
      "▁Су": 3314,
      "▁community": 3315,
      "##ering": 3316,
      "##воль": 3317,
      "▁кри": 3318,
      "▁vis": 3319,
      "##гули": 3320,
      "▁зд": 3321,
      "##ather": 3322,
      "##ists": 3323,
      "▁стороны": 3324,
      "##arge": 3325,
      "▁Да": 3326,
      "▁мероприя": 3327,
      "##хва": 3328,
      "▁доступ": 3329,
      "▁особенно": 3330,
      "▁val": 3331,
      "▁possible": 3332,
      "▁многи": 3333,
      "##тых": 3334,
      "▁Ли": 3335,
      "##ющий": 3336,
      "##ссия": 3337,
      "▁Как": 3338,
      "▁Off": 3339,
      "▁есть": 3340,
      "▁discus": 3341,
      "▁группы": 3342,
      "▁широ": 3343,
      "▁nat": 3344,
      "▁сотрудничества": 3345,
      "▁x": 3346,
      "##ivid": 3347,
      "▁Ag": 3348,
      "##udget": 3349,
      "▁распо": 3350,
      "▁relevant": 3351,
      "▁id": 3352,
      "▁развива": 3353,
      "##artment": 3354,
      "▁целью": 3355,
      "▁three": 3356,
      "##лежа": 3357,
      "▁случае": 3358,
      "▁deleg": 3359,
      "▁странах": 3360,
      "▁устойчи": 3361,
      "##нь": 3362,
      "▁средств": 3363,
      "##erc": 3364,
      "▁Ж": 3365,
      "▁Bo": 3366,
      "##нение": 3367,
      "▁продук": 3368,
      "▁специаль": 3369,
      "▁них": 3370,
      "##usiness": 3371,
      "▁Из": 3372,
      "▁princip": 3373,
      "##дно": 3374,
      "▁вза": 3375,
      "▁necessary": 3376,
      "##ференции": 3377,
      "▁ту": 3378,
      "▁консульта": 3379,
      "##министра": 3380,
      "##ital": 3381,
      "##ners": 3382,
      "##aration": 3383,
      "▁X": 3384,
      "##ское": 3385,
      "▁training": 3386,
      "▁Ре": 3387,
      "▁agree": 3388,
      "▁did": 3389,
      "▁политики": 3390,
      "▁fra": 3391,
      "##нес": 3392,
      "▁way": 3393,
      "##ink": 3394,
      "▁Для": 3395,
      "##мости": 3396,
      "##мери": 3397,
      "##ogn": 3398,
      "##строй": 3399,
      "##ient": 3400,
      "##por": 3401,
      "▁сло": 3402,
      "##зе": 3403,
      "▁проводи": 3404,
      "##зии": 3405,
      "##рах": 3406,
      "▁дет": 3407,
      "▁вз": 3408,
      "▁двух": 3409,
      "▁энер": 3410,
      "▁бюд": 3411,
      "##ditions": 3412,
      "▁информацию": 3413,
      "##ческим": 3414,
      "▁integ": 3415,
      "▁жизни": 3416,
      "##ября": 3417,
      "▁предлож": 3418,
      "##кое": 3419,
      "▁continue": 3420,
      "##скольку": 3421,
      "##ственных": 3422,
      "▁area": 3423,
      "▁sur": 3424,
      "▁нор": 3425,
      "##enn": 3426,
      "▁general": 3427,
      "##лобаль": 3428,
      "##шению": 3429,
      "##ман": 3430,
      "▁потенциа": 3431,
      "▁parties": 3432,
      "▁each": 3433,
      "##ah": 3434,
      "##ники": 3435,
      "##чь": 3436,
      "##рации": 3437,
      "##ror": 3438,
      "##сты": 3439,
      "▁action": 3440,
      "##пей": 3441,
      "▁где": 3442,
      "▁since": 3443,
      "▁защиты": 3444,
      "▁capacity": 3445,
      "##hemale": 3446,
      "▁правительства": 3447,
      "▁submit": 3448,
      "▁Афри": 3449,
      "▁поч": 3450,
      "##ool": 3451,
      "▁которой": 3452,
      "▁ситуа": 3453,
      "##мест": 3454,
      "▁design": 3455,
      "##less": 3456,
      "##ator": 3457,
      "##ai": 3458,
      "▁перед": 3459,
      "▁пя": 3460,
      "##вно": 3461,
      "▁Что": 3462,
      "##arian": 3463,
      "##ским": 3464,
      "▁sust": 3465,
      "##щества": 3466,
      "▁выбо": 3467,
      "##пример": 3468,
      "▁стан": 3469,
      "##щую": 3470,
      "▁дека": 3471,
      "▁каж": 3472,
      "▁Безопасности": 3473,
      "▁she": 3474,
      "▁докумен": 3475,
      "##хода": 3476,
      "▁proced": 3477,
      "▁обсу": 3478,
      "▁while": 3479,
      "##нутрен": 3480,
      "▁December": 3481,
      "##бро": 3482,
      "▁ответствен": 3483,
      "▁anal": 3484,
      "▁осо": 3485,
      "##oci": 3486,
      "##ствия": 3487,
      "##aterial": 3488,
      "##флик": 3489,
      "▁цент": 3490,
      "▁enc": 3491,
      "##ultural": 3492,
      "▁Де": 3493,
      "▁Sp": 3494,
      "▁full": 3495,
      "▁staff": 3496,
      "▁представлен": 3497,
      "▁мето": 3498,
      "##ib": 3499,
      "##ордина": 3500,
      "##люд": 3501,
      "▁working": 3502,
      "▁увели": 3503,
      "▁парт": 3504,
      "▁occ": 3505,
      "##кримина": 3506,
      "▁сказа": 3507,
      "▁Office": 3508,
      "▁treat": 3509,
      "▁cer": 3510,
      "▁European": 3511,
      "▁Ec": 3512,
      "##day": 3513,
      "##els": 3514,
      "▁identi": 3515,
      "▁стро": 3516,
      "▁because": 3517,
      "##вших": 3518,
      "▁role": 3519,
      "▁indic": 3520,
      "▁представля": 3521,
      "▁имеет": 3522,
      "▁local": 3523,
      "▁free": 3524,
      "▁средства": 3525,
      "##isl": 3526,
      "▁allow": 3527,
      "▁play": 3528,
      "▁exist": 3529,
      "▁Са": 3530,
      "##сах": 3531,
      "▁зако": 3532,
      "##стан": 3533,
      "▁мен": 3534,
      "▁Dep": 3535,
      "▁adopted": 3536,
      "##ajor": 3537,
      "##сона": 3538,
      "▁правам": 3539,
      "##eb": 3540,
      "▁другие": 3541,
      "▁дополнитель": 3542,
      "##нить": 3543,
      "▁служ": 3544,
      "▁насили": 3545,
      "▁Organiz": 3546,
      "▁grow": 3547,
      "##ariat": 3548,
      "▁men": 3549,
      "##jects": 3550,
      "▁больше": 3551,
      "##ister": 3552,
      "##нен": 3553,
      "##ом": 3554,
      "▁Од": 3555,
      "▁ear": 3556,
      "▁элек": 3557,
      "##oura": 3558,
      "▁fun": 3559,
      "▁коми": 3560,
      "▁внутрен": 3561,
      "##ступи": 3562,
      "##lim": 3563,
      "##ерт": 3564,
      "##outh": 3565,
      "▁Республики": 3566,
      "##stit": 3567,
      "##чает": 3568,
      "##лем": 3569,
      "##служи": 3570,
      "▁control": 3571,
      "##держи": 3572,
      "▁сро": 3573,
      "##ванием": 3574,
      "##чный": 3575,
      "##тельство": 3576,
      "▁just": 3577,
      "##пер": 3578,
      "##рите": 3579,
      "##cess": 3580,
      "▁ско": 3581,
      "▁обеспечить": 3582,
      "##ственного": 3583,
      "##iving": 3584,
      "▁окру": 3585,
      "##ged": 3586,
      "▁open": 3587,
      "##дел": 3588,
      "▁организация": 3589,
      "▁финанси": 3590,
      "##ring": 3591,
      "▁делега": 3592,
      "▁лица": 3593,
      "▁does": 3594,
      "▁Pol": 3595,
      "▁small": 3596,
      "▁accordance": 3597,
      "▁ur": 3598,
      "##деб": 3599,
      "##водя": 3600,
      "##льных": 3601,
      "##фициаль": 3602,
      "▁different": 3603,
      "##stand": 3604,
      "##вом": 3605,
      "▁cost": 3606,
      "▁Те": 3607,
      "▁себя": 3608,
      "##echan": 3609,
      "▁международных": 3610,
      "##ья": 3611,
      "▁группа": 3612,
      "▁field": 3613,
      "▁возможность": 3614,
      "▁отмети": 3615,
      "▁улуч": 3616,
      "##lig": 3617,
      "▁занима": 3618,
      "##ropri": 3619,
      "▁Work": 3620,
      "▁Ни": 3621,
      "##ainable": 3622,
      "▁invol": 3623,
      "▁очень": 3624,
      "##шие": 3625,
      "▁progress": 3626,
      "##oy": 3627,
      "▁months": 3628,
      "##ender": 3629,
      "▁Pl": 3630,
      "▁prior": 3631,
      "▁sim": 3632,
      "##ouse": 3633,
      "▁All": 3634,
      "▁проф": 3635,
      "▁real": 3636,
      "##тные": 3637,
      "▁New": 3638,
      "##тие": 3639,
      "▁вопрос": 3640,
      "##емые": 3641,
      "##ividual": 3642,
      "▁пользо": 3643,
      "▁major": 3644,
      "▁совеща": 3645,
      "##ck": 3646,
      "▁sti": 3647,
      "##сован": 3648,
      "##сторон": 3649,
      "##ined": 3650,
      "▁течение": 3651,
      "##стато": 3652,
      "▁nuclear": 3653,
      "▁подо": 3654,
      "▁через": 3655,
      "▁Пра": 3656,
      "##клад": 3657,
      "▁требо": 3658,
      "▁которое": 3659,
      "##nec": 3660,
      "▁respect": 3661,
      "##une": 3662,
      "▁ду": 3663,
      "##вил": 3664,
      "▁конфлик": 3665,
      "▁статьи": 3666,
      "▁water": 3667,
      "▁людей": 3668,
      "▁позволя": 3669,
      "▁прилож": 3670,
      "▁обу": 3671,
      "▁technical": 3672,
      "▁оказы": 3673,
      "▁express": 3674,
      "член": 3675,
      "##чать": 3676,
      "▁improve": 3677,
      "##oms": 3678,
      "##йти": 3679,
      "##arious": 3680,
      "##tics": 3681,
      "▁priv": 3682,
      "▁подчер": 3683,
      "▁причи": 3684,
      "▁Acc": 3685,
      "▁подтвер": 3686,
      "##ster": 3687,
      "##ющего": 3688,
      "▁reports": 3689,
      "▁conflic": 3690,
      "▁established": 3691,
      "▁пар": 3692,
      "##meric": 3693,
      "▁органи": 3694,
      "##ults": 3695,
      "##ООН": 3696,
      "▁then": 3697,
      "##ностей": 3698,
      "##ственно": 3699,
      "▁два": 3700,
      "##ватель": 3701,
      "▁друго": 3702,
      "▁const": 3703,
      "▁case": 3704,
      "▁переда": 3705,
      "##equ": 3706,
      "▁спе": 3707,
      "##ск": 3708,
      "▁But": 3709,
      "##ствие": 3710,
      "▁персона": 3711,
      "##ird": 3712,
      "▁мир": 3713,
      "▁рассматри": 3714,
      "▁дей": 3715,
      "▁Груп": 3716,
      "▁три": 3717,
      "▁legisl": 3718,
      "##ваются": 3719,
      "##ruction": 3720,
      "##ves": 3721,
      "▁conditions": 3722,
      "▁бюджет": 3723,
      "▁дискримина": 3724,
      "##CE": 3725,
      "##ема": 3726,
      "▁относи": 3727,
      "▁prof": 3728,
      "##бре": 3729,
      "▁individual": 3730,
      "▁groups": 3731,
      "▁язы": 3732,
      "▁ино": 3733,
      "▁встре": 3734,
      "##рами": 3735,
      "▁World": 3736,
      "▁учреждения": 3737,
      "▁invest": 3738,
      "##нитар": 3739,
      "▁использования": 3740,
      "##pportun": 3741,
      "##ходов": 3742,
      "▁Ассамблеи": 3743,
      "▁They": 3744,
      "##ework": 3745,
      "##ash": 3746,
      "##chool": 3747,
      "##line": 3748,
      "▁saf": 3749,
      "▁тра": 3750,
      "in": 3751,
      "▁материа": 3752,
      "▁employ": 3753,
      "##нам": 3754,
      "▁second": 3755,
      "▁find": 3756,
      "##range": 3757,
      "##нди": 3758,
      "▁горо": 3759,
      "▁budget": 3760,
      "▁наде": 3761,
      "▁service": 3762,
      "##ющиеся": 3763,
      "##mework": 3764,
      "##дца": 3765,
      "▁suc": 3766,
      "▁отра": 3767,
      "##стов": 3768,
      "##ционных": 3769,
      "##ropriate": 3770,
      "▁material": 3771,
      "▁Reg": 3772,
      "▁related": 3773,
      "##ended": 3774,
      "##ows": 3775,
      "##зяй": 3776,
      "▁Пре": 3777,
      "▁меди": 3778,
      "▁act": 3779,
      "##sibility": 3780,
      "▁Program": 3781,
      "▁result": 3782,
      "▁based": 3783,
      "▁проблемы": 3784,
      "##щество": 3785,
      "▁remain": 3786,
      "▁администра": 3787,
      "##жды": 3788,
      "▁координа": 3789,
      "▁участие": 3790,
      "▁воору": 3791,
      "##голов": 3792,
      "▁perform": 3793,
      "▁Се": 3794,
      "▁business": 3795,
      "##тивных": 3796,
      "▁недо": 3797,
      "##личе": 3798,
      "▁пло": 3799,
      "▁Sh": 3800,
      "##sions": 3801,
      "##вор": 3802,
      "▁direct": 3803,
      "▁document": 3804,
      "##ences": 3805,
      "▁recogn": 3806,
      "▁учрежд": 3807,
      "##тивного": 3808,
      "▁assess": 3809,
      "##нять": 3810,
      "▁project": 3811,
      "▁various": 3812,
      "▁coord": 3813,
      "##читы": 3814,
      "##riminal": 3815,
      "##enda": 3816,
      "▁mul": 3817,
      "▁needs": 3818,
      "▁мог": 3819,
      "▁violence": 3820,
      "▁глав": 3821,
      "##этому": 3822,
      "▁ри": 3823,
      "▁gra": 3824,
      "▁взаимо": 3825,
      "▁mechan": 3826,
      "##рек": 3827,
      "▁recommendations": 3828,
      "▁даль": 3829,
      "▁серь": 3830,
      "▁разработ": 3831,
      "▁basis": 3832,
      "▁ben": 3833,
      "▁ris": 3834,
      "##жне": 3835,
      "##self": 3836,
      "##work": 3837,
      "##epend": 3838,
      "##мов": 3839,
      "##щен": 3840,
      "▁foc": 3841,
      "▁air": 3842,
      "##overnmental": 3843,
      "##кий": 3844,
      "▁ше": 3845,
      "▁диа": 3846,
      "##раи": 3847,
      "▁opportun": 3848,
      "▁cases": 3849,
      "##мир": 3850,
      "▁отмеча": 3851,
      "##рори": 3852,
      "▁голо": 3853,
      "▁распростран": 3854,
      "▁proper": 3855,
      "##iven": 3856,
      "▁Комитета": 3857,
      "▁post": 3858,
      "▁Pal": 3859,
      "▁всем": 3860,
      "▁Americ": 3861,
      "▁ар": 3862,
      "##ently": 3863,
      "##du": 3864,
      "▁меня": 3865,
      "▁specific": 3866,
      "##fy": 3867,
      "##мые": 3868,
      "▁May": 3869,
      "▁теле": 3870,
      "▁consider": 3871,
      "##aren": 3872,
      "##rimination": 3873,
      "##ternal": 3874,
      "▁стандар": 3875,
      "##чей": 3876,
      "##uture": 3877,
      "##сколько": 3878,
      "##rug": 3879,
      "▁зем": 3880,
      "##ived": 3881,
      "##правитель": 3882,
      "▁сель": 3883,
      "▁comb": 3884,
      "▁предпри": 3885,
      "##ept": 3886,
      "▁institutions": 3887,
      "▁back": 3888,
      "##ческое": 3889,
      "##лли": 3890,
      "▁examp": 3891,
      "▁поддержа": 3892,
      "▁должен": 3893,
      "▁beli": 3894,
      "##реть": 3895,
      "##ете": 3896,
      "▁land": 3897,
      "##erman": 3898,
      "##ately": 3899,
      "##люда": 3900,
      "▁spe": 3901,
      "▁Organization": 3902,
      "##elc": 3903,
      "##cept": 3904,
      "##allen": 3905,
      "▁декабря": 3906,
      "##ross": 3907,
      "##ek": 3908,
      "▁один": 3909,
      "▁official": 3910,
      "▁conduc": 3911,
      "▁beh": 3912,
      "▁Соедин": 3913,
      "▁успе": 3914,
      "▁опы": 3915,
      "##ilitary": 3916,
      "▁market": 3917,
      "▁миро": 3918,
      "▁нас": 3919,
      "##степ": 3920,
      "##тек": 3921,
      "▁Комиссии": 3922,
      "▁power": 3923,
      "▁policies": 3924,
      "▁сти": 3925,
      "▁item": 3926,
      "▁administ": 3927,
      "▁appropriate": 3928,
      "▁результате": 3929,
      "▁found": 3930,
      "▁upon": 3931,
      "▁National": 3932,
      "▁include": 3933,
      "##льного": 3934,
      "##кам": 3935,
      "##гии": 3936,
      "##яс": 3937,
      "##влет": 3938,
      "▁Ser": 3939,
      "▁глобаль": 3940,
      "##ators": 3941,
      "##лез": 3942,
      "▁проекта": 3943,
      "▁времени": 3944,
      "▁точ": 3945,
      "##uly": 3946,
      "##вари": 3947,
      "▁Member": 3948,
      "▁ша": 3949,
      "##шем": 3950,
      "▁ret": 3951,
      "▁моло": 3952,
      "##кви": 3953,
      "##екла": 3954,
      "▁society": 3955,
      "▁lim": 3956,
      "##форми": 3957,
      "▁trade": 3958,
      "▁Isra": 3959,
      "##erm": 3960,
      "▁reduc": 3961,
      "▁hand": 3962,
      "##ually": 3963,
      "##токо": 3964,
      "▁aim": 3965,
      "##ческая": 3966,
      "▁вопросу": 3967,
      "▁поскольку": 3968,
      "▁Си": 3969,
      "▁исклю": 3970,
      "▁целей": 3971,
      "▁возможности": 3972,
      "##hod": 3973,
      "▁организаций": 3974,
      "▁increase": 3975,
      "##стри": 3976,
      "▁место": 3977,
      "▁решение": 3978,
      "##нению": 3979,
      "##тории": 3980,
      "▁don": 3981,
      "▁серьез": 3982,
      "▁Ap": 3983,
      "##нициа": 3984,
      "▁typ": 3985,
      "##ave": 3986,
      "▁list": 3987,
      "▁структу": 3988,
      "##roduc": 3989,
      "▁ти": 3990,
      "▁находи": 3991,
      "▁Pe": 3992,
      "▁Цент": 3993,
      "##фици": 3994,
      "##рованных": 3995,
      "▁bro": 3996,
      "##ock": 3997,
      "▁части": 3998,
      "▁поддержи": 3999,
      "▁oblig": 4000,
      "▁кто": 4001,
      "##еде": 4002,
      "##kra": 4003,
      "▁проведения": 4004,
      "▁ц": 4005,
      "##зер": 4006,
      "▁поддержки": 4007,
      "▁Russia": 4008,
      "##циали": 4009,
      "▁future": 4010,
      "▁значение": 4011,
      "▁gen": 4012,
      "##стана": 4013,
      "##ules": 4014,
      "▁такие": 4015,
      "##lection": 4016,
      "##хов": 4017,
      "▁день": 4018,
      "▁mand": 4019,
      "▁различных": 4020,
      "##tific": 4021,
      "▁электро": 4022,
      "▁независи": 4023,
      "▁вопросы": 4024,
      "▁consult": 4025,
      "##льные": 4026,
      "##ведения": 4027,
      "##ustice": 4028,
      "▁юри": 4029,
      "▁tow": 4030,
      "▁Dis": 4031,
      "▁сокра": 4032,
      "▁care": 4033,
      "##тельных": 4034,
      "▁sex": 4035,
      "##tle": 4036,
      "##ит": 4037,
      "▁partners": 4038,
      "▁роль": 4039,
      "##ised": 4040,
      "▁спра": 4041,
      "##ick": 4042,
      "▁гума": 4043,
      "##чета": 4044,
      "▁Рабо": 4045,
      "##ars": 4046,
      "▁уда": 4047,
      "▁совмест": 4048,
      "##encies": 4049,
      "##сом": 4050,
      "▁прогре": 4051,
      "##ственные": 4052,
      "##пад": 4053,
      "▁jud": 4054,
      "▁экспер": 4055,
      "▁get": 4056,
      "▁ener": 4057,
      "▁обзо": 4058,
      "▁поддержку": 4059,
      "▁собой": 4060,
      "▁даже": 4061,
      "▁June": 4062,
      "##alf": 4063,
      "##ocol": 4064,
      "▁means": 4065,
      "▁Govern": 4066,
      "##тен": 4067,
      "##нных": 4068,
      "##льно": 4069,
      "▁developed": 4070,
      "▁обслужи": 4071,
      "##ructure": 4072,
      "▁signific": 4073,
      "▁образования": 4074,
      "##dd": 4075,
      "▁оружия": 4076,
      "▁достиг": 4077,
      "▁наб": 4078,
      "##akh": 4079,
      "▁day": 4080,
      "▁Africa": 4081,
      "▁гаран": 4082,
      "▁программа": 4083,
      "##ото": 4084,
      "▁игра": 4085,
      "▁change": 4086,
      "▁Ph": 4087,
      "##ощ": 4088,
      "▁эко": 4089,
      "▁человек": 4090,
      "▁sector": 4091,
      "▁постоян": 4092,
      "▁судеб": 4093,
      "##бор": 4094,
      "▁луч": 4095,
      "▁best": 4096,
      "▁focus": 4097,
      "▁Q": 4098,
      "##ik": 4099,
      "##amster": 4100,
      "##itarian": 4101,
      "▁удовлет": 4102,
      "▁деятельность": 4103,
      "▁xH": 4104,
      "▁xHamster": 4105,
      "▁Economic": 4106,
      "##eur": 4107,
      "##тать": 4108,
      "▁elect": 4109,
      "▁помощь": 4110,
      "▁рын": 4111,
      "##rong": 4112,
      "▁плани": 4113,
      "##istan": 4114,
      "##atory": 4115,
      "##годня": 4116,
      "##жете": 4117,
      "##торов": 4118,
      "##ule": 4119,
      "##деля": 4120,
      "##цу": 4121,
      "##apons": 4122,
      "▁i": 4123,
      "▁down": 4124,
      "##мым": 4125,
      "▁принять": 4126,
      "▁chang": 4127,
      "▁With": 4128,
      "▁работе": 4129,
      "▁бан": 4130,
      "▁вам": 4131,
      "##жу": 4132,
      "▁доклада": 4133,
      "▁production": 4134,
      "##графи": 4135,
      "▁Fin": 4136,
      "▁проси": 4137,
      "##емократи": 4138,
      "##fied": 4139,
      "▁использу": 4140,
      "▁х": 4141,
      "##жении": 4142,
      "▁шко": 4143,
      "▁здо": 4144,
      "▁communic": 4145,
      "▁clear": 4146,
      "▁benef": 4147,
      "▁Ukra": 4148,
      "▁Parties": 4149,
      "▁objec": 4150,
      "##hib": 4151,
      "▁last": 4152,
      "▁выс": 4153,
      "##bs": 4154,
      "▁monitor": 4155,
      "▁particularly": 4156,
      "▁Организа": 4157,
      "▁Под": 4158,
      "▁предоставля": 4159,
      "▁whe": 4160,
      "▁obs": 4161,
      "##airs": 4162,
      "▁pay": 4163,
      "▁considered": 4164,
      "▁eng": 4165,
      "▁However": 4166,
      "▁пы": 4167,
      "▁Га": 4168,
      "▁каждо": 4169,
      "##тно": 4170,
      "##etwork": 4171,
      "##tal": 4172,
      "##inian": 4173,
      "##нской": 4174,
      "▁органов": 4175,
      "▁framework": 4176,
      "▁connec": 4177,
      "▁systems": 4178,
      "▁большо": 4179,
      "##illion": 4180,
      "▁still": 4181,
      "▁indust": 4182,
      "▁Fed": 4183,
      "▁услуг": 4184,
      "##atic": 4185,
      "▁количе": 4186,
      "▁authorities": 4187,
      "▁транс": 4188,
      "##шта": 4189,
      "##tocol": 4190,
      "▁проблем": 4191,
      "▁транспо": 4192,
      "▁система": 4193,
      "▁гуманитар": 4194,
      "##ждение": 4195,
      "▁отсут": 4196,
      "▁challen": 4197,
      "▁работу": 4198,
      "▁char": 4199,
      "▁large": 4200,
      "▁July": 4201,
      "▁разо": 4202,
      "▁места": 4203,
      "▁окружа": 4204,
      "▁мене": 4205,
      "##ъем": 4206,
      "##мыш": 4207,
      "▁потенциала": 4208,
      "▁завер": 4209,
      "▁террори": 4210,
      "##ect": 4211,
      "##tention": 4212,
      "▁Res": 4213,
      "▁инициа": 4214,
      "##парта": 4215,
      "▁Programme": 4216,
      "▁поощ": 4217,
      "▁проект": 4218,
      "##кси": 4219,
      "▁Однако": 4220,
      "▁стре": 4221,
      "▁results": 4222,
      "▁econom": 4223,
      "▁этим": 4224,
      "##хранения": 4225,
      "▁tre": 4226,
      "##прав": 4227,
      "▁here": 4228,
      "▁вопросов": 4229,
      "##рав": 4230,
      "##тиво": 4231,
      "▁energy": 4232,
      "▁achieve": 4233,
      "▁provisions": 4234,
      "##вала": 4235,
      "##чу": 4236,
      "▁required": 4237,
      "▁concerned": 4238,
      "##шим": 4239,
      "▁strateg": 4240,
      "##asing": 4241,
      "▁выше": 4242,
      "##воз": 4243,
      "▁иностран": 4244,
      "▁среди": 4245,
      "▁нет": 4246,
      "▁tr": 4247,
      "▁соответствующих": 4248,
      "▁cust": 4249,
      "▁noted": 4250,
      "▁испол": 4251,
      "##uge": 4252,
      "▁професси": 4253,
      "▁low": 4254,
      "##rab": 4255,
      "то": 4256,
      "##цио": 4257,
      "▁levels": 4258,
      "▁дальней": 4259,
      "##лиз": 4260,
      "▁свой": 4261,
      "▁изменения": 4262,
      "##льной": 4263,
      "▁инвести": 4264,
      "##чении": 4265,
      "##рей": 4266,
      "▁сви": 4267,
      "▁issue": 4268,
      "▁population": 4269,
      "##for": 4270,
      "▁учетом": 4271,
      "##ological": 4272,
      "▁членов": 4273,
      "▁должна": 4274,
      "##XX": 4275,
      "##льный": 4276,
      "▁sustainable": 4277,
      "▁Serv": 4278,
      "▁вме": 4279,
      "▁новых": 4280,
      "▁развитию": 4281,
      "▁инте": 4282,
      "▁лишь": 4283,
      "##дия": 4284,
      "##aim": 4285,
      "##ger": 4286,
      "▁step": 4287,
      "▁проис": 4288,
      "##tig": 4289,
      "▁military": 4290,
      "▁Ку": 4291,
      "▁зо": 4292,
      "▁говорит": 4293,
      "▁enh": 4294,
      "▁method": 4295,
      "▁настоящее": 4296,
      "▁процесса": 4297,
      "##шая": 4298,
      "на": 4299,
      "▁school": 4300,
      "##дви": 4301,
      "либо": 4302,
      "##ленных": 4303,
      "##atus": 4304,
      "▁кла": 4305,
      "▁предпо": 4306,
      "▁ла": 4307,
      "▁question": 4308,
      "▁путем": 4309,
      "▁повест": 4310,
      "▁вас": 4311,
      "▁example": 4312,
      "##ляр": 4313,
      "▁Ар": 4314,
      "▁Union": 4315,
      "▁фон": 4316,
      "▁комплек": 4317,
      "▁gender": 4318,
      "##раво": 4319,
      "##ober": 4320,
      "▁quality": 4321,
      "▁look": 4322,
      "▁документа": 4323,
      "▁значитель": 4324,
      "##еть": 4325,
      "##ID": 4326,
      "▁существую": 4327,
      "▁importance": 4328,
      "##ат": 4329,
      "##лести": 4330,
      "##пти": 4331,
      "▁семь": 4332,
      "▁success": 4333,
      "##eth": 4334,
      "▁возра": 4335,
      "##личи": 4336,
      "▁часть": 4337,
      "▁promote": 4338,
      "▁смо": 4339,
      "##ocial": 4340,
      "▁given": 4341,
      "##тельного": 4342,
      "▁муж": 4343,
      "▁Ру": 4344,
      "▁нео": 4345,
      "▁национальных": 4346,
      "##зации": 4347,
      "▁significant": 4348,
      "##тельств": 4349,
      "##анда": 4350,
      "▁пов": 4351,
      "▁сотрудников": 4352,
      "##nel": 4353,
      "##дек": 4354,
      "▁угро": 4355,
      "##еди": 4356,
      "▁Сек": 4357,
      "##ходит": 4358,
      "▁Tra": 4359,
      "▁своего": 4360,
      "##щими": 4361,
      "▁private": 4362,
      "▁encoura": 4363,
      "▁Working": 4364,
      "##abor": 4365,
      "##ried": 4366,
      "▁касается": 4367,
      "##тации": 4368,
      "##issions": 4369,
      "▁Su": 4370,
      "▁своем": 4371,
      "##лети": 4372,
      "##гру": 4373,
      "##eptember": 4374,
      "##тной": 4375,
      "▁случая": 4376,
      "##ci": 4377,
      "##ource": 4378,
      "##elf": 4379,
      "##обра": 4380,
      "▁dev": 4381,
      "##ced": 4382,
      "▁days": 4383,
      "▁актив": 4384,
      "##ned": 4385,
      "##пов": 4386,
      "##ток": 4387,
      "▁enti": 4388,
      "▁объек": 4389,
      "▁эле": 4390,
      "▁vic": 4391,
      "▁four": 4392,
      "▁big": 4393,
      "##им": 4394,
      "▁создания": 4395,
      "▁любо": 4396,
      "##ests": 4397,
      "##oting": 4398,
      "▁Ба": 4399,
      "▁problems": 4400,
      "▁Европей": 4401,
      "##aster": 4402,
      "##overty": 4403,
      "▁understand": 4404,
      "##ета": 4405,
      "##менно": 4406,
      "##rial": 4407,
      "##ющими": 4408,
      "▁head": 4409,
      "▁projects": 4410,
      "▁правительство": 4411,
      "▁После": 4412,
      "▁ря": 4413,
      "▁war": 4414,
      "##ode": 4415,
      "##pecially": 4416,
      "▁То": 4417,
      "▁Palest": 4418,
      "##ories": 4419,
      "##дить": 4420,
      "##стях": 4421,
      "##rated": 4422,
      "▁определен": 4423,
      "▁отдель": 4424,
      "▁Rec": 4425,
      "▁Пе": 4426,
      "▁delegation": 4427,
      "за": 4428,
      "▁территории": 4429,
      "▁оза": 4430,
      "▁сфе": 4431,
      "▁ver": 4432,
      "▁September": 4433,
      "▁руковод": 4434,
      "##use": 4435,
      "▁разме": 4436,
      "▁необходимость": 4437,
      "▁prevent": 4438,
      "##eping": 4439,
      "▁предусматри": 4440,
      "▁сент": 4441,
      "▁акти": 4442,
      "##lected": 4443,
      "▁name": 4444,
      "##rehen": 4445,
      "▁мне": 4446,
      "##тые": 4447,
      "##сами": 4448,
      "▁специали": 4449,
      "▁имеют": 4450,
      "▁sever": 4451,
      "##емой": 4452,
      "▁вой": 4453,
      "▁terror": 4454,
      "##irc": 4455,
      "##правля": 4456,
      "▁обы": 4457,
      "▁Board": 4458,
      "##рую": 4459,
      "▁attention": 4460,
      "##ствий": 4461,
      "▁общества": 4462,
      "▁reas": 4463,
      "▁much": 4464,
      "▁Kaz": 4465,
      "▁решений": 4466,
      "▁назна": 4467,
      "##zer": 4468,
      "▁want": 4469,
      "##жению": 4470,
      "▁welc": 4471,
      "▁несколько": 4472,
      "▁хоро": 4473,
      "▁participation": 4474,
      "##mber": 4475,
      "gt": 4476,
      "▁whether": 4477,
      "▁Gu": 4478,
      "▁докладе": 4479,
      "##ract": 4480,
      "▁Oct": 4481,
      "▁мень": 4482,
      "▁нам": 4483,
      "▁company": 4484,
      "##жида": 4485,
      "▁government": 4486,
      "##istry": 4487,
      "##мули": 4488,
      "##ateral": 4489,
      "▁подготовки": 4490,
      "▁ген": 4491,
      "▁Me": 4492,
      "▁торговли": 4493,
      "##angu": 4494,
      "▁territ": 4495,
      "##ready": 4496,
      "▁источ": 4497,
      "▁ци": 4498,
      "##мом": 4499,
      "##irl": 4500,
      "##жнему": 4501,
      "▁борьбе": 4502,
      "▁сою": 4503,
      "##fer": 4504,
      "##того": 4505,
      "▁using": 4506,
      "▁sk": 4507,
      "▁Social": 4508,
      "##сло": 4509,
      "▁принятия": 4510,
      "▁conflict": 4511,
      "▁дви": 4512,
      "▁уголов": 4513,
      "▁mar": 4514,
      "▁институ": 4515,
      "##hold": 4516,
      "▁Jan": 4517,
      "▁ки": 4518,
      "▁получи": 4519,
      "▁наибо": 4520,
      "▁достижения": 4521,
      "▁guid": 4522,
      "##sequ": 4523,
      "▁минист": 4524,
      "▁предприя": 4525,
      "▁agenda": 4526,
      "▁Nove": 4527,
      "▁relations": 4528,
      "▁развитие": 4529,
      "▁действия": 4530,
      "▁What": 4531,
      "▁просто": 4532,
      "▁African": 4533,
      "▁Mon": 4534,
      "▁медици": 4535,
      "##ceed": 4536,
      "##тан": 4537,
      "▁Comp": 4538,
      "##чены": 4539,
      "▁реши": 4540,
      "▁Так": 4541,
      "##atis": 4542,
      "▁several": 4543,
      "▁Шта": 4544,
      "▁certain": 4545,
      "▁другими": 4546,
      "▁Они": 4547,
      "▁already": 4548,
      "##тера": 4549,
      "##itiz": 4550,
      "##краи": 4551,
      "▁аспек": 4552,
      "##мена": 4553,
      "▁representatives": 4554,
      "##ging": 4555,
      "▁здоров": 4556,
      "##io": 4557,
      "▁использовать": 4558,
      "▁become": 4559,
      "▁October": 4560,
      "▁котором": 4561,
      "▁оценки": 4562,
      "▁находя": 4563,
      "##II": 4564,
      "▁убе": 4565,
      "##rehensive": 4566,
      "▁Department": 4567,
      "or": 4568,
      "▁Ви": 4569,
      "##duce": 4570,
      "▁прио": 4571,
      "##ior": 4572,
      "##рко": 4573,
      "▁November": 4574,
      "▁привет": 4575,
      "▁Ass": 4576,
      "▁especially": 4577,
      "##тии": 4578,
      "▁key": 4579,
      "▁относительно": 4580,
      "▁bodies": 4581,
      "▁надлежа": 4582,
      "##ware": 4583,
      "▁requirements": 4584,
      "▁основных": 4585,
      "##роб": 4586,
      "▁применя": 4587,
      "▁God": 4588,
      "▁humanitarian": 4589,
      "##чис": 4590,
      "▁подгото": 4591,
      "▁She": 4592,
      "▁пози": 4593,
      "▁противо": 4594,
      "▁Ве": 4595,
      "▁Програм": 4596,
      "##верси": 4597,
      "▁ги": 4598,
      "##еты": 4599,
      "▁Ди": 4600,
      "##rip": 4601,
      "▁Кита": 4602,
      "▁культур": 4603,
      "##ril": 4604,
      "##кну": 4605,
      "##тего": 4606,
      "▁Бу": 4607,
      "▁pres": 4608,
      "##TA": 4609,
      "▁Cour": 4610,
      "##пло": 4611,
      "▁развивающихся": 4612,
      "▁March": 4613,
      "##смотрен": 4614,
      "▁rese": 4615,
      "▁мере": 4616,
      "▁сни": 4617,
      "▁family": 4618,
      "▁poverty": 4619,
      "▁additional": 4620,
      "▁US": 4621,
      "▁цели": 4622,
      "##sk": 4623,
      "▁consideration": 4624,
      "▁менее": 4625,
      "▁официаль": 4626,
      "▁закон": 4627,
      "▁These": 4628,
      "▁independ": 4629,
      "##дии": 4630,
      "▁environmental": 4631,
      "▁vol": 4632,
      "▁хоте": 4633,
      "##iversity": 4634,
      "##rative": 4635,
      "▁октя": 4636,
      "##из": 4637,
      "▁виде": 4638,
      "▁которого": 4639,
      "▁technology": 4640,
      "▁чу": 4641,
      "▁заня": 4642,
      "##laration": 4643,
      "##ulture": 4644,
      "##tis": 4645,
      "##новь": 4646,
      "▁products": 4647,
      "▁submitted": 4648,
      "▁совет": 4649,
      "▁foreign": 4650,
      "▁hig": 4651,
      "##щихся": 4652,
      "##ческую": 4653,
      "##лки": 4654,
      "##лого": 4655,
      "##телем": 4656,
      "▁enter": 4657,
      "▁fl": 4658,
      "▁above": 4659,
      "▁применения": 4660,
      "▁six": 4661,
      "▁Re": 4662,
      "▁reform": 4663,
      "▁another": 4664,
      "▁приз": 4665,
      "▁ему": 4666,
      "▁approach": 4667,
      "##сред": 4668,
      "▁less": 4669,
      "##зах": 4670,
      "▁China": 4671,
      "▁производи": 4672,
      "##vis": 4673,
      "##iss": 4674,
      "▁свиде": 4675,
      "▁оче": 4676,
      "▁изу": 4677,
      "▁towards": 4678,
      "##лений": 4679,
      "##рий": 4680,
      "##men": 4681,
      "▁разре": 4682,
      "##aus": 4683,
      "▁данные": 4684,
      "▁Asi": 4685,
      "▁помощью": 4686,
      "##ording": 4687,
      "▁степ": 4688,
      "▁экологи": 4689,
      "▁weapons": 4690,
      "##нием": 4691,
      "▁дискриминации": 4692,
      "Add": 4693,
      "▁организо": 4694,
      "▁impact": 4695,
      "##ope": 4696,
      "▁Украи": 4697,
      "▁let": 4698,
      "▁насилия": 4699,
      "▁опас": 4700,
      "▁упо": 4701,
      "##indows": 4702,
      "##AN": 4703,
      "▁legislation": 4704,
      "▁Амери": 4705,
      "▁манда": 4706,
      "##otion": 4707,
      "▁гру": 4708,
      "▁режи": 4709,
      "▁свобод": 4710,
      "▁жерт": 4711,
      "▁govern": 4712,
      "##лий": 4713,
      "▁бед": 4714,
      "##мести": 4715,
      "##телями": 4716,
      "▁призывает": 4717,
      "##час": 4718,
      "##мышлен": 4719,
      "▁Ra": 4720,
      "▁dest": 4721,
      "▁запре": 4722,
      "▁доступа": 4723,
      "##жде": 4724,
      "▁вновь": 4725,
      "##рует": 4726,
      "▁force": 4727,
      "▁профессиональ": 4728,
      "##idence": 4729,
      "##ами": 4730,
      "▁связанных": 4731,
      "##uary": 4732,
      "##side": 4733,
      "▁Direct": 4734,
      "▁прош": 4735,
      "##ics": 4736,
      "▁Управл": 4737,
      "▁growth": 4738,
      "▁пункт": 4739,
      "▁standards": 4740,
      "##ili": 4741,
      "▁High": 4742,
      "▁круп": 4743,
      "▁годы": 4744,
      "▁одной": 4745,
      "▁Cont": 4746,
      "▁better": 4747,
      "▁food": 4748,
      "▁ori": 4749,
      "▁кол": 4750,
      "▁transport": 4751,
      "##чай": 4752,
      "▁всеоб": 4753,
      "##utes": 4754,
      "##ES": 4755,
      "▁meetings": 4756,
      "▁South": 4757,
      "▁компании": 4758,
      "▁восстано": 4759,
      "▁natural": 4760,
      "▁рели": 4761,
      "▁случаях": 4762,
      "▁Governments": 4763,
      "##pporteur": 4764,
      "▁июня": 4765,
      "▁меж": 4766,
      "▁operations": 4767,
      "▁охва": 4768,
      "##нд": 4769,
      "▁fully": 4770,
      "##чным": 4771,
      "▁требу": 4772,
      "##ON": 4773,
      "##ple": 4774,
      "▁безопас": 4775,
      "▁effic": 4776,
      "▁circ": 4777,
      "##станов": 4778,
      "▁прось": 4779,
      "##дует": 4780,
      "▁experience": 4781,
      "▁undert": 4782,
      "▁April": 4783,
      "▁достато": 4784,
      "▁Chair": 4785,
      "▁contain": 4786,
      "▁тыся": 4787,
      "▁понима": 4788,
      "##нва": 4789,
      "▁continued": 4790,
      "▁соблюд": 4791,
      "##aced": 4792,
      "▁Ав": 4793,
      "##ейчас": 4794,
      "▁member": 4795,
      "▁When": 4796,
      "##otel": 4797,
      "▁государство": 4798,
      "##рок": 4799,
      "▁учеб": 4800,
      "▁agencies": 4801,
      "##рам": 4802,
      "▁deb": 4803,
      "▁instru": 4804,
      "##eti": 4805,
      "##ledge": 4806,
      "##тисти": 4807,
      "▁большин": 4808,
      "##зма": 4809,
      "##циях": 4810,
      "▁relig": 4811,
      "▁окружающей": 4812,
      "▁поряд": 4813,
      "▁facilit": 4814,
      "▁Она": 4815,
      "##text": 4816,
      "##ER": 4817,
      "▁процентов": 4818,
      "▁привле": 4819,
      "▁freed": 4820,
      "▁bi": 4821,
      "##дним": 4822,
      "##ipment": 4823,
      "▁Раз": 4824,
      "▁diffic": 4825,
      "▁proposed": 4826,
      "▁гендер": 4827,
      "▁стране": 4828,
      "▁хотя": 4829,
      "##лами": 4830,
      "▁network": 4831,
      "##ense": 4832,
      "▁катего": 4833,
      "▁комитета": 4834,
      "##ends": 4835,
      "##номо": 4836,
      "▁pass": 4837,
      "##ords": 4838,
      "▁Kazakh": 4839,
      "▁Всемир": 4840,
      "##ked": 4841,
      "▁Protocol": 4842,
      "▁discrimination": 4843,
      "▁позволи": 4844,
      "▁международной": 4845,
      "▁второ": 4846,
      "##джа": 4847,
      "▁смер": 4848,
      "▁непо": 4849,
      "▁January": 4850,
      "▁предупре": 4851,
      "▁application": 4852,
      "▁строи": 4853,
      "##ционной": 4854,
      "##зиден": 4855,
      "▁substan": 4856,
      "##aran": 4857,
      "▁traffic": 4858,
      "##ermin": 4859,
      "▁Le": 4860,
      "▁fil": 4861,
      "▁Arab": 4862,
      "##ам": 4863,
      "▁organization": 4864,
      "▁сохра": 4865,
      "▁secret": 4866,
      "▁района": 4867,
      "▁give": 4868,
      "▁това": 4869,
      "▁мужчи": 4870,
      "▁Court": 4871,
      "▁note": 4872,
      "▁inves": 4873,
      "▁месяцев": 4874,
      "▁provides": 4875,
      "▁pot": 4876,
      "##ided": 4877,
      "▁апре": 4878,
      "▁existing": 4879,
      "▁Ukraine": 4880,
      "▁body": 4881,
      "▁investig": 4882,
      "##fact": 4883,
      "##omestic": 4884,
      "##тельной": 4885,
      "##uter": 4886,
      "##izing": 4887,
      "▁ликви": 4888,
      "▁пара": 4889,
      "##ways": 4890,
      "##енного": 4891,
      "▁police": 4892,
      "##ennium": 4893,
      "▁перегово": 4894,
      "##зую": 4895,
      "▁able": 4896,
      "▁Израи": 4897,
      "##ША": 4898,
      "##pects": 4899,
      "##деся": 4900,
      "▁status": 4901,
      "##выми": 4902,
      "##ives": 4903,
      "▁представить": 4904,
      "▁That": 4905,
      "▁therefore": 4906,
      "▁bl": 4907,
      "▁light": 4908,
      "▁common": 4909,
      "▁регули": 4910,
      "##ecu": 4911,
      "▁received": 4912,
      "▁него": 4913,
      "▁langu": 4914,
      "▁terms": 4915,
      "▁increased": 4916,
      "▁might": 4917,
      "##yn": 4918,
      "▁обору": 4919,
      "##кро": 4920,
      "▁приорите": 4921,
      "▁Ro": 4922,
      "▁июля": 4923,
      "▁Конференции": 4924,
      "##отвра": 4925,
      "##интере": 4926,
      "▁контроля": 4927,
      "▁оборудо": 4928,
      "##armament": 4929,
      "##ulations": 4930,
      "▁associ": 4931,
      "##екларации": 4932,
      "##ocra": 4933,
      "▁янва": 4934,
      "▁strong": 4935,
      "▁разору": 4936,
      "▁обязан": 4937,
      "▁региона": 4938,
      "▁охра": 4939,
      "##рас": 4940,
      "▁кос": 4941,
      "##биль": 4942,
      "▁бежен": 4943,
      "▁спи": 4944,
      "▁мире": 4945,
      "##ature": 4946,
      "##ending": 4947,
      "▁bu": 4948,
      "▁deli": 4949,
      "▁годов": 4950,
      "##нем": 4951,
      "##pris": 4952,
      "▁close": 4953,
      "▁total": 4954,
      "▁posi": 4955,
      "##тельные": 4956,
      "▁toget": 4957,
      "▁заседании": 4958,
      "▁масшта": 4959,
      "▁together": 4960,
      "▁нарко": 4961,
      "##раб": 4962,
      "▁наиболее": 4963,
      "▁detail": 4964,
      "▁return": 4965,
      "▁achiev": 4966,
      "##влении": 4967,
      "▁claim": 4968,
      "##жает": 4969,
      "▁comprehensive": 4970,
      "▁say": 4971,
      "##тифика": 4972,
      "##ames": 4973,
      "▁условиях": 4974,
      "##грации": 4975,
      "▁такой": 4976,
      "▁отчет": 4977,
      "▁lit": 4978,
      "##тни": 4979,
      "▁имени": 4980,
      "по": 4981,
      "▁pros": 4982,
      "##дент": 4983,
      "▁процесс": 4984,
      "▁So": 4985,
      "▁No": 4986,
      "▁due": 4987,
      "▁agreed": 4988,
      "▁воздействи": 4989,
      "##ченных": 4990,
      "##thing": 4991,
      "##irm": 4992,
      "▁согласно": 4993,
      "##ides": 4994,
      "##ИД": 4995,
      "##поко": 4996,
      "▁интер": 4997,
      "see": 4998,
      "▁пря": 4999,
      "##ically": 5000,
      "▁многих": 5001,
      "▁слова": 5002,
      "##aring": 5003,
      "##ancing": 5004,
      "##пли": 5005,
      "▁press": 5006,
      "▁serious": 5007,
      "▁Бы": 5008,
      "▁общи": 5009,
      "##ward": 5010,
      "▁постано": 5011,
      "▁докладчи": 5012,
      "▁пользова": 5013,
      "##онов": 5014,
      "##ified": 5015,
      "▁called": 5016,
      "##reg": 5017,
      "▁ней": 5018,
      "##даря": 5019,
      "▁least": 5020,
      "▁research": 5021,
      "##тивные": 5022,
      "▁представитель": 5023,
      "▁increasing": 5024,
      "##тый": 5025,
      "▁principles": 5026,
      "##ext": 5027,
      "##ведли": 5028,
      "▁проектов": 5029,
      "##неш": 5030,
      "▁ide": 5031,
      "▁desc": 5032,
      "▁озна": 5033,
      "▁context": 5034,
      "##рению": 5035,
      "##tices": 5036,
      "▁сделать": 5037,
      "▁например": 5038,
      "▁предотвра": 5039,
      "▁слож": 5040,
      "▁незакон": 5041,
      "##мпа": 5042,
      "##енти": 5043,
      "##ling": 5044,
      "▁rules": 5045,
      "▁million": 5046,
      "▁пор": 5047,
      "##ury": 5048,
      "##pected": 5049,
      "▁дома": 5050,
      "##ческими": 5051,
      "▁однако": 5052,
      "▁expressed": 5053,
      "▁проблема": 5054,
      "▁girl": 5055,
      "▁domestic": 5056,
      "▁обеспечению": 5057,
      "##вей": 5058,
      "▁Windows": 5059,
      "▁сегодня": 5060,
      "▁мар": 5061,
      "▁criminal": 5062,
      "▁Эти": 5063,
      "▁отве": 5064,
      "▁США": 5065,
      "▁групп": 5066,
      "▁заинтере": 5067,
      "▁современ": 5068,
      "##ialog": 5069,
      "▁come": 5070,
      "▁took": 5071,
      "▁содействия": 5072,
      "##ecutive": 5073,
      "▁посред": 5074,
      "▁monitoring": 5075,
      "▁next": 5076,
      "▁Fund": 5077,
      "▁hold": 5078,
      "▁eas": 5079,
      "▁App": 5080,
      "▁Palestinian": 5081,
      "про": 5082,
      "▁hist": 5083,
      "##iqu": 5084,
      "##itation": 5085,
      "▁Ge": 5086,
      "##вую": 5087,
      "##onst": 5088,
      "▁рекомендации": 5089,
      "▁threat": 5090,
      "▁active": 5091,
      "##суаль": 5092,
      "▁requested": 5093,
      "##равоо": 5094,
      "▁пись": 5095,
      "▁analys": 5096,
      "▁можете": 5097,
      "▁tas": 5098,
      "▁протоко": 5099,
      "▁Rapporteur": 5100,
      "▁возможностей": 5101,
      "##ention": 5102,
      "▁среды": 5103,
      "##нова": 5104,
      "▁сы": 5105,
      "##orth": 5106,
      "▁некоторые": 5107,
      "▁previous": 5108,
      "▁конце": 5109,
      "##щению": 5110,
      "re": 5111,
      "▁силу": 5112,
      "##щении": 5113,
      "##пита": 5114,
      "##gest": 5115,
      "▁living": 5116,
      "##совой": 5117,
      "▁Пер": 5118,
      "▁Go": 5119,
      "▁Государ": 5120,
      "##сить": 5121,
      "##версите": 5122,
      "##arget": 5123,
      "▁Феде": 5124,
      "##влению": 5125,
      "▁число": 5126,
      "##рить": 5127,
      "▁representative": 5128,
      "▁клиен": 5129,
      "▁del": 5130,
      "▁risk": 5131,
      "▁ожида": 5132,
      "см": 5133,
      "##нах": 5134,
      "##ube": 5135,
      "▁Гер": 5136,
      "▁конку": 5137,
      "##phas": 5138,
      "пре": 5139,
      "▁собствен": 5140,
      "##pose": 5141,
      "##bo": 5142,
      "##ie": 5143,
      "▁здравоо": 5144,
      "▁bre": 5145,
      "▁иде": 5146,
      "▁кру": 5147,
      "▁lack": 5148,
      "▁custom": 5149,
      "▁constit": 5150,
      "▁производства": 5151,
      "▁России": 5152,
      "▁move": 5153,
      "▁ill": 5154,
      "▁работ": 5155,
      "##жной": 5156,
      "▁included": 5157,
      "▁taking": 5158,
      "▁некоторых": 5159,
      "##рю": 5160,
      "##AT": 5161,
      "##af": 5162,
      "▁числа": 5163,
      "▁Se": 5164,
      "##though": 5165,
      "##над": 5166,
      "▁чрез": 5167,
      "▁Israel": 5168,
      "▁территори": 5169,
      "##dom": 5170,
      "▁рабочи": 5171,
      "▁дел": 5172,
      "▁дирек": 5173,
      "##dic": 5174,
      "▁Секрета": 5175,
      "▁la": 5176,
      "##енной": 5177,
      "##enous": 5178,
      "▁необходимости": 5179,
      "▁ог": 5180,
      "▁contained": 5181,
      "▁таким": 5182,
      "##reen": 5183,
      "##кими": 5184,
      "▁purs": 5185,
      "▁инстру": 5186,
      "▁лег": 5187,
      "▁Tur": 5188,
      "▁здесь": 5189,
      "▁problem": 5190,
      "##нные": 5191,
      "##вила": 5192,
      "▁Law": 5193,
      "▁власти": 5194,
      "▁citiz": 5195,
      "##not": 5196,
      "▁четы": 5197,
      "▁house": 5198,
      "▁реализации": 5199,
      "##лии": 5200,
      "▁building": 5201,
      "▁top": 5202,
      "##ствуют": 5203,
      "▁тек": 5204,
      "##ющая": 5205,
      "▁cover": 5206,
      "##isms": 5207,
      "▁Minister": 5208,
      "▁содержи": 5209,
      "##pective": 5210,
      "▁треть": 5211,
      "▁сфере": 5212,
      "##ческом": 5213,
      "▁собы": 5214,
      "▁providing": 5215,
      "▁учреждений": 5216,
      "##тельность": 5217,
      "▁учиты": 5218,
      "▁Be": 5219,
      "##ocratic": 5220,
      "##lease": 5221,
      "▁осуществлению": 5222,
      "##to": 5223,
      "▁достигну": 5224,
      "▁Ab": 5225,
      "▁often": 5226,
      "▁обно": 5227,
      "##stitution": 5228,
      "▁One": 5229,
      "▁реб": 5230,
      "▁regarding": 5231,
      "▁Председателя": 5232,
      "▁расследо": 5233,
      "▁emer": 5234,
      "▁сентября": 5235,
      "▁полностью": 5236,
      "▁контек": 5237,
      "▁maintain": 5238,
      "▁Action": 5239,
      "▁read": 5240,
      "▁begin": 5241,
      "##uty": 5242,
      "##скими": 5243,
      "##goti": 5244,
      "▁экспертов": 5245,
      "▁resolutions": 5246,
      "▁negoti": 5247,
      "##зм": 5248,
      "##лах": 5249,
      "▁доро": 5250,
      "▁глу": 5251,
      "▁subject": 5252,
      "▁прекра": 5253,
      "▁обеспечение": 5254,
      "▁Согла": 5255,
      "▁Ministry": 5256,
      "▁concerning": 5257,
      "##воду": 5258,
      "▁sum": 5259,
      "##essional": 5260,
      "▁палести": 5261,
      "▁course": 5262,
      "▁space": 5263,
      "▁che": 5264,
      "##ime": 5265,
      "##igenous": 5266,
      "▁тот": 5267,
      "▁entit": 5268,
      "##нец": 5269,
      "##lain": 5270,
      "▁влия": 5271,
      "##ufact": 5272,
      "##co": 5273,
      "▁компью": 5274,
      "▁ряд": 5275,
      "▁реаль": 5276,
      "##ель": 5277,
      "▁одного": 5278,
      "##сро": 5279,
      "▁equipment": 5280,
      "##sed": 5281,
      "▁предпринима": 5282,
      "##мость": 5283,
      "▁странам": 5284,
      "▁оно": 5285,
      "##aged": 5286,
      "##ющее": 5287,
      "▁наз": 5288,
      "▁Aff": 5289,
      "▁According": 5290,
      "▁establishment": 5291,
      "▁комитет": 5292,
      "▁displ": 5293,
      "▁cho": 5294,
      "▁third": 5295,
      "▁отмечает": 5296,
      "##менты": 5297,
      "▁visit": 5298,
      "▁ve": 5299,
      "▁сектора": 5300,
      "▁city": 5301,
      "▁old": 5302,
      "▁introduc": 5303,
      "##ograph": 5304,
      "▁treatment": 5305,
      "▁reported": 5306,
      "▁Secretariat": 5307,
      "▁участия": 5308,
      "▁одно": 5309,
      "▁affec": 5310,
      "▁трех": 5311,
      "##шее": 5312,
      "▁deal": 5313,
      "##лых": 5314,
      "##IS": 5315,
      "##фра": 5316,
      "▁долго": 5317,
      "▁осуществлении": 5318,
      "▁Фон": 5319,
      "##IV": 5320,
      "▁осуществление": 5321,
      "▁пода": 5322,
      "▁complete": 5323,
      "##лай": 5324,
      "##дова": 5325,
      "##тить": 5326,
      "▁обязательства": 5327,
      "▁justice": 5328,
      "▁Bel": 5329,
      "##лон": 5330,
      "▁возвра": 5331,
      "▁responsibility": 5332,
      "▁origin": 5333,
      "▁внеш": 5334,
      "##ционного": 5335,
      "▁ны": 5336,
      "▁put": 5337,
      "▁function": 5338,
      "▁Испо": 5339,
      "▁фай": 5340,
      "##вов": 5341,
      "▁ess": 5342,
      "▁eval": 5343,
      "##ментов": 5344,
      "▁сообщи": 5345,
      "▁Комиссия": 5346,
      "▁этому": 5347,
      "##пуска": 5348,
      "▁Сер": 5349,
      "##рованию": 5350,
      "▁Aug": 5351,
      "##ier": 5352,
      "▁agreement": 5353,
      "▁according": 5354,
      "##mary": 5355,
      "▁поста": 5356,
      "▁диало": 5357,
      "##DP": 5358,
      "##мень": 5359,
      "▁sent": 5360,
      "▁любы": 5361,
      "▁промышлен": 5362,
      "▁мая": 5363,
      "##вок": 5364,
      "##гно": 5365,
      "##дации": 5366,
      "▁cultural": 5367,
      "▁особо": 5368,
      "▁деся": 5369,
      "▁октября": 5370,
      "▁медицин": 5371,
      "▁статисти": 5372,
      "▁выполнения": 5373,
      "▁practices": 5374,
      "▁ноября": 5375,
      "▁Вер": 5376,
      "com": 5377,
      "▁счет": 5378,
      "▁America": 5379,
      "##гам": 5380,
      "▁кур": 5381,
      "▁обеспоко": 5382,
      "▁норма": 5383,
      "▁разработки": 5384,
      "##чением": 5385,
      "▁past": 5386,
      "##ницы": 5387,
      "▁извест": 5388,
      "##пят": 5389,
      "▁target": 5390,
      "▁show": 5391,
      "##нной": 5392,
      "▁Can": 5393,
      "##ght": 5394,
      "▁условий": 5395,
      "▁er": 5396,
      "##labor": 5397,
      "▁стату": 5398,
      "##ница": 5399,
      "▁установлен": 5400,
      "▁Его": 5401,
      "##rict": 5402,
      "##ional": 5403,
      "▁испы": 5404,
      "▁ПР": 5405,
      "▁вырази": 5406,
      "▁Ис": 5407,
      "▁прода": 5408,
      "▁ника": 5409,
      "▁клю": 5410,
      "▁mandate": 5411,
      "▁требования": 5412,
      "##бов": 5413,
      "▁cannot": 5414,
      "▁Article": 5415,
      "▁борьбы": 5416,
      "##formation": 5417,
      "▁информация": 5418,
      "▁German": 5419,
      "▁recent": 5420,
      "▁нем": 5421,
      "▁физи": 5422,
      "▁procedures": 5423,
      "▁зависи": 5424,
      "▁публи": 5425,
      "▁добро": 5426,
      "▁партне": 5427,
      "▁Sw": 5428,
      "▁challenges": 5429,
      "▁сказал": 5430,
      "▁few": 5431,
      "##ган": 5432,
      "▁knowledge": 5433,
      "▁пункте": 5434,
      "##чается": 5435,
      "▁наш": 5436,
      "▁города": 5437,
      "##uted": 5438,
      "##ne": 5439,
      "▁наркоти": 5440,
      "▁tem": 5441,
      "▁While": 5442,
      "##циони": 5443,
      "##irit": 5444,
      "##ours": 5445,
      "##ционные": 5446,
      "▁dialog": 5447,
      "▁всегда": 5448,
      "▁стратегии": 5449,
      "▁содей": 5450,
      "▁around": 5451,
      "▁жела": 5452,
      "##ун": 5453,
      "▁create": 5454,
      "▁broad": 5455,
      "##raq": 5456,
      "▁start": 5457,
      "▁повышения": 5458,
      "▁bring": 5459,
      "▁always": 5460,
      "##yl": 5461,
      "##емого": 5462,
      "▁устойчивого": 5463,
      "▁укрепления": 5464,
      "▁мероприятий": 5465,
      "▁возду": 5466,
      "##тивный": 5467,
      "▁Lat": 5468,
      "▁мероприятия": 5469,
      "▁Kazakhstan": 5470,
      "##АТ": 5471,
      "▁персонала": 5472,
      "▁Declaration": 5473,
      "##вили": 5474,
      "▁though": 5475,
      "▁entitled": 5476,
      "▁bal": 5477,
      "▁property": 5478,
      "##тного": 5479,
      "▁Централь": 5480,
      "▁неправитель": 5481,
      "▁могли": 5482,
      "▁short": 5483,
      "▁team": 5484,
      "▁pen": 5485,
      "▁суб": 5486,
      "▁юриди": 5487,
      "▁August": 5488,
      "▁заинтересован": 5489,
      "##воч": 5490,
      "##oung": 5491,
      "▁position": 5492,
      "▁Col": 5493,
      "##чительно": 5494,
      "▁наблюда": 5495,
      "##тивной": 5496,
      "▁Feb": 5497,
      "▁ren": 5498,
      "▁еди": 5499,
      "▁investment": 5500,
      "##фон": 5501,
      "##ising": 5502,
      "##tims": 5503,
      "▁жизнь": 5504,
      "##be": 5505,
      "▁Гла": 5506,
      "##регули": 5507,
      "▁еже": 5508,
      "##ню": 5509,
      "▁провер": 5510,
      "▁Federation": 5511,
      "▁regular": 5512,
      "▁decided": 5513,
      "▁форма": 5514,
      "▁подвер": 5515,
      "▁рассмотрения": 5516,
      "##force": 5517,
      "▁народов": 5518,
      "##ruary": 5519,
      "▁посе": 5520,
      "▁доба": 5521,
      "##бри": 5522,
      "▁Националь": 5523,
      "▁секретариа": 5524,
      "##ians": 5525,
      "##туаль": 5526,
      "##ственным": 5527,
      "▁five": 5528,
      "▁statement": 5529,
      "▁подчеркну": 5530,
      "▁caus": 5531,
      "▁others": 5532,
      "▁Iraq": 5533,
      "▁Секретариа": 5534,
      "##коло": 5535,
      "▁refuge": 5536,
      "▁mechanisms": 5537,
      "▁changes": 5538,
      "▁study": 5539,
      "##rant": 5540,
      "▁усилий": 5541,
      "▁Des": 5542,
      "##ones": 5543,
      "▁actions": 5544,
      "▁guaran": 5545,
      "##rast": 5546,
      "##apan": 5547,
      "▁тради": 5548,
      "##летия": 5549,
      "го": 5550,
      "▁Ac": 5551,
      "▁rule": 5552,
      "##ding": 5553,
      "##гры": 5554,
      "▁ст": 5555,
      "##rison": 5556,
      "▁целом": 5557,
      "##arter": 5558,
      "▁Affairs": 5559,
      "▁obligations": 5560,
      "##ologies": 5561,
      "▁lear": 5562,
      "▁explo": 5563,
      "##вались": 5564,
      "##app": 5565,
      "▁пока": 5566,
      "▁My": 5567,
      "▁пять": 5568,
      "##ban": 5569,
      "▁марта": 5570,
      "##change": 5571,
      "▁mig": 5572,
      "##тором": 5573,
      "▁occup": 5574,
      "▁конферен": 5575,
      "##отя": 5576,
      "▁государствами": 5577,
      "##ream": 5578,
      "##щему": 5579,
      "▁Mos": 5580,
      "▁drug": 5581,
      "▁плане": 5582,
      "▁эту": 5583,
      "##тный": 5584,
      "▁Восто": 5585,
      "##anced": 5586,
      "##нача": 5587,
      "##ither": 5588,
      "▁хозяй": 5589,
      "##стями": 5590,
      "▁Ла": 5591,
      "▁February": 5592,
      "▁Этот": 5593,
      "▁camp": 5594,
      "based": 5595,
      "the": 5596,
      "▁облада": 5597,
      "▁Pri": 5598,
      "##чном": 5599,
      "▁замеча": 5600,
      "▁кризи": 5601,
      "▁reporting": 5602,
      "▁жа": 5603,
      "##ждый": 5604,
      "##ternet": 5605,
      "▁справедли": 5606,
      "▁эффективности": 5607,
      "##way": 5608,
      "##lex": 5609,
      "▁emphas": 5610,
      "▁руководя": 5611,
      "▁четыре": 5612,
      "▁ядерного": 5613,
      "▁срав": 5614,
      "##чего": 5615,
      "▁ap": 5616,
      "▁операций": 5617,
      "##виду": 5618,
      "▁создание": 5619,
      "##жей": 5620,
      "▁партнер": 5621,
      "##ton": 5622,
      "▁dri": 5623,
      "▁фев": 5624,
      "▁новые": 5625,
      "##enth": 5626,
      "##cy": 5627,
      "▁посвя": 5628,
      "▁event": 5629,
      "##бора": 5630,
      "##IN": 5631,
      "##ющимся": 5632,
      "##так": 5633,
      "##akes": 5634,
      "▁процедуры": 5635,
      "▁которую": 5636,
      "▁запи": 5637,
      "▁media": 5638,
      "▁статье": 5639,
      "▁степени": 5640,
      "▁sett": 5641,
      "▁бра": 5642,
      "▁сотрудничество": 5643,
      "##риан": 5644,
      "##ftware": 5645,
      "▁пункта": 5646,
      "▁оказания": 5647,
      "▁decisions": 5648,
      "##loc": 5649,
      "▁повестки": 5650,
      "▁беспла": 5651,
      "▁personnel": 5652,
      "##ум": 5653,
      "##oney": 5654,
      "▁relating": 5655,
      "▁перво": 5656,
      "▁затра": 5657,
      "▁находится": 5658,
      "▁зрения": 5659,
      "▁happ": 5660,
      "##ager": 5661,
      "▁кар": 5662,
      "##ino": 5663,
      "▁авгу": 5664,
      "▁продолжать": 5665,
      "▁координации": 5666,
      "##оз": 5667,
      "▁характер": 5668,
      "▁leaders": 5669,
      "▁armed": 5670,
      "▁аль": 5671,
      "##луа": 5672,
      "▁низ": 5673,
      "▁exc": 5674,
      "##СЕ": 5675,
      "##acy": 5676,
      "▁cris": 5677,
      "▁нищ": 5678,
      "▁sug": 5679,
      "▁наи": 5680,
      "##medi": 5681,
      "##зов": 5682,
      "##ший": 5683,
      "▁контексте": 5684,
      "##что": 5685,
      "▁наличи": 5686,
      "##ваны": 5687,
      "▁весь": 5688,
      "##ходы": 5689,
      "##анк": 5690,
      "▁joint": 5691,
      "▁ссы": 5692,
      "▁времен": 5693,
      "▁изо": 5694,
      "##циями": 5695,
      "##liance": 5696,
      "▁point": 5697,
      "##ably": 5698,
      "▁nature": 5699,
      "▁room": 5700,
      "##гля": 5701,
      "▁Фи": 5702,
      "##перь": 5703,
      "##eal": 5704,
      "▁нынеш": 5705,
      "##лены": 5706,
      "▁tool": 5707,
      "▁facilities": 5708,
      "##lia": 5709,
      "▁уровень": 5710,
      "▁age": 5711,
      "▁needed": 5712,
      "▁response": 5713,
      "##ъемлю": 5714,
      "▁observ": 5715,
      "▁правосу": 5716,
      "▁демократи": 5717,
      "▁организациями": 5718,
      "##десят": 5719,
      "▁Хотя": 5720,
      "##ctions": 5721,
      "▁иметь": 5722,
      "▁получить": 5723,
      "##ression": 5724,
      "▁отношения": 5725,
      "##деления": 5726,
      "▁performance": 5727,
      "▁ground": 5728,
      "##come": 5729,
      "▁potential": 5730,
      "##keeping": 5731,
      "##ify": 5732,
      "##бай": 5733,
      "▁постав": 5734,
      "▁принад": 5735,
      "up": 5736,
      "▁however": 5737,
      "▁transfer": 5738,
      "▁религи": 5739,
      "##скую": 5740,
      "▁веб": 5741,
      "##val": 5742,
      "▁услуги": 5743,
      "##imum": 5744,
      "##венства": 5745,
      "##тре": 5746,
      "▁точки": 5747,
      "▁Председатель": 5748,
      "▁poin": 5749,
      "▁Central": 5750,
      "##нали": 5751,
      "▁экспо": 5752,
      "▁practice": 5753,
      "▁sci": 5754,
      "##entific": 5755,
      "##jan": 5756,
      "▁Geor": 5757,
      "##abour": 5758,
      "▁января": 5759,
      "▁Ассамблея": 5760,
      "▁интересах": 5761,
      "▁апреля": 5762,
      "##oman": 5763,
      "▁demand": 5764,
      "▁until": 5765,
      "▁рав": 5766,
      "▁documents": 5767,
      "▁рефор": 5768,
      "▁strengthening": 5769,
      "▁процессе": 5770,
      "##ured": 5771,
      "▁ге": 5772,
      "▁His": 5773,
      "##selves": 5774,
      "##tification": 5775,
      "▁представителей": 5776,
      "▁инициати": 5777,
      "##ху": 5778,
      "▁коман": 5779,
      "##жных": 5780,
      "▁victims": 5781,
      "##лением": 5782,
      "##вычай": 5783,
      "▁одним": 5784,
      "▁финансовых": 5785,
      "▁think": 5786,
      "▁Специальный": 5787,
      "##ИЧ": 5788,
      "▁всей": 5789,
      "▁выступа": 5790,
      "##чено": 5791,
      "▁город": 5792,
      "##зд": 5793,
      "##жений": 5794,
      "▁компо": 5795,
      "▁февра": 5796,
      "##чными": 5797,
      "▁Act": 5798,
      "##ler": 5799,
      "▁citizens": 5800,
      "▁Эта": 5801,
      "▁которым": 5802,
      "▁комплекс": 5803,
      "▁суще": 5804,
      "▁согласи": 5805,
      "##ждает": 5806,
      "▁здоровья": 5807,
      "##joy": 5808,
      "▁annex": 5809,
      "##жем": 5810,
      "▁соответствующие": 5811,
      "▁окон": 5812,
      "##iting": 5813,
      "▁экономического": 5814,
      "▁нужно": 5815,
      "▁multi": 5816,
      "▁install": 5817,
      "▁забо": 5818,
      "▁труда": 5819,
      "##ющую": 5820,
      "##lied": 5821,
      "▁начи": 5822,
      "##зия": 5823,
      "▁fif": 5824,
      "##earch": 5825,
      "▁Sub": 5826,
      "▁coordination": 5827,
      "▁Director": 5828,
      "▁сообщения": 5829,
      "▁государствам": 5830,
      "▁costs": 5831,
      "▁нашей": 5832,
      "##ww": 5833,
      "##фрикан": 5834,
      "▁test": 5835,
      "▁eth": 5836,
      "▁opportunity": 5837,
      "▁либо": 5838,
      "▁adequ": 5839,
      "▁far": 5840,
      "##gn": 5841,
      "##зидент": 5842,
      "▁расходов": 5843,
      "▁build": 5844,
      "▁ито": 5845,
      "##ditional": 5846,
      "##жать": 5847,
      "▁Поэтому": 5848,
      "▁хи": 5849,
      "▁предложения": 5850,
      "▁clim": 5851,
      "##ery": 5852,
      "##icro": 5853,
      "##ible": 5854,
      "##ссо": 5855,
      "##вшей": 5856,
      "▁Represent": 5857,
      "▁analysis": 5858,
      "▁refer": 5859,
      "▁себе": 5860,
      "▁distrib": 5861,
      "▁часто": 5862,
      "##вли": 5863,
      "▁turn": 5864,
      "▁procedure": 5865,
      "##ственный": 5866,
      "▁эксплуа": 5867,
      "##ony": 5868,
      "▁Mar": 5869,
      "##лев": 5870,
      "##uration": 5871,
      "▁fail": 5872,
      "▁политических": 5873,
      "##CO": 5874,
      "▁обеспокоен": 5875,
      "▁принципа": 5876,
      "##ыду": 5877,
      "▁тен": 5878,
      "▁behalf": 5879,
      "▁ан": 5880,
      "##abilities": 5881,
      "term": 5882,
      "##iter": 5883,
      "▁положений": 5884,
      "▁yet": 5885,
      "▁bri": 5886,
      "▁Women": 5887,
      "▁Porn": 5888,
      "▁именно": 5889,
      "▁laws": 5890,
      "##acter": 5891,
      "▁forces": 5892,
      "##oid": 5893,
      "▁торго": 5894,
      "##льзую": 5895,
      "▁последу": 5896,
      "▁secretariat": 5897,
      "##тельный": 5898,
      "▁совершен": 5899,
      "##ites": 5900,
      "▁steps": 5901,
      "##лн": 5902,
      "▁never": 5903,
      "▁объя": 5904,
      "##рой": 5905,
      "▁early": 5906,
      "▁общего": 5907,
      "▁Inter": 5908,
      "##шать": 5909,
      "▁self": 5910,
      "##чают": 5911,
      "▁During": 5912,
      "▁value": 5913,
      "##cep": 5914,
      "##ilar": 5915,
      "▁защите": 5916,
      "##вобо": 5917,
      "▁Ты": 5918,
      "▁продолжи": 5919,
      "##olid": 5920,
      "##рев": 5921,
      "▁проя": 5922,
      "▁представляет": 5923,
      "##fficient": 5924,
      "##гие": 5925,
      "▁здравоохранения": 5926,
      "▁палестин": 5927,
      "▁ува": 5928,
      "▁ответственности": 5929,
      "▁другой": 5930,
      "▁Россий": 5931,
      "▁aimed": 5932,
      "▁rac": 5933,
      "##баты": 5934,
      "▁мор": 5935,
      "▁addressed": 5936,
      "▁Advis": 5937,
      "##gency": 5938,
      "st": 5939,
      "##idd": 5940,
      "▁преде": 5941,
      "▁целе": 5942,
      "▁planning": 5943,
      "▁правах": 5944,
      "▁разработке": 5945,
      "##inary": 5946,
      "▁доби": 5947,
      "▁Экономи": 5948,
      "▁край": 5949,
      "▁предусмотрен": 5950,
      "▁странами": 5951,
      "▁Сто": 5952,
      "##чное": 5953,
      "▁конференции": 5954,
      "▁объем": 5955,
      "##сен": 5956,
      "▁урегули": 5957,
      "▁неда": 5958,
      "▁гаранти": 5959,
      "▁purpose": 5960,
      "##ясь": 5961,
      "▁уделя": 5962,
      "▁ребен": 5963,
      "▁приоб": 5964,
      "▁tour": 5965,
      "▁coun": 5966,
      "▁устрой": 5967,
      "▁Mission": 5968,
      "▁strategy": 5969,
      "▁подписа": 5970,
      "##osp": 5971,
      "▁ори": 5972,
      "▁ради": 5973,
      "▁дело": 5974,
      "▁регу": 5975,
      "##ulated": 5976,
      "▁мини": 5977,
      "▁наказа": 5978,
      "##Tube": 5979,
      "▁East": 5980,
      "##ует": 5981,
      "▁прожи": 5982,
      "▁Bank": 5983,
      "▁ситуации": 5984,
      "▁amount": 5985,
      "▁King": 5986,
      "▁institution": 5987,
      "##ТА": 5988,
      "▁making": 5989,
      "▁евро": 5990,
      "▁определя": 5991,
      "▁регионе": 5992,
      "##хни": 5993,
      "▁инфра": 5994,
      "▁death": 5995,
      "##рных": 5996,
      "▁всеобъемлю": 5997,
      "The": 5998,
      "##шением": 5999,
      "▁потребностей": 6000,
      "▁today": 6001,
      "##бно": 6002,
      "##ведом": 6003,
      "▁Trans": 6004,
      "▁Департа": 6005,
      "▁имя": 6006,
      "##циям": 6007,
      "▁Asia": 6008,
      "##фа": 6009,
      "##вленных": 6010,
      "▁народа": 6011,
      "▁Республика": 6012,
      "▁responsible": 6013,
      "▁технологий": 6014,
      "▁соглашения": 6015,
      "▁пример": 6016,
      "##orture": 6017,
      "▁Service": 6018,
      "##na": 6019,
      "▁competi": 6020,
      "▁whole": 6021,
      "▁использование": 6022,
      "▁carried": 6023,
      "▁consist": 6024,
      "▁пути": 6025,
      "▁young": 6026,
      "▁сум": 6027,
      "▁расположен": 6028,
      "▁сексуаль": 6029,
      "▁companies": 6030,
      "▁acts": 6031,
      "▁abs": 6032,
      "##кус": 6033,
      "##чная": 6034,
      "##жден": 6035,
      "▁adoption": 6036,
      "▁mob": 6037,
      "▁Казах": 6038,
      "▁напо": 6039,
      "▁statis": 6040,
      "▁высоко": 6041,
      "##ins": 6042,
      "##скому": 6043,
      "▁подчерки": 6044,
      "▁сейчас": 6045,
      "▁Treat": 6046,
      "▁успеш": 6047,
      "▁rate": 6048,
      "##nov": 6049,
      "▁economy": 6050,
      "▁нарушения": 6051,
      "▁conclud": 6052,
      "▁final": 6053,
      "▁norm": 6054,
      "▁присо": 6055,
      "▁финансирования": 6056,
      "##reme": 6057,
      "▁уби": 6058,
      "▁дней": 6059,
      "##eva": 6060,
      "##eting": 6061,
      "▁гражданского": 6062,
      "▁live": 6063,
      "##иму": 6064,
      "▁organ": 6065,
      "##aper": 6066,
      "▁обязательств": 6067,
      "##oming": 6068,
      "##most": 6069,
      "▁indigenous": 6070,
      "▁upd": 6071,
      "▁ква": 6072,
      "▁matter": 6073,
      "▁условия": 6074,
      "▁состо": 6075,
      "##дания": 6076,
      "▁Sc": 6077,
      "##ached": 6078,
      "▁week": 6079,
      "▁форми": 6080,
      "▁чрезвычай": 6081,
      "▁роста": 6082,
      "##CC": 6083,
      "участни": 6084,
      "▁activity": 6085,
      "▁рекомендаций": 6086,
      "▁транспорт": 6087,
      "▁harm": 6088,
      "▁Some": 6089,
      "##OR": 6090,
      "##ateg": 6091,
      "▁руководи": 6092,
      "##рем": 6093,
      "▁биз": 6094,
      "▁enjoy": 6095,
      "▁социальной": 6096,
      "▁качества": 6097,
      "▁mean": 6098,
      "▁умень": 6099,
      "##ired": 6100,
      "##lections": 6101,
      "▁результаты": 6102,
      "▁активи": 6103,
      "▁run": 6104,
      "▁employment": 6105,
      "▁позволяет": 6106,
      "▁basic": 6107,
      "##телям": 6108,
      "▁Party": 6109,
      "▁многие": 6110,
      "▁сторон": 6111,
      "##ним": 6112,
      "▁Fore": 6113,
      "▁клима": 6114,
      "▁violations": 6115,
      "прежнему": 6116,
      "▁commitment": 6117,
      "▁funds": 6118,
      "▁удовлетво": 6119,
      "governmental": 6120,
      "▁областях": 6121,
      "▁forms": 6122,
      "##дой": 6123,
      "▁беженцев": 6124,
      "▁reason": 6125,
      "▁share": 6126,
      "▁взно": 6127,
      "##вана": 6128,
      "▁line": 6129,
      "▁phys": 6130,
      "▁conven": 6131,
      "##olution": 6132,
      "▁отли": 6133,
      "▁range": 6134,
      "▁университе": 6135,
      "▁organized": 6136,
      "▁Хо": 6137,
      "▁инфраструкту": 6138,
      "▁exerc": 6139,
      "▁очеред": 6140,
      "▁III": 6141,
      "▁уровнях": 6142,
      "▁люби": 6143,
      "##ances": 6144,
      "CN": 6145,
      "▁поя": 6146,
      "▁currently": 6147,
      "▁выя": 6148,
      "##ops": 6149,
      "▁ответственность": 6150,
      "▁sep": 6151,
      "▁касающихся": 6152,
      "##veness": 6153,
      "▁prepared": 6154,
      "▁More": 6155,
      "##цени": 6156,
      "▁прове": 6157,
      "##шить": 6158,
      "▁involved": 6159,
      "▁сай": 6160,
      "▁modern": 6161,
      "▁предвари": 6162,
      "▁fri": 6163,
      "##mar": 6164,
      "▁фору": 6165,
      "▁ним": 6166,
      "▁службы": 6167,
      "▁coordin": 6168,
      "▁нищеты": 6169,
      "▁такого": 6170,
      "▁инди": 6171,
      "▁вместе": 6172,
      "▁higher": 6173,
      "▁determin": 6174,
      "##нга": 6175,
      "##ova": 6176,
      "##лизо": 6177,
      "▁тому": 6178,
      "▁tal": 6179,
      "▁manufact": 6180,
      "##yc": 6181,
      "▁поводу": 6182,
      "▁вариан": 6183,
      "##СК": 6184,
      "▁flo": 6185,
      "▁wish": 6186,
      "##вающих": 6187,
      "▁препят": 6188,
      "▁поэтому": 6189,
      "##aches": 6190,
      "▁exam": 6191,
      "##nic": 6192,
      "▁Dem": 6193,
      "▁Techn": 6194,
      "##гент": 6195,
      "▁потому": 6196,
      "▁Imp": 6197,
      "▁experts": 6198,
      "▁materials": 6199,
      "ре": 6200,
      "##lusion": 6201,
      "▁near": 6202,
      "▁done": 6203,
      "▁креди": 6204,
      "##elines": 6205,
      "▁ele": 6206,
      "▁Administ": 6207,
      "##lands": 6208,
      "##ese": 6209,
      "##osed": 6210,
      "▁информи": 6211,
      "▁promotion": 6212,
      "▁dialogue": 6213,
      "▁events": 6214,
      "##ологи": 6215,
      "##ransition": 6216,
      "▁Америки": 6217,
      "▁Ира": 6218,
      "▁Aust": 6219,
      "##cow": 6220,
      "▁wide": 6221,
      "▁Ал": 6222,
      "##лить": 6223,
      "▁простран": 6224,
      "##liament": 6225,
      "▁н": 6226,
      "##гран": 6227,
      "▁peoples": 6228,
      "▁University": 6229,
      "▁составля": 6230,
      "▁подроб": 6231,
      "▁plans": 6232,
      "▁having": 6233,
      "▁writ": 6234,
      "▁sw": 6235,
      "##доволь": 6236,
      "##вии": 6237,
      "▁text": 6238,
      "▁ло": 6239,
      "▁times": 6240,
      "▁freedom": 6241,
      "##lam": 6242,
      "▁един": 6243,
      "##by": 6244,
      "##емый": 6245,
      "▁Когда": 6246,
      "▁connection": 6247,
      "▁роди": 6248,
      "▁поме": 6249,
      "##тания": 6250,
      "##oh": 6251,
      "▁administrative": 6252,
      "▁greater": 6253,
      "##дем": 6254,
      "▁committed": 6255,
      "▁Child": 6256,
      "▁office": 6257,
      "▁som": 6258,
      "##rance": 6259,
      "##amb": 6260,
      "##aken": 6261,
      "▁prevention": 6262,
      "▁Ан": 6263,
      "▁mass": 6264,
      "▁семей": 6265,
      "▁attack": 6266,
      "##льное": 6267,
      "▁safety": 6268,
      "▁силы": 6269,
      "▁вклад": 6270,
      "▁continu": 6271,
      "##зви": 6272,
      "##bai": 6273,
      "▁предыду": 6274,
      "▁consum": 6275,
      "##EP": 6276,
      "##isc": 6277,
      "##ored": 6278,
      "▁experi": 6279,
      "▁AS": 6280,
      "▁национального": 6281,
      "▁site": 6282,
      "▁personal": 6283,
      "##стер": 6284,
      "▁Vi": 6285,
      "▁protect": 6286,
      "▁cli": 6287,
      "##байджа": 6288,
      "▁хотел": 6289,
      "▁kind": 6290,
      "##tt": 6291,
      "##зербайджа": 6292,
      "##AS": 6293,
      "▁opportunities": 6294,
      "▁посредством": 6295,
      "##мера": 6296,
      "##ubl": 6297,
      "▁successful": 6298,
      "▁районах": 6299,
      "##yd": 6300,
      "▁Cl": 6301,
      "▁поддержанию": 6302,
      "▁disp": 6303,
      "▁Med": 6304,
      "##гото": 6305,
      "▁sing": 6306,
      "▁home": 6307,
      "##unic": 6308,
      "##цей": 6309,
      "▁ликвидации": 6310,
      "▁enhance": 6311,
      "▁sexual": 6312,
      "▁ban": 6313,
      "▁переме": 6314,
      "▁assessment": 6315,
      "##load": 6316,
      "##вится": 6317,
      "▁infrast": 6318,
      "##ung": 6319,
      "▁Eng": 6320,
      "▁случаев": 6321,
      "▁площа": 6322,
      "##mission": 6323,
      "▁aud": 6324,
      "▁сообщества": 6325,
      "▁proceed": 6326,
      "▁supported": 6327,
      "##ions": 6328,
      "▁too": 6329,
      "▁regist": 6330,
      "▁окку": 6331,
      "▁центра": 6332,
      "▁положение": 6333,
      "##лые": 6334,
      "▁региональных": 6335,
      "▁Интер": 6336,
      "▁ВИЧ": 6337,
      "▁disarmament": 6338,
      "##пусти": 6339,
      "▁Executive": 6340,
      "▁Am": 6341,
      "▁Правитель": 6342,
      "##их": 6343,
      "##руется": 6344,
      "▁четвер": 6345,
      "▁какой": 6346,
      "##ложить": 6347,
      "▁After": 6348,
      "▁essential": 6349,
      "▁date": 6350,
      "##ara": 6351,
      "▁обви": 6352,
      "▁Georg": 6353,
      "▁capital": 6354,
      "##жит": 6355,
      "▁priority": 6356,
      "▁избира": 6357,
      "▁распреде": 6358,
      "##гети": 6359,
      "##zerbai": 6360,
      "▁Международного": 6361,
      "##zerbaijan": 6362,
      "##iversal": 6363,
      "▁HIV": 6364,
      "▁большой": 6365,
      "▁Коро": 6366,
      "▁оконча": 6367,
      "▁исследования": 6368,
      "##лин": 6369,
      "##iency": 6370,
      "▁бюджета": 6371,
      "UN": 6372,
      "▁вопроса": 6373,
      "▁flow": 6374,
      "▁чув": 6375,
      "▁периода": 6376,
      "▁crime": 6377,
      "▁Add": 6378,
      "▁host": 6379,
      "▁processes": 6380,
      "##тельности": 6381,
      "▁экономических": 6382,
      "##шки": 6383,
      "▁Сторо": 6384,
      "▁суда": 6385,
      "▁stress": 6386,
      "▁иностранных": 6387,
      "con": 6388,
      "▁сотрудничестве": 6389,
      "##пря": 6390,
      "▁люди": 6391,
      "▁регуляр": 6392,
      "▁Ана": 6393,
      "▁процента": 6394,
      "▁partnership": 6395,
      "▁выда": 6396,
      "▁настоятельно": 6397,
      "▁второй": 6398,
      "##ires": 6399,
      "##ье": 6400,
      "▁Information": 6401,
      "▁фото": 6402,
      "▁Mal": 6403,
      "##шую": 6404,
      "▁Li": 6405,
      "##cent": 6406,
      "##OS": 6407,
      "▁Shemale": 6408,
      "▁жур": 6409,
      "▁Constitution": 6410,
      "##ческому": 6411,
      "##женных": 6412,
      "##тельным": 6413,
      "##лко": 6414,
      "##бую": 6415,
      "▁свед": 6416,
      "▁получения": 6417,
      "▁reli": 6418,
      "▁женщины": 6419,
      "▁climate": 6420,
      "▁макси": 6421,
      "▁sal": 6422,
      "##вому": 6423,
      "▁Ter": 6424,
      "▁trafficking": 6425,
      "▁Нес": 6426,
      "▁последние": 6427,
      "▁результатов": 6428,
      "▁создать": 6429,
      "##нглий": 6430,
      "▁национальной": 6431,
      "▁oil": 6432,
      "▁считает": 6433,
      "▁совещания": 6434,
      "▁dire": 6435,
      "##vere": 6436,
      "▁милли": 6437,
      "▁социальных": 6438,
      "##годи": 6439,
      "##aid": 6440,
      "▁принципов": 6441,
      "##stances": 6442,
      "▁ниже": 6443,
      "##verse": 6444,
      "▁model": 6445,
      "▁webs": 6446,
      "▁Peace": 6447,
      "▁effect": 6448,
      "▁Gen": 6449,
      "▁запро": 6450,
      "▁immedi": 6451,
      "▁Фран": 6452,
      "##хозяй": 6453,
      "▁разно": 6454,
      "▁going": 6455,
      "▁independent": 6456,
      "▁обе": 6457,
      "▁следующие": 6458,
      "##няя": 6459,
      "▁ими": 6460,
      "▁обществен": 6461,
      "##action": 6462,
      "▁Группа": 6463,
      "▁character": 6464,
      "▁minor": 6465,
      "▁Ms": 6466,
      "##areness": 6467,
      "##rice": 6468,
      "▁несколь": 6469,
      "▁тури": 6470,
      "##ulner": 6471,
      "▁type": 6472,
      "▁местах": 6473,
      "▁ключе": 6474,
      "##нуть": 6475,
      "##щений": 6476,
      "##ivision": 6477,
      "##ticles": 6478,
      "##atures": 6479,
      "▁выступи": 6480,
      "▁initiatives": 6481,
      "▁hard": 6482,
      "▁equality": 6483,
      "▁understanding": 6484,
      "##дро": 6485,
      "▁общей": 6486,
      "▁ними": 6487,
      "▁EU": 6488,
      "##erous": 6489,
      "▁согласован": 6490,
      "##venant": 6491,
      "▁гото": 6492,
      "▁Centre": 6493,
      "▁глубо": 6494,
      "▁экономики": 6495,
      "▁limited": 6496,
      "▁TV": 6497,
      "▁conference": 6498,
      "##прово": 6499,
      "▁mission": 6500,
      "▁связанные": 6501,
      "##снов": 6502,
      "▁прежде": 6503,
      "▁роли": 6504,
      "▁Лю": 6505,
      "##езд": 6506,
      "##мый": 6507,
      "##никами": 6508,
      "▁разде": 6509,
      "##лити": 6510,
      "▁offer": 6511,
      "▁план": 6512,
      "##tiveness": 6513,
      "▁порядке": 6514,
      "▁шта": 6515,
      "▁presented": 6516,
      "▁рассмотрение": 6517,
      "▁agreements": 6518,
      "▁Догово": 6519,
      "▁elim": 6520,
      "##osition": 6521,
      "##щер": 6522,
      "▁видов": 6523,
      "▁identify": 6524,
      "##amental": 6525,
      "▁sy": 6526,
      "##ян": 6527,
      "##AR": 6528,
      "▁language": 6529,
      "▁expected": 6530,
      "▁Верхов": 6531,
      "▁software": 6532,
      "▁Bra": 6533,
      "▁Japan": 6534,
      "▁agric": 6535,
      "▁преступления": 6536,
      "▁crisis": 6537,
      "##тка": 6538,
      "▁взя": 6539,
      "▁compon": 6540,
      "▁благодаря": 6541,
      "▁recommended": 6542,
      "##чности": 6543,
      "▁указы": 6544,
      "▁communication": 6545,
      "▁blo": 6546,
      "▁ensuring": 6547,
      "##loyment": 6548,
      "▁construction": 6549,
      "▁complex": 6550,
      "building": 6551,
      "##gent": 6552,
      "▁ShemaleZ": 6553,
      "▁section": 6554,
      "▁Moscow": 6555,
      "##ya": 6556,
      "##ribun": 6557,
      "▁promoting": 6558,
      "▁respond": 6559,
      "▁questions": 6560,
      "▁Pan": 6561,
      "▁ска": 6562,
      "▁shemale": 6563,
      "▁заявления": 6564,
      "▁apply": 6565,
      "▁By": 6566,
      "▁strategies": 6567,
      "▁participants": 6568,
      "▁principle": 6569,
      "▁документов": 6570,
      "##мед": 6571,
      "▁located": 6572,
      "▁экономической": 6573,
      "▁спа": 6574,
      "▁национальном": 6575,
      "##emp": 6576,
      "##дите": 6577,
      "▁веду": 6578,
      "▁непосред": 6579,
      "▁рассмотреть": 6580,
      "##ьер": 6581,
      "▁exchange": 6582,
      "▁Минист": 6583,
      "##ните": 6584,
      "▁regions": 6585,
      "▁itself": 6586,
      "##ees": 6587,
      "##oral": 6588,
      "▁Azerbaijan": 6589,
      "##номочи": 6590,
      "▁обслуживания": 6591,
      "▁believe": 6592,
      "##reci": 6593,
      "▁досто": 6594,
      "▁природ": 6595,
      "##ева": 6596,
      "▁россий": 6597,
      "▁carry": 6598,
      "▁поддержке": 6599,
      "##ваем": 6600,
      "▁участников": 6601,
      "##ills": 6602,
      "▁озабо": 6603,
      "▁свидетель": 6604,
      "▁created": 6605,
      "▁другим": 6606,
      "▁effects": 6607,
      "▁vulner": 6608,
      "##itable": 6609,
      "##льная": 6610,
      "▁arrange": 6611,
      "▁Организация": 6612,
      "▁away": 6613,
      "##вости": 6614,
      "##ходят": 6615,
      "▁territory": 6616,
      "▁operation": 6617,
      "▁наших": 6618,
      "▁представления": 6619,
      "▁communities": 6620,
      "##язви": 6621,
      "▁расс": 6622,
      "##hic": 6623,
      "▁positive": 6624,
      "▁Aut": 6625,
      "##чем": 6626,
      "##трак": 6627,
      "участник": 6628,
      "##tors": 6629,
      "▁hous": 6630,
      "▁arms": 6631,
      "▁instruments": 6632,
      "##ique": 6633,
      "##eks": 6634,
      "##EN": 6635,
      "▁alleg": 6636,
      "▁infrastructure": 6637,
      "▁Plan": 6638,
      "▁принимать": 6639,
      "##rought": 6640,
      "▁неу": 6641,
      "▁anti": 6642,
      "▁молоде": 6643,
      "##гиональ": 6644,
      "##зей": 6645,
      "##щает": 6646,
      "▁terrorism": 6647,
      "##urs": 6648,
      "▁действую": 6649,
      "▁Группы": 6650,
      "##ровании": 6651,
      "▁присут": 6652,
      "▁климата": 6653,
      "▁августа": 6654,
      "▁industry": 6655,
      "▁reduce": 6656,
      "##строи": 6657,
      "▁регистра": 6658,
      "##нев": 6659,
      "##тности": 6660,
      "▁mind": 6661,
      "▁оборо": 6662,
      "▁enterpris": 6663,
      "▁resid": 6664,
      "▁awareness": 6665,
      "▁две": 6666,
      "##tically": 6667,
      "##ada": 6668,
      "▁Африки": 6669,
      "▁pat": 6670,
      "▁consultations": 6671,
      "▁делегация": 6672,
      "▁money": 6673,
      "▁вра": 6674,
      "▁предполага": 6675,
      "▁online": 6676,
      "##yri": 6677,
      "▁former": 6678,
      "▁ребенка": 6679,
      "▁objectives": 6680,
      "▁категории": 6681,
      "▁book": 6682,
      "##eed": 6683,
      "▁дума": 6684,
      "##гани": 6685,
      "▁mach": 6686,
      "▁Консульта": 6687,
      "▁коренных": 6688,
      "▁z": 6689,
      "##ешь": 6690,
      "##omb": 6691,
      "▁pursu": 6692,
      "▁Code": 6693,
      "▁once": 6694,
      "##lav": 6695,
      "▁автомо": 6696,
      "▁dou": 6697,
      "▁Rev": 6698,
      "▁Че": 6699,
      "##вета": 6700,
      "▁why": 6701,
      "▁рекомендует": 6702,
      "##куп": 6703,
      "▁проведение": 6704,
      "▁озабочен": 6705,
      "▁косми": 6706,
      "##НИ": 6707,
      "▁standard": 6708,
      "##uations": 6709,
      "▁mess": 6710,
      "##lick": 6711,
      "▁appear": 6712,
      "▁обстоя": 6713,
      "▁сети": 6714,
      "▁reduction": 6715,
      "##вержен": 6716,
      "##сков": 6717,
      "▁международным": 6718,
      "▁всё": 6719,
      "▁workers": 6720,
      "▁Advisory": 6721,
      "▁предлагает": 6722,
      "▁подоб": 6723,
      "▁ресурсы": 6724,
      "▁ООН": 6725,
      "▁моби": 6726,
      "▁Our": 6727,
      "##hibition": 6728,
      "▁Her": 6729,
      "▁Суда": 6730,
      "##рованные": 6731,
      "▁goals": 6732,
      "##дьми": 6733,
      "▁коне": 6734,
      "▁et": 6735,
      "▁около": 6736,
      "##рет": 6737,
      "##ссей": 6738,
      "▁UNI": 6739,
      "▁Op": 6740,
      "▁spirit": 6741,
      "##IDS": 6742,
      "▁individuals": 6743,
      "▁Декларации": 6744,
      "▁Covenant": 6745,
      "▁Internet": 6746,
      "▁Peop": 6747,
      "▁categ": 6748,
      "▁чер": 6749,
      "▁Further": 6750,
      "▁уязви": 6751,
      "##OP": 6752,
      "▁количество": 6753,
      "▁нико": 6754,
      "▁Cor": 6755,
      "▁энергии": 6756,
      "##pite": 6757,
      "▁провести": 6758,
      "▁Te": 6759,
      "▁ущер": 6760,
      "▁informed": 6761,
      "##rain": 6762,
      "▁weeks": 6763,
      "▁людьми": 6764,
      "▁конкретных": 6765,
      "▁первой": 6766,
      "▁стали": 6767,
      "##aries": 6768,
      "▁февраля": 6769,
      "▁Since": 6770,
      "▁недели": 6771,
      "▁adequate": 6772,
      "##ПО": 6773,
      "▁officials": 6774,
      "▁Рас": 6775,
      "▁methods": 6776,
      "▁месяца": 6777,
      "▁Ali": 6778,
      "▁cal": 6779,
      "▁link": 6780,
      "▁относя": 6781,
      "▁stated": 6782,
      "##pped": 6783,
      "##aces": 6784,
      "▁estim": 6785,
      "▁вызы": 6786,
      "▁themselves": 6787,
      "▁конвенции": 6788,
      "▁aspects": 6789,
      "##тным": 6790,
      "▁Management": 6791,
      "▁семина": 6792,
      "##ats": 6793,
      "▁Стра": 6794,
      "##of": 6795,
      "▁things": 6796,
      "▁Other": 6797,
      "▁forward": 6798,
      "▁technologies": 6799,
      "▁последствий": 6800,
      "▁Chairman": 6801,
      "▁obtain": 6802,
      "▁социального": 6803,
      "##рг": 6804,
      "▁separ": 6805,
      "▁остро": 6806,
      "##боль": 6807,
      "▁laun": 6808,
      "▁просит": 6809,
      "##няется": 6810,
      "##шает": 6811,
      "▁requests": 6812,
      "▁меньшин": 6813,
      "▁girls": 6814,
      "##illed": 6815,
      "##stitute": 6816,
      "▁адре": 6817,
      "##erson": 6818,
      "▁dam": 6819,
      "▁задач": 6820,
      "##менить": 6821,
      "▁пси": 6822,
      "▁Конститу": 6823,
      "##istic": 6824,
      "▁комна": 6825,
      "▁системе": 6826,
      "▁момент": 6827,
      "▁Report": 6828,
      "▁нако": 6829,
      "##мерикан": 6830,
      "▁Му": 6831,
      "▁discussion": 6832,
      "▁implemented": 6833,
      "##rist": 6834,
      "##способ": 6835,
      "▁наши": 6836,
      "##anda": 6837,
      "##ственными": 6838,
      "##rest": 6839,
      "▁treaty": 6840,
      "▁fundamental": 6841,
      "▁decl": 6842,
      "▁contract": 6843,
      "▁материалов": 6844,
      "▁технологии": 6845,
      "▁механизмов": 6846,
      "▁конкурен": 6847,
      "▁ce": 6848,
      "▁ways": 6849,
      "▁сту": 6850,
      "▁strategic": 6851,
      "▁computer": 6852,
      "▁feel": 6853,
      "▁нового": 6854,
      "▁below": 6855,
      "▁Head": 6856,
      "▁Under": 6857,
      "##unt": 6858,
      "▁entire": 6859,
      "▁любой": 6860,
      "##uel": 6861,
      "##стью": 6862,
      "▁продоволь": 6863,
      "▁court": 6864,
      "▁различные": 6865,
      "##дцать": 6866,
      "▁мони": 6867,
      "▁equal": 6868,
      "##hemical": 6869,
      "▁professional": 6870,
      "▁medical": 6871,
      "▁Конвен": 6872,
      "▁receive": 6873,
      "##хождения": 6874,
      "▁бло": 6875,
      "▁reserv": 6876,
      "▁mus": 6877,
      "▁implementing": 6878,
      "▁представители": 6879,
      "▁распростра": 6880,
      "##alls": 6881,
      "▁функциони": 6882,
      "▁appreci": 6883,
      "▁thus": 6884,
      "##rary": 6885,
      "▁быстро": 6886,
      "▁difficult": 6887,
      "##вшихся": 6888,
      "##ched": 6889,
      "▁фа": 6890,
      "▁vari": 6891,
      "##рба": 6892,
      "▁капита": 6893,
      "▁компания": 6894,
      "▁Тур": 6895,
      "▁demonst": 6896,
      "ll": 6897,
      "▁star": 6898,
      "▁религиоз": 6899,
      "##eria": 6900,
      "▁ежегод": 6901,
      "▁девоч": 6902,
      "▁нес": 6903,
      "▁существо": 6904,
      "▁facilitate": 6905,
      "##hab": 6906,
      "▁includes": 6907,
      "▁необходимые": 6908,
      "▁deep": 6909,
      "▁Королев": 6910,
      "▁enforce": 6911,
      "▁describ": 6912,
      "▁remains": 6913,
      "##HC": 6914,
      "##след": 6915,
      "##lies": 6916,
      "▁Глав": 6917,
      "▁notes": 6918,
      "▁тебя": 6919,
      "##зировать": 6920,
      "##ification": 6921,
      "##вид": 6922,
      "▁affected": 6923,
      "▁уничто": 6924,
      "##тельное": 6925,
      "▁собра": 6926,
      "▁Representative": 6927,
      "▁Соединенных": 6928,
      "▁истори": 6929,
      "##блее": 6930,
      "▁cle": 6931,
      "##нала": 6932,
      "▁там": 6933,
      "▁Ду": 6934,
      "▁recognized": 6935,
      "▁Live": 6936,
      "▁complain": 6937,
      "##пара": 6938,
      "▁касающиеся": 6939,
      "##чную": 6940,
      "▁теку": 6941,
      "##джи": 6942,
      "▁System": 6943,
      "▁Али": 6944,
      "▁structure": 6945,
      "▁ваш": 6946,
      "▁перево": 6947,
      "▁полномочи": 6948,
      "▁выпла": 6949,
      "##лег": 6950,
      "▁elections": 6951,
      "▁Sum": 6952,
      "##ething": 6953,
      "▁государственных": 6954,
      "▁информацион": 6955,
      "▁Kingdom": 6956,
      "##EC": 6957,
      "▁bar": 6958,
      "▁transition": 6959,
      "▁максима": 6960,
      "▁Специального": 6961,
      "▁lat": 6962,
      "##образ": 6963,
      "▁полной": 6964,
      "▁consequ": 6965,
      "▁suff": 6966,
      "##тым": 6967,
      "▁religious": 6968,
      "▁внимания": 6969,
      "ми": 6970,
      "##муника": 6971,
      "▁Do": 6972,
      "▁Госпо": 6973,
      "▁систему": 6974,
      "##зь": 6975,
      "▁сил": 6976,
      "▁Генеральная": 6977,
      "▁назы": 6978,
      "##док": 6979,
      "amp": 6980,
      "▁бассей": 6981,
      "##вало": 6982,
      "▁product": 6983,
      "▁Treaty": 6984,
      "▁physical": 6985,
      "##мби": 6986,
      "▁similar": 6987,
      "▁хими": 6988,
      "##дых": 6989,
      "▁tax": 6990,
      "▁circum": 6991,
      "▁funding": 6992,
      "##racy": 6993,
      "▁оцени": 6994,
      "▁Герма": 6995,
      "▁почти": 6996,
      "▁стоимо": 6997,
      "▁contribute": 6998,
      "le": 6999,
      "▁международном": 7000,
      "▁друг": 7001,
      "##ченные": 7002,
      "▁возник": 7003,
      "▁соверш": 7004,
      "▁PornH": 7005,
      "##мого": 7006,
      "##льным": 7007,
      "▁Сле": 7008,
      "##atch": 7009,
      "▁привержен": 7010,
      "▁pack": 7011,
      "▁ste": 7012,
      "▁практики": 7013,
      "▁Пере": 7014,
      "▁законодательства": 7015,
      "▁hon": 7016,
      "##щенных": 7017,
      "▁publ": 7018,
      "▁internal": 7019,
      "▁Ассамблее": 7020,
      "▁annual": 7021,
      "▁Сове": 7022,
      "▁First": 7023,
      "▁love": 7024,
      "▁Генеральный": 7025,
      "▁труд": 7026,
      "▁transp": 7027,
      "##ВК": 7028,
      "▁try": 7029,
      "##sy": 7030,
      "##енности": 7031,
      "▁little": 7032,
      "▁pun": 7033,
      "▁приложение": 7034,
      "▁loss": 7035,
      "##руг": 7036,
      "▁дене": 7037,
      "▁исследований": 7038,
      "▁mov": 7039,
      "▁начала": 7040,
      "▁parts": 7041,
      "▁плана": 7042,
      "▁offic": 7043,
      "##ленные": 7044,
      "▁views": 7045,
      "##тай": 7046,
      "▁PornHub": 7047,
      "▁torture": 7048,
      "▁последствия": 7049,
      "##ilies": 7050,
      "▁заседания": 7051,
      "##RC": 7052,
      "##ume": 7053,
      "▁полиции": 7054,
      "▁министер": 7055,
      "▁каждый": 7056,
      "▁functions": 7057,
      "▁Пу": 7058,
      "▁keep": 7059,
      "▁канди": 7060,
      "▁crimes": 7061,
      "▁prosec": 7062,
      "##ourn": 7063,
      "##ект": 7064,
      "▁предна": 7065,
      "▁срок": 7066,
      "▁подраз": 7067,
      "▁одо": 7068,
      "▁throughout": 7069,
      "##рении": 7070,
      "▁голосо": 7071,
      "▁вну": 7072,
      "▁opp": 7073,
      "##asm": 7074,
      "##ict": 7075,
      "▁designed": 7076,
      "▁обна": 7077,
      "##tilateral": 7078,
      "▁парла": 7079,
      "▁свободы": 7080,
      "те": 7081,
      "▁своим": 7082,
      "▁кандида": 7083,
      "▁class": 7084,
      "▁стабиль": 7085,
      "▁peacekeeping": 7086,
      "▁оп": 7087,
      "▁замести": 7088,
      "##каз": 7089,
      "▁процедур": 7090,
      "▁fav": 7091,
      "▁внес": 7092,
      "##eng": 7093,
      "▁operational": 7094,
      "▁пяти": 7095,
      "##read": 7096,
      "▁directly": 7097,
      "▁эффективного": 7098,
      "▁bed": 7099,
      "▁manner": 7100,
      "##ступления": 7101,
      "▁которыми": 7102,
      "##вший": 7103,
      "▁proposals": 7104,
      "##ждений": 7105,
      "▁вед": 7106,
      "▁innov": 7107,
      "##тивным": 7108,
      "▁vehic": 7109,
      "##влением": 7110,
      "▁gener": 7111,
      "▁отметил": 7112,
      "▁тя": 7113,
      "##room": 7114,
      "▁семьи": 7115,
      "##публико": 7116,
      "▁све": 7117,
      "▁Ри": 7118,
      "▁Ста": 7119,
      "##roll": 7120,
      "▁whose": 7121,
      "▁hours": 7122,
      "##няет": 7123,
      "▁одна": 7124,
      "▁dom": 7125,
      "▁collabor": 7126,
      "▁каждого": 7127,
      "▁внед": 7128,
      "▁forest": 7129,
      "▁народ": 7130,
      "##стям": 7131,
      "▁механизма": 7132,
      "▁phot": 7133,
      "##ensus": 7134,
      "▁инвали": 7135,
      "▁прогресса": 7136,
      "##шли": 7137,
      "▁Азии": 7138,
      "▁многосторон": 7139,
      "▁тысяче": 7140,
      "▁ten": 7141,
      "▁периоди": 7142,
      "▁Ха": 7143,
      "▁offers": 7144,
      "##izes": 7145,
      "▁посети": 7146,
      "▁расширения": 7147,
      "##arent": 7148,
      "##ПИД": 7149,
      "▁спро": 7150,
      "##oph": 7151,
      "▁полез": 7152,
      "▁fulf": 7153,
      "▁Charter": 7154,
      "▁benefits": 7155,
      "▁чего": 7156,
      "▁управля": 7157,
      "▁acqu": 7158,
      "▁председа": 7159,
      "▁single": 7160,
      "▁самым": 7161,
      "▁содействовать": 7162,
      "##iguration": 7163,
      "▁принял": 7164,
      "▁рабочих": 7165,
      "▁neg": 7166,
      "▁неф": 7167,
      "▁red": 7168,
      "▁evidence": 7169,
      "▁accept": 7170,
      "▁conduct": 7171,
      "▁существует": 7172,
      "▁затем": 7173,
      "▁participate": 7174,
      "▁отме": 7175,
      "▁exce": 7176,
      "##ana": 7177,
      "▁labour": 7178,
      "##лле": 7179,
      "##raft": 7180,
      "▁opin": 7181,
      "##order": 7182,
      "##нении": 7183,
      "##мок": 7184,
      "▁students": 7185,
      "▁всеми": 7186,
      "▁компонен": 7187,
      "##iddle": 7188,
      "▁prison": 7189,
      "##ador": 7190,
      "▁speak": 7191,
      "##бер": 7192,
      "▁approved": 7193,
      "##рованы": 7194,
      "▁matters": 7195,
      "▁долгосро": 7196,
      "▁Mill": 7197,
      "▁Ти": 7198,
      "▁statements": 7199,
      "▁оказывать": 7200,
      "▁огром": 7201,
      "##дж": 7202,
      "▁секто": 7203,
      "##ником": 7204,
      "##ваемых": 7205,
      "▁новый": 7206,
      "##aps": 7207,
      "▁использую": 7208,
      "▁монитори": 7209,
      "▁later": 7210,
      "▁expl": 7211,
      "▁conducted": 7212,
      "▁integrated": 7213,
      "▁lar": 7214,
      "▁issued": 7215,
      "▁президен": 7216,
      "▁enable": 7217,
      "▁международные": 7218,
      "##ilt": 7219,
      "▁interests": 7220,
      "▁поле": 7221,
      "##ze": 7222,
      "▁тенден": 7223,
      "▁выражает": 7224,
      "▁обмен": 7225,
      "▁подготовке": 7226,
      "▁Боль": 7227,
      "▁экс": 7228,
      "##чит": 7229,
      "##ux": 7230,
      "▁обрабо": 7231,
      "▁seem": 7232,
      "▁охваты": 7233,
      "##urer": 7234,
      "##зор": 7235,
      "##uts": 7236,
      "##ronic": 7237,
      "▁преступности": 7238,
      "▁table": 7239,
      "▁Agree": 7240,
      "▁cred": 7241,
      "##urch": 7242,
      "▁combat": 7243,
      "▁contributions": 7244,
      "##лико": 7245,
      "▁something": 7246,
      "▁respective": 7247,
      "##ideo": 7248,
      "▁правосудия": 7249,
      "▁доброволь": 7250,
      "▁fight": 7251,
      "▁prec": 7252,
      "##poses": 7253,
      "▁mom": 7254,
      "▁log": 7255,
      "▁органы": 7256,
      "##ilateral": 7257,
      "▁Африке": 7258,
      "▁переговоров": 7259,
      "##едини": 7260,
      "▁ethnic": 7261,
      "▁суд": 7262,
      "▁overall": 7263,
      "▁какие": 7264,
      "▁website": 7265,
      "▁integration": 7266,
      "▁Germany": 7267,
      "▁price": 7268,
      "▁supply": 7269,
      "##нок": 7270,
      "##tial": 7271,
      "##вшего": 7272,
      "##fort": 7273,
      "▁ассо": 7274,
      "▁преиму": 7275,
      "##терна": 7276,
      "##суль": 7277,
      "##ounts": 7278,
      "##rid": 7279,
      "членов": 7280,
      "▁sen": 7281,
      "▁central": 7282,
      "▁elements": 7283,
      "##unity": 7284,
      "##его": 7285,
      "▁Per": 7286,
      "▁обрати": 7287,
      "▁энергети": 7288,
      "▁информацией": 7289,
      "▁консультаций": 7290,
      "▁комиссии": 7291,
      "▁докладов": 7292,
      "##ribunal": 7293,
      "▁установ": 7294,
      "▁Азербайджа": 7295,
      "▁доказа": 7296,
      "▁authority": 7297,
      "▁союза": 7298,
      "▁negotiations": 7299,
      "▁способствовать": 7300,
      "▁хорошо": 7301,
      "▁Anal": 7302,
      "▁попы": 7303,
      "▁содействие": 7304,
      "##ipl": 7305,
      "▁культуры": 7306,
      "##дами": 7307,
      "▁заболе": 7308,
      "▁Предста": 7309,
      "▁готов": 7310,
      "▁either": 7311,
      "▁Air": 7312,
      "##omed": 7313,
      "▁состав": 7314,
      "▁характера": 7315,
      "или": 7316,
      "▁cross": 7317,
      "▁face": 7318,
      "##щу": 7319,
      "##bur": 7320,
      "▁gas": 7321,
      "▁функции": 7322,
      "##ссией": 7323,
      "##деть": 7324,
      "##верх": 7325,
      "##AL": 7326,
      "▁primary": 7327,
      "##ждению": 7328,
      "▁left": 7329,
      "▁rural": 7330,
      "##зобно": 7331,
      "##мога": 7332,
      "##oll": 7333,
      "▁уг": 7334,
      "▁sources": 7335,
      "▁рекомендо": 7336,
      "##ису": 7337,
      "##ened": 7338,
      "▁compet": 7339,
      "▁секретарь": 7340,
      "▁purposes": 7341,
      "▁кодек": 7342,
      "▁намер": 7343,
      "▁дем": 7344,
      "▁goods": 7345,
      "▁refugees": 7346,
      "▁предприятия": 7347,
      "▁Sm": 7348,
      "##just": 7349,
      "▁rather": 7350,
      "▁scientific": 7351,
      "##ttp": 7352,
      "▁users": 7353,
      "▁worksh": 7354,
      "▁achieved": 7355,
      "##irt": 7356,
      "▁обсуждения": 7357,
      "▁факт": 7358,
      "▁Exper": 7359,
      "##lad": 7360,
      "##ha": 7361,
      "▁join": 7362,
      "##ches": 7363,
      "▁works": 7364,
      "▁вид": 7365,
      "##erences": 7366,
      "▁перспек": 7367,
      "▁Теле": 7368,
      "▁reach": 7369,
      "▁пак": 7370,
      "##urb": 7371,
      "▁Oper": 7372,
      "▁Гру": 7373,
      "▁переход": 7374,
      "▁contact": 7375,
      "##роят": 7376,
      "##fication": 7377,
      "▁known": 7378,
      "▁двухгоди": 7379,
      "▁правила": 7380,
      "##going": 7381,
      "level": 7382,
      "▁политической": 7383,
      "##мяну": 7384,
      "▁обществ": 7385,
      "##смотря": 7386,
      "▁иму": 7387,
      "▁articles": 7388,
      "▁африкан": 7389,
      "▁игро": 7390,
      "##ложение": 7391,
      "▁сведения": 7392,
      "▁определения": 7393,
      "##енное": 7394,
      "▁IP": 7395,
      "▁rein": 7396,
      "▁Let": 7397,
      "##ody": 7398,
      "##лый": 7399,
      "▁job": 7400,
      "▁asked": 7401,
      "▁несмотря": 7402,
      "▁видео": 7403,
      "##ghan": 7404,
      "▁начина": 7405,
      "▁тогда": 7406,
      "▁выво": 7407,
      "▁side": 7408,
      "##asino": 7409,
      "##лень": 7410,
      "▁самых": 7411,
      "▁Meeting": 7412,
      "▁types": 7413,
      "▁нескольких": 7414,
      "##andid": 7415,
      "##overy": 7416,
      "▁равенства": 7417,
      "▁обзор": 7418,
      "▁rap": 7419,
      "▁конфликтов": 7420,
      "##sibilities": 7421,
      "▁Jes": 7422,
      "##рованной": 7423,
      "▁озагла": 7424,
      "▁undertaken": 7425,
      "##ables": 7426,
      "▁дли": 7427,
      "▁той": 7428,
      "##iferation": 7429,
      "▁мужчин": 7430,
      "▁mechanism": 7431,
      "▁Institute": 7432,
      "▁заключается": 7433,
      "▁Сторон": 7434,
      "▁brought": 7435,
      "▁guidelines": 7436,
      "##aign": 7437,
      "▁Environment": 7438,
      "▁несо": 7439,
      "▁делам": 7440,
      "▁спосо": 7441,
      "##ванных": 7442,
      "▁effectively": 7443,
      "▁водо": 7444,
      "▁произо": 7445,
      "##станавли": 7446,
      "##holders": 7447,
      "▁концеп": 7448,
      "▁along": 7449,
      "▁Пи": 7450,
      "▁иско": 7451,
      "▁efficiency": 7452,
      "▁came": 7453,
      "▁анализа": 7454,
      "##rus": 7455,
      "▁шесть": 7456,
      "▁вод": 7457,
      "▁увеличи": 7458,
      "▁dated": 7459,
      "▁этни": 7460,
      "▁озаглавлен": 7461,
      "▁международное": 7462,
      "▁concerns": 7463,
      "▁осуществлять": 7464,
      "##hing": 7465,
      "##ствовали": 7466,
      "##шел": 7467,
      "##сок": 7468,
      "▁improving": 7469,
      "▁вспо": 7470,
      "##рабаты": 7471,
      "##XXX": 7472,
      "▁автомоби": 7473,
      "##elated": 7474,
      "▁правил": 7475,
      "##ственное": 7476,
      "▁Программы": 7477,
      "▁cooper": 7478,
      "▁term": 7479,
      "▁Север": 7480,
      "▁важно": 7481,
      "##воря": 7482,
      "▁Ital": 7483,
      "▁road": 7484,
      "▁Иису": 7485,
      "▁history": 7486,
      "▁expand": 7487,
      "▁Manager": 7488,
      "▁defin": 7489,
      "▁составляет": 7490,
      "▁HD": 7491,
      "▁подход": 7492,
      "##the": 7493,
      "▁record": 7494,
      "##ishment": 7495,
      "▁detention": 7496,
      "▁никогда": 7497,
      "▁multilateral": 7498,
      "▁сла": 7499,
      "▁financing": 7500,
      "##ude": 7501,
      "▁super": 7502,
      "▁побе": 7503,
      "▁прибы": 7504,
      "▁предоставления": 7505,
      "##нного": 7506,
      "▁описа": 7507,
      "▁Commissioner": 7508,
      "▁imm": 7509,
      "##sp": 7510,
      "▁сведению": 7511,
      "▁Воз": 7512,
      "▁тысячелетия": 7513,
      "▁кни": 7514,
      "##тости": 7515,
      "▁missions": 7516,
      "▁administration": 7517,
      "▁поис": 7518,
      "▁социально": 7519,
      "▁принципы": 7520,
      "▁весьма": 7521,
      "▁points": 7522,
      "▁важное": 7523,
      "▁неболь": 7524,
      "##ъек": 7525,
      "##ворит": 7526,
      "▁solution": 7527,
      "▁законодатель": 7528,
      "##sw": 7529,
      "▁гор": 7530,
      "##дам": 7531,
      "▁compliance": 7532,
      "▁Дру": 7533,
      "▁доклады": 7534,
      "экономи": 7535,
      "▁sl": 7536,
      "▁состоит": 7537,
      "##ulate": 7538,
      "##ident": 7539,
      "##aging": 7540,
      "▁основы": 7541,
      "▁новой": 7542,
      "##емле": 7543,
      "##вшие": 7544,
      "▁коллек": 7545,
      "##чат": 7546,
      "▁игры": 7547,
      "▁приводи": 7548,
      "▁тю": 7549,
      "▁выборов": 7550,
      "##ременно": 7551,
      "##ercial": 7552,
      "▁разоружения": 7553,
      "##коми": 7554,
      "▁Protec": 7555,
      "▁ge": 7556,
      "▁evaluation": 7557,
      "▁relationship": 7558,
      "▁objective": 7559,
      "##эро": 7560,
      "##enty": 7561,
      "▁struct": 7562,
      "▁такое": 7563,
      "▁опыт": 7564,
      "▁Вме": 7565,
      "##мон": 7566,
      "▁culture": 7567,
      "▁conv": 7568,
      "▁документе": 7569,
      "▁найти": 7570,
      "##мимо": 7571,
      "▁hotel": 7572,
      "▁Социаль": 7573,
      "▁живо": 7574,
      "##ening": 7575,
      "##туры": 7576,
      "▁представителя": 7577,
      "▁almost": 7578,
      "▁Ту": 7579,
      "▁file": 7580,
      "▁трудо": 7581,
      "##sc": 7582,
      "▁delegations": 7583,
      "▁creation": 7584,
      "▁amend": 7585,
      "▁Afghan": 7586,
      "##прави": 7587,
      "##ОС": 7588,
      "▁опти": 7589,
      "▁preparation": 7590,
      "▁restric": 7591,
      "▁хра": 7592,
      "▁положении": 7593,
      "▁dise": 7594,
      "▁пересмот": 7595,
      "▁распространения": 7596,
      "##мене": 7597,
      "▁Рабочей": 7598,
      "▁сам": 7599,
      "▁mention": 7600,
      "▁Jesus": 7601,
      "▁предназна": 7602,
      "▁недостато": 7603,
      "▁circumstances": 7604,
      "##uris": 7605,
      "▁Пор": 7606,
      "##носи": 7607,
      "▁rates": 7608,
      "▁Cri": 7609,
      "▁поддерживает": 7610,
      "▁парамет": 7611,
      "▁индивиду": 7612,
      "▁sus": 7613,
      "▁Испол": 7614,
      "##ishing": 7615,
      "▁income": 7616,
      "▁TXXX": 7617,
      "▁altern": 7618,
      "##ункт": 7619,
      "▁отношений": 7620,
      "##GO": 7621,
      "▁правительством": 7622,
      "##кто": 7623,
      "##рыв": 7624,
      "▁proposal": 7625,
      "▁члены": 7626,
      "▁подготовлен": 7627,
      "##стров": 7628,
      "▁Criminal": 7629,
      "▁industrial": 7630,
      "▁возобно": 7631,
      "▁Global": 7632,
      "##чки": 7633,
      "##лой": 7634,
      "▁ото": 7635,
      "▁families": 7636,
      "##let": 7637,
      "▁vill": 7638,
      "▁across": 7639,
      "##треб": 7640,
      "▁etc": 7641,
      "##ane": 7642,
      "▁Согласно": 7643,
      "▁Ky": 7644,
      "▁неиз": 7645,
      "▁trend": 7646,
      "▁People": 7647,
      "▁draw": 7648,
      "▁Штатов": 7649,
      "##стане": 7650,
      "▁контак": 7651,
      "▁Democratic": 7652,
      "▁outside": 7653,
      "▁основные": 7654,
      "▁Pet": 7655,
      "##упо": 7656,
      "▁ау": 7657,
      "▁вооружен": 7658,
      "▁созданию": 7659,
      "##нки": 7660,
      "##кс": 7661,
      "##жного": 7662,
      "▁подхода": 7663,
      "##estern": 7664,
      "▁peaceful": 7665,
      "▁creat": 7666,
      "##ront": 7667,
      "##тное": 7668,
      "##tified": 7669,
      "▁Prin": 7670,
      "##жела": 7671,
      "##oker": 7672,
      "▁soon": 7673,
      "▁верси": 7674,
      "▁exercise": 7675,
      "▁централь": 7676,
      "▁дове": 7677,
      "▁последни": 7678,
      "▁autom": 7679,
      "##vision": 7680,
      "▁десяти": 7681,
      "▁выбро": 7682,
      "##вами": 7683,
      "▁Бра": 7684,
      "▁travel": 7685,
      "▁освобо": 7686,
      "▁institutional": 7687,
      "▁лучше": 7688,
      "▁теперь": 7689,
      "▁высокого": 7690,
      "▁Ann": 7691,
      "▁управление": 7692,
      "▁Millennium": 7693,
      "▁материаль": 7694,
      "▁требую": 7695,
      "▁правовой": 7696,
      "▁Европы": 7697,
      "▁ЮНЕ": 7698,
      "▁взаимодействи": 7699,
      "▁Япо": 7700,
      "##requ": 7701,
      "▁местных": 7702,
      "▁Фа": 7703,
      "▁Strip": 7704,
      "##формули": 7705,
      "▁закры": 7706,
      "▁сообщество": 7707,
      "▁Жи": 7708,
      "▁укреплению": 7709,
      "##груз": 7710,
      "##shot": 7711,
      "▁дер": 7712,
      "▁опла": 7713,
      "▁стол": 7714,
      "▁предложение": 7715,
      "##ОВ": 7716,
      "▁должност": 7717,
      "▁Республике": 7718,
      "▁сталки": 7719,
      "##ющейся": 7720,
      "▁American": 7721,
      "▁мнению": 7722,
      "▁Foreign": 7723,
      "▁образование": 7724,
      "▁educational": 7725,
      "▁Bl": 7726,
      "▁Mod": 7727,
      "▁внутри": 7728,
      "##DC": 7729,
      "▁Found": 7730,
      "##ленности": 7731,
      "▁occur": 7732,
      "▁Agreement": 7733,
      "▁effort": 7734,
      "▁Конферен": 7735,
      "▁протя": 7736,
      "▁corre": 7737,
      "▁далее": 7738,
      "▁Kore": 7739,
      "##rants": 7740,
      "▁защиту": 7741,
      "▁half": 7742,
      "##ama": 7743,
      "##ousand": 7744,
      "##ournal": 7745,
      "##ряз": 7746,
      "▁равно": 7747,
      "▁объяс": 7748,
      "▁Serb": 7749,
      "▁enforcement": 7750,
      "##lusive": 7751,
      "▁компен": 7752,
      "##рять": 7753,
      "▁комисса": 7754,
      "##хе": 7755,
      "##ниц": 7756,
      "##bit": 7757,
      "▁source": 7758,
      "##скохозяй": 7759,
      "▁Forum": 7760,
      "##мотря": 7761,
      "▁Тем": 7762,
      "▁Рабочая": 7763,
      "##emin": 7764,
      "##SC": 7765,
      "▁Министер": 7766,
      "▁user": 7767,
      "говорит": 7768,
      "▁Пак": 7769,
      "▁разработа": 7770,
      "▁конвен": 7771,
      "##щиеся": 7772,
      "##разу": 7773,
      "▁Вен": 7774,
      "##лайн": 7775,
      "▁pric": 7776,
      "▁органами": 7777,
      "##щать": 7778,
      "##itness": 7779,
      "▁вес": 7780,
      "▁международными": 7781,
      "##tivity": 7782,
      "##tenance": 7783,
      "▁сме": 7784,
      "▁campaign": 7785,
      "▁интерес": 7786,
      "##еру": 7787,
      "##риб": 7788,
      "▁ограничен": 7789,
      "▁win": 7790,
      "##hern": 7791,
      "##мии": 7792,
      "▁улучшения": 7793,
      "▁млн": 7794,
      "▁Red": 7795,
      "▁приветствует": 7796,
      "▁сформули": 7797,
      "▁UNDP": 7798,
      "##ED": 7799,
      "▁Лу": 7800,
      "▁трансы": 7801,
      "##oted": 7802,
      "##rench": 7803,
      "▁войны": 7804,
      "▁items": 7805,
      "▁компет": 7806,
      "▁консультации": 7807,
      "##PA": 7808,
      "▁Non": 7809,
      "▁неде": 7810,
      "##пози": 7811,
      "##ises": 7812,
      "▁words": 7813,
      "▁Produc": 7814,
      "▁Public": 7815,
      "▁произ": 7816,
      "▁воды": 7817,
      "▁counter": 7818,
      "▁Armen": 7819,
      "##мыми": 7820,
      "##пор": 7821,
      "▁сокращения": 7822,
      "▁Home": 7823,
      "▁Disc": 7824,
      "##ait": 7825,
      "▁искус": 7826,
      "▁beginning": 7827,
      "##any": 7828,
      "##ведение": 7829,
      "##ene": 7830,
      "▁arrangements": 7831,
      "##IT": 7832,
      "##тная": 7833,
      "▁Aliy": 7834,
      "##ложения": 7835,
      "▁ПРООН": 7836,
      "▁Services": 7837,
      "##enced": 7838,
      "▁emb": 7839,
      "##ственная": 7840,
      "▁филь": 7841,
      "##тите": 7842,
      "▁juris": 7843,
      "▁France": 7844,
      "▁конструк": 7845,
      "##governmental": 7846,
      "▁resource": 7847,
      "▁influ": 7848,
      "▁важность": 7849,
      "▁Syri": 7850,
      "▁соблюдения": 7851,
      "▁покры": 7852,
      "▁совершенство": 7853,
      "▁leading": 7854,
      "▁tits": 7855,
      "##ссе": 7856,
      "##ванной": 7857,
      "▁сбор": 7858,
      "▁документ": 7859,
      "▁Основ": 7860,
      "▁offices": 7861,
      "▁поставщи": 7862,
      "▁practical": 7863,
      "▁avoid": 7864,
      "▁охраны": 7865,
      "##oke": 7866,
      "▁sectors": 7867,
      "▁большие": 7868,
      "▁Please": 7869,
      "##erve": 7870,
      "▁UNC": 7871,
      "▁features": 7872,
      "▁альтерна": 7873,
      "▁el": 7874,
      "▁tell": 7875,
      "▁Prof": 7876,
      "▁обеспечивает": 7877,
      "▁believ": 7878,
      "▁Israeli": 7879,
      "▁см": 7880,
      "##нный": 7881,
      "##ъя": 7882,
      "▁прогресс": 7883,
      "▁достаточно": 7884,
      "▁бли": 7885,
      "▁hope": 7886,
      "▁extra": 7887,
      "▁конфи": 7888,
      "▁satis": 7889,
      "▁позд": 7890,
      "▁Est": 7891,
      "##aur": 7892,
      "##uri": 7893,
      "▁гости": 7894,
      "▁трудно": 7895,
      "▁hot": 7896,
      "##tees": 7897,
      "▁наблюд": 7898,
      "▁surve": 7899,
      "▁Ад": 7900,
      "▁уви": 7901,
      "▁девя": 7902,
      "▁transmit": 7903,
      "▁sufficient": 7904,
      "▁recommends": 7905,
      "▁poor": 7906,
      "▁ЮНИ": 7907,
      "▁Trade": 7908,
      "##uting": 7909,
      "##руют": 7910,
      "▁Iran": 7911,
      "▁Би": 7912,
      "▁высказа": 7913,
      "##hers": 7914,
      "▁программу": 7915,
      "▁longer": 7916,
      "▁жесто": 7917,
      "▁объема": 7918,
      "▁stability": 7919,
      "##влений": 7920,
      "##verage": 7921,
      "▁пыток": 7922,
      "▁автомати": 7923,
      "##вин": 7924,
      "▁stake": 7925,
      "▁critical": 7926,
      "▁web": 7927,
      "▁Российской": 7928,
      "▁sea": 7929,
      "▁заявление": 7930,
      "##hest": 7931,
      "year": 7932,
      "##ровки": 7933,
      "▁возника": 7934,
      "▁сравнению": 7935,
      "▁мощ": 7936,
      "▁стреми": 7937,
      "▁goal": 7938,
      "##ey": 7939,
      "▁states": 7940,
      "▁identified": 7941,
      "##more": 7942,
      "▁Exp": 7943,
      "▁её": 7944,
      "##никам": 7945,
      "▁требует": 7946,
      "▁exten": 7947,
      "▁преследо": 7948,
      "##оби": 7949,
      "##близи": 7950,
      "##alling": 7951,
      "▁состоянии": 7952,
      "▁опублико": 7953,
      "##вано": 7954,
      "▁associated": 7955,
      "##iet": 7956,
      "▁обеспечивать": 7957,
      "##ming": 7958,
      "▁task": 7959,
      "▁обращения": 7960,
      "▁сим": 7961,
      "▁percent": 7962,
      "▁max": 7963,
      "▁Ча": 7964,
      "▁поня": 7965,
      "▁профи": 7966,
      "▁Bar": 7967,
      "▁contribution": 7968,
      "##рд": 7969,
      "▁стано": 7970,
      "##lier": 7971,
      "▁означает": 7972,
      "▁км": 7973,
      "▁Such": 7974,
      "▁Зако": 7975,
      "▁ориенти": 7976,
      "▁efficient": 7977,
      "▁thousand": 7978,
      "▁бро": 7979,
      "▁сохран": 7980,
      "▁мета": 7981,
      "##лиш": 7982,
      "▁Организацией": 7983,
      "▁подверга": 7984,
      "▁гео": 7985,
      "▁задачи": 7986,
      "▁стратегий": 7987,
      "жа": 7988,
      "▁Украины": 7989,
      "▁Всемирной": 7990,
      "▁выз": 7991,
      "##rust": 7992,
      "##реги": 7993,
      "▁operating": 7994,
      "▁помога": 7995,
      "▁everything": 7996,
      "▁ей": 7997,
      "▁объедин": 7998,
      "▁letter": 7999,
      "##татья": 8000,
      "##лдо": 8001,
      "▁Car": 8002,
      "▁докладчик": 8003,
      "▁санк": 8004,
      "##adem": 8005,
      "##view": 8006,
      "##porary": 8007,
      "##OM": 8008,
      "▁гражданских": 8009,
      "##uk": 8010,
      "##rand": 8011,
      "##IC": 8012,
      "##жные": 8013,
      "▁Tribunal": 8014,
      "▁Associ": 8015,
      "▁mil": 8016,
      "▁источников": 8017,
      "▁потребности": 8018,
      "##жности": 8019,
      "##arters": 8020,
      "##sych": 8021,
      "▁Це": 8022,
      "▁safe": 8023,
      "▁большинство": 8024,
      "▁referred": 8025,
      "##али": 8026,
      "▁маши": 8027,
      "##face": 8028,
      "▁bank": 8029,
      "▁приро": 8030,
      "▁рост": 8031,
      "##наб": 8032,
      "##енный": 8033,
      "▁schools": 8034,
      "▁universal": 8035,
      "▁Micro": 8036,
      "▁game": 8037,
      "▁работать": 8038,
      "▁принятие": 8039,
      "▁Постоян": 8040,
      "##грантов": 8041,
      "▁Уста": 8042,
      "▁сельскохозяй": 8043,
      "▁специализи": 8044,
      "▁situations": 8045,
      "▁welcomed": 8046,
      "##фикации": 8047,
      "##ny": 8048,
      "▁distribution": 8049,
      "▁traditional": 8050,
      "##key": 8051,
      "▁ord": 8052,
      "▁Кана": 8053,
      "▁узна": 8054,
      "▁показателей": 8055,
      "▁мет": 8056,
      "▁инвестиций": 8057,
      "▁Now": 8058,
      "##дах": 8059,
      "▁factors": 8060,
      "▁замечания": 8061,
      "▁проводить": 8062,
      "▁содержится": 8063,
      "▁норм": 8064,
      "▁Part": 8065,
      "▁примени": 8066,
      "▁adap": 8067,
      "▁Запад": 8068,
      "##ray": 8069,
      "▁alloc": 8070,
      "##ок": 8071,
      "▁обучения": 8072,
      "▁Три": 8073,
      "▁Доклад": 8074,
      "▁программам": 8075,
      "▁кампа": 8076,
      "▁стар": 8077,
      "▁Тан": 8078,
      "##пой": 8079,
      "##irmed": 8080,
      "▁широко": 8081,
      "▁Европейского": 8082,
      "##чений": 8083,
      "▁Foundation": 8084,
      "▁Over": 8085,
      "##ruption": 8086,
      "▁Educ": 8087,
      "##делан": 8088,
      "##пада": 8089,
      "▁задержа": 8090,
      "##тивно": 8091,
      "ar": 8092,
      "▁оши": 8093,
      "▁Пла": 8094,
      "▁Федерации": 8095,
      "▁port": 8096,
      "##нений": 8097,
      "▁должности": 8098,
      "##бран": 8099,
      "▁applied": 8100,
      "▁районе": 8101,
      "##AM": 8102,
      "##ump": 8103,
      "▁поправ": 8104,
      "▁изменений": 8105,
      "▁Sud": 8106,
      "▁интеграции": 8107,
      "##urance": 8108,
      "▁квали": 8109,
      "▁Китай": 8110,
      "▁Таким": 8111,
      "##щается": 8112,
      "▁обзора": 8113,
      "▁fa": 8114,
      "##ental": 8115,
      "▁indicators": 8116,
      "▁Международной": 8117,
      "▁radi": 8118,
      "▁малень": 8119,
      "##вающие": 8120,
      "##ментом": 8121,
      "▁индивидуаль": 8122,
      "##lish": 8123,
      "▁Support": 8124,
      "▁впе": 8125,
      "▁отсутствие": 8126,
      "##rap": 8127,
      "▁engine": 8128,
      "▁данной": 8129,
      "▁cause": 8130,
      "▁Islam": 8131,
      "▁конкретные": 8132,
      "▁увер": 8133,
      "▁принимает": 8134,
      "▁приложения": 8135,
      "##лега": 8136,
      "▁ранее": 8137,
      "▁Division": 8138,
      "##благо": 8139,
      "▁коммер": 8140,
      "##ermanent": 8141,
      "▁Coop": 8142,
      "##лизация": 8143,
      "##рос": 8144,
      "▁mut": 8145,
      "##твор": 8146,
      "▁непри": 8147,
      "▁очередь": 8148,
      "▁Count": 8149,
      "##ses": 8150,
      "▁majority": 8151,
      "▁introduced": 8152,
      "▁regulations": 8153,
      "▁Christ": 8154,
      "▁developments": 8155,
      "▁vote": 8156,
      "▁первый": 8157,
      "##ента": 8158,
      "##пить": 8159,
      "##gasm": 8160,
      "▁напря": 8161,
      "##простран": 8162,
      "▁делегации": 8163,
      "##ющем": 8164,
      "▁continues": 8165,
      "##ape": 8166,
      "▁fair": 8167,
      "▁привед": 8168,
      "▁applications": 8169,
      "▁находятся": 8170,
      "▁применение": 8171,
      "##вам": 8172,
      "##змом": 8173,
      "##ico": 8174,
      "▁посо": 8175,
      "▁государству": 8176,
      "▁Review": 8177,
      "▁unc": 8178,
      "▁технической": 8179,
      "▁lic": 8180,
      "▁сожа": 8181,
      "▁конфликта": 8182,
      "##artments": 8183,
      "▁candid": 8184,
      "▁реаги": 8185,
      "▁Although": 8186,
      "▁анти": 8187,
      "▁led": 8188,
      "▁really": 8189,
      "▁measure": 8190,
      "▁Inc": 8191,
      "##гом": 8192,
      "▁From": 8193,
      "▁benefit": 8194,
      "##istance": 8195,
      "▁reference": 8196,
      "AC": 8197,
      "▁makes": 8198,
      "##iary": 8199,
      "▁правительств": 8200,
      "##чества": 8201,
      "▁памя": 8202,
      "▁УВК": 8203,
      "▁Justice": 8204,
      "##oking": 8205,
      "##ющимися": 8206,
      "▁sound": 8207,
      "##ser": 8208,
      "▁involve": 8209,
      "▁commitments": 8210,
      "▁Несмотря": 8211,
      "▁развер": 8212,
      "▁преступлений": 8213,
      "▁IV": 8214,
      "▁избе": 8215,
      "##емся": 8216,
      "▁делать": 8217,
      "##защи": 8218,
      "▁оборудования": 8219,
      "▁informal": 8220,
      "▁методов": 8221,
      "▁maintenance": 8222,
      "▁delivery": 8223,
      "▁size": 8224,
      "▁page": 8225,
      "##chen": 8226,
      "##know": 8227,
      "▁dang": 8228,
      "▁Health": 8229,
      "##ruit": 8230,
      "##ptional": 8231,
      "▁suggest": 8232,
      "▁qual": 8233,
      "▁Tw": 8234,
      "▁Моск": 8235,
      "##ox": 8236,
      "▁учета": 8237,
      "▁удовлетвор": 8238,
      "▁ever": 8239,
      "▁сами": 8240,
      "▁although": 8241,
      "##емым": 8242,
      "▁уголовного": 8243,
      "▁content": 8244,
      "related": 8245,
      "##кло": 8246,
      "▁Ste": 8247,
      "##ьми": 8248,
      "##гия": 8249,
      "▁gl": 8250,
      "##ждении": 8251,
      "▁Hotel": 8252,
      "▁ада": 8253,
      "▁каждой": 8254,
      "▁Некоторы": 8255,
      "##ске": 8256,
      "▁самом": 8257,
      "▁учреждениями": 8258,
      "##стурба": 8259,
      "▁series": 8260,
      "▁форм": 8261,
      "▁най": 8262,
      "▁Дж": 8263,
      "▁Crime": 8264,
      "▁option": 8265,
      "▁cop": 8266,
      "▁использованием": 8267,
      "▁biennium": 8268,
      "▁stage": 8269,
      "##телю": 8270,
      "##зино": 8271,
      "▁развитых": 8272,
      "▁запа": 8273,
      "##говор": 8274,
      "▁устанавли": 8275,
      "▁break": 8276,
      "▁облег": 8277,
      "▁Аф": 8278,
      "▁solutions": 8279,
      "##ствием": 8280,
      "##лена": 8281,
      "▁useful": 8282,
      "▁arch": 8283,
      "▁pursuant": 8284,
      "▁judicial": 8285,
      "▁кре": 8286,
      "▁заг": 8287,
      "▁зло": 8288,
      "##ania": 8289,
      "▁аре": 8290,
      "▁export": 8291,
      "▁Было": 8292,
      "##ус": 8293,
      "▁эксплуатации": 8294,
      "▁permit": 8295,
      "▁Управление": 8296,
      "участнику": 8297,
      "▁Agency": 8298,
      "▁priorities": 8299,
      "▁пыта": 8300,
      "▁Center": 8301,
      "▁Чтобы": 8302,
      "##мую": 8303,
      "▁floor": 8304,
      "▁check": 8305,
      "▁создании": 8306,
      "▁initiative": 8307,
      "▁анализ": 8308,
      "▁communications": 8309,
      "##atform": 8310,
      "▁pan": 8311,
      "▁финансовой": 8312,
      "▁заявил": 8313,
      "▁знания": 8314,
      "##регистри": 8315,
      "▁server": 8316,
      "##ционный": 8317,
      "▁коро": 8318,
      "▁стал": 8319,
      "▁governance": 8320,
      "▁West": 8321,
      "▁Правительство": 8322,
      "▁opinion": 8323,
      "##фо": 8324,
      "▁external": 8325,
      "▁домаш": 8326,
      "▁Coord": 8327,
      "▁Yes": 8328,
      "##rew": 8329,
      "▁answ": 8330,
      "##вит": 8331,
      "▁крат": 8332,
      "▁Protection": 8333,
      "▁ран": 8334,
      "▁тебе": 8335,
      "##изво": 8336,
      "▁отда": 8337,
      "▁многочис": 8338,
      "▁архи": 8339,
      "##стурбация": 8340,
      "▁requires": 8341,
      "##uth": 8342,
      "▁Geneva": 8343,
      "##CEF": 8344,
      "▁expert": 8345,
      "▁collection": 8346,
      "##acts": 8347,
      "▁seen": 8348,
      "##дут": 8349,
      "▁включает": 8350,
      "ve": 8351,
      "##ПА": 8352,
      "##used": 8353,
      "##раиль": 8354,
      "##diction": 8355,
      "##tify": 8356,
      "▁аэро": 8357,
      "▁Ref": 8358,
      "▁принадле": 8359,
      "▁планирования": 8360,
      "▁http": 8361,
      "▁контрак": 8362,
      "▁reached": 8363,
      "▁Slo": 8364,
      "▁sou": 8365,
      "▁posts": 8366,
      "▁контроль": 8367,
      "▁национальные": 8368,
      "▁Latv": 8369,
      "▁ability": 8370,
      "▁il": 8371,
      "▁unique": 8372,
      "##били": 8373,
      "▁Вам": 8374,
      "▁youth": 8375,
      "▁highl": 8376,
      "▁trust": 8377,
      "##ландии": 8378,
      "▁оценке": 8379,
      "##тесь": 8380,
      "▁первонача": 8381,
      "##виа": 8382,
      "▁Belar": 8383,
      "▁markets": 8384,
      "##надца": 8385,
      "▁encourage": 8386,
      "▁Net": 8387,
      "▁дополнительные": 8388,
      "##Porn": 8389,
      "##semin": 8390,
      "▁calls": 8391,
      "▁скоро": 8392,
      "##usal": 8393,
      "▁музы": 8394,
      "▁condition": 8395,
      "▁бое": 8396,
      "▁bel": 8397,
      "▁housing": 8398,
      "▁нега": 8399,
      "##ськи": 8400,
      "##hemaleTube": 8401,
      "▁Sudan": 8402,
      "▁AShemaleTube": 8403,
      "▁Strate": 8404,
      "▁den": 8405,
      "▁характери": 8406,
      "▁пригла": 8407,
      "▁совместно": 8408,
      "▁мнения": 8409,
      "▁Также": 8410,
      "По": 8411,
      "▁предприятий": 8412,
      "▁Некоторые": 8413,
      "##шка": 8414,
      "▁fifty": 8415,
      "▁закона": 8416,
      "▁signed": 8417,
      "▁reasons": 8418,
      "▁became": 8419,
      "▁effectiveness": 8420,
      "▁advant": 8421,
      "▁инфраструктуры": 8422,
      "WP": 8423,
      "▁leave": 8424,
      "▁протяжении": 8425,
      "▁военных": 8426,
      "▁prices": 8427,
      "▁события": 8428,
      "▁пропа": 8429,
      "##рованного": 8430,
      "▁bath": 8431,
      "▁зависимости": 8432,
      "▁безопасность": 8433,
      "▁месте": 8434,
      "▁главным": 8435,
      "▁elimin": 8436,
      "▁entities": 8437,
      "##EA": 8438,
      "▁данного": 8439,
      "▁pain": 8440,
      "▁Requ": 8441,
      "▁Your": 8442,
      "▁concept": 8443,
      "##возмо": 8444,
      "##пуск": 8445,
      "▁units": 8446,
      "##ана": 8447,
      "▁отдельных": 8448,
      "▁вооруженных": 8449,
      "▁French": 8450,
      "▁El": 8451,
      "▁Китая": 8452,
      "##тая": 8453,
      "▁повышение": 8454,
      "##alk": 8455,
      "▁growing": 8456,
      "##EM": 8457,
      "▁Например": 8458,
      "▁инициатив": 8459,
      "▁interp": 8460,
      "▁discussed": 8461,
      "▁корпо": 8462,
      "▁жо": 8463,
      "##ously": 8464,
      "▁Жене": 8465,
      "##CT": 8466,
      "▁ван": 8467,
      "▁improved": 8468,
      "##зай": 8469,
      "▁будущем": 8470,
      "▁clean": 8471,
      "##mark": 8472,
      "▁сиськи": 8473,
      "▁Canada": 8474,
      "▁проведении": 8475,
      "##рее": 8476,
      "▁tools": 8477,
      "##ять": 8478,
      "▁Also": 8479,
      "##quarters": 8480,
      "▁распоря": 8481,
      "▁illeg": 8482,
      "▁Mem": 8483,
      "▁студен": 8484,
      "▁negative": 8485,
      "▁vulnerable": 8486,
      "##жением": 8487,
      "▁Not": 8488,
      "▁ongoing": 8489,
      "▁Summit": 8490,
      "▁quick": 8491,
      "▁получа": 8492,
      "▁особы": 8493,
      "▁основании": 8494,
      "▁indicated": 8495,
      "▁помочь": 8496,
      "▁advance": 8497,
      "##oslav": 8498,
      "▁skills": 8499,
      "▁Вместе": 8500,
      "▁табли": 8501,
      "▁мнение": 8502,
      "▁продви": 8503,
      "##pping": 8504,
      "▁extent": 8505,
      "▁загряз": 8506,
      "▁true": 8507,
      "▁онлайн": 8508,
      "▁содержания": 8509,
      "▁Permanent": 8510,
      "▁Юго": 8511,
      "▁India": 8512,
      "▁пятьдесят": 8513,
      "▁detailed": 8514,
      "▁centre": 8515,
      "▁центр": 8516,
      "▁предложен": 8517,
      "▁seek": 8518,
      "##образо": 8519,
      "▁cock": 8520,
      "▁подготовку": 8521,
      "▁abuse": 8522,
      "▁forum": 8523,
      "▁потенциаль": 8524,
      "##птиз": 8525,
      "▁направления": 8526,
      "▁Server": 8527,
      "##ply": 8528,
      "▁расходы": 8529,
      "▁действительно": 8530,
      "▁difficul": 8531,
      "##lications": 8532,
      "##aving": 8533,
      "▁recommendation": 8534,
      "##isters": 8535,
      "##ka": 8536,
      "##ann": 8537,
      "▁специалистов": 8538,
      "▁guarantee": 8539,
      "##IR": 8540,
      "▁государственного": 8541,
      "▁продукции": 8542,
      "##sing": 8543,
      "▁легко": 8544,
      "▁оказанию": 8545,
      "##дик": 8546,
      "▁compens": 8547,
      "▁version": 8548,
      "##вшим": 8549,
      "▁подтвержда": 8550,
      "▁правило": 8551,
      "▁компенса": 8552,
      "▁orgasm": 8553,
      "▁постоянно": 8554,
      "▁затраги": 8555,
      "##iture": 8556,
      "▁arrest": 8557,
      "▁debt": 8558,
      "▁command": 8559,
      "▁periodic": 8560,
      "##soft": 8561,
      "##тое": 8562,
      "##lective": 8563,
      "▁heart": 8564,
      "##atab": 8565,
      "▁paper": 8566,
      "##гип": 8567,
      "▁Интернет": 8568,
      "▁repl": 8569,
      "▁конти": 8570,
      "##женности": 8571,
      "▁секторе": 8572,
      "##ovo": 8573,
      "##yond": 8574,
      "▁achieving": 8575,
      "▁urban": 8576,
      "▁Телефон": 8577,
      "▁финансовые": 8578,
      "##eban": 8579,
      "▁нужда": 8580,
      "##zil": 8581,
      "##AP": 8582,
      "▁ple": 8583,
      "▁передачи": 8584,
      "▁согласо": 8585,
      "▁adjust": 8586,
      "▁chemical": 8587,
      "##держ": 8588,
      "##ябре": 8589,
      "▁практике": 8590,
      "▁остается": 8591,
      "▁функций": 8592,
      "▁Georgia": 8593,
      "▁Фин": 8594,
      "##onia": 8595,
      "##верса": 8596,
      "▁sure": 8597,
      "▁необходимых": 8598,
      "▁агент": 8599,
      "▁занятости": 8600,
      "##тифици": 8601,
      "▁выполнять": 8602,
      "▁членами": 8603,
      "▁officers": 8604,
      "##ta": 8605,
      "▁du": 8606,
      "##чил": 8607,
      "▁доно": 8608,
      "▁Cooperation": 8609,
      "##страда": 8610,
      "▁lower": 8611,
      "▁молодежи": 8612,
      "##ровали": 8613,
      "▁повышению": 8614,
      "##ension": 8615,
      "▁обеспокоенность": 8616,
      "▁механизмы": 8617,
      "▁Nor": 8618,
      "▁util": 8619,
      "▁alia": 8620,
      "▁сфер": 8621,
      "▁нашего": 8622,
      "▁serve": 8623,
      "▁направленных": 8624,
      "##useum": 8625,
      "▁English": 8626,
      "▁возраста": 8627,
      "▁диску": 8628,
      "▁напад": 8629,
      "▁собира": 8630,
      "▁Civil": 8631,
      "▁Cons": 8632,
      "##шему": 8633,
      "▁Mold": 8634,
      "▁extreme": 8635,
      "▁Regional": 8636,
      "▁направленные": 8637,
      "▁und": 8638,
      "▁mag": 8639,
      "▁миссии": 8640,
      "▁операции": 8641,
      "##жай": 8642,
      "▁протокола": 8643,
      "##ica": 8644,
      "▁Panel": 8645,
      "##лка": 8646,
      "▁statistics": 8647,
      "▁Ком": 8648,
      "▁превы": 8649,
      "▁stay": 8650,
      "▁options": 8651,
      "▁исти": 8652,
      "▁укрепление": 8653,
      "▁York": 8654,
      "##rator": 8655,
      "##АО": 8656,
      "▁МООН": 8657,
      "▁corpor": 8658,
      "▁обычно": 8659,
      "##untary": 8660,
      "▁Great": 8661,
      "##пода": 8662,
      "▁отказа": 8663,
      "##доро": 8664,
      "##apon": 8665,
      "▁takes": 8666,
      "▁IS": 8667,
      "▁reiter": 8668,
      "▁legislative": 8669,
      "▁законодательство": 8670,
      "▁fire": 8671,
      "##ead": 8672,
      "▁факти": 8673,
      "▁решении": 8674,
      "▁Верховного": 8675,
      "##irth": 8676,
      "##чена": 8677,
      "▁ЕС": 8678,
      "▁детьми": 8679,
      "▁программе": 8680,
      "▁судь": 8681,
      "▁поощрения": 8682,
      "▁товаров": 8683,
      "▁prohib": 8684,
      "▁позволит": 8685,
      "##шед": 8686,
      "▁принятых": 8687,
      "##графии": 8688,
      "▁sessions": 8689,
      "▁прод": 8690,
      "▁ху": 8691,
      "▁линии": 8692,
      "▁стало": 8693,
      "▁Афгани": 8694,
      "▁dissemin": 8695,
      "▁руководство": 8696,
      "▁массо": 8697,
      "##egal": 8698,
      "▁presence": 8699,
      "##orthern": 8700,
      "▁форме": 8701,
      "##лья": 8702,
      "▁полицей": 8703,
      "##ква": 8704,
      "▁значительно": 8705,
      "▁расовой": 8706,
      "▁происхождения": 8707,
      "▁поро": 8708,
      "##orial": 8709,
      "▁общин": 8710,
      "▁полного": 8711,
      "▁perman": 8712,
      "##дума": 8713,
      "▁положи": 8714,
      "▁arri": 8715,
      "▁Руко": 8716,
      "▁histor": 8717,
      "▁приняли": 8718,
      "▁commercial": 8719,
      "##tise": 8720,
      "▁прогно": 8721,
      "▁Many": 8722,
      "▁lives": 8723,
      "##iplom": 8724,
      "▁государственной": 8725,
      "▁дополнительных": 8726,
      "##auti": 8727,
      "▁Up": 8728,
      "##онстри": 8729,
      "▁liber": 8730,
      "##jected": 8731,
      "##tish": 8732,
      "▁посвящен": 8733,
      "▁Territ": 8734,
      "▁Араб": 8735,
      "▁ат": 8736,
      "▁vo": 8737,
      "▁clearly": 8738,
      "▁государством": 8739,
      "▁Протоко": 8740,
      "##луй": 8741,
      "www": 8742,
      "org": 8743,
      "▁подклю": 8744,
      "▁большая": 8745,
      "▁инициативы": 8746,
      "##сных": 8747,
      "▁каких": 8748,
      "▁Cub": 8749,
      "##ift": 8750,
      "▁Дан": 8751,
      "▁учет": 8752,
      "▁пунктом": 8753,
      "##ссию": 8754,
      "##енным": 8755,
      "##ull": 8756,
      "▁восстановления": 8757,
      "##ko": 8758,
      "▁настоящего": 8759,
      "##тификации": 8760,
      "▁задол": 8761,
      "##ips": 8762,
      "##ground": 8763,
      "▁разбира": 8764,
      "▁можем": 8765,
      "▁иннова": 8766,
      "▁аб": 8767,
      "##тивное": 8768,
      "▁регистрации": 8769,
      "техни": 8770,
      "▁вся": 8771,
      "▁воспо": 8772,
      "▁диалога": 8773,
      "▁оргазм": 8774,
      "##ains": 8775,
      "▁мандата": 8776,
      "##alled": 8777,
      "▁достоин": 8778,
      "##тельную": 8779,
      "AIDS": 8780,
      "to": 8781,
      "##rov": 8782,
      "▁economies": 8783,
      "▁озабоченность": 8784,
      "##рация": 8785,
      "▁Фонда": 8786,
      "▁regime": 8787,
      "▁модели": 8788,
      "▁election": 8789,
      "▁множе": 8790,
      "##свя": 8791,
      "▁settlement": 8792,
      "▁Kh": 8793,
      "##влены": 8794,
      "##лишком": 8795,
      "▁оккупи": 8796,
      "▁Leban": 8797,
      "##ert": 8798,
      "▁удоб": 8799,
      "▁stakeholders": 8800,
      "▁мерах": 8801,
      "▁отметить": 8802,
      "▁компаний": 8803,
      "▁values": 8804,
      "▁торговле": 8805,
      "▁играть": 8806,
      "##лять": 8807,
      "▁paid": 8808,
      "▁North": 8809,
      "##еры": 8810,
      "##ровал": 8811,
      "▁стандартов": 8812,
      "члены": 8813,
      "##oon": 8814,
      "▁Austral": 8815,
      "##oly": 8816,
      "▁субъек": 8817,
      "▁вырабо": 8818,
      "▁аналоги": 8819,
      "▁comments": 8820,
      "▁веществ": 8821,
      "▁racial": 8822,
      "▁sched": 8823,
      "##ноп": 8824,
      "▁должностей": 8825,
      "▁дети": 8826,
      "##hood": 8827,
      "▁aid": 8828,
      "▁Cro": 8829,
      "##дра": 8830,
      "##енси": 8831,
      "##вока": 8832,
      "▁Port": 8833,
      "▁вспомога": 8834,
      "▁Чи": 8835,
      "▁документы": 8836,
      "▁базо": 8837,
      "##reet": 8838,
      "▁thought": 8839,
      "▁модель": 8840,
      "▁completed": 8841,
      "▁рынке": 8842,
      "making": 8843,
      "##tease": 8844,
      "▁различи": 8845,
      "▁смы": 8846,
      "▁km": 8847,
      "##ляции": 8848,
      "▁Inv": 8849,
      "▁scope": 8850,
      "##gen": 8851,
      "▁прямо": 8852,
      "▁Свя": 8853,
      "##ma": 8854,
      "▁Советом": 8855,
      "##РА": 8856,
      "##ying": 8857,
      "▁нерас": 8858,
      "▁политику": 8859,
      "▁Нью": 8860,
      "▁discussions": 8861,
      "##rete": 8862,
      "##нал": 8863,
      "##щены": 8864,
      "▁вынес": 8865,
      "▁устран": 8866,
      "##raw": 8867,
      "▁международному": 8868,
      "##гами": 8869,
      "▁масштабов": 8870,
      "▁centres": 8871,
      "##емая": 8872,
      "▁recently": 8873,
      "▁продолжает": 8874,
      "▁предложи": 8875,
      "▁movement": 8876,
      "##сенсу": 8877,
      "##лок": 8878,
      "▁массовой": 8879,
      "▁люд": 8880,
      "▁outcome": 8881,
      "▁пожа": 8882,
      "▁обмена": 8883,
      "▁Roman": 8884,
      "▁ничего": 8885,
      "##ription": 8886,
      "▁состава": 8887,
      "##ницу": 8888,
      "▁Миссии": 8889,
      "##oot": 8890,
      "▁center": 8891,
      "▁обязанности": 8892,
      "##доне": 8893,
      "▁addressing": 8894,
      "▁paragraphs": 8895,
      "▁Алиева": 8896,
      "СПИД": 8897,
      "##urd": 8898,
      "▁особое": 8899,
      "##illing": 8900,
      "▁работает": 8901,
      "##ief": 8902,
      "▁built": 8903,
      "##ОД": 8904,
      "##вейца": 8905,
      "▁рез": 8906,
      "▁crit": 8907,
      "▁европей": 8908,
      "##вки": 8909,
      "▁первого": 8910,
      "▁psych": 8911,
      "▁журнали": 8912,
      "▁invited": 8913,
      "▁violation": 8914,
      "##play": 8915,
      "▁remov": 8916,
      "▁следующих": 8917,
      "##шу": 8918,
      "▁Children": 8919,
      "▁fig": 8920,
      "▁миру": 8921,
      "##прежнему": 8922,
      "▁began": 8923,
      "▁Мон": 8924,
      "▁предупреждения": 8925,
      "▁allows": 8926,
      "##валось": 8927,
      "##кар": 8928,
      "##lation": 8929,
      "▁purch": 8930,
      "##cast": 8931,
      "▁Jer": 8932,
      "▁американ": 8933,
      "▁Ну": 8934,
      "▁started": 8935,
      "▁beyond": 8936,
      "▁деятельностью": 8937,
      "##лла": 8938,
      "▁civilian": 8939,
      "##влено": 8940,
      "▁бри": 8941,
      "▁instrument": 8942,
      "##PN": 8943,
      "▁says": 8944,
      "▁incor": 8945,
      "▁уско": 8946,
      "▁Благо": 8947,
      "▁корруп": 8948,
      "▁ряда": 8949,
      "▁claims": 8950,
      "▁израиль": 8951,
      "▁приве": 8952,
      "▁Phone": 8953,
      "▁непосредственно": 8954,
      "##МИ": 8955,
      "▁Turk": 8956,
      "▁vac": 8957,
      "##ocracy": 8958,
      "▁mor": 8959,
      "▁существующих": 8960,
      "▁Договора": 8961,
      "▁remained": 8962,
      "##ходить": 8963,
      "▁assets": 8964,
      "##pet": 8965,
      "▁conver": 8966,
      "##ION": 8967,
      "▁попу": 8968,
      "▁Afghanistan": 8969,
      "▁изда": 8970,
      "▁вопросах": 8971,
      "▁Federal": 8972,
      "▁Int": 8973,
      "##ishes": 8974,
      "▁Стри": 8975,
      "▁Нет": 8976,
      "##тельная": 8977,
      "##цуз": 8978,
      "▁консенсу": 8979,
      "▁Sa": 8980,
      "##vered": 8981,
      "▁валю": 8982,
      "▁proceedings": 8983,
      "▁establishing": 8984,
      "▁ресурсами": 8985,
      "##ighb": 8986,
      "##put": 8987,
      "▁предусматривает": 8988,
      "▁Striptease": 8989,
      "▁speed": 8990,
      "▁ката": 8991,
      "##ush": 8992,
      "▁studies": 8993,
      "▁нара": 8994,
      "▁contains": 8995,
      "▁общественности": 8996,
      "▁выстав": 8997,
      "▁пункту": 8998,
      "▁easy": 8999,
      "▁присоедини": 9000,
      "▁президент": 9001,
      "##apter": 9002,
      "▁consequences": 9003,
      "▁specialized": 9004,
      "##ём": 9005,
      "▁кад": 9006,
      "▁достижению": 9007,
      "▁Second": 9008,
      "▁стоя": 9009,
      "▁своими": 9010,
      "##TAD": 9011,
      "▁примерно": 9012,
      "▁пото": 9013,
      "▁Yug": 9014,
      "##вос": 9015,
      "▁проекты": 9016,
      "▁Met": 9017,
      "▁статьей": 9018,
      "▁общих": 9019,
      "▁субре": 9020,
      "▁страно": 9021,
      "##aria": 9022,
      "▁Korea": 9023,
      "##парен": 9024,
      "▁выбра": 9025,
      "▁collaboration": 9026,
      "##istics": 9027,
      "▁reaff": 9028,
      "▁Polic": 9029,
      "▁ссыла": 9030,
      "▁вероят": 9031,
      "▁оте": 9032,
      "▁структуры": 9033,
      "##порта": 9034,
      "Ch": 9035,
      "##дил": 9036,
      "▁reflect": 9037,
      "▁лицо": 9038,
      "##ots": 9039,
      "▁Microsoft": 9040,
      "##rep": 9041,
      "▁ey": 9042,
      "▁ran": 9043,
      "▁ограничения": 9044,
      "▁прида": 9045,
      "▁попрежнему": 9046,
      "▁рабочей": 9047,
[...]
