{
  "version": "1.0",
  "truncation": null,
  "padding": null,
  "added_tokens": [
    {
      "id": 0,
      "content": "<pad>",
      "single_word": false,
      "lstrip": false,
      "rstrip": false,
      "normalized": false,
      "special": true
    },
    {
      "id": 1,
      "content": "<s>",
      "single_word": false,
      "lstrip": false,
      "rstrip": false,
      "normalized": false,
      "special": true
    },
    {
      "id": 2,
      "content": "</s>",
      "single_word": false,
      "lstrip": false,
      "rstrip": false,
      "normalized": false,
      "special": true
    },
    {
      "id": 3,
      "content": "<unk>",
      "single_word": false,
      "lstrip": false,
      "rstrip": false,
      "normalized": false,
      "special": true
    },
    {
      "id": 4,
      "content": "<2ru>",
      "single_word": false,
      "lstrip": false,
      "rstrip": false,
      "normalized": false,
      "special": true
    },
    {
      "id": 5,
      "content": "<2en>",
      "single_word": false,
      "lstrip": false,
      "rstrip": false,
      "normalized": false,
      "special": true
    }
  ],
  "normalizer": {
    "type": "NFKC"
  },
  "pre_tokenizer": {
    "type": "Sequence",
    "pretokenizers": [
      {
        "type": "Metaspace",
        "replacement": "▁",
        "prepend_scheme": "always",
        "split": true
      },
      {
        "type": "Punctuation",
        "behavior": "Isolated"
      },
      {
        "type": "Digits",
        "individual_digits": true
      }
    ]
  },
  "post_processor": {
    "type": "TemplateProcessing",
    "single": [
      {
        "SpecialToken": {
          "id": "<s>",
          "type_id": 0
        }
      },
      {
        "Sequence": {
          "id": "A",
          "type_id": 0
        }
      },
      {
        "SpecialToken": {
          "id": "</s>",
          "type_id": 0
        }
      }
    ],
    "pair": [
      {
        "Sequence": {
          "id": "A",
          "type_id": 0
        }
      },
      {
        "Sequence": {
          "id": "B",
          "type_id": 1
        }
      }
    ],
    "special_tokens": {
      "</s>": {
        "id": "</s>",
        "ids": [
          2
        ],
        "tokens": [
          "</s>"
        ]
      },
      "<s>": {
        "id": "<s>",
        "ids": [
          1
        ],
        "tokens": [
          "<s>"
        ]
      }
    }
  },
  "decoder": {
    "type": "Metaspace",
    "replacement": "▁",
    "prepend_scheme": "always",
    "split": true
  },
  "model": {
    "type": "Unigram",
    "unk_id": 3,
    "vocab": [
      [
        "<pad>",
        0.0
      ],
      [
        "<s>",
        0.0
      ],
      [
        "</s>",
        0.0
      ],
      [
        "<unk>",
        0.0
      ],
      [
        "<2ru>",
        0.0
      ],
      [
        "<2en>",
        0.0
      ],
      [
        "▁",
        -1.8364739896506492
      ],
      [
        ",",
        -3.222351702130055
      ],
      [
        ".",
        -3.566082625791463
      ],
      [
        "▁the",
        -3.85484203287945
      ],
      [
        "и",
        -3.975475438654488
      ],
      [
        "▁of",
        -4.304235769578241
      ],
      [
        "s",
        -4.337187096462882
      ],
      [
        "в",
        -4.518805421531537
      ],
      [
        "▁and",
        -4.551172338311909
      ],
      [
        "0",
        -4.663254889438527
      ],
      [
        "1",
        -4.664718963033758
      ],
      [
        "е",
        -4.677039389963138
      ],
      [
        "▁to",
        -4.759536892435529
      ],
      [
        "2",
        -4.838057299522568
      ],
      [
        "-",
        -4.913458500667234
      ],
      [
        "й",
        -4.962690611109672
      ],
      [
        "▁in",
        -5.028711009496455
      ],
      [
        "х",
        -5.104136654431883
      ],
      [
        "a",
        -5.189981764132975
      ],
      [
        "а",
        -5.389324135568906
      ],
      [
        ")",
        -5.39335281021634
      ],
      [
        "9",
        -5.443447915570163
      ],
      [
        "▁на",
        -5.4886189012303905
      ],
      [
        "(",
        -5.492155474911115
      ],
      [
        "с",
        -5.5124422445158
      ],
      [
        "ed",
        -5.525877889719448
      ],
      [
        "3",
        -5.559994867228353
      ],
      [
        "5",
        -5.614200147518309
      ],
      [
        "▁по",
        -5.6469274573690456
      ],
      [
        ":",
        -5.668638636846158
      ],
      [
        "4",
        -5.696699336334698
      ],
      [
        "▁for",
        -5.7257283947105755
      ],
      [
        "м",
        -5.764711010989167
      ],
      [
        "ing",
        -5.775332273928701
      ],
      [
        "я",
        -5.779419995246604
      ],
      [
        "ы",
        -5.783287845992005
      ],
      [
        "го",
        -5.798492940799193
      ],
      [
        "/",
        -5.798848777245912
      ],
      [
        "о",
        -5.833720753327546
      ],
      [
        "6",
        -5.8577698501149715
      ],
      [
        "▁that",
        -5.859595295622929
      ],
      [
        "▁on",
        -5.915225313832794
      ],
      [
        "у",
        -5.969003593086047
      ],
      [
        "7",
        -5.991740377919301
      ],
      [
        "▁The",
        -5.99936117440747
      ],
      [
        "8",
        -6.00699050311888
      ],
      [
        "▁is",
        -6.038065693294826
      ],
      [
        "ю",
        -6.109343004521991
      ],
      [
        "\"",
        -6.1644323284886156
      ],
      [
        "▁не",
        -6.165177492375015
      ],
      [
        "▁что",
        -6.191835976731083
      ],
      [
        "▁with",
        -6.206165387375812
      ],
      [
        ";",
        -6.220337686918526
      ],
      [
        "▁для",
        -6.2528758390843535
      ],
      [
        "к",
        -6.284715720908586
      ],
      [
        "▁be",
        -6.336673579878667
      ],
      [
        "▁by",
        -6.3735400675200164
      ],
      [
        "▁as",
        -6.381239930758092
      ],
      [
        "e",
        -6.432016519063053
      ],
      [
        "y",
        -6.437930216697026
      ],
      [
        "'",
        -6.540554581085781
      ],
      [
        "▁В",
        -6.5656144536423895
      ],
      [
        "ly",
        -6.592954945012229
      ],
      [
        "d",
        -6.628558251024801
      ],
      [
        "▁are",
        -6.648548833579191
      ],
      [
        "ом",
        -6.6829381339185705
      ],
      [
        "ов",
        -6.687375121253087
      ],
      [
        "ть",
        -6.707243620844308
      ],
      [
        "ми",
        -6.744688354757406
      ],
      [
        "▁was",
        -6.809120558503503
      ],
      [
        "▁from",
        -6.8317275177014825
      ],
      [
        "▁not",
        -6.8509748368560555
      ],
      [
        "▁or",
        -6.856496275191153
      ],
      [
        "t",
        -6.866468538771985
      ],
      [
        "▁it",
        -6.872784663928867
      ],
      [
        "▁от",
        -6.877383017346446
      ],
      [
        "▁at",
        -6.89025814448274
      ],
      [
        "ая",
        -6.901291182316449
      ],
      [
        "▁its",
        -6.913135069916725
      ],
      [
        "▁года",
        -6.935966686416213
      ],
      [
        "т",
        -6.941480844543914
      ],
      [
        "▁I",
        -6.947981225045611
      ],
      [
        "▁за",
        -6.982597837685933
      ],
      [
        "▁из",
        -6.989918823030042
      ],
      [
        "▁или",
        -6.9903408535336435
      ],
      [
        "▁как",
        -6.998115913901918
      ],
      [
        "▁you",
        -7.012146204357492
      ],
      [
        "▁также",
        -7.02960463721317
      ],
      [
        "▁have",
        -7.0311375049811495
      ],
      [
        "o",
        -7.065619736911113
      ],
      [
        "▁an",
        -7.066645359571048
      ],
      [
        "▁which",
        -7.0766222104062155
      ],
      [
        "▁this",
        -7.096353677262677
      ],
      [
        "▁will",
        -7.100205284873551
      ],
      [
        "?",
        -7.119389388715128
      ],
      [
        "▁their",
        -7.136890707114789
      ],
      [
        "▁A",
        -7.1413034116131175
      ],
      [
        "▁all",
        -7.1641843786904715
      ],
      [
        "n",
        -7.175314700358575
      ],
      [
        "▁In",
        -7.18091980347595
      ],
      [
        "▁has",
        -7.234166759969078
      ],
      [
        "ую",
        -7.243962202283798
      ],
      [
        "United",
        -7.246952197544347
      ],
      [
        "ся",
        -7.299600757140045
      ],
      [
        "ей",
        -7.306418952861412
      ],
      [
        "ой",
        -7.331462088736824
      ],
      [
        "▁при",
        -7.366954048928694
      ],
      [
        "▁их",
        -7.392053314094639
      ],
      [
        "▁его",
        -7.415704503223326
      ],
      [
        "»",
        -7.416232848571049
      ],
      [
        "ь",
        -7.436125527096355
      ],
      [
        "▁которые",
        -7.44323292456256
      ],
      [
        "▁Nations",
        -7.4544155245619415
      ],
      [
        "▁Объединенны",
        -7.457372324509496
      ],
      [
        "▁чтобы",
        -7.460339999082487
      ],
      [
        "«",
        -7.461536878161594
      ],
      [
        "▁had",
        -7.46543210000984
      ],
      [
        "▁Наций",
        -7.466024208495979
      ],
      [
        "▁also",
        -7.479275148139216
      ],
      [
        "▁Организации",
        -7.49948899556666
      ],
      [
        "▁were",
        -7.523109380066771
      ],
      [
        "▁это",
        -7.525064296241755
      ],
      [
        "▁other",
        -7.527853504005888
      ],
      [
        "▁been",
        -7.529047600604121
      ],
      [
        "му",
        -7.535392368492772
      ],
      [
        "▁international",
        -7.5482883096509745
      ],
      [
        "ется",
        -7.549673088614158
      ],
      [
        "▁Committee",
        -7.5541516167840665
      ],
      [
        "ies",
        -7.5588321391612165
      ],
      [
        "ться",
        -7.569187726833551
      ],
      [
        "▁can",
        -7.571271498816355
      ],
      [
        "i",
        -7.614066735515927
      ],
      [
        "—",
        -7.646569970898847
      ],
      [
        "▁том",
        -7.652043767744502
      ],
      [
        "▁States",
        -7.663425476547541
      ],
      [
        "▁should",
        -7.686072510329792
      ],
      [
        "ами",
        -7.704893195393401
      ],
      [
        "▁development",
        -7.708550407577562
      ],
      [
        "▁countries",
        -7.717667191541496
      ],
      [
        "▁до",
        -7.719900110279495
      ],
      [
        "▁report",
        -7.724907323735854
      ],
      [
        "m",
        -7.734571513017679
      ],
      [
        "▁того",
        -7.749207055979607
      ],
      [
        "▁области",
        -7.750525010628451
      ],
      [
        "C",
        -7.754380390157875
      ],
      [
        "▁вы",
        -7.756663730215049
      ],
      [
        "▁would",
        -7.763736603578874
      ],
      [
        "▁все",
        -7.766561784145567
      ],
      [
        "!",
        -7.778187437031971
      ],
      [
        "▁It",
        -7.782543434548229
      ],
      [
        "b",
        -7.794763351544789
      ],
      [
        "▁будет",
        -7.798390841097458
      ],
      [
        "▁more",
        -7.802035165761083
      ],
      [
        "ем",
        -7.802618921061191
      ],
      [
        "▁более",
        -7.8089664854411325
      ],
      [
        "–",
        -7.813895869610196
      ],
      [
        "▁your",
        -7.816206414072266
      ],
      [
        "▁we",
        -7.825768014012276
      ],
      [
        "▁such",
        -7.829564805567237
      ],
      [
        "c",
        -7.831035717573419
      ],
      [
        "▁rights",
        -7.8480633313598585
      ],
      [
        "▁work",
        -7.871808389473953
      ],
      [
        "▁one",
        -7.875599721759391
      ],
      [
        "▁who",
        -7.880455194299014
      ],
      [
        "н",
        -7.8814438822252235
      ],
      [
        "▁развития",
        -7.888216061591189
      ],
      [
        "▁under",
        -7.889685933625259
      ],
      [
        "▁человека",
        -7.890929208447769
      ],
      [
        "▁С",
        -7.894813475817509
      ],
      [
        "ли",
        -7.898998495812368
      ],
      [
        "▁information",
        -7.899927579877465
      ],
      [
        "▁his",
        -7.910807965920728
      ],
      [
        "▁то",
        -7.911974762015712
      ],
      [
        "▁they",
        -7.922617724104432
      ],
      [
        "▁S",
        -7.932900326731625
      ],
      [
        "▁but",
        -7.9404170797261795
      ],
      [
        "▁бы",
        -7.941568548078655
      ],
      [
        "A",
        -7.9483909431964594
      ],
      [
        "г",
        -7.961539676538896
      ],
      [
        "resolution",
        -7.966288175508117
      ],
      [
        "▁human",
        -7.97079205768288
      ],
      [
        "▁так",
        -7.970870710175985
      ],
      [
        "he",
        -7.973428633032086
      ],
      [
        "▁new",
        -7.977264349272236
      ],
      [
        "er",
        -7.9773064156070355
      ],
      [
        "ных",
        -7.983987583544694
      ],
      [
        "▁он",
        -7.990905617342854
      ],
      [
        "▁including",
        -7.993672325603132
      ],
      [
        "▁является",
        -7.994795188271594
      ],
      [
        "▁может",
        -8.002745008923025
      ],
      [
        "▁national",
        -8.008389605637822
      ],
      [
        "▁со",
        -8.011059076227165
      ],
      [
        "▁во",
        -8.011717308673697
      ],
      [
        "▁прав",
        -8.01697849409343
      ],
      [
        "▁году",
        -8.019753404030956
      ],
      [
        "▁время",
        -8.023117615685775
      ],
      [
        "▁into",
        -8.023518089357378
      ],
      [
        "▁there",
        -8.024661526240344
      ],
      [
        "%",
        -8.026730624232643
      ],
      [
        "▁Council",
        -8.027883966176539
      ],
      [
        "▁any",
        -8.029142699162048
      ],
      [
        "ются",
        -8.030173126761673
      ],
      [
        "▁people",
        -8.036011895931633
      ],
      [
        "▁На",
        -8.03618669801795
      ],
      [
        "al",
        -8.04122403132464
      ],
      [
        "▁time",
        -8.045160489208175
      ],
      [
        "▁Генерально",
        -8.050065560031143
      ],
      [
        "▁всех",
        -8.052801492099054
      ],
      [
        "▁было",
        -8.054775417062483
      ],
      [
        "▁тем",
        -8.064625928736483
      ],
      [
        "▁об",
        -8.065684967681012
      ],
      [
        "▁our",
        -8.067763078600958
      ],
      [
        "▁State",
        -8.06921136763803
      ],
      [
        "▁support",
        -8.070425418515525
      ],
      [
        "▁По",
        -8.073538071391987
      ],
      [
        "▁мы",
        -8.07608948541635
      ],
      [
        "▁out",
        -8.087567566519729
      ],
      [
        "▁быть",
        -8.090667802454448
      ],
      [
        "▁well",
        -8.106777848225931
      ],
      [
        "▁они",
        -8.116043664666732
      ],
      [
        "▁about",
        -8.131321417945108
      ],
      [
        "▁This",
        -8.13175314854551
      ],
      [
        "▁резолюци",
        -8.13791540937962
      ],
      [
        "▁отношении",
        -8.14316737460062
      ],
      [
        "этой",
        -8.145598719555844
      ],
      [
        "▁были",
        -8.152320344889434
      ],
      [
        "▁women",
        -8.16105164221494
      ],
      [
        "▁между",
        -8.165721575511453
      ],
      [
        "▁деятельности",
        -8.174607855705643
      ],
      [
        "▁Комитет",
        -8.180197160434995
      ],
      [
        "▁use",
        -8.181840949633397
      ],
      [
        "▁но",
        -8.181894210723339
      ],
      [
        "’",
        -8.18523610828718
      ],
      [
        "▁стран",
        -8.18764100110426
      ],
      [
        "▁them",
        -8.192554730683772
      ],
      [
        "ет",
        -8.19353846555233
      ],
      [
        "▁only",
        -8.1944706355677
      ],
      [
        "▁system",
        -8.196211674144775
      ],
      [
        "g",
        -8.200083063046401
      ],
      [
        "▁вопросам",
        -8.207862078427096
      ],
      [
        "▁those",
        -8.216363657447173
      ],
      [
        "▁был",
        -8.22437017893083
      ],
      [
        "▁made",
        -8.224387033425215
      ],
      [
        "▁between",
        -8.226467768320429
      ],
      [
        "▁связи",
        -8.227422544335086
      ],
      [
        "▁We",
        -8.232877459419853
      ],
      [
        "General",
        -8.238317288710213
      ],
      [
        "ах",
        -8.240258416373912
      ],
      [
        "▁женщин",
        -8.24917913213913
      ],
      [
        "▁под",
        -8.258551048059058
      ],
      [
        "r",
        -8.258687729706072
      ],
      [
        "▁этого",
        -8.260765164133327
      ],
      [
        "▁these",
        -8.261660557531208
      ],
      [
        "L",
        -8.262153098526618
      ],
      [
        "▁no",
        -8.271459698171691
      ],
      [
        "▁concern",
        -8.275881384598655
      ],
      [
        "▁may",
        -8.27966947445126
      ],
      [
        "▁law",
        -8.281045614695032
      ],
      [
        "▁же",
        -8.283906071721445
      ],
      [
        "▁years",
        -8.284265642453875
      ],
      [
        "лись",
        -8.28797973480543
      ],
      [
        "▁Government",
        -8.288574847733901
      ],
      [
        "S",
        -8.291237900328994
      ],
      [
        "▁against",
        -8.299435753528527
      ],
      [
        "*",
        -8.301105987205796
      ],
      [
        "▁Convention",
        -8.303268609658456
      ],
      [
        "▁up",
        -8.313292438242646
      ],
      [
        "▁through",
        -8.314563066225693
      ],
      [
        "▁который",
        -8.317158711622342
      ],
      [
        "▁И",
        -8.32191565703271
      ],
      [
        "▁than",
        -8.322545747088474
      ],
      [
        "▁только",
        -8.322620497429366
      ],
      [
        "▁E",
        -8.326935977983897
      ],
      [
        "▁соответствии",
        -8.330632995595082
      ],
      [
        "▁session",
        -8.33149119748138
      ],
      [
        "ity",
        -8.335119715308725
      ],
      [
        "▁Assembly",
        -8.336868800294202
      ],
      [
        "in",
        -8.338328280674832
      ],
      [
        "ная",
        -8.342078822582266
      ],
      [
        "зад",
        -8.345029674822532
      ],
      [
        "▁do",
        -8.346087972969494
      ],
      [
        "▁number",
        -8.346422288969052
      ],
      [
        "▁activities",
        -8.347110817026618
      ],
      [
        "▁implementation",
        -8.357039950730515
      ],
      [
        "P",
        -8.365517605278965
      ],
      [
        "л",
        -8.366371989108275
      ],
      [
        "▁country",
        -8.367671922662938
      ],
      [
        "▁этом",
        -8.372673431062427
      ],
      [
        "ion",
        -8.375825361928422
      ],
      [
        "▁Я",
        -8.377038355805142
      ],
      [
        "▁должны",
        -8.378322348951567
      ],
      [
        "▁могут",
        -8.384409979980052
      ],
      [
        "▁some",
        -8.386170087851632
      ],
      [
        "▁if",
        -8.394590201538728
      ],
      [
        "▁ago",
        -8.395111869132064
      ],
      [
        "▁per",
        -8.398121601305366
      ],
      [
        "▁need",
        -8.398873825361525
      ],
      [
        "▁других",
        -8.400038957431477
      ],
      [
        "▁безопасности",
        -8.400466763676501
      ],
      [
        "able",
        -8.402351807050504
      ],
      [
        "Secretary",
        -8.403275276496052
      ],
      [
        "▁over",
        -8.408285974044214
      ],
      [
        "▁целях",
        -8.409816879030817
      ],
      [
        "▁если",
        -8.411108885393654
      ],
      [
        "▁рамках",
        -8.412714937787326
      ],
      [
        "▁two",
        -8.415825212216971
      ],
      [
        "▁effort",
        -8.416781641636119
      ],
      [
        "“",
        -8.419563095646357
      ],
      [
        "▁when",
        -8.419681460692537
      ],
      [
        "ные",
        -8.423583948130076
      ],
      [
        "▁права",
        -8.432663382373935
      ],
      [
        "▁take",
        -8.435585342033635
      ],
      [
        "▁most",
        -8.435920595403879
      ],
      [
        "▁order",
        -8.437430071698309
      ],
      [
        "▁Republic",
        -8.43942397916309
      ],
      [
        "▁first",
        -8.443106500242084
      ],
      [
        "▁когда",
        -8.444933648273874
      ],
      [
        "▁работы",
        -8.454622951416324
      ],
      [
        "▁Это",
        -8.45743293655064
      ],
      [
        "▁economic",
        -8.458811500430043
      ],
      [
        "▁children",
        -8.46280058908967
      ],
      [
        "▁provide",
        -8.464692973155627
      ],
      [
        "▁could",
        -8.469738642703668
      ],
      [
        "▁обеспечения",
        -8.471703136790248
      ],
      [
        "p",
        -8.47277723900701
      ],
      [
        "▁International",
        -8.47318112865693
      ],
      [
        "”",
        -8.48026672918073
      ],
      [
        "▁системы",
        -8.484450443720187
      ],
      [
        "▁right",
        -8.487931559104371
      ],
      [
        "measures",
        -8.494767616884884
      ],
      [
        "▁security",
        -8.494772614000665
      ],
      [
        "▁включая",
        -8.498556804273155
      ],
      [
        "▁Commission",
        -8.499776734739452
      ],
      [
        "▁государств",
        -8.500613182741894
      ],
      [
        "▁meeting",
        -8.502940908613692
      ],
      [
        "▁General",
        -8.503134908128528
      ],
      [
        "]",
        -8.506637471507768
      ],
      [
        "то",
        -8.513849475885761
      ],
      [
        "ever",
        -8.515807343018583
      ],
      [
        "h",
        -8.52214801247924
      ],
      [
        "f",
        -8.522422572082604
      ],
      [
        "▁must",
        -8.523384475479606
      ],
      [
        "<",
        -8.52390358212534
      ],
      [
        "▁страны",
        -8.524844169482884
      ],
      [
        "▁un",
        -8.526968586323152
      ],
      [
        "▁T",
        -8.531750481595195
      ],
      [
        ">",
        -8.532188982703609
      ],
      [
        "▁после",
        -8.538584091865237
      ],
      [
        "▁world",
        -8.538945084476044
      ],
      [
        "[",
        -8.540297160743304
      ],
      [
        "ensure",
        -8.540812691505305
      ],
      [
        "▁Mr",
        -8.542238265126267
      ],
      [
        "▁cooperation",
        -8.546968986389327
      ],
      [
        "▁said",
        -8.548512141576063
      ],
      [
        "▁которых",
        -8.54987962091638
      ],
      [
        "▁D",
        -8.558082150360013
      ],
      [
        "▁Мы",
        -8.55970764570703
      ],
      [
        "▁public",
        -8.560153888941493
      ],
      [
        "▁process",
        -8.561951127283773
      ],
      [
        "▁social",
        -8.562144462535592
      ],
      [
        "▁можно",
        -8.56222778050054
      ],
      [
        "▁помощи",
        -8.562419184014503
      ],
      [
        "этих",
        -8.570904269275847
      ],
      [
        "▁государства",
        -8.571825841077514
      ],
      [
        "▁my",
        -8.576429729812572
      ],
      [
        "▁where",
        -8.577405446049202
      ],
      [
        "▁стать",
        -8.582017681105192
      ],
      [
        "▁B",
        -8.582158661477742
      ],
      [
        "▁сессии",
        -8.58315729465705
      ],
      [
        "organizations",
        -8.587379085394856
      ],
      [
        "▁мира",
        -8.588911892858142
      ],
      [
        "on",
        -8.591444544248304
      ],
      [
        "▁non",
        -8.594076021423573
      ],
      [
        "or",
        -8.59904218370411
      ],
      [
        "▁своей",
        -8.600286669697411
      ],
      [
        "▁информации",
        -8.602141962423575
      ],
      [
        "▁будут",
        -8.604384918215708
      ],
      [
        "▁request",
        -8.604822557882088
      ],
      [
        "▁how",
        -8.605499979549377
      ],
      [
        "▁many",
        -8.6072688151744
      ],
      [
        "▁период",
        -8.608563469522624
      ],
      [
        "она",
        -8.610772784411981
      ],
      [
        "▁services",
        -8.611532659924945
      ],
      [
        "▁лет",
        -8.61481052585541
      ],
      [
        "th",
        -8.616219973352456
      ],
      [
        "▁UN",
        -8.616732172129483
      ],
      [
        "▁part",
        -8.618908333815385
      ],
      [
        "▁лиц",
        -8.620812242521799
      ],
      [
        "ого",
        -8.623075359702906
      ],
      [
        "▁shall",
        -8.624364020469832
      ],
      [
        "ную",
        -8.627476379805238
      ],
      [
        "D",
        -8.628655280692605
      ],
      [
        "меры",
        -8.629257292068434
      ],
      [
        "▁make",
        -8.634609023374418
      ],
      [
        "▁He",
        -8.637067232841476
      ],
      [
        "▁случае",
        -8.638324389796116
      ],
      [
        "▁address",
        -8.642052964706137
      ],
      [
        "▁была",
        -8.644665759073826
      ],
      [
        "д",
        -8.644953269501315
      ],
      [
        "▁которая",
        -8.647889247694017
      ],
      [
        "▁качестве",
        -8.655200917389594
      ],
      [
        "▁year",
        -8.65705349153068
      ],
      [
        "during",
        -8.658226926259925
      ],
      [
        "▁resources",
        -8.661405331818123
      ],
      [
        "▁high",
        -8.661987900411905
      ],
      [
        "▁детей",
        -8.666200935256198
      ],
      [
        "▁Он",
        -8.668017228042373
      ],
      [
        "within",
        -8.669045588065451
      ],
      [
        "▁draft",
        -8.669704716568734
      ],
      [
        "▁Совета",
        -8.6716480875182
      ],
      [
        "▁год",
        -8.674395458048851
      ],
      [
        "ers",
        -8.674985699702948
      ],
      [
        "▁образом",
        -8.679160020367583
      ],
      [
        "ного",
        -8.68165403856195
      ],
      [
        "еще",
        -8.681769091803227
      ],
      [
        "▁issues",
        -8.682842695918065
      ],
      [
        "l",
        -8.685877286808813
      ],
      [
        "▁частност",
        -8.690113566714837
      ],
      [
        "▁You",
        -8.690801544583888
      ],
      [
        "ной",
        -8.691263266903167
      ],
      [
        "▁what",
        -8.692304543377839
      ],
      [
        "▁усилия",
        -8.693888945006472
      ],
      [
        "▁situation",
        -8.695601044321034
      ],
      [
        "▁financial",
        -8.6986010889479
      ],
      [
        "▁article",
        -8.701343958924355
      ],
      [
        "▁А",
        -8.70248988045362
      ],
      [
        "▁regional",
        -8.705293430608688
      ],
      [
        "▁борьб",
        -8.70983360987586
      ],
      [
        "▁чем",
        -8.710391352583171
      ],
      [
        "на",
        -8.71394416319433
      ],
      [
        "ам",
        -8.72617504347945
      ],
      [
        "▁без",
        -8.730010562361612
      ],
      [
        "based",
        -8.734582267927593
      ],
      [
        "этому",
        -8.736095388896661
      ],
      [
        "▁уровне",
        -8.738294296300802
      ],
      [
        "▁Group",
        -8.740775993825762
      ],
      [
        "O",
        -8.741383117903819
      ],
      [
        "осуществления",
        -8.745266849999561
      ],
      [
        "▁Конвенции",
        -8.746101282895195
      ],
      [
        "▁being",
        -8.749270531017869
      ],
      [
        "▁further",
        -8.749310864675628
      ],
      [
        "▁party",
        -8.749340247925792
      ],
      [
        "taken",
        -8.750241584181381
      ],
      [
        "▁программы",
        -8.750939024689304
      ],
      [
        "him",
        -8.752147903924046
      ],
      [
        "▁important",
        -8.752341186981731
      ],
      [
        "&",
        -8.755256154409064
      ],
      [
        "held",
        -8.758397043963171
      ],
      [
        "▁particular",
        -8.759514093655461
      ],
      [
        "▁доклад",
        -8.759706557767514
      ],
      [
        "▁like",
        -8.760720582147641
      ],
      [
        "▁Security",
        -8.761625435337324
      ],
      [
        "▁health",
        -8.761712904856342
      ],
      [
        "▁me",
        -8.762883840133785
      ],
      [
        "▁необходимо",
        -8.762972323137747
      ],
      [
        "▁For",
        -8.76446119103699
      ],
      [
        "▁At",
        -8.765176542304694
      ],
      [
        "▁level",
        -8.766028940426505
      ],
      [
        "следует",
        -8.771162970458942
      ],
      [
        "▁political",
        -8.77298062506339
      ],
      [
        "▁Г",
        -8.773253696714365
      ],
      [
        "▁access",
        -8.773446079338985
      ],
      [
        "основе",
        -8.774321826064917
      ],
      [
        "▁Conference",
        -8.77469590001154
      ],
      [
        "▁им",
        -8.777793589631678
      ],
      [
        "▁members",
        -8.778677146550812
      ],
      [
        "provided",
        -8.784000911878655
      ],
      [
        "▁management",
        -8.787433852205254
      ],
      [
        "▁data",
        -8.789776303900535
      ],
      [
        "▁used",
        -8.795450317700924
      ],
      [
        "▁month",
        -8.79562131884428
      ],
      [
        "developing",
        -8.795809311602714
      ],
      [
        "▁very",
        -8.798334361506129
      ],
      [
        "▁решения",
        -8.80033210492182
      ],
      [
        "▁As",
        -8.800982371938098
      ],
      [
        "▁both",
        -8.803759551261546
      ],
      [
        "▁programme",
        -8.805307814341225
      ],
      [
        "assistance",
        -8.805410197085088
      ],
      [
        "▁same",
        -8.805946516379034
      ],
      [
        "▁О",
        -8.807777790157049
      ],
      [
        "таких",
        -8.811667910831321
      ],
      [
        "▁review",
        -8.813048137091153
      ],
      [
        "▁Если",
        -8.81339486508625
      ],
      [
        "▁Development",
        -8.813437825726249
      ],
      [
        "▁секретаря",
        -8.81359342256091
      ],
      [
        "▁данных",
        -8.814285852847092
      ],
      [
        "▁К",
        -8.814524166700986
      ],
      [
        "▁paragraph",
        -8.816656975314908
      ],
      [
        "▁after",
        -8.817624113817295
      ],
      [
        "лось",
        -8.817809738179319
      ],
      [
        "▁своих",
        -8.81814149385742
      ],
      [
        "ный",
        -8.818601261346254
      ],
      [
        "▁свои",
        -8.818731966241552
      ],
      [
        "лась",
        -8.819959223328448
      ],
      [
        "▁view",
        -8.822043962759567
      ],
      [
        "▁decision",
        -8.823268620217943
      ],
      [
        "▁To",
        -8.823662665809767
      ],
      [
        "▁period",
        -8.824625622436486
      ],
      [
        "▁How",
        -8.824866893117216
      ],
      [
        "▁Rights",
        -8.827369287315951
      ],
      [
        "▁эти",
        -8.828284555293623
      ],
      [
        "▁place",
        -8.832851162273359
      ],
      [
        "▁Russian",
        -8.833084244967031
      ],
      [
        "▁her",
        -8.83523613434358
      ],
      [
        "▁regard",
        -8.835478016543158
      ],
      [
        "▁account",
        -8.836581128139859
      ],
      [
        "▁cent",
        -8.841831568493657
      ],
      [
        "▁социально",
        -8.84363091825432
      ],
      [
        "либо",
        -8.846207466991217
      ],
      [
        "▁дня",
        -8.8477550058188
      ],
      [
        "▁мер",
        -8.852289113359344
      ],
      [
        "▁And",
        -8.85297362321841
      ],
      [
        "▁before",
        -8.853388058277401
      ],
      [
        "▁уже",
        -8.853570128189984
      ],
      [
        "▁President",
        -8.8570667938801
      ],
      [
        "▁числе",
        -8.85976765587474
      ],
      [
        "▁peace",
        -8.862250424643362
      ],
      [
        "▁If",
        -8.862843809720747
      ],
      [
        "▁внимание",
        -8.8643694140746
      ],
      [
        "▁provision",
        -8.864818293342791
      ],
      [
        "areas",
        -8.865619699294609
      ],
      [
        "▁following",
        -8.867256721870412
      ],
      [
        "▁управления",
        -8.868045675417074
      ],
      [
        "▁policy",
        -8.869441837078435
      ],
      [
        "▁Совет",
        -8.86965249497732
      ],
      [
        "▁help",
        -8.870550175420131
      ],
      [
        "свою",
        -8.874005963310257
      ],
      [
        "▁education",
        -8.875069319164805
      ],
      [
        "▁действий",
        -8.87551543167914
      ],
      [
        "related",
        -8.877232300321134
      ],
      [
        "▁legal",
        -8.879491126432507
      ],
      [
        "▁On",
        -8.879998207664428
      ],
      [
        "▁международного",
        -8.881830004408696
      ],
      [
        "▁Special",
        -8.885179467469763
      ],
      [
        "▁protection",
        -8.890571503233948
      ],
      [
        "▁Как",
        -8.891130241922843
      ],
      [
        "▁организации",
        -8.896713630270913
      ],
      [
        "E",
        -8.902860508757598
      ],
      [
        "▁против",
        -8.903666465581558
      ],
      [
        "лся",
        -8.903684046665598
      ],
      [
        "▁without",
        -8.906582856014417
      ],
      [
        "▁программ",
        -8.908683972821045
      ],
      [
        "▁continue",
        -8.909005567769501
      ],
      [
        "▁region",
        -8.909173379066765
      ],
      [
        "▁among",
        -8.911201082546892
      ],
      [
        "▁ресурсов",
        -8.913656305955122
      ],
      [
        "▁persons",
        -8.917176533100687
      ],
      [
        "▁life",
        -8.917634148136386
      ],
      [
        "▁Office",
        -8.917650588812965
      ],
      [
        "ходе",
        -8.918144453745695
      ],
      [
        "тся",
        -8.919323080201321
      ],
      [
        "▁средств",
        -8.919453870501897
      ],
      [
        "▁available",
        -8.925137480213609
      ],
      [
        "▁Кром",
        -8.927698743840322
      ],
      [
        "▁N",
        -8.931302758826485
      ],
      [
        "▁action",
        -8.93192307714889
      ],
      [
        "▁являются",
        -8.933125482084053
      ],
      [
        "▁этот",
        -8.934997356527454
      ],
      [
        "le",
        -8.937922229202423
      ],
      [
        "▁положения",
        -8.938107970064534
      ],
      [
        "▁Вы",
        -8.93953100084877
      ],
      [
        "▁населения",
        -8.941891085150308
      ],
      [
        "▁now",
        -8.942804511238695
      ],
      [
        "▁community",
        -8.945310007984919
      ],
      [
        "▁present",
        -8.946471980914769
      ],
      [
        "▁set",
        -8.949103386033892
      ],
      [
        "▁стороны",
        -8.951397118633814
      ],
      [
        "▁всего",
        -8.951888929386339
      ],
      [
        "▁way",
        -8.951946744236505
      ],
      [
        "ment",
        -8.952394095356178
      ],
      [
        "▁possible",
        -8.954549850436544
      ],
      [
        "▁role",
        -8.955584854158602
      ],
      [
        "▁programmes",
        -8.956481101944537
      ],
      [
        "▁есть",
        -8.95859443928876
      ],
      [
        "relevant",
        -8.960539242753473
      ],
      [
        "▁группы",
        -8.964953712596701
      ],
      [
        "сти",
        -8.965777717091584
      ],
      [
        "▁сотрудничества",
        -8.965857330252367
      ],
      [
        "целью",
        -8.969047345457604
      ],
      [
        "re",
        -8.97065680339505
      ],
      [
        "▁contain",
        -8.971320813567441
      ],
      [
        "▁three",
        -8.971516694108825
      ],
      [
        "▁странах",
        -8.973108817509331
      ],
      [
        "▁training",
        -8.974223090893474
      ],
      [
        "▁special",
        -8.97455426522145
      ],
      [
        "▁area",
        -8.975205517169718
      ],
      [
        "▁Human",
        -8.976439621384177
      ],
      [
        "▁вопрос",
        -8.98013404956596
      ],
      [
        "each",
        -8.980329853707948
      ],
      [
        "▁F",
        -8.98048324890621
      ],
      [
        "▁них",
        -8.980967594996947
      ],
      [
        "▁политики",
        -8.987407424807978
      ],
      [
        "▁civil",
        -8.988272361190935
      ],
      [
        "▁necessary",
        -8.988675002564504
      ],
      [
        "▁did",
        -8.990673975397051
      ],
      [
        "▁Для",
        -8.991481847185678
      ],
      [
        "▁особенно",
        -8.992013714675807
      ],
      [
        "▁even",
        -8.992973620415938
      ],
      [
        "▁effective",
        -8.993244420774044
      ],
      [
        "▁возможность",
        -8.993820010499611
      ],
      [
        "▁участие",
        -8.994376690756793
      ],
      [
        "▁respect",
        -8.996091006234321
      ],
      [
        "▁информацию",
        -8.999121692843715
      ],
      [
        "capacity",
        -9.00040205731417
      ],
      [
        "▁жизни",
        -9.001679816473004
      ],
      [
        "▁M",
        -9.002763919122545
      ],
      [
        "parties",
        -9.007505335391514
      ],
      [
        "▁local",
        -9.01094047726847
      ],
      [
        "▁general",
        -9.013420241525058
      ],
      [
        "▁защиты",
        -9.013789972160456
      ],
      [
        "▁result",
        -9.014256940532357
      ],
      [
        "December",
        -9.015354694415308
      ],
      [
        "▁где",
        -9.015752913066722
      ],
      [
        "▁know",
        -9.016773465733818
      ],
      [
        "▁которой",
        -9.016836592575087
      ],
      [
        "▁group",
        -9.016878147465368
      ],
      [
        "▁больше",
        -9.017173821024583
      ],
      [
        "▁имеет",
        -9.018526091381247
      ],
      [
        "за",
        -9.025928500825176
      ],
      [
        "▁global",
        -9.02727630486311
      ],
      [
        "▁Безопасности",
        -9.02745426457044
      ],
      [
        "▁G",
        -9.032533849984446
      ],
      [
        "▁control",
        -9.036829923135041
      ],
      [
        "ла",
        -9.03871875458446
      ],
      [
        "▁staff",
        -9.040253969709985
      ],
      [
        "▁European",
        -9.041400165727033
      ],
      [
        "▁while",
        -9.04240545323397
      ],
      [
        "▁full",
        -9.044517283968958
      ],
      [
        "ation",
        -9.045000542040087
      ],
      [
        "▁Не",
        -9.045873833028725
      ],
      [
        "▁because",
        -9.049024912034303
      ],
      [
        "delegation",
        -9.049514782835177
      ],
      [
        "▁project",
        -9.049771304070676
      ],
      [
        "▁У",
        -9.050255015551143
      ],
      [
        "▁working",
        -9.050956915565287
      ],
      [
        "▁раз",
        -9.054500208933389
      ],
      [
        "▁case",
        -9.058027452085009
      ],
      [
        "▁institution",
        -9.058692799569293
      ],
      [
        "▁другие",
        -9.05929237655115
      ],
      [
        "▁М",
        -9.060703586018912
      ],
      [
        "▁There",
        -9.060952493134796
      ],
      [
        "▁R",
        -9.061173074612274
      ],
      [
        "adopted",
        -9.061534869865351
      ],
      [
        "▁us",
        -9.06248236670595
      ],
      [
        "▁good",
        -9.065220231901671
      ],
      [
        "▁право",
        -9.069087654999464
      ],
      [
        "▁since",
        -9.071132345965292
      ],
      [
        "▁just",
        -9.073282715130661
      ],
      [
        "▁Республики",
        -9.075582426387525
      ],
      [
        "обеспечить",
        -9.07790171351851
      ],
      [
        "правам",
        -9.078471316501785
      ],
      [
        "▁specific",
        -9.084266277989757
      ],
      [
        "▁does",
        -9.084553598797552
      ],
      [
        "▁end",
        -9.08498444120328
      ],
      [
        "accordance",
        -9.085225511656075
      ],
      [
        "▁правительство",
        -9.086724573074994
      ],
      [
        "▁different",
        -9.087526733961672
      ],
      [
        "▁себя",
        -9.089697669590368
      ],
      [
        "▁международных",
        -9.090864853637575
      ],
      [
        "течение",
        -9.092474360978462
      ],
      [
        "▁procedure",
        -9.096798534444842
      ],
      [
        "▁тех",
        -9.09818343336165
      ],
      [
        "▁progress",
        -9.09950607607589
      ],
      [
        "▁очень",
        -9.099587321184666
      ],
      [
        "▁long",
        -9.101714275615718
      ],
      [
        "▁issue",
        -9.10408257751497
      ],
      [
        "▁main",
        -9.104275666523261
      ],
      [
        "▁проект",
        -9.10585494541141
      ],
      [
        "▁small",
        -9.107276376226643
      ],
      [
        "▁free",
        -9.113342821156387
      ],
      [
        "п",
        -9.11407674615294
      ],
      [
        "▁через",
        -9.115707964968692
      ],
      [
        "▁пункт",
        -9.116824656232259
      ],
      [
        "▁которое",
        -9.117048833510408
      ],
      [
        "людей",
        -9.118297734683074
      ],
      [
        "▁nuclear",
        -9.123097838687745
      ],
      [
        "▁этим",
        -9.125909298019698
      ],
      [
        "А",
        -9.128233049557005
      ],
      [
        "▁technical",
        -9.128409242416808
      ],
      [
        "▁проблем",
        -9.129325231999186
      ],
      [
        "▁re",
        -9.129601580666684
      ],
      [
        "▁include",
        -9.134316346084281
      ],
      [
        "▁service",
        -9.138002995023449
      ],
      [
        "▁established",
        -9.138725942015265
      ],
      [
        "▁говорит",
        -9.140027358919726
      ],
      [
        "▁implement",
        -9.142716761783715
      ],
      [
        "to",
        -9.144004601713245
      ],
      [
        "▁проекта",
        -9.144164572840628
      ],
      [
        "u",
        -9.144534854997472
      ],
      [
        "▁механизм",
        -9.145218008512195
      ],
      [
        "▁water",
        -9.145338699746858
      ],
      [
        "▁conditions",
        -9.149069381478022
      ],
      [
        "an",
        -9.149548016101546
      ],
      [
        "▁Но",
        -9.151584909237295
      ],
      [
        "▁own",
        -9.152109425317281
      ],
      [
        "▁использования",
        -9.155328287820456
      ],
      [
        "▁Ассамблеи",
        -9.157892031935315
      ],
      [
        "▁agreement",
        -9.157979649480358
      ],
      [
        "▁World",
        -9.159077718162989
      ],
      [
        "est",
        -9.167452408942234
      ],
      [
        "но",
        -9.168048436577159
      ],
      [
        "▁Part",
        -9.168609534366219
      ],
      [
        "▁Organization",
        -9.168787376879592
      ],
      [
        "▁improve",
        -9.174963442394796
      ],
      [
        "violence",
        -9.176284708766861
      ],
      [
        "▁проблемы",
        -9.177866965455227
      ],
      [
        "▁котором",
        -9.179428706363554
      ],
      [
        "▁great",
        -9.181117165162053
      ],
      [
        "▁basi",
        -9.182275651389485
      ],
      [
        "▁population",
        -9.183566183990976
      ],
      [
        "▁комитет",
        -9.184223490431506
      ],
      [
        "upon",
        -9.18481986570568
      ],
      [
        "▁various",
        -9.185851947348016
      ],
      [
        "▁recommendations",
        -9.193707062825803
      ],
      [
        "▁правительства",
        -9.194752243164533
      ],
      [
        "▁При",
        -9.19488482914424
      ],
      [
        "▁всем",
        -9.19635936267102
      ],
      [
        "▁But",
        -9.19911023525031
      ],
      [
        "▁услуг",
        -9.200503812951743
      ],
      [
        "▁вам",
        -9.200595794503036
      ],
      [
        "ness",
        -9.205493995986146
      ],
      [
        "▁ни",
        -9.206361724571599
      ],
      [
        "ary",
        -9.208083504847558
      ],
      [
        "▁Комитета",
        -9.211872123347078
      ],
      [
        "▁get",
        -9.211910731575028
      ],
      [
        "▁уровня",
        -9.212824027094408
      ],
      [
        "▁trade",
        -9.213067041534881
      ],
      [
        "I",
        -9.213532533703264
      ],
      [
        "▁должен",
        -9.214586950913015
      ],
      [
        "декабря",
        -9.216729555327369
      ],
      [
        "▁needs",
        -9.217685524072719
      ],
      [
        "▁All",
        -9.218544466167842
      ],
      [
        "is",
        -9.218794358669827
      ],
      [
        "▁Member",
        -9.22090429652289
      ],
      [
        "▁increase",
        -9.221371804678473
      ],
      [
        "policies",
        -9.22188321190161
      ],
      [
        "▁человек",
        -9.224560876487544
      ],
      [
        "▁про",
        -9.225029961770746
      ],
      [
        "▁follow",
        -9.225449236644018
      ],
      [
        "Е",
        -9.226552281452193
      ],
      [
        "▁V",
        -9.22779330566283
      ],
      [
        "▁результате",
        -9.228324596145818
      ],
      [
        "▁Комиссии",
        -9.229347550253074
      ],
      [
        "society",
        -9.230779988778915
      ],
      [
        "▁remain",
        -9.23250988861429
      ],
      [
        "▁National",
        -9.23251676804003
      ],
      [
        "▁решение",
        -9.23265788642138
      ],
      [
        "▁времени",
        -9.23331366738281
      ],
      [
        "x",
        -9.234130945915537
      ],
      [
        "К",
        -9.23422921093577
      ],
      [
        "groups",
        -9.236569414478154
      ],
      [
        "▁значение",
        -9.239250416926161
      ],
      [
        "целей",
        -9.24065849428455
      ],
      [
        "▁power",
        -9.241337658038216
      ],
      [
        "▁inter",
        -9.241699379396014
      ],
      [
        "▁appropriate",
        -9.241708832783297
      ],
      [
        "W",
        -9.242143822746806
      ],
      [
        "▁возможности",
        -9.242614731147244
      ],
      [
        "▁поскольку",
        -9.242782157789607
      ],
      [
        "▁организаций",
        -9.244565087481108
      ],
      [
        "▁вопросу",
        -9.244836691616603
      ],
      [
        "▁open",
        -9.245044582084875
      ],
      [
        "▁future",
        -9.24757589996585
      ],
      [
        "▁имеют",
        -9.247943340547543
      ],
      [
        "С",
        -9.248687537233574
      ],
      [
        "▁важно",
        -9.249789267288477
      ],
      [
        "▁every",
        -9.25317423919534
      ],
      [
        "такие",
        -9.253521018021893
      ],
      [
        "проведения",
        -9.254036572032353
      ],
      [
        "▁поддержки",
        -9.255412672415355
      ],
      [
        "▁должно",
        -9.25555534993934
      ],
      [
        "▁express",
        -9.255570794170346
      ],
      [
        "June",
        -9.256563731129168
      ],
      [
        "▁кто",
        -9.258398766365348
      ],
      [
        "less",
        -9.261140475270945
      ],
      [
        "▁различных",
        -9.261583142871311
      ],
      [
        "▁change",
        -9.26183031785995
      ],
      [
        "▁current",
        -9.2619470444231
      ],
      [
        "▁Russia",
        -9.262084052160086
      ],
      [
        "▁New",
        -9.263541614108776
      ],
      [
        "принять",
        -9.264293070422813
      ],
      [
        "▁один",
        -9.265566572312364
      ],
      [
        "▁процесса",
        -9.266467954091894
      ],
      [
        "▁field",
        -9.266483223847112
      ],
      [
        "▁вопросы",
        -9.267050575404008
      ],
      [
        "▁роль",
        -9.269424192170115
      ],
      [
        "собой",
        -9.269802382360893
      ],
      [
        "▁sector",
        -9.270506089339
      ],
      [
        "▁promote",
        -9.271594417328165
      ],
      [
        "▁Так",
        -9.273527511686584
      ],
      [
        "▁mechanism",
        -9.274009502130742
      ],
      [
        "поддержку",
        -9.27416170968846
      ],
      [
        "▁деятельность",
        -9.275372225923473
      ],
      [
        "ями",
        -9.275830958267953
      ],
      [
        "ка",
        -9.276787830436716
      ],
      [
        "▁state",
        -9.277903752096181
      ],
      [
        "▁даже",
        -9.27799691308294
      ],
      [
        "▁budget",
        -9.281599091661974
      ],
      [
        "▁образования",
        -9.281833542583565
      ],
      [
        "▁Africa",
        -9.282624518850298
      ],
      [
        "оружия",
        -9.283145727631146
      ],
      [
        "▁want",
        -9.283730854851452
      ],
      [
        "▁developed",
        -9.286564418163596
      ],
      [
        "cases",
        -9.288190510691573
      ],
      [
        "▁xHamster",
        -9.28932550777107
      ],
      [
        "▁помощь",
        -9.290106491056038
      ],
      [
        "governmental",
        -9.290496368085742
      ],
      [
        "▁become",
        -9.290572593138393
      ],
      [
        "▁над",
        -9.292625615394398
      ],
      [
        "refore",
        -9.29325538445735
      ],
      [
        "▁May",
        -9.294419093193994
      ],
      [
        "▁business",
        -9.295273403792452
      ],
      [
        "▁Programme",
        -9.295313361084496
      ],
      [
        "▁production",
        -9.297261773666275
      ],
      [
        "▁Economic",
        -9.298242162815635
      ],
      [
        "▁ты",
        -9.299387997265455
      ],
      [
        "▁effect",
        -9.299876745322885
      ],
      [
        "▁пере",
        -9.300772163418417
      ],
      [
        "#",
        -9.300775976085935
      ],
      [
        "▁consider",
        -9.301324680843084
      ],
      [
        "▁работе",
        -9.302958228178046
      ],
      [
        "своем",
        -9.303309472325413
      ],
      [
        "July",
        -9.303692018373914
      ],
      [
        "up",
        -9.305673295083619
      ],
      [
        "▁best",
        -9.306588468460564
      ],
      [
        "means",
        -9.307323772131754
      ],
      [
        "▁large",
        -9.308390682788605
      ],
      [
        "▁With",
        -9.309783065254756
      ],
      [
        "▁fact",
        -9.310688599982095
      ],
      [
        "framework",
        -9.314175776368828
      ],
      [
        "particularly",
        -9.315162468651378
      ],
      [
        "▁органов",
        -9.315579647083315
      ],
      [
        "▁she",
        -9.316346793249577
      ],
      [
        "▁меня",
        -9.316430257515245
      ],
      [
        "▁authorities",
        -9.31733226534697
      ],
      [
        "▁experience",
        -9.318386858084105
      ],
      [
        "например",
        -9.319501722132728
      ],
      [
        "▁still",
        -9.319795420144601
      ],
      [
        "ч",
        -9.319955688611996
      ],
      [
        "▁Что",
        -9.320231596027803
      ],
      [
        "sustainable",
        -9.321822401298956
      ],
      [
        "▁работу",
        -9.321954880374657
      ],
      [
        "▁impact",
        -9.324780190767505
      ],
      [
        "▁потенциала",
        -9.326560028957006
      ],
      [
        "▁matter",
        -9.330601821985434
      ],
      [
        "▁Однако",
        -9.330619535118874
      ],
      [
        "▁июн",
        -9.330934833588714
      ],
      [
        "▁доклада",
        -9.331454811320011
      ],
      [
        "considered",
        -9.332408954338769
      ],
      [
        "ant",
        -9.33376183229936
      ],
      [
        "▁see",
        -9.33471243937632
      ],
      [
        "▁действия",
        -9.335047170324449
      ],
      [
        "▁вопросов",
        -9.335527806416653
      ],
      [
        "▁risk",
        -9.335967677246309
      ],
      [
        "новых",
        -9.336460332887578
      ],
      [
        "the",
        -9.337891784776447
      ],
      [
        "▁energy",
        -9.339089452703272
      ],
      [
        "required",
        -9.339965922137896
      ],
      [
        "Add",
        -9.340116554700444
      ],
      [
        "▁market",
        -9.340182412505056
      ],
      [
        "▁day",
        -9.340426450215835
      ],
      [
        "участник",
        -9.34042677906511
      ],
      [
        "ок",
        -9.34110046014234
      ],
      [
        "v",
        -9.342399741501746
      ],
      [
        "▁purpose",
        -9.34334908127866
      ],
      [
        "▁доступ",
        -9.34426546918699
      ],
      [
        "▁give",
        -9.344451276957855
      ],
      [
        "соответствующих",
        -9.3447653337272
      ],
      [
        "▁second",
        -9.346470686202347
      ],
      [
        "национальных",
        -9.347981126368804
      ],
      [
        "example",
        -9.348063672202422
      ],
      [
        "должна",
        -9.348318611567489
      ],
      [
        "лишь",
        -9.348643075884736
      ],
      [
        "▁results",
        -9.349162842519354
      ],
      [
        "▁conflict",
        -9.34926745603997
      ],
      [
        "us",
        -9.350080671626035
      ],
      [
        "▁процесс",
        -9.350937968011605
      ],
      [
        "учетом",
        -9.351067289085044
      ],
      [
        "▁средства",
        -9.353448855507752
      ],
      [
        "▁II",
        -9.354603203549596
      ],
      [
        "▁развитию",
        -9.354996647814056
      ],
      [
        "▁crime",
        -9.358414327018048
      ],
      [
        "▁systems",
        -9.359526720628606
      ],
      [
        "▁military",
        -9.360264473128161
      ],
      [
        "▁среди",
        -9.361056773798971
      ],
      [
        "▁gender",
        -9.361753053868256
      ],
      [
        "▁вас",
        -9.363418694545045
      ],
      [
        "путем",
        -9.364412414843404
      ],
      [
        "▁mandate",
        -9.364421762944488
      ],
      [
        "▁повестк",
        -9.365302282490608
      ],
      [
        "ability",
        -9.365707287656429
      ],
      [
        "consideration",
        -9.36585757459388
      ],
      [
        "▁таким",
        -9.36683432750438
      ],
      [
        "given",
        -9.367161281542348
      ],
      [
        "▁Union",
        -9.367834697610217
      ],
      [
        "importance",
        -9.369290750569261
      ],
      [
        "▁группа",
        -9.369930816991353
      ],
      [
        "▁private",
        -9.370587940900805
      ],
      [
        "▁subject",
        -9.372684853180719
      ],
      [
        "▁prevent",
        -9.373780167523837
      ],
      [
        "making",
        -9.374043035011054
      ],
      [
        "▁last",
        -9.374226284450263
      ],
      [
        "настоящее",
        -9.374239117783684
      ],
      [
        "▁environment",
        -9.377579014146361
      ],
      [
        "▁addition",
        -9.378035120593541
      ],
      [
        "▁week",
        -9.378978233303243
      ],
      [
        "ему",
        -9.379422185379976
      ],
      [
        "▁сотрудников",
        -9.381238815611605
      ],
      [
        "▁document",
        -9.382842006009822
      ],
      [
        "▁challenge",
        -9.383791428909522
      ],
      [
        "▁plan",
        -9.383881790177716
      ],
      [
        "w",
        -9.384343399936272
      ],
      [
        "ally",
        -9.384601515437454
      ],
      [
        "касается",
        -9.388348334219268
      ],
      [
        "▁Working",
        -9.389223761966168
      ],
      [
        "▁хотел",
        -9.389242218627697
      ],
      [
        "▁question",
        -9.389445889790759
      ],
      [
        "▁документ",
        -9.390541504731235
      ],
      [
        "▁Все",
        -9.390551731161656
      ],
      [
        "▁изменения",
        -9.390955874665696
      ],
      [
        "▁продолжа",
        -9.395898734642982
      ],
      [
        "случая",
        -9.397238776008214
      ],
      [
        "▁создания",
        -9.397681071763904
      ],
      [
        "U",
        -9.399142690120142
      ],
      [
        "▁name",
        -9.399567497208473
      ],
      [
        "going",
        -9.399634750514227
      ],
      [
        "▁show",
        -9.400094653986736
      ],
      [
        "▁перед",
        -9.400852886129371
      ],
      [
        "своего",
        -9.401623120302895
      ],
      [
        "▁child",
        -9.40182768689064
      ],
      [
        "▁big",
        -9.40623689889015
      ],
      [
        "▁Board",
        -9.406697491988108
      ],
      [
        "▁quality",
        -9.407987047657944
      ],
      [
        "▁problems",
        -9.408733368410052
      ],
      [
        "▁H",
        -9.413862362272331
      ],
      [
        "▁мне",
        -9.414550057632578
      ],
      [
        "з",
        -9.414556511183207
      ],
      [
        "▁необходимость",
        -9.414617354224859
      ],
      [
        "▁июл",
        -9.414799188026157
      ],
      [
        "▁September",
        -9.414903563620301
      ],
      [
        "▁территории",
        -9.415917173217961
      ],
      [
        "participation",
        -9.416213728885817
      ],
      [
        "whether",
        -9.416289168227612
      ],
      [
        "▁days",
        -9.419598022165914
      ],
      [
        "▁срок",
        -9.420351855327212
      ],
      [
        "▁attention",
        -9.421092495494742
      ],
      [
        "▁commitment",
        -9.42142697152047
      ],
      [
        "▁общества",
        -9.423109227686355
      ],
      [
        "▁agenda",
        -9.424341162045014
      ],
      [
        "▁решений",
        -9.424935138809074
      ],
      [
        "▁much",
        -9.426110537170482
      ],
      [
        "▁find",
        -9.426435789934331
      ],
      [
        "▁strengthen",
        -9.427057559673758
      ],
      [
        "▁несколько",
        -9.427156816925832
      ],
      [
        "ющихся",
        -9.427598014444857
      ],
      [
        "▁submitt",
        -9.430683755455265
      ],
      [
        "▁government",
        -9.43082611151447
      ],
      [
        "▁относительно",
        -9.430955213137864
      ],
      [
        "▁развитие",
        -9.431145370390595
      ],
      [
        "▁Рабоч",
        -9.432172042089006
      ],
      [
        "▁company",
        -9.432287352463566
      ],
      [
        "▁here",
        -9.433158618024848
      ],
      [
        "▁person",
        -9.435186471155312
      ],
      [
        "▁членов",
        -9.438030105872269
      ],
      [
        "▁ядерно",
        -9.440008910180138
      ],
      [
        "▁African",
        -9.440103415177221
      ],
      [
        "▁групп",
        -9.440890109923785
      ],
      [
        "▁За",
        -9.442541760098647
      ],
      [
        "принятия",
        -9.442656483984837
      ],
      [
        "▁using",
        -9.442991761473706
      ],
      [
        "▁major",
        -9.443922291398572
      ],
      [
        "торговли",
        -9.444065284801962
      ],
      [
        "▁свое",
        -9.444716697711305
      ],
      [
        "▁Конференци",
        -9.44537380590286
      ],
      [
        "▁Department",
        -9.445504221164446
      ],
      [
        "▁двух",
        -9.445534868431924
      ],
      [
        "▁отметил",
        -9.445685856719049
      ],
      [
        "▁деле",
        -9.445694333862452
      ],
      [
        "▁докладе",
        -9.446789965080667
      ],
      [
        "▁достижения",
        -9.4469531342333
      ],
      [
        "▁force",
        -9.447587121695177
      ],
      [
        "▁establish",
        -9.449045257560806
      ],
      [
        "November",
        -9.44938503546522
      ],
      [
        "вести",
        -9.450000335191863
      ],
      [
        "▁Minister",
        -9.45087254873372
      ],
      [
        "several",
        -9.45123963630476
      ],
      [
        "ясь",
        -9.452983991661874
      ],
      [
        "▁использовать",
        -9.454705317329356
      ],
      [
        "менее",
        -9.454720889087858
      ],
      [
        "already",
        -9.455514689960223
      ],
      [
        "оценки",
        -9.456466291580682
      ],
      [
        "▁approach",
        -9.458299396948812
      ],
      [
        "основных",
        -9.460097097922059
      ],
      [
        "▁additional",
        -9.460972928142727
      ],
      [
        "прежнему",
        -9.46191106550053
      ],
      [
        "bodies",
        -9.46228642390574
      ],
      [
        "▁October",
        -9.463378255547228
      ],
      [
        "▁What",
        -9.465333835706414
      ],
      [
        "▁много",
        -9.466878071052978
      ],
      [
        "violation",
        -9.467202793313588
      ],
      [
        "международным",
        -9.46756034238295
      ],
      [
        "осуществление",
        -9.46773426252483
      ],
      [
        "▁другими",
        -9.467990497829168
      ],
      [
        "ities",
        -9.468154281792774
      ],
      [
        "▁место",
        -9.468373940703355
      ],
      [
        "▁два",
        -9.470351247149994
      ],
      [
        "▁requirements",
        -9.47297690546279
      ],
      [
        "▁especially",
        -9.472986267209247
      ],
      [
        "▁humanitarian",
        -9.473028493526481
      ],
      [
        "▁возможно",
        -9.473334072676531
      ],
      [
        "сть",
        -9.473966550399142
      ],
      [
        "▁Штат",
        -9.477037761948774
      ],
      [
        "▁March",
        -9.477664584447034
      ],
      [
        "развивающихся",
        -9.478233077360294
      ],
      [
        "▁God",
        -9.479429869076075
      ],
      [
        "▁просто",
        -9.481382908688492
      ],
      [
        "▁цели",
        -9.48187108572702
      ],
      [
        "initiative",
        -9.481944959419325
      ],
      [
        "▁poverty",
        -9.48316909215279
      ],
      [
        "▁High",
        -9.48353609451447
      ],
      [
        "же",
        -9.48365457148978
      ],
      [
        "▁пункта",
        -9.48389327242597
      ],
      [
        "▁Social",
        -9.484177332064808
      ],
      [
        "▁family",
        -9.485470153197598
      ],
      [
        "▁environmental",
        -9.486139703790048
      ],
      [
        "▁которого",
        -9.48682202038831
      ],
      [
        "▁certain",
        -9.487183934719711
      ],
      [
        "see",
        -9.488248851230836
      ],
      [
        "▁note",
        -9.48857313011313
      ],
      [
        "continued",
        -9.488966098045811
      ],
      [
        "▁обеспечени",
        -9.489219669049318
      ],
      [
        "▁organization",
        -9.490730017620788
      ],
      [
        "B",
        -9.491272888795256
      ],
      [
        "▁technology",
        -9.491422305842033
      ],
      [
        "ый",
        -9.492008740045982
      ],
      [
        "▁ответ",
        -9.494467201665179
      ],
      [
        "building",
        -9.496149176866306
      ],
      [
        "▁No",
        -9.497156999269794
      ],
      [
        "▁мере",
        -9.498452715933528
      ],
      [
        "▁above",
        -9.498610101352151
      ],
      [
        "▁believe",
        -9.498844897970644
      ],
      [
        "▁нет",
        -9.498855326591661
      ],
      [
        "▁Они",
        -9.498913940978774
      ],
      [
        "▁land",
        -9.499144613902162
      ],
      [
        "▁products",
        -9.500616711076495
      ],
      [
        "▁применения",
        -9.50074889268658
      ],
      [
        "одной",
        -9.500815162128342
      ],
      [
        "▁form",
        -9.501035853221795
      ],
      [
        "▁China",
        -9.501848972481245
      ],
      [
        "▁another",
        -9.502015010495537
      ],
      [
        "▁research",
        -9.502385002708309
      ],
      [
        "▁инициатив",
        -9.502808731785127
      ],
      [
        "▁П",
        -9.503792895221146
      ],
      [
        "▁total",
        -9.504202720809978
      ],
      [
        "▁key",
        -9.504774098054256
      ],
      [
        "proposal",
        -9.504856038904075
      ],
      [
        "levels",
        -9.505927781293982
      ],
      [
        "▁de",
        -9.506553815985821
      ],
      [
        "подготовки",
        -9.507231917521777
      ],
      [
        "▁legislation",
        -9.507269119417115
      ],
      [
        "▁program",
        -9.509949781968796
      ],
      [
        "▁weapons",
        -9.511896960953235
      ],
      [
        "▁помощью",
        -9.512921325231172
      ],
      [
        "▁дискриминации",
        -9.513483446252916
      ],
      [
        "▁дел",
        -9.513586977303861
      ],
      [
        "▁представляет",
        -9.514349021576198
      ],
      [
        "▁reform",
        -9.51499869312856
      ],
      [
        "▁насилия",
        -9.515484656957625
      ],
      [
        "▁занима",
        -9.51604778091926
      ],
      [
        "projects",
        -9.516296440306453
      ],
      [
        "reports",
        -9.518096145356495
      ],
      [
        "▁Т",
        -9.518816695756065
      ],
      [
        "growth",
        -9.51987794104334
      ],
      [
        "▁части",
        -9.5204966678102
      ],
      [
        "▁данные",
        -9.521613505650514
      ],
      [
        "вновь",
        -9.522271708986255
      ],
      [
        "▁день",
        -9.522548817337938
      ],
      [
        "▁close",
        -9.522776976399328
      ],
      [
        "ное",
        -9.526094641448916
      ],
      [
        "▁back",
        -9.526413300530438
      ],
      [
        "связанных",
        -9.526927392799124
      ],
      [
        "representatives",
        -9.527978729084822
      ],
      [
        "towards",
        -9.528532080429969
      ],
      [
        "▁доступа",
        -9.529112181066385
      ],
      [
        "▁комитета",
        -9.532136591957737
      ],
      [
        "▁better",
        -9.532721019446623
      ],
      [
        "▁ряд",
        -9.533881126958422
      ],
      [
        "▁объем",
        -9.534046981370222
      ],
      [
        "▁Court",
        -9.537745164769797
      ],
      [
        "▁подход",
        -9.537874162764266
      ],
      [
        "▁компании",
        -9.53788494063155
      ],
      [
        "▁standards",
        -9.538132451381642
      ],
      [
        "▁годы",
        -9.539252320341115
      ],
      [
        "▁member",
        -9.541264988376678
      ],
      [
        "▁police",
        -9.544582902998755
      ],
      [
        "▁operations",
        -9.546187560394708
      ],
      [
        "▁April",
        -9.54730161936137
      ],
      [
        "agencies",
        -9.549203349546016
      ],
      [
        "▁foreign",
        -9.551090605777054
      ],
      [
        "▁When",
        -9.552948752986204
      ],
      [
        "▁natural",
        -9.553111513691071
      ],
      [
        "▁come",
        -9.553135752883962
      ],
      [
        "хотя",
        -9.55363747263832
      ],
      [
        "окружающей",
        -9.554766924523884
      ],
      [
        "▁contribution",
        -9.556913893290597
      ],
      [
        "▁процентов",
        -9.557151910328498
      ],
      [
        "▁application",
        -9.557188056523328
      ],
      [
        "▁государство",
        -9.557842276411158
      ],
      [
        "proposed",
        -9.560834171337659
      ],
      [
        "▁representative",
        -9.562770212379647
      ],
      [
        "ian",
        -9.56466477539969
      ],
      [
        "▁усили",
        -9.565341023946663
      ],
      [
        "▁социальны",
        -9.566065606321969
      ],
      [
        "▁fully",
        -9.56663545805408
      ],
      [
        "▁Protocol",
        -9.567072021186727
      ],
      [
        "▁She",
        -9.567363178443884
      ],
      [
        "▁Она",
        -9.567391583027666
      ],
      [
        "freedom",
        -9.567937979289411
      ],
      [
        "▁South",
        -9.568406296675384
      ],
      [
        "▁response",
        -9.569246036587364
      ],
      [
        "existing",
        -9.569617289662531
      ],
      [
        "▁return",
        -9.570337546304028
      ],
      [
        "▁Специальны",
        -9.570639093285903
      ],
      [
        "▁January",
        -9.570683098229885
      ],
      [
        "took",
        -9.572326914074596
      ],
      [
        "▁Соединенны",
        -9.573133101173726
      ],
      [
        "месяцев",
        -9.573547001580684
      ],
      [
        "status",
        -9.573972635987962
      ],
      [
        "▁food",
        -9.57426441291027
      ],
      [
        "▁might",
        -9.574517001941691
      ],
      [
        "▁сказал",
        -9.57594629376376
      ],
      [
        "▁Да",
        -9.57747682786271
      ],
      [
        "▁переговор",
        -9.577504069803494
      ],
      [
        "▁представить",
        -9.57796424138526
      ],
      [
        "▁context",
        -9.580262846207235
      ],
      [
        "▁Ukraine",
        -9.580287146265464
      ],
      [
        "discussion",
        -9.580359693357119
      ],
      [
        "▁число",
        -9.58245888285643
      ],
      [
        "▁нас",
        -9.583516375983688
      ],
      [
        "▁received",
        -9.583692675330742
      ],
      [
        "▁individual",
        -9.583877068807174
      ],
      [
        "▁common",
        -9.584441204666865
      ],
      [
        "▁That",
        -9.584519004210566
      ],
      [
        "▁контроля",
        -9.58628601502548
      ],
      [
        "ными",
        -9.586677749903759
      ],
      [
        "▁strong",
        -9.58735867731996
      ],
      [
        "▁discrimination",
        -9.588929364949697
      ],
      [
        "com",
        -9.589113367835443
      ],
      [
        "▁январ",
        -9.589279728759985
      ],
      [
        "наиболее",
        -9.589577399611967
      ],
      [
        "▁wide",
        -9.590305909406396
      ],
      [
        "▁found",
        -9.591919481889065
      ],
      [
        "▁comprehensive",
        -9.591941293389969
      ],
      [
        "increased",
        -9.592184120660127
      ],
      [
        "▁instrument",
        -9.59324963651752
      ],
      [
        "▁cause",
        -9.593413161408506
      ],
      [
        "▁имени",
        -9.59432086999762
      ],
      [
        "taking",
        -9.594877742995227
      ],
      [
        "▁нищет",
        -9.595081164509724
      ],
      [
        "▁develop",
        -9.595900523461536
      ],
      [
        "▁item",
        -9.596467861353693
      ],
      [
        "▁due",
        -9.596494451473081
      ],
      [
        "Article",
        -9.597599882575041
      ],
      [
        "▁призывае",
        -9.597942258047052
      ],
      [
        "▁стране",
        -9.598520910634875
      ],
      [
        "▁мире",
        -9.598760893119376
      ],
      [
        "agreed",
        -9.599701360751732
      ],
      [
        "ve",
        -9.600796674538609
      ],
      [
        "международной",
        -9.601667145478162
      ],
      [
        "▁together",
        -9.602241699597768
      ],
      [
        "О",
        -9.604607297771906
      ],
      [
        "▁лица",
        -9.60485319357306
      ],
      [
        "▁согласно",
        -9.607049018902458
      ],
      [
        "▁свой",
        -9.60762445564672
      ],
      [
        "В",
        -9.60789461143772
      ],
      [
        "▁многих",
        -9.608352116628947
      ],
      [
        "▁serious",
        -9.610453227574062
      ],
      [
        "Б",
        -9.610705332131195
      ],
      [
        "▁систем",
        -9.611406058098652
      ],
      [
        "▁domestic",
        -9.612045672895507
      ],
      [
        "▁create",
        -9.612389943520688
      ],
      [
        "Rapporteur",
        -9.612441620787886
      ],
      [
        "least",
        -9.612577596802453
      ],
      [
        "такой",
        -9.615465547277283
      ],
      [
        "проектов",
        -9.617270359521262
      ],
      [
        "▁сделать",
        -9.617832964707796
      ],
      [
        "term",
        -9.618292510816197
      ],
      [
        "▁go",
        -9.618839121271273
      ],
      [
        "▁Europe",
        -9.61963122084157
      ],
      [
        "▁care",
        -9.620148421540536
      ],
      [
        "▁reason",
        -9.620297917786822
      ],
      [
        "▁down",
        -9.620818047895401
      ],
      [
        "▁body",
        -9.621620730794241
      ],
      [
        "terms",
        -9.625150671101629
      ],
      [
        "▁course",
        -9.62532168834587
      ],
      [
        "▁criminal",
        -9.625453400988434
      ],
      [
        "▁однако",
        -9.626233048194942
      ],
      [
        "▁После",
        -9.626266545770921
      ],
      [
        "next",
        -9.62708617587016
      ],
      [
        "условиях",
        -9.628727911929829
      ],
      [
        "▁million",
        -9.628728365180402
      ],
      [
        "monitoring",
        -9.630477538750705
      ],
      [
        "▁Ассамблее",
        -9.631584822380928
      ],
      [
        "▁Эти",
        -9.63250667697916
      ],
      [
        "H",
        -9.633725836286223
      ],
      [
        "consultation",
        -9.633901998556928
      ],
      [
        "▁Windows",
        -9.634012118822394
      ],
      [
        "previous",
        -9.63580576612717
      ],
      [
        "некоторые",
        -9.636572138099574
      ],
      [
        "▁США",
        -9.638411836836037
      ],
      [
        "▁Palestinian",
        -9.638510604190616
      ],
      [
        "▁задач",
        -9.638837903132522
      ],
      [
        "▁list",
        -9.639235832077853
      ],
      [
        "M",
        -9.639590772181796
      ],
      [
        "▁возможностей",
        -9.640441259729265
      ],
      [
        "▁среды",
        -9.640795684920919
      ],
      [
        "содействия",
        -9.641185691639878
      ],
      [
        "▁establishment",
        -9.641334881603596
      ],
      [
        "▁рекомендации",
        -9.642058638659524
      ],
      [
        "▁deal",
        -9.642863091989401
      ],
      [
        "отмечает",
        -9.643050744143224
      ],
      [
        "▁счет",
        -9.644036381061628
      ],
      [
        "▁rule",
        -9.644556675725461
      ],
      [
        "DP",
        -9.64624097862942
      ],
      [
        "▁особо",
        -9.649014098347692
      ],
      [
        "▁living",
        -9.649191780372238
      ],
      [
        "оно",
        -9.649617648095235
      ],
      [
        "▁Action",
        -9.650983576122924
      ],
      [
        "▁Сторон",
        -9.651430093942166
      ],
      [
        "▁called",
        -9.651456823016321
      ],
      [
        "X",
        -9.652464560694488
      ],
      [
        "justice",
        -9.652817793747689
      ],
      [
        "▁силу",
        -9.653664390828691
      ],
      [
        "▁light",
        -9.655247389942843
      ],
      [
        "р",
        -9.65530006003779
      ],
      [
        "не",
        -9.655434085724771
      ],
      [
        "▁производства",
        -9.656769558519565
      ],
      [
        "▁состав",
        -9.656888982182068
      ],
      [
        "▁focus",
        -9.658200742705535
      ],
      [
        "▁ноябр",
        -9.658263441241262
      ],
      [
        "ным",
        -9.658464654166329
      ],
      [
        "жизнь",
        -9.659159035735122
      ],
      [
        "некоторых",
        -9.65974017237915
      ],
      [
        "▁России",
        -9.660562054601602
      ],
      [
        "▁significant",
        -9.660867290231222
      ],
      [
        "um",
        -9.661975124366599
      ],
      [
        "▁сторон",
        -9.662881430513448
      ],
      [
        "▁One",
        -9.662992447551344
      ],
      [
        "экономического",
        -9.663259137171652
      ],
      [
        "half",
        -9.664454573705118
      ],
      [
        "необходимости",
        -9.665355385958389
      ],
      [
        "▁конвенци",
        -9.66732995640788
      ],
      [
        "▁put",
        -9.668008082569012
      ],
      [
        "числа",
        -9.668471422821954
      ],
      [
        "▁здесь",
        -9.669250939009231
      ],
      [
        "▁air",
        -9.669711893877963
      ],
      [
        "▁власти",
        -9.66988442445576
      ],
      [
        "▁международном",
        -9.67017839807545
      ],
      [
        "▁K",
        -9.67048530477017
      ],
      [
        "included",
        -9.671948268437836
      ],
      [
        "The",
        -9.672844935375993
      ],
      [
        "полностью",
        -9.67322787794626
      ],
      [
        "▁общин",
        -9.673687727847971
      ],
      [
        "▁position",
        -9.674088525111047
      ],
      [
        "▁men",
        -9.674749044078323
      ],
      [
        "или",
        -9.675330911808778
      ],
      [
        "▁meet",
        -9.675855856611921
      ],
      [
        "▁странам",
        -9.676110766909167
      ],
      [
        "▁providing",
        -9.676312908574829
      ],
      [
        "principles",
        -9.676323326337773
      ],
      [
        "▁учреждений",
        -9.67644339743638
      ],
      [
        "▁treatment",
        -9.677001275945166
      ],
      [
        "▁обеспечение",
        -9.67752923259374
      ],
      [
        "▁four",
        -9.677797036108592
      ],
      [
        "осуществлению",
        -9.678014396505883
      ],
      [
        "Ministry",
        -9.678184422825657
      ],
      [
        "▁design",
        -9.678913573213764
      ],
      [
        "члены",
        -9.679644017126085
      ],
      [
        "▁просьб",
        -9.679928106685665
      ],
      [
        "▁Председателя",
        -9.68053875769258
      ],
      [
        "_",
        -9.680555730228217
      ],
      [
        "▁America",
        -9.681017784153276
      ],
      [
        "▁сентября",
        -9.681110360914646
      ],
      [
        "▁контекст",
        -9.681564347242992
      ],
      [
        "▁Fund",
        -9.681674434571008
      ],
      [
        "▁statement",
        -9.68182062828348
      ],
      [
        "б",
        -9.68277666158685
      ],
      [
        "▁often",
        -9.682807180065625
      ],
      [
        "▁maintain",
        -9.682917276812717
      ],
      [
        "▁экспертов",
        -9.683172368750608
      ],
      [
        "▁направленны",
        -9.683188341681323
      ],
      [
        "▁equipment",
        -9.683856819592064
      ],
      [
        "▁space",
        -9.684655097783162
      ],
      [
        "▁Групп",
        -9.68473138794207
      ],
      [
        "▁норм",
        -9.687202220350843
      ],
      [
        "ло",
        -9.687640485829714
      ],
      [
        "▁можете",
        -9.688030260707636
      ],
      [
        "заседании",
        -9.688091377796553
      ],
      [
        "▁создание",
        -9.68831690045088
      ],
      [
        "▁potential",
        -9.688481125569243
      ],
      [
        "▁тот",
        -9.688551512143711
      ],
      [
        "k",
        -9.689570303058943
      ],
      [
        "реализации",
        -9.690072828600917
      ],
      [
        "According",
        -9.69033568448452
      ],
      [
        "land",
        -9.69096140233791
      ],
      [
        "T",
        -9.69138659056908
      ],
      [
        "могли",
        -9.693860244612942
      ],
      [
        "▁problem",
        -9.693929826505597
      ],
      [
        "эффективности",
        -9.694396714568615
      ],
      [
        "▁lack",
        -9.694962790693463
      ],
      [
        "▁одного",
        -9.695820602932356
      ],
      [
        "▁годов",
        -9.698297247832828
      ],
      [
        "rules",
        -9.698514186142068
      ],
      [
        "участия",
        -9.698917003161528
      ],
      [
        "adequate",
        -9.700127478624376
      ],
      [
        "▁wish",
        -9.700230908798245
      ],
      [
        "▁Secretariat",
        -9.702460925897743
      ],
      [
        "according",
        -9.702620428047315
      ],
      [
        "осуществлении",
        -9.70400074381767
      ],
      [
        "and",
        -9.704183704120986
      ],
      [
        "▁нам",
        -9.704258194260339
      ],
      [
        "▁clear",
        -9.705241904056209
      ],
      [
        "▁Israel",
        -9.705815229863665
      ],
      [
        "сфере",
        -9.706092181636356
      ],
      [
        "▁don",
        -9.706304830733353
      ],
      [
        "▁city",
        -9.708548678013951
      ],
      [
        "▁responsibility",
        -9.70990790157479
      ],
      [
        "▁look",
        -9.712750066444647
      ],
      [
        "Комиссия",
        -9.71543038393831
      ],
      [
        "▁Whi",
        -9.717464326889898
      ],
      [
        "октября",
        -9.717815297649382
      ],
      [
        "▁масштаб",
        -9.718593201857647
      ],
      [
        "low",
        -9.718871370688277
      ],
      [
        "▁любы",
        -9.719138646775196
      ],
      [
        "▁три",
        -9.719302683593837
      ],
      [
        "▁Во",
        -9.720326752951841
      ],
      [
        "▁pre",
        -9.720672868734225
      ],
      [
        "few",
        -9.72088850908061
      ],
      [
        "▁Law",
        -9.721002012489787
      ],
      [
        "▁practice",
        -9.721204769402023
      ],
      [
        "▁выполнения",
        -9.722417451565047
      ],
      [
        "▁мая",
        -9.723363911403627
      ],
      [
        "regarding",
        -9.723766025573564
      ],
      [
        "▁recent",
        -9.725040081793004
      ],
      [
        "around",
        -9.72509863325689
      ],
      [
        "▁personal",
        -9.727335656514455
      ],
      [
        "▁assist",
        -9.728541641827094
      ],
      [
        "▁обзор",
        -9.729007322567625
      ],
      [
        "cannot",
        -9.730285187480684
      ],
      [
        "▁которым",
        -9.730555271254
      ],
      [
        "ce",
        -9.730666850657052
      ],
      [
        "▁интереса",
        -9.730696137371252
      ],
      [
        "ll",
        -9.731129642453226
      ],
      [
        "ry",
        -9.731622626912495
      ],
      [
        "▁информация",
        -9.734886275001122
      ],
      [
        "▁entitl",
        -9.736332173763788
      ],
      [
        "▁закон",
        -9.736708847597646
      ],
      [
        "▁knowledge",
        -9.738308068891865
      ],
      [
        "по",
        -9.738826579107384
      ],
      [
        "▁transport",
        -9.739013832883202
      ],
      [
        "условий",
        -9.739521548716082
      ],
      [
        "▁point",
        -9.74010398809598
      ],
      [
        "▁Его",
        -9.74073464260711
      ],
      [
        "▁Declaration",
        -9.742590582852245
      ],
      [
        "▁third",
        -9.744342040653382
      ],
      [
        "▁past",
        -9.74434714691985
      ],
      [
        "▁interest",
        -9.74474748341844
      ],
      [
        "мероприятий",
        -9.744872014458632
      ],
      [
        "▁always",
        -9.744922911962574
      ],
      [
        "▁investment",
        -9.745457424243638
      ],
      [
        "▁real",
        -9.745776864795607
      ],
      [
        "▁совместно",
        -9.745868390535025
      ],
      [
        "▁повышения",
        -9.746685471824955
      ],
      [
        "▁часть",
        -9.74690450207867
      ],
      [
        "▁cultural",
        -9.747601353994805
      ],
      [
        "устойчивого",
        -9.748447152734949
      ],
      [
        "▁So",
        -9.749318411547769
      ],
      [
        "▁персонала",
        -9.7493734782975
      ],
      [
        "▁характер",
        -9.75105133401825
      ],
      [
        "▁property",
        -9.751286388793686
      ],
      [
        "▁war",
        -9.752235333333749
      ],
      [
        "▁вклад",
        -9.753315294958272
      ],
      [
        "▁discuss",
        -9.754080964482116
      ],
      [
        "▁cost",
        -9.755018428376372
      ],
      [
        "Federation",
        -9.755547789228952
      ],
      [
        "▁всегда",
        -9.756887413349537
      ],
      [
        "▁room",
        -9.757815811496274
      ],
      [
        "▁August",
        -9.757964491053885
      ],
      [
        "новые",
        -9.758189479413911
      ],
      [
        "▁Украин",
        -9.75830909649235
      ],
      [
        "▁Arab",
        -9.759888626244908
      ],
      [
        "decided",
        -9.760722438451653
      ],
      [
        "▁последствия",
        -9.760960497797678
      ],
      [
        "▁народов",
        -9.761632877476627
      ],
      [
        "▁think",
        -9.761881026549252
      ],
      [
        "February",
        -9.7622337612368
      ],
      [
        "▁апрел",
        -9.762253267123599
      ],
      [
        "▁рассмотрения",
        -9.762308963506115
      ],
      [
        "▁Специально",
        -9.762343762586571
      ],
      [
        "укрепления",
        -9.76321001066067
      ],
      [
        "▁call",
        -9.766059684899373
      ],
      [
        "▁содержит",
        -9.766675378902216
      ],
      [
        "▁man",
        -9.766746680058615
      ],
      [
        "Affair",
        -9.766811610563028
      ],
      [
        "▁ЮН",
        -9.76733356086832
      ],
      [
        "▁say",
        -9.767503936197192
      ],
      [
        "▁performance",
        -9.767571406974744
      ],
      [
        "▁целом",
        -9.768672291191596
      ],
      [
        "▁мужчин",
        -9.768731803455161
      ],
      [
        "▁official",
        -9.770158951500898
      ],
      [
        "▁post",
        -9.770638728424048
      ],
      [
        "разработки",
        -9.771478222273972
      ],
      [
        "марта",
        -9.772541329806362
      ],
      [
        "armed",
        -9.772702251866294
      ],
      [
        "▁five",
        -9.772863434979735
      ],
      [
        "эту",
        -9.77415435663271
      ],
      [
        "▁value",
        -9.774779232153929
      ],
      [
        "by",
        -9.778251358301969
      ],
      [
        "▁joint",
        -9.778478780912412
      ],
      [
        "▁нужно",
        -9.77998475431625
      ],
      [
        "▁school",
        -9.780453950152323
      ],
      [
        "▁процедур",
        -9.78089239398832
      ],
      [
        "▁drug",
        -9.78175262068076
      ],
      [
        "▁обязательств",
        -9.78283958563516
      ],
      [
        "▁ликвидаци",
        -9.783009923842622
      ],
      [
        "▁welcome",
        -9.783171563172804
      ],
      [
        "it",
        -9.783361199377962
      ],
      [
        "▁Dur",
        -9.783597868046531
      ],
      [
        "▁building",
        -9.783619463344408
      ],
      [
        "▁Kazakhstan",
        -9.784615421235419
      ],
      [
        "▁young",
        -9.784790965104163
      ],
      [
        "▁факт",
        -9.78490445805604
      ],
      [
        "▁encourage",
        -9.785151328860257
      ],
      [
        "операций",
        -9.78519673287375
      ],
      [
        "G",
        -9.787384825062025
      ],
      [
        "▁changes",
        -9.78830852865429
      ],
      [
        "meetings",
        -9.789219311082286
      ],
      [
        "Этот",
        -9.78947634242856
      ],
      [
        "одним",
        -9.791034446509755
      ],
      [
        "▁media",
        -9.791553128589518
      ],
      [
        "зрения",
        -9.792281172210988
      ],
      [
        "▁enhance",
        -9.79267406347951
      ],
      [
        "relating",
        -9.795192156188477
      ],
      [
        "▁него",
        -9.795464972724295
      ],
      [
        "▁section",
        -9.796915158013851
      ],
      [
        "сотрудничество",
        -9.797799433699337
      ],
      [
        "▁поддержани",
        -9.79807584908049
      ],
      [
        "▁которую",
        -9.798424302211005
      ],
      [
        "▁делегаци",
        -9.798608626913754
      ],
      [
        "▁находится",
        -9.798747837646026
      ],
      [
        "CN",
        -9.799027534709284
      ],
      [
        "▁государствами",
        -9.799820677329775
      ],
      [
        "refugee",
        -9.800863065085304
      ],
      [
        "▁nature",
        -9.801628821072434
      ],
      [
        "▁again",
        -9.802078219405157
      ],
      [
        "оказания",
        -9.802706676319788
      ],
      [
        "▁material",
        -9.803020741638322
      ],
      [
        "practices",
        -9.80419595587971
      ],
      [
        "obligations",
        -9.804370868027473
      ],
      [
        "Хотя",
        -9.807280142323675
      ],
      [
        "▁координации",
        -9.807331217707812
      ],
      [
        "процедуры",
        -9.80838933421797
      ],
      [
        "большой",
        -9.809631104297512
      ],
      [
        "▁facilities",
        -9.809893269197714
      ],
      [
        "▁уровень",
        -9.810500403726504
      ],
      [
        "early",
        -9.810601126848368
      ],
      [
        "статье",
        -9.810861183968774
      ],
      [
        "▁международно",
        -9.811072574929602
      ],
      [
        "▁rate",
        -9.81225479144498
      ],
      [
        "▁получить",
        -9.812912984364498
      ],
      [
        "amount",
        -9.813401652063494
      ],
      [
        "воду",
        -9.81687692630434
      ],
      [
        "точки",
        -9.817290395606603
      ],
      [
        "▁заявил",
        -9.817395328029157
      ],
      [
        "▁мнени",
        -9.817747674323357
      ],
      [
        "until",
        -9.81804942144523
      ],
      [
        "▁personnel",
        -9.818306761566612
      ],
      [
        "финансовых",
        -9.819369784348842
      ],
      [
        "▁Director",
        -9.819630051705387
      ],
      [
        "дней",
        -9.822542033737566
      ],
      [
        "▁любо",
        -9.82262996709423
      ],
      [
        "▁network",
        -9.822704113843855
      ],
      [
        "▁claim",
        -9.822772811648528
      ],
      [
        "▁Central",
        -9.823774183868423
      ],
      [
        "▁His",
        -9.824149593355934
      ],
      [
        "▁My",
        -9.824437639401491
      ],
      [
        "▁выше",
        -9.824458007796965
      ],
      [
        "▁An",
        -9.824525490496656
      ],
      [
        "▁Председатель",
        -9.824760853430327
      ],
      [
        "▁home",
        -9.824830480041893
      ],
      [
        "▁Был",
        -9.824834227788974
      ],
      [
        "Ассамблея",
        -9.826694144245877
      ],
      [
        "▁расходов",
        -9.827893102119774
      ],
      [
        "▁стратеги",
        -9.828509586663007
      ],
      [
        "▁basic",
        -9.82861400632799
      ],
      [
        "степени",
        -9.828968972870824
      ],
      [
        "▁условия",
        -9.829639293673546
      ],
      [
        "▁bring",
        -9.829927548550607
      ],
      [
        "▁представителей",
        -9.830867281147492
      ],
      [
        "▁represent",
        -9.831341921612907
      ],
      [
        "▁государствам",
        -9.831697205745597
      ],
      [
        "▁play",
        -9.833181939351938
      ],
      [
        "either",
        -9.834174441760533
      ],
      [
        "экономических",
        -9.834380211565103
      ],
      [
        "▁укреплени",
        -9.835311424741791
      ],
      [
        "▁date",
        -9.83542230510326
      ],
      [
        "иметь",
        -9.83670204504274
      ],
      [
        "▁Bank",
        -9.836703777305885
      ],
      [
        "▁здоровья",
        -9.837176884471063
      ],
      [
        "coordination",
        -9.838177183999967
      ],
      [
        "▁служб",
        -9.838249068328194
      ],
      [
        "▁protect",
        -9.838403433076982
      ],
      [
        "именно",
        -9.839084711991704
      ],
      [
        "▁recommend",
        -9.839303747728785
      ],
      [
        "▁член",
        -9.839835263787293
      ],
      [
        "▁final",
        -9.840063119697984
      ],
      [
        "▁am",
        -9.840466014771064
      ],
      [
        "▁achieve",
        -9.840761806422709
      ],
      [
        "▁эффективно",
        -9.840812510436962
      ],
      [
        "ic",
        -9.841179582459507
      ],
      [
        "yet",
        -9.841486795448418
      ],
      [
        "следующие",
        -9.841802841277755
      ],
      [
        "▁труда",
        -9.842045161564574
      ],
      [
        "▁Act",
        -9.842096986279833
      ],
      [
        "analysi",
        -9.842861765942194
      ],
      [
        "▁opportunity",
        -9.843406873896383
      ],
      [
        "▁нашей",
        -9.844383987358537
      ],
      [
        "▁model",
        -9.844460762765495
      ],
      [
        "▁enjoy",
        -9.844488860710072
      ],
      [
        "led",
        -9.844753656200327
      ],
      [
        "▁учитыва",
        -9.845061712551384
      ],
      [
        "▁combat",
        -9.845222118889135
      ],
      [
        "secretariat",
        -9.845502159092439
      ],
      [
        "equality",
        -9.84599459573381
      ],
      [
        "▁Mission",
        -9.847451824030887
      ],
      [
        "▁documents",
        -9.84804487646116
      ],
      [
        "▁essential",
        -9.848913023717314
      ],
      [
        "соответствующие",
        -9.84905291278582
      ],
      [
        "пункте",
        -9.850536999254432
      ],
      [
        "стратегии",
        -9.85082794277032
      ],
      [
        "▁подготовк",
        -9.851004667825967
      ],
      [
        "емся",
        -9.851177188370936
      ],
      [
        "▁предложения",
        -9.851284254167117
      ],
      [
        "planning",
        -9.852462842862804
      ],
      [
        "strengthening",
        -9.852622227314358
      ],
      [
        "до",
        -9.85378526773291
      ],
      [
        "▁hand",
        -9.853804801702214
      ],
      [
        "▁range",
        -9.854386184389828
      ],
      [
        "финансирования",
        -9.854496102135622
      ],
      [
        "victims",
        -9.854559791543055
      ],
      [
        "▁постоянно",
        -9.85489847330219
      ],
      [
        "provides",
        -9.855171821239344
      ],
      [
        "▁costs",
        -9.855875554156432
      ],
      [
        "▁политических",
        -9.856016605783278
      ],
      [
        "▁near",
        -9.856601800258998
      ],
      [
        "▁study",
        -9.857005816957882
      ],
      [
        "М",
        -9.857123107587194
      ],
      [
        "многие",
        -9.857939491773722
      ],
      [
        "▁ответственность",
        -9.858630920457168
      ],
      [
        "known",
        -9.859437788132368
      ],
      [
        "▁заседани",
        -9.85983821162058
      ],
      [
        "▁услуги",
        -9.860057832425268
      ],
      [
        "защите",
        -9.860624261015564
      ],
      [
        "▁office",
        -9.86262879610216
      ],
      [
        "▁момент",
        -9.86289750132043
      ],
      [
        "▁annex",
        -9.862932599835549
      ],
      [
        "▁equal",
        -9.863008944103157
      ],
      [
        "▁exchange",
        -9.86325444126884
      ],
      [
        "▁себе",
        -9.863789362844283
      ],
      [
        "▁Women",
        -9.863905252471959
      ],
      [
        "▁мир",
        -9.863928566481858
      ],
      [
        "one",
        -9.863934802259225
      ],
      [
        "▁система",
        -9.864188502200557
      ],
      [
        "cy",
        -9.865059402825347
      ],
      [
        "▁плане",
        -9.865116386914952
      ],
      [
        "▁здравоохранения",
        -9.865619131931954
      ],
      [
        "▁ответственности",
        -9.865889309739428
      ],
      [
        "технологий",
        -9.868308998404679
      ],
      [
        "положений",
        -9.868584274316175
      ],
      [
        "Governments",
        -9.868682346804404
      ],
      [
        "▁процента",
        -9.869822853314155
      ],
      [
        "ской",
        -9.87009506540942
      ],
      [
        "организациями",
        -9.870467468113642
      ],
      [
        "strategy",
        -9.871185215478956
      ],
      [
        "▁общего",
        -9.871260370253918
      ],
      [
        "aimed",
        -9.87242423842131
      ],
      [
        "N",
        -9.872777442226376
      ],
      [
        "другой",
        -9.874028559789593
      ],
      [
        "▁Service",
        -9.876841509748532
      ],
      [
        "indigenous",
        -9.877614810324154
      ],
      [
        "▁прогресс",
        -9.877634097907599
      ],
      [
        "роста",
        -9.878490167762623
      ],
      [
        "проведение",
        -9.87868415236985
      ],
      [
        "▁aspect",
        -9.87896475372706
      ],
      [
        "responsible",
        -9.878999693067733
      ],
      [
        "▁whole",
        -9.879084245553008
      ],
      [
        "потребностей",
        -9.879239150311792
      ],
      [
        "▁assessment",
        -9.87924818718251
      ],
      [
        "▁документа",
        -9.879450260685946
      ],
      [
        "ory",
        -9.879521974144248
      ],
      [
        "adoption",
        -9.880468435469123
      ],
      [
        "self",
        -9.880840195762563
      ],
      [
        "▁вывод",
        -9.880935709024861
      ],
      [
        "▁Asia",
        -9.881291305953814
      ],
      [
        "▁start",
        -9.881336388525314
      ],
      [
        "▁death",
        -9.881448778600504
      ],
      [
        "▁Ф",
        -9.881508221135917
      ],
      [
        "положение",
        -9.882064909768832
      ],
      [
        "economy",
        -9.88260736610432
      ],
      [
        "▁pay",
        -9.882906910733167
      ],
      [
        "▁делегация",
        -9.883566194967463
      ],
      [
        "сейчас",
        -9.883682408467502
      ],
      [
        "▁Representative",
        -9.8840693685784
      ],
      [
        "▁использование",
        -9.884954280319345
      ],
      [
        "carried",
        -9.885647304421074
      ],
      [
        "▁эта",
        -9.886384316958285
      ],
      [
        "коренны",
        -9.886560905349372
      ],
      [
        "▁independent",
        -9.887295023271335
      ],
      [
        "▁today",
        -9.887809226729036
      ],
      [
        "▁companies",
        -9.887991478910704
      ],
      [
        "▁Some",
        -9.88832137362637
      ],
      [
        "▁enable",
        -9.890272200158329
      ],
      [
        "▁пока",
        -9.890406844250073
      ],
      [
        "▁demand",
        -9.891514871590985
      ],
      [
        "over",
        -9.891925122511644
      ],
      [
        "▁конференции",
        -9.89200075521097
      ],
      [
        "▁пути",
        -9.892330282987384
      ],
      [
        "▁Республика",
        -9.892402661449015
      ],
      [
        "dialogue",
        -9.892744508237096
      ],
      [
        "▁promot",
        -9.89331853138053
      ],
      [
        "▁site",
        -9.893993363045881
      ],
      [
        "регионе",
        -9.894405646889147
      ],
      [
        "V",
        -9.89494419090644
      ],
      [
        "promotion",
        -9.895078793809562
      ],
      [
        "▁значительно",
        -9.89511640335258
      ],
      [
        "▁others",
        -9.89522845913141
      ],
      [
        "▁pursu",
        -9.895294444433974
      ],
      [
        "разработке",
        -9.895456713466416
      ],
      [
        "▁Ты",
        -9.895603557355102
      ],
      [
        "▁East",
        -9.895852657005605
      ],
      [
        "▁позволяет",
        -9.896183835768907
      ],
      [
        "▁сектора",
        -9.896550939181044
      ],
      [
        "needed",
        -9.89700188843526
      ],
      [
        "экономической",
        -9.89710237561328
      ],
      [
        "▁far",
        -9.89757958281739
      ],
      [
        "▁обязательства",
        -9.897734979996391
      ],
      [
        "▁Эта",
        -9.897872075809264
      ],
      [
        "▁странами",
        -9.898379176961381
      ],
      [
        "steps",
        -9.898890589893476
      ],
      [
        "reported",
        -9.899366317243153
      ],
      [
        "Y",
        -9.89948867466108
      ],
      [
        "▁правил",
        -9.899603304974258
      ],
      [
        "▁состоит",
        -9.899787123661302
      ],
      [
        "▁offer",
        -9.900512111839076
      ],
      [
        "▁рекомендаций",
        -9.901150799812864
      ],
      [
        "▁качества",
        -9.901162914769257
      ],
      [
        "ive",
        -9.901931935941354
      ],
      [
        "currently",
        -9.902221778176397
      ],
      [
        "гражданского",
        -9.902262267867407
      ],
      [
        "▁activity",
        -9.904008986869703
      ],
      [
        "результаты",
        -9.904230511733118
      ],
      [
        "prepared",
        -9.905172515216847
      ],
      [
        "областях",
        -9.906396587938644
      ],
      [
        "▁Party",
        -9.909228299605374
      ],
      [
        "▁сотрудничеств",
        -9.909444916152813
      ],
      [
        "▁этап",
        -9.909667759984671
      ],
      [
        "done",
        -9.91074234630427
      ],
      [
        "службы",
        -9.911459651984273
      ],
      [
        "И",
        -9.912113696963798
      ],
      [
        "▁беженцев",
        -9.912843256071575
      ],
      [
        "arms",
        -9.912884740731897
      ],
      [
        "касающихся",
        -9.914887276327391
      ],
      [
        "▁судебно",
        -9.915574674916009
      ],
      [
        "зависимости",
        -9.915626340793755
      ],
      [
        "▁allow",
        -9.916143573516935
      ],
      [
        "safety",
        -9.916260663834429
      ],
      [
        "от",
        -9.91821348119439
      ],
      [
        "involved",
        -9.919255650132882
      ],
      [
        "имя",
        -9.919400122297864
      ],
      [
        "▁рассмотрение",
        -9.919651721550812
      ],
      [
        "П",
        -9.920333359831773
      ],
      [
        "▁More",
        -9.920362243459852
      ],
      [
        "XXX",
        -9.921905314610079
      ],
      [
        "▁organized",
        -9.922550202958213
      ],
      [
        "having",
        -9.92319778164976
      ],
      [
        "▁higher",
        -9.923228940488102
      ],
      [
        "▁principle",
        -9.92379281426331
      ],
      [
        "▁вместе",
        -9.924007656014565
      ],
      [
        "ism",
        -9.924741366488458
      ],
      [
        "▁threat",
        -9.924962470994599
      ],
      [
        "▁общи",
        -9.925107649860246
      ],
      [
        "процессе",
        -9.926157502593936
      ],
      [
        "▁reduction",
        -9.927169692634989
      ],
      [
        "▁reduce",
        -9.928154944987437
      ],
      [
        "▁ним",
        -9.928755878733785
      ],
      [
        "▁connection",
        -9.928864944033121
      ],
      [
        "▁дела",
        -9.930781376619889
      ],
      [
        "administrative",
        -9.932403847623911
      ],
      [
        "▁Executive",
        -9.932724303140708
      ],
      [
        "ского",
        -9.932954293103936
      ],
      [
        "▁программа",
        -9.933830137258308
      ],
      [
        "жа",
        -9.933884405848431
      ],
      [
        "▁III",
        -9.934049745436118
      ],
      [
        "▁сил",
        -9.934394199197685
      ],
      [
        "prevention",
        -9.934720443491852
      ],
      [
        "▁Африк",
        -9.935752809950536
      ],
      [
        "▁количество",
        -9.935823738245348
      ],
      [
        "национального",
        -9.935941414956357
      ],
      [
        "▁Америки",
        -9.936012625381672
      ],
      [
        "▁соглашения",
        -9.93672820761345
      ],
      [
        "▁вопроса",
        -9.937016823799244
      ],
      [
        "▁short",
        -9.93714454847721
      ],
      [
        "▁mission",
        -9.937907312226013
      ],
      [
        "▁города",
        -9.938326147468725
      ],
      [
        "funds",
        -9.93838081092879
      ],
      [
        "▁team",
        -9.93895283277531
      ],
      [
        "▁Porn",
        -9.939276000025984
      ],
      [
        "▁University",
        -9.93993831209868
      ],
      [
        "acts",
        -9.940371425444445
      ],
      [
        "▁плана",
        -9.940904234655507
      ],
      [
        "▁visit",
        -9.941156796729002
      ],
      [
        "committed",
        -9.941907139970455
      ],
      [
        "regulation",
        -9.942252240360258
      ],
      [
        "▁difficult",
        -9.942446726538394
      ],
      [
        "▁communication",
        -9.943115780501676
      ],
      [
        "greater",
        -9.943551344057942
      ],
      [
        "ющиеся",
        -9.943960193362729
      ],
      [
        "потому",
        -9.944153360778717
      ],
      [
        "▁materials",
        -9.944555210892464
      ],
      [
        "▁court",
        -9.945015046404183
      ],
      [
        "▁annual",
        -9.945743252808594
      ],
      [
        "nsuring",
        -9.94583454227658
      ],
      [
        "▁уделя",
        -9.946054311488705
      ],
      [
        "▁events",
        -9.94664560789413
      ],
      [
        "неправительствен",
        -9.947153991818993
      ],
      [
        "▁Когда",
        -9.947471229440506
      ],
      [
        "▁граждан",
        -9.947762562890254
      ],
      [
        "priority",
        -9.94813971697193
      ],
      [
        "▁attack",
        -9.949395831973208
      ],
      [
        "▁direct",
        -9.949474741986378
      ],
      [
        "▁partners",
        -9.949861467101266
      ],
      [
        "▁настоятельно",
        -9.951252011780127
      ],
      [
        "▁transfer",
        -9.951716006680373
      ],
      [
        "opportunities",
        -9.951886608442996
      ],
      [
        "▁sexual",
        -9.952059046144804
      ],
      [
        "▁Европейско",
        -9.952145433235838
      ],
      [
        "▁приняты",
        -9.9523502530172
      ],
      [
        "▁специально",
        -9.952373939006598
      ],
      [
        "▁сегодня",
        -9.952466380851101
      ],
      [
        "▁трех",
        -9.953116190529325
      ],
      [
        "actions",
        -9.95335619924085
      ],
      [
        "trafficking",
        -9.953834185760664
      ],
      [
        "ж",
        -9.953876038181704
      ],
      [
        "▁посредством",
        -9.954289244781531
      ],
      [
        "▁достаточно",
        -9.955380100551338
      ],
      [
        "▁Ирак",
        -9.955406840195714
      ],
      [
        "▁принимать",
        -9.955991712506835
      ],
      [
        "disarmament",
        -9.957394207157924
      ],
      [
        "соответствующим",
        -9.957448900778461
      ],
      [
        "▁считает",
        -9.957491182753401
      ],
      [
        "▁Centre",
        -9.958239351590425
      ],
      [
        "ью",
        -9.959032508468402
      ],
      [
        "▁опыт",
        -9.959421828934975
      ],
      [
        "R",
        -9.960384815241664
      ],
      [
        "▁receive",
        -9.960486835376209
      ],
      [
        "▁Code",
        -9.960579574181637
      ],
      [
        "распространения",
        -9.961034334226893
      ],
      [
        "▁осуществлять",
        -9.961456409794677
      ],
      [
        "▁Таки",
        -9.961552335301471
      ],
      [
        "▁employment",
        -9.962186625225558
      ],
      [
        "люди",
        -9.963136382733644
      ],
      [
        "▁реформ",
        -9.963368739112331
      ],
      [
        "▁соответствующе",
        -9.964568619736326
      ],
      [
        "ситуации",
        -9.964687884732484
      ],
      [
        "▁сообщества",
        -9.964868757625135
      ],
      [
        "силы",
        -9.965043894095237
      ],
      [
        "▁бюджета",
        -9.965096634660066
      ],
      [
        "ном",
        -9.9656150975035
      ],
      [
        "конец",
        -9.966443474728436
      ],
      [
        "▁явля",
        -9.966696661925404
      ],
      [
        "▁региональных",
        -9.966976405732462
      ],
      [
        "▁ВИЧ",
        -9.967162427407636
      ],
      [
        "▁age",
        -9.967437804441284
      ],
      [
        "▁After",
        -9.967631952305442
      ],
      [
        "районах",
        -9.968165335942508
      ],
      [
        "▁share",
        -9.968950116963486
      ],
      [
        "forces",
        -9.96960966332973
      ],
      [
        "▁live",
        -9.970038410631789
      ],
      [
        "contribute",
        -9.970224612069236
      ],
      [
        "национальной",
        -9.97067644783394
      ],
      [
        "Chairman",
        -9.971709295931744
      ],
      [
        "Международного",
        -9.973407741191215
      ],
      [
        "processes",
        -9.973527871498895
      ],
      [
        "infrastructure",
        -9.973916177689869
      ],
      [
        "▁line",
        -9.97420293265199
      ],
      [
        "amp",
        -9.974259530859793
      ],
      [
        "▁comment",
        -9.974680159579965
      ],
      [
        "▁принял",
        -9.975790036379477
      ],
      [
        "▁HIV",
        -9.975867229176586
      ],
      [
        "▁event",
        -9.976210019368894
      ],
      [
        "▁never",
        -9.976937050098126
      ],
      [
        "partnership",
        -9.977030526588305
      ],
      [
        "▁Генеральн",
        -9.977177349412809
      ],
      [
        "▁Information",
        -9.97724209026354
      ],
      [
        "второй",
        -9.977769303274359
      ],
      [
        "located",
        -9.977994672608606
      ],
      [
        "experts",
        -9.97880347708859
      ],
      [
        "▁план",
        -9.979203131122297
      ],
      [
        "▁информационно",
        -9.979613885873583
      ],
      [
        "▁активно",
        -9.979934695663488
      ],
      [
        "тому",
        -9.980414530802205
      ],
      [
        "▁climate",
        -9.980818418101437
      ],
      [
        "иностранных",
        -9.98082275352397
      ],
      [
        "▁wh",
        -9.981133453456355
      ],
      [
        "▁вооруженны",
        -9.981530986179566
      ],
      [
        "limited",
        -9.98187408955039
      ],
      [
        "▁treat",
        -9.982206075140322
      ],
      [
        "получения",
        -9.98244428920017
      ],
      [
        "членами",
        -9.982464856669596
      ],
      [
        "▁shemale",
        -9.983287253277984
      ],
      [
        "▁август",
        -9.98393183350176
      ],
      [
        "▁те",
        -9.984693580988106
      ],
      [
        "те",
        -9.985429386655689
      ],
      [
        "▁understanding",
        -9.985551128284435
      ],
      [
        "▁house",
        -9.985747117389282
      ],
      [
        "▁региона",
        -9.986168733737966
      ],
      [
        "away",
        -9.98685334030339
      ],
      [
        "▁создать",
        -9.987207836837483
      ],
      [
        "▁construction",
        -9.98750031313308
      ],
      [
        "▁six",
        -9.988237875020122
      ],
      [
        "общей",
        -9.988266242987681
      ],
      [
        "▁результатов",
        -9.9886023388363
      ],
      [
        "▁Д",
        -9.988653191793283
      ],
      [
        "•",
        -9.98903866043756
      ],
      [
        "уровнях",
        -9.990919735866482
      ],
      [
        "▁совещания",
        -9.991064456458771
      ],
      [
        "▁type",
        -9.991807112193571
      ],
      [
        "▁increasing",
        -9.99195494753398
      ],
      [
        "former",
        -9.99212915392562
      ],
      [
        "▁последние",
        -9.993094208473245
      ],
      [
        "▁conference",
        -9.994143799542021
      ],
      [
        "▁produce",
        -9.996256108790877
      ],
      [
        "▁Peace",
        -9.99668573756002
      ],
      [
        "▁low",
        -9.996777092632565
      ],
      [
        "принципов",
        -9.997419028579724
      ],
      [
        "▁oil",
        -9.997464245991548
      ],
      [
        "▁феврал",
        -9.997873851221035
      ],
      [
        "▁prison",
        -9.998829357934547
      ],
      [
        "членов",
        -9.999899812944529
      ],
      [
        "йте",
        -10.000332179395585
      ],
      [
        "▁мероприятия",
        -10.000355871019382
      ],
      [
        "▁цен",
        -10.000371881912782
      ],
      [
        "▁видов",
        -10.001278300100013
      ],
      [
        "▁J",
        -10.00144790372865
      ],
      [
        "▁ЮНИ",
        -10.001671365658211
      ],
      [
        "▁периода",
        -10.001705895946815
      ],
      [
        "▁export",
        -10.002357187419806
      ],
      [
        "forms",
        -10.002739434577535
      ],
      [
        "identify",
        -10.003004210458862
      ],
      [
        "▁language",
        -10.003126830708464
      ],
      [
        "▁Iraq",
        -10.003214462665861
      ],
      [
        "▁lead",
        -10.003648017304268
      ],
      [
        "порядке",
        -10.004616124094106
      ],
      [
        "coming",
        -10.006277479735049
      ],
      [
        "▁text",
        -10.006430581169369
      ],
      [
        "F",
        -10.006627342093616
      ],
      [
        "▁другим",
        -10.006761618695359
      ],
      [
        "▁угроз",
        -10.006929793361767
      ],
      [
        "связанные",
        -10.00707631938193
      ],
      [
        "level",
        -10.007284056400131
      ],
      [
        "ская",
        -10.007526853302732
      ],
      [
        "▁ниже",
        -10.008697524248038
      ],
      [
        "ни",
        -10.009902250955275
      ],
      [
        "▁software",
        -10.010273859956795
      ],
      [
        "▁женщины",
        -10.010290548423843
      ],
      [
        "▁благодаря",
        -10.010743725594788
      ],
      [
        "▁guarantee",
        -10.011087118557255
      ],
      [
        "strategies",
        -10.012094460517917
      ],
      [
        "▁анализ",
        -10.012102882284262
      ],
      [
        "национальном",
        -10.0122601293301
      ],
      [
        "ECE",
        -10.01279547449253
      ],
      [
        "facilitate",
        -10.013315890670293
      ],
      [
        "ShemaleZ",
        -10.013385187515919
      ],
      [
        "Advisor",
        -10.01346978936644
      ],
      [
        "▁рекомендует",
        -10.013634099906126
      ],
      [
        "expected",
        -10.013667204906762
      ],
      [
        "Группа",
        -10.015827034994063
      ],
      [
        "▁учреждения",
        -10.016163269252944
      ],
      [
        "▁быстро",
        -10.016292739674459
      ],
      [
        "▁каса",
        -10.016332565961534
      ],
      [
        "рассмотреть",
        -10.017189575672683
      ],
      [
        "▁места",
        -10.017266314381109
      ],
      [
        "▁presented",
        -10.017608350376015
      ],
      [
        "▁participants",
        -10.017669097679496
      ],
      [
        "▁крайне",
        -10.017741167490135
      ],
      [
        "▁crisis",
        -10.018024340900435
      ],
      [
        "▁метод",
        -10.018059042301338
      ],
      [
        "▁документов",
        -10.01876481870955
      ],
      [
        "▁author",
        -10.01901222840635
      ],
      [
        "▁обычно",
        -10.021361235629604
      ],
      [
        "поддержке",
        -10.02202198526917
      ],
      [
        "▁обслуживания",
        -10.022949419591892
      ],
      [
        "▁взнос",
        -10.023412882915142
      ],
      [
        "▁carry",
        -10.023695129173745
      ],
      [
        "created",
        -10.023997325626006
      ],
      [
        "awareness",
        -10.024437541296155
      ],
      [
        "▁ними",
        -10.024506786893362
      ],
      [
        "▁regular",
        -10.024649137691462
      ],
      [
        "государственных",
        -10.025721589471525
      ],
      [
        "Covenant",
        -10.02594822998043
      ],
      [
        "▁учебны",
        -10.026060091408427
      ],
      [
        "▁материал",
        -10.026244986702109
      ],
      [
        "▁заявления",
        -10.026293271391399
      ],
      [
        "decisions",
        -10.02650941803743
      ],
      [
        "territory",
        -10.027041589471866
      ],
      [
        "▁exercise",
        -10.027123717898366
      ],
      [
        "itself",
        -10.027384558282094
      ],
      [
        "▁Moscow",
        -10.028390377301038
      ],
      [
        "▁лучше",
        -10.02905493401948
      ],
      [
        "▁своим",
        -10.029456618536626
      ],
      [
        "▁Ms",
        -10.029549265225265
      ],
      [
        "▁Организация",
        -10.029585078373566
      ],
      [
        "▁capital",
        -10.029698298448098
      ],
      [
        "▁друг",
        -10.029808028551457
      ],
      [
        "▁TV",
        -10.029873013941316
      ],
      [
        "▁инфраструктур",
        -10.030419616722961
      ],
      [
        "▁Thes",
        -10.03079178032282
      ],
      [
        "работать",
        -10.031996698421382
      ],
      [
        "▁представления",
        -10.032259369474163
      ],
      [
        "▁вариант",
        -10.033143441412125
      ],
      [
        "▁работа",
        -10.033769600514367
      ],
      [
        "Л",
        -10.034072510976905
      ],
      [
        "какой",
        -10.034566944532124
      ],
      [
        "▁co",
        -10.034862922839812
      ],
      [
        "▁развиты",
        -10.035304069297185
      ],
      [
        "▁сообщения",
        -10.035387112482198
      ],
      [
        "▁бюджет",
        -10.035904561382077
      ],
      [
        "▁hope",
        -10.036174592949385
      ],
      [
        "recommended",
        -10.036777390369224
      ],
      [
        "▁operation",
        -10.036794525485025
      ],
      [
        "▁positive",
        -10.036945952848233
      ],
      [
        "местах",
        -10.03764085523741
      ],
      [
        "дать",
        -10.038565528435928
      ],
      [
        "▁климата",
        -10.038976274222323
      ],
      [
        "он",
        -10.039116571151077
      ],
      [
        "workers",
        -10.039594624190606
      ],
      [
        "▁име",
        -10.040202195494778
      ],
      [
        "▁пор",
        -10.040215419278242
      ],
      [
        "▁citizens",
        -10.040491494188984
      ],
      [
        "▁By",
        -10.040589151117352
      ],
      [
        "экономики",
        -10.040734012337115
      ],
      [
        "affected",
        -10.04077193977837
      ],
      [
        "▁extend",
        -10.041076156847412
      ],
      [
        "▁communit",
        -10.041462216616516
      ],
      [
        "▁предлагает",
        -10.041602253838686
      ],
      [
        "применение",
        -10.042420671658803
      ],
      [
        "▁industry",
        -10.042932867073329
      ],
      [
        "▁act",
        -10.043676870188788
      ],
      [
        "▁последстви",
        -10.04473001104543
      ],
      [
        "▁money",
        -10.044836648317638
      ],
      [
        "▁внимани",
        -10.045080865948986
      ],
      [
        "once",
        -10.045138726959868
      ],
      [
        "▁complex",
        -10.046003726498748
      ],
      [
        "▁нарушения",
        -10.046503835503119
      ],
      [
        "▁physical",
        -10.046930641511118
      ],
      [
        "▁категории",
        -10.047569040611346
      ],
      [
        "▁серьезны",
        -10.047768180534232
      ],
      [
        "▁мест",
        -10.048203242016779
      ],
      [
        "ребенка",
        -10.048279725704317
      ],
      [
        "▁online",
        -10.050205931910458
      ],
      [
        "▁complete",
        -10.050941075191966
      ],
      [
        "▁сообщил",
        -10.051090536235296
      ],
      [
        "▁mind",
        -10.051110333847225
      ],
      [
        "▁conduct",
        -10.051787242350562
      ],
      [
        "▁часто",
        -10.05205816047705
      ],
      [
        "▁всё",
        -10.053631481887228
      ],
      [
        "▁рабоче",
        -10.0540091721488
      ],
      [
        "▁гендерно",
        -10.054053253608595
      ],
      [
        "▁professional",
        -10.054904056094362
      ],
      [
        "▁ресурсы",
        -10.055111971021846
      ],
      [
        "directly",
        -10.055972186133822
      ],
      [
        "правах",
        -10.056251404177916
      ],
      [
        "AC",
        -10.056574384781666
      ],
      [
        "▁relations",
        -10.057414242152486
      ],
      [
        "mm",
        -10.058645728570573
      ],
      [
        "▁жертв",
        -10.058842377414132
      ],
      [
        "▁Our",
        -10.060251780299705
      ],
      [
        "▁self",
        -10.061283609386015
      ],
      [
        "чего",
        -10.061438699698652
      ],
      [
        "▁сети",
        -10.061759267074203
      ],
      [
        "religious",
        -10.061771735329058
      ],
      [
        "▁Internet",
        -10.06206227464583
      ],
      [
        "людьми",
        -10.062186429987543
      ],
      [
        "▁strategic",
        -10.062205960779057
      ],
      [
        "▁torture",
        -10.062256314692082
      ],
      [
        "провести",
        -10.06233191743691
      ],
      [
        "наших",
        -10.062507472775179
      ],
      [
        "ization",
        -10.063073582013708
      ],
      [
        "▁People",
        -10.06344030795422
      ],
      [
        "▁ущерб",
        -10.063841241647108
      ],
      [
        "man",
        -10.064114472244496
      ],
      [
        "▁fundamental",
        -10.06458194832009
      ],
      [
        "▁энергии",
        -10.06541587999616
      ],
      [
        "▁министр",
        -10.065519335786135
      ],
      [
        "▁active",
        -10.065599835188895
      ],
      [
        "▁forward",
        -10.066168850363251
      ],
      [
        "stated",
        -10.06667221003075
      ],
      [
        "▁роли",
        -10.066992943348094
      ],
      [
        "▁Since",
        -10.067067614850385
      ],
      [
        "▁граждански",
        -10.067217984267035
      ],
      [
        "▁kind",
        -10.068466349933455
      ],
      [
        "K",
        -10.068770209490234
      ],
      [
        "▁просит",
        -10.068817513504122
      ],
      [
        "▁times",
        -10.069326068874146
      ],
      [
        "▁прежде",
        -10.069909720775078
      ],
      [
        "▁сведени",
        -10.070116088701726
      ],
      [
        "ц",
        -10.070403643805111
      ],
      [
        "▁Организаци",
        -10.071155303251327
      ],
      [
        "▁themselves",
        -10.07120676049297
      ],
      [
        "▁informed",
        -10.071691704089707
      ],
      [
        "▁стали",
        -10.073420712246918
      ],
      [
        "▁слова",
        -10.074513130097897
      ],
      [
        "▁около",
        -10.074955533129605
      ],
      [
        "▁methods",
        -10.075089465770443
      ],
      [
        "▁месяца",
        -10.075154684974011
      ],
      [
        "▁terrorism",
        -10.075174470341967
      ],
      [
        "plans",
        -10.075676321392255
      ],
      [
        "ых",
        -10.076239399326674
      ],
      [
        "▁Ази",
        -10.077070924345167
      ],
      [
        "▁рассматрива",
        -10.077137046464117
      ],
      [
        "▁Management",
        -10.077381658440517
      ],
      [
        "▁obtain",
        -10.077410246489986
      ],
      [
        "▁technologies",
        -10.077498344445402
      ],
      [
        "первой",
        -10.077505452966442
      ],
      [
        "▁Live",
        -10.077512327500811
      ],
      [
        "▁contact",
        -10.07860136821707
      ],
      [
        "thus",
        -10.078717933427933
      ],
      [
        "ский",
        -10.078726674199242
      ],
      [
        "▁преступления",
        -10.078751391967334
      ],
      [
        "at",
        -10.079528046629504
      ],
      [
        "AIDS",
        -10.079637715358315
      ],
      [
        "▁Al",
        -10.080669199154837
      ],
      [
        "▁ООН",
        -10.080701613390499
      ],
      [
        "Декларации",
        -10.081165113615675
      ],
      [
        "▁исследования",
        -10.081876570820803
      ],
      [
        "Hub",
        -10.082222322009649
      ],
      [
        "чи",
        -10.082246144749037
      ],
      [
        "▁price",
        -10.082500067557044
      ],
      [
        "▁практически",
        -10.082709745805523
      ],
      [
        "words",
        -10.082837410913747
      ],
      [
        "conclusion",
        -10.083469577687676
      ],
      [
        "▁officials",
        -10.08487539287038
      ],
      [
        "▁способ",
        -10.085205938974585
      ],
      [
        "▁материалов",
        -10.087365004015831
      ],
      [
        "▁Report",
        -10.087444911677949
      ],
      [
        "▁girls",
        -10.087466532177388
      ],
      [
        "▁face",
        -10.088122510525013
      ],
      [
        "entire",
        -10.088854817941252
      ],
      [
        "▁одно",
        -10.08922680482257
      ],
      [
        "▁Other",
        -10.089433487222871
      ],
      [
        "▁medical",
        -10.089598281862939
      ],
      [
        "treaty",
        -10.089629868069554
      ],
      [
        "▁технологии",
        -10.089831762391483
      ],
      [
        "▁От",
        -10.090725790982733
      ],
      [
        "говорит",
        -10.09073451815804
      ],
      [
        "▁там",
        -10.090763497311174
      ],
      [
        "▁сектор",
        -10.091645621159913
      ],
      [
        "▁конфликта",
        -10.091808218501406
      ],
      [
        "▁докладчик",
        -10.091933922181363
      ],
      [
        "▁различные",
        -10.09204186016563
      ],
      [
        "полной",
        -10.093042680035397
      ],
      [
        "▁submit",
        -10.093488119072829
      ],
      [
        "day",
        -10.093833176544228
      ],
      [
        "▁transition",
        -10.095205002839148
      ],
      [
        "▁participate",
        -10.09549399978317
      ],
      [
        "▁причин",
        -10.097522710341963
      ],
      [
        "vote",
        -10.097731148077525
      ],
      [
        "отсутствие",
        -10.097795913778008
      ],
      [
        "▁представители",
        -10.098169374041166
      ],
      [
        "▁evidence",
        -10.098269953320258
      ],
      [
        "▁evaluation",
        -10.098293147588814
      ],
      [
        "▁системе",
        -10.098417063239928
      ],
      [
        "supported",
        -10.09923903916037
      ],
      [
        "▁суда",
        -10.100160360978741
      ],
      [
        "▁website",
        -10.100632800857673
      ],
      [
        "конкретных",
        -10.100826955795894
      ],
      [
        "poor",
        -10.1008464811052
      ],
      [
        "нести",
        -10.102020536337083
      ],
      [
        "compliance",
        -10.10223644800999
      ],
      [
        "▁para",
        -10.102536236828964
      ],
      [
        "▁computer",
        -10.10287561490028
      ],
      [
        "▁финансово",
        -10.103085430467688
      ],
      [
        "▁секретариат",
        -10.103367536146433
      ],
      [
        "outcome",
        -10.104654037675378
      ],
      [
        "▁конкретны",
        -10.104830336436496
      ],
      [
        "▁тебя",
        -10.105665009263467
      ],
      [
        "▁повышени",
        -10.10641139193829
      ],
      [
        "▁участников",
        -10.106966573862485
      ],
      [
        "▁old",
        -10.107026507108465
      ],
      [
        "Treaty",
        -10.108419249391387
      ],
      [
        "касающиеся",
        -10.110620160473866
      ],
      [
        "WP",
        -10.111172962642845
      ],
      [
        "▁недели",
        -10.111359996860301
      ],
      [
        "▁product",
        -10.111367075242123
      ],
      [
        "Kingdom",
        -10.111749940316773
      ],
      [
        "▁независимо",
        -10.112321832010162
      ],
      [
        "▁structure",
        -10.113167295151678
      ],
      [
        "дает",
        -10.113473215770476
      ],
      [
        "dated",
        -10.1134916396687
      ],
      [
        "objectives",
        -10.113918157526905
      ],
      [
        "▁почти",
        -10.115584318375685
      ],
      [
        "▁сфер",
        -10.115670302721675
      ],
      [
        "▁сравнени",
        -10.116057198273408
      ],
      [
        "▁профессионально",
        -10.116443852747114
      ],
      [
        "▁modern",
        -10.117487540156302
      ],
      [
        "▁require",
        -10.118771749358741
      ],
      [
        "▁Do",
        -10.11930656456521
      ],
      [
        "▁правительств",
        -10.119681870850089
      ],
      [
        "age",
        -10.119725727875212
      ],
      [
        "▁UNI",
        -10.120949123478495
      ],
      [
        "▁internal",
        -10.121464633782837
      ],
      [
        "funding",
        -10.122490859965495
      ],
      [
        "▁систему",
        -10.123652909804907
      ],
      [
        "практики",
        -10.123812338986745
      ],
      [
        "goals",
        -10.124975666491713
      ],
      [
        "year",
        -10.12569017485223
      ],
      [
        "▁выражает",
        -10.126412357944751
      ],
      [
        "things",
        -10.128318262081462
      ],
      [
        "▁консультаци",
        -10.128785827127842
      ],
      [
        "сколько",
        -10.129727622449952
      ],
      [
        "▁нового",
        -10.130696022581889
      ],
      [
        "оказывать",
        -10.131128273227452
      ],
      [
        "▁affect",
        -10.131583578461468
      ],
      [
        "▁sex",
        -10.132024362006485
      ],
      [
        "▁приложение",
        -10.132438488356405
      ],
      [
        "необходимые",
        -10.13278806350657
      ],
      [
        "▁little",
        -10.134018966220262
      ],
      [
        "manner",
        -10.134229070992241
      ],
      [
        "▁исследований",
        -10.134791069783684
      ],
      [
        "▁single",
        -10.135938901976763
      ],
      [
        "▁First",
        -10.136529132501494
      ],
      [
        "▁отчет",
        -10.136550443330778
      ],
      [
        "▁central",
        -10.138579430632491
      ],
      [
        "▁similar",
        -10.138700164619621
      ],
      [
        "etention",
        -10.139019148751748
      ],
      [
        "ways",
        -10.139475794159916
      ],
      [
        "approved",
        -10.13981550012053
      ],
      [
        "▁позволит",
        -10.140094659516615
      ],
      [
        "сообщество",
        -10.140148526015292
      ],
      [
        "каждый",
        -10.140503574841404
      ],
      [
        "▁recogniz",
        -10.141121259120784
      ],
      [
        "Генеральный",
        -10.141626103913236
      ],
      [
        "throughout",
        -10.141796519771354
      ],
      [
        "peacekeeping",
        -10.14189466139823
      ],
      [
        "воды",
        -10.14248951046077
      ],
      [
        "▁grant",
        -10.142703448985507
      ],
      [
        "implemented",
        -10.143120989902133
      ],
      [
        "▁принцип",
        -10.143338881905885
      ],
      [
        "любой",
        -10.14369258538015
      ],
      [
        "stability",
        -10.143818866884319
      ],
      [
        "законодательства",
        -10.144046394504347
      ],
      [
        "▁labour",
        -10.145180789377278
      ],
      [
        "▁keep",
        -10.146647206423442
      ],
      [
        "▁sea",
        -10.147177639888245
      ],
      [
        "которыми",
        -10.147215029632504
      ],
      [
        "▁проводить",
        -10.148031103349284
      ],
      [
        "самым",
        -10.149884550774448
      ],
      [
        "▁turn",
        -10.149897172639077
      ],
      [
        "designed",
        -10.15015063754033
      ],
      [
        "полиции",
        -10.151021652481448
      ],
      [
        "▁try",
        -10.151551357109495
      ],
      [
        "▁Charter",
        -10.151653352343818
      ],
      [
        "▁universal",
        -10.152778951329399
      ],
      [
        "▁виде",
        -10.152984900179142
      ],
      [
        "▁anti",
        -10.153081971646879
      ],
      [
        "▁solution",
        -10.153731085455085
      ],
      [
        "свободы",
        -10.154454314340926
      ],
      [
        "требуется",
        -10.155161687907125
      ],
      [
        "ку",
        -10.155970680051494
      ],
      [
        "▁мл",
        -10.156456324815315
      ],
      [
        "▁оказани",
        -10.156585101361172
      ],
      [
        "следующих",
        -10.156637996712439
      ],
      [
        "заявление",
        -10.15696433853422
      ],
      [
        "▁каждого",
        -10.157289462212464
      ],
      [
        "▁sub",
        -10.157892085876973
      ],
      [
        "▁Re",
        -10.158333626003198
      ],
      [
        "▁семьи",
        -10.158761163352208
      ],
      [
        "эффективного",
        -10.158897923043245
      ],
      [
        "▁objective",
        -10.159216874568148
      ],
      [
        "▁vehicle",
        -10.15949573793887
      ],
      [
        "▁perform",
        -10.160180950160823
      ],
      [
        "существует",
        -10.160835830593365
      ],
      [
        "▁выразил",
        -10.161441410163858
      ],
      [
        "секретарь",
        -10.16178811613791
      ],
      [
        "СПИД",
        -10.161950409292995
      ],
      [
        "▁одна",
        -10.162032538492925
      ],
      [
        "▁веб",
        -10.162176521433468
      ],
      [
        "integrated",
        -10.16266619312674
      ],
      [
        "▁расширения",
        -10.163179800822677
      ],
      [
        "▁содействовать",
        -10.163804431715725
      ],
      [
        "▁создан",
        -10.163869809069041
      ],
      [
        "статья",
        -10.164568853480649
      ],
      [
        "▁закона",
        -10.16535339606765
      ],
      [
        "▁host",
        -10.165704547164383
      ],
      [
        "▁preparation",
        -10.16572413688523
      ],
      [
        "elections",
        -10.165883970638284
      ],
      [
        "правовой",
        -10.166116161006034
      ],
      [
        "▁затем",
        -10.166660777949662
      ],
      [
        "hours",
        -10.166828745698927
      ],
      [
        "заседания",
        -10.167698110413024
      ],
      [
        "рабочих",
        -10.168743269264883
      ],
      [
        "something",
        -10.169482559452385
      ],
      [
        "▁practical",
        -10.169504320106736
      ],
      [
        "▁record",
        -10.169612390237978
      ],
      [
        "▁suggest",
        -10.169733704383304
      ],
      [
        "▁culture",
        -10.17060122733364
      ],
      [
        "▁love",
        -10.17118213793137
      ],
      [
        "ting",
        -10.171385119961334
      ],
      [
        "▁минут",
        -10.171878031036414
      ],
      [
        "▁later",
        -10.171904565862542
      ],
      [
        "▁recognize",
        -10.171962349827082
      ],
      [
        "▁head",
        -10.172018386565725
      ],
      [
        "officer",
        -10.172132937674961
      ],
      [
        "questions",
        -10.172499620192195
      ],
      [
        "▁operational",
        -10.172706334363697
      ],
      [
        "▁hotel",
        -10.172881169731536
      ],
      [
        "ПРООН",
        -10.173610199168598
      ],
      [
        "▁Force",
        -10.17377486989805
      ],
      [
        "▁суд",
        -10.173860571079285
      ],
      [
        "▁benefit",
        -10.175692127250175
      ],
      [
        "▁benefits",
        -10.176190699544179
      ],
      [
        "dependence",
        -10.176415741855218
      ],
      [
        "▁ваш",
        -10.176566207601647
      ],
      [
        "▁начала",
        -10.176700806530317
      ],
      [
        "какие",
        -10.176743462661465
      ],
      [
        "▁отношения",
        -10.177006349292254
      ],
      [
        "▁международные",
        -10.177186702715895
      ],
      [
        "▁подчеркнул",
        -10.177224482207022
      ],
      [
        "смотря",
        -10.177403986978025
      ],
      [
        "▁opinion",
        -10.177516834957423
      ],
      [
        "▁Constitution",
        -10.177664315537685
      ],
      [
        "▁принимает",
        -10.177671469230654
      ],
      [
        "▁improvement",
        -10.177731949996154
      ],
      [
        "мимо",
        -10.177991459032064
      ],
      [
        "▁центра",
        -10.178192237172054
      ],
      [
        "▁ethnic",
        -10.17894569087074
      ],
      [
        "▁успешно",
        -10.179193975294979
      ],
      [
        "▁техническо",
        -10.179294034130578
      ],
      [
        "▁новый",
        -10.179615159814466
      ],
      [
        "▁преступности",
        -10.179680874862472
      ],
      [
        "overall",
        -10.179872317118084
      ],
      [
        "▁непосредственно",
        -10.18017160099698
      ],
      [
        "▁scientific",
        -10.180474080625983
      ],
      [
        "efficient",
        -10.181617840633844
      ],
      [
        "Африки",
        -10.181853550168974
      ],
      [
        "j",
        -10.181965852459296
      ],
      [
        "▁правосудия",
        -10.182158838719864
      ],
      [
        "▁conclud",
        -10.182172001390574
      ],
      [
        "▁поддерживает",
        -10.182674999020849
      ],
      [
        "▁представитель",
        -10.182714912270177
      ],
      [
        "primary",
        -10.182866200991947
      ],
      [
        "▁task",
        -10.18300986749129
      ],
      [
        "financing",
        -10.183158341873565
      ],
      [
        "▁less",
        -10.18375595159927
      ],
      [
        "▁выбор",
        -10.184024835078537
      ],
      [
        "новой",
        -10.18588141985191
      ],
      [
        "rural",
        -10.186195663492015
      ],
      [
        "▁off",
        -10.186203831356483
      ],
      [
        "большие",
        -10.186305676617458
      ],
      [
        "▁integration",
        -10.186572104709366
      ],
      [
        "далее",
        -10.18701917173966
      ],
      [
        "▁определенны",
        -10.187921538626187
      ],
      [
        "▁stress",
        -10.18875418280225
      ],
      [
        "efficiency",
        -10.189345953778378
      ],
      [
        "культуры",
        -10.189933457687774
      ],
      [
        "способствовать",
        -10.190423350216818
      ],
      [
        "информацией",
        -10.19069711989583
      ],
      [
        "▁supply",
        -10.190697312524442
      ],
      [
        "▁Agreement",
        -10.191280173602971
      ],
      [
        "respective",
        -10.191544825878232
      ],
      [
        "▁Управлени",
        -10.191790601732745
      ],
      [
        "▁adopt",
        -10.191916297906003
      ],
      [
        "органы",
        -10.19195534121982
      ],
      [
        "authority",
        -10.192644655657402
      ],
      [
        "students",
        -10.19279722062679
      ],
      [
        "Meeting",
        -10.193545890073784
      ],
      [
        "negotiations",
        -10.193955786353262
      ],
      [
        "rather",
        -10.194445832072384
      ],
      [
        "▁left",
        -10.194632616793823
      ],
      [
        "individuals",
        -10.194838325463373
      ],
      [
        "▁reflect",
        -10.195317200254696
      ],
      [
        "▁ней",
        -10.195812892926625
      ],
      [
        "▁озабоченност",
        -10.196036528899487
      ],
      [
        "▁interests",
        -10.19624965735997
      ],
      [
        "abuse",
        -10.19630402116273
      ],
      [
        "прогресса",
        -10.196586404137989
      ],
      [
        "z",
        -10.196754610520546
      ],
      [
        "▁правила",
        -10.196952683606025
      ],
      [
        "▁хорошо",
        -10.197277081824852
      ],
      [
        "▁шесть",
        -10.19855402852113
      ],
      [
        "▁цель",
        -10.198967785351893
      ],
      [
        "circumstance",
        -10.199488457055386
      ],
      [
        "▁ситуаци",
        -10.199851307598799
      ],
      [
        "▁American",
        -10.199974010919545
      ],
      [
        "ще",
        -10.20099396536992
      ],
      [
        "▁indicate",
        -10.201714307366165
      ],
      [
        "▁государственно",
        -10.201976237929259
      ],
      [
        "▁build",
        -10.202176335738095
      ],
      [
        "conducted",
        -10.202464811032414
      ],
      [
        "▁предусматривает",
        -10.202689339208153
      ],
      [
        "functions",
        -10.202733307266604
      ],
      [
        "▁характера",
        -10.2032604484217
      ],
      [
        "▁hard",
        -10.203565716311394
      ],
      [
        "gan",
        -10.203670191069731
      ],
      [
        "▁Germany",
        -10.203965290737274
      ],
      [
        "▁функции",
        -10.20428469439437
      ],
      [
        "etc",
        -10.204395367672662
      ],
      [
        "referred",
        -10.20527466660665
      ],
      [
        "▁незаконно",
        -10.205275512236698
      ],
      [
        "▁standard",
        -10.20597403699666
      ],
      [
        "▁avoid",
        -10.206118722511402
      ],
      [
        "пример",
        -10.206273144780095
      ],
      [
        "▁mean",
        -10.206689150319935
      ],
      [
        "▁обсуждения",
        -10.207310682283904
      ],
      [
        "▁Institute",
        -10.207552496681755
      ],
      [
        "пыток",
        -10.20874309076482
      ],
      [
        "▁заинтересованны",
        -10.208818677340547
      ],
      [
        "along",
        -10.210546212717865
      ],
      [
        "▁союз",
        -10.211643817157533
      ],
      [
        "▁sources",
        -10.212577695154362
      ],
      [
        "огда",
        -10.212818643564416
      ],
      [
        "▁Commissioner",
        -10.212856041726123
      ],
      [
        "▁Manager",
        -10.213462759836622
      ],
      [
        "▁определения",
        -10.214506942907823
      ],
      [
        "союза",
        -10.215468599980914
      ],
      [
        "▁understand",
        -10.215730394828505
      ],
      [
        "▁launch",
        -10.216300770389891
      ],
      [
        "▁Co",
        -10.216655266664933
      ],
      [
        "▁version",
        -10.216682723123208
      ],
      [
        "achieved",
        -10.217035556780449
      ],
      [
        "▁нескольких",
        -10.217134823913286
      ],
      [
        "▁конфликтов",
        -10.21727609079346
      ],
      [
        "Управление",
        -10.21768526859404
      ],
      [
        "guidelines",
        -10.217701083248773
      ],
      [
        "равенства",
        -10.217871135876676
      ],
      [
        "brough",
        -10.218331431225366
      ],
      [
        "▁сведения",
        -10.218637711280183
      ],
      [
        "▁leave",
        -10.218696529026188
      ],
      [
        "▁отмеча",
        -10.218814512516118
      ],
      [
        "▁равно",
        -10.219037586391234
      ],
      [
        "▁доби",
        -10.21911676360357
      ],
      [
        "▁border",
        -10.21977660641552
      ],
      [
        "▁income",
        -10.219789390466488
      ],
      [
        "составляет",
        -10.220562723940073
      ],
      [
        "▁traditional",
        -10.220620848790123
      ],
      [
        "▁дома",
        -10.220624973468764
      ],
      [
        "asked",
        -10.220692013811272
      ],
      [
        "improving",
        -10.220933003249677
      ],
      [
        "заключается",
        -10.221261757407962
      ],
      [
        "▁представителя",
        -10.22146644837691
      ],
      [
        "▁большинство",
        -10.2216093709119
      ],
      [
        "▁связан",
        -10.221855225543846
      ],
      [
        "▁политической",
        -10.222127618777954
      ],
      [
        "history",
        -10.22241624212362
      ],
      [
        "содействие",
        -10.222934636098563
      ],
      [
        "▁широко",
        -10.223349307497381
      ],
      [
        "▁users",
        -10.224005966581627
      ],
      [
        "▁administration",
        -10.224902521727355
      ],
      [
        "докладов",
        -10.225679301602657
      ],
      [
        "делам",
        -10.225720071968642
      ],
      [
        "▁separate",
        -10.225841952592614
      ],
      [
        "Г",
        -10.225956353652707
      ],
      [
        "ющимся",
        -10.226398090542238
      ],
      [
        "Democratic",
        -10.226700267414056
      ],
      [
        "▁came",
        -10.226811732970557
      ],
      [
        "соблюдения",
        -10.226994497201638
      ],
      [
        "elements",
        -10.227021075998096
      ],
      [
        "▁creation",
        -10.227189978999771
      ],
      [
        "рынка",
        -10.227859386351573
      ],
      [
        "▁file",
        -10.228032260057125
      ],
      [
        "▁Plan",
        -10.22807484837671
      ],
      [
        "▁народа",
        -10.22835786027204
      ],
      [
        "никогда",
        -10.228412640416414
      ],
      [
        "▁программам",
        -10.228540464291381
      ],
      [
        "▁обрати",
        -10.228945677263543
      ],
      [
        "самых",
        -10.229333088547302
      ],
      [
        "Программы",
        -10.229547637171695
      ],
      [
        "notes",
        -10.229713084071701
      ],
      [
        "▁Under",
        -10.231027146981592
      ],
      [
        "▁gas",
        -10.231168210632358
      ],
      [
        "▁mention",
        -10.231438525071695
      ],
      [
        "▁goal",
        -10.23166120216037
      ],
      [
        "▁тысячелетия",
        -10.231670600469851
      ],
      [
        "предложение",
        -10.231888137756139
      ],
      [
        "▁multilateral",
        -10.232704866183408
      ],
      [
        "Jesus",
        -10.233065612992013
      ],
      [
        "sufficient",
        -10.233120156872314
      ],
      [
        "▁Иисус",
        -10.233122566359324
      ],
      [
        "весьма",
        -10.233176197827998
      ],
      [
        "▁limit",
        -10.233320637337764
      ],
      [
        "▁всеми",
        -10.233729779776697
      ],
      [
        "▁register",
        -10.233924271756308
      ],
      [
        "▁Home",
        -10.234918286592654
      ],
      [
        "▁types",
        -10.235543800151582
      ],
      [
        "Tribunal",
        -10.235830853483458
      ],
      [
        "enforcement",
        -10.237129943056752
      ],
      [
        "▁punish",
        -10.237174826343201
      ],
      [
        "almost",
        -10.23744286856961
      ],
      [
        "▁debt",
        -10.237833628287895
      ],
      [
        "▁monitor",
        -10.238481189299039
      ],
      [
        "▁safe",
        -10.238545992916423
      ],
      [
        "▁трудност",
        -10.238708256997635
      ],
      [
        "gency",
        -10.239750088581063
      ],
      [
        "ходят",
        -10.240667076823087
      ],
      [
        "▁Global",
        -10.241021912905323
      ],
      [
        "▁St",
        -10.241695148673058
      ],
      [
        "▁regime",
        -10.242721836836408
      ],
      [
        "effectively",
        -10.243027671947539
      ],
      [
        "▁Israeli",
        -10.243382250235834
      ],
      [
        "такое",
        -10.243635873858901
      ],
      [
        "ш",
        -10.243946134554688
      ],
      [
        "разоружения",
        -10.244270247648618
      ],
      [
        "▁договор",
        -10.244497962271193
      ],
      [
        "предоставления",
        -10.24477250055668
      ],
      [
        "▁предмет",
        -10.245419947787314
      ],
      [
        "keeping",
        -10.246017200078764
      ],
      [
        "▁letter",
        -10.246240216628761
      ],
      [
        "отношений",
        -10.246486717960785
      ],
      [
        "▁тогда",
        -10.246651770153159
      ],
      [
        "▁exist",
        -10.248146375099916
      ],
      [
        "управление",
        -10.248306830225792
      ],
      [
        "местных",
        -10.248531787166616
      ],
      [
        "▁языка",
        -10.248595696166177
      ],
      [
        "▁test",
        -10.249137370441169
      ],
      [
        "Я",
        -10.249291499991372
      ],
      [
        "основные",
        -10.249396706286417
      ],
      [
        "выборов",
        -10.249622183714058
      ],
      [
        "▁найти",
        -10.251126361910405
      ],
      [
        "▁side",
        -10.251278640121459
      ],
      [
        "▁disease",
        -10.251577721535044
      ],
      [
        "▁outside",
        -10.251750932950937
      ],
      [
        "fence",
        -10.252107166727145
      ],
      [
        "▁приняти",
        -10.252107483627507
      ],
      [
        "Согласно",
        -10.253528625434194
      ],
      [
        "▁игры",
        -10.253563408209292
      ],
      [
        "missions",
        -10.254093668812725
      ],
      [
        "▁user",
        -10.254432055095586
      ],
      [
        "▁famil",
        -10.25484150995924
      ],
      [
        "▁Azerbaijan",
        -10.254883506085882
      ],
      [
        "принципы",
        -10.255205269579585
      ],
      [
        "▁Criminal",
        -10.255400886870362
      ],
      [
        "▁concept",
        -10.25585987024217
      ],
      [
        "across",
        -10.256077863068437
      ],
      [
        "комиссии",
        -10.256227839031276
      ],
      [
        "apply",
        -10.256346032816154
      ],
      [
        "▁анализа",
        -10.256955832871048
      ],
      [
        "of",
        -10.257666453677796
      ],
      [
        "▁протокол",
        -10.258407945457245
      ],
      [
        "▁step",
        -10.25876666133272
      ],
      [
        "▁seek",
        -10.259408143252893
      ],
      [
        "▁образование",
        -10.25989755713706
      ],
      [
        "можем",
        -10.260106868193205
      ],
      [
        "▁read",
        -10.260643931245118
      ],
      [
        "созданию",
        -10.260671070426964
      ],
      [
        "Millennium",
        -10.261960243366138
      ],
      [
        "всей",
        -10.263174732536449
      ],
      [
        "▁Вмест",
        -10.26492643171507
      ],
      [
        "▁поощрени",
        -10.266501125889214
      ],
      [
        "▁третье",
        -10.266975284234704
      ],
      [
        "▁points",
        -10.267029630787116
      ],
      [
        "offers",
        -10.267210925585836
      ],
      [
        "де",
        -10.267776649481526
      ],
      [
        "▁Из",
        -10.268391040228211
      ],
      [
        "▁Устав",
        -10.268613031144175
      ],
      [
        "seem",
        -10.268632121606174
      ],
      [
        "▁size",
        -10.269122073636467
      ],
      [
        "▁source",
        -10.269131962797545
      ],
      [
        "▁Европы",
        -10.269944359445068
      ],
      [
        "▁текст",
        -10.26995768346586
      ],
      [
        "▁content",
        -10.270102925636024
      ],
      [
        "peaceful",
        -10.27020708009377
      ],
      [
        "▁stage",
        -10.270474001396524
      ],
      [
        "▁теперь",
        -10.27051792992223
      ],
      [
        "▁identifi",
        -10.271303511308915
      ],
      [
        "▁ко",
        -10.271785800791275
      ],
      [
        "▁deep",
        -10.271870505884726
      ],
      [
        "▁рост",
        -10.272558224322857
      ],
      [
        "▁minor",
        -10.272964946919553
      ],
      [
        "▁наши",
        -10.2732743021416
      ],
      [
        "damage",
        -10.273574916067298
      ],
      [
        "▁Российско",
        -10.273963278953438
      ],
      [
        "▁forest",
        -10.274174961921648
      ],
      [
        "▁форм",
        -10.274455955967717
      ],
      [
        "▁сталкива",
        -10.274506679114742
      ],
      [
        "защиту",
        -10.274596619249898
      ],
      [
        "▁travel",
        -10.275403842757045
      ],
      [
        "▁heart",
        -10.27548451737273
      ],
      [
        "▁Foreign",
        -10.27575235371651
      ],
      [
        "▁educational",
        -10.275847358004894
      ],
      [
        "▁resource",
        -10.276309682309043
      ],
      [
        "out",
        -10.276839075940956
      ],
      [
        "▁beginning",
        -10.277671291678878
      ],
      [
        "совершенствовани",
        -10.277974037214063
      ],
      [
        "▁broad",
        -10.278239132110391
      ],
      [
        "приветствует",
        -10.27870756761964
      ],
      [
        "▁две",
        -10.279047814719558
      ],
      [
        "▁met",
        -10.280451519678683
      ],
      [
        "▁car",
        -10.280618063096073
      ],
      [
        "▁высокого",
        -10.280810678384997
      ],
      [
        "▁конкретно",
        -10.28169959885466
      ],
      [
        "резолюция",
        -10.28279148495374
      ],
      [
        "▁appear",
        -10.28446219082259
      ],
      [
        "▁доклады",
        -10.28467436386969
      ],
      [
        "▁campaign",
        -10.286486534446484
      ],
      [
        "▁Forum",
        -10.287208109371772
      ],
      [
        "▁System",
        -10.287269883872387
      ],
      [
        "regions",
        -10.287561227968222
      ],
      [
        "▁ране",
        -10.288105064342036
      ],
      [
        "▁Korea",
        -10.288161183318095
      ],
      [
        "▁деклараци",
        -10.288937076341295
      ],
      [
        "имеющих",
        -10.289804184322845
      ],
      [
        "▁collection",
        -10.28991157096472
      ],
      [
        "▁режим",
        -10.290503024390322
      ],
      [
        "▁самом",
        -10.290520796878335
      ],
      [
        "▁войны",
        -10.290802770701687
      ],
      [
        "www",
        -10.291068724473112
      ],
      [
        "обеспечивать",
        -10.291515190319627
      ],
      [
        "▁сексуально",
        -10.291515876944489
      ],
      [
        "важность",
        -10.291624135538624
      ],
      [
        "принятие",
        -10.291810126068533
      ],
      [
        "▁thought",
        -10.292301845479479
      ],
      [
        "be",
        -10.293013586369979
      ],
      [
        "▁game",
        -10.293995878550104
      ],
      [
        "▁talk",
        -10.294044804542722
      ],
      [
        "▁Б",
        -10.294761133644316
      ],
      [
        "▁органа",
        -10.294937987390675
      ],
      [
        "▁экологически",
        -10.295111811785727
      ],
      [
        "▁трансы",
        -10.29575688704872
      ],
      [
        "▁сокращения",
        -10.29595422879878
      ],
      [
        "▁наличи",
        -10.297318023737228
      ],
      [
        "▁Тем",
        -10.298102520665157
      ],
      [
        "soon",
        -10.298203354026242
      ],
      [
        "▁обеспечивает",
        -10.298231495440712
      ],
      [
        "▁check",
        -10.298450299236064
      ],
      [
        "провел",
        -10.298883898209471
      ],
      [
        "▁обеспокоенность",
        -10.299267455385067
      ],
      [
        "законодательство",
        -10.299293757755441
      ],
      [
        "▁tits",
        -10.299934963600466
      ],
      [
        "знать",
        -10.300785447941893
      ],
      [
        "охраны",
        -10.301041248763601
      ],
      [
        "leading",
        -10.301180051036091
      ],
      [
        "▁success",
        -10.301329944676922
      ],
      [
        "▁Грузи",
        -10.301873211688171
      ],
      [
        "органами",
        -10.301958675817723
      ],
      [
        "▁жалоб",
        -10.302411563835728
      ],
      [
        "ра",
        -10.30389714538219
      ],
      [
        "▁credit",
        -10.304187785177549
      ],
      [
        "Республике",
        -10.304495954484933
      ],
      [
        "operating",
        -10.304536181705677
      ],
      [
        "communications",
        -10.304758265826015
      ],
      [
        "time",
        -10.305105650981295
      ],
      [
        "▁Please",
        -10.305593896738715
      ],
      [
        "улучшения",
        -10.305858869673882
      ],
      [
        "членам",
        -10.306056802375792
      ],
      [
        "▁reference",
        -10.306788709770366
      ],
      [
        "▁Южно",
        -10.306946591369782
      ],
      [
        "▁Trade",
        -10.30723370994084
      ],
      [
        "▁потенциал",
        -10.307265897944246
      ],
      [
        "tended",
        -10.308508208086307
      ],
      [
        "▁page",
        -10.308747665215536
      ],
      [
        "statements",
        -10.309074929175459
      ],
      [
        "arrangements",
        -10.310168572589522
      ],
      [
        "▁статус",
        -10.31083041743849
      ],
      [
        "ны",
        -10.311036972184814
      ],
      [
        "▁critical",
        -10.311143905185974
      ],
      [
        "un",
        -10.311379215330216
      ],
      [
        "▁До",
        -10.312220850228389
      ],
      [
        "associated",
        -10.31322518453472
      ],
      [
        "▁структур",
        -10.313377897263562
      ],
      [
        "▁консультации",
        -10.313532171689674
      ],
      [
        "▁France",
        -10.31428389639522
      ],
      [
        "▁Секретариат",
        -10.314524522283298
      ],
      [
        "▁floor",
        -10.314824528695901
      ],
      [
        "ach",
        -10.315387558075491
      ],
      [
        "▁требует",
        -10.315438370818441
      ],
      [
        "Правительство",
        -10.316040722319737
      ],
      [
        "▁expert",
        -10.31617240006914
      ],
      [
        "▁appeal",
        -10.316310576333874
      ],
      [
        "означает",
        -10.316614159157737
      ],
      [
        "▁Crime",
        -10.317019663848725
      ],
      [
        "▁Support",
        -10.317229302553802
      ],
      [
        "▁Services",
        -10.317309064225043
      ],
      [
        "положении",
        -10.317402707457262
      ],
      [
        "longer",
        -10.317406032188577
      ],
      [
        "▁server",
        -10.318287719286253
      ],
      [
        "▁Н",
        -10.319564222271302
      ],
      [
        "стью",
        -10.319820100391235
      ],
      [
        "▁её",
        -10.320029221930834
      ],
      [
        "remains",
        -10.320176431762079
      ],
      [
        "▁commission",
        -10.320428310843043
      ],
      [
        "▁distribution",
        -10.320489209098445
      ],
      [
        "да",
        -10.320963648484371
      ],
      [
        "технического",
        -10.32109645917939
      ],
      [
        "▁Мисси",
        -10.321929243395008
      ],
      [
        "▁successful",
        -10.322081754301866
      ],
      [
        "ты",
        -10.322225894320459
      ],
      [
        "▁центр",
        -10.322293711659567
      ],
      [
        "everything",
        -10.32274370653409
      ],
      [
        "▁обращения",
        -10.322929716781513
      ],
      [
        "призвал",
        -10.32343579036066
      ],
      [
        "▁Such",
        -10.324122531182452
      ],
      [
        "▁contract",
        -10.32491051690117
      ],
      [
        "оружие",
        -10.325707705102891
      ],
      [
        "данной",
        -10.32600466151122
      ],
      [
        "Всемирной",
        -10.326847289772134
      ],
      [
        "paid",
        -10.327353465295651
      ],
      [
        "йти",
        -10.327531614239996
      ],
      [
        "▁важны",
        -10.32785077871931
      ],
      [
        "▁thousand",
        -10.328016718879422
      ],
      [
        "большая",
        -10.32840619835601
      ],
      [
        "▁достигнуты",
        -10.328563104418487
      ],
      [
        "attempt",
        -10.328776242548882
      ],
      [
        "▁disaster",
        -10.33056444366596
      ],
      [
        "потребности",
        -10.33081232363302
      ],
      [
        "▁перв",
        -10.331380987487588
      ],
      [
        "el",
        -10.331604294907995
      ],
      [
        "▁меньше",
        -10.332345123100787
      ],
      [
        "judicial",
        -10.332459092147328
      ],
      [
        "играть",
        -10.332664905404473
      ],
      [
        "▁HD",
        -10.332765768476083
      ],
      [
        "▁источников",
        -10.333265113659149
      ],
      [
        "▁institutional",
        -10.333365600306587
      ],
      [
        "услугам",
        -10.333729786827108
      ],
      [
        "▁научно",
        -10.334183801408852
      ],
      [
        "▁mass",
        -10.334598876171626
      ],
      [
        "CEF",
        -10.33490576354442
      ],
      [
        "▁Foundation",
        -10.335718327876654
      ],
      [
        "laws",
        -10.33659687560962
      ],
      [
        "▁table",
        -10.336626878408406
      ],
      [
        "▁частны",
        -10.336783816594068
      ],
      [
        "▁призыв",
        -10.336862464161387
      ],
      [
        "▁обзора",
        -10.336970441710983
      ],
      [
        "различным",
        -10.336974055032568
      ],
      [
        "▁сбор",
        -10.33724646036402
      ],
      [
        "▁культурны",
        -10.337607286571597
      ],
      [
        "▁стал",
        -10.33789264994497
      ],
      [
        "▁Интернет",
        -10.339045947272329
      ],
      [
        "includes",
        -10.339814447366253
      ],
      [
        "▁terrorist",
        -10.339870132779348
      ],
      [
        "вшихся",
        -10.33995005286349
      ],
      [
        "▁приоритет",
        -10.339982341618557
      ],
      [
        "овые",
        -10.34004338456603
      ],
      [
        "▁сумм",
        -10.340366601946657
      ],
      [
        "▁инвестиций",
        -10.341156406245721
      ],
      [
        "donor",
        -10.34192729121959
      ],
      [
        "ors",
        -10.342471970109361
      ],
      [
        "удовлетворение",
        -10.342686965932792
      ],
      [
        "settlement",
        -10.343314205760278
      ],
      [
        "показателей",
        -10.344173114547441
      ],
      [
        "▁Департамент",
        -10.344352047238415
      ],
      [
        "▁национальным",
        -10.345090457455719
      ],
      [
        "effectiveness",
        -10.345163272579834
      ],
      [
        "▁sent",
        -10.34524491491458
      ],
      [
        "▁lower",
        -10.34570696608479
      ],
      [
        "▁target",
        -10.345767410697702
      ],
      [
        "rates",
        -10.345849616788204
      ],
      [
        "▁обучения",
        -10.345859139295916
      ],
      [
        "▁замечания",
        -10.346364138051957
      ],
      [
        "▁внутри",
        -10.346380983954978
      ],
      [
        "ance",
        -10.346567933075558
      ],
      [
        "постановил",
        -10.34713207725681
      ],
      [
        "applied",
        -10.347431549105838
      ],
      [
        "▁informal",
        -10.34791600350021
      ],
      [
        "▁Вам",
        -10.348182033963225
      ],
      [
        "lthough",
        -10.348363362561441
      ],
      [
        "▁сельскохозяйств",
        -10.348725635911947
      ],
      [
        "АО",
        -10.348864621987046
      ],
      [
        "indicators",
        -10.34952238511608
      ],
      [
        "стало",
        -10.350603076818247
      ],
      [
        "▁base",
        -10.351410957354469
      ],
      [
        "▁centre",
        -10.351708961531484
      ],
      [
        "▁мандат",
        -10.351742742748954
      ],
      [
        "▁четко",
        -10.352112068691492
      ],
      [
        "▁включает",
        -10.3524852672683
      ],
      [
        "▁happen",
        -10.352671998097591
      ],
      [
        "▁join",
        -10.35301466411719
      ],
      [
        "Division",
        -10.353097738440804
      ],
      [
        "features",
        -10.353421682496203
      ],
      [
        "▁periodic",
        -10.35445862455665
      ],
      [
        "▁надлежаще",
        -10.35470216853981
      ],
      [
        "правило",
        -10.355299650026831
      ],
      [
        "▁states",
        -10.355968088660157
      ],
      [
        "▁представил",
        -10.355999182277369
      ],
      [
        "▁Р",
        -10.35600566493438
      ],
      [
        "▁сохраня",
        -10.356032520106654
      ],
      [
        "правительственны",
        -10.356040577163398
      ],
      [
        "данного",
        -10.357495448951385
      ],
      [
        "▁Center",
        -10.358025352462242
      ],
      [
        "▁Now",
        -10.358254214203182
      ],
      [
        "▁Фонд",
        -10.358499877592841
      ],
      [
        "series",
        -10.35856820513587
      ],
      [
        "▁гуманитарно",
        -10.358572827679277
      ],
      [
        "очередь",
        -10.358956004017106
      ],
      [
        "majority",
        -10.35908538410337
      ],
      [
        "национальные",
        -10.359171893092581
      ],
      [
        "▁запрос",
        -10.359325360043478
      ],
      [
        "▁Public",
        -10.359350534934272
      ],
      [
        "▁Верховно",
        -10.359806741432601
      ],
      [
        "▁действительно",
        -10.360244479090948
      ],
      [
        "Международной",
        -10.36048548091848
      ],
      [
        "Justice",
        -10.361006661681573
      ],
      [
        "▁Федерации",
        -10.361268292810719
      ],
      [
        "▁serve",
        -10.362058964837564
      ],
      [
        "▁Non",
        -10.362084329644563
      ],
      [
        "Serbia",
        -10.362523521908622
      ],
      [
        "находятся",
        -10.365154172198514
      ],
      [
        "из",
        -10.365561383114493
      ],
      [
        "▁первый",
        -10.366196417600545
      ],
      [
        "▁fair",
        -10.36681705785739
      ],
      [
        "Although",
        -10.367188750130683
      ],
      [
        "изменений",
        -10.36719444274839
      ],
      [
        "▁Ро",
        -10.367862690183504
      ],
      [
        "introduced",
        -10.367864653818614
      ],
      [
        "программу",
        -10.36809937080634
      ],
      [
        "▁paper",
        -10.368572472561912
      ],
      [
        "Несмотря",
        -10.369209051070166
      ],
      [
        "▁должности",
        -10.36943067650783
      ],
      [
        "▁expect",
        -10.369451610780477
      ],
      [
        "▁организация",
        -10.36947758705716
      ],
      [
        "org",
        -10.36959059978502
      ],
      [
        "▁Japan",
        -10.369858696375553
      ],
      [
        "интеграции",
        -10.369922712796967
      ],
      [
        "▁external",
        -10.370538107362924
      ],
      [
        "▁дело",
        -10.37098421735675
      ],
      [
        "▁Hotel",
        -10.3710720608302
      ],
      [
        "▁язык",
        -10.37109444938326
      ],
      [
        "▁делать",
        -10.372353004549735
      ],
      [
        "signed",
        -10.372515204816507
      ],
      [
        "▁требования",
        -10.37274783416937
      ],
      [
        "▁выступил",
        -10.372831782152142
      ],
      [
        "▁предложени",
        -10.373024036390358
      ],
      [
        "governance",
        -10.37305022438099
      ],
      [
        "▁Over",
        -10.373074095560586
      ],
      [
        "▁успех",
        -10.373350418124872
      ],
      [
        "aid",
        -10.37340944417566
      ],
      [
        "подхода",
        -10.373644495992266
      ],
      [
        "▁Review",
        -10.37428453009804
      ],
      [
        "▁серьезно",
        -10.374288286405486
      ],
      [
        "▁глобальны",
        -10.374826438546368
      ],
      [
        "▁alternative",
        -10.375059730035362
      ],
      [
        "▁преступлений",
        -10.376651457155592
      ],
      [
        "for",
        -10.37676495054919
      ],
      [
        "▁unique",
        -10.37685425113288
      ],
      [
        "Sudan",
        -10.377684223543689
      ],
      [
        "▁From",
        -10.378267454774514
      ],
      [
        "▁maintenance",
        -10.378510086751959
      ],
      [
        "▁контроль",
        -10.37873401089746
      ],
      [
        "seen",
        -10.378948497583838
      ],
      [
        "▁компания",
        -10.379314677322142
      ],
      [
        "iennium",
        -10.379517053265507
      ],
      [
        "▁delivery",
        -10.379836378744503
      ],
      [
        "овых",
        -10.38023512270145
      ],
      [
        "Чтобы",
        -10.38071912892376
      ],
      [
        "▁каким",
        -10.381158684759946
      ],
      [
        "growing",
        -10.381303770522733
      ],
      [
        "▁содействи",
        -10.381800681133125
      ],
      [
        "▁проведен",
        -10.381950618637294
      ],
      [
        "▁обмен",
        -10.382087141160527
      ],
      [
        "Некоторы",
        -10.382449923652052
      ],
      [
        "▁тесно",
        -10.382491279192031
      ],
      [
        "▁fail",
        -10.382548098408286
      ],
      [
        "▁будущем",
        -10.38291206671679
      ],
      [
        "▁hold",
        -10.382939445360716
      ],
      [
        "работает",
        -10.383439036089182
      ],
      [
        "▁industrial",
        -10.383457847682156
      ],
      [
        "▁press",
        -10.38392612296825
      ],
      [
        "▁Be",
        -10.384037153745703
      ],
      [
        "▁initial",
        -10.384810220843555
      ],
      [
        "▁Health",
        -10.38514810491198
      ],
      [
        "really",
        -10.385355207158835
      ],
      [
        "судебны",
        -10.385744027055477
      ],
      [
        "▁оборудования",
        -10.38591140176397
      ],
      [
        "▁привел",
        -10.386455570512494
      ],
      [
        "виду",
        -10.387043548193017
      ],
      [
        "housing",
        -10.387828019005477
      ],
      [
        "priorities",
        -10.388280202723179
      ],
      [
        "▁важн",
        -10.388824050061968
      ],
      [
        "scope",
        -10.38920107459937
      ],
      [
        "Fi",
        -10.38932784121992
      ],
      [
        "создании",
        -10.389913532594079
      ],
      [
        "▁согласи",
        -10.390090718035045
      ],
      [
        "factors",
        -10.390203808488067
      ],
      [
        "▁государству",
        -10.390654689119115
      ],
      [
        "▁номер",
        -10.390742761693502
      ],
      [
        "▁нем",
        -10.390809260843108
      ],
      [
        "▁открыто",
        -10.391463729348342
      ],
      [
        "▁использованием",
        -10.39163871064987
      ],
      [
        "тебе",
        -10.391796818495974
      ],
      [
        "▁respond",
        -10.391880721631233
      ],
      [
        "главным",
        -10.391887868345878
      ],
      [
        "▁undertake",
        -10.392007486016256
      ],
      [
        "▁эксплуатации",
        -10.392181564790212
      ],
      [
        "useful",
        -10.3922178107986
      ],
      [
        "▁должност",
        -10.392236080006223
      ],
      [
        "▁оперативно",
        -10.392464338149543
      ],
      [
        "▁мог",
        -10.392584386786584
      ],
      [
        "уголовного",
        -10.393433548499184
      ],
      [
        "▁веществ",
        -10.394014991892632
      ],
      [
        "▁Пакт",
        -10.394322357614945
      ],
      [
        "ShemaleTube",
        -10.394352504794984
      ],
      [
        "▁applications",
        -10.394626741947386
      ],
      [
        "▁Panel",
        -10.394675339298384
      ],
      [
        "▁форум",
        -10.39480909966153
      ],
      [
        "▁приложения",
        -10.395153606516292
      ],
      [
        "▁island",
        -10.395812818037344
      ],
      [
        "▁сделал",
        -10.39590156857178
      ],
      [
        "▁sound",
        -10.396203170209954
      ],
      [
        "сказать",
        -10.39688234760097
      ],
      [
        "▁УВК",
        -10.396918427666376
      ],
      [
        "▁ground",
        -10.397606365383004
      ],
      [
        "▁function",
        -10.398145267126326
      ],
      [
        "▁обраща",
        -10.398486444626437
      ],
      [
        "правовы",
        -10.399559302676488
      ],
      [
        "▁воздух",
        -10.39973190790506
      ],
      [
        "▁Not",
        -10.399903554336813
      ],
      [
        "районе",
        -10.399938211483763
      ],
      [
        "военных",
        -10.40024209383019
      ],
      [
        "ешь",
        -10.400936927322837
      ],
      [
        "▁легко",
        -10.401357855974767
      ],
      [
        "▁works",
        -10.401358883029918
      ],
      [
        "▁Protection",
        -10.401735208418614
      ],
      [
        "учета",
        -10.401852651071637
      ],
      [
        "true",
        -10.401975736964836
      ],
      [
        "▁Sea",
        -10.40209142481946
      ],
      [
        "▁urge",
        -10.402156866332973
      ],
      [
        "feel",
        -10.40225470801644
      ],
      [
        "оценке",
        -10.403151729656296
      ],
      [
        "▁aim",
        -10.403416666541537
      ],
      [
        "▁гражданско",
        -10.403632973134673
      ],
      [
        "планирования",
        -10.403899984584122
      ],
      [
        "▁Genev",
        -10.4042580482018
      ],
      [
        "▁topic",
        -10.405695637713057
      ],
      [
        "каждой",
        -10.405760440673928
      ],
      [
        "▁balance",
        -10.405959278003943
      ],
      [
        "Х",
        -10.406001076026037
      ],
      [
        "▁move",
        -10.40613141353057
      ],
      [
        "▁безопасность",
        -10.40625015791711
      ],
      [
        "proceeding",
        -10.406314915199351
      ],
      [
        "▁пыта",
        -10.406378386065942
      ],
      [
        "▁Канад",
        -10.406614525052058
      ],
      [
        "▁Server",
        -10.406704391067239
      ],
      [
        "▁fire",
        -10.406873304694624
      ],
      [
        "▁stay",
        -10.4070259407053
      ],
      [
        "важным",
        -10.407098407758525
      ],
      [
        "men",
        -10.407272095821934
      ],
      [
        "▁enhanc",
        -10.407767678246767
      ],
      [
        "ful",
        -10.407884377996721
      ],
      [
        "▁сами",
        -10.407885061712896
      ],
      [
        "объема",
        -10.408079276566824
      ],
      [
        "▁West",
        -10.40907987132037
      ],
      [
        "▁US",
        -10.409100606113025
      ],
      [
        "предприятий",
        -10.409163801363453
      ],
      [
        "деть",
        -10.409979588524418
      ],
      [
        "▁предоставлени",
        -10.409998517903817
      ],
      [
        "entities",
        -10.410462575592133
      ],
      [
        "▁IV",
        -10.410476714812718
      ],
      [
        "▁easi",
        -10.41067857645411
      ],
      [
        "▁фонд",
        -10.410717566465541
      ],
      [
        "▁улучшени",
        -10.411394414529093
      ],
      [
        "became",
        -10.411725057678302
      ],
      [
        "▁center",
        -10.41212133734092
      ],
      [
        "чь",
        -10.412391985380763
      ],
      [
        "ummit",
        -10.412467785291925
      ],
      [
        "▁онлайн",
        -10.413904599486724
      ],
      [
        "протяжении",
        -10.41401475474036
      ],
      [
        "▁fifty",
        -10.414308547172554
      ],
      [
        "▁наде",
        -10.414425278283353
      ],
      [
        "reached",
        -10.414694034316295
      ],
      [
        "▁Wi",
        -10.414905030217822
      ],
      [
        "▁exten",
        -10.415307066484933
      ],
      [
        "▁movement",
        -10.415415023673038
      ],
      [
        "мочь",
        -10.416755555751411
      ],
      [
        "▁sustain",
        -10.416867564599817
      ],
      [
        "NGO",
        -10.416918658517222
      ],
      [
        "▁Инди",
        -10.417214797241908
      ],
      [
        "▁Expert",
        -10.41726491092168
      ],
      [
        "▁Iran",
        -10.417315253125087
      ],
      [
        "выполнять",
        -10.417321185868902
      ],
      [
        "▁протокола",
        -10.417666679884093
      ],
      [
        "дополнительные",
        -10.417865091320985
      ],
      [
        "▁tell",
        -10.418085274279912
      ],
      [
        "jurisdiction",
        -10.418362185303584
      ],
      [
        "▁convention",
        -10.418819442226761
      ],
      [
        "▁Your",
        -10.41883970902349
      ],
      [
        "▁election",
        -10.41909625944834
      ],
      [
        "▁moment",
        -10.419197512733572
      ],
      [
        "leaders",
        -10.419726130409577
      ],
      [
        "▁сельски",
        -10.419748544744214
      ],
      [
        "▁четыре",
        -10.41981146607136
      ],
      [
        "состоянии",
        -10.419872775409782
      ],
      [
        "▁negative",
        -10.420729295800042
      ],
      [
        "offices",
        -10.420991173234746
      ],
      [
        "items",
        -10.421058146291989
      ],
      [
        "▁competition",
        -10.421120876827867
      ],
      [
        "▁никаки",
        -10.421550049087973
      ],
      [
        "▁Китая",
        -10.421555013445351
      ],
      [
        "продукции",
        -10.421725623549435
      ],
      [
        "vulnerabl",
        -10.42183969361496
      ],
      [
        "ar",
        -10.42285415525961
      ],
      [
        "▁см",
        -10.423731532605405
      ],
      [
        "▁сиськи",
        -10.423769966839583
      ],
      [
        "проведении",
        -10.425397901002679
      ],
      [
        "▁French",
        -10.42656588665205
      ],
      [
        "UN",
        -10.426695343915549
      ],
      [
        "▁attend",
        -10.427400583545843
      ],
      [
        "▁Goal",
        -10.427651127442786
      ],
      [
        "передачи",
        -10.42799249673081
      ],
      [
        "▁youth",
        -10.42854451372364
      ],
      [
        "финансовые",
        -10.428936144232704
      ],
      [
        "▁term",
        -10.429555465698279
      ],
      [
        "▁recommendation",
        -10.42974490299982
      ],
      [
        "▁Als",
        -10.42975577635229
      ],
      [
        "▁orgasm",
        -10.430022313482054
      ],
      [
        "ov",
        -10.430675978227477
      ],
      [
        "▁Permanent",
        -10.430712256891635
      ],
      [
        "difference",
        -10.430988593298968
      ],
      [
        "каких",
        -10.431116531592641
      ],
      [
        "чень",
        -10.431691296168092
      ],
      [
        "▁posts",
        -10.431741906584252
      ],
      [
        "▁фонда",
        -10.43282187393014
      ],
      [
        "▁представлен",
        -10.433462385189932
      ],
      [
        "skills",
        -10.433611810745528
      ],
      [
        "▁содержания",
        -10.433960308012034
      ],
      [
        "▁пятьдесят",
        -10.434070251761538
      ],
      [
        "relative",
        -10.434071243655044
      ],
      [
        "расходы",
        -10.435137624520097
      ],
      [
        "отдельных",
        -10.43528931610656
      ],
      [
        "▁основании",
        -10.435317407327714
      ],
      [
        "presence",
        -10.435496614466633
      ],
      [
        "▁интерес",
        -10.437580210185649
      ],
      [
        "▁let",
        -10.43760153102504
      ],
      [
        "▁arrest",
        -10.43776726238637
      ],
      [
        "▁Телефон",
        -10.43782984366844
      ],
      [
        "▁alia",
        -10.437949566525122
      ],
      [
        "▁чрезвычайно",
        -10.438081672742312
      ],
      [
        "CR",
        -10.43841130526667
      ],
      [
        "▁всеобъемлюще",
        -10.438464436452469
      ],
      [
        "▁устойчиво",
        -10.43859183644377
      ],
      [
        "▁extreme",
        -10.43882101135376
      ],
      [
        "ians",
        -10.438937490272844
      ],
      [
        "amendment",
        -10.439295954447013
      ],
      [
        "особы",
        -10.439312234477505
      ],
      [
        "detailed",
        -10.439724158350161
      ],
      [
        "▁Unit",
        -10.440762973028408
      ],
      [
        "данном",
        -10.440899391230367
      ],
      [
        "▁воздействие",
        -10.4411083469092
      ],
      [
        "▁оргазм",
        -10.441756165952501
      ],
      [
        "▁эффективны",
        -10.441800847043714
      ],
      [
        "повышение",
        -10.441858350684715
      ],
      [
        "занятости",
        -10.442139345568238
      ],
      [
        "▁run",
        -10.442333032918297
      ],
      [
        "achieving",
        -10.442473214668716
      ],
      [
        "▁Latvia",
        -10.442983985628784
      ],
      [
        "▁cover",
        -10.443223768850206
      ],
      [
        "▁труд",
        -10.443605945028539
      ],
      [
        "▁fight",
        -10.443930861772046
      ],
      [
        "constitute",
        -10.444179466750347
      ],
      [
        "операции",
        -10.444384291926845
      ],
      [
        "▁http",
        -10.444756666833392
      ],
      [
        "▁Canada",
        -10.444828630778632
      ],
      [
        "ought",
        -10.445356516995512
      ],
      [
        "▁предприятия",
        -10.445616447845586
      ],
      [
        "учреждениями",
        -10.445833318607415
      ],
      [
        "▁территори",
        -10.445947057398929
      ],
      [
        "▁специалистов",
        -10.446008803336255
      ],
      [
        "▁India",
        -10.44656548433459
      ],
      [
        "▁markets",
        -10.447166091401835
      ],
      [
        "▁договора",
        -10.447941668455583
      ],
      [
        "остается",
        -10.44806961563165
      ],
      [
        "▁advance",
        -10.44807942199605
      ],
      [
        "▁практике",
        -10.44837756158855
      ],
      [
        "▁sure",
        -10.44893325842112
      ],
      [
        "участника",
        -10.449202045253752
      ],
      [
        "▁максимально",
        -10.449754234390587
      ],
      [
        "▁Georgia",
        -10.45009624020092
      ],
      [
        "recall",
        -10.45021689412677
      ],
      [
        "частью",
        -10.451487564366232
      ],
      [
        "▁pressure",
        -10.451626373064068
      ],
      [
        "полного",
        -10.452155233421559
      ],
      [
        "▁призна",
        -10.452440636981581
      ],
      [
        "▁поправк",
        -10.452974206127173
      ],
      [
        "молодежи",
        -10.453677705494938
      ],
      [
        "▁игра",
        -10.453847573475976
      ],
      [
        "legislative",
        -10.455113789263404
      ],
      [
        "большое",
        -10.455377613144561
      ],
      [
        "▁assess",
        -10.455438360343516
      ],
      [
        "statistics",
        -10.455464587649537
      ],
      [
        "▁семей",
        -10.455535015628058
      ],
      [
        "▁нашего",
        -10.45600438097842
      ],
      [
        "▁Cooperation",
        -10.456072914369173
      ],
      [
        "▁месте",
        -10.456357006792928
      ],
      [
        "deed",
        -10.456815640265452
      ],
      [
        "мерах",
        -10.457067585595306
      ],
      [
        "подготовку",
        -10.457119221329616
      ],
      [
        "▁методо",
        -10.457349596870882
      ],
      [
        "▁obligation",
        -10.457460726373384
      ],
      [
        "решении",
        -10.45799834855316
      ],
      [
        "Islamic",
        -10.45853178861372
      ],
      [
        "▁Иран",
        -10.458631615219076
      ],
      [
        "ющейся",
        -10.45869680286444
      ],
      [
        "SR",
        -10.459034457828155
      ],
      [
        "функций",
        -10.459986476111762
      ],
      [
        "▁исключительно",
        -10.460181748106308
      ],
      [
        "▁York",
        -10.460718688070875
      ],
      [
        "▁Regional",
        -10.460833389294471
      ],
      [
        "▁EU",
        -10.460894533966785
      ],
      [
        "▁размер",
        -10.461011600062479
      ],
      [
        "▁вооружени",
        -10.461417638670724
      ],
      [
        "▁двум",
        -10.462278095368376
      ],
      [
        "▁cock",
        -10.462390105544825
      ],
      [
        "▁De",
        -10.462885918532145
      ],
      [
        "▁товаров",
        -10.463872682912873
      ],
      [
        "▁road",
        -10.464076457299601
      ],
      [
        "▁English",
        -10.464319369441448
      ],
      [
        "мигрантов",
        -10.46580276020293
      ],
      [
        "▁waste",
        -10.465963620905168
      ],
      [
        "▁Great",
        -10.466081604719832
      ],
      [
        "▁конце",
        -10.466683061367377
      ],
      [
        "Д",
        -10.466984170635957
      ],
      [
        "▁illegal",
        -10.467059744452424
      ],
      [
        "▁revis",
        -10.467508503450553
      ],
      [
        "▁меньшинств",
        -10.46871445646196
      ],
      [
        "ial",
        -10.46877575283325
      ],
      [
        "ized",
        -10.469225266283456
      ],
      [
        "▁tax",
        -10.469603556779282
      ],
      [
        "▁происхождения",
        -10.469690642956532
      ],
      [
        "▁мандата",
        -10.470496725511014
      ],
      [
        "views",
        -10.470710755052474
      ],
      [
        "▁Афганистан",
        -10.47076423558734
      ],
      [
        "▁малы",
        -10.471015935505205
      ],
      [
        "▁высоко",
        -10.471312319977683
      ],
      [
        "▁Many",
        -10.472008018306704
      ],
      [
        "честь",
        -10.472407778124829
      ],
      [
        "▁нужда",
        -10.472688755964953
      ],
      [
        "▁ядерны",
        -10.473402554776989
      ],
      [
        "▁determine",
        -10.473673640057449
      ],
      [
        "▁свобод",
        -10.4737922234993
      ],
      [
        "▁prior",
        -10.474669814684109
      ],
      [
        "▁прямо",
        -10.474676114823895
      ],
      [
        "СЕФ",
        -10.475378234593185
      ],
      [
        "миссии",
        -10.475544860491922
      ],
      [
        "▁связанно",
        -10.476392653056383
      ],
      [
        "solutions",
        -10.476650345953963
      ],
      [
        "▁investigation",
        -10.477640058212689
      ],
      [
        "линии",
        -10.477667703966858
      ],
      [
        "units",
        -10.477808834421744
      ],
      [
        "необходимых",
        -10.478231463703182
      ],
      [
        "▁народ",
        -10.478241508422045
      ],
      [
        "▁стреми",
        -10.478244809889517
      ],
      [
        "▁диалог",
        -10.478986668922945
      ],
      [
        "economie",
        -10.479058587686396
      ],
      [
        "▁форме",
        -10.479124221142582
      ],
      [
        "▁общество",
        -10.479507630167733
      ],
      [
        "▁Day",
        -10.480062310674363
      ],
      [
        "▁делает",
        -10.480180778990114
      ],
      [
        "дополнительных",
        -10.480520338827244
      ],
      [
        "schools",
        -10.480653759496592
      ],
      [
        "нарушение",
        -10.480901976317044
      ],
      [
        "начале",
        -10.481075901835194
      ],
      [
        "▁восстановления",
        -10.481557003108032
      ],
      [
        "tools",
        -10.481704878176089
      ],
      [
        "▁commercial",
        -10.481757289671464
      ],
      [
        "▁payment",
        -10.482077406439473
      ],
      [
        "могла",
        -10.482512124506501
      ],
      [
        "той",
        -10.482790964457317
      ],
      [
        "▁Island",
        -10.48300586976458
      ],
      [
        "▁bank",
        -10.48379603803256
      ],
      [
        "▁North",
        -10.48411112890674
      ],
      [
        "▁Судан",
        -10.484338012366326
      ],
      [
        "ate",
        -10.48481417288637
      ],
      [
        "ских",
        -10.484938647413491
      ],
      [
        "лишком",
        -10.485031798929581
      ],
      [
        "▁регистрации",
        -10.485356302979785
      ],
      [
        "▁thing",
        -10.485474646609433
      ],
      [
        "региональном",
        -10.486174145606064
      ],
      [
        "расширение",
        -10.486556379547967
      ],
      [
        "▁proper",
        -10.486908623788269
      ],
      [
        "▁государством",
        -10.486978312093287
      ],
      [
        "▁Доклад",
        -10.487021262403957
      ],
      [
        "▁вид",
        -10.487310678277836
      ],
      [
        "отметить",
        -10.487650785799698
      ],
      [
        "поощрения",
        -10.48767801967276
      ],
      [
        "▁указан",
        -10.487813166805958
      ],
      [
        "▁stakeholders",
        -10.488040042267153
      ],
      [
        "мнение",
        -10.48808766489478
      ],
      [
        "стандартов",
        -10.488207374962558
      ],
      [
        "▁продолжает",
        -10.488421310244439
      ],
      [
        "▁Фонда",
        -10.48847685824445
      ],
      [
        "▁Of",
        -10.488660981455775
      ],
      [
        "goods",
        -10.48910728849385
      ],
      [
        "▁имел",
        -10.48912908038067
      ],
      [
        "▁average",
        -10.489241990573369
      ],
      [
        "clearly",
        -10.490027888699823
      ],
      [
        "▁Casino",
        -10.491806889655718
      ],
      [
        "urgent",
        -10.491839608065874
      ],
      [
        "▁проблема",
        -10.491868858677105
      ],
      [
        "▁компаний",
        -10.491887667650426
      ],
      [
        "Т",
        -10.492303833202678
      ],
      [
        "▁оста",
        -10.492895686287516
      ],
      [
        "weapon",
        -10.493117628285223
      ],
      [
        "▁дети",
        -10.493328272634622
      ],
      [
        "▁lives",
        -10.4933393886718
      ],
      [
        "▁origin",
        -10.493666869961395
      ],
      [
        "way",
        -10.4937878404738
      ],
      [
        "▁книг",
        -10.494013763562785
      ],
      [
        "zone",
        -10.494546571815912
      ],
      [
        "▁конфликт",
        -10.494900652168546
      ],
      [
        "▁top",
        -10.495180457607807
      ],
      [
        "настоящего",
        -10.495871270381798
      ],
      [
        "▁permanent",
        -10.495894310221868
      ],
      [
        "Afghanistan",
        -10.495933963827396
      ],
      [
        "▁начина",
        -10.496699910183272
      ],
      [
        "ничего",
        -10.496726249102462
      ],
      [
        "▁encourag",
        -10.496841332932084
      ],
      [
[...]
