{
  "version": "1.0",
  "truncation": null,
  "padding": null,
  "added_tokens": [
    {
      "id": 0,
      "content": "<pad>",
      "single_word": false,
      "lstrip": false,
      "rstrip": false,
      "normalized": false,
      "special": true
    },
    {
      "id": 1,
      "content": "<s>",
      "single_word": false,
      "lstrip": false,
      "rstrip": false,
      "normalized": false,
      "special": true
    },
    {
      "id": 2,
      "content": "</s>",
      "single_word": false,
      "lstrip": false,
      "rstrip": false,
      "normalized": false,
      "special": true
    },
    {
      "id": 3,
      "content": "<unk>",
      "single_word": false,
      "lstrip": false,
      "rstrip": false,
      "normalized": false,
      "special": true
    },
    {
      "id": 4,
      "content": "<2ru>",
      "single_word": false,
      "lstrip": false,
      "rstrip": false,
      "normalized": false,
      "special": true
    },
    {
      "id": 5,
      "content": "<2en>",
      "single_word": false,
      "lstrip": false,
      "rstrip": false,
      "normalized": false,
      "special": true
    }
  ],
  "normalizer": {
    "type": "NFKC"
  },
  "pre_tokenizer": {
    "type": "Sequence",
    "pretokenizers": [
      {
        "type": "Metaspace",
        "replacement": "▁",
        "prepend_scheme": "always",
        "split": true
      },
      {
        "type": "Punctuation",
        "behavior": "Isolated"
      },
      {
        "type": "Digits",
        "individual_digits": true
      }
    ]
  },
  "post_processor": {
    "type": "TemplateProcessing",
    "single": [
      {
        "SpecialToken": {
          "id": "<s>",
          "type_id": 0
        }
      },
      {
        "Sequence": {
          "id": "A",
          "type_id": 0
        }
      },
      {
        "SpecialToken": {
          "id": "</s>",
          "type_id": 0
        }
      }
    ],
    "pair": [
      {
        "Sequence": {
          "id": "A",
          "type_id": 0
        }
      },
      {
        "Sequence": {
          "id": "B",
          "type_id": 1
        }
      }
    ],
    "special_tokens": {
      "</s>": {
        "id": "</s>",
        "ids": [
          2
        ],
        "tokens": [
          "</s>"
        ]
      },
      "<s>": {
        "id": "<s>",
        "ids": [
          1
        ],
        "tokens": [
          "<s>"
        ]
      }
    }
  },
  "decoder": {
    "type": "Metaspace",
    "replacement": "▁",
    "prepend_scheme": "always",
    "split": true
  },
  "model": {
    "type": "BPE",
    "dropout": null,
    "unk_token": null,
    "continuing_subword_prefix": null,
    "end_of_word_suffix": null,
    "fuse_unk": false,
    "byte_fallback": false,
    "ignore_merges": false,
    "vocab": {
      "<pad>": 0,
      "<s>": 1,
      "</s>": 2,
      "<unk>": 3,
      "<2ru>": 4,
      "<2en>": 5,
      "\t": 6,
      "\n": 7,
      "!": 8,
      "\"": 9,
      "#": 10,
      "%": 11,
      "&": 12,
      "'": 13,
      "(": 14,
      ")": 15,
      "*": 16,
      ",": 17,
      "-": 18,
      ".": 19,
      "/": 20,
      "0": 21,
      "1": 22,
      "2": 23,
      "3": 24,
      "4": 25,
      "5": 26,
      "6": 27,
      "7": 28,
      "8": 29,
      "9": 30,
      ":": 31,
      ";": 32,
      "<": 33,
      ">": 34,
      "?": 35,
      "@": 36,
      "A": 37,
      "B": 38,
      "C": 39,
      "D": 40,
      "E": 41,
      "F": 42,
      "G": 43,
      "H": 44,
      "I": 45,
      "J": 46,
      "K": 47,
      "L": 48,
      "M": 49,
      "N": 50,
      "O": 51,
      "P": 52,
      "Q": 53,
      "R": 54,
      "S": 55,
      "T": 56,
      "U": 57,
      "V": 58,
      "W": 59,
      "X": 60,
      "Y": 61,
      "Z": 62,
      "[": 63,
      "\\": 64,
      "]": 65,
      "_": 66,
      "a": 67,
      "b": 68,
      "c": 69,
      "d": 70,
      "e": 71,
      "f": 72,
      "g": 73,
      "h": 74,
      "i": 75,
      "j": 76,
      "k": 77,
      "l": 78,
      "m": 79,
      "n": 80,
      "o": 81,
      "p": 82,
      "q": 83,
      "r": 84,
      "s": 85,
      "t": 86,
      "u": 87,
      "v": 88,
      "w": 89,
      "x": 90,
      "y": 91,
      "z": 92,
      "{": 93,
      "}": 94,
      "¡": 95,
      "§": 96,
      "«": 97,
      "¶": 98,
      "·": 99,
      "»": 100,
      "¿": 101,
      "À": 102,
      "Á": 103,
      "Â": 104,
      "Ã": 105,
      "Ä": 106,
      "Å": 107,
      "Æ": 108,
      "Ç": 109,
      "È": 110,
      "É": 111,
      "Ê": 112,
      "Ë": 113,
      "Ì": 114,
      "Í": 115,
      "Î": 116,
      "Ï": 117,
      "Ð": 118,
      "Ñ": 119,
      "Ò": 120,
      "Ó": 121,
      "Ô": 122,
      "Õ": 123,
      "Ö": 124,
      "Ø": 125,
      "Ù": 126,
      "Ú": 127,
      "Û": 128,
      "Ü": 129,
      "Ý": 130,
      "Þ": 131,
      "ß": 132,
      "à": 133,
      "á": 134,
      "â": 135,
      "ã": 136,
      "ä": 137,
      "å": 138,
      "æ": 139,
      "ç": 140,
      "è": 141,
      "é": 142,
      "ê": 143,
      "ë": 144,
      "ì": 145,
      "í": 146,
      "î": 147,
      "ï": 148,
      "ð": 149,
      "ñ": 150,
      "ò": 151,
      "ó": 152,
      "ô": 153,
      "õ": 154,
      "ö": 155,
      "ø": 156,
      "ù": 157,
      "ú": 158,
      "û": 159,
      "ü": 160,
      "ý": 161,
      "þ": 162,
      "ÿ": 163,
      "Ā": 164,
      "ā": 165,
      "Ă": 166,
      "ă": 167,
      "Ą": 168,
      "ą": 169,
      "Ć": 170,
      "ć": 171,
      "ĉ": 172,
      "ċ": 173,
      "Č": 174,
      "č": 175,
      "Ď": 176,
      "ď": 177,
      "Đ": 178,
      "đ": 179,
      "Ē": 180,
      "ē": 181,
      "ĕ": 182,
      "Ė": 183,
      "ė": 184,
      "Ę": 185,
      "ę": 186,
      "Ě": 187,
      "ě": 188,
      "ĝ": 189,
      "Ğ": 190,
      "ğ": 191,
      "ġ": 192,
      "Ģ": 193,
      "ģ": 194,
      "Ħ": 195,
      "ĩ": 196,
      "Ī": 197,
      "ī": 198,
      "Į": 199,
      "į": 200,
      "İ": 201,
      "ı": 202,
      "Ķ": 203,
      "ķ": 204,
      "ĸ": 205,
      "Ĺ": 206,
      "ĺ": 207,
      "Ļ": 208,
      "ļ": 209,
      "Ľ": 210,
      "ľ": 211,
      "Ł": 212,
      "ł": 213,
      "Ń": 214,
      "ń": 215,
      "Ņ": 216,
      "ņ": 217,
      "Ň": 218,
      "ň": 219,
      "ŋ": 220,
      "Ō": 221,
      "ō": 222,
      "ŏ": 223,
      "Ő": 224,
      "ő": 225,
      "Œ": 226,
      "œ": 227,
      "ŕ": 228,
      "ŗ": 229,
      "Ř": 230,
      "ř": 231,
      "Ś": 232,
      "ś": 233,
      "ŝ": 234,
      "Ş": 235,
      "ş": 236,
      "Š": 237,
      "š": 238,
      "Ţ": 239,
      "ţ": 240,
      "Ť": 241,
      "ť": 242,
      "Ū": 243,
      "ū": 244,
      "ŭ": 245,
      "Ů": 246,
      "ů": 247,
      "Ű": 248,
      "ű": 249,
      "Ų": 250,
      "ų": 251,
      "ŵ": 252,
      "ŷ": 253,
      "Ÿ": 254,
      "Ź": 255,
      "ź": 256,
      "Ż": 257,
      "ż": 258,
      "Ž": 259,
      "ž": 260,
      "Ə": 261,
      "ƒ": 262,
      "ơ": 263,
      "ư": 264,
      "ǂ": 265,
      "ǎ": 266,
      "ǐ": 267,
      "ǧ": 268,
      "Ǻ": 269,
      "ȏ": 270,
      "Ș": 271,
      "ș": 272,
      "Ț": 273,
      "ț": 274,
      "ə": 275,
      "ɛ": 276,
      "ɜ": 277,
      "ʔ": 278,
      "ʕ": 279,
      "̳": 280,
      "Ё": 281,
      "Ђ": 282,
      "Ѓ": 283,
      "Є": 284,
      "Ѕ": 285,
      "І": 286,
      "Ї": 287,
      "Ј": 288,
      "Љ": 289,
      "Њ": 290,
      "Ћ": 291,
      "Ќ": 292,
      "Ў": 293,
      "Џ": 294,
      "А": 295,
      "Б": 296,
      "В": 297,
      "Г": 298,
      "Д": 299,
      "Е": 300,
      "Ж": 301,
      "З": 302,
      "И": 303,
      "Й": 304,
      "К": 305,
      "Л": 306,
      "М": 307,
      "Н": 308,
      "О": 309,
      "П": 310,
      "Р": 311,
      "С": 312,
      "Т": 313,
      "У": 314,
      "Ф": 315,
      "Х": 316,
      "Ц": 317,
      "Ч": 318,
      "Ш": 319,
      "Щ": 320,
      "Ъ": 321,
      "Ы": 322,
      "Ь": 323,
      "Э": 324,
      "Ю": 325,
      "Я": 326,
      "а": 327,
      "б": 328,
      "в": 329,
      "г": 330,
      "д": 331,
      "е": 332,
      "ж": 333,
      "з": 334,
      "и": 335,
      "й": 336,
      "к": 337,
      "л": 338,
      "м": 339,
      "н": 340,
      "о": 341,
      "п": 342,
      "р": 343,
      "с": 344,
      "т": 345,
      "у": 346,
      "ф": 347,
      "х": 348,
      "ц": 349,
      "ч": 350,
      "ш": 351,
      "щ": 352,
      "ъ": 353,
      "ы": 354,
      "ь": 355,
      "э": 356,
      "ю": 357,
      "я": 358,
      "ѐ": 359,
      "ё": 360,
      "ђ": 361,
      "ѓ": 362,
      "є": 363,
      "ѕ": 364,
      "і": 365,
      "ї": 366,
      "ј": 367,
      "љ": 368,
      "њ": 369,
      "ћ": 370,
      "ќ": 371,
      "ѝ": 372,
      "ў": 373,
      "џ": 374,
      "ѣ": 375,
      "Ѧ": 376,
      "Ѭ": 377,
      "Ѳ": 378,
      "ѳ": 379,
      "ѵ": 380,
      "҈": 381,
      "҉": 382,
      "Ҍ": 383,
      "ҍ": 384,
      "ґ": 385,
      "Ғ": 386,
      "ғ": 387,
      "Җ": 388,
      "Қ": 389,
      "қ": 390,
      "Ң": 391,
      "ң": 392,
      "Ү": 393,
      "ү": 394,
      "Ұ": 395,
      "ұ": 396,
      "Ҳ": 397,
      "ҷ": 398,
      "һ": 399,
      "Ә": 400,
      "ә": 401,
      "Ӟ": 402,
      "ӣ": 403,
      "ӥ": 404,
      "Ө": 405,
      "ө": 406,
      "ӯ": 407,
      "՛": 408,
      "՝": 409,
      "։": 410,
      "٧": 411,
      "٬": 412,
      "٭": 413,
      "ᴓ": 414,
      "ᴥ": 415,
      "ḍ": 416,
      "Ḥ": 417,
      "ḥ": 418,
      "Ḩ": 419,
      "ḩ": 420,
      "ḷ": 421,
      "ṁ": 422,
      "ṃ": 423,
      "ṅ": 424,
      "ṇ": 425,
      "Ṛ": 426,
      "ṛ": 427,
      "Ṣ": 428,
      "ṣ": 429,
      "ṧ": 430,
      "Ṭ": 431,
      "ṭ": 432,
      "ṯ": 433,
      "ẕ": 434,
      "ạ": 435,
      "ả": 436,
      "ấ": 437,
      "ẩ": 438,
      "ậ": 439,
      "ẻ": 440,
      "ế": 441,
      "ề": 442,
      "ễ": 443,
      "ệ": 444,
      "ồ": 445,
      "ộ": 446,
      "ợ": 447,
      "ứ": 448,
      "‐": 449,
      "‒": 450,
      "–": 451,
      "—": 452,
      "―": 453,
      "‖": 454,
      "‘": 455,
      "’": 456,
      "‚": 457,
      "‛": 458,
      "“": 459,
      "”": 460,
      "„": 461,
      "‟": 462,
      "†": 463,
      "‡": 464,
      "•": 465,
      "‣": 466,
      "‧": 467,
      "‰": 468,
      "′": 469,
      "‹": 470,
      "›": 471,
      "※": 472,
      "⁄": 473,
      "▁": 474,
      "❶": 475,
      "❷": 476,
      "➀": 477,
      "➁": 478,
      "➃": 479,
      "➄": 480,
      "➆": 481,
      "➊": 482,
      "➋": 483,
      "➍": 484,
      "➏": 485,
      "⟨": 486,
      "⟩": 487,
      "。": 488,
      "〇": 489,
      "〈": 490,
      "〉": 491,
      "《": 492,
      "》": 493,
      "」": 494,
      "『": 495,
      "』": 496,
      "【": 497,
      "】": 498,
      "・": 499,
      "▁t": 500,
      "▁a": 501,
      "he": 502,
      "▁п": 503,
      "ст": 504,
      "in": 505,
      "on": 506,
      "ен": 507,
      "▁the": 508,
      "re": 509,
      "▁в": 510,
      "но": 511,
      "ti": 512,
      "ра": 513,
      "▁с": 514,
      "▁o": 515,
      "▁и": 516,
      "er": 517,
      "en": 518,
      "▁о": 519,
      "на": 520,
      "ро": 521,
      "ре": 522,
      "то": 523,
      "▁of": 524,
      "ко": 525,
      "nd": 526,
      "▁s": 527,
      "es": 528,
      "or": 529,
      "▁c": 530,
      "ни": 531,
      "го": 532,
      "al": 533,
      "tion": 534,
      "▁p": 535,
      "ны": 536,
      "it": 537,
      "▁по": 538,
      "ed": 539,
      "ени": 540,
      "▁in": 541,
      "ль": 542,
      "▁д": 543,
      "▁w": 544,
      "at": 545,
      "is": 546,
      "an": 547,
      "те": 548,
      "ва": 549,
      "▁and": 550,
      "ли": 551,
      "▁f": 552,
      "ing": 553,
      "ar": 554,
      "▁to": 555,
      "ри": 556,
      "ет": 557,
      "ци": 558,
      "▁b": 559,
      "ou": 560,
      "▁на": 561,
      "за": 562,
      "▁м": 563,
      "ation": 564,
      "во": 565,
      "ка": 566,
      "▁m": 567,
      "ent": 568,
      "ro": 569,
      "▁d": 570,
      "не": 571,
      "ic": 572,
      "▁re": 573,
      "ла": 574,
      "да": 575,
      "та": 576,
      "le": 577,
      "ми": 578,
      "ти": 579,
      "ть": 580,
      "▁у": 581,
      "▁б": 582,
      "ле": 583,
      "ер": 584,
      "ло": 585,
      "om": 586,
      "ec": 587,
      "ки": 588,
      "as": 589,
      "ви": 590,
      "▁со": 591,
      "▁ко": 592,
      "▁ч": 593,
      "ля": 594,
      "ес": 595,
      "▁th": 596,
      "ve": 597,
      "▁ра": 598,
      "▁про": 599,
      "▁h": 600,
      "ения": 601,
      "il": 602,
      "сти": 603,
      "ру": 604,
      "▁T": 605,
      "ся": 606,
      "ных": 607,
      "▁об": 608,
      "▁S": 609,
      "ment": 610,
      "▁n": 611,
      "▁C": 612,
      "▁e": 613,
      "▁A": 614,
      "▁не": 615,
      "st": 616,
      "ди": 617,
      "ем": 618,
      "ста": 619,
      "▁за": 620,
      "ce": 621,
      "ra": 622,
      "ред": 623,
      "▁for": 624,
      "▁I": 625,
      "▁э": 626,
      "ств": 627,
      "ol": 628,
      "▁до": 629,
      "▁при": 630,
      "ri": 631,
      "мо": 632,
      "▁on": 633,
      "щи": 634,
      "ей": 635,
      "тель": 636,
      "si": 637,
      "▁pro": 638,
      "по": 639,
      "ly": 640,
      "ur": 641,
      "ма": 642,
      "▁be": 643,
      "lo": 644,
      "ду": 645,
      "▁con": 646,
      "▁го": 647,
      "▁от": 648,
      "ции": 649,
      "га": 650,
      "▁ре": 651,
      "бо": 652,
      "ве": 653,
      "ного": 654,
      "до": 655,
      "▁во": 656,
      "▁а": 657,
      "ter": 658,
      "си": 659,
      "▁к": 660,
      "ной": 661,
      "se": 662,
      "▁that": 663,
      "ts": 664,
      "▁g": 665,
      "▁С": 666,
      "im": 667,
      "▁is": 668,
      "▁К": 669,
      "▁В": 670,
      "ча": 671,
      "су": 672,
      "▁The": 673,
      "▁P": 674,
      "зо": 675,
      "▁О": 676,
      "ver": 677,
      "▁что": 678,
      "сто": 679,
      "со": 680,
      "ение": 681,
      "▁П": 682,
      "▁l": 683,
      "▁M": 684,
      "ры": 685,
      "ul": 686,
      "ot": 687,
      "et": 688,
      "хо": 689,
      "ith": 690,
      "де": 691,
      "ги": 692,
      "ir": 693,
      "чи": 694,
      "▁ка": 695,
      "id": 696,
      "▁u": 697,
      "ac": 698,
      "ные": 699,
      "▁as": 700,
      "▁with": 701,
      "ate": 702,
      "▁пред": 703,
      "лю": 704,
      "▁вы": 705,
      "▁то": 706,
      "ig": 707,
      "ще": 708,
      "ad": 709,
      "чес": 710,
      "се": 711,
      "ut": 712,
      "▁it": 713,
      "мен": 714,
      "▁de": 715,
      "же": 716,
      "▁st": 717,
      "вани": 718,
      "ity": 719,
      "са": 720,
      "uc": 721,
      "ме": 722,
      "▁ме": 723,
      "лу": 724,
      "ности": 725,
      "▁раз": 726,
      "па": 727,
      "▁Н": 728,
      "res": 729,
      "▁al": 730,
      "▁R": 731,
      "ую": 732,
      "el": 733,
      "ort": 734,
      "ты": 735,
      "▁y": 736,
      "▁г": 737,
      "ab": 738,
      "▁для": 739,
      "ations": 740,
      "стра": 741,
      "ек": 742,
      "▁та": 743,
      "жи": 744,
      "вл": 745,
      "pp": 746,
      "▁com": 747,
      "▁бы": 748,
      "сть": 749,
      "▁пра": 750,
      "▁D": 751,
      "ско": 752,
      "▁мо": 753,
      "tic": 754,
      "ства": 755,
      "▁под": 756,
      "вы": 757,
      "▁те": 758,
      "▁G": 759,
      "um": 760,
      "em": 761,
      "her": 762,
      "▁or": 763,
      "am": 764,
      "▁ac": 765,
      "ay": 766,
      "▁кото": 767,
      "ers": 768,
      "▁an": 769,
      "▁U": 770,
      "▁by": 771,
      "▁N": 772,
      "ld": 773,
      "ши": 774,
      "пе": 775,
      "▁ex": 776,
      "▁из": 777,
      "▁wh": 778,
      "ff": 779,
      "▁ф": 780,
      "ня": 781,
      "ор": 782,
      "ge": 783,
      "ство": 784,
      "qu": 785,
      "ess": 786,
      "▁E": 787,
      "▁е": 788,
      "ку": 789,
      "ain": 790,
      "ту": 791,
      "ный": 792,
      "▁are": 793,
      "▁М": 794,
      "oun": 795,
      "му": 796,
      "us": 797,
      "▁де": 798,
      "▁F": 799,
      "▁B": 800,
      "▁это": 801,
      "зи": 802,
      "▁W": 803,
      "жа": 804,
      "▁А": 805,
      "ere": 806,
      "▁H": 807,
      "рга": 808,
      "ется": 809,
      "▁ин": 810,
      "ial": 811,
      "ow": 812,
      "вет": 813,
      "ist": 814,
      "od": 815,
      "▁v": 816,
      "our": 817,
      "op": 818,
      "ют": 819,
      "▁т": 820,
      "он": 821,
      "▁en": 822,
      "че": 823,
      "про": 824,
      "▁Г": 825,
      "▁par": 826,
      "це": 827,
      "аль": 828,
      "▁su": 829,
      "ря": 830,
      "ational": 831,
      "енных": 832,
      "▁кон": 833,
      "oc": 834,
      "▁at": 835,
      "ill": 836,
      "▁res": 837,
      "ak": 838,
      "th": 839,
      "▁In": 840,
      "ным": 841,
      "ud": 842,
      "sion": 843,
      "gh": 844,
      "▁O": 845,
      "тов": 846,
      "▁я": 847,
      "un": 848,
      "and": 849,
      "ion": 850,
      "об": 851,
      "стви": 852,
      "est": 853,
      "вер": 854,
      "▁сво": 855,
      "гра": 856,
      "▁im": 857,
      "▁Д": 858,
      "ров": 859,
      "сь": 860,
      "iz": 861,
      "вля": 862,
      "ких": 863,
      "ющи": 864,
      "вать": 865,
      "tive": 866,
      "ении": 867,
      "спо": 868,
      "te": 869,
      "ew": 870,
      "▁not": 871,
      "ure": 872,
      "rom": 873,
      "▁стра": 874,
      "ore": 875,
      "▁На": 876,
      "ties": 877,
      "▁так": 878,
      "omm": 879,
      "▁пе": 880,
      "мы": 881,
      "ргани": 882,
      "ан": 883,
      "сле": 884,
      "▁he": 885,
      "ность": 886,
      "бы": 887,
      "тив": 888,
      "▁Р": 889,
      "дер": 890,
      "▁И": 891,
      "end": 892,
      "▁ad": 893,
      "▁St": 894,
      "▁was": 895,
      "пра": 896,
      "▁которы": 897,
      "ould": 898,
      "▁imp": 899,
      "ary": 900,
      "зна": 901,
      "ций": 902,
      "if": 903,
      "▁sh": 904,
      "▁from": 905,
      "▁L": 906,
      "жду": 907,
      "tern": 908,
      "▁рас": 909,
      "ep": 910,
      "ance": 911,
      "дар": 912,
      "▁все": 913,
      "ное": 914,
      "рганиза": 915,
      "ению": 916,
      "▁Б": 917,
      "она": 918,
      "вания": 919,
      "▁бо": 920,
      "▁но": 921,
      "▁ha": 922,
      "pec": 923,
      "▁le": 924,
      "os": 925,
      "▁ми": 926,
      "ну": 927,
      "▁ста": 928,
      "ция": 929,
      "▁its": 930,
      "ствен": 931,
      "▁ag": 932,
      "ated": 933,
      "лен": 934,
      "▁си": 935,
      "жен": 936,
      "ount": 937,
      "▁ли": 938,
      "дин": 939,
      "▁inc": 940,
      "ther": 941,
      "lop": 942,
      "ted": 943,
      "род": 944,
      "ork": 945,
      "velop": 946,
      "rou": 947,
      "▁года": 948,
      "ния": 949,
      "ber": 950,
      "▁ch": 951,
      "▁rep": 952,
      "▁cont": 953,
      "ard": 954,
      "▁Т": 955,
      "ies": 956,
      "tions": 957,
      "ant": 958,
      "orm": 959,
      "all": 960,
      "▁или": 961,
      "▁you": 962,
      "▁Ко": 963,
      "ich": 964,
      "ven": 965,
      "пи": 966,
      "igh": 967,
      "▁Un": 968,
      "lic": 969,
      "▁воз": 970,
      "ip": 971,
      "ческо": 972,
      "▁ма": 973,
      "ном": 974,
      "▁me": 975,
      "ная": 976,
      "▁comp": 977,
      "ке": 978,
      "▁как": 979,
      "▁пре": 980,
      "от": 981,
      "ше": 982,
      "судар": 983,
      "▁также": 984,
      "нов": 985,
      "жд": 986,
      "ited": 987,
      "▁have": 988,
      "ia": 989,
      "би": 990,
      "ust": 991,
      "▁между": 992,
      "сту": 993,
      "ch": 994,
      "ren": 995,
      "ub": 996,
      "▁Comm": 997,
      "каза": 998,
      "▁which": 999,
      "over": 1000,
      "able": 1001,
      "ap": 1002,
      "▁бу": 1003,
      "▁this": 1004,
      "▁will": 1005,
      "gra": 1006,
      "фор": 1007,
      "ments": 1008,
      "▁По": 1009,
      "form": 1010,
      "▁reg": 1011,
      "▁государ": 1012,
      "▁су": 1013,
      "ений": 1014,
      "▁develop": 1015,
      "ональ": 1016,
      "▁their": 1017,
      "вя": 1018,
      "клю": 1019,
      "ществ": 1020,
      "един": 1021,
      "ates": 1022,
      "▁разви": 1023,
      "зы": 1024,
      "▁рабо": 1025,
      "▁бе": 1026,
      "ran": 1027,
      "цен": 1028,
      "▁ва": 1029,
      "ными": 1030,
      "ities": 1031,
      "стоя": 1032,
      "▁Со": 1033,
      "▁all": 1034,
      "per": 1035,
      "▁це": 1036,
      "ходи": 1037,
      "iv": 1038,
      "ous": 1039,
      "▁вопро": 1040,
      "ternational": 1041,
      "▁дол": 1042,
      "▁предста": 1043,
      "ран": 1044,
      "▁Об": 1045,
      "▁ос": 1046,
      "народ": 1047,
      "ear": 1048,
      "▁че": 1049,
      "лож": 1050,
      "▁dis": 1051,
      "▁app": 1052,
      "age": 1053,
      "сси": 1054,
      "ние": 1055,
      "▁Con": 1056,
      "ван": 1057,
      "▁J": 1058,
      "eral": 1059,
      "▁has": 1060,
      "пу": 1061,
      "▁we": 1062,
      "гу": 1063,
      "▁обес": 1064,
      "ски": 1065,
      "циаль": 1066,
      "ord": 1067,
      "ления": 1068,
      "нима": 1069,
      "▁пере": 1070,
      "тия": 1071,
      "ct": 1072,
      "▁United": 1073,
      "фи": 1074,
      "рганизации": 1075,
      "▁prov": 1076,
      "▁count": 1077,
      "▁pl": 1078,
      "▁int": 1079,
      "чески": 1080,
      "▁per": 1081,
      "ене": 1082,
      "кла": 1083,
      "▁Э": 1084,
      "ost": 1085,
      "▁ни": 1086,
      "▁дру": 1087,
      "вед": 1088,
      "▁acc": 1089,
      "▁se": 1090,
      "sid": 1091,
      "▁comm": 1092,
      "▁па": 1093,
      "ace": 1094,
      "▁rec": 1095,
      "low": 1096,
      "жно": 1097,
      "▁У": 1098,
      "ков": 1099,
      "duc": 1100,
      "ную": 1101,
      "▁K": 1102,
      "▁ne": 1103,
      "ry": 1104,
      "ire": 1105,
      "so": 1106,
      "ine": 1107,
      "ща": 1108,
      "ress": 1109,
      "▁ri": 1110,
      "▁обеспе": 1111,
      "▁ab": 1112,
      "дни": 1113,
      "ice": 1114,
      "▁pre": 1115,
      "ды": 1116,
      "ence": 1117,
      "при": 1118,
      "▁их": 1119,
      "lud": 1120,
      "og": 1121,
      "ъедин": 1122,
      "▁пу": 1123,
      "ome": 1124,
      "раль": 1125,
      "руп": 1126,
      "▁k": 1127,
      "ty": 1128,
      "ag": 1129,
      "tiv": 1130,
      "бе": 1131,
      "ution": 1132,
      "▁sec": 1133,
      "▁work": 1134,
      "емы": 1135,
      "▁ча": 1136,
      "ces": 1137,
      "nder": 1138,
      "hen": 1139,
      "зу": 1140,
      "коно": 1141,
      "ответ": 1142,
      "▁ar": 1143,
      "▁ком": 1144,
      "▁обра": 1145,
      "▁его": 1146,
      "▁other": 1147,
      "мите": 1148,
      "витель": 1149,
      "▁righ": 1150,
      "лее": 1151,
      "▁man": 1152,
      "▁хо": 1153,
      "грам": 1154,
      "▁Е": 1155,
      "ба": 1156,
      "uman": 1157,
      "▁испо": 1158,
      "▁Объедин": 1159,
      "ild": 1160,
      "ются": 1161,
      "erv": 1162,
      "overn": 1163,
      "вой": 1164,
      "▁соответ": 1165,
      "▁un": 1166,
      "eneral": 1167,
      "▁can": 1168,
      "гла": 1169,
      "▁обла": 1170,
      "min": 1171,
      "▁которые": 1172,
      "ша": 1173,
      "gan": 1174,
      "ействи": 1175,
      "▁международ": 1176,
      "▁r": 1177,
      "лове": 1178,
      "tee": 1179,
      "li": 1180,
      "▁Nations": 1181,
      "pport": 1182,
      "▁свя": 1183,
      "▁j": 1184,
      "▁eff": 1185,
      "▁чтобы": 1186,
      "▁осу": 1187,
      "чен": 1188,
      "▁отно": 1189,
      "▁had": 1190,
      "▁Объединенных": 1191,
      "▁Наций": 1192,
      "лей": 1193,
      "▁lo": 1194,
      "ign": 1195,
      "▁pe": 1196,
      "ast": 1197,
      "ца": 1198,
      "are": 1199,
      "▁з": 1200,
      "▁се": 1201,
      "ис": 1202,
      "▁also": 1203,
      "мот": 1204,
      "мя": 1205,
      "правл": 1206,
      "ue": 1207,
      "ха": 1208,
      "нк": 1209,
      "▁V": 1210,
      "ble": 1211,
      "ical": 1212,
      "тся": 1213,
      "форма": 1214,
      "ться": 1215,
      "чения": 1216,
      "▁Организации": 1217,
      "льзо": 1218,
      "ittee": 1219,
      "▁челове": 1220,
      "▁ус": 1221,
      "▁са": 1222,
      "uch": 1223,
      "▁includ": 1224,
      "ries": 1225,
      "▁international": 1226,
      "▁were": 1227,
      "ide": 1228,
      "▁under": 1229,
      "том": 1230,
      "▁pol": 1231,
      "▁been": 1232,
      "пас": 1233,
      "нии": 1234,
      "бле": 1235,
      "▁явля": 1236,
      "шения": 1237,
      "out": 1238,
      "жда": 1239,
      "ree": 1240,
      "пол": 1241,
      "ong": 1242,
      "▁после": 1243,
      "дов": 1244,
      "сам": 1245,
      "ющих": 1246,
      "▁слу": 1247,
      "▁осуществ": 1248,
      "▁Th": 1249,
      "▁лю": 1250,
      "мер": 1251,
      "▁Committee": 1252,
      "ult": 1253,
      "рен": 1254,
      "▁сек": 1255,
      "ian": 1256,
      "ission": 1257,
      "пы": 1258,
      "ell": 1259,
      "дет": 1260,
      "ской": 1261,
      "me": 1262,
      "ual": 1263,
      "▁co": 1264,
      "▁поли": 1265,
      "ак": 1266,
      "жет": 1267,
      "▁ind": 1268,
      "lement": 1269,
      "▁вре": 1270,
      "▁Ch": 1271,
      "▁tra": 1272,
      "циональ": 1273,
      "▁фи": 1274,
      "ech": 1275,
      "▁ве": 1276,
      "gram": 1277,
      "▁ис": 1278,
      "сов": 1279,
      "di": 1280,
      "вание": 1281,
      "▁информа": 1282,
      "▁As": 1283,
      "▁Sec": 1284,
      "стро": 1285,
      "▁зна": 1286,
      "ublic": 1287,
      "▁us": 1288,
      "ase": 1289,
      "еся": 1290,
      "▁приня": 1291,
      "▁програм": 1292,
      "ric": 1293,
      "ision": 1294,
      "reat": 1295,
      "▁ass": 1296,
      "сы": 1297,
      "▁sub": 1298,
      "зво": 1299,
      "тру": 1300,
      "ganiz": 1301,
      "resent": 1302,
      "ose": 1303,
      "ish": 1304,
      "бли": 1305,
      "лы": 1306,
      "смот": 1307,
      "льта": 1308,
      "▁Кон": 1309,
      "jec": 1310,
      "▁inform": 1311,
      "зда": 1312,
      "ake": 1313,
      "▁States": 1314,
      "▁ро": 1315,
      "ors": 1316,
      "щих": 1317,
      "цион": 1318,
      "кра": 1319,
      "чение": 1320,
      "ением": 1321,
      "обходи": 1322,
      "▁помо": 1323,
      "▁том": 1324,
      "▁сист": 1325,
      "▁partic": 1326,
      "yst": 1327,
      "цию": 1328,
      "ствую": 1329,
      "ского": 1330,
      "▁З": 1331,
      "▁поддер": 1332,
      "▁други": 1333,
      "▁Ф": 1334,
      "▁докла": 1335,
      "▁should": 1336,
      "▁exp": 1337,
      "▁It": 1338,
      "ети": 1339,
      "▁эти": 1340,
      "ail": 1341,
      "▁sp": 1342,
      "▁out": 1343,
      "tit": 1344,
      "▁ви": 1345,
      "▁сред": 1346,
      "▁боль": 1347,
      "aw": 1348,
      "▁report": 1349,
      "вых": 1350,
      "onom": 1351,
      "▁сто": 1352,
      "▁dec": 1353,
      "кономи": 1354,
      "▁пер": 1355,
      "eren": 1356,
      "▁жи": 1357,
      "ok": 1358,
      "трудни": 1359,
      "▁Y": 1360,
      "гда": 1361,
      "▁development": 1362,
      "▁Pro": 1363,
      "ystem": 1364,
      "▁сотрудни": 1365,
      "▁countries": 1366,
      "ures": 1367,
      "▁requ": 1368,
      "▁необходи": 1369,
      "▁уча": 1370,
      "вает": 1371,
      "ms": 1372,
      "ческих": 1373,
      "eration": 1374,
      "▁human": 1375,
      "▁пла": 1376,
      "енераль": 1377,
      "кой": 1378,
      "▁off": 1379,
      "сте": 1380,
      "ons": 1381,
      "▁year": 1382,
      "▁возмо": 1383,
      "▁того": 1384,
      "ских": 1385,
      "one": 1386,
      "вен": 1387,
      "▁области": 1388,
      "▁up": 1389,
      "влен": 1390,
      "▁Л": 1391,
      "vi": 1392,
      "anc": 1393,
      "ach": 1394,
      "зопас": 1395,
      "▁дея": 1396,
      "ll": 1397,
      "▁would": 1398,
      "▁fin": 1399,
      "▁име": 1400,
      "соб": 1401,
      "ret": 1402,
      "▁Генераль": 1403,
      "▁conc": 1404,
      "▁your": 1405,
      "overnment": 1406,
      "ory": 1407,
      "кре": 1408,
      "щей": 1409,
      "ступ": 1410,
      "▁созда": 1411,
      "▁тех": 1412,
      "ска": 1413,
      "art": 1414,
      "pecial": 1415,
      "логи": 1416,
      "▁вклю": 1417,
      "▁proc": 1418,
      "▁vi": 1419,
      "тельно": 1420,
      "▁сле": 1421,
      "▁more": 1422,
      "▁которо": 1423,
      "ph": 1424,
      "act": 1425,
      "▁более": 1426,
      "ative": 1427,
      "гово": 1428,
      "▁жен": 1429,
      "пре": 1430,
      "▁же": 1431,
      "ke": 1432,
      "лько": 1433,
      "пред": 1434,
      "ating": 1435,
      "▁полити": 1436,
      "дя": 1437,
      "▁деятель": 1438,
      "▁ob": 1439,
      "▁cons": 1440,
      "rans": 1441,
      "▁such": 1442,
      "ame": 1443,
      "▁дан": 1444,
      "ru": 1445,
      "▁да": 1446,
      "▁rel": 1447,
      "сили": 1448,
      "▁будет": 1449,
      "▁they": 1450,
      "▁груп": 1451,
      "ember": 1452,
      "ack": 1453,
      "▁rights": 1454,
      "▁there": 1455,
      "orts": 1456,
      "ov": 1457,
      "▁права": 1458,
      "▁inv": 1459,
      "▁тре": 1460,
      "les": 1461,
      "▁уров": 1462,
      "enti": 1463,
      "теля": 1464,
      "▁so": 1465,
      "▁qu": 1466,
      "▁долж": 1467,
      "ней": 1468,
      "ент": 1469,
      "▁system": 1470,
      "▁do": 1471,
      "▁sa": 1472,
      "roup": 1473,
      "ву": 1474,
      "tical": 1475,
      "▁tim": 1476,
      "▁one": 1477,
      "ility": 1478,
      "▁од": 1479,
      "ular": 1480,
      "▁Комите": 1481,
      "чая": 1482,
      "urity": 1483,
      "ight": 1484,
      "▁implement": 1485,
      "▁pers": 1486,
      "тро": 1487,
      "mb": 1488,
      "ft": 1489,
      "very": 1490,
      "▁new": 1491,
      "▁need": 1492,
      "▁развития": 1493,
      "циа": 1494,
      "кти": 1495,
      "▁человека": 1496,
      "▁использо": 1497,
      "rib": 1498,
      "▁but": 1499,
      "rop": 1500,
      "бу": 1501,
      "▁полу": 1502,
      "▁реги": 1503,
      "▁information": 1504,
      "шении": 1505,
      "▁право": 1506,
      "ческой": 1507,
      "▁пот": 1508,
      "лет": 1509,
      "▁Ка": 1510,
      "▁his": 1511,
      "три": 1512,
      "▁who": 1513,
      "стве": 1514,
      "рета": 1515,
      "▁program": 1516,
      "ounc": 1517,
      "тер": 1518,
      "rac": 1519,
      "▁проек": 1520,
      "▁support": 1521,
      "рабо": 1522,
      "▁resol": 1523,
      "преде": 1524,
      "нан": 1525,
      "▁свои": 1526,
      "ern": 1527,
      "omen": 1528,
      "ession": 1529,
      "▁am": 1530,
      "▁он": 1531,
      "ству": 1532,
      "▁мы": 1533,
      "▁женщи": 1534,
      "ному": 1535,
      "hi": 1536,
      "ari": 1537,
      "емо": 1538,
      "▁organiz": 1539,
      "hed": 1540,
      "жения": 1541,
      "ings": 1542,
      "ond": 1543,
      "rough": 1544,
      "есси": 1545,
      "▁any": 1546,
      "vel": 1547,
      "▁образо": 1548,
      "▁bet": 1549,
      "рован": 1550,
      "we": 1551,
      "ade": 1552,
      "vention": 1553,
      "▁them": 1554,
      "лов": 1555,
      "зопасности": 1556,
      "телей": 1557,
      "ood": 1558,
      "▁экономи": 1559,
      "▁гра": 1560,
      "ках": 1561,
      "кс": 1562,
      "enc": 1563,
      "▁serv": 1564,
      "▁ro": 1565,
      "стано": 1566,
      "седа": 1567,
      "▁Rep": 1568,
      "ruc": 1569,
      "ческого": 1570,
      "▁including": 1571,
      "au": 1572,
      "▁Ч": 1573,
      "▁им": 1574,
      "▁осно": 1575,
      "▁является": 1576,
      "ite": 1577,
      "onomic": 1578,
      "▁сооб": 1579,
      "▁ди": 1580,
      "▁national": 1581,
      "золю": 1582,
      "ouncil": 1583,
      "▁trans": 1584,
      "▁region": 1585,
      "▁soc": 1586,
      "фек": 1587,
      "▁следу": 1588,
      "▁li": 1589,
      "▁согла": 1590,
      "▁националь": 1591,
      "▁прои": 1592,
      "▁может": 1593,
      "▁тем": 1594,
      "рии": 1595,
      "щего": 1596,
      "uring": 1597,
      "ему": 1598,
      "▁году": 1599,
      "▁into": 1600,
      "вого": 1601,
      "▁время": 1602,
      "▁di": 1603,
      "ues": 1604,
      "чет": 1605,
      "▁ку": 1606,
      "echn": 1607,
      "▁Council": 1608,
      "▁ec": 1609,
      "ater": 1610,
      "лага": 1611,
      "▁пунк": 1612,
      "▁Про": 1613,
      "ление": 1614,
      "orld": 1615,
      "вления": 1616,
      "▁peop": 1617,
      "▁пробле": 1618,
      "▁ру": 1619,
      "▁UN": 1620,
      "ком": 1621,
      "рт": 1622,
      "▁em": 1623,
      "▁всех": 1624,
      "▁финан": 1625,
      "▁правитель": 1626,
      "кон": 1627,
      "oin": 1628,
      "▁time": 1629,
      "▁We": 1630,
      "▁было": 1631,
      "тра": 1632,
      "ind": 1633,
      "вые": 1634,
      "ev": 1635,
      "▁мер": 1636,
      "▁our": 1637,
      "▁meet": 1638,
      "ффек": 1639,
      "▁conf": 1640,
      "abl": 1641,
      "▁этой": 1642,
      "▁действи": 1643,
      "вали": 1644,
      "▁спо": 1645,
      "▁ее": 1646,
      "iti": 1647,
      "▁over": 1648,
      "▁cent": 1649,
      "▁no": 1650,
      "ждения": 1651,
      "ang": 1652,
      "▁государства": 1653,
      "▁State": 1654,
      "▁За": 1655,
      "▁прав": 1656,
      "▁резолю": 1657,
      "▁Х": 1658,
      "цес": 1659,
      "▁ter": 1660,
      "стран": 1661,
      "стру": 1662,
      "▁law": 1663,
      "▁iss": 1664,
      "▁быть": 1665,
      "▁они": 1666,
      "olog": 1667,
      "▁полож": 1668,
      "ника": 1669,
      "▁again": 1670,
      "▁Я": 1671,
      "ased": 1672,
      "ices": 1673,
      "▁цен": 1674,
      "und": 1675,
      "▁provid": 1676,
      "▁Совет": 1677,
      "▁well": 1678,
      "▁буду": 1679,
      "▁необходимо": 1680,
      "▁child": 1681,
      "▁activ": 1682,
      "▁disc": 1683,
      "ень": 1684,
      "▁pri": 1685,
      "шение": 1686,
      "▁consid": 1687,
      "▁пол": 1688,
      "ass": 1689,
      "фер": 1690,
      "стей": 1691,
      "▁use": 1692,
      "▁contin": 1693,
      "ten": 1694,
      "рования": 1695,
      "▁объ": 1696,
      "▁представи": 1697,
      "оста": 1698,
      "▁This": 1699,
      "▁about": 1700,
      "▁тер": 1701,
      "▁leg": 1702,
      "ific": 1703,
      "бря": 1704,
      "▁были": 1705,
      "here": 1706,
      "ших": 1707,
      "дол": 1708,
      "ях": 1709,
      "▁возмож": 1710,
      "ef": 1711,
      "▁отношении": 1712,
      "▁процес": 1713,
      "▁эффек": 1714,
      "ks": 1715,
      "▁Ра": 1716,
      "кры": 1717,
      "ссии": 1718,
      "ний": 1719,
      "lec": 1720,
      "▁Ю": 1721,
      "▁защи": 1722,
      "old": 1723,
      "ством": 1724,
      "▁He": 1725,
      "▁sc": 1726,
      "▁mon": 1727,
      "вто": 1728,
      "чить": 1729,
      "ful": 1730,
      "▁ref": 1731,
      "dition": 1732,
      "щения": 1733,
      "▁women": 1734,
      "air": 1735,
      "▁des": 1736,
      "ex": 1737,
      "ile": 1738,
      "▁through": 1739,
      "ин": 1740,
      "рта": 1741,
      "▁дости": 1742,
      "цией": 1743,
      "now": 1744,
      "▁ins": 1745,
      "яза": 1746,
      "▁effec": 1747,
      "▁деятельности": 1748,
      "▁than": 1749,
      "▁провед": 1750,
      "▁каче": 1751,
      "следо": 1752,
      "рио": 1753,
      "ove": 1754,
      "публи": 1755,
      "ural": 1756,
      "▁only": 1757,
      "irst": 1758,
      "▁секрета": 1759,
      "▁inter": 1760,
      "av": 1761,
      "▁part": 1762,
      "вая": 1763,
      "▁produc": 1764,
      "лек": 1765,
      "▁Secret": 1766,
      "▁commun": 1767,
      "зульта": 1768,
      "▁орга": 1769,
      "▁aut": 1770,
      "▁ra": 1771,
      "▁people": 1772,
      "ays": 1773,
      "▁соответствую": 1774,
      "ween": 1775,
      "лови": 1776,
      "комен": 1777,
      "ting": 1778,
      "▁tw": 1779,
      "▁организа": 1780,
      "стре": 1781,
      "тери": 1782,
      "ствии": 1783,
      "▁est": 1784,
      "▁предоста": 1785,
      "tec": 1786,
      "▁ак": 1787,
      "ents": 1788,
      "amp": 1789,
      "▁resolution": 1790,
      "ens": 1791,
      "▁those": 1792,
      "▁cl": 1793,
      "▁опреде": 1794,
      "▁made": 1795,
      "▁Это": 1796,
      "мента": 1797,
      "▁поддерж": 1798,
      "прия": 1799,
      "▁between": 1800,
      "▁связи": 1801,
      "▁обяза": 1802,
      "▁страна": 1803,
      "▁стать": 1804,
      "tain": 1805,
      "▁эффектив": 1806,
      "лиза": 1807,
      "▁перио": 1808,
      "▁ок": 1809,
      "▁Ма": 1810,
      "▁част": 1811,
      "ive": 1812,
      "води": 1813,
      "▁ба": 1814,
      "▁import": 1815,
      "ollow": 1816,
      "▁настоя": 1817,
      "▁techn": 1818,
      "▁результа": 1819,
      "▁process": 1820,
      "▁rem": 1821,
      "red": 1822,
      "▁соб": 1823,
      "erence": 1824,
      "▁вс": 1825,
      "рения": 1826,
      "▁Ме": 1827,
      "▁ш": 1828,
      "пециаль": 1829,
      "▁был": 1830,
      "▁resp": 1831,
      "▁num": 1832,
      "▁Af": 1833,
      "ден": 1834,
      "rin": 1835,
      "als": 1836,
      "get": 1837,
      "действи": 1838,
      "ris": 1839,
      "ussi": 1840,
      "▁этого": 1841,
      "ters": 1842,
      "ью": 1843,
      "▁стран": 1844,
      "тере": 1845,
      "▁ev": 1846,
      "semb": 1847,
      "▁рекомен": 1848,
      "чных": 1849,
      "▁могу": 1850,
      "▁these": 1851,
      "ору": 1852,
      "▁establ": 1853,
      "utions": 1854,
      "▁may": 1855,
      "▁сотрудниче": 1856,
      "▁Par": 1857,
      "▁bec": 1858,
      "▁подго": 1859,
      "ровать": 1860,
      "ром": 1861,
      "▁years": 1862,
      "▁основ": 1863,
      "▁ле": 1864,
      "▁concern": 1865,
      "тей": 1866,
      "mit": 1867,
      "▁some": 1868,
      "твер": 1869,
      "▁уч": 1870,
      "ered": 1871,
      "ans": 1872,
      "▁сторо": 1873,
      "▁An": 1874,
      "▁incre": 1875,
      "▁каса": 1876,
      "▁op": 1877,
      "▁женщин": 1878,
      "ally": 1879,
      "кие": 1880,
      "▁рассмот": 1881,
      "▁ens": 1882,
      "▁meas": 1883,
      "▁add": 1884,
      "мина": 1885,
      "sembly": 1886,
      "▁cap": 1887,
      "▁against": 1888,
      "щие": 1889,
      "мени": 1890,
      "ality": 1891,
      "ев": 1892,
      "▁вопросам": 1893,
      "graph": 1894,
      "держа": 1895,
      "▁Ас": 1896,
      "fore": 1897,
      "пера": 1898,
      "▁polic": 1899,
      "gy": 1900,
      "▁усили": 1901,
      "▁particular": 1902,
      "енно": 1903,
      "лись": 1904,
      "▁важ": 1905,
      "▁зая": 1906,
      "▁социаль": 1907,
      "ale": 1908,
      "ский": 1909,
      "vers": 1910,
      "▁рам": 1911,
      "▁обще": 1912,
      "▁General": 1913,
      "▁который": 1914,
      "ound": 1915,
      "пер": 1916,
      "▁Re": 1917,
      "▁только": 1918,
      "cc": 1919,
      "▁Russi": 1920,
      "нер": 1921,
      "▁Ad": 1922,
      "тя": 1923,
      "der": 1924,
      "▁session": 1925,
      "▁Commission": 1926,
      "нет": 1927,
      "▁сер": 1928,
      "▁Convention": 1929,
      "▁соответствии": 1930,
      "ферен": 1931,
      "лях": 1932,
      "дом": 1933,
      "▁гражда": 1934,
      "lear": 1935,
      "▁разрабо": 1936,
      "ommend": 1937,
      "▁On": 1938,
      "торы": 1939,
      "лось": 1940,
      "сур": 1941,
      "▁Assembly": 1942,
      "▁follow": 1943,
      "хи": 1944,
      "▁доку": 1945,
      "▁До": 1946,
      "leg": 1947,
      "▁произво": 1948,
      "▁Ш": 1949,
      "▁фор": 1950,
      "ник": 1951,
      "▁dra": 1952,
      "▁activities": 1953,
      "▁prom": 1954,
      "▁тран": 1955,
      "▁level": 1956,
      "▁член": 1957,
      "ffic": 1958,
      "▁выпол": 1959,
      "pos": 1960,
      "man": 1961,
      "▁соста": 1962,
      "чно": 1963,
      "лан": 1964,
      "▁государств": 1965,
      "▁implementation": 1966,
      "▁Пред": 1967,
      "лся": 1968,
      "ческие": 1969,
      "hor": 1970,
      "▁ресур": 1971,
      "hip": 1972,
      "дей": 1973,
      "▁country": 1974,
      "▁mar": 1975,
      "▁oper": 1976,
      "▁продол": 1977,
      "▁сесси": 1978,
      "▁form": 1979,
      "▁могут": 1980,
      "луч": 1981,
      "ards": 1982,
      "ностью": 1983,
      "▁Government": 1984,
      "sible": 1985,
      "▁этом": 1986,
      "ration": 1987,
      "rimin": 1988,
      "тор": 1989,
      "▁Ц": 1990,
      "▁coop": 1991,
      "▁Ar": 1992,
      "▁Во": 1993,
      "▁ful": 1994,
      "tives": 1995,
      "если": 1996,
      "▁protec": 1997,
      "▁Ро": 1998,
      "▁Ассам": 1999,
      "зад": 2000,
      "▁if": 2001,
      "вро": 2002,
      "нитель": 2003,
      "▁учре": 2004,
      "▁recommend": 2005,
      "▁связа": 2006,
      "тельства": 2007,
      "ized": 2008,
      "част": 2009,
      "ied": 2010,
      "▁назад": 2011,
      "rit": 2012,
      "▁ago": 2013,
      "▁преду": 2014,
      "ism": 2015,
      "gt": 2016,
      "▁управл": 2017,
      "ources": 2018,
      "шей": 2019,
      "lect": 2020,
      "bers": 2021,
      "▁For": 2022,
      "▁Dec": 2023,
      "▁примен": 2024,
      "▁безопасности": 2025,
      "▁других": 2026,
      "de": 2027,
      "▁De": 2028,
      "струк": 2029,
      "▁Комитет": 2030,
      "▁tak": 2031,
      "щее": 2032,
      "ticle": 2033,
      "еспубли": 2034,
      "▁если": 2035,
      "ys": 2036,
      "казы": 2037,
      "▁целях": 2038,
      "rate": 2039,
      "▁set": 2040,
      "▁услови": 2041,
      "General": 2042,
      "▁рамках": 2043,
      "пла": 2044,
      "▁two": 2045,
      "▁main": 2046,
      "▁му": 2047,
      "mes": 2048,
      "▁when": 2049,
      "sive": 2050,
      "▁случа": 2051,
      "alth": 2052,
      "▁know": 2053,
      "▁Не": 2054,
      "▁public": 2055,
      "▁тор": 2056,
      "▁Republic": 2057,
      "ob": 2058,
      "rent": 2059,
      "▁Республи": 2060,
      "▁number": 2061,
      "▁должны": 2062,
      "▁peace": 2063,
      "нию": 2064,
      "▁first": 2065,
      "▁жиз": 2066,
      "▁equ": 2067,
      "▁group": 2068,
      "iron": 2069,
      "view": 2070,
      "▁чи": 2071,
      "▁Бо": 2072,
      "▁most": 2073,
      "▁exper": 2074,
      "▁над": 2075,
      "▁Вы": 2076,
      "its": 2077,
      "▁Pre": 2078,
      "▁комп": 2079,
      "ющихся": 2080,
      "▁loc": 2081,
      "▁тру": 2082,
      "▁require": 2083,
      "ject": 2084,
      "▁когда": 2085,
      "ющие": 2086,
      "▁particip": 2087,
      "▁ответ": 2088,
      "лаго": 2089,
      "▁represent": 2090,
      "сли": 2091,
      "▁пос": 2092,
      "▁высо": 2093,
      "▁ed": 2094,
      "▁Ex": 2095,
      "▁Secretary": 2096,
      "▁world": 2097,
      "▁работы": 2098,
      "▁участи": 2099,
      "▁призна": 2100,
      "▁разли": 2101,
      "stan": 2102,
      "agement": 2103,
      "▁children": 2104,
      "▁резолюции": 2105,
      "дь": 2106,
      "▁assist": 2107,
      "▁sit": 2108,
      "▁Бе": 2109,
      "▁вне": 2110,
      "▁При": 2111,
      "▁viol": 2112,
      "тели": 2113,
      "▁financ": 2114,
      "ющей": 2115,
      "ников": 2116,
      "▁International": 2117,
      "ute": 2118,
      "ning": 2119,
      "▁could": 2120,
      "▁пи": 2121,
      "▁обеспечения": 2122,
      "▁economic": 2123,
      "viron": 2124,
      "▁col": 2125,
      "king": 2126,
      "ены": 2127,
      "arm": 2128,
      "▁po": 2129,
      "▁системы": 2130,
      "сма": 2131,
      "row": 2132,
      "лом": 2133,
      "pt": 2134,
      "вести": 2135,
      "▁лиц": 2136,
      "▁Eu": 2137,
      "▁security": 2138,
      "гов": 2139,
      "ilit": 2140,
      "хра": 2141,
      "up": 2142,
      "▁включая": 2143,
      "led": 2144,
      "fic": 2145,
      "▁right": 2146,
      "▁га": 2147,
      "▁само": 2148,
      "▁pos": 2149,
      "▁mem": 2150,
      "рая": 2151,
      "▁послед": 2152,
      "▁авто": 2153,
      "сно": 2154,
      "▁adop": 2155,
      "▁граждан": 2156,
      "▁gu": 2157,
      "▁measures": 2158,
      "az": 2159,
      "кого": 2160,
      "vironment": 2161,
      "▁high": 2162,
      "▁направл": 2163,
      "цев": 2164,
      "венции": 2165,
      "креп": 2166,
      "▁para": 2167,
      "urther": 2168,
      "бой": 2169,
      "рез": 2170,
      "▁развити": 2171,
      "сматри": 2172,
      "▁go": 2173,
      "▁min": 2174,
      "▁fac": 2175,
      "▁inst": 2176,
      "стой": 2177,
      "ise": 2178,
      "▁систем": 2179,
      "▁потре": 2180,
      "▁экс": 2181,
      "▁author": 2182,
      "шь": 2183,
      "▁страны": 2184,
      "▁present": 2185,
      "вление": 2186,
      "▁order": 2187,
      "▁must": 2188,
      "uild": 2189,
      "▁оказа": 2190,
      "▁Is": 2191,
      "▁respon": 2192,
      "ье": 2193,
      "ходя": 2194,
      "▁гла": 2195,
      "▁гово": 2196,
      "▁доклад": 2197,
      "ety": 2198,
      "uation": 2199,
      "iod": 2200,
      "ished": 2201,
      "▁social": 2202,
      "ар": 2203,
      "▁Conf": 2204,
      "▁сов": 2205,
      "▁деле": 2206,
      "▁опера": 2207,
      "▁att": 2208,
      "▁Но": 2209,
      "▁av": 2210,
      "▁Мо": 2211,
      "oth": 2212,
      "зя": 2213,
      "▁практи": 2214,
      "рак": 2215,
      "вить": 2216,
      "com": 2217,
      "ner": 2218,
      "▁regard": 2219,
      "▁Mr": 2220,
      "▁этих": 2221,
      "теги": 2222,
      "▁person": 2223,
      "ati": 2224,
      "▁Мы": 2225,
      "▁Al": 2226,
      "▁внима": 2227,
      "ency": 2228,
      "вод": 2229,
      "land": 2230,
      "▁нача": 2231,
      "▁cooperation": 2232,
      "нения": 2233,
      "▁said": 2234,
      "irect": 2235,
      "ough": 2236,
      "▁которых": 2237,
      "rope": 2238,
      "слу": 2239,
      "▁неза": 2240,
      "▁оста": 2241,
      "▁лет": 2242,
      "▁позво": 2243,
      "ever": 2244,
      "▁appro": 2245,
      "▁my": 2246,
      "дела": 2247,
      "▁руко": 2248,
      "▁where": 2249,
      "ges": 2250,
      "▁decision": 2251,
      "▁organizations": 2252,
      "▁состоя": 2253,
      "sel": 2254,
      "▁provide": 2255,
      "▁помощи": 2256,
      "▁можно": 2257,
      "ена": 2258,
      "тки": 2259,
      "pl": 2260,
      "▁plan": 2261,
      "▁mod": 2262,
      "шо": 2263,
      "▁измен": 2264,
      "▁услу": 2265,
      "hem": 2266,
      "той": 2267,
      "▁без": 2268,
      "itical": 2269,
      "▁прин": 2270,
      "реди": 2271,
      "ining": 2272,
      "▁Ассамбле": 2273,
      "ские": 2274,
      "▁take": 2275,
      "рон": 2276,
      "▁sign": 2277,
      "▁state": 2278,
      "ким": 2279,
      "round": 2280,
      "▁сессии": 2281,
      "▁cre": 2282,
      "ваться": 2283,
      "eth": 2284,
      "▁You": 2285,
      "▁efforts": 2286,
      "▁мира": 2287,
      "▁meeting": 2288,
      "▁дву": 2289,
      "▁special": 2290,
      "ability": 2291,
      "кая": 2292,
      "▁насе": 2293,
      "кан": 2294,
      "▁cur": 2295,
      "▁ensure": 2296,
      "▁Europe": 2297,
      "loy": 2298,
      "▁address": 2299,
      "▁повы": 2300,
      "▁Коми": 2301,
      "шений": 2302,
      "▁spec": 2303,
      "ститу": 2304,
      "▁дис": 2305,
      "▁заклю": 2306,
      "нами": 2307,
      "ская": 2308,
      "▁pur": 2309,
      "▁своей": 2310,
      "▁связан": 2311,
      "▁how": 2312,
      "ious": 2313,
      "bal": 2314,
      "меча": 2315,
      "▁много": 2316,
      "дель": 2317,
      "▁информации": 2318,
      "ved": 2319,
      "▁будут": 2320,
      "▁оцен": 2321,
      "▁ты": 2322,
      "▁services": 2323,
      "лась": 2324,
      "▁educ": 2325,
      "вест": 2326,
      "▁rele": 2327,
      "▁содержа": 2328,
      "▁чис": 2329,
      "▁many": 2330,
      "▁Ин": 2331,
      "▁accord": 2332,
      "▁doc": 2333,
      "▁дела": 2334,
      "▁At": 2335,
      "▁Го": 2336,
      "ata": 2337,
      "рова": 2338,
      "ction": 2339,
      "▁impro": 2340,
      "грани": 2341,
      "aff": 2342,
      "rol": 2343,
      "▁And": 2344,
      "▁non": 2345,
      "ights": 2346,
      "▁финансо": 2347,
      "ization": 2348,
      "oint": 2349,
      "▁period": 2350,
      "шего": 2351,
      "которы": 2352,
      "▁способ": 2353,
      "ремен": 2354,
      "▁shall": 2355,
      "▁фу": 2356,
      "нут": 2357,
      "мини": 2358,
      "▁Min": 2359,
      "тий": 2360,
      "ов": 2361,
      "▁помощ": 2362,
      "фри": 2363,
      "▁car": 2364,
      "тора": 2365,
      "вра": 2366,
      "▁принци": 2367,
      "▁dep": 2368,
      "цы": 2369,
      "ск": 2370,
      "▁view": 2371,
      "ince": 2372,
      "▁ph": 2373,
      "виси": 2374,
      "ause": 2375,
      "емых": 2376,
      "urn": 2377,
      "▁была": 2378,
      "ote": 2379,
      "▁стратеги": 2380,
      "тных": 2381,
      "ванию": 2382,
      "чита": 2383,
      "▁ent": 2384,
      "wn": 2385,
      "▁выра": 2386,
      "вается": 2387,
      "▁ию": 2388,
      "▁ser": 2389,
      "▁like": 2390,
      "▁которая": 2391,
      "▁ад": 2392,
      "▁bas": 2393,
      "▁бор": 2394,
      "вый": 2395,
      "▁комите": 2396,
      "▁Все": 2397,
      "▁members": 2398,
      "▁dem": 2399,
      "vant": 2400,
      "ряд": 2401,
      "ife": 2402,
      "ступа": 2403,
      "▁Ми": 2404,
      "▁resources": 2405,
      "▁принима": 2406,
      "▁within": 2407,
      "▁Та": 2408,
      "▁during": 2409,
      "▁Afric": 2410,
      "▁качестве": 2411,
      "год": 2412,
      "тур": 2413,
      "▁чем": 2414,
      "med": 2415,
      "▁меры": 2416,
      "▁От": 2417,
      "▁детей": 2418,
      "go": 2419,
      "▁подготов": 2420,
      "сульта": 2421,
      "ено": 2422,
      "▁Совета": 2423,
      "ral": 2424,
      "▁уче": 2425,
      "ily": 2426,
      "▁ю": 2427,
      "▁контро": 2428,
      "▁issues": 2429,
      "▁Develop": 2430,
      "бя": 2431,
      "вляет": 2432,
      "▁бес": 2433,
      "гре": 2434,
      "ower": 2435,
      "ход": 2436,
      "▁Ва": 2437,
      "нако": 2438,
      "ствовать": 2439,
      "сколь": 2440,
      "▁Он": 2441,
      "▁особ": 2442,
      "нее": 2443,
      "ОН": 2444,
      "▁образом": 2445,
      "▁фак": 2446,
      "ines": 2447,
      "lobal": 2448,
      "имо": 2449,
      "tice": 2450,
      "lu": 2451,
      "ases": 2452,
      "ange": 2453,
      "▁ext": 2454,
      "жение": 2455,
      "тому": 2456,
      "пек": 2457,
      "▁what": 2458,
      "вели": 2459,
      "▁fe": 2460,
      "▁совер": 2461,
      "▁реа": 2462,
      "бра": 2463,
      "▁частности": 2464,
      "▁ры": 2465,
      "▁вос": 2466,
      "▁она": 2467,
      "▁ана": 2468,
      "▁ж": 2469,
      "pect": 2470,
      "▁мас": 2471,
      "▁financial": 2472,
      "▁health": 2473,
      "▁fund": 2474,
      "ждународ": 2475,
      "ума": 2476,
      "ina": 2477,
      "ption": 2478,
      "sident": 2479,
      "▁уровне": 2480,
      "▁региональ": 2481,
      "чной": 2482,
      "ге": 2483,
      "участ": 2484,
      "▁draft": 2485,
      "▁regional": 2486,
      "own": 2487,
      "фе": 2488,
      "▁работа": 2489,
      "▁говори": 2490,
      "мент": 2491,
      "▁борь": 2492,
      "ulation": 2493,
      "▁te": 2494,
      "▁En": 2495,
      "▁prac": 2496,
      "ями": 2497,
      "▁paragraph": 2498,
      "▁цель": 2499,
      "▁еще": 2500,
      "ination": 2501,
      "▁end": 2502,
      "▁допол": 2503,
      "▁исто": 2504,
      "▁рай": 2505,
      "▁Or": 2506,
      "▁environment": 2507,
      "ivil": 2508,
      "ug": 2509,
      "▁свобо": 2510,
      "▁компа": 2511,
      "arch": 2512,
      "orn": 2513,
      "▁интере": 2514,
      "▁af": 2515,
      "лению": 2516,
      "▁make": 2517,
      "▁Евро": 2518,
      "ружи": 2519,
      "▁матери": 2520,
      "ss": 2521,
      "▁provision": 2522,
      "▁def": 2523,
      "▁instit": 2524,
      "▁вер": 2525,
      "▁her": 2526,
      "▁diff": 2527,
      "ath": 2528,
      "дук": 2529,
      "▁техни": 2530,
      "хран": 2531,
      "yp": 2532,
      "вании": 2533,
      "▁addition": 2534,
      "▁укреп": 2535,
      "▁effective": 2536,
      "▁мно": 2537,
      "▁prin": 2538,
      "▁Group": 2539,
      "▁access": 2540,
      "▁устано": 2541,
      "низ": 2542,
      "▁call": 2543,
      "▁party": 2544,
      "читель": 2545,
      "писа": 2546,
      "ages": 2547,
      "▁ann": 2548,
      "▁Конвенции": 2549,
      "▁продолжа": 2550,
      "til": 2551,
      "▁кор": 2552,
      "вают": 2553,
      "tor": 2554,
      "▁осуществления": 2555,
      "sh": 2556,
      "ям": 2557,
      "▁программы": 2558,
      "gin": 2559,
      "▁further": 2560,
      "▁период": 2561,
      "▁sm": 2562,
      "▁Международ": 2563,
      "eld": 2564,
      "ving": 2565,
      "▁det": 2566,
      "йте": 2567,
      "▁important": 2568,
      "▁преступ": 2569,
      "▁political": 2570,
      "▁чет": 2571,
      "▁ЮН": 2572,
      "teg": 2573,
      "▁med": 2574,
      "нологи": 2575,
      "atives": 2576,
      "▁кра": 2577,
      "▁прави": 2578,
      "роме": 2579,
      "▁docu": 2580,
      "▁Security": 2581,
      "ize": 2582,
      "раз": 2583,
      "▁achi": 2584,
      "▁being": 2585,
      "▁би": 2586,
      "▁avail": 2587,
      "reed": 2588,
      "aj": 2589,
      "ivers": 2590,
      "▁lead": 2591,
      "▁основе": 2592,
      "▁заседа": 2593,
      "▁article": 2594,
      "▁сем": 2595,
      "▁зада": 2596,
      "ecess": 2597,
      "▁год": 2598,
      "▁программ": 2599,
      "шин": 2600,
      "сут": 2601,
      "▁comple": 2602,
      "▁fore": 2603,
      "рито": 2604,
      "cip": 2605,
      "▁provided": 2606,
      "▁вла": 2607,
      "▁inf": 2608,
      "▁rece": 2609,
      "чные": 2610,
      "▁stand": 2611,
      "ium": 2612,
      "▁откры": 2613,
      "▁management": 2614,
      "▁Генерального": 2615,
      "▁him": 2616,
      "▁used": 2617,
      "ilities": 2618,
      "▁следует": 2619,
      "▁month": 2620,
      "вши": 2621,
      "лизации": 2622,
      "▁потен": 2623,
      "▁developing": 2624,
      "▁held": 2625,
      "▁должно": 2626,
      "▁stren": 2627,
      "▁показа": 2628,
      "▁every": 2629,
      "▁свое": 2630,
      "▁commit": 2631,
      "▁see": 2632,
      "▁areas": 2633,
      "ур": 2634,
      "ix": 2635,
      "sition": 2636,
      "▁data": 2637,
      "▁Am": 2638,
      "сс": 2639,
      "▁propos": 2640,
      "▁кли": 2641,
      "▁very": 2642,
      "hes": 2643,
      "▁мест": 2644,
      "ruct": 2645,
      "sib": 2646,
      "▁ши": 2647,
      "▁решения": 2648,
      "▁great": 2649,
      "▁Генеральной": 2650,
      "▁Conference": 2651,
      "ющим": 2652,
      "▁осуществля": 2653,
      "енные": 2654,
      "▁To": 2655,
      "▁законо": 2656,
      "▁mat": 2657,
      "▁sol": 2658,
      "▁Man": 2659,
      "▁Па": 2660,
      "▁благо": 2661,
      "▁same": 2662,
      "▁assistance": 2663,
      "торо": 2664,
      "щение": 2665,
      "▁cour": 2666,
      "▁prep": 2667,
      "▁данных": 2668,
      "▁Если": 2669,
      "▁Ки": 2670,
      "▁ха": 2671,
      "▁after": 2672,
      "ants": 2673,
      "minist": 2674,
      "▁рекоменда": 2675,
      "▁review": 2676,
      "▁своих": 2677,
      "▁секретаря": 2678,
      "▁bod": 2679,
      "iness": 2680,
      "▁both": 2681,
      "▁удо": 2682,
      "▁fact": 2683,
      "▁account": 2684,
      "дели": 2685,
      "▁hel": 2686,
      "▁contrib": 2687,
      "▁таких": 2688,
      "▁Development": 2689,
      "▁How": 2690,
      "port": 2691,
      "▁меха": 2692,
      "ложи": 2693,
      "▁уже": 2694,
      "▁stud": 2695,
      "arge": 2696,
      "чер": 2697,
      "ared": 2698,
      "▁бю": 2699,
      "ят": 2700,
      "▁programme": 2701,
      "▁Rights": 2702,
      "▁нару": 2703,
      "сса": 2704,
      "▁расши": 2705,
      "ield": 2706,
      "▁Co": 2707,
      "веща": 2708,
      "став": 2709,
      "▁proble": 2710,
      "icial": 2711,
      "▁террито": 2712,
      "туа": 2713,
      "спек": 2714,
      "▁уровня": 2715,
      "ственной": 2716,
      "▁положения": 2717,
      "▁функ": 2718,
      "▁long": 2719,
      "aking": 2720,
      "gthen": 2721,
      "▁меся": 2722,
      "▁некоторы": 2723,
      "▁necess": 2724,
      "ology": 2725,
      "тем": 2726,
      "ness": 2727,
      "ческий": 2728,
      "▁capac": 2729,
      "рия": 2730,
      "▁policy": 2731,
      "▁наро": 2732,
      "▁распро": 2733,
      "▁aw": 2734,
      "гли": 2735,
      "▁процен": 2736,
      "▁help": 2737,
      "есь": 2738,
      "▁establish": 2739,
      "ained": 2740,
      "▁дня": 2741,
      "▁good": 2742,
      "▁vari": 2743,
      "▁dist": 2744,
      "орди": 2745,
      "▁обеспечи": 2746,
      "▁current": 2747,
      "▁before": 2748,
      "▁потреб": 2749,
      "vis": 2750,
      "▁Russian": 2751,
      "мет": 2752,
      "▁bo": 2753,
      "▁If": 2754,
      "чень": 2755,
      "eve": 2756,
      "рение": 2757,
      "▁числе": 2758,
      "ложен": 2759,
      "рь": 2760,
      "▁куль": 2761,
      "ket": 2762,
      "лоб": 2763,
      "▁Z": 2764,
      "рти": 2765,
      "▁request": 2766,
      "▁оружи": 2767,
      "tim": 2768,
      "▁following": 2769,
      "стойчи": 2770,
      "▁уни": 2771,
      "▁управления": 2772,
      "▁Special": 2773,
      "▁II": 2774,
      "ском": 2775,
      "▁place": 2776,
      "щая": 2777,
      "erest": 2778,
      "ссий": 2779,
      "xt": 2780,
      "▁education": 2781,
      "вым": 2782,
      "гро": 2783,
      "ential": 2784,
      "▁свою": 2785,
      "▁внимание": 2786,
      "мети": 2787,
      "▁действий": 2788,
      "▁существ": 2789,
      "ствует": 2790,
      "тах": 2791,
      "▁es": 2792,
      "▁strate": 2793,
      "мых": 2794,
      "▁There": 2795,
      "▁Cent": 2796,
      "мати": 2797,
      "▁aff": 2798,
      "▁сдела": 2799,
      "риа": 2800,
      "▁международного": 2801,
      "▁возможно": 2802,
      "ience": 2803,
      "▁Wh": 2804,
      "него": 2805,
      "▁эта": 2806,
      "▁applic": 2807,
      "▁законода": 2808,
      "▁legal": 2809,
      "цеду": 2810,
      "▁Human": 2811,
      "▁protection": 2812,
      "▁механиз": 2813,
      "other": 2814,
      "тами": 2815,
      "gress": 2816,
      "▁торгов": 2817,
      "▁конкре": 2818,
      "▁против": 2819,
      "uclear": 2820,
      "▁Ind": 2821,
      "ками": 2822,
      "▁supp": 2823,
      "uilding": 2824,
      "▁организации": 2825,
      "▁догово": 2826,
      "▁President": 2827,
      "оне": 2828,
      "▁fam": 2829,
      "▁ke": 2830,
      "рование": 2831,
      "▁производ": 2832,
      "мой": 2833,
      "ploy": 2834,
      "▁differen": 2835,
      "▁without": 2836,
      "▁Председа": 2837,
      "лик": 2838,
      "▁ограни": 2839,
      "▁призы": 2840,
      "ax": 2841,
      "вал": 2842,
      "бира": 2843,
      "ued": 2844,
      "▁persons": 2845,
      "▁обо": 2846,
      "▁технологи": 2847,
      "▁pop": 2848,
      "▁among": 2849,
      "▁указа": 2850,
      "роприя": 2851,
      "ron": 2852,
      "▁ресурсов": 2853,
      "вое": 2854,
      "▁situation": 2855,
      "▁interest": 2856,
      "крати": 2857,
      "▁наи": 2858,
      "▁процеду": 2859,
      "вле": 2860,
      "шен": 2861,
      "▁cri": 2862,
      "ition": 2863,
      "там": 2864,
      "министра": 2865,
      "vent": 2866,
      "▁rest": 2867,
      "щем": 2868,
      "льзу": 2869,
      "ient": 2870,
      "ady": 2871,
      "рите": 2872,
      "▁civil": 2873,
      "▁available": 2874,
      "туры": 2875,
      "▁счита": 2876,
      "▁нау": 2877,
      "них": 2878,
      "▁compan": 2879,
      "▁харак": 2880,
      "ament": 2881,
      "▁strengthen": 2882,
      "▁even": 2883,
      "ked": 2884,
      "щий": 2885,
      "▁являются": 2886,
      "▁Да": 2887,
      "чению": 2888,
      "лении": 2889,
      "▁исследо": 2890,
      "▁now": 2891,
      "▁ну": 2892,
      "▁cor": 2893,
      "лия": 2894,
      "▁Кроме": 2895,
      "ваний": 2896,
      "▁содействи": 2897,
      "▁этот": 2898,
      "▁утвер": 2899,
      "фика": 2900,
      "▁initi": 2901,
      "стоян": 2902,
      "сла": 2903,
      "▁Специаль": 2904,
      "▁life": 2905,
      "▁own": 2906,
      "▁clo": 2907,
      "▁предлага": 2908,
      "нист": 2909,
      "▁soci": 2910,
      "чного": 2911,
      "ank": 2912,
      "▁taken": 2913,
      "▁усилия": 2914,
      "▁ядер": 2915,
      "▁ходе": 2916,
      "щим": 2917,
      "itor": 2918,
      "тар": 2919,
      "▁всего": 2920,
      "▁programmes": 2921,
      "▁ques": 2922,
      "▁населения": 2923,
      "воль": 2924,
      "▁global": 2925,
      "▁участ": 2926,
      "▁Су": 2927,
      "day": 2928,
      "▁community": 2929,
      "▁vis": 2930,
      "▁Ре": 2931,
      "▁Le": 2932,
      "гули": 2933,
      "▁зд": 2934,
      "XX": 2935,
      "ather": 2936,
      "ering": 2937,
      "ists": 2938,
      "▁стороны": 2939,
      "▁мероприя": 2940,
      "▁Ли": 2941,
      "зе": 2942,
      "хва": 2943,
      "▁доступ": 2944,
      "▁особенно": 2945,
      "▁val": 2946,
      "▁possible": 2947,
      "▁многи": 2948,
      "тых": 2949,
      "ющий": 2950,
      "ссия": 2951,
      "▁Как": 2952,
      "▁Off": 2953,
      "▁есть": 2954,
      "▁discus": 2955,
      "▁группы": 2956,
      "▁широ": 2957,
      "▁nat": 2958,
      "▁сотрудничества": 2959,
      "▁x": 2960,
      "▁Ag": 2961,
      "ivid": 2962,
      "▁распо": 2963,
      "▁relevant": 2964,
      "▁id": 2965,
      "▁развива": 2966,
      "artment": 2967,
      "▁целью": 2968,
      "лежа": 2969,
      "▁three": 2970,
      "▁случае": 2971,
      "▁deleg": 2972,
      "▁странах": 2973,
      "▁устойчи": 2974,
      "CE": 2975,
      "▁средств": 2976,
      "▁Ж": 2977,
      "▁Bo": 2978,
      "нение": 2979,
      "▁продук": 2980,
      "▁специаль": 2981,
      "▁них": 2982,
      "usiness": 2983,
      "erc": 2984,
      "▁Из": 2985,
      "▁princip": 2986,
      "дно": 2987,
      "▁вза": 2988,
      "▁necessary": 2989,
      "ференции": 2990,
      "нь": 2991,
      "ital": 2992,
      "▁консульта": 2993,
      "ners": 2994,
      "aration": 2995,
      "нес": 2996,
      "ское": 2997,
      "▁training": 2998,
      "por": 2999,
      "▁agree": 3000,
      "▁did": 3001,
      "▁политики": 3002,
      "▁fra": 3003,
      "ман": 3004,
      "▁way": 3005,
      "мости": 3006,
      "▁Для": 3007,
      "ogn": 3008,
      "мери": 3009,
      "строй": 3010,
      "кри": 3011,
      "▁сло": 3012,
      "▁проводи": 3013,
      "зии": 3014,
      "рах": 3015,
      "▁дет": 3016,
      "▁Са": 3017,
      "▁вз": 3018,
      "▁двух": 3019,
      "▁энер": 3020,
      "▁бюд": 3021,
      "ditions": 3022,
      "ческим": 3023,
      "▁информацию": 3024,
      "▁integ": 3025,
      "▁жизни": 3026,
      "ября": 3027,
      "▁предлож": 3028,
      "кое": 3029,
      "мест": 3030,
      "▁continue": 3031,
      "ственных": 3032,
      "скольку": 3033,
      "▁area": 3034,
      "▁sur": 3035,
      "▁нор": 3036,
      "▁general": 3037,
      "enn": 3038,
      "шению": 3039,
      "лобаль": 3040,
      "ah": 3041,
      "▁потенциа": 3042,
      "▁parties": 3043,
      "▁each": 3044,
      "ники": 3045,
      "рации": 3046,
      "▁кри": 3047,
      "ror": 3048,
      "сты": 3049,
      "пей": 3050,
      "▁action": 3051,
      "▁grow": 3052,
      "▁где": 3053,
      "ib": 3054,
      "▁since": 3055,
      "▁защиты": 3056,
      "less": 3057,
      "▁capacity": 3058,
      "hemale": 3059,
      "▁правительства": 3060,
      "ool": 3061,
      "▁submit": 3062,
      "пример": 3063,
      "бро": 3064,
      "▁Афри": 3065,
      "▁поч": 3066,
      "▁которой": 3067,
      "▁ситуа": 3068,
      "▁design": 3069,
      "ator": 3070,
      "▁перед": 3071,
      "ским": 3072,
      "вно": 3073,
      "▁пя": 3074,
      "▁Что": 3075,
      "arian": 3076,
      "▁sust": 3077,
      "щества": 3078,
      "чь": 3079,
      "▁Pe": 3080,
      "▁выбо": 3081,
      "▁стан": 3082,
      "щую": 3083,
      "кую": 3084,
      "▁дека": 3085,
      "▁каж": 3086,
      "▁Безопасности": 3087,
      "▁she": 3088,
      "хода": 3089,
      "ai": 3090,
      "▁докумен": 3091,
      "▁proced": 3092,
      "▁обсу": 3093,
      "▁while": 3094,
      "нутрен": 3095,
      "▁December": 3096,
      "▁ответствен": 3097,
      "▁anal": 3098,
      "▁осо": 3099,
      "ствия": 3100,
      "oci": 3101,
      "aterial": 3102,
      "флик": 3103,
      "udget": 3104,
      "▁цент": 3105,
      "ultural": 3106,
      "▁Де": 3107,
      "stand": 3108,
      "▁Sp": 3109,
      "стан": 3110,
      "▁full": 3111,
      "▁staff": 3112,
      "▁представлен": 3113,
      "▁мето": 3114,
      "ордина": 3115,
      "люд": 3116,
      "▁working": 3117,
      "lim": 3118,
      "▁увели": 3119,
      "▁парт": 3120,
      "▁occ": 3121,
      "▁сказа": 3122,
      "▁Office": 3123,
      "▁treat": 3124,
      "▁cer": 3125,
      "▁European": 3126,
      "▁Ec": 3127,
      "▁identi": 3128,
      "▁стро": 3129,
      "▁because": 3130,
      "els": 3131,
      "вших": 3132,
      "▁role": 3133,
      "▁indic": 3134,
      "▁представля": 3135,
      "▁имеет": 3136,
      "▁local": 3137,
      "▁free": 3138,
      "▁средства": 3139,
      "isl": 3140,
      "▁allow": 3141,
      "▁play": 3142,
      "сах": 3143,
      "▁exist": 3144,
      "▁зако": 3145,
      "▁мен": 3146,
      "▁Dep": 3147,
      "▁adopted": 3148,
      "сона": 3149,
      "ajor": 3150,
      "▁правам": 3151,
      "▁другие": 3152,
      "нить": 3153,
      "▁дополнитель": 3154,
      "▁ту": 3155,
      "▁служ": 3156,
      "▁насили": 3157,
      "▁Organiz": 3158,
      "ariat": 3159,
      "▁men": 3160,
      "jects": 3161,
      "▁больше": 3162,
      "нен": 3163,
      "ister": 3164,
      "▁Од": 3165,
      "▁ear": 3166,
      "cess": 3167,
      "▁элек": 3168,
      "oura": 3169,
      "▁fun": 3170,
      "omp": 3171,
      "▁коми": 3172,
      "▁внутрен": 3173,
      "ступи": 3174,
      "outh": 3175,
      "stit": 3176,
      "▁Республики": 3177,
      "чает": 3178,
      "лем": 3179,
      "служи": 3180,
      "eric": 3181,
      "держи": 3182,
      "▁control": 3183,
      "▁сро": 3184,
      "ванием": 3185,
      "чный": 3186,
      "тельство": 3187,
      "▁just": 3188,
      "▁ско": 3189,
      "▁обеспечить": 3190,
      "ring": 3191,
      "дел": 3192,
      "ственного": 3193,
      "iving": 3194,
      "▁окру": 3195,
      "▁open": 3196,
      "▁организация": 3197,
      "▁финанси": 3198,
      "▁делега": 3199,
      "▁лица": 3200,
      "▁does": 3201,
      "водя": 3202,
      "▁Pol": 3203,
      "▁small": 3204,
      "деб": 3205,
      "ended": 3206,
      "lig": 3207,
      "▁accordance": 3208,
      "▁ur": 3209,
      "льных": 3210,
      "фициаль": 3211,
      "▁different": 3212,
      "▁enc": 3213,
      "вом": 3214,
      "▁cost": 3215,
      "▁Те": 3216,
      "▁эк": 3217,
      "▁себя": 3218,
      "echan": 3219,
      "▁международных": 3220,
      "▁группа": 3221,
      "тные": 3222,
      "▁field": 3223,
      "ья": 3224,
      "▁возможность": 3225,
      "▁отмети": 3226,
      "▁улуч": 3227,
      "▁занима": 3228,
      "ropri": 3229,
      "▁Work": 3230,
      "▁Ни": 3231,
      "ainable": 3232,
      "▁invol": 3233,
      "▁очень": 3234,
      "шие": 3235,
      "▁progress": 3236,
      "▁months": 3237,
      "▁Pl": 3238,
      "ender": 3239,
      "oy": 3240,
      "line": 3241,
      "ged": 3242,
      "▁prior": 3243,
      "ouse": 3244,
      "▁sim": 3245,
      "▁проф": 3246,
      "▁real": 3247,
      "ek": 3248,
      "член": 3249,
      "▁New": 3250,
      "▁All": 3251,
      "тие": 3252,
      "▁вопрос": 3253,
      "емые": 3254,
      "ividual": 3255,
      "сторон": 3256,
      "▁пользо": 3257,
      "▁major": 3258,
      "стато": 3259,
      "сован": 3260,
      "▁совеща": 3261,
      "▁sti": 3262,
      "ООН": 3263,
      "▁течение": 3264,
      "ined": 3265,
      "▁nuclear": 3266,
      "▁подо": 3267,
      "▁через": 3268,
      "▁Пра": 3269,
      "клад": 3270,
      "▁требо": 3271,
      "▁которое": 3272,
      "une": 3273,
      "▁respect": 3274,
      "рами": 3275,
      "вил": 3276,
      "▁ду": 3277,
      "йти": 3278,
      "▁конфлик": 3279,
      "▁статьи": 3280,
      "▁water": 3281,
      "▁людей": 3282,
      "▁позволя": 3283,
      "▁прилож": 3284,
      "▁обу": 3285,
      "▁technical": 3286,
      "▁оказы": 3287,
      "▁express": 3288,
      "чать": 3289,
      "▁improve": 3290,
      "oms": 3291,
      "tics": 3292,
      "▁подчер": 3293,
      "▁причи": 3294,
      "▁Acc": 3295,
      "▁подтвер": 3296,
      "ster": 3297,
      "ющего": 3298,
      "▁reports": 3299,
      "▁conflic": 3300,
      "▁established": 3301,
      "▁пар": 3302,
      "▁органи": 3303,
      "ностей": 3304,
      "ults": 3305,
      "▁then": 3306,
      "ственно": 3307,
      "ватель": 3308,
      "▁два": 3309,
      "кримина": 3310,
      "nec": 3311,
      "▁друго": 3312,
      "▁const": 3313,
      "▁case": 3314,
      "▁переда": 3315,
      "▁спе": 3316,
      "▁фа": 3317,
      "▁But": 3318,
      "ствие": 3319,
      "▁персона": 3320,
      "ird": 3321,
      "▁мир": 3322,
      "▁рассматри": 3323,
      "▁дей": 3324,
      "▁Груп": 3325,
      "range": 3326,
      "▁три": 3327,
      "▁legisl": 3328,
      "ваются": 3329,
      "ves": 3330,
      "for": 3331,
      "▁экспер": 3332,
      "ruction": 3333,
      "▁conditions": 3334,
      "бре": 3335,
      "▁бюджет": 3336,
      "▁дискримина": 3337,
      "▁относи": 3338,
      "ink": 3339,
      "рий": 3340,
      "▁prof": 3341,
      "▁dom": 3342,
      "ема": 3343,
      "▁individual": 3344,
      "▁groups": 3345,
      "▁язы": 3346,
      "▁ино": 3347,
      "▁встре": 3348,
      "▁World": 3349,
      "▁учреждения": 3350,
      "▁invest": 3351,
      "нитар": 3352,
      "▁использования": 3353,
      "pportun": 3354,
      "ходов": 3355,
      "▁Ассамблеи": 3356,
      "work": 3357,
      "▁They": 3358,
      "ework": 3359,
      "chool": 3360,
      "▁saf": 3361,
      "ash": 3362,
      "▁тра": 3363,
      "нам": 3364,
      "▁материа": 3365,
      "▁employ": 3366,
      "▁second": 3367,
      "▁find": 3368,
      "▁горо": 3369,
      "▁наде": 3370,
      "▁service": 3371,
      "ющиеся": 3372,
      "mework": 3373,
      "дца": 3374,
      "▁suc": 3375,
      "▁отра": 3376,
      "ционных": 3377,
      "стов": 3378,
      "ropriate": 3379,
      "▁material": 3380,
      "▁related": 3381,
      "▁Reg": 3382,
      "зяй": 3383,
      "▁Пре": 3384,
      "нди": 3385,
      "▁меди": 3386,
      "▁act": 3387,
      "ows": 3388,
      "sibility": 3389,
      "▁Program": 3390,
      "▁result": 3391,
      "▁based": 3392,
      "щество": 3393,
      "▁проблемы": 3394,
      "▁remain": 3395,
      "голов": 3396,
      "▁администра": 3397,
      "жды": 3398,
      "▁координа": 3399,
      "▁участие": 3400,
      "▁воору": 3401,
      "нг": 3402,
      "▁perform": 3403,
      "▁Се": 3404,
      "тивных": 3405,
      "▁business": 3406,
      "▁недо": 3407,
      "▁adv": 3408,
      "▁пло": 3409,
      "личе": 3410,
      "▁Sh": 3411,
      "sions": 3412,
      "▁direct": 3413,
      "▁document": 3414,
      "ences": 3415,
      "▁recogn": 3416,
      "тивного": 3417,
      "▁учрежд": 3418,
      "нять": 3419,
      "self": 3420,
      "▁assess": 3421,
      "▁project": 3422,
      "▁various": 3423,
      "▁coord": 3424,
      "читы": 3425,
      "riminal": 3426,
      "▁mul": 3427,
      "enda": 3428,
      "▁needs": 3429,
      "▁violence": 3430,
      "▁глав": 3431,
      "этому": 3432,
      "▁gra": 3433,
      "▁взаимо": 3434,
      "▁mechan": 3435,
      "▁recommendations": 3436,
      "▁даль": 3437,
      "▁разработ": 3438,
      "▁basis": 3439,
      "мир": 3440,
      "▁ben": 3441,
      "▁ris": 3442,
      "жне": 3443,
      "мов": 3444,
      "epend": 3445,
      "щен": 3446,
      "▁foc": 3447,
      "▁air": 3448,
      "overnmental": 3449,
      "▁ше": 3450,
      "▁диа": 3451,
      "кий": 3452,
      "раи": 3453,
      "vate": 3454,
      "▁opportun": 3455,
      "▁cases": 3456,
      "▁отмеча": 3457,
      "рори": 3458,
      "▁голо": 3459,
      "▁распростран": 3460,
      "▁proper": 3461,
      "iven": 3462,
      "▁Комитета": 3463,
      "▁post": 3464,
      "▁Pal": 3465,
      "▁всем": 3466,
      "правитель": 3467,
      "▁Americ": 3468,
      "▁ар": 3469,
      "ently": 3470,
      "рек": 3471,
      "▁меня": 3472,
      "▁specific": 3473,
      "сколько": 3474,
      "▁теле": 3475,
      "fy": 3476,
      "мые": 3477,
      "aren": 3478,
      "▁May": 3479,
      "▁consider": 3480,
      "ьез": 3481,
      "ternal": 3482,
      "rimination": 3483,
      "▁стандар": 3484,
      "чей": 3485,
      "rael": 3486,
      "uture": 3487,
      "rug": 3488,
      "▁ри": 3489,
      "зд": 3490,
      "▁зем": 3491,
      "ived": 3492,
      "▁сель": 3493,
      "▁comb": 3494,
      "▁предпри": 3495,
      "▁institutions": 3496,
      "ept": 3497,
      "▁back": 3498,
      "ческое": 3499,
      "лли": 3500,
      "▁examp": 3501,
      "▁поддержа": 3502,
      "▁должен": 3503,
      "▁beli": 3504,
      "реть": 3505,
      "▁land": 3506,
      "люда": 3507,
      "cept": 3508,
      "▁spe": 3509,
      "▁Organization": 3510,
      "allen": 3511,
      "етво": 3512,
      "▁декабря": 3513,
      "du": 3514,
      "▁один": 3515,
      "▁official": 3516,
      "ross": 3517,
      "▁conduc": 3518,
      "▁beh": 3519,
      "▁Соедин": 3520,
      "▁успе": 3521,
      "▁опы": 3522,
      "степ": 3523,
      "ilitary": 3524,
      "▁миро": 3525,
      "▁нас": 3526,
      "ете": 3527,
      "▁Комиссии": 3528,
      "▁power": 3529,
      "▁policies": 3530,
      "кам": 3531,
      "▁сти": 3532,
      "▁market": 3533,
      "▁item": 3534,
      "▁administ": 3535,
      "▁appropriate": 3536,
      "▁результате": 3537,
      "▁found": 3538,
      "▁upon": 3539,
      "▁National": 3540,
      "льного": 3541,
      "▁include": 3542,
      "гии": 3543,
      "яс": 3544,
      "зер": 3545,
      "▁Ser": 3546,
      "▁глобаль": 3547,
      "ators": 3548,
      "лез": 3549,
      "▁проекта": 3550,
      "▁времени": 3551,
      "влетво": 3552,
      "▁точ": 3553,
      "uly": 3554,
      "▁Member": 3555,
      "▁ша": 3556,
      "шем": 3557,
      "erman": 3558,
      "▁ret": 3559,
      "▁моло": 3560,
      "форми": 3561,
      "▁society": 3562,
      "▁lim": 3563,
      "ately": 3564,
      "кви": 3565,
      "▁trade": 3566,
      "▁reduc": 3567,
      "ерт": 3568,
      "▁hand": 3569,
      "ually": 3570,
      "токо": 3571,
      "▁Israel": 3572,
      "▁aim": 3573,
      "ческая": 3574,
      "▁вопросу": 3575,
      "▁Си": 3576,
      "▁поскольку": 3577,
      "▁исклю": 3578,
      "▁целей": 3579,
      "▁возможности": 3580,
      "екла": 3581,
      "▁организаций": 3582,
      "▁increase": 3583,
      "▁место": 3584,
      "нению": 3585,
      "▁решение": 3586,
      "▁don": 3587,
      "▁серьез": 3588,
      "▁budget": 3589,
      "▁Ap": 3590,
      "нициа": 3591,
      "▁typ": 3592,
      "ave": 3593,
      "▁струк": 3594,
      "▁list": 3595,
      "roduc": 3596,
      "▁ти": 3597,
      "▁находи": 3598,
      "тек": 3599,
      "рованных": 3600,
      "фици": 3601,
      "▁Цент": 3602,
      "▁части": 3603,
      "▁поддержи": 3604,
      "loc": 3605,
      "▁oblig": 3606,
      "▁кто": 3607,
      "kra": 3608,
      "▁проведения": 3609,
      "▁ц": 3610,
      "▁поддержки": 3611,
      "to": 3612,
      "циали": 3613,
      "▁Russia": 3614,
      "▁future": 3615,
      "▁значение": 3616,
      "▁gen": 3617,
      "стана": 3618,
      "ules": 3619,
      "▁Га": 3620,
      "▁такие": 3621,
      "tific": 3622,
      "lection": 3623,
      "хов": 3624,
      "▁день": 3625,
      "▁mand": 3626,
      "▁различных": 3627,
      "▁электро": 3628,
      "еде": 3629,
      "▁независи": 3630,
      "стри": 3631,
      "▁вопросы": 3632,
      "▁consult": 3633,
      "ведения": 3634,
      "льные": 3635,
      "ustice": 3636,
      "▁юри": 3637,
      "▁tow": 3638,
      "▁Dis": 3639,
      "▁сокра": 3640,
      "▁care": 3641,
      "тельных": 3642,
      "▁sex": 3643,
      "tle": 3644,
      "тен": 3645,
      "▁partners": 3646,
      "▁роль": 3647,
      "▁спра": 3648,
      "сом": 3649,
      "▁гума": 3650,
      "чета": 3651,
      "▁Рабо": 3652,
      "▁уда": 3653,
      "▁совмест": 3654,
      "encies": 3655,
      "▁прогре": 3656,
      "ственные": 3657,
      "пад": 3658,
      "▁jud": 3659,
      "▁get": 3660,
      "▁ener": 3661,
      "▁обзо": 3662,
      "▁поддержку": 3663,
      "▁собой": 3664,
      "▁даже": 3665,
      "ars": 3666,
      "▁X": 3667,
      "нных": 3668,
      "alf": 3669,
      "▁June": 3670,
      "▁bro": 3671,
      "ocol": 3672,
      "▁means": 3673,
      "akh": 3674,
      "▁Govern": 3675,
      "ethod": 3676,
      "▁developed": 3677,
      "▁обслужи": 3678,
      "ructure": 3679,
      "льно": 3680,
      "▁signific": 3681,
      "▁образования": 3682,
      "▁оружия": 3683,
      "▁наб": 3684,
      "▁day": 3685,
      "бор": 3686,
      "▁Africa": 3687,
      "▁гаран": 3688,
      "▁программа": 3689,
      "▁игра": 3690,
      "▁change": 3691,
      "Ham": 3692,
      "жу": 3693,
      "▁эко": 3694,
      "▁Ph": 3695,
      "ощ": 3696,
      "▁человек": 3697,
      "▁sector": 3698,
      "▁постоян": 3699,
      "▁судеб": 3700,
      "▁луч": 3701,
      "▁best": 3702,
      "▁focus": 3703,
      "▁Q": 3704,
      "the": 3705,
      "ом": 3706,
      "воз": 3707,
      "itarian": 3708,
      "▁деятельность": 3709,
      "sec": 3710,
      "▁удовлетво": 3711,
      "ото": 3712,
      "Hamster": 3713,
      "▁xHamster": 3714,
      "eur": 3715,
      "▁Economic": 3716,
      "▁elect": 3717,
      "▁помощь": 3718,
      "▁рын": 3719,
      "rong": 3720,
      "▁плани": 3721,
      "istan": 3722,
      "atory": 3723,
      "деля": 3724,
      "годня": 3725,
      "жете": 3726,
      "▁i": 3727,
      "ит": 3728,
      "цу": 3729,
      "apons": 3730,
      "▁down": 3731,
      "ik": 3732,
      "мым": 3733,
      "графи": 3734,
      "▁принять": 3735,
      "▁chang": 3736,
      "▁With": 3737,
      "▁работе": 3738,
      "dd": 3739,
      "либо": 3740,
      "▁бан": 3741,
      "▁вам": 3742,
      "▁wel": 3743,
      "▁доклада": 3744,
      "▁production": 3745,
      "▁Fin": 3746,
      "ID": 3747,
      "ule": 3748,
      "▁проси": 3749,
      "емократи": 3750,
      "fied": 3751,
      "▁использу": 3752,
      "жении": 3753,
      "▁х": 3754,
      "▁шко": 3755,
      "▁здо": 3756,
      "▁communic": 3757,
      "▁clear": 3758,
      "шта": 3759,
      "▁benef": 3760,
      "▁Ukra": 3761,
      "▁Parties": 3762,
      "торов": 3763,
      "▁objec": 3764,
      "вари": 3765,
      "hib": 3766,
      "▁last": 3767,
      "▁выс": 3768,
      "▁monitor": 3769,
      "▁particularly": 3770,
      "▁Организа": 3771,
      "▁Под": 3772,
      "tal": 3773,
      "▁предоставля": 3774,
      "▁whe": 3775,
      "▁транс": 3776,
      "▁obs": 3777,
      "airs": 3778,
      "▁pay": 3779,
      "▁considered": 3780,
      "▁eng": 3781,
      "▁However": 3782,
      "rab": 3783,
      "▁пы": 3784,
      "стин": 3785,
      "▁каждо": 3786,
      "etwork": 3787,
      "inian": 3788,
      "▁органов": 3789,
      "▁framework": 3790,
      "▁connec": 3791,
      "▁systems": 3792,
      "▁большо": 3793,
      "illion": 3794,
      "▁still": 3795,
      "▁indust": 3796,
      "▁Fed": 3797,
      "use": 3798,
      "▁услуг": 3799,
      "atic": 3800,
      "▁количе": 3801,
      "▁authorities": 3802,
      "тно": 3803,
      "кси": 3804,
      "tocol": 3805,
      "▁проблем": 3806,
      "▁транспо": 3807,
      "▁система": 3808,
      "▁гуманитар": 3809,
      "ждение": 3810,
      "▁char": 3811,
      "мыш": 3812,
      "лети": 3813,
      "▁отсут": 3814,
      "▁challen": 3815,
      "▁работу": 3816,
      "▁deter": 3817,
      "чу": 3818,
      "▁large": 3819,
      "▁July": 3820,
      "▁разо": 3821,
      "▁места": 3822,
      "▁окружа": 3823,
      "▁мене": 3824,
      "ъем": 3825,
      "▁потенциала": 3826,
      "▁завер": 3827,
      "▁террори": 3828,
      "tention": 3829,
      "▁Res": 3830,
      "▁инициа": 3831,
      "парта": 3832,
      "▁Programme": 3833,
      "▁поощ": 3834,
      "прав": 3835,
      "ban": 3836,
      "▁проект": 3837,
      "▁Se": 3838,
      "▁Однако": 3839,
      "▁стре": 3840,
      "II": 3841,
      "▁results": 3842,
      "▁econom": 3843,
      "▁этим": 3844,
      "хранения": 3845,
      "▁tre": 3846,
      "▁here": 3847,
      "▁вопросов": 3848,
      "▁energy": 3849,
      "▁achieve": 3850,
      "tig": 3851,
      "▁provisions": 3852,
      "вала": 3853,
      "тиво": 3854,
      "▁required": 3855,
      "▁concerned": 3856,
      "рав": 3857,
      "шим": 3858,
      "▁strateg": 3859,
      "▁Ба": 3860,
      "asing": 3861,
      "▁выше": 3862,
      "▁иностран": 3863,
      "▁среди": 3864,
      "▁нет": 3865,
      "▁tr": 3866,
      "▁соответствующих": 3867,
      "▁cust": 3868,
      "▁noted": 3869,
      "▁испол": 3870,
      "▁професси": 3871,
      "uge": 3872,
      "▁low": 3873,
      "цио": 3874,
      "▁достиг": 3875,
      "▁levels": 3876,
      "▁дальней": 3877,
      "▁свой": 3878,
      "▁изменения": 3879,
      "льной": 3880,
      "чении": 3881,
      "▁инвести": 3882,
      "ger": 3883,
      "▁сви": 3884,
      "лиз": 3885,
      "▁issue": 3886,
      "▁population": 3887,
      "рей": 3888,
      "▁учетом": 3889,
      "ological": 3890,
      "CO": 3891,
      "▁членов": 3892,
      "bs": 3893,
      "▁должна": 3894,
      "ect": 3895,
      "льный": 3896,
      "▁sustainable": 3897,
      "▁Serv": 3898,
      "aim": 3899,
      "▁вме": 3900,
      "▁новых": 3901,
      "▁развитию": 3902,
      "▁инте": 3903,
      "▁лишь": 3904,
      "дия": 3905,
      "дви": 3906,
      "▁step": 3907,
      "▁проис": 3908,
      "▁military": 3909,
      "▁Ку": 3910,
      "▁met": 3911,
      "▁зо": 3912,
      "▁говорит": 3913,
      "▁enh": 3914,
      "▁method": 3915,
      "▁настоящее": 3916,
      "▁процесса": 3917,
      "шая": 3918,
      "▁school": 3919,
      "ленных": 3920,
      "atus": 3921,
      "▁private": 3922,
      "▁кла": 3923,
      "▁предпо": 3924,
      "vious": 3925,
      "▁ла": 3926,
      "▁question": 3927,
      "▁путем": 3928,
      "▁повест": 3929,
      "ляр": 3930,
      "▁deli": 3931,
      "▁Ар": 3932,
      "▁вас": 3933,
      "▁example": 3934,
      "▁ан": 3935,
      "▁Union": 3936,
      "▁фон": 3937,
      "▁gender": 3938,
      "▁quality": 3939,
      "обра": 3940,
      "▁look": 3941,
      "▁документа": 3942,
      "▁значитель": 3943,
      "▁Ла": 3944,
      "еть": 3945,
      "▁существую": 3946,
      "пти": 3947,
      "▁importance": 3948,
      "тации": 3949,
      "ober": 3950,
      "▁Me": 3951,
      "▁success": 3952,
      "▁возра": 3953,
      "тной": 3954,
      "личи": 3955,
      "▁часть": 3956,
      "зации": 3957,
      "▁promote": 3958,
      "▁смо": 3959,
      "ocial": 3960,
      "▁given": 3961,
      "ned": 3962,
      "тельного": 3963,
      "▁муж": 3964,
      "▁Ру": 3965,
      "▁нео": 3966,
      "▁So": 3967,
      "▁национальных": 3968,
      "гру": 3969,
      "nel": 3970,
      "▁significant": 3971,
      "тельств": 3972,
      "▁сотрудников": 3973,
      "▁угро": 3974,
      "анда": 3975,
      "из": 3976,
      "▁Сек": 3977,
      "им": 3978,
      "ходит": 3979,
      "▁Tra": 3980,
      "abor": 3981,
      "▁своего": 3982,
      "щими": 3983,
      "▁encoura": 3984,
      "org": 3985,
      "ock": 3986,
      "▁Working": 3987,
      "ried": 3988,
      "▁касается": 3989,
      "ci": 3990,
      "issions": 3991,
      "▁своем": 3992,
      "▁Su": 3993,
      "eptember": 3994,
      "▁случая": 3995,
      "governmental": 3996,
      "ced": 3997,
      "ource": 3998,
      "▁days": 3999,
      "▁актив": 4000,
      "ode": 4001,
      "▁enti": 4002,
      "▁объек": 4003,
      "▁vic": 4004,
      "▁эле": 4005,
      "ток": 4006,
      "ета": 4007,
      "▁four": 4008,
      "▁big": 4009,
      "▁создания": 4010,
      "▁любо": 4011,
      "ests": 4012,
      "oting": 4013,
      "▁problems": 4014,
      "aster": 4015,
      "▁Европей": 4016,
      "менно": 4017,
      "overty": 4018,
      "▁understand": 4019,
      "rated": 4020,
      "rial": 4021,
      "ющими": 4022,
      "цин": 4023,
      "▁head": 4024,
      "▁projects": 4025,
      "▁правительство": 4026,
      "▁После": 4027,
      "▁ря": 4028,
      "▁war": 4029,
      "pecially": 4030,
      "ories": 4031,
      "▁То": 4032,
      "дить": 4033,
      "▁Palest": 4034,
      "men": 4035,
      "come": 4036,
      "стях": 4037,
      "▁Пе": 4038,
      "▁определен": 4039,
      "▁отдель": 4040,
      "con": 4041,
      "▁rese": 4042,
      "▁Rec": 4043,
      "▁delegation": 4044,
      "▁территории": 4045,
      "▁оза": 4046,
      "▁сфе": 4047,
      "▁ver": 4048,
      "▁September": 4049,
      "mar": 4050,
      "▁руковод": 4051,
      "воо": 4052,
      "▁разме": 4053,
      "▁необходимость": 4054,
      "▁prevent": 4055,
      "eping": 4056,
      "▁предусматри": 4057,
      "сло": 4058,
      "▁сент": 4059,
      "▁акти": 4060,
      "ww": 4061,
      "пов": 4062,
      "lected": 4063,
      "▁name": 4064,
      "eb": 4065,
      "rehen": 4066,
      "сами": 4067,
      "zer": 4068,
      "▁мне": 4069,
      "тые": 4070,
      "fer": 4071,
      "▁специали": 4072,
      "▁имеют": 4073,
      "▁sever": 4074,
      "▁вой": 4075,
      "емой": 4076,
      "▁terror": 4077,
      "правля": 4078,
      "▁обы": 4079,
      "▁Board": 4080,
      "рую": 4081,
      "ствий": 4082,
      "▁attention": 4083,
      "еди": 4084,
      "▁общества": 4085,
      "▁reas": 4086,
      "▁much": 4087,
      "▁Kaz": 4088,
      "mp": 4089,
      "▁решений": 4090,
      "▁назна": 4091,
      "▁want": 4092,
      "жению": 4093,
      "▁несколько": 4094,
      "hold": 4095,
      "▁хоро": 4096,
      "▁participation": 4097,
      "▁whether": 4098,
      "▁докладе": 4099,
      "ract": 4100,
      "▁мень": 4101,
      "▁Oct": 4102,
      "▁нам": 4103,
      "▁company": 4104,
      "жида": 4105,
      "ready": 4106,
      "▁government": 4107,
      "irc": 4108,
      "istry": 4109,
      "ateral": 4110,
      "▁подготовки": 4111,
      "▁ген": 4112,
      "мули": 4113,
      "angu": 4114,
      "▁торговли": 4115,
      "▁territ": 4116,
      "mber": 4117,
      "▁источ": 4118,
      "мом": 4119,
      "▁Gu": 4120,
      "eg": 4121,
      "irl": 4122,
      "жнему": 4123,
      "▁борьбе": 4124,
      "▁сою": 4125,
      "▁using": 4126,
      "▁Social": 4127,
      "▁принятия": 4128,
      "того": 4129,
      "или": 4130,
      "▁conflict": 4131,
      "▁дви": 4132,
      "▁уголов": 4133,
      "ging": 4134,
      "▁институ": 4135,
      "верси": 4136,
      "▁Jan": 4137,
      "▁ки": 4138,
      "▁получи": 4139,
      "sequ": 4140,
      "▁наибо": 4141,
      "тан": 4142,
      "▁достижения": 4143,
      "▁guid": 4144,
      "▁минист": 4145,
      "▁предприя": 4146,
      "▁agenda": 4147,
      "▁Nove": 4148,
      "▁relations": 4149,
      "тера": 4150,
      "▁развитие": 4151,
      "▁действия": 4152,
      "▁What": 4153,
      "equ": 4154,
      "sk": 4155,
      "▁просто": 4156,
      "▁African": 4157,
      "▁ци": 4158,
      "▁Mon": 4159,
      "ceed": 4160,
      "чены": 4161,
      "▁Comp": 4162,
      "▁реши": 4163,
      "пло": 4164,
      "▁Так": 4165,
      "▁several": 4166,
      "▁Шта": 4167,
      "atis": 4168,
      "▁certain": 4169,
      "▁запре": 4170,
      "▁Они": 4171,
      "▁другими": 4172,
      "▁already": 4173,
      "▁sk": 4174,
      "itiz": 4175,
      "краи": 4176,
      "▁аспек": 4177,
      "мена": 4178,
      "▁representatives": 4179,
      "▁здоров": 4180,
      "▁использовать": 4181,
      "▁become": 4182,
      "▁dev": 4183,
      "▁October": 4184,
      "рко": 4185,
      "▁котором": 4186,
      "▁оценки": 4187,
      "▁находя": 4188,
      "▁убе": 4189,
      "rehensive": 4190,
      "TA": 4191,
      "▁Department": 4192,
      "duce": 4193,
      "▁прио": 4194,
      "▁November": 4195,
      "▁Ви": 4196,
      "▁привет": 4197,
      "▁Ве": 4198,
      "▁especially": 4199,
      "▁key": 4200,
      "▁относительно": 4201,
      "прежнему": 4202,
      "сред": 4203,
      "▁bodies": 4204,
      "▁надлежа": 4205,
      "ES": 4206,
      "▁requirements": 4207,
      "чис": 4208,
      "тии": 4209,
      "▁основных": 4210,
      "▁применя": 4211,
      "ware": 4212,
      "▁God": 4213,
      "роб": 4214,
      "▁humanitarian": 4215,
      "▁She": 4216,
      "▁подгото": 4217,
      "▁противо": 4218,
      "▁пози": 4219,
      "▁Програм": 4220,
      "▁ги": 4221,
      "rip": 4222,
      "▁Кита": 4223,
      "▁bi": 4224,
      "▁культур": 4225,
      "кну": 4226,
      "▁Бу": 4227,
      "ril": 4228,
      "тего": 4229,
      "▁Cour": 4230,
      "▁развивающихся": 4231,
      "смотрен": 4232,
      "▁March": 4233,
      "▁мере": 4234,
      "▁сни": 4235,
      "▁family": 4236,
      "▁poverty": 4237,
      "▁additional": 4238,
      "▁US": 4239,
      "▁цели": 4240,
      "▁consideration": 4241,
      "▁менее": 4242,
      "▁официаль": 4243,
      "▁закон": 4244,
      "▁These": 4245,
      "дии": 4246,
      "▁independ": 4247,
      "▁environmental": 4248,
      "▁vol": 4249,
      "▁хоте": 4250,
      "▁Ди": 4251,
      "▁pres": 4252,
      "rative": 4253,
      "▁октя": 4254,
      "▁виде": 4255,
      "▁которого": 4256,
      "▁technology": 4257,
      "▁чу": 4258,
      "▁заня": 4259,
      "iversity": 4260,
      "iss": 4261,
      "laration": 4262,
      "ulture": 4263,
      "▁products": 4264,
      "еты": 4265,
      "новь": 4266,
      "▁submitted": 4267,
      "▁совет": 4268,
      "▁foreign": 4269,
      "▁hig": 4270,
      "лого": 4271,
      "щихся": 4272,
      "ческую": 4273,
      "лки": 4274,
      "reg": 4275,
      "телем": 4276,
      "▁enter": 4277,
      "▁fl": 4278,
      "▁above": 4279,
      "ick": 4280,
      "▁применения": 4281,
      "be": 4282,
      "▁six": 4283,
      "▁reform": 4284,
      "▁another": 4285,
      "▁приз": 4286,
      "▁ему": 4287,
      "▁approach": 4288,
      "час": 4289,
      "AN": 4290,
      "▁less": 4291,
      "▁China": 4292,
      "▁производи": 4293,
      "▁Ан": 4294,
      "▁свиде": 4295,
      "side": 4296,
      "▁оче": 4297,
      "зах": 4298,
      "▁изу": 4299,
      "▁towards": 4300,
      "лений": 4301,
      "Add": 4302,
      "▁разре": 4303,
      "▁данные": 4304,
      "▁Asi": 4305,
      "aus": 4306,
      "рить": 4307,
      "нием": 4308,
      "▁помощью": 4309,
      "ording": 4310,
      "▁степ": 4311,
      "▁экологи": 4312,
      "▁weapons": 4313,
      "▁дискриминации": 4314,
      "▁Ass": 4315,
      "▁организо": 4316,
      "▁impact": 4317,
      "estic": 4318,
      "ope": 4319,
      "▁Украи": 4320,
      "▁let": 4321,
      "▁насилия": 4322,
      "▁опас": 4323,
      "▁упо": 4324,
      "indows": 4325,
      "▁legislation": 4326,
      "▁Амери": 4327,
      "чай": 4328,
      "▁манда": 4329,
      "otion": 4330,
      "tis": 4331,
      "▁гру": 4332,
      "▁режи": 4333,
      "▁свобод": 4334,
      "ple": 4335,
      "▁жерт": 4336,
      "мышлен": 4337,
      "▁govern": 4338,
      "▁бед": 4339,
      "мести": 4340,
      "телями": 4341,
      "▁Ra": 4342,
      "▁призывает": 4343,
      "▁dest": 4344,
      "▁доступа": 4345,
      "жде": 4346,
      "▁вновь": 4347,
      "рует": 4348,
      "▁force": 4349,
      "▁профессиональ": 4350,
      "▁связанных": 4351,
      "uary": 4352,
      "ili": 4353,
      "idence": 4354,
      "рам": 4355,
      "see": 4356,
      "▁Direct": 4357,
      "▁прош": 4358,
      "▁Управл": 4359,
      "▁growth": 4360,
      "▁пункт": 4361,
      "▁High": 4362,
      "▁круп": 4363,
      "▁standards": 4364,
      "▁годы": 4365,
      "▁одной": 4366,
      "▁Cont": 4367,
      "▁better": 4368,
      "▁food": 4369,
      "▁ori": 4370,
      "▁кол": 4371,
      "▁transport": 4372,
      "▁всеоб": 4373,
      "utes": 4374,
      "▁Arab": 4375,
      "▁meetings": 4376,
      "▁South": 4377,
      "▁компании": 4378,
      "▁восстано": 4379,
      "▁natural": 4380,
      "elf": 4381,
      "▁рели": 4382,
      "▁случаях": 4383,
      "▁Governments": 4384,
      "pporteur": 4385,
      "▁июня": 4386,
      "ics": 4387,
      "▁меж": 4388,
      "▁operations": 4389,
      "▁охва": 4390,
      "▁fully": 4391,
      "чным": 4392,
      "▁требу": 4393,
      "рит": 4394,
      "станов": 4395,
      "▁непо": 4396,
      "▁безопас": 4397,
      "▁effic": 4398,
      "дует": 4399,
      "▁circ": 4400,
      "▁прось": 4401,
      "▁experience": 4402,
      "▁April": 4403,
      "▁достато": 4404,
      "▁Chair": 4405,
      "▁contain": 4406,
      "▁тыся": 4407,
      "▁понима": 4408,
      "▁continued": 4409,
      "otel": 4410,
      "text": 4411,
      "aced": 4412,
      "▁соблюд": 4413,
      "ейчас": 4414,
      "▁member": 4415,
      "▁When": 4416,
      "▁государство": 4417,
      "тать": 4418,
      "нва": 4419,
      "▁учеб": 4420,
      "▁agencies": 4421,
      "рок": 4422,
      "▁deb": 4423,
      "зма": 4424,
      "▁instru": 4425,
      "ledge": 4426,
      "рению": 4427,
      "тисти": 4428,
      "джа": 4429,
      "циях": 4430,
      "▁большин": 4431,
      "▁медицин": 4432,
      "▁relig": 4433,
      "▁окружающей": 4434,
      "▁поряд": 4435,
      "▁facilit": 4436,
      "▁Она": 4437,
      "▁процентов": 4438,
      "▁привле": 4439,
      "▁freed": 4440,
      "дним": 4441,
      "ipment": 4442,
      "рю": 4443,
      "▁diffic": 4444,
      "лами": 4445,
      "▁proposed": 4446,
      "▁гендер": 4447,
      "eti": 4448,
      "▁стране": 4449,
      "▁хотя": 4450,
      "рас": 4451,
      "▁network": 4452,
      "fact": 4453,
      "▁катего": 4454,
      "ends": 4455,
      "номо": 4456,
      "▁комитета": 4457,
      "▁Раз": 4458,
      "лестин": 4459,
      "▁pass": 4460,
      "▁Kazakh": 4461,
      "▁Всемир": 4462,
      "pris": 4463,
      "ords": 4464,
      "▁Protocol": 4465,
      "su": 4466,
      "io": 4467,
      "▁discrimination": 4468,
      "▁позволи": 4469,
      "▁международной": 4470,
      "▁второ": 4471,
      "▁смер": 4472,
      "▁January": 4473,
      "▁предупре": 4474,
      "▁application": 4475,
      "ционной": 4476,
      "зиден": 4477,
      "▁substan": 4478,
      "aran": 4479,
      "▁traffic": 4480,
      "▁fil": 4481,
      "▁organization": 4482,
      "▁сохра": 4483,
      "▁secret": 4484,
      "▁района": 4485,
      "▁give": 4486,
      "▁това": 4487,
      "ense": 4488,
      "▁мужчи": 4489,
      "деся": 4490,
      "▁note": 4491,
      "▁Court": 4492,
      "hile": 4493,
      "▁месяцев": 4494,
      "▁provides": 4495,
      "▁inves": 4496,
      "▁pot": 4497,
      "ways": 4498,
      "▁апре": 4499,
      "▁existing": 4500,
      "▁Ukraine": 4501,
      "▁body": 4502,
      "▁investig": 4503,
      "▁строи": 4504,
      "тельной": 4505,
      "▁ликви": 4506,
      "uter": 4507,
      "▁пара": 4508,
      "izing": 4509,
      "▁police": 4510,
      "▁close": 4511,
      "ША": 4512,
      "ennium": 4513,
      "▁перегово": 4514,
      "▁able": 4515,
      "▁Израи": 4516,
      "pects": 4517,
      "енного": 4518,
      "кро": 4519,
      "зую": 4520,
      "выми": 4521,
      "▁status": 4522,
      "ives": 4523,
      "▁представить": 4524,
      "▁That": 4525,
      "▁therefore": 4526,
      "▁bl": 4527,
      "▁light": 4528,
      "дент": 4529,
      "▁common": 4530,
      "▁регули": 4531,
      "▁Mar": 4532,
      "▁received": 4533,
      "▁него": 4534,
      "интере": 4535,
      "▁langu": 4536,
      "▁terms": 4537,
      "▁Ro": 4538,
      "ext": 4539,
      "▁increased": 4540,
      "▁might": 4541,
      "▁обору": 4542,
      "▁приорите": 4543,
      "отвра": 4544,
      "▁июля": 4545,
      "yn": 4546,
      "▁Конференции": 4547,
      "ecu": 4548,
      "▁контроля": 4549,
      "armament": 4550,
      "▁оборудо": 4551,
      "ulations": 4552,
      "▁associ": 4553,
      "▁No": 4554,
      "ending": 4555,
      "екларации": 4556,
      "ocra": 4557,
      "нем": 4558,
      "▁янва": 4559,
      "▁strong": 4560,
      "▁разору": 4561,
      "▁обязан": 4562,
      "▁региона": 4563,
      "биль": 4564,
      "▁кос": 4565,
      "▁охра": 4566,
      "▁bu": 4567,
      "▁бежен": 4568,
      "▁спи": 4569,
      "ided": 4570,
      "▁мире": 4571,
      "not": 4572,
      "ature": 4573,
      "см": 4574,
      "▁годов": 4575,
      "▁total": 4576,
      "▁posi": 4577,
      "тельные": 4578,
      "▁toget": 4579,
      "раб": 4580,
      "▁заседании": 4581,
      "▁масшта": 4582,
      "bo": 4583,
      "▁together": 4584,
      "▁нарко": 4585,
      "▁наиболее": 4586,
      "▁detail": 4587,
      "▁return": 4588,
      "▁achiev": 4589,
      "жает": 4590,
      "влении": 4591,
      "▁claim": 4592,
      "▁comprehensive": 4593,
      "▁say": 4594,
      "тифика": 4595,
      "ames": 4596,
      "▁условиях": 4597,
      "грации": 4598,
      "co": 4599,
      "irm": 4600,
      "▁такой": 4601,
      "▁отчет": 4602,
      "▁lit": 4603,
      "ИД": 4604,
      "▁имени": 4605,
      "▁undert": 4606,
      "▁процесс": 4607,
      "тни": 4608,
      "▁due": 4609,
      "aring": 4610,
      "пли": 4611,
      "▁agreed": 4612,
      "thing": 4613,
      "▁воздействи": 4614,
      "ченных": 4615,
      "поко": 4616,
      "IN": 4617,
      "▁согласно": 4618,
      "ides": 4619,
      "▁интер": 4620,
      "ами": 4621,
      "▁пря": 4622,
      "ically": 4623,
      "мпа": 4624,
      "▁многих": 4625,
      "▁слова": 4626,
      "que": 4627,
      "ward": 4628,
      "ancing": 4629,
      "▁press": 4630,
      "▁serious": 4631,
      "▁Be": 4632,
      "▁Бы": 4633,
      "▁общи": 4634,
      "▁постано": 4635,
      "▁докладчи": 4636,
      "▁пользова": 4637,
      "дек": 4638,
      "онов": 4639,
      "ior": 4640,
      "ified": 4641,
      "▁called": 4642,
      "даря": 4643,
      "▁ней": 4644,
      "тивные": 4645,
      "▁least": 4646,
      "▁research": 4647,
      "▁представитель": 4648,
      "лекс": 4649,
      "▁increasing": 4650,
      "тый": 4651,
      "ведли": 4652,
      "▁principles": 4653,
      "неш": 4654,
      "ling": 4655,
      "▁проектов": 4656,
      "ne": 4657,
      "▁ide": 4658,
      "▁озна": 4659,
      "▁context": 4660,
      "▁desc": 4661,
      "tices": 4662,
      "▁сделать": 4663,
      "▁например": 4664,
      "▁предотвра": 4665,
      "▁слож": 4666,
      "dom": 4667,
      "▁незакон": 4668,
      "▁семь": 4669,
      "▁здра": 4670,
      "енти": 4671,
      "▁rules": 4672,
      "▁million": 4673,
      "▁Ge": 4674,
      "▁пор": 4675,
      "ury": 4676,
      "pected": 4677,
      "▁дома": 4678,
      "DP": 4679,
      "ческими": 4680,
      "IS": 4681,
      "▁однако": 4682,
      "▁expressed": 4683,
      "▁проблема": 4684,
      "goti": 4685,
      "вей": 4686,
      "▁girl": 4687,
      "▁domestic": 4688,
      "▁обеспечению": 4689,
      "▁Windows": 4690,
      "▁come": 4691,
      "▁сегодня": 4692,
      "▁мар": 4693,
      "▁criminal": 4694,
      "▁Эти": 4695,
      "▁отве": 4696,
      "af": 4697,
      "▁США": 4698,
      "▁групп": 4699,
      "▁заинтере": 4700,
      "▁современ": 4701,
      "ialog": 4702,
      "▁took": 4703,
      "AT": 4704,
      "▁содействия": 4705,
      "▁посред": 4706,
      "▁monitoring": 4707,
      "▁next": 4708,
      "▁Fund": 4709,
      "▁hold": 4710,
      "▁eas": 4711,
      "ecutive": 4712,
      "▁App": 4713,
      "▁Palestinian": 4714,
      "▁hist": 4715,
      "itation": 4716,
      "вую": 4717,
      "▁рекомендации": 4718,
      "▁threat": 4719,
      "суаль": 4720,
      "orth": 4721,
      "▁active": 4722,
      "ck": 4723,
      "▁requested": 4724,
      "▁пись": 4725,
      "▁analys": 4726,
      "▁можете": 4727,
      "▁tas": 4728,
      "▁протоко": 4729,
      "▁Rapporteur": 4730,
      "▁возможностей": 4731,
      "▁среды": 4732,
      "нова": 4733,
      "▁сы": 4734,
      "▁некоторые": 4735,
      "▁previous": 4736,
      "▁конце": 4737,
      "gest": 4738,
      "щению": 4739,
      "пита": 4740,
      "▁силу": 4741,
      "щении": 4742,
      "над": 4743,
      "совой": 4744,
      "▁living": 4745,
      "▁Пер": 4746,
      "▁Go": 4747,
      "▁Государ": 4748,
      "сить": 4749,
      "версите": 4750,
      "▁Феде": 4751,
      "ube": 4752,
      "влению": 4753,
      "▁число": 4754,
      "▁representative": 4755,
      "▁клиен": 4756,
      "▁risk": 4757,
      "нах": 4758,
      "▁ожида": 4759,
      "нской": 4760,
      "ER": 4761,
      "▁Гер": 4762,
      "▁конку": 4763,
      "phas": 4764,
      "pose": 4765,
      "▁собствен": 4766,
      "▁здравоо": 4767,
      "▁bre": 4768,
      "▁иде": 4769,
      "building": 4770,
      "▁кру": 4771,
      "▁custom": 4772,
      "▁constit": 4773,
      "▁производства": 4774,
      "onst": 4775,
      "▁lack": 4776,
      "▁России": 4777,
      "вор": 4778,
      "▁move": 4779,
      "though": 4780,
      "▁ill": 4781,
      "▁работ": 4782,
      "▁included": 4783,
      "dic": 4784,
      "жной": 4785,
      "▁taking": 4786,
      "▁некоторых": 4787,
      "ам": 4788,
      "▁Vi": 4789,
      "▁числа": 4790,
      "▁чрез": 4791,
      "▁рабочи": 4792,
      "▁дел": 4793,
      "▁дирек": 4794,
      "IV": 4795,
      "▁Секрета": 4796,
      "▁la": 4797,
      "enous": 4798,
      "▁необходимости": 4799,
      "▁ог": 4800,
      "▁contained": 4801,
      "▁таким": 4802,
      "reen": 4803,
      "енной": 4804,
      "keeping": 4805,
      "кими": 4806,
      "▁инстру": 4807,
      "▁Tur": 4808,
      "▁здесь": 4809,
      "▁problem": 4810,
      "вила": 4811,
      "app": 4812,
      "▁Law": 4813,
      "▁власти": 4814,
      "▁citiz": 4815,
      "ght": 4816,
      "▁house": 4817,
      "▁четы": 4818,
      "val": 4819,
      "▁реализации": 4820,
      "▁building": 4821,
      "▁top": 4822,
      "ствуют": 4823,
      "▁Bel": 4824,
      "ющая": 4825,
      "▁cover": 4826,
      "▁тек": 4827,
      "isms": 4828,
      "нные": 4829,
      "▁Minister": 4830,
      "▁содержи": 4831,
      "ческом": 4832,
      "pective": 4833,
      "▁треть": 4834,
      "▁сфере": 4835,
      "▁собы": 4836,
      "тельность": 4837,
      "▁providing": 4838,
      "что": 4839,
      "▁учреждений": 4840,
      "▁учиты": 4841,
      "▁лег": 4842,
      "▁One": 4843,
      "ocratic": 4844,
      "▁осуществлению": 4845,
      "▁достигну": 4846,
      "▁often": 4847,
      "▁обно": 4848,
      "stitution": 4849,
      "▁реб": 4850,
      "▁regarding": 4851,
      "▁Председателя": 4852,
      "▁расследо": 4853,
      "▁emer": 4854,
      "▁сентября": 4855,
      "▁полностью": 4856,
      "▁контек": 4857,
      "▁maintain": 4858,
      "aged": 4859,
      "▁Action": 4860,
      "скими": 4861,
      "▁read": 4862,
      "зм": 4863,
      "▁begin": 4864,
      "uty": 4865,
      "▁экспертов": 4866,
      "▁resolutions": 4867,
      "▁negoti": 4868,
      "лах": 4869,
      "▁доро": 4870,
      "▁глу": 4871,
      "▁subject": 4872,
      "▁прекра": 4873,
      "▁обеспечение": 4874,
      "▁Согла": 4875,
      "▁Ministry": 4876,
      "▁concerning": 4877,
      "ograph": 4878,
      "воду": 4879,
      "▁Ab": 4880,
      "▁sum": 4881,
      "lease": 4882,
      "essional": 4883,
      "нец": 4884,
      "▁course": 4885,
      "сро": 4886,
      "▁space": 4887,
      "▁che": 4888,
      "igenous": 4889,
      "▁тот": 4890,
      "▁entit": 4891,
      "▁влия": 4892,
      "лай": 4893,
      "ufact": 4894,
      "▁компью": 4895,
      "▁ряд": 4896,
      "▁реаль": 4897,
      "▁одного": 4898,
      "мость": 4899,
      "lain": 4900,
      "▁equipment": 4901,
      "▁предпринима": 4902,
      "▁странам": 4903,
      "▁оно": 4904,
      "ющее": 4905,
      "▁наз": 4906,
      "▁Aff": 4907,
      "▁According": 4908,
      "▁establishment": 4909,
      "▁комитет": 4910,
      "▁displ": 4911,
      "▁cho": 4912,
      "▁third": 4913,
      "▁отмечает": 4914,
      "▁палестин": 4915,
      "менты": 4916,
      "▁visit": 4917,
      "▁ve": 4918,
      "▁сектора": 4919,
      "▁city": 4920,
      "▁ав": 4921,
      "▁old": 4922,
      "sed": 4923,
      "▁introduc": 4924,
      "▁treatment": 4925,
      "▁reported": 4926,
      "▁Secretariat": 4927,
      "▁участия": 4928,
      "sp": 4929,
      "фра": 4930,
      "▁одно": 4931,
      "▁affec": 4932,
      "▁трех": 4933,
      "шее": 4934,
      "▁deal": 4935,
      "лон": 4936,
      "лых": 4937,
      "▁долго": 4938,
      "▁осуществлении": 4939,
      "▁Фон": 4940,
      "▁осуществление": 4941,
      "▁пода": 4942,
      "▁complete": 4943,
      "тить": 4944,
      "▁обязательства": 4945,
      "▁justice": 4946,
      "дова": 4947,
      "вов": 4948,
      "▁возвра": 4949,
      "▁responsibility": 4950,
      "ционного": 4951,
      "▁origin": 4952,
      "▁внеш": 4953,
      "▁ны": 4954,
      "▁put": 4955,
      "▁function": 4956,
      "▁Испо": 4957,
      "фа": 4958,
      "▁ess": 4959,
      "ментов": 4960,
      "▁eval": 4961,
      "мень": 4962,
      "▁фай": 4963,
      "▁кур": 4964,
      "▁сообщи": 4965,
      "▁Комиссия": 4966,
      "▁этому": 4967,
      "ised": 4968,
      "пуска": 4969,
      "рованию": 4970,
      "visory": 4971,
      "▁Сер": 4972,
      "▁Aug": 4973,
      "▁agreement": 4974,
      "▁according": 4975,
      "mary": 4976,
      "▁поста": 4977,
      "▁диало": 4978,
      "тного": 4979,
      "▁sent": 4980,
      "▁любы": 4981,
      "вок": 4982,
      "▁промышлен": 4983,
      "▁мая": 4984,
      "гно": 4985,
      "дации": 4986,
      "▁cultural": 4987,
      "▁особо": 4988,
      "▁деся": 4989,
      "▁октября": 4990,
      "▁статисти": 4991,
      "▁выполнения": 4992,
      "▁practices": 4993,
      "пят": 4994,
      "▁ноября": 4995,
      "▁Вер": 4996,
      "гам": 4997,
      "▁счет": 4998,
      "▁America": 4999,
      "▁обеспоко": 5000,
      "labor": 5001,
      "▁норма": 5002,
      "▁разработки": 5003,
      "чением": 5004,
      "▁past": 5005,
      "ницы": 5006,
      "▁извест": 5007,
      "ган": 5008,
      "▁show": 5009,
      "▁Can": 5010,
      "▁условий": 5011,
      "par": 5012,
      "▁er": 5013,
      "▁стату": 5014,
      "▁установлен": 5015,
      "▁Его": 5016,
      "rict": 5017,
      "▁испы": 5018,
      "▁ПР": 5019,
      "▁вырази": 5020,
      "ница": 5021,
      "ional": 5022,
      "▁Ис": 5023,
      "▁прода": 5024,
      "▁ника": 5025,
      "▁клю": 5026,
      "▁mandate": 5027,
      "sc": 5028,
      "▁требования": 5029,
      "formation": 5030,
      "лии": 5031,
      "▁cannot": 5032,
      "▁Article": 5033,
      "▁борьбы": 5034,
      "летия": 5035,
      "▁информация": 5036,
      "▁German": 5037,
      "▁recent": 5038,
      "by": 5039,
      "▁нем": 5040,
      "▁физи": 5041,
      "▁procedures": 5042,
      "▁зависи": 5043,
      "▁публи": 5044,
      "▁добро": 5045,
      "тори": 5046,
      "так": 5047,
      "▁партне": 5048,
      "▁Sw": 5049,
      "▁challenges": 5050,
      "AC": 5051,
      "▁сказал": 5052,
      "▁few": 5053,
      "▁knowledge": 5054,
      "▁пункте": 5055,
      "чается": 5056,
      "▁наш": 5057,
      "▁города": 5058,
      "АТ": 5059,
      "uted": 5060,
      "▁наркоти": 5061,
      "▁tem": 5062,
      "▁Пу": 5063,
      "ON": 5064,
      "▁While": 5065,
      "циони": 5066,
      "irit": 5067,
      "ours": 5068,
      "ционные": 5069,
      "▁dialog": 5070,
      "▁всегда": 5071,
      "бов": 5072,
      "▁стратегии": 5073,
      "▁содей": 5074,
      "▁around": 5075,
      "▁жела": 5076,
      "▁create": 5077,
      "▁broad": 5078,
      "raq": 5079,
      "▁start": 5080,
      "▁повышения": 5081,
      "▁bring": 5082,
      "▁always": 5083,
      "емого": 5084,
      "▁устойчивого": 5085,
      "▁укрепления": 5086,
      "▁мероприятий": 5087,
      "▁возду": 5088,
      "тивный": 5089,
      "▁Lat": 5090,
      "▁мероприятия": 5091,
      "▁Kazakhstan": 5092,
      "фон": 5093,
      "▁персонала": 5094,
      "вили": 5095,
      "▁Declaration": 5096,
      "▁though": 5097,
      "▁entitled": 5098,
      "▁bal": 5099,
      "▁property": 5100,
      "▁Централь": 5101,
      "▁неправитель": 5102,
      "▁могли": 5103,
      "▁short": 5104,
      "force": 5105,
      "cy": 5106,
      "▁team": 5107,
      "▁pen": 5108,
      "регули": 5109,
      "▁суб": 5110,
      "▁юриди": 5111,
      "▁August": 5112,
      "▁заинтересован": 5113,
      "чительно": 5114,
      "воч": 5115,
      "oung": 5116,
      "▁position": 5117,
      "▁Col": 5118,
      "тивной": 5119,
      "▁наблюда": 5120,
      "▁Feb": 5121,
      "▁еди": 5122,
      "way": 5123,
      "▁investment": 5124,
      "ier": 5125,
      "tims": 5126,
      "ton": 5127,
      "▁жизнь": 5128,
      "▁Гла": 5129,
      "ню": 5130,
      "▁еже": 5131,
      "▁провер": 5132,
      "▁кар": 5133,
      "▁Federation": 5134,
      "тный": 5135,
      "▁regular": 5136,
      "▁decided": 5137,
      "нной": 5138,
      "▁форма": 5139,
      "бри": 5140,
      "▁подвер": 5141,
      "▁рассмотрения": 5142,
      "дро": 5143,
      "▁народов": 5144,
      "коло": 5145,
      "ruary": 5146,
      "▁посе": 5147,
      "ians": 5148,
      "▁доба": 5149,
      "▁welcom": 5150,
      "nov": 5151,
      "▁Националь": 5152,
      "▁секретариа": 5153,
      "ственным": 5154,
      "▁Це": 5155,
      "туаль": 5156,
      "▁five": 5157,
      "▁statement": 5158,
      "▁подчеркну": 5159,
      "change": 5160,
      "▁others": 5161,
      "нача": 5162,
      "▁Iraq": 5163,
      "▁Секретариа": 5164,
      "▁caus": 5165,
      "▁refuge": 5166,
      "based": 5167,
      "▁mechanisms": 5168,
      "yl": 5169,
      "▁changes": 5170,
      "▁study": 5171,
      "rant": 5172,
      "▁усилий": 5173,
      "▁Des": 5174,
      "ding": 5175,
      "▁actions": 5176,
      "▁guaran": 5177,
      "rast": 5178,
      "apan": 5179,
      "▁тради": 5180,
      "of": 5181,
      "ie": 5182,
      "▁rule": 5183,
      "гры": 5184,
      "▁ст": 5185,
      "▁целом": 5186,
      "▁Ac": 5187,
      "▁Affairs": 5188,
      "▁obligations": 5189,
      "ologies": 5190,
      "▁lear": 5191,
      "▁explo": 5192,
      "вались": 5193,
      "▁пока": 5194,
      "▁My": 5195,
      "▁пять": 5196,
      "arter": 5197,
      "▁марта": 5198,
      "▁mig": 5199,
      "▁occup": 5200,
      "ones": 5201,
      "ention": 5202,
      "▁конферен": 5203,
      "▁государствами": 5204,
      "ream": 5205,
      "щему": 5206,
      "▁Mos": 5207,
      "▁плане": 5208,
      "▁эту": 5209,
      "▁drug": 5210,
      "▁Восто": 5211,
      "anced": 5212,
      "ither": 5213,
      "▁хозяй": 5214,
      "стями": 5215,
      "▁February": 5216,
      "▁Этот": 5217,
      "▁camp": 5218,
      "СЕ": 5219,
      "▁облада": 5220,
      "чном": 5221,
      "▁замеча": 5222,
      "term": 5223,
      "▁кризи": 5224,
      "▁reporting": 5225,
      "▁жа": 5226,
      "▁Pri": 5227,
      "ждый": 5228,
      "ternet": 5229,
      "чего": 5230,
      "▁справедли": 5231,
      "▁эффективности": 5232,
      "lex": 5233,
      "▁emphas": 5234,
      "▁руководя": 5235,
      "▁четыре": 5236,
      "▁ядерного": 5237,
      "▁срав": 5238,
      "liance": 5239,
      "▁операций": 5240,
      "виду": 5241,
      "жей": 5242,
      "▁создание": 5243,
      "▁партнер": 5244,
      "▁ap": 5245,
      "▁dri": 5246,
      "▁фев": 5247,
      "▁новые": 5248,
      "▁посвя": 5249,
      "▁event": 5250,
      "бора": 5251,
      "ющимся": 5252,
      "CC": 5253,
      "akes": 5254,
      "▁процедуры": 5255,
      "▁которую": 5256,
      "▁запи": 5257,
      "▁media": 5258,
      "▁статье": 5259,
      "▁бра": 5260,
      "▁степени": 5261,
      "▁sett": 5262,
      "▁сотрудничество": 5263,
      "ftware": 5264,
      "▁пункта": 5265,
      "▁оказания": 5266,
      "▁decisions": 5267,
      "ino": 5268,
      "▁повестки": 5269,
      "▁беспла": 5270,
      "▁personnel": 5271,
      "oney": 5272,
      "▁relating": 5273,
      "▁затра": 5274,
      "▁находится": 5275,
      "тором": 5276,
      "▁зрения": 5277,
      "medi": 5278,
      "▁happ": 5279,
      "ager": 5280,
      "ум": 5281,
      "▁multi": 5282,
      "▁авгу": 5283,
      "риан": 5284,
      "▁продолжать": 5285,
      "▁координации": 5286,
      "rison": 5287,
      "▁характер": 5288,
      "▁leaders": 5289,
      "▁armed": 5290,
      "▁аль": 5291,
      "луа": 5292,
      "▁низ": 5293,
      "acy": 5294,
      "▁cris": 5295,
      "▁нищ": 5296,
      "▁sug": 5297,
      "ший": 5298,
      "зов": 5299,
      "▁exc": 5300,
      "▁контексте": 5301,
      "▁наличи": 5302,
      "циями": 5303,
      "ваны": 5304,
      "▁весь": 5305,
      "ходы": 5306,
      "▁joint": 5307,
      "▁ссы": 5308,
      "▁времен": 5309,
      "▁изо": 5310,
      "отя": 5311,
      "▁point": 5312,
      "гля": 5313,
      "ably": 5314,
      "▁nature": 5315,
      "▁room": 5316,
      "ху": 5317,
      "анк": 5318,
      "перь": 5319,
      "▁нынеш": 5320,
      "▁tool": 5321,
      "▁facilities": 5322,
      "скую": 5323,
      "lia": 5324,
      "▁уровень": 5325,
      "▁age": 5326,
      "▁needed": 5327,
      "▁response": 5328,
      "лены": 5329,
      "ъемлю": 5330,
      "▁observ": 5331,
      "▁правосу": 5332,
      "▁демократи": 5333,
      "бай": 5334,
      "десят": 5335,
      "▁организациями": 5336,
      "▁Хотя": 5337,
      "UN": 5338,
      "CR": 5339,
      "▁ге": 5340,
      "деления": 5341,
      "▁иметь": 5342,
      "▁получить": 5343,
      "плуа": 5344,
      "ression": 5345,
      "▁отношения": 5346,
      "▁performance": 5347,
      "▁ground": 5348,
      "▁potential": 5349,
      "ify": 5350,
      "ctions": 5351,
      "cent": 5352,
      "▁принад": 5353,
      "▁постав": 5354,
      "▁however": 5355,
      "▁transfer": 5356,
      "▁религи": 5357,
      "▁веб": 5358,
      "▁услуги": 5359,
      "imum": 5360,
      "венства": 5361,
      "▁точки": 5362,
      "▁Председатель": 5363,
      "▁обе": 5364,
      "eal": 5365,
      "нали": 5366,
      "▁комплекс": 5367,
      "▁poin": 5368,
      "▁Central": 5369,
      "▁экспо": 5370,
      "▁practice": 5371,
      "jan": 5372,
      "▁sci": 5373,
      "entific": 5374,
      "tification": 5375,
      "abour": 5376,
      "▁января": 5377,
      "▁Ассамблея": 5378,
      "▁интересах": 5379,
      "▁апреля": 5380,
      "▁demand": 5381,
      "▁until": 5382,
      "▁рав": 5383,
      "▁documents": 5384,
      "▁рефор": 5385,
      "▁strengthening": 5386,
      "▁процессе": 5387,
      "ured": 5388,
      "oman": 5389,
      "selves": 5390,
      "▁His": 5391,
      "▁представителей": 5392,
      "▁инициати": 5393,
      "лением": 5394,
      "▁коман": 5395,
      "▁victims": 5396,
      "ising": 5397,
      "вычай": 5398,
      "жных": 5399,
      "▁одним": 5400,
      "▁финансовых": 5401,
      "▁think": 5402,
      "▁Специальный": 5403,
      "ИЧ": 5404,
      "чено": 5405,
      "▁всей": 5406,
      "▁выступа": 5407,
      "▁город": 5408,
      "жений": 5409,
      "▁компо": 5410,
      "▁февра": 5411,
      "чными": 5412,
      "▁Act": 5413,
      "▁citizens": 5414,
      "▁Эта": 5415,
      "▁которым": 5416,
      "joy": 5417,
      "▁суще": 5418,
      "жем": 5419,
      "▁согласи": 5420,
      "ждает": 5421,
      "▁здоровья": 5422,
      "▁annex": 5423,
      "ler": 5424,
      "▁соответствующие": 5425,
      "▁окон": 5426,
      "iting": 5427,
      "▁экономического": 5428,
      "▁нужно": 5429,
      "▁install": 5430,
      "▁забо": 5431,
      "▁труда": 5432,
      "ющую": 5433,
      "lied": 5434,
      "▁начи": 5435,
      "зия": 5436,
      "▁fif": 5437,
      "▁Sub": 5438,
      "▁coordination": 5439,
      "ible": 5440,
      "▁Director": 5441,
      "▁сообщения": 5442,
      "▁государствам": 5443,
      "▁costs": 5444,
      "▁нашей": 5445,
      "фрикан": 5446,
      "gn": 5447,
      "▁test": 5448,
      "▁eth": 5449,
      "▁opportunity": 5450,
      "▁либо": 5451,
      "ат": 5452,
      "▁adequ": 5453,
      "▁far": 5454,
      "зидент": 5455,
      "▁расходов": 5456,
      "▁build": 5457,
      "▁ито": 5458,
      "ditional": 5459,
      "жать": 5460,
      "▁Поэтому": 5461,
      "▁хи": 5462,
      "▁предложения": 5463,
      "▁clim": 5464,
      "icro": 5465,
      "ances": 5466,
      "вшей": 5467,
      "вли": 5468,
      "▁Represent": 5469,
      "▁analysis": 5470,
      "▁refer": 5471,
      "▁себе": 5472,
      "▁distrib": 5473,
      "▁преде": 5474,
      "▁часто": 5475,
      "▁turn": 5476,
      "▁procedure": 5477,
      "ственный": 5478,
      "▁эксплуа": 5479,
      "лев": 5480,
      "ссо": 5481,
      "uration": 5482,
      "▁fail": 5483,
      "▁политических": 5484,
      "▁обеспокоен": 5485,
      "▁принципа": 5486,
      "ыду": 5487,
      "abilities": 5488,
      "▁тен": 5489,
      "▁behalf": 5490,
      "▁пов": 5491,
      "iter": 5492,
      "▁положений": 5493,
      "▁yet": 5494,
      "▁bri": 5495,
      "▁Women": 5496,
      "▁Porn": 5497,
      "▁именно": 5498,
      "acter": 5499,
      "▁forces": 5500,
      "▁торго": 5501,
      "льзую": 5502,
      "тельный": 5503,
      "▁последу": 5504,
      "earch": 5505,
      "▁secretariat": 5506,
      "oid": 5507,
      "▁совершен": 5508,
      "ites": 5509,
      "▁steps": 5510,
      "лн": 5511,
      "▁never": 5512,
      "▁объя": 5513,
      "ins": 5514,
      "▁early": 5515,
      "▁общего": 5516,
      "шать": 5517,
      "▁self": 5518,
      "чают": 5519,
      "cep": 5520,
      "▁During": 5521,
      "▁value": 5522,
      "ilar": 5523,
      "CN": 5524,
      "▁защите": 5525,
      "вобо": 5526,
      "рев": 5527,
      "▁Ты": 5528,
      "▁продолжи": 5529,
      "olid": 5530,
      "▁проя": 5531,
      "▁представляет": 5532,
      "гие": 5533,
      "fficient": 5534,
      "The": 5535,
      "▁здравоохранения": 5536,
      "▁ува": 5537,
      "▁ответственности": 5538,
      "▁другой": 5539,
      "▁Россий": 5540,
      "ime": 5541,
      "tt": 5542,
      "▁aimed": 5543,
      "▁Inter": 5544,
      "ТА": 5545,
      "▁rac": 5546,
      "баты": 5547,
      "▁мор": 5548,
      "▁addressed": 5549,
      "most": 5550,
      "▁целе": 5551,
      "▁planning": 5552,
      "▁правах": 5553,
      "▁разработке": 5554,
      "глий": 5555,
      "inary": 5556,
      "▁доби": 5557,
      "▁Экономи": 5558,
      "▁край": 5559,
      "▁предусмотрен": 5560,
      "▁странами": 5561,
      "▁Сто": 5562,
      "idd": 5563,
      "чное": 5564,
      "▁конференции": 5565,
      "▁объем": 5566,
      "▁урегули": 5567,
      "▁неда": 5568,
      "▁гаранти": 5569,
      "▁purpose": 5570,
      "▁уделя": 5571,
      "ясь": 5572,
      "▁ребен": 5573,
      "▁приоб": 5574,
      "▁tour": 5575,
      "▁coun": 5576,
      "▁устрой": 5577,
      "▁Mission": 5578,
      "▁strategy": 5579,
      "na": 5580,
      "▁подписа": 5581,
      "сен": 5582,
      "▁ори": 5583,
      "▁ради": 5584,
      "▁дело": 5585,
      "▁регу": 5586,
      "osp": 5587,
      "ulated": 5588,
      "Tube": 5589,
      "▁мини": 5590,
      "▁наказа": 5591,
      "▁East": 5592,
      "▁прожи": 5593,
      "▁ситуации": 5594,
      "▁Bank": 5595,
      "▁amount": 5596,
      "▁King": 5597,
      "▁institution": 5598,
      "▁making": 5599,
      "▁евро": 5600,
      "▁определя": 5601,
      "ует": 5602,
      "▁регионе": 5603,
      "хни": 5604,
      "▁инфра": 5605,
      "▁death": 5606,
      "▁всеобъемлю": 5607,
      "ведом": 5608,
      "шением": 5609,
      "▁потребностей": 5610,
      "▁today": 5611,
      "▁Trans": 5612,
      "▁Департа": 5613,
      "циям": 5614,
      "▁имя": 5615,
      "▁Asia": 5616,
      "вленных": 5617,
      "▁народа": 5618,
      "рем": 5619,
      "▁Республика": 5620,
      "▁responsible": 5621,
      "▁технологий": 5622,
      "▁соглашения": 5623,
      "▁пример": 5624,
      "orture": 5625,
      "▁Service": 5626,
      "▁competi": 5627,
      "▁whole": 5628,
      "▁использование": 5629,
      "▁carried": 5630,
      "▁consist": 5631,
      "▁пути": 5632,
      "▁young": 5633,
      "▁сум": 5634,
      "▁расположен": 5635,
      "▁сексуаль": 5636,
      "ery": 5637,
      "▁laws": 5638,
      "▁companies": 5639,
      "▁acts": 5640,
      "бно": 5641,
      "AS": 5642,
      "участни": 5643,
      "кус": 5644,
      "жден": 5645,
      "чная": 5646,
      "▁adoption": 5647,
      "▁mob": 5648,
      "оз": 5649,
      "▁Казах": 5650,
      "▁напо": 5651,
      "скому": 5652,
      "▁statis": 5653,
      "▁высоко": 5654,
      "▁подчерки": 5655,
      "▁сейчас": 5656,
      "▁Treat": 5657,
      "▁успеш": 5658,
      "▁rate": 5659,
      "лин": 5660,
      "▁economy": 5661,
      "▁нарушения": 5662,
      "▁conclud": 5663,
      "▁final": 5664,
      "▁abs": 5665,
      "▁norm": 5666,
      "▁присо": 5667,
      "kets": 5668,
      "▁финансирования": 5669,
      "иму": 5670,
      "reme": 5671,
      "▁уби": 5672,
      "▁дней": 5673,
      "aper": 5674,
      "ark": 5675,
      "▁гражданского": 5676,
      "▁live": 5677,
      "▁Ter": 5678,
      "▁organ": 5679,
      "▁обязательств": 5680,
      "▁indigenous": 5681,
      "▁upd": 5682,
      "▁ква": 5683,
      "▁matter": 5684,
      "▁условия": 5685,
      "▁состо": 5686,
      "eva": 5687,
      "▁ren": 5688,
      "ached": 5689,
      "▁week": 5690,
      "дания": 5691,
      "▁форми": 5692,
      "▁чрезвычай": 5693,
      "▁роста": 5694,
      "▁activity": 5695,
      "▁Sc": 5696,
      "▁рекомендаций": 5697,
      "▁транспорт": 5698,
      "▁harm": 5699,
      "▁Some": 5700,
      "▁руководи": 5701,
      "▁биз": 5702,
      "ateg": 5703,
      "▁enjoy": 5704,
      "▁социальной": 5705,
      "▁качества": 5706,
      "▁mean": 5707,
      "▁умень": 5708,
      "lections": 5709,
      "▁результаты": 5710,
      "экономи": 5711,
      "▁активи": 5712,
      "▁run": 5713,
      "ired": 5714,
      "▁employment": 5715,
      "▁позволяет": 5716,
      "телям": 5717,
      "▁basic": 5718,
      "ним": 5719,
      "▁Party": 5720,
      "▁многие": 5721,
      "▁сторон": 5722,
      "▁Fore": 5723,
      "ун": 5724,
      "▁клима": 5725,
      "▁violations": 5726,
      "▁commitment": 5727,
      "▁funds": 5728,
      "▁областях": 5729,
      "дой": 5730,
      "▁forms": 5731,
      "OR": 5732,
      "▁беженцев": 5733,
      "▁reason": 5734,
      "▁share": 5735,
      "вана": 5736,
      "▁взно": 5737,
      "▁line": 5738,
      "▁phys": 5739,
      "▁conven": 5740,
      "olution": 5741,
      "▁отли": 5742,
      "▁range": 5743,
      "рой": 5744,
      "▁университе": 5745,
      "▁organized": 5746,
      "▁инфраструк": 5747,
      "▁Хо": 5748,
      "▁exerc": 5749,
      "▁очеред": 5750,
      "▁III": 5751,
      "▁уровнях": 5752,
      "▁люби": 5753,
      "СК": 5754,
      "▁uni": 5755,
      "▁поя": 5756,
      "▁currently": 5757,
      "▁выя": 5758,
      "ops": 5759,
      "▁ответственность": 5760,
      "▁sep": 5761,
      "▁касающихся": 5762,
      "mission": 5763,
      "veness": 5764,
      "▁prepared": 5765,
      "▁More": 5766,
      "шить": 5767,
      "цени": 5768,
      "▁прове": 5769,
      "▁involved": 5770,
      "▁сай": 5771,
      "▁modern": 5772,
      "▁предвари": 5773,
      "▁fri": 5774,
      "▁фору": 5775,
      "▁ним": 5776,
      "▁службы": 5777,
      "▁coordin": 5778,
      "▁нищеты": 5779,
      "▁такого": 5780,
      "▁инди": 5781,
      "▁вместе": 5782,
      "▁higher": 5783,
      "▁determin": 5784,
      "lusion": 5785,
      "▁тому": 5786,
      "▁tal": 5787,
      "тре": 5788,
      "▁manufact": 5789,
      "▁поводу": 5790,
      "▁вариан": 5791,
      "XXX": 5792,
      "▁wish": 5793,
      "вающих": 5794,
      "nic": 5795,
      "▁препят": 5796,
      "▁поэтому": 5797,
      "aches": 5798,
      "▁exam": 5799,
      "СП": 5800,
      "▁Dem": 5801,
      "▁Techn": 5802,
      "гент": 5803,
      "▁потому": 5804,
      "lands": 5805,
      "▁experts": 5806,
      "▁materials": 5807,
      "▁done": 5808,
      "▁near": 5809,
      "▁креди": 5810,
      "pro": 5811,
      "elines": 5812,
      "▁ele": 5813,
      "▁Administ": 5814,
      "ese": 5815,
      "▁информи": 5816,
      "▁promotion": 5817,
      "oh": 5818,
      "osed": 5819,
      "▁dialogue": 5820,
      "дем": 5821,
      "▁events": 5822,
      "гран": 5823,
      "ransition": 5824,
      "▁Америки": 5825,
      "cow": 5826,
      "▁Ира": 5827,
      "▁Aust": 5828,
      "ova": 5829,
      "ологи": 5830,
      "лить": 5831,
      "доволь": 5832,
      "▁н": 5833,
      "▁wide": 5834,
      "▁Ал": 5835,
      "▁простран": 5836,
      "liament": 5837,
      "▁peoples": 5838,
      "▁University": 5839,
      "▁составля": 5840,
      "▁подроб": 5841,
      "▁plans": 5842,
      "▁having": 5843,
      "lam": 5844,
      "▁writ": 5845,
      "▁sw": 5846,
      "▁text": 5847,
      "▁ло": 5848,
      "льное": 5849,
      "вии": 5850,
      "▁times": 5851,
      "вому": 5852,
      "▁freedom": 5853,
      "▁един": 5854,
      "емый": 5855,
      "load": 5856,
      "▁Когда": 5857,
      "▁connection": 5858,
      "▁роди": 5859,
      "▁поме": 5860,
      "тания": 5861,
      "▁administrative": 5862,
      "rel": 5863,
      "▁flo": 5864,
      "▁greater": 5865,
      "стер": 5866,
      "▁Li": 5867,
      "▁committed": 5868,
      "▁Child": 5869,
      "▁som": 5870,
      "▁office": 5871,
      "rance": 5872,
      "aken": 5873,
      "лизо": 5874,
      "▁prevention": 5875,
      "▁mass": 5876,
      "▁семей": 5877,
      "▁attack": 5878,
      "▁safety": 5879,
      "▁силы": 5880,
      "▁вклад": 5881,
      "▁continu": 5882,
      "bai": 5883,
      "▁предыду": 5884,
      "▁consum": 5885,
      "ored": 5886,
      "▁experi": 5887,
      "▁AS": 5888,
      "▁национального": 5889,
      "▁site": 5890,
      "▁personal": 5891,
      "▁protect": 5892,
      "гото": 5893,
      "байджа": 5894,
      "их": 5895,
      "▁cli": 5896,
      "▁хотел": 5897,
      "мера": 5898,
      "▁kind": 5899,
      "зербайджа": 5900,
      "▁opportunities": 5901,
      "▁посредством": 5902,
      "▁successful": 5903,
      "ubl": 5904,
      "▁районах": 5905,
      "OS": 5906,
      "yd": 5907,
      "ony": 5908,
      "unic": 5909,
      "▁поддержанию": 5910,
      "▁Med": 5911,
      "▁sing": 5912,
      "▁Cl": 5913,
      "▁home": 5914,
      "цей": 5915,
      "▁ban": 5916,
      "▁ликвидации": 5917,
      "▁enhance": 5918,
      "▁sexual": 5919,
      "ung": 5920,
      "нга": 5921,
      "▁переме": 5922,
      "▁assessment": 5923,
      "EP": 5924,
      "вится": 5925,
      "▁infrast": 5926,
      "▁Eng": 5927,
      "▁случаев": 5928,
      "▁площа": 5929,
      "amb": 5930,
      "▁aud": 5931,
      "▁сообщества": 5932,
      "▁proceed": 5933,
      "▁supported": 5934,
      "▁too": 5935,
      "▁regist": 5936,
      "▁окку": 5937,
      "▁центра": 5938,
      "лые": 5939,
      "▁положение": 5940,
      "пря": 5941,
      "▁региональных": 5942,
      "ions": 5943,
      "▁Интер": 5944,
      "▁ВИЧ": 5945,
      "▁disarmament": 5946,
      "зви": 5947,
      "пусти": 5948,
      "▁Executive": 5949,
      "руется": 5950,
      "▁Правитель": 5951,
      "yc": 5952,
      "ложить": 5953,
      "▁четвер": 5954,
      "▁какой": 5955,
      "▁essential": 5956,
      "▁date": 5957,
      "▁After": 5958,
      "▁обви": 5959,
      "▁Georg": 5960,
      "▁capital": 5961,
      "▁priority": 5962,
      "жит": 5963,
      "▁избира": 5964,
      "гети": 5965,
      "▁распреде": 5966,
      "vision": 5967,
      "baijan": 5968,
      "▁Международного": 5969,
      "iversal": 5970,
      "arget": 5971,
      "zerbaijan": 5972,
      "▁HIV": 5973,
      "vere": 5974,
      "▁большой": 5975,
      "AR": 5976,
      "▁Коро": 5977,
      "▁оконча": 5978,
      "action": 5979,
      "▁исследования": 5980,
      "▁бюджета": 5981,
      "iency": 5982,
      "тельности": 5983,
      "▁вопроса": 5984,
      "▁flow": 5985,
      "▁чув": 5986,
      "▁периода": 5987,
      "▁crime": 5988,
      "▁Add": 5989,
      "▁host": 5990,
      "▁processes": 5991,
      "гани": 5992,
      "▁экономических": 5993,
      "▁Сторо": 5994,
      "▁суда": 5995,
      "▁stress": 5996,
      "шки": 5997,
      "▁иностранных": 5998,
      "боль": 5999,
      "▁сотрудничестве": 6000,
      "▁люди": 6001,
      "хозяй": 6002,
      "▁регуляр": 6003,
      "▁Ана": 6004,
      "▁процента": 6005,
      "▁partnership": 6006,
      "▁выда": 6007,
      "▁настоятельно": 6008,
      "aid": 6009,
      "▁второй": 6010,
      "▁Information": 6011,
      "ires": 6012,
      "▁фото": 6013,
      "шую": 6014,
      "▁Mal": 6015,
      "▁Shemale": 6016,
      "ческому": 6017,
      "ян": 6018,
      "тельным": 6019,
      "▁жур": 6020,
      "▁Constitution": 6021,
      "женных": 6022,
      "бую": 6023,
      "verse": 6024,
      "EN": 6025,
      "лко": 6026,
      "▁свед": 6027,
      "▁получения": 6028,
      "eting": 6029,
      "▁reli": 6030,
      "▁женщины": 6031,
      "▁climate": 6032,
      "▁макси": 6033,
      "▁sal": 6034,
      "▁trafficking": 6035,
      "▁Нес": 6036,
      "▁последние": 6037,
      "▁результатов": 6038,
      "▁создать": 6039,
      "годи": 6040,
      "▁национальной": 6041,
      "тура": 6042,
      "▁oil": 6043,
      "▁считает": 6044,
      "▁совещания": 6045,
      "▁dire": 6046,
      "▁милли": 6047,
      "▁социальных": 6048,
      "stances": 6049,
      "▁принципов": 6050,
      "▁ниже": 6051,
      "▁территори": 6052,
      "▁model": 6053,
      "▁Her": 6054,
      "▁Peace": 6055,
      "▁effect": 6056,
      "▁webs": 6057,
      "▁Gen": 6058,
      "▁запро": 6059,
      "▁immedi": 6060,
      "▁Фран": 6061,
      "▁разно": 6062,
      "▁going": 6063,
      "▁independent": 6064,
      "▁следующие": 6065,
      "няя": 6066,
      "▁ими": 6067,
      "▁обществен": 6068,
      "rice": 6069,
      "▁Группа": 6070,
      "▁character": 6071,
      "▁minor": 6072,
      "areness": 6073,
      "▁Ms": 6074,
      "▁несколь": 6075,
      "▁тури": 6076,
      "ulner": 6077,
      "▁type": 6078,
      "▁местах": 6079,
      "нуть": 6080,
      "▁ключе": 6081,
      "прово": 6082,
      "щений": 6083,
      "ivision": 6084,
      "atures": 6085,
      "▁выступи": 6086,
      "▁initiatives": 6087,
      "▁hard": 6088,
      "▁equality": 6089,
      "▁understanding": 6090,
      "▁общей": 6091,
      "▁ними": 6092,
      "erous": 6093,
      "▁согласован": 6094,
      "venant": 6095,
      "▁EU": 6096,
      "▁гото": 6097,
      "▁глубо": 6098,
      "▁Centre": 6099,
      "▁экономики": 6100,
      "ticles": 6101,
      "▁limited": 6102,
      "▁TV": 6103,
      "▁conference": 6104,
      "▁mission": 6105,
      "▁связанные": 6106,
      "снов": 6107,
      "▁прежде": 6108,
      "▁роли": 6109,
      "▁Лю": 6110,
      "oral": 6111,
      "никами": 6112,
      "мый": 6113,
      "▁разде": 6114,
      "мед": 6115,
      "лити": 6116,
      "▁offer": 6117,
      "▁план": 6118,
      "tiveness": 6119,
      "▁порядке": 6120,
      "▁presented": 6121,
      "▁рассмотрение": 6122,
      "▁agreements": 6123,
      "▁Догово": 6124,
      "▁elim": 6125,
      "osition": 6126,
      "▁шта": 6127,
      "щер": 6128,
      "▁видов": 6129,
      "▁identify": 6130,
      "amental": 6131,
      "▁sy": 6132,
      "▁language": 6133,
      "▁expected": 6134,
      "▁Верхов": 6135,
      "▁software": 6136,
      "▁Bra": 6137,
      "▁Japan": 6138,
      "▁agric": 6139,
      "▁преступления": 6140,
      "▁crisis": 6141,
      "▁Ав": 6142,
      "▁взя": 6143,
      "▁compon": 6144,
      "▁благодаря": 6145,
      "езд": 6146,
      "▁recommended": 6147,
      "чности": 6148,
      "▁указы": 6149,
      "▁communication": 6150,
      "▁ensuring": 6151,
      "▁construction": 6152,
      "▁complex": 6153,
      "ya": 6154,
      "тка": 6155,
      "gent": 6156,
      "▁ShemaleZ": 6157,
      "▁section": 6158,
      "▁Moscow": 6159,
      "ribun": 6160,
      "▁Pan": 6161,
      "▁promoting": 6162,
      "▁respond": 6163,
      "▁questions": 6164,
      "▁ска": 6165,
      "▁shemale": 6166,
      "▁заявления": 6167,
      "▁apply": 6168,
      "▁By": 6169,
      "▁strategies": 6170,
      "▁participants": 6171,
      "▁principle": 6172,
      "▁документов": 6173,
      "▁located": 6174,
      "▁экономической": 6175,
      "▁спа": 6176,
      "▁национальном": 6177,
      "дите": 6178,
      "▁веду": 6179,
      "▁непосред": 6180,
      "▁рассмотреть": 6181,
      "▁exchange": 6182,
      "▁Минист": 6183,
      "ните": 6184,
      "▁regions": 6185,
      "▁itself": 6186,
      "номочи": 6187,
      "▁Azerbaijan": 6188,
      "ees": 6189,
      "чем": 6190,
      "▁обслуживания": 6191,
      "ьер": 6192,
      "▁believe": 6193,
      "reci": 6194,
      "▁досто": 6195,
      "▁природ": 6196,
      "▁россий": 6197,
      "▁carry": 6198,
      "участник": 6199,
      "▁поддержке": 6200,
      "tors": 6201,
      "ваем": 6202,
      "▁участников": 6203,
      "▁озабо": 6204,
      "ills": 6205,
      "▁свидетель": 6206,
      "▁created": 6207,
      "▁другим": 6208,
      "▁effects": 6209,
      "▁vulner": 6210,
      "itable": 6211,
      "льная": 6212,
      "▁arrange": 6213,
      "▁Организация": 6214,
      "ii": 6215,
      "ева": 6216,
      "▁away": 6217,
      "▁мог": 6218,
      "вости": 6219,
      "ходят": 6220,
      "▁territory": 6221,
      "▁operation": 6222,
      "EC": 6223,
      "hic": 6224,
      "eks": 6225,
      "▁наших": 6226,
      "▁представления": 6227,
      "▁communities": 6228,
      "НИ": 6229,
      "язви": 6230,
      "▁расс": 6231,
      "трак": 6232,
      "▁positive": 6233,
      "▁Aut": 6234,
      "▁arms": 6235,
      "▁instruments": 6236,
      "▁hous": 6237,
      "▁alleg": 6238,
      "▁infrastructure": 6239,
      "▁Plan": 6240,
      "▁принимать": 6241,
      "rought": 6242,
      "гиональ": 6243,
      "▁anti": 6244,
      "▁молоде": 6245,
      "зей": 6246,
      "щает": 6247,
      "▁terrorism": 6248,
      "▁действую": 6249,
      "▁Группы": 6250,
      "ровании": 6251,
      "▁присут": 6252,
      "▁климата": 6253,
      "нев": 6254,
      "▁августа": 6255,
      "▁industry": 6256,
      "▁reduce": 6257,
      "▁регистра": 6258,
      "тности": 6259,
      "▁mind": 6260,
      "▁оборо": 6261,
      "ada": 6262,
      "▁enterpris": 6263,
      "▁resid": 6264,
      "▁awareness": 6265,
      "▁неу": 6266,
      "▁две": 6267,
      "tically": 6268,
      "▁Африки": 6269,
      "▁pat": 6270,
      "▁consultations": 6271,
      "▁делегация": 6272,
      "▁money": 6273,
      "▁предполага": 6274,
      "▁online": 6275,
      "yri": 6276,
      "▁former": 6277,
      "▁ребенка": 6278,
      "▁objectives": 6279,
      "▁Imp": 6280,
      "▁категории": 6281,
      "▁book": 6282,
      "▁дума": 6283,
      "rest": 6284,
      "▁mach": 6285,
      "▁Консульта": 6286,
      "▁Че": 6287,
      "▁коренных": 6288,
      "▁z": 6289,
      "▁Code": 6290,
      "ешь": 6291,
      "▁pursu": 6292,
      "▁once": 6293,
      "▁автомо": 6294,
      "куп": 6295,
      "▁dou": 6296,
      "▁why": 6297,
      "вета": 6298,
      "▁рекомендует": 6299,
      "▁standard": 6300,
      "▁проведение": 6301,
      "▁озабочен": 6302,
      "lick": 6303,
      "▁косми": 6304,
      "uations": 6305,
      "тным": 6306,
      "▁mess": 6307,
      "▁appear": 6308,
      "▁вра": 6309,
      "▁Our": 6310,
      "room": 6311,
      "▁обстоя": 6312,
      "▁сети": 6313,
      "вержен": 6314,
      "▁reduction": 6315,
      "сков": 6316,
      "▁международным": 6317,
      "▁всё": 6318,
      "▁Ха": 6319,
      "▁workers": 6320,
      "▁Advisory": 6321,
      "▁предлагает": 6322,
      "▁подоб": 6323,
      "▁ресурсы": 6324,
      "▁ООН": 6325,
      "▁моби": 6326,
      "hibition": 6327,
      "рованные": 6328,
      "lav": 6329,
      "▁Суда": 6330,
      "omb": 6331,
      "▁goals": 6332,
      "дьми": 6333,
      "IDS": 6334,
      "▁коне": 6335,
      "▁около": 6336,
      "ссей": 6337,
      "▁et": 6338,
      "▁UNI": 6339,
      "gency": 6340,
      "▁spirit": 6341,
      "▁Op": 6342,
      "▁individuals": 6343,
      "▁Декларации": 6344,
      "▁Covenant": 6345,
      "▁Internet": 6346,
      "рет": 6347,
      "▁Te": 6348,
      "▁Peop": 6349,
      "isc": 6350,
      "строи": 6351,
      "▁categ": 6352,
      "▁чер": 6353,
      "▁Further": 6354,
      "▁Рас": 6355,
      "▁уязви": 6356,
      "▁количество": 6357,
      "▁нико": 6358,
      "▁Cor": 6359,
      "▁энергии": 6360,
      "▁провести": 6361,
      "pite": 6362,
      "▁ущер": 6363,
      "▁informed": 6364,
      "▁weeks": 6365,
      "▁людьми": 6366,
      "▁конкретных": 6367,
      "▁первой": 6368,
      "▁стали": 6369,
      "rain": 6370,
      "▁февраля": 6371,
      "▁Since": 6372,
      "aries": 6373,
      "▁недели": 6374,
      "▁adequate": 6375,
      "▁Ali": 6376,
      "▁officials": 6377,
      "▁methods": 6378,
      "▁месяца": 6379,
      "▁target": 6380,
      "▁ge": 6381,
      "▁cal": 6382,
      "▁относя": 6383,
      "▁stated": 6384,
      "pped": 6385,
      "▁estim": 6386,
      "▁вызы": 6387,
      "рением": 6388,
      "aces": 6389,
      "▁themselves": 6390,
      "рных": 6391,
      "▁конвенции": 6392,
      "▁aspects": 6393,
      "▁Management": 6394,
      "▁семина": 6395,
      "▁Стра": 6396,
      "▁things": 6397,
      "способ": 6398,
      "▁Other": 6399,
      "▁forward": 6400,
      "▁technologies": 6401,
      "▁последствий": 6402,
      "vered": 6403,
      "▁Chairman": 6404,
      "▁obtain": 6405,
      "▁социального": 6406,
      "▁separ": 6407,
      "▁Em": 6408,
      "▁остро": 6409,
      "няется": 6410,
      "▁laun": 6411,
      "▁просит": 6412,
      "образ": 6413,
      "шает": 6414,
      "след": 6415,
      "▁requests": 6416,
      "▁меньшин": 6417,
      "▁girls": 6418,
      "stitute": 6419,
      "illed": 6420,
      "▁адре": 6421,
      "рении": 6422,
      "ква": 6423,
      "менить": 6424,
      "▁dam": 6425,
      "▁задач": 6426,
      "▁пси": 6427,
      "▁Конститу": 6428,
      "gth": 6429,
      "istic": 6430,
      "▁комна": 6431,
      "▁системе": 6432,
      "рг": 6433,
      "▁момент": 6434,
      "▁Report": 6435,
      "▁нако": 6436,
      "▁ce": 6437,
      "inc": 6438,
      "мерикан": 6439,
      "ственными": 6440,
      "▁discussion": 6441,
      "▁implemented": 6442,
      "▁наши": 6443,
      "anda": 6444,
      "пара": 6445,
      "rist": 6446,
      "▁treaty": 6447,
      "erson": 6448,
      "▁fundamental": 6449,
      "▁Му": 6450,
      "▁decl": 6451,
      "▁contract": 6452,
      "unt": 6453,
      "▁материалов": 6454,
      "▁технологии": 6455,
      "▁механизмов": 6456,
      "▁конкурен": 6457,
      "▁ways": 6458,
      "▁сту": 6459,
      "▁strategic": 6460,
      "▁computer": 6461,
      "▁feel": 6462,
      "▁нового": 6463,
      "▁below": 6464,
      "▁Head": 6465,
      "▁Under": 6466,
      "uel": 6467,
      "▁entire": 6468,
      "▁любой": 6469,
      "▁продоволь": 6470,
      "▁court": 6471,
      "▁различные": 6472,
      "дцать": 6473,
      "▁мони": 6474,
      "▁equal": 6475,
      "hemical": 6476,
      "▁professional": 6477,
      "▁medical": 6478,
      "▁Конвен": 6479,
      "▁receive": 6480,
      "tioned": 6481,
      "стью": 6482,
      "хождения": 6483,
      "eed": 6484,
      "▁reserv": 6485,
      "▁mus": 6486,
      "▁бло": 6487,
      "▁implementing": 6488,
      "▁представители": 6489,
      "джи": 6490,
      "▁распростра": 6491,
      "alls": 6492,
      "▁функциони": 6493,
      "льным": 6494,
      "ze": 6495,
      "▁appreci": 6496,
      "▁thus": 6497,
      "rary": 6498,
      "▁быстро": 6499,
      "▁difficult": 6500,
      "вшихся": 6501,
      "вид": 6502,
      "hab": 6503,
      "▁капита": 6504,
      "▁компания": 6505,
      "▁Тур": 6506,
      "▁demonst": 6507,
      "▁перво": 6508,
      "▁star": 6509,
      "▁религиоз": 6510,
      "▁ежегод": 6511,
      "рба": 6512,
      "▁нес": 6513,
      "ats": 6514,
      "▁девоч": 6515,
      "▁Per": 6516,
      "▁существо": 6517,
      "▁facilitate": 6518,
      "▁includes": 6519,
      "▁необходимые": 6520,
      "▁deep": 6521,
      "▁Королев": 6522,
      "▁occur": 6523,
      "лег": 6524,
      "▁disp": 6525,
      "▁enforce": 6526,
      "нала": 6527,
      "▁describ": 6528,
      "▁remains": 6529,
      "▁Глав": 6530,
      "▁Фа": 6531,
      "▁notes": 6532,
      "▁тебя": 6533,
      "зировать": 6534,
      "lies": 6535,
      "ification": 6536,
      "тельное": 6537,
      "▁affected": 6538,
      "▁уничто": 6539,
      "▁собра": 6540,
      "▁Representative": 6541,
      "▁Соединенных": 6542,
      "▁истори": 6543,
      "блее": 6544,
      "▁cle": 6545,
      "eria": 6546,
      "▁Ду": 6547,
      "▁там": 6548,
      "▁recognized": 6549,
      "▁Live": 6550,
      "▁complain": 6551,
      "▁касающиеся": 6552,
      "чную": 6553,
      "▁теку": 6554,
      "▁bar": 6555,
      "▁System": 6556,
      "▁Али": 6557,
      "▁structure": 6558,
      "▁ваш": 6559,
      "▁перево": 6560,
      "ched": 6561,
      "TR": 6562,
      "▁полномочи": 6563,
      "▁выпла": 6564,
      "▁elections": 6565,
      "▁Sum": 6566,
      "ething": 6567,
      "док": 6568,
      "▁государственных": 6569,
      "▁информацион": 6570,
      "▁Kingdom": 6571,
      "зь": 6572,
      "▁transition": 6573,
      "▁максима": 6574,
      "▁Специального": 6575,
      "▁lat": 6576,
      "read": 6577,
      "тым": 6578,
      "▁полной": 6579,
      "▁consequ": 6580,
      "▁suff": 6581,
      "▁religious": 6582,
      "муника": 6583,
      "▁внимания": 6584,
      "▁Do": 6585,
      "▁Госпо": 6586,
      "ВК": 6587,
      "вало": 6588,
      "▁систему": 6589,
      "▁сил": 6590,
      "нкт": 6591,
      "▁Генеральная": 6592,
      "▁назы": 6593,
      "▁бассей": 6594,
      "sy": 6595,
      "мби": 6596,
      "▁product": 6597,
      "▁Treaty": 6598,
      "▁physical": 6599,
      "▁similar": 6600,
      "▁хими": 6601,
      "дых": 6602,
      "▁tax": 6603,
      "мене": 6604,
      "▁circum": 6605,
      "▁funding": 6606,
      "racy": 6607,
      "▁оцени": 6608,
      "▁Герма": 6609,
      "▁почти": 6610,
      "▁стоимо": 6611,
      "▁contribute": 6612,
      "▁международном": 6613,
      "ченные": 6614,
      "▁друг": 6615,
      "▁возник": 6616,
      "▁соверш": 6617,
      "мого": 6618,
      "▁PornH": 6619,
      "дж": 6620,
      "▁Сле": 6621,
      "atch": 6622,
      "▁привержен": 6623,
      "▁ste": 6624,
      "тай": 6625,
      "▁практики": 6626,
      "▁Пере": 6627,
      "▁законодательства": 6628,
      "▁hon": 6629,
      "щенных": 6630,
      "▁publ": 6631,
      "▁internal": 6632,
      "▁lin": 6633,
      "▁Ассамблее": 6634,
      "▁annual": 6635,
      "▁Сове": 6636,
      "▁First": 6637,
      "▁love": 6638,
      "▁Генеральный": 6639,
      "▁труд": 6640,
      "▁transp": 6641,
      "▁try": 6642,
      "▁little": 6643,
      "▁pun": 6644,
      "▁приложение": 6645,
      "▁loss": 6646,
      "▁дене": 6647,
      "▁исследований": 6648,
      "ленные": 6649,
      "руг": 6650,
      "▁начала": 6651,
      "▁parts": 6652,
      "▁плана": 6653,
      "▁offic": 6654,
      "roll": 6655,
      "▁views": 6656,
      "▁PornHub": 6657,
      "▁torture": 6658,
      "енности": 6659,
      "▁последствия": 6660,
      "ilies": 6661,
      "ume": 6662,
      "▁заседания": 6663,
      "▁полиции": 6664,
      "▁министер": 6665,
      "▁каждый": 6666,
      "▁functions": 6667,
      "▁keep": 6668,
      "▁канди": 6669,
      "▁crimes": 6670,
      "asm": 6671,
      "▁prosec": 6672,
      "ourn": 6673,
      "▁предна": 6674,
      "▁срок": 6675,
      "▁подраз": 6676,
      "▁одо": 6677,
      "каз": 6678,
      "▁throughout": 6679,
      "▁голосо": 6680,
      "▁вну": 6681,
      "▁opp": 6682,
      "▁Фи": 6683,
      "▁designed": 6684,
      "▁обна": 6685,
      "tilateral": 6686,
      "▁парла": 6687,
      "▁свободы": 6688,
      "▁своим": 6689,
      "▁кандида": 6690,
      "▁class": 6691,
      "▁стабиль": 6692,
      "ict": 6693,
      "know": 6694,
      "▁peacekeeping": 6695,
      "▁замести": 6696,
      "▁процедур": 6697,
      "▁fav": 6698,
      "▁внес": 6699,
      "▁operational": 6700,
      "▁пяти": 6701,
      "▁directly": 6702,
      "▁эффективного": 6703,
      "▁bed": 6704,
      "▁manner": 6705,
      "ступления": 6706,
      "▁которыми": 6707,
      "вший": 6708,
      "▁proposals": 6709,
      "ждений": 6710,
      "▁вед": 6711,
      "тивным": 6712,
      "▁innov": 6713,
      "▁vehic": 6714,
      "▁pack": 6715,
      "влением": 6716,
      "▁отметил": 6717,
      "▁тя": 6718,
      "публико": 6719,
      "▁семьи": 6720,
      "▁све": 6721,
      "▁Ри": 6722,
      "order": 6723,
      "bit": 6724,
      "ПО": 6725,
      "▁Ста": 6726,
      "▁whose": 6727,
      "няет": 6728,
      "▁hours": 6729,
      "▁одна": 6730,
      "▁collabor": 6731,
      "▁каждого": 6732,
      "▁внед": 6733,
      "шли": 6734,
      "▁forest": 6735,
      "ъек": 6736,
      "▁народ": 6737,
      "стям": 6738,
      "▁механизма": 6739,
      "▁phot": 6740,
      "ensus": 6741,
      "▁инвали": 6742,
      "▁прогресса": 6743,
      "▁ten": 6744,
      "▁Азии": 6745,
      "▁многосторон": 6746,
      "▁тысяче": 6747,
      "time": 6748,
      "▁периоди": 6749,
      "▁offers": 6750,
      "▁посети": 6751,
      "▁расширения": 6752,
      "arent": 6753,
      "izes": 6754,
      "▁спро": 6755,
      "▁полез": 6756,
      "▁fulf": 6757,
      "▁Charter": 6758,
      "ana": 6759,
      "▁benefits": 6760,
      "▁чего": 6761,
      "▁управля": 6762,
      "▁acqu": 6763,
      "▁председа": 6764,
      "▁single": 6765,
      "bur": 6766,
      "▁самым": 6767,
      "▁содействовать": 6768,
      "iguration": 6769,
      "▁принял": 6770,
      "▁рабочих": 6771,
      "▁neg": 6772,
      "▁неф": 6773,
      "▁red": 6774,
      "oph": 6775,
      "▁evidence": 6776,
      "▁accept": 6777,
      "▁conduct": 6778,
      "▁существует": 6779,
      "▁затем": 6780,
      "▁participate": 6781,
      "▁отме": 6782,
      "▁exce": 6783,
      "▁labour": 6784,
      "нении": 6785,
      "бер": 6786,
      "raft": 6787,
      "▁opin": 6788,
      "мок": 6789,
      "▁students": 6790,
      "▁всеми": 6791,
      "лле": 6792,
      "▁компонен": 6793,
      "кто": 6794,
      "▁Ти": 6795,
      "▁prison": 6796,
      "iddle": 6797,
      "ador": 6798,
      "▁speak": 6799,
      "SC": 6800,
      "▁approved": 6801,
      "AL": 6802,
      "рованы": 6803,
      "▁matters": 6804,
      "▁долгосро": 6805,
      "▁Mill": 6806,
      "▁statements": 6807,
      "▁оказывать": 6808,
      "▁огром": 6809,
      "▁секто": 6810,
      "ваемых": 6811,
      "▁новый": 6812,
      "членов": 6813,
      "▁использую": 6814,
      "aps": 6815,
      "▁later": 6816,
      "▁expl": 6817,
      "▁lar": 6818,
      "▁conducted": 6819,
      "▁integrated": 6820,
      "▁issued": 6821,
      "▁монитори": 6822,
      "▁президен": 6823,
      "▁enable": 6824,
      "▁международные": 6825,
      "▁поле": 6826,
      "▁interests": 6827,
      "▁тенден": 6828,
      "▁выражает": 6829,
      "ilt": 6830,
      "▁подготовке": 6831,
      "ником": 6832,
      "▁Боль": 6833,
      "чит": 6834,
      "▁обрабо": 6835,
      "▁seem": 6836,
      "▁охваты": 6837,
      "зор": 6838,
      "urer": 6839,
      "level": 6840,
      "ronic": 6841,
      "▁преступности": 6842,
      "▁table": 6843,
      "▁Agree": 6844,
      "▁cred": 6845,
      "▁combat": 6846,
      "▁contributions": 6847,
      "urch": 6848,
      "▁something": 6849,
      "▁asse": 6850,
      "▁respective": 6851,
      "ideo": 6852,
      "▁правосудия": 6853,
      "fort": 6854,
      "▁доброволь": 6855,
      "едини": 6856,
      "poses": 6857,
      "▁fight": 6858,
      "just": 6859,
      "▁mom": 6860,
      "▁log": 6861,
      "▁органы": 6862,
      "ilateral": 6863,
      "▁Африке": 6864,
      "▁переговоров": 6865,
      "▁ethnic": 6866,
      "▁суд": 6867,
      "суль": 6868,
      "▁overall": 6869,
      "▁какие": 6870,
      "▁website": 6871,
      "ha": 6872,
      "▁integration": 6873,
      "▁Germany": 6874,
      "going": 6875,
      "▁price": 6876,
      "▁supply": 6877,
      "tial": 6878,
      "вшего": 6879,
      "терна": 6880,
      "▁ассо": 6881,
      "нок": 6882,
      "▁преиму": 6883,
      "лико": 6884,
      "мон": 6885,
      "unity": 6886,
      "ounts": 6887,
      "OP": 6888,
      "▁sen": 6889,
      "▁central": 6890,
      "▁elements": 6891,
      "▁обрати": 6892,
      "▁энергети": 6893,
      "верх": 6894,
      "▁информацией": 6895,
      "▁консультаций": 6896,
      "▁комиссии": 6897,
      "▁докладов": 6898,
      "ribunal": 6899,
      "▁установ": 6900,
      "▁Air": 6901,
      "▁Азербайджа": 6902,
      "rus": 6903,
      "▁доказа": 6904,
      "▁authority": 6905,
      "▁союза": 6906,
      "▁negotiations": 6907,
      "▁способствовать": 6908,
      "▁хорошо": 6909,
      "▁Anal": 6910,
      "▁попы": 6911,
      "ipl": 6912,
      "дами": 6913,
      "▁содействие": 6914,
      "▁культуры": 6915,
      "▁заболе": 6916,
      "▁Предста": 6917,
      "▁готов": 6918,
      "▁either": 6919,
      "ux": 6920,
      "▁состав": 6921,
      "▁характера": 6922,
      "▁cross": 6923,
      "деть": 6924,
      "▁face": 6925,
      "▁gas": 6926,
      "▁функции": 6927,
      "ссией": 6928,
      "▁primary": 6929,
      "ждению": 6930,
      "чат": 6931,
      "▁left": 6932,
      "▁rural": 6933,
      "мога": 6934,
      "зобно": 6935,
      "holders": 6936,
      "▁sources": 6937,
      "▁рекомендо": 6938,
      "щу": 6939,
      "ened": 6940,
      "▁compet": 6941,
      "▁секретарь": 6942,
      "▁purposes": 6943,
      "rid": 6944,
      "▁уг": 6945,
      "▁намер": 6946,
      "▁дем": 6947,
      "lad": 6948,
      "▁goods": 6949,
      "▁refugees": 6950,
      "▁предприятия": 6951,
      "▁rather": 6952,
      "смотря": 6953,
      "▁scientific": 6954,
      "ttp": 6955,
      "ису": 6956,
      "▁Sm": 6957,
      "▁users": 6958,
      "▁worksh": 6959,
      "▁achieved": 6960,
      "irt": 6961,
      "▁обсуждения": 6962,
      "▁факт": 6963,
      "его": 6964,
      "▁Exper": 6965,
      "▁imm": 6966,
      "▁join": 6967,
      "▁вид": 6968,
      "erences": 6969,
      "▁Теле": 6970,
      "▁перспек": 6971,
      "▁reach": 6972,
      "▁пак": 6973,
      "▁Oper": 6974,
      "▁Гру": 6975,
      "urb": 6976,
      "▁переход": 6977,
      "▁contact": 6978,
      "роят": 6979,
      "▁known": 6980,
      "oll": 6981,
      "▁двухгоди": 6982,
      "▁правила": 6983,
      "мяну": 6984,
      "▁политической": 6985,
      "▁обществ": 6986,
      "ложение": 6987,
      "▁иму": 6988,
      "ches": 6989,
      "▁articles": 6990,
      "▁африкан": 6991,
      "▁игро": 6992,
      "▁сведения": 6993,
      "▁определения": 6994,
      "▁IP": 6995,
      "ody": 6996,
      "▁gener": 6997,
      "fication": 6998,
      "▁Let": 6999,
      "лый": 7000,
      "▁job": 7001,
      "енное": 7002,
      "▁asked": 7003,
      "▁несмотря": 7004,
      "IC": 7005,
      "▁видео": 7006,
      "ghan": 7007,
      "▁начина": 7008,
      "▁тогда": 7009,
      "▁выво": 7010,
      "▁side": 7011,
      "asino": 7012,
      "лень": 7013,
      "▁самых": 7014,
      "▁Meeting": 7015,
      "▁types": 7016,
      "▁нескольких": 7017,
      "andid": 7018,
      "overy": 7019,
      "▁равенства": 7020,
      "▁обзор": 7021,
      "▁rap": 7022,
      "▁конфликтов": 7023,
      "sibilities": 7024,
      "▁Jes": 7025,
      "рованной": 7026,
      "▁озагла": 7027,
      "▁undertaken": 7028,
      "ables": 7029,
      "▁дли": 7030,
      "▁той": 7031,
      "iferation": 7032,
      "▁мужчин": 7033,
      "▁mechanism": 7034,
      "▁Institute": 7035,
      "▁заключается": 7036,
      "▁Сторон": 7037,
      "▁brought": 7038,
      "▁guidelines": 7039,
      "aign": 7040,
      "▁Environment": 7041,
      "▁несо": 7042,
      "носи": 7043,
      "▁делам": 7044,
      "ванных": 7045,
      "▁спосо": 7046,
      "▁effectively": 7047,
      "▁водо": 7048,
      "▁произо": 7049,
      "sw": 7050,
      "станавли": 7051,
      "▁концеп": 7052,
      "▁along": 7053,
      "▁иско": 7054,
      "▁efficiency": 7055,
      "▁came": 7056,
      "▁анализа": 7057,
      "▁шесть": 7058,
      "▁вод": 7059,
      "сок": 7060,
      "▁увеличи": 7061,
      "▁dated": 7062,
      "▁works": 7063,
      "▁этни": 7064,
      "▁озаглавлен": 7065,
      "hing": 7066,
      "прави": 7067,
      "▁международное": 7068,
      "шел": 7069,
      "▁concerns": 7070,
      "▁осуществлять": 7071,
      "ствовали": 7072,
      "▁rein": 7073,
      "рабаты": 7074,
      "▁improving": 7075,
      "▁вспо": 7076,
      "▁автомоби": 7077,
      "▁правил": 7078,
      "ственное": 7079,
      "▁Программы": 7080,
      "aging": 7081,
      "▁cooper": 7082,
      "▁term": 7083,
      "▁Север": 7084,
      "▁важно": 7085,
      "▁Ital": 7086,
      "▁road": 7087,
      "▁Пи": 7088,
      "▁Иису": 7089,
      "▁history": 7090,
      "▁expand": 7091,
      "▁Manager": 7092,
      "▁defin": 7093,
      "▁record": 7094,
      "▁составляет": 7095,
      "▁HD": 7096,
      "▁подход": 7097,
      "ishment": 7098,
      "▁detention": 7099,
      "▁никогда": 7100,
      "▁super": 7101,
      "▁multilateral": 7102,
      "▁сла": 7103,
      "▁financing": 7104,
      "▁побе": 7105,
      "▁прибы": 7106,
      "▁del": 7107,
      "▁предоставления": 7108,
      "▁описа": 7109,
      "▁Commissioner": 7110,
      "▁сведению": 7111,
      "requ": 7112,
      "ude": 7113,
      "▁mo": 7114,
      "▁тысячелетия": 7115,
      "▁кни": 7116,
      "тости": 7117,
      "related": 7118,
      "▁missions": 7119,
      "▁administration": 7120,
      "▁поис": 7121,
      "▁социально": 7122,
      "▁принципы": 7123,
      "GO": 7124,
      "▁весьма": 7125,
      "▁points": 7126,
      "▁важное": 7127,
      "▁неболь": 7128,
      "дам": 7129,
      "▁Воз": 7130,
      "▁solution": 7131,
      "▁законодатель": 7132,
      "коми": 7133,
      "▁гор": 7134,
      "mination": 7135,
      "DC": 7136,
      "▁compliance": 7137,
      "▁Дру": 7138,
      "▁доклады": 7139,
      "▁sl": 7140,
      "ulate": 7141,
      "▁состоит": 7142,
      "тное": 7143,
      "let": 7144,
      "▁основы": 7145,
      "эро": 7146,
      "▁новой": 7147,
      "емле": 7148,
      "▁коллек": 7149,
      "вшие": 7150,
      "▁игры": 7151,
      "▁оп": 7152,
      "▁приводи": 7153,
      "▁тю": 7154,
      "▁выборов": 7155,
      "▁hotel": 7156,
      "ременно": 7157,
      "ercial": 7158,
      "▁разоружения": 7159,
      "▁Protec": 7160,
      "▁evaluation": 7161,
      "▁обмен": 7162,
      "▁relationship": 7163,
      "▁objective": 7164,
      "▁struct": 7165,
      "▁такое": 7166,
      "пор": 7167,
      "▁Вме": 7168,
      "▁culture": 7169,
      "more": 7170,
      "мимо": 7171,
      "▁опыт": 7172,
      "▁документе": 7173,
      "хе": 7174,
      "▁найти": 7175,
      "▁Социаль": 7176,
      "наб": 7177,
      "▁живо": 7178,
      "▁представителя": 7179,
      "▁almost": 7180,
      "ening": 7181,
      "▁file": 7182,
      "▁трудо": 7183,
      "▁delegations": 7184,
      "▁creation": 7185,
      "стров": 7186,
      "▁amend": 7187,
      "▁Afghan": 7188,
      "▁Ту": 7189,
      "▁опти": 7190,
      "▁preparation": 7191,
      "▁restric": 7192,
      "▁хра": 7193,
      "▁положении": 7194,
      "треб": 7195,
      "СТ": 7196,
      "▁dise": 7197,
      "▁пересмот": 7198,
      "▁распространения": 7199,
      "▁Рабочей": 7200,
      "▁сам": 7201,
      "▁Jesus": 7202,
      "▁предназна": 7203,
      "▁недостато": 7204,
      "▁circumstances": 7205,
      "uris": 7206,
      "▁Пор": 7207,
      "US": 7208,
      "ane": 7209,
      "▁rates": 7210,
      "▁Cri": 7211,
      "▁поддерживает": 7212,
      "▁парамет": 7213,
      "▁индивиду": 7214,
      "▁sus": 7215,
      "▁Испол": 7216,
      "ishing": 7217,
      "▁income": 7218,
      "▁conv": 7219,
      "▁TXXX": 7220,
      "▁altern": 7221,
      "▁отношений": 7222,
      "лайн": 7223,
      "▁правительством": 7224,
      "рыв": 7225,
      "жела": 7226,
      "▁proposal": 7227,
      "▁члены": 7228,
      "▁подготовлен": 7229,
      "▁Criminal": 7230,
      "▁industrial": 7231,
      "ОВ": 7232,
      "▁возобно": 7233,
      "▁Global": 7234,
      "чки": 7235,
      "▁ото": 7236,
      "▁families": 7237,
      "▁vill": 7238,
      "▁across": 7239,
      "ident": 7240,
      "▁etc": 7241,
      "▁Согласно": 7242,
      "▁Ky": 7243,
      "▁неиз": 7244,
      "▁Ча": 7245,
      "▁trend": 7246,
      "▁Бра": 7247,
      "▁People": 7248,
      "рять": 7249,
      "▁draw": 7250,
      "tified": 7251,
      "▁Штатов": 7252,
      "стане": 7253,
      "▁контак": 7254,
      "▁Democratic": 7255,
      "вин": 7256,
      "▁outside": 7257,
      "▁основные": 7258,
      "▁ау": 7259,
      "▁вооружен": 7260,
      "wide": 7261,
      "▁созданию": 7262,
      "▁подхода": 7263,
      "жного": 7264,
      "estern": 7265,
      "▁peaceful": 7266,
      "▁creat": 7267,
      "ront": 7268,
      "▁Prin": 7269,
      "oker": 7270,
      "▁soon": 7271,
      "▁верси": 7272,
      "▁exercise": 7273,
      "▁централь": 7274,
      "▁дове": 7275,
      "▁последни": 7276,
      "▁autom": 7277,
      "упо": 7278,
      "shot": 7279,
      "разу": 7280,
      "▁десяти": 7281,
      "лой": 7282,
      "▁выбро": 7283,
      "▁travel": 7284,
      "▁освобо": 7285,
      "▁institutional": 7286,
      "▁лучше": 7287,
      "▁теперь": 7288,
      "any": 7289,
      "▁высокого": 7290,
      "▁управление": 7291,
      "▁Millennium": 7292,
      "▁материаль": 7293,
      "▁требую": 7294,
      "▁правовой": 7295,
      "▁Ann": 7296,
      "▁Европы": 7297,
      "пози": 7298,
      "▁ЮНЕ": 7299,
      "▁взаимодействи": 7300,
      "формули": 7301,
      "▁Япо": 7302,
      "▁местных": 7303,
      "▁Strip": 7304,
      "груз": 7305,
      "▁закры": 7306,
      "▁сообщество": 7307,
      "▁укреплению": 7308,
      "▁дер": 7309,
      "▁опла": 7310,
      "▁стол": 7311,
      "▁предложение": 7312,
      "▁должност": 7313,
      "▁Республике": 7314,
      "operation": 7315,
      "ющейся": 7316,
      "▁сталки": 7317,
      "▁American": 7318,
      "▁мнению": 7319,
      "▁Foreign": 7320,
      "▁образование": 7321,
      "▁educational": 7322,
      "▁Bl": 7323,
      "ленности": 7324,
      "▁Mod": 7325,
      "▁внутри": 7326,
      "▁Found": 7327,
      "▁Agreement": 7328,
      "▁effort": 7329,
      "▁Конферен": 7330,
      "▁протя": 7331,
      "▁далее": 7332,
      "ene": 7333,
      "говорит": 7334,
      "▁Kore": 7335,
      "тная": 7336,
      "rants": 7337,
      "▁защиту": 7338,
      "▁half": 7339,
      "ousand": 7340,
      "ama": 7341,
      "ournal": 7342,
      "ряз": 7343,
      "▁равно": 7344,
      "▁объяс": 7345,
      "emin": 7346,
      "▁Serb": 7347,
      "▁enforcement": 7348,
      "lusive": 7349,
      "▁компен": 7350,
      "AP": 7351,
      "▁комисса": 7352,
      "▁source": 7353,
      "техни": 7354,
      "скохозяй": 7355,
      "▁Forum": 7356,
      "тр": 7357,
      "▁Тем": 7358,
      "ниц": 7359,
      "▁Рабочая": 7360,
      "▁Министер": 7361,
      "▁user": 7362,
      "▁Пак": 7363,
      "▁разработа": 7364,
      "щиеся": 7365,
      "▁конвен": 7366,
      "enth": 7367,
      "face": 7368,
      "▁Вен": 7369,
      "▁pric": 7370,
      "щать": 7371,
      "▁органами": 7372,
      "itness": 7373,
      "▁вес": 7374,
      "▁международными": 7375,
      "tivity": 7376,
      "tenance": 7377,
      "▁сме": 7378,
      "▁campaign": 7379,
      "▁интерес": 7380,
      "▁prec": 7381,
      "▁ограничен": 7382,
      "ез": 7383,
      "hern": 7384,
      "мии": 7385,
      "▁улучшения": 7386,
      "риб": 7387,
      "▁win": 7388,
      "еру": 7389,
      "мотря": 7390,
      "ief": 7391,
      "▁млн": 7392,
      "▁Red": 7393,
      "▁приветствует": 7394,
      "вами": 7395,
      "▁Жи": 7396,
      "▁сформули": 7397,
      "HR": 7398,
      "▁UNDP": 7399,
      "▁трансы": 7400,
      "rench": 7401,
      "▁войны": 7402,
      "aur": 7403,
      "▁items": 7404,
      "▁компет": 7405,
      "▁консультации": 7406,
      "нного": 7407,
      "ray": 7408,
      "▁Non": 7409,
      "▁неде": 7410,
      "▁words": 7411,
      "▁Produc": 7412,
      "▁Public": 7413,
      "▁произ": 7414,
      "▁воды": 7415,
      "▁Armen": 7416,
      "мыми": 7417,
      "дра": 7418,
      "oted": 7419,
      "▁сокращения": 7420,
      "▁counter": 7421,
      "ait": 7422,
      "▁Home": 7423,
      "ведение": 7424,
      "▁искус": 7425,
      "vised": 7426,
      "▁beginning": 7427,
      "ложения": 7428,
      "▁arrangements": 7429,
      "▁Aliy": 7430,
      "реги": 7431,
      "▁Лу": 7432,
      "▁ПРООН": 7433,
      "AM": 7434,
      "year": 7435,
      "▁Services": 7436,
      "ственная": 7437,
      "enced": 7438,
      "▁emb": 7439,
      "▁филь": 7440,
      "тите": 7441,
      "▁juris": 7442,
      "нки": 7443,
      "▁France": 7444,
      "▁конструк": 7445,
      "▁resource": 7446,
      "ванной": 7447,
      "▁influ": 7448,
      "▁важность": 7449,
      "▁Syri": 7450,
      "making": 7451,
      "▁соблюдения": 7452,
      "▁покры": 7453,
      "▁совершенство": 7454,
      "▁leading": 7455,
      "▁tits": 7456,
      "ses": 7457,
      "▁сбор": 7458,
      "▁документ": 7459,
      "▁Основ": 7460,
      "ссе": 7461,
      "▁offices": 7462,
      "oke": 7463,
      "▁поставщи": 7464,
      "▁practical": 7465,
      "▁avoid": 7466,
      "▁охраны": 7467,
      "ann": 7468,
      "▁sectors": 7469,
      "▁большие": 7470,
      "▁Please": 7471,
      "▁features": 7472,
      "▁альтерна": 7473,
      "erve": 7474,
      "uri": 7475,
      "▁tell": 7476,
      "▁Disc": 7477,
      "▁Prof": 7478,
      "▁el": 7479,
      "▁обеспечивает": 7480,
      "▁believ": 7481,
      "▁Israeli": 7482,
      "▁см": 7483,
      "ъя": 7484,
      "▁прогресс": 7485,
      "▁достаточно": 7486,
      "▁бли": 7487,
      "▁hope": 7488,
      "▁extra": 7489,
      "▁конфи": 7490,
      "▁satis": 7491,
      "▁позд": 7492,
      "▁Est": 7493,
      "▁UNC": 7494,
      "▁трудно": 7495,
      "tees": 7496,
      "▁наблюд": 7497,
      "▁surve": 7498,
      "▁уви": 7499,
      "▁девя": 7500,
      "▁transmit": 7501,
      "▁sufficient": 7502,
      "▁recommends": 7503,
      "▁poor": 7504,
      "▁ЮНИ": 7505,
      "▁Trade": 7506,
      "uting": 7507,
      "руют": 7508,
      "▁Iran": 7509,
      "hers": 7510,
      "▁высказа": 7511,
      "▁программу": 7512,
      "▁longer": 7513,
      "ee": 7514,
      "▁Ад": 7515,
      "▁жесто": 7516,
      "▁объема": 7517,
      "▁stability": 7518,
      "verage": 7519,
      "key": 7520,
      "влений": 7521,
      "▁sea": 7522,
      "▁hot": 7523,
      "▁deploy": 7524,
      "▁пыток": 7525,
      "▁автомати": 7526,
      "enty": 7527,
      "▁stake": 7528,
      "▁Би": 7529,
      "▁critical": 7530,
      "▁web": 7531,
      "▁Российской": 7532,
      "▁заявление": 7533,
      "hest": 7534,
      "▁гости": 7535,
      "lier": 7536,
      "ровки": 7537,
      "▁возника": 7538,
      "▁сравнению": 7539,
      "▁мощ": 7540,
      "▁стреми": 7541,
      "▁goal": 7542,
      "▁states": 7543,
      "▁identified": 7544,
      "▁Exp": 7545,
      "никам": 7546,
      "рд": 7547,
      "▁её": 7548,
      "▁требует": 7549,
      "▁Bar": 7550,
      "▁exten": 7551,
      "▁преследо": 7552,
      "ming": 7553,
      "близи": 7554,
      "alling": 7555,
      "▁состоянии": 7556,
      "▁опублико": 7557,
      "вано": 7558,
      "▁associated": 7559,
      "▁обеспечивать": 7560,
      "▁task": 7561,
      "▁обращения": 7562,
      "▁сим": 7563,
      "▁percent": 7564,
      "▁max": 7565,
      "▁поня": 7566,
      "▁профи": 7567,
      "▁contribution": 7568,
      "▁стано": 7569,
      "ок": 7570,
      "▁Car": 7571,
      "▁означает": 7572,
      "▁км": 7573,
      "▁Such": 7574,
      "▁Зако": 7575,
      "▁ориенти": 7576,
      "ey": 7577,
      "ises": 7578,
      "▁efficient": 7579,
      "▁thousand": 7580,
      "▁бро": 7581,
      "▁сохран": 7582,
      "▁мета": 7583,
      "▁Организацией": 7584,
      "▁подверга": 7585,
      "▁задачи": 7586,
      "▁стратегий": 7587,
      "rust": 7588,
      "▁гео": 7589,
      "mine": 7590,
      "▁Украины": 7591,
      "▁Всемирной": 7592,
      "▁выз": 7593,
      "▁attem": 7594,
      "▁operating": 7595,
      "▁помога": 7596,
      "▁everything": 7597,
      "▁ей": 7598,
      "▁объедин": 7599,
      "▁letter": 7600,
      "лдо": 7601,
      "▁докладчик": 7602,
      "uk": 7603,
      "▁санк": 7604,
      "adem": 7605,
      "простран": 7606,
      "porary": 7607,
      "▁гражданских": 7608,
      "uts": 7609,
      "лиш": 7610,
      "▁Tribunal": 7611,
      "▁Associ": 7612,
      "▁mil": 7613,
      "▁источников": 7614,
      "gen": 7615,
      "жные": 7616,
      "▁потребности": 7617,
      "жности": 7618,
      "arters": 7619,
      "sych": 7620,
      "▁safe": 7621,
      "▁большинство": 7622,
      "▁referred": 7623,
      "▁маши": 7624,
      "▁приро": 7625,
      "▁рост": 7626,
      "которые": 7627,
      "благо": 7628,
      "▁bank": 7629,
      "▁schools": 7630,
      "CEF": 7631,
      "▁universal": 7632,
      "грантов": 7633,
      "▁Micro": 7634,
      "▁game": 7635,
      "▁работать": 7636,
      "▁принятие": 7637,
      "енный": 7638,
      "▁Постоян": 7639,
      "▁Уста": 7640,
      "▁сельскохозяй": 7641,
      "▁специализи": 7642,
      "фикации": 7643,
      "▁situations": 7644,
      "▁welcomed": 7645,
      "▁distribution": 7646,
      "▁traditional": 7647,
      "Ка": 7648,
      "▁ord": 7649,
      "▁Кана": 7650,
      "▁узна": 7651,
      "▁показателей": 7652,
      "ser": 7653,
      "▁мет": 7654,
      "▁инвестиций": 7655,
      "дах": 7656,
      "защи": 7657,
      "▁Now": 7658,
      "▁factors": 7659,
      "▁замечания": 7660,
      "пой": 7661,
      "▁проводить": 7662,
      "▁содержится": 7663,
      "▁норм": 7664,
      "mer": 7665,
      "▁Part": 7666,
      "▁примени": 7667,
      "▁adap": 7668,
      "rand": 7669,
      "▁Запад": 7670,
      "▁alloc": 7671,
      "▁обучения": 7672,
      "▁Доклад": 7673,
      "▁программам": 7674,
      "▁кампа": 7675,
      "▁Over": 7676,
      "▁Тан": 7677,
      "irmed": 7678,
      "▁широко": 7679,
      "▁Три": 7680,
      "rap": 7681,
      "▁Европейского": 7682,
      "чений": 7683,
      "▁Foundation": 7684,
      "ruption": 7685,
      "пада": 7686,
      "▁Educ": 7687,
      "тивно": 7688,
      "делан": 7689,
      "▁задержа": 7690,
      "бран": 7691,
      "▁оши": 7692,
      "▁Пла": 7693,
      "▁Федерации": 7694,
      "нений": 7695,
      "▁port": 7696,
      "▁должности": 7697,
      "▁applied": 7698,
      "▁районе": 7699,
      "▁поправ": 7700,
      "▁изменений": 7701,
      "▁Sud": 7702,
      "▁интеграции": 7703,
      "ump": 7704,
      "urance": 7705,
      "▁квали": 7706,
      "щается": 7707,
      "▁Китай": 7708,
      "▁Таким": 7709,
      "▁обзора": 7710,
      "▁fa": 7711,
      "▁indicators": 7712,
      "▁Международной": 7713,
      "▁radi": 7714,
      "▁малень": 7715,
      "ментом": 7716,
      "вающие": 7717,
      "лега": 7718,
      "▁индивидуаль": 7719,
      "PA": 7720,
      "▁cause": 7721,
      "lish": 7722,
      "▁Support": 7723,
      "▁впе": 7724,
      "IR": 7725,
      "▁отсутствие": 7726,
      "▁engine": 7727,
      "▁данной": 7728,
      "▁Ste": 7729,
      "▁Islam": 7730,
      "▁повто": 7731,
      "нный": 7732,
      "long": 7733,
      "▁конкретные": 7734,
      "▁увер": 7735,
      "▁принимает": 7736,
      "▁приложения": 7737,
      "omes": 7738,
      "рос": 7739,
      "▁ранее": 7740,
      "▁Division": 7741,
      "ape": 7742,
      "▁коммер": 7743,
      "лизация": 7744,
      "▁стар": 7745,
      "▁mut": 7746,
      "пить": 7747,
      "▁непри": 7748,
      "▁очередь": 7749,
      "▁Count": 7750,
      "ental": 7751,
      "▁majority": 7752,
      "▁introduced": 7753,
      "▁regulations": 7754,
      "▁Christ": 7755,
      "▁developments": 7756,
      "▁vote": 7757,
      "▁первый": 7758,
      "▁анти": 7759,
      "▁напря": 7760,
      "▁делегации": 7761,
      "рее": 7762,
      "ющем": 7763,
      "▁continues": 7764,
      "▁fair": 7765,
      "▁привед": 7766,
      "▁applications": 7767,
      "▁находятся": 7768,
      "▁lic": 7769,
      "оби": 7770,
      "▁применение": 7771,
      "змом": 7772,
      "gasm": 7773,
      "EM": 7774,
      "▁посо": 7775,
      "сер": 7776,
      "▁государству": 7777,
      "▁Review": 7778,
      "▁технической": 7779,
      "▁сожа": 7780,
      "▁конфликта": 7781,
      "artments": 7782,
      "▁candid": 7783,
      "▁реаги": 7784,
      "AIDS": 7785,
      "▁Although": 7786,
      "ента": 7787,
      "чества": 7788,
      "▁led": 7789,
      "гом": 7790,
      "▁really": 7791,
      "▁measure": 7792,
      "вам": 7793,
      "▁комплек": 7794,
      "▁From": 7795,
      "▁benefit": 7796,
      "istance": 7797,
      "▁reference": 7798,
      "▁makes": 7799,
      "ске": 7800,
      "▁правительств": 7801,
      "▁памя": 7802,
      "▁УВК": 7803,
      "ico": 7804,
      "▁Justice": 7805,
      "oking": 7806,
      "iary": 7807,
      "ющимися": 7808,
      "▁sound": 7809,
      "▁involve": 7810,
      "▁commitments": 7811,
      "▁Несмотря": 7812,
      "▁mov": 7813,
      "▁развер": 7814,
      "▁преступлений": 7815,
      "▁corre": 7816,
      "▁IV": 7817,
      "возмо": 7818,
      "▁избе": 7819,
      "емся": 7820,
      "твор": 7821,
      "▁делать": 7822,
      "▁оборудования": 7823,
      "▁informal": 7824,
      "▁методов": 7825,
      "▁maintenance": 7826,
      "▁delivery": 7827,
      "▁size": 7828,
      "▁page": 7829,
      "chen": 7830,
      "▁dang": 7831,
      "виа": 7832,
      "▁Health": 7833,
      "ruit": 7834,
      "▁suggest": 7835,
      "▁qual": 7836,
      "▁Tw": 7837,
      "▁Моск": 7838,
      "кло": 7839,
      "▁учета": 7840,
      "фо": 7841,
      "WP": 7842,
      "▁ever": 7843,
      "▁сами": 7844,
      "▁although": 7845,
      "▁Hotel": 7846,
      "участнику": 7847,
      "емым": 7848,
      "▁уголовного": 7849,
      "▁content": 7850,
      "sing": 7851,
      "ьми": 7852,
      "гия": 7853,
      "▁gl": 7854,
      "ждении": 7855,
      "▁ада": 7856,
      "used": 7857,
      "▁каждой": 7858,
      "▁самом": 7859,
      "образо": 7860,
      "▁учреждениями": 7861,
      "стурба": 7862,
      "▁series": 7863,
      "▁форм": 7864,
      "▁най": 7865,
      "гряз": 7866,
      "▁Дж": 7867,
      "▁Crime": 7868,
      "▁cop": 7869,
      "▁option": 7870,
      "▁использованием": 7871,
      "▁biennium": 7872,
      "▁stage": 7873,
      "зино": 7874,
      "▁развитых": 7875,
      "говор": 7876,
      "▁запа": 7877,
      "▁ран": 7878,
      "телю": 7879,
      "▁устанавли": 7880,
      "▁break": 7881,
      "ствием": 7882,
      "▁solutions": 7883,
      "▁облег": 7884,
      "▁useful": 7885,
      "▁arch": 7886,
      "▁pursuant": 7887,
      "▁структур": 7888,
      "▁judicial": 7889,
      "▁кре": 7890,
      "По": 7891,
      "▁зло": 7892,
      "▁аре": 7893,
      "▁export": 7894,
      "▁Было": 7895,
      "ania": 7896,
      "▁эксплуатации": 7897,
      "▁permit": 7898,
      "▁Управление": 7899,
      "лена": 7900,
      "▁Agency": 7901,
      "▁priorities": 7902,
      "▁Аф": 7903,
      "▁Inc": 7904,
      "▁пыта": 7905,
      "▁Center": 7906,
      "мую": 7907,
      "▁Чтобы": 7908,
      "▁floor": 7909,
      "кар": 7910,
      "▁создании": 7911,
      "▁initiative": 7912,
      "▁анализ": 7913,
      "▁communications": 7914,
      "atform": 7915,
      "регистри": 7916,
      "▁финансовой": 7917,
      "▁заявил": 7918,
      "acts": 7919,
      "▁знания": 7920,
      "▁pan": 7921,
      "▁server": 7922,
      "ционный": 7923,
      "rew": 7924,
      "▁коро": 7925,
      "▁стал": 7926,
      "▁governance": 7927,
      "▁Правительство": 7928,
      "▁opinion": 7929,
      "▁external": 7930,
      "▁West": 7931,
      "▁домаш": 7932,
      "▁Coord": 7933,
      "▁answ": 7934,
      "▁Yes": 7935,
      "вит": 7936,
      "▁крат": 7937,
      "▁Protection": 7938,
      "изво": 7939,
      "mm": 7940,
      "▁тебе": 7941,
      "▁отда": 7942,
      "rep": 7943,
      "▁многочис": 7944,
      "▁архи": 7945,
      "стурбация": 7946,
      "▁requires": 7947,
      "uth": 7948,
      "▁Geneva": 7949,
      "diction": 7950,
      "▁expert": 7951,
      "▁collection": 7952,
      "▁seen": 7953,
      "дут": 7954,
      "▁включает": 7955,
      "tify": 7956,
      "cer": 7957,
      "раиль": 7958,
      "▁аэро": 7959,
      "▁Ref": 7960,
      "тесь": 7961,
      "▁принадле": 7962,
      "▁планирования": 7963,
      "ПА": 7964,
      "▁http": 7965,
      "▁контрак": 7966,
      "▁reached": 7967,
      "▁Slo": 7968,
      "▁sou": 7969,
      "▁контроль": 7970,
      "IT": 7971,
      "били": 7972,
      "▁национальные": 7973,
      "▁ability": 7974,
      "▁il": 7975,
      "▁unique": 7976,
      "▁Вам": 7977,
      "▁posts": 7978,
      "▁den": 7979,
      "▁youth": 7980,
      "▁highl": 7981,
      "ландии": 7982,
      "▁trust": 7983,
      "▁оценке": 7984,
      "ptional": 7985,
      "надца": 7986,
      "▁Rel": 7987,
      "▁первонача": 7988,
      "▁markets": 7989,
      "Porn": 7990,
      "▁Belar": 7991,
      "ox": 7992,
      "▁encourage": 7993,
      "▁дополнительные": 7994,
      "▁calls": 7995,
      "▁скоро": 7996,
      "▁музы": 7997,
      "▁condition": 7998,
      "usal": 7999,
      "▁бое": 8000,
      "▁housing": 8001,
      "▁нега": 8002,
      "ськи": 8003,
      "hemaleTube": 8004,
      "▁Sudan": 8005,
      "▁AShemaleTube": 8006,
      "▁Strate": 8007,
      "▁характери": 8008,
      "▁пригла": 8009,
      "▁совместно": 8010,
      "▁мнения": 8011,
      "▁Также": 8012,
      "▁Некоторые": 8013,
      "▁предприятий": 8014,
      "In": 8015,
      "▁Net": 8016,
      "▁fifty": 8017,
      "▁закона": 8018,
      "▁signed": 8019,
      "▁reasons": 8020,
      "▁became": 8021,
      "▁effectiveness": 8022,
      "▁advant": 8023,
      "▁инфраструктуры": 8024,
      "▁blo": 8025,
      "▁leave": 8026,
      "▁протяжении": 8027,
      "шка": 8028,
      "▁военных": 8029,
      "ус": 8030,
      "▁prices": 8031,
      "рованного": 8032,
      "али": 8033,
      "▁события": 8034,
      "▁пропа": 8035,
      "quarters": 8036,
      "▁bath": 8037,
      "▁зависимости": 8038,
      "▁безопасность": 8039,
      "▁месте": 8040,
      "доро": 8041,
      "▁emp": 8042,
      "▁главным": 8043,
      "▁elimin": 8044,
      "▁entities": 8045,
      "▁данного": 8046,
      "▁pain": 8047,
      "▁Your": 8048,
      "пуск": 8049,
      "▁concept": 8050,
      "alk": 8051,
      "▁units": 8052,
      "▁отдельных": 8053,
      "▁вооруженных": 8054,
      "▁Requ": 8055,
      "ously": 8056,
      "▁French": 8057,
      "тая": 8058,
      "зай": 8059,
      "▁Китая": 8060,
      "▁повышение": 8061,
      "▁growing": 8062,
      "▁Например": 8063,
      "▁инициатив": 8064,
      "▁discussed": 8065,
      "▁корпо": 8066,
      "▁жо": 8067,
      "▁Жене": 8068,
      "▁clean": 8069,
      "▁ван": 8070,
      "▁improved": 8071,
      "▁будущем": 8072,
      "▁сиськи": 8073,
      "▁Canada": 8074,
      "▁проведении": 8075,
      "ED": 8076,
      "▁Also": 8077,
      "ermanent": 8078,
      "▁распоря": 8079,
      "вос": 8080,
      "ny": 8081,
      "soft": 8082,
      "▁El": 8083,
      "▁illeg": 8084,
      "▁Mem": 8085,
      "▁студен": 8086,
      "▁tools": 8087,
      "▁negative": 8088,
      "жением": 8089,
      "▁vulnerable": 8090,
      "▁interp": 8091,
      "▁Not": 8092,
      "▁ongoing": 8093,
      "▁Summit": 8094,
      "▁quick": 8095,
      "▁получа": 8096,
      "▁особы": 8097,
      "▁основании": 8098,
      "▁indicated": 8099,
      "▁помочь": 8100,
      "ять": 8101,
      "▁advance": 8102,
      "▁skills": 8103,
      "▁Вместе": 8104,
      "▁табли": 8105,
      "oslav": 8106,
      "▁мнение": 8107,
      "▁продви": 8108,
      "pping": 8109,
      "ka": 8110,
      "ply": 8111,
      "▁extent": 8112,
      "АО": 8113,
      "▁загряз": 8114,
      "▁true": 8115,
      "▁онлайн": 8116,
      "▁содержания": 8117,
      "▁Permanent": 8118,
      "▁Юго": 8119,
      "▁India": 8120,
      "▁пятьдесят": 8121,
      "▁detailed": 8122,
      "дик": 8123,
      "▁центр": 8124,
      "▁предложен": 8125,
      "▁seek": 8126,
      "▁подготовку": 8127,
      "▁abuse": 8128,
      "▁forum": 8129,
      "▁потенциаль": 8130,
      "птиз": 8131,
      "▁направления": 8132,
      "▁Server": 8133,
      "▁расходы": 8134,
      "▁cock": 8135,
      "▁действительно": 8136,
      "▁difficul": 8137,
      "lications": 8138,
      "aving": 8139,
      "▁recommendation": 8140,
      "isters": 8141,
      "▁Latv": 8142,
      "▁специалистов": 8143,
      "▁guarantee": 8144,
      "туру": 8145,
      "▁государственного": 8146,
      "▁продукции": 8147,
      "▁легко": 8148,
      "▁оказанию": 8149,
      "▁compens": 8150,
      "▁version": 8151,
      "yond": 8152,
      "вшим": 8153,
      "▁подтвержда": 8154,
      "▁правило": 8155,
      "▁компенса": 8156,
      "▁orgasm": 8157,
      "▁постоянно": 8158,
      "OM": 8159,
      "▁затраги": 8160,
      "iture": 8161,
      "▁arrest": 8162,
      "▁centre": 8163,
      "свя": 8164,
      "▁debt": 8165,
      "▁paper": 8166,
      "ovo": 8167,
      "▁command": 8168,
      "▁periodic": 8169,
      "тое": 8170,
      "standing": 8171,
      "lective": 8172,
      "▁heart": 8173,
      "atab": 8174,
      "женности": 8175,
      "гип": 8176,
      "держ": 8177,
      "▁Интернет": 8178,
      "▁repl": 8179,
      "▁Sa": 8180,
      "▁конти": 8181,
      "лья": 8182,
      "▁секторе": 8183,
      "▁achieving": 8184,
      "▁urban": 8185,
      "▁Kh": 8186,
      "▁Телефон": 8187,
      "▁финансовые": 8188,
      "сан": 8189,
      "ta": 8190,
      "▁нужда": 8191,
      "zil": 8192,
      "▁ple": 8193,
      "▁передачи": 8194,
      "▁согласо": 8195,
      "▁adjust": 8196,
      "▁chemical": 8197,
      "ябре": 8198,
      "play": 8199,
      "▁практике": 8200,
      "▁остается": 8201,
      "▁функций": 8202,
      "▁Georgia": 8203,
      "▁Фин": 8204,
      "▁sure": 8205,
      "▁необходимых": 8206,
      "▁агент": 8207,
      "страда": 8208,
      "▁занятости": 8209,
      "ground": 8210,
      "тифици": 8211,
      "▁выполнять": 8212,
      "▁членами": 8213,
      "▁officers": 8214,
      "чил": 8215,
      "▁доно": 8216,
      "AD": 8217,
      "▁Cooperation": 8218,
      "▁lower": 8219,
      "ект": 8220,
      "▁молодежи": 8221,
      "ровали": 8222,
      "▁du": 8223,
      "▁повышению": 8224,
      "верса": 8225,
      "▁обеспокоенность": 8226,
      "▁механизмы": 8227,
      "IL": 8228,
      "▁util": 8229,
      "St": 8230,
      "▁alia": 8231,
      "▁сфер": 8232,
      "PR": 8233,
      "▁нашего": 8234,
      "▁serve": 8235,
      "▁направленных": 8236,
      "useum": 8237,
      "▁English": 8238,
      "▁возраста": 8239,
      "onia": 8240,
      "ko": 8241,
      "пода": 8242,
      "ension": 8243,
      "▁диску": 8244,
      "▁напад": 8245,
      "▁собира": 8246,
      "▁Civil": 8247,
      "шему": 8248,
      "▁Mold": 8249,
      "▁extreme": 8250,
      "▁субъек": 8251,
      "▁Nor": 8252,
      "▁Regional": 8253,
      "▁направленные": 8254,
      "▁und": 8255,
      "▁mag": 8256,
      "▁миссии": 8257,
      "▁операции": 8258,
      "▁протокола": 8259,
      "жай": 8260,
      "▁Panel": 8261,
      "▁statistics": 8262,
      "▁Ком": 8263,
      "▁превы": 8264,
      "▁stay": 8265,
      "▁options": 8266,
      "▁тво": 8267,
      "pon": 8268,
      "▁укрепление": 8269,
      "▁York": 8270,
      "rator": 8271,
      "ica": 8272,
      "▁МООН": 8273,
      "▁corpor": 8274,
      "▁обычно": 8275,
      "untary": 8276,
      "▁Cons": 8277,
      "▁Great": 8278,
      "▁отказа": 8279,
      "apon": 8280,
      "▁takes": 8281,
      "▁reiter": 8282,
      "▁IS": 8283,
      "▁legislative": 8284,
      "▁законодательство": 8285,
      "▁fire": 8286,
      "▁факти": 8287,
      "▁кодек": 8288,
      "▁решении": 8289,
      "чена": 8290,
      "▁Верховного": 8291,
      "irth": 8292,
      "▁детьми": 8293,
      "шед": 8294,
      "▁программе": 8295,
      "▁судь": 8296,
      "▁поощрения": 8297,
      "▁товаров": 8298,
      "▁prohib": 8299,
      "▁позволит": 8300,
      "▁принятых": 8301,
      "графии": 8302,
      "▁sessions": 8303,
      "дума": 8304,
      "▁disse": 8305,
      "www": 8306,
      "▁ху": 8307,
      "▁линии": 8308,
      "▁стало": 8309,
      "▁Афгани": 8310,
      "▁прод": 8311,
      "▁руководство": 8312,
      "МИ": 8313,
      "▁массо": 8314,
      "▁presence": 8315,
      "orthern": 8316,
      "▁форме": 8317,
      "▁полицей": 8318,
      "▁значительно": 8319,
      "▁расовой": 8320,
      "▁происхождения": 8321,
      "▁поро": 8322,
      "orial": 8323,
      "▁общин": 8324,
      "▁полного": 8325,
      "▁perman": 8326,
      "tise": 8327,
      "▁положи": 8328,
      "▁arri": 8329,
      "▁Руко": 8330,
      "▁histor": 8331,
      "▁приняли": 8332,
      "▁commercial": 8333,
      "▁прогно": 8334,
      "▁Many": 8335,
      "▁lives": 8336,
      "iplom": 8337,
      "▁государственной": 8338,
      "▁дополнительных": 8339,
      "лка": 8340,
      "auti": 8341,
      "▁liber": 8342,
      "tish": 8343,
      "jected": 8344,
      "онстри": 8345,
      "▁посвящен": 8346,
      "▁Territ": 8347,
      "▁Араб": 8348,
      "▁ат": 8349,
      "▁vo": 8350,
      "IP": 8351,
      "сных": 8352,
      "▁clearly": 8353,
      "▁государством": 8354,
      "луй": 8355,
      "▁Протоко": 8356,
      "ЭК": 8357,
      "▁подклю": 8358,
      "▁большая": 8359,
      "▁инициативы": 8360,
      "▁каких": 8361,
      "▁Cub": 8362,
      "право": 8363,
      "ift": 8364,
      "▁Дан": 8365,
      "▁учет": 8366,
      "▁пунктом": 8367,
      "ссию": 8368,
      "SR": 8369,
      "▁восстановления": 8370,
      "енным": 8371,
      "▁Leg": 8372,
      "▁настоящего": 8373,
      "▁задол": 8374,
      "тификации": 8375,
      "тивное": 8376,
      "▁разбира": 8377,
      "▁можем": 8378,
      "▁иннова": 8379,
      "▁аб": 8380,
      "▁регистрации": 8381,
      "РА": 8382,
      "порта": 8383,
      "▁вся": 8384,
      "нал": 8385,
      "▁воспо": 8386,
      "▁диалога": 8387,
      "тельную": 8388,
      "ains": 8389,
      "▁оргазм": 8390,
      "▁мандата": 8391,
      "ОД": 8392,
      "alled": 8393,
      "▁достоин": 8394,
      "члены": 8395,
      "▁economies": 8396,
      "▁озабоченность": 8397,
      "▁Фонда": 8398,
      "рация": 8399,
      "▁regime": 8400,
      "▁модели": 8401,
      "▁election": 8402,
      "▁множе": 8403,
      "▁settlement": 8404,
      "Ch": 8405,
      "влены": 8406,
      "ara": 8407,
      "▁Leban": 8408,
      "▁оккупи": 8409,
      "comm": 8410,
      "лять": 8411,
      "▁удоб": 8412,
      "▁stakeholders": 8413,
      "▁мерах": 8414,
      "oly": 8415,
      "▁отметить": 8416,
      "▁компаний": 8417,
      "▁values": 8418,
      "▁торговле": 8419,
      "▁играть": 8420,
      "▁paid": 8421,
      "▁North": 8422,
      "вока": 8423,
      "▁стандартов": 8424,
      "ровал": 8425,
      "▁Austral": 8426,
      "▁вырабо": 8427,
      "▁аналоги": 8428,
      "▁comments": 8429,
      "▁веществ": 8430,
      "▁racial": 8431,
      "▁sched": 8432,
      "ноп": 8433,
      "▁должностей": 8434,
      "PN": 8435,
      "▁дети": 8436,
      "economic": 8437,
      "▁aid": 8438,
      "raw": 8439,
      "▁Port": 8440,
      "▁вспомога": 8441,
      "set": 8442,
      "▁документы": 8443,
      "▁базо": 8444,
      "лишком": 8445,
      "енси": 8446,
      "тья": 8447,
      "▁thought": 8448,
      "▁модель": 8449,
      "tease": 8450,
      "▁completed": 8451,
      "reet": 8452,
      "▁рынке": 8453,
      "▁различи": 8454,
      "cast": 8455,
      "▁смы": 8456,
      "▁km": 8457,
      "ляции": 8458,
      "▁scope": 8459,
      "▁прямо": 8460,
      "▁Свя": 8461,
      "pet": 8462,
      "▁Советом": 8463,
      "▁нерас": 8464,
      "▁политику": 8465,
      "▁Нью": 8466,
      "▁discussions": 8467,
      "▁buy": 8468,
      "щены": 8469,
      "rete": 8470,
      "гами": 8471,
      "▁вынес": 8472,
      "▁устран": 8473,
      "▁международному": 8474,
      "шу": 8475,
      "лок": 8476,
      "▁масштабов": 8477,
      "▁centres": 8478,
      "емая": 8479,
      "националь": 8480,
      "▁recently": 8481,
      "сенсу": 8482,
      "▁продолжает": 8483,
      "▁предложи": 8484,
      "▁movement": 8485,
      "▁массовой": 8486,
      "▁люд": 8487,
      "▁outcome": 8488,
      "▁пожа": 8489,
      "▁обмена": 8490,
      "▁Roman": 8491,
      "▁ничего": 8492,
      "ription": 8493,
      "▁состава": 8494,
      "▁center": 8495,
      "▁Миссии": 8496,
      "my": 8497,
      "ницу": 8498,
      "СПИД": 8499,
      "▁обязанности": 8500,
      "доне": 8501,
      "▁addressing": 8502,
      "▁paragraphs": 8503,
      "▁Алиева": 8504,
      "фу": 8505,
      "▁особое": 8506,
      "днев": 8507,
      "illing": 8508,
      "▁работает": 8509,
      "▁built": 8510,
      "▁рез": 8511,
      "вейца": 8512,
      "испо": 8513,
      "▁crit": 8514,
      "▁европей": 8515,
      "▁первого": 8516,
      "lin": 8517,
      "▁psych": 8518,
      "▁журнали": 8519,
      "▁Jer": 8520,
      "▁invited": 8521,
      "▁violation": 8522,
      "▁remov": 8523,
      "▁следующих": 8524,
      "▁Children": 8525,
      "▁fig": 8526,
      "▁миру": 8527,
      "ips": 8528,
      "▁began": 8529,
      "валось": 8530,
      "▁Мон": 8531,
      "▁предупреждения": 8532,
      "▁allows": 8533,
      "EA": 8534,
      "▁purch": 8535,
      "▁американ": 8536,
      "▁started": 8537,
      "▁beyond": 8538,
      "▁деятельностью": 8539,
      "▁Ну": 8540,
      "▁civilian": 8541,
      "urd": 8542,
      "▁check": 8543,
      "влено": 8544,
      "▁instrument": 8545,
      "▁says": 8546,
      "▁incor": 8547,
      "▁уско": 8548,
      "put": 8549,
      "▁Благо": 8550,
      "▁корруп": 8551,
      "▁ряда": 8552,
      "▁claims": 8553,
      "▁израиль": 8554,
      "вки": 8555,
      "▁приве": 8556,
      "▁Phone": 8557,
      "▁rev": 8558,
      "ходить": 8559,
      "▁непосредственно": 8560,
      "▁vac": 8561,
      "ocracy": 8562,
      "▁Turk": 8563,
      "hood": 8564,
      "▁существующих": 8565,
      "▁Договора": 8566,
      "▁remained": 8567,
      "book": 8568,
      "ION": 8569,
      "▁assets": 8570,
      "▁conver": 8571,
      "▁попу": 8572,
      "▁Afghanistan": 8573,
      "▁изда": 8574,
      "цуз": 8575,
      "▁вопросах": 8576,
      "▁Federal": 8577,
      "▁ЕС": 8578,
      "▁Int": 8579,
      "ishes": 8580,
      "▁Стри": 8581,
      "тельная": 8582,
      "▁Нет": 8583,
      "regional": 8584,
      "▁консенсу": 8585,
      "▁валю": 8586,
      "ель": 8587,
      "▁proceedings": 8588,
      "▁pros": 8589,
      "зем": 8590,
      "▁establishing": 8591,
      "▁ресурсами": 8592,
      "ighb": 8593,
      "▁предусматривает": 8594,
      "▁Striptease": 8595,
      "▁speed": 8596,
      "▁ката": 8597,
      "▁studies": 8598,
      "сай": 8599,
      "лам": 8600,
      "▁нара": 8601,
      "▁contains": 8602,
      "дит": 8603,
      "▁mor": 8604,
      "▁общественности": 8605,
      "ush": 8606,
      "▁выстав": 8607,
      "▁пункту": 8608,
      "▁easy": 8609,
      "▁присоедини": 8610,
      "▁президент": 8611,
      "apter": 8612,
      "▁consequences": 8613,
      "ём": 8614,
      "▁specialized": 8615,
      "▁кад": 8616,
      "▁достижению": 8617,
      "▁Second": 8618,
      "TAD": 8619,
      "▁стоя": 8620,
      "СЕФ": 8621,
      "▁своими": 8622,
      "▁примерно": 8623,
      "дил": 8624,
      "▁пото": 8625,
      "▁проекты": 8626,
      "aria": 8627,
      "парен": 8628,
      "ванные": 8629,
      "▁статьей": 8630,
      "▁общих": 8631,
      "▁субре": 8632,
      "менее": 8633,
      "▁страно": 8634,
      "▁Yug": 8635,
      "▁Korea": 8636,
      "▁выбра": 8637,
      "▁collaboration": 8638,
      "istics": 8639,
      "▁reaff": 8640,
      "▁Polic": 8641,
      "▁ссыла": 8642,
      "▁вероят": 8643,
      "▁оте": 8644,
      "▁структуры": 8645,
      "▁бри": 8646,
      "▁reflect": 8647,
      "▁лицо": 8648,
      "▁Microsoft": 8649,
      "▁mis": 8650,
      "ген": 8651,
      "▁ey": 8652,
      "▁ran": 8653,
      "▁ограничения": 8654,
      "▁прида": 8655,
      "▁попрежнему": 8656,
      "еры": 8657,
      "лено": 8658,
      "▁рабочей": 8659,
      "▁possibility": 8660,
      "▁частью": 8661,
      "▁девочек": 8662,
      "▁average": 8663,
      "▁City": 8664,
      "▁качество": 8665,
      "▁перевоз": 8666,
      "▁substantive": 8667,
      "▁rooms": 8668,
      "▁добиться": 8669,
      "купа": 8670,
      "▁встречи": 8671,
      "▁прео": 8672,
      "▁transl": 8673,
      "сем": 8674,
      "▁уси": 8675,
      "assi": 8676,
      "▁межправитель": 8677,
      "ots": 8678,
      "▁conflicts": 8679,
      "▁истории": 8680,
      "▁destruction": 8681,
      "▁обосно": 8682,
      "▁наказания": 8683,
      "oot": 8684,
      "▁говоря": 8685,
      "▁perf": 8686,
      "▁enough": 8687,
      "aties": 8688,
      "▁limit": 8689,
      "▁Yugoslav": 8690,
      "▁клиентов": 8691,
      "▁изобра": 8692,
      "▁зарегистри": 8693,
      "▁реформы": 8694,
      "▁Sea": 8695,
      "▁предоставить": 8696,
      "нюю": 8697,
      "тон": 8698,
      "▁Egy": 8699,
      "▁пострада": 8700,
      "ющегося": 8701,
      "▁большое": 8702,
      "▁Casino": 8703,
      "▁хозяйства": 8704,
      "▁minutes": 8705,
      "▁agricultural": 8706,
      "▁лицен": 8707,
      "▁Configuration": 8708,
      "▁дипло": 8709,
      "вич": 8710,
      "▁опи": 8711,
      "▁серве": 8712,
      "▁воздействия": 8713,
      "сист": 8714,
      "▁link": 8715,
      "чество": 8716,
      "жить": 8717,
      "ma": 8718,
      "▁published": 8719,
      "▁cam": 8720,
      "▁любых": 8721,
      "▁кро": 8722,
      "▁Нор": 8723,
      "▁заседаний": 8724,
      "▁Ита": 8725,
      "ali": 8726,
      "▁thing": 8727,
      "льном": 8728,
      "▁поло": 8729,
      "▁search": 8730,
      "▁уника": 8731,
      "▁base": 8732,
      "ждены": 8733,
      "ateur": 8734,
      "▁Parliament": 8735,
      "▁obligation": 8736,
      "▁Авто": 8737,
      "▁араб": 8738,
      "▁Стриптиз": 8739,
      "▁однов": 8740,
      "▁ir": 8741,
      "▁subsequ": 8742,
      "▁постро": 8743,
      "▁moment": 8744,
      "▁added": 8745,
      "▁box": 8746,
      "▁требуется": 8747,
      "▁Bur": 8748,
      "▁гуманитарной": 8749,
      "Йор": 8750,
      "▁details": 8751,
      "▁mother": 8752,
      "провожда": 8753,
      "▁likely": 8754,
      "куль": 8755,
      "жная": 8756,
      "▁sanc": 8757,
      "▁responsibilities": 8758,
      "acific": 8759,
      "▁каким": 8760,
      "▁внутреннего": 8761,
      "▁сказать": 8762,
      "▁Ле": 8763,
      "▁соблюда": 8764,
      "EL": 8765,
      "▁integr": 8766,
      "▁Сан": 8767,
      "▁ограничи": 8768,
      "▁располага": 8769,
      "ert": 8770,
      "▁intended": 8771,
      "▁расширение": 8772,
      "▁exec": 8773,
      "луб": 8774,
      "▁Необходи": 8775,
      "▁ow": 8776,
      "▁феде": 8777,
      "▁сельских": 8778,
      "▁covered": 8779,
      "▁brief": 8780,
      "▁воздуш": 8781,
      "▁вось": 8782,
      "▁важней": 8783,
      "▁привлека": 8784,
      "▁jurisdiction": 8785,
      "СКО": 8786,
      "▁night": 8787,
      "▁изложен": 8788,
      "ECE": 8789,
      "▁IN": 8790,
      "▁highest": 8791,
      "▁внутренних": 8792,
      "▁оружием": 8793,
      "▁payment": 8794,
      "▁искорен": 8795,
      "ствующих": 8796,
      "▁Furthermore": 8797,
      "▁нераспростран": 8798,
      "III": 8799,
      "▁cou": 8800,
      "▁региональном": 8801,
      "ОС": 8802,
      "autiful": 8803,
      "▁универса": 8804,
      "▁четырех": 8805,
      "▁supporting": 8806,
      "кистан": 8807,
      "▁тяже": 8808,
      "▁важным": 8809,
      "▁Power": 8810,
      "pond": 8811,
      "вай": 8812,
      "xim": 8813,
      "▁транспарен": 8814,
      "▁движения": 8815,
      "▁вашего": 8816,
      "▁intergovernmental": 8817,
      "▁ал": 8818,
      "мая": 8819,
      "▁меньшинств": 8820,
      "волю": 8821,
      "▁creating": 8822,
      "▁слишком": 8823,
      "▁Any": 8824,
      "▁юрис": 8825,
      "ана": 8826,
      "▁Western": 8827,
      "▁основном": 8828,
      "▁основной": 8829,
      "▁фонда": 8830,
      "▁риска": 8831,
      "КТА": 8832,
      "▁урегулирования": 8833,
      "▁показы": 8834,
      "ticip": 8835,
      "▁Исполнитель": 8836,
      "▁никаких": 8837,
      "▁Бан": 8838,
      "mbass": 8839,
      "▁банков": 8840,
      "sts": 8841,
      "▁Ассамблеей": 8842,
      "▁поезд": 8843,
      "▁century": 8844,
      "▁revised": 8845,
      "ead": 8846,
      "▁почему": 8847,
      "стом": 8848,
      "▁использовании": 8849,
      "▁недавно": 8850,
      "▁пользу": 8851,
      "▁Day": 8852,
      "▁video": 8853,
      "▁союз": 8854,
      "сят": 8855,
      "▁lot": 8856,
      "ристи": 8857,
      "▁journal": 8858,
      "▁знаний": 8859,
      "▁реви": 8860,
      "▁Form": 8861,
      "vereign": 8862,
      "▁investigation": 8863,
      "▁courts": 8864,
      "лла": 8865,
      "тными": 8866,
      "▁nothing": 8867,
      "▁caused": 8868,
      "▁ассоциа": 8869,
      "▁кноп": 8870,
      "▁Cro": 8871,
      "▁NGO": 8872,
      "lementation": 8873,
      "ногие": 8874,
      "▁ready": 8875,
      "▁момента": 8876,
      "▁типа": 8877,
      "▁бизнес": 8878,
      "▁Sal": 8879,
      "▁balance": 8880,
      "▁Force": 8881,
      "▁doing": 8882,
      "▁continuing": 8883,
      "ANS": 8884,
      "▁Inv": 8885,
      "▁специальных": 8886,
      "▁сторонами": 8887,
      "▁Are": 8888,
      "▁went": 8889,
      "ley": 8890,
      "▁Аль": 8891,
      "▁деву": 8892,
      "▁recon": 8893,
      "▁используется": 8894,
      "пере": 8895,
      "▁click": 8896,
      "пон": 8897,
      "▁продуктов": 8898,
      "▁Political": 8899,
      "СР": 8900,
      "▁datab": 8901,
      "▁рус": 8902,
      "▁guidance": 8903,
      "▁вопросами": 8904,
      "▁информационно": 8905,
      "▁декларации": 8906,
      "▁Лат": 8907,
      "▁своев": 8908,
      "▁приходи": 8909,
      "▁начале": 8910,
      "▁соглашений": 8911,
      "▁определить": 8912,
      "▁базы": 8913,
      "▁показатели": 8914,
      "руются": 8915,
      "▁мину": 8916,
      "▁please": 8917,
      "▁Израиль": 8918,
      "▁Then": 8919,
      "▁обеспечении": 8920,
      "▁displaced": 8921,
      "▁teac": 8922,
      "▁взносов": 8923,
      "▁recovery": 8924,
      "▁places": 8925,
      "гер": 8926,
      "▁невозмо": 8927,
      "▁наименее": 8928,
      "ъяс": 8929,
      "▁emergency": 8930,
      "▁client": 8931,
      "▁соответствующими": 8932,
      "oon": 8933,
      "▁competition": 8934,
      "▁consolid": 8935,
      "▁initial": 8936,
      "▁popular": 8937,
      "▁renew": 8938,
      "ece": 8939,
      "▁любого": 8940,
      "▁работников": 8941,
      "▁nor": 8942,
      "▁Liber": 8943,
      "▁резолюций": 8944,
      "▁бога": 8945,
      "▁sovereign": 8946,
      "▁взгля": 8947,
      "▁Штаты": 8948,
      "▁written": 8949,
      "▁assi": 8950,
      "▁англий": 8951,
      "▁разрабаты": 8952,
      "нил": 8953,
      "▁damage": 8954,
      "юсь": 8955,
      "▁immediately": 8956,
      "▁промышленности": 8957,
      "▁adopt": 8958,
      "▁Вла": 8959,
      "лару": 8960,
      "▁профессиональной": 8961,
      "▁credit": 8962,
      "▁убий": 8963,
      "▁Turkey": 8964,
      "▁inj": 8965,
      "▁двусторон": 8966,
      "нице": 8967,
      "▁mentioned": 8968,
      "КТАД": 8969,
      "▁accep": 8970,
      "▁tele": 8971,
      "▁поддержка": 8972,
      "▁тон": 8973,
      "▁питания": 8974,
      "roliferation": 8975,
      "▁obser": 8976,
      "▁consensus": 8977,
      "▁Европе": 8978,
      "ras": 8979,
      "▁Middle": 8980,
      "cont": 8981,
      "▁told": 8982,
      "оте": 8983,
      "▁frequ": 8984,
      "▁оценку": 8985,
      "ynam": 8986,
      "▁got": 8987,
      "▁semin": 8988,
      "▁Поскольку": 8989,
      "▁фран": 8990,
      "▁choose": 8991,
      "▁которому": 8992,
      "▁непре": 8993,
      "lying": 8994,
      "▁enterprises": 8995,
      "▁files": 8996,
      "▁dim": 8997,
      "▁энерго": 8998,
      "▁разных": 8999,
      "тивы": 9000,
      "▁town": 9001,
      "▁pressure": 9002,
      "ланд": 9003,
      "▁честь": 9004,
      "гази": 9005,
      "▁приняла": 9006,
      "▁expect": 9007,
      "▁неделю": 9008,
      "▁кварти": 9009,
      "▁печа": 9010,
      "сказы": 9011,
      "▁препода": 9012,
      "▁неофициаль": 9013,
      "▁идет": 9014,
      "▁мало": 9015,
      "зиат": 9016,
      "▁appeal": 9017,
      "sky": 9018,
      "▁depend": 9019,
      "тную": 9020,
      "CT": 9021,
      "▁юрисдик": 9022,
      "▁island": 9023,
      "road": 9024,
      "▁формы": 9025,
      "▁тес": 9026,
      "arency": 9027,
      "▁районов": 9028,
      "rov": 9029,
      "▁Sci": 9030,
      "▁Goals": 9031,
      "▁воздействие": 9032,
      "культа": 9033,
      "▁Комитету": 9034,
      "▁привести": 9035,
      "▁задача": 9036,
      "▁Mus": 9037,
      "▁удовлетворением": 9038,
      "емое": 9039,
      "ПР": 9040,
      "▁card": 9041,
      "▁Brazil": 9042,
      "ument": 9043,
      "▁содержит": 9044,
      "▁separate": 9045,
      "▁applicable": 9046,
      "▁Che": 9047,
      "kh": 9048,
      "ёт": 9049,
      "▁полага": 9050,
      "▁Lord": 9051,
      "ustainable": 9052,
      "▁Совету": 9053,
      "▁penal": 9054,
      "гут": 9055,
      "▁Stand": 9056,
      "▁border": 9057,
      "▁режима": 9058,
      "▁Som": 9059,
      "▁Vol": 9060,
      "ющийся": 9061,
      "▁созна": 9062,
      "▁правозащи": 9063,
      "▁Израиля": 9064,
      "▁подчеркивает": 9065,
      "▁минима": 9066,
      "▁Управления": 9067,
      "▁illegal": 9068,
      "▁idea": 9069,
      "▁Цель": 9070,
      "▁парти": 9071,
      "▁лицам": 9072,
      "▁учебных": 9073,
      "▁нее": 9074,
      "ilization": 9075,
      "nergy": 9076,
      "▁independence": 9077,
      "▁rapid": 9078,
      "▁представлены": 9079,
      "▁entry": 9080,
      "MS": 9081,
      "back": 9082,
      "▁сотрудничеству": 9083,
      "▁cyc": 9084,
      "lock": 9085,
      "▁hop": 9086,
      "arents": 9087,
      "▁твер": 9088,
      "▁regul": 9089,
      "▁bilateral": 9090,
      "▁дом": 9091,
      "▁пользователей": 9092,
      "avi": 9093,
      "▁дизай": 9094,
      "▁материалы": 9095,
      "▁highly": 9096,
      "▁decre": 9097,
      "▁особенности": 9098,
      "▁Сегодня": 9099,
      "▁выполня": 9100,
      "burg": 9101,
      "▁Clo": 9102,
      "сор": 9103,
      "ounced": 9104,
      "▁море": 9105,
      "▁relation": 9106,
      "tian": 9107,
      "▁договора": 9108,
      "▁стимули": 9109,
      "▁tro": 9110,
      "▁components": 9111,
      "▁Moreover": 9112,
      "▁стабильности": 9113,
      "лакти": 9114,
      "▁говорится": 9115,
      "▁Bos": 9116,
      "▁разделе": 9117,
      "▁Sim": 9118,
      "dem": 9119,
      "▁democratic": 9120,
      "▁неправительственных": 9121,
      "влять": 9122,
      "▁Year": 9123,
      "▁поко": 9124,
      "▁служб": 9125,
      "ares": 9126,
      "▁практику": 9127,
      "▁научно": 9128,
      "▁среде": 9129,
      "▁разру": 9130,
      "▁поддерживать": 9131,
      "▁цер": 9132,
      "▁испыта": 9133,
      "▁Mex": 9134,
      "▁пост": 9135,
      "▁страхо": 9136,
      "средото": 9137,
      "▁большей": 9138,
      "▁спу": 9139,
      "▁obst": 9140,
      "▁институциональ": 9141,
      "▁активно": 9142,
      "▁имеющих": 9143,
      "▁предотвращения": 9144,
      "▁плен": 9145,
      "▁Австра": 9146,
      "▁diplom": 9147,
      "▁shown": 9148,
      "▁соответствующим": 9149,
      "▁sale": 9150,
      "▁нарушений": 9151,
      "▁офи": 9152,
      "▁planned": 9153,
      "▁Серби": 9154,
      "▁terrorist": 9155,
      "участника": 9156,
      "head": 9157,
      "▁группе": 9158,
      "ull": 9159,
      "▁услугам": 9160,
      "нией": 9161,
      "▁electronic": 9162,
      "▁спор": 9163,
      "ллек": 9164,
      "roid": 9165,
      "зом": 9166,
      "▁конститу": 9167,
      "▁действие": 9168,
      "▁twenty": 9169,
      "екси": 9170,
      "▁Комитетом": 9171,
      "▁ded": 9172,
      "▁Ku": 9173,
      "▁music": 9174,
      "arib": 9175,
      "▁рынка": 9176,
      "▁министров": 9177,
      "мали": 9178,
      "▁prepare": 9179,
      "▁факторов": 9180,
      "oration": 9181,
      "▁enabl": 9182,
      "yle": 9183,
      "ria": 9184,
      "ратор": 9185,
      "▁bat": 9186,
      "itions": 9187,
      "omin": 9188,
      "▁hear": 9189,
      "▁верну": 9190,
      "▁stressed": 9191,
      "▁независимо": 9192,
      "rem": 9193,
      "▁расследования": 9194,
      "▁центре": 9195,
      "▁registration": 9196,
      "▁Велико": 9197,
      "новения": 9198,
      "▁expend": 9199,
      "▁комиссара": 9200,
      "▁последстви": 9201,
      "▁apartment": 9202,
      "▁Education": 9203,
      "▁прилага": 9204,
      "▁Созда": 9205,
      "▁сувер": 9206,
      "▁improvement": 9207,
      "▁психо": 9208,
      "▁Belarus": 9209,
      "▁этапе": 9210,
      "щена": 9211,
      "▁appreciation": 9212,
      "▁эффективно": 9213,
      "▁UNICEF": 9214,
      "oring": 9215,
      "туре": 9216,
      "▁полови": 9217,
      "▁бизне": 9218,
      "лоба": 9219,
      "▁микро": 9220,
      "▁наращи": 9221,
      "▁doll": 9222,
      "▁включить": 9223,
      "rence": 9224,
      "▁placed": 9225,
      "▁приняты": 9226,
      "▁approaches": 9227,
      "▁science": 9228,
      "▁fel": 9229,
      "▁neighb": 9230,
      "▁determine": 9231,
      "▁permanent": 9232,
      "▁phone": 9233,
      "▁собственности": 9234,
[...]
