{
  "version": "1.0",
  "truncation": null,
  "padding": null,
  "added_tokens": [
    {
      "id": 0,
      "content": "<pad>",
      "single_word": false,
      "lstrip": false,
      "rstrip": false,
      "normalized": false,
      "special": true
    },
    {
      "id": 1,
      "content": "<s>",
      "single_word": false,
      "lstrip": false,
      "rstrip": false,
      "normalized": false,
      "special": true
    },
    {
      "id": 2,
      "content": "</s>",
      "single_word": false,
      "lstrip": false,
      "rstrip": false,
      "normalized": false,
      "special": true
    },
    {
      "id": 3,
      "content": "<unk>",
      "single_word": false,
      "lstrip": false,
      "rstrip": false,
      "normalized": false,
      "special": true
    }
  ],
  "normalizer": {
    "type": "NFKC"
  },
  "pre_tokenizer": {
    "type": "Sequence",
    "pretokenizers": [
      {
        "type": "Metaspace",
        "replacement": "▁",
        "prepend_scheme": "always",
        "split": true
      },
      {
        "type": "Punctuation",
        "behavior": "Isolated"
      },
      {
        "type": "Digits",
        "individual_digits": true
      }
    ]
  },
  "post_processor": {
    "type": "TemplateProcessing",
    "single": [
      {
        "SpecialToken": {
          "id": "<s>",
          "type_id": 0
        }
      },
      {
        "Sequence": {
          "id": "A",
          "type_id": 0
        }
      },
      {
        "SpecialToken": {
          "id": "</s>",
          "type_id": 0
        }
      }
    ],
    "pair": [
      {
        "Sequence": {
          "id": "A",
          "type_id": 0
        }
      },
      {
        "Sequence": {
          "id": "B",
          "type_id": 1
        }
      }
    ],
    "special_tokens": {
      "</s>": {
        "id": "</s>",
        "ids": [
          2
        ],
        "tokens": [
          "</s>"
        ]
      },
      "<s>": {
        "id": "<s>",
        "ids": [
          1
        ],
        "tokens": [
          "<s>"
        ]
      }
    }
  },
  "decoder": {
    "type": "Metaspace",
    "replacement": "▁",
    "prepend_scheme": "always",
    "split": true
  },
  "model": {
    "type": "Unigram",
    "unk_id": 3,
    "vocab": [
      [
        "<pad>",
        0.0
      ],
      [
        "<s>",
        0.0
      ],
      [
        "</s>",
        0.0
      ],
      [
        "<unk>",
        0.0
      ],
      [
        "▁",
        -2.34621665460576
      ],
      [
        ",",
        -3.0385496391798235
      ],
      [
        "и",
        -3.230037570407223
      ],
      [
        ".",
        -3.336407776072143
      ],
      [
        "е",
        -3.802726248888453
      ],
      [
        "▁в",
        -4.030453960723536
      ],
      [
        "й",
        -4.179202405380014
      ],
      [
        "а",
        -4.3238240915373005
      ],
      [
        "х",
        -4.379580691562721
      ],
      [
        "м",
        -4.6581492117553065
      ],
      [
        "0",
        -4.700409726838659
      ],
      [
        "ы",
        -4.770909761060162
      ],
      [
        "у",
        -4.800028868906789
      ],
      [
        "-",
        -4.807777285219451
      ],
      [
        "▁на",
        -4.8135160521879445
      ],
      [
        "я",
        -4.842143377778909
      ],
      [
        "1",
        -4.955919744328739
      ],
      [
        "▁с",
        -4.978039701155486
      ],
      [
        "2",
        -5.067549557241755
      ],
      [
        "о",
        -5.071983597440607
      ],
      [
        "▁не",
        -5.087144650415421
      ],
      [
        "▁по",
        -5.267086371821076
      ],
      [
        "▁что",
        -5.312381639282325
      ],
      [
        "го",
        -5.322487009864416
      ],
      [
        "ся",
        -5.390387558680265
      ],
      [
        "ю",
        -5.402399395353926
      ],
      [
        ")",
        -5.48569764509338
      ],
      [
        ":",
        -5.492980001441062
      ],
      [
        "ов",
        -5.570551154837533
      ],
      [
        "(",
        -5.5748295014296705
      ],
      [
        "▁для",
        -5.724360760752427
      ],
      [
        "ом",
        -5.76091912934425
      ],
      [
        "\"",
        -5.78101028168463
      ],
      [
        "т",
        -5.813835309123622
      ],
      [
        "3",
        -5.843536568627924
      ],
      [
        "?",
        -5.8689414841104846
      ],
      [
        "5",
        -5.871057601292813
      ],
      [
        "9",
        -5.872208588249569
      ],
      [
        "▁В",
        -5.883451213676256
      ],
      [
        "▁к",
        -5.9854635592155105
      ],
      [
        "▁это",
        -6.018995573738923
      ],
      [
        "4",
        -6.020974777477729
      ],
      [
        "▁как",
        -6.064210994621844
      ],
      [
        "▁за",
        -6.109015230590851
      ],
      [
        "▁из",
        -6.11150665198463
      ],
      [
        "ми",
        -6.123243220504252
      ],
      [
        "▁от",
        -6.12701002920871
      ],
      [
        "/",
        -6.163398955117762
      ],
      [
        "ь",
        -6.180483309631953
      ],
      [
        "6",
        -6.181848753567525
      ],
      [
        "в",
        -6.185444917293687
      ],
      [
        "с",
        -6.23772838058909
      ],
      [
        "▁или",
        -6.256500776680181
      ],
      [
        "8",
        -6.2568276881892775
      ],
      [
        "ая",
        -6.271139092557846
      ],
      [
        "7",
        -6.274709292920845
      ],
      [
        "к",
        -6.2876273550166495
      ],
      [
        "»",
        -6.324265636487491
      ],
      [
        "«",
        -6.326919668358741
      ],
      [
        "ой",
        -6.384646274202904
      ],
      [
        "н",
        -6.435793177533814
      ],
      [
        ";",
        -6.4515428516401325
      ],
      [
        "▁Я",
        -6.509471427413084
      ],
      [
        "—",
        -6.517864788536764
      ],
      [
        "ую",
        -6.590197375350828
      ],
      [
        "▁его",
        -6.604353748117598
      ],
      [
        "!",
        -6.624031801845909
      ],
      [
        "▁вы",
        -6.629653677506916
      ],
      [
        "ей",
        -6.659749769380596
      ],
      [
        "▁также",
        -6.663607186159222
      ],
      [
        "▁при",
        -6.70438520814762
      ],
      [
        "ть",
        -6.73215719913018
      ],
      [
        "▁чтобы",
        -6.735457228143222
      ],
      [
        "▁года",
        -6.765224555201559
      ],
      [
        "▁он",
        -6.772630406991933
      ],
      [
        "▁все",
        -6.783240962325419
      ],
      [
        "г",
        -6.797828976204173
      ],
      [
        "▁до",
        -6.8015793445504045
      ],
      [
        "▁так",
        -6.808432588681168
      ],
      [
        "▁их",
        -6.81961678108188
      ],
      [
        "▁С",
        -6.820503296315568
      ],
      [
        "▁мы",
        -6.867893856488346
      ],
      [
        "▁то",
        -6.895782628260626
      ],
      [
        "▁но",
        -6.943180158172247
      ],
      [
        "▁которые",
        -6.947231011654184
      ],
      [
        "ами",
        -6.950727761281563
      ],
      [
        "л",
        -6.970129881542345
      ],
      [
        "▁И",
        -6.97427729902536
      ],
      [
        "▁может",
        -6.976206383232952
      ],
      [
        "то",
        -6.98617956929127
      ],
      [
        "▁Это",
        -7.046456939468833
      ],
      [
        "▁бы",
        -7.059256945813441
      ],
      [
        "▁будет",
        -7.079137232061607
      ],
      [
        "▁О",
        -7.098394492528252
      ],
      [
        "ться",
        -7.111960745118569
      ],
      [
        "му",
        -7.126695160241617
      ],
      [
        "▁По",
        -7.138990574643607
      ],
      [
        "▁они",
        -7.144933482227389
      ],
      [
        "▁ты",
        -7.155240542207109
      ],
      [
        "▁того",
        -7.155500891495702
      ],
      [
        "▁же",
        -7.164223367225027
      ],
      [
        "▁время",
        -7.177944645010442
      ],
      [
        "▁был",
        -7.180485122754405
      ],
      [
        "▁было",
        -7.180933174430153
      ],
      [
        "▁быть",
        -7.189569006028684
      ],
      [
        "▁том",
        -7.225160737969846
      ],
      [
        "▁только",
        -7.227138022157888
      ],
      [
        "▁более",
        -7.231803841668672
      ],
      [
        "▁На",
        -7.237105294012171
      ],
      [
        "д",
        -7.240146389635216
      ],
      [
        "▁А",
        -7.258106369994026
      ],
      [
        "▁если",
        -7.2583417567913
      ],
      [
        "ных",
        -7.30348407818979
      ],
      [
        "на",
        -7.310600143389115
      ],
      [
        "▁об",
        -7.326567530251236
      ],
      [
        "▁когда",
        -7.342432922788065
      ],
      [
        "▁со",
        -7.366869849365308
      ],
      [
        "▁под",
        -7.387727962416571
      ],
      [
        "ной",
        -7.389397618865724
      ],
      [
        "ная",
        -7.390558942422546
      ],
      [
        "▁меня",
        -7.4169519438467955
      ],
      [
        "ного",
        -7.424062931605649
      ],
      [
        "▁Он",
        -7.428413974219167
      ],
      [
        "но",
        -7.448817317480758
      ],
      [
        "s",
        -7.452119900428327
      ],
      [
        "лись",
        -7.457339573814101
      ],
      [
        "ли",
        -7.457706710795515
      ],
      [
        "▁Мы",
        -7.473223058124406
      ],
      [
        "▁Не",
        -7.475686750617831
      ],
      [
        "▁К",
        -7.478361972274184
      ],
      [
        "▁У",
        -7.48695169945589
      ],
      [
        "%",
        -7.498016126225311
      ],
      [
        "▁были",
        -7.498463298355627
      ],
      [
        "▁этом",
        -7.500253867743313
      ],
      [
        "▁во",
        -7.504459908240223
      ],
      [
        "▁является",
        -7.504734512070485
      ],
      [
        "▁этого",
        -7.506320547737422
      ],
      [
        "▁году",
        -7.532661684971838
      ],
      [
        "▁Если",
        -7.543082314899857
      ],
      [
        "▁Но",
        -7.546606607178987
      ],
      [
        "▁Вы",
        -7.565766696085587
      ],
      [
        "▁который",
        -7.568773412887573
      ],
      [
        "▁чем",
        -7.578953264661626
      ],
      [
        "ные",
        -7.59459037296169
      ],
      [
        "▁мне",
        -7.605880060256641
      ],
      [
        "▁тем",
        -7.607288121064379
      ],
      [
        "▁раз",
        -7.612000661040547
      ],
      [
        "▁есть",
        -7.6158912311854134
      ],
      [
        "▁она",
        -7.624562159086832
      ],
      [
        "*",
        -7.6454962095226335
      ],
      [
        "▁ни",
        -7.648251982123634
      ],
      [
        "▁можно",
        -7.660223128842878
      ],
      [
        "▁Ты",
        -7.666029885269463
      ],
      [
        "▁могут",
        -7.6667335875428435
      ],
      [
        "▁всех",
        -7.667819471292573
      ],
      [
        "з",
        -7.6682842539568625
      ],
      [
        "▁Да",
        -7.687989804328586
      ],
      [
        "ка",
        -7.6946764952727325
      ],
      [
        "ого",
        -7.702746419856187
      ],
      [
        "▁была",
        -7.706953548386485
      ],
      [
        "▁лет",
        -7.72830299541193
      ],
      [
        "▁уже",
        -7.730168697630475
      ],
      [
        "–",
        -7.731976981978866
      ],
      [
        "▁после",
        -7.738964804556677
      ],
      [
        "▁должны",
        -7.755283773905774
      ],
      [
        "▁между",
        -7.755675262872076
      ],
      [
        "ную",
        -7.761943533762121
      ],
      [
        "▁еще",
        -7.763730454343031
      ],
      [
        "▁Как",
        -7.765570895459778
      ],
      [
        "▁очень",
        -7.772272742227511
      ],
      [
        "▁области",
        -7.800996567860539
      ],
      [
        "за",
        -7.802509352917905
      ],
      [
        "▁про",
        -7.836833503692397
      ],
      [
        "▁Что",
        -7.849487142051705
      ],
      [
        "где",
        -7.869884383776199
      ],
      [
        "р",
        -7.874468161280246
      ],
      [
        "ется",
        -7.878945714348411
      ],
      [
        "ный",
        -7.881500737895648
      ],
      [
        "▁просто",
        -7.894266617061824
      ],
      [
        "лась",
        -7.895558355580256
      ],
      [
        "▁без",
        -7.899440352824998
      ],
      [
        "▁стран",
        -7.908726093756215
      ],
      [
        "▁ли",
        -7.912561001340823
      ],
      [
        "▁нас",
        -7.920838402958047
      ],
      [
        "▁вам",
        -7.925522484131459
      ],
      [
        "▁других",
        -7.929825373576101
      ],
      [
        "ч",
        -7.943708778341273
      ],
      [
        "▁эти",
        -7.947411291187754
      ],
      [
        "▁больше",
        -7.949828176509923
      ],
      [
        "п",
        -7.953946526556779
      ],
      [
        "▁сказал",
        -7.957826557843843
      ],
      [
        "▁Так",
        -7.9615874121378525
      ],
      [
        "▁будут",
        -7.966127829839007
      ],
      [
        "▁кто",
        -7.966152972980511
      ],
      [
        "▁человека",
        -7.9713115085064175
      ],
      [
        "▁развития",
        -7.979347573819513
      ],
      [
        "ются",
        -7.985275727029059
      ],
      [
        "▁себя",
        -7.986919170056067
      ],
      [
        "▁нет",
        -7.989429607444698
      ],
      [
        "лось",
        -7.994794898158146
      ],
      [
        "▁которы",
        -7.996482996546579
      ],
      [
        "▁вас",
        -8.000345812327842
      ],
      [
        "▁случае",
        -8.001030006638517
      ],
      [
        "ла",
        -8.008513654047682
      ],
      [
        "▁всего",
        -8.021556424277602
      ],
      [
        "▁тебя",
        -8.02254059495586
      ],
      [
        "ж",
        -8.031440612112885
      ],
      [
        "▁которая",
        -8.037622126860358
      ],
      [
        "▁этот",
        -8.037763753891062
      ],
      [
        "'",
        -8.04544417690782
      ],
      [
        "▁даже",
        -8.052206339955713
      ],
      [
        "▁работы",
        -8.057108946504917
      ],
      [
        "▁проект",
        -8.062310945642025
      ],
      [
        "▁них",
        -8.068966154326183
      ],
      [
        "▁Наций",
        -8.07033518453355
      ],
      [
        "те",
        -8.072178487792968
      ],
      [
        "▁США",
        -8.072249117167296
      ],
      [
        "▁При",
        -8.082378181355466
      ],
      [
        "пример",
        -8.08788757245278
      ],
      [
        "▁Организации",
        -8.0890230737948
      ],
      [
        "▁Объединенных",
        -8.09017970765895
      ],
      [
        "▁данных",
        -8.116027281152821
      ],
      [
        "Для",
        -8.122216187465499
      ],
      [
        "▁стать",
        -8.122912363238083
      ],
      [
        "a",
        -8.125625313322093
      ],
      [
        "сь",
        -8.12594226906193
      ],
      [
        "▁прав",
        -8.130971347374834
      ],
      [
        "сё",
        -8.131037893784297
      ],
      [
        "здес",
        -8.131514020229577
      ],
      [
        "▁системы",
        -8.140533093884033
      ],
      [
        "▁им",
        -8.141142902297315
      ],
      [
        "он",
        -8.142926239813006
      ],
      [
        "не",
        -8.146872708606875
      ],
      [
        "▁через",
        -8.14707441084263
      ],
      [
        "б",
        -8.154520591536677
      ],
      [
        "▁свои",
        -8.1548218478557
      ],
      [
        "ни",
        -8.157722434190891
      ],
      [
        "▁деятельности",
        -8.169444461289139
      ],
      [
        "либо",
        -8.171916511436443
      ],
      [
        "▁связи",
        -8.180979027749341
      ],
      [
        "▁людей",
        -8.182498352488338
      ],
      [
        "▁образом",
        -8.184898102238519
      ],
      [
        "▁своей",
        -8.186529935101204
      ],
      [
        "▁М",
        -8.18897555325912
      ],
      [
        "▁пере",
        -8.189984577637539
      ],
      [
        "▁безопасности",
        -8.203077483250349
      ],
      [
        "▁страны",
        -8.205407646779932
      ],
      [
        "лся",
        -8.209400605315118
      ],
      [
        "▁защит",
        -8.212441302958835
      ],
      [
        "▁один",
        -8.21742629214027
      ],
      [
        "сти",
        -8.220278172601978
      ],
      [
        "▁человек",
        -8.230889951634264
      ],
      [
        "ок",
        -8.237834062030041
      ],
      [
        "▁имеет",
        -8.249211364015228
      ],
      [
        "▁России",
        -8.251181314754561
      ],
      [
        "▁За",
        -8.252383870078484
      ],
      [
        "тся",
        -8.25467843061105
      ],
      [
        "жизни",
        -8.256410266696163
      ],
      [
        "этих",
        -8.256721501319243
      ],
      [
        "свою",
        -8.263303075388976
      ],
      [
        "ему",
        -8.271782062149024
      ],
      [
        "▁работ",
        -8.283937886970147
      ],
      [
        "▁много",
        -8.289442873519459
      ],
      [
        "же",
        -8.293285576157857
      ],
      [
        "▁наши",
        -8.294869684184324
      ],
      [
        "▁должен",
        -8.3019260774432
      ],
      [
        "▁компании",
        -8.303247837672528
      ],
      [
        "С",
        -8.305387785037738
      ],
      [
        "▁Е",
        -8.313018959654997
      ],
      [
        "▁Все",
        -8.321709518595139
      ],
      [
        "▁год",
        -8.323385938407664
      ],
      [
        "▁отношении",
        -8.326748674396496
      ],
      [
        "▁рамка",
        -8.32741273937834
      ],
      [
        "▁необходимо",
        -8.33057732627271
      ],
      [
        "▁соответствии",
        -8.33142419256311
      ],
      [
        "▁права",
        -8.332170738816465
      ],
      [
        "▁Г",
        -8.334917808079009
      ],
      [
        "▁времени",
        -8.33617696375701
      ],
      [
        "тебе",
        -8.338486147664632
      ],
      [
        "e",
        -8.347362947679196
      ],
      [
        "▁тех",
        -8.352962777896431
      ],
      [
        "ное",
        -8.358880003175265
      ],
      [
        "▁нужно",
        -8.364641404367347
      ],
      [
        "▁информации",
        -8.366085153076641
      ],
      [
        "▁Они",
        -8.368328776421452
      ],
      [
        "по",
        -8.370527356668621
      ],
      [
        "▁против",
        -8.374116282190597
      ],
      [
        "ным",
        -8.374646677421538
      ],
      [
        "▁качестве",
        -8.376431206135102
      ],
      [
        "]",
        -8.39242234660861
      ],
      [
        "▁женщин",
        -8.398469744601773
      ],
      [
        "▁несколько",
        -8.399461140230292
      ],
      [
        "▁день",
        -8.399991415190614
      ],
      [
        "[",
        -8.402407491283828
      ],
      [
        "C",
        -8.403460968545975
      ],
      [
        "▁Нет",
        -8.404224448056878
      ],
      [
        "▁Она",
        -8.415491816631818
      ],
      [
        "▁другие",
        -8.41606301609569
      ],
      [
        "▁всем",
        -8.416438185944916
      ],
      [
        "▁включая",
        -8.421026891966191
      ],
      [
        "▁которой",
        -8.42292397609954
      ],
      [
        "▁процесс",
        -8.423513571876056
      ],
      [
        "В",
        -8.433026413165221
      ],
      [
        "ешь",
        -8.447069312029146
      ],
      [
        "▁стороны",
        -8.448401328783627
      ],
      [
        "▁возможность",
        -8.451268129147243
      ],
      [
        "▁мира",
        -8.458759602742601
      ],
      [
        "▁управления",
        -8.460390283041097
      ],
      [
        "▁этим",
        -8.466384860805405
      ],
      [
        "▁использовать",
        -8.467236716337737
      ],
      [
        "▁ним",
        -8.468045464094821
      ],
      [
        "▁вопросам",
        -8.470811587474671
      ],
      [
        "тесь",
        -8.470849565343702
      ],
      [
        "таких",
        -8.471900792016173
      ],
      [
        "▁мл",
        -8.472932547883287
      ],
      [
        "▁программы",
        -8.473811763032554
      ],
      [
        "▁период",
        -8.476060706539272
      ],
      [
        "своих",
        -8.484402181166015
      ],
      [
        "▁лиц",
        -8.486068152116234
      ],
      [
        "▁перед",
        -8.492346808729048
      ],
      [
        "днако",
        -8.494070851152731
      ],
      [
        "▁цель",
        -8.50140969845892
      ],
      [
        "▁течение",
        -8.501837178991606
      ],
      [
        "▁часть",
        -8.502286551658365
      ],
      [
        "▁являются",
        -8.503462688788415
      ],
      [
        "▁потому",
        -8.506649874325378
      ],
      [
        "лишь",
        -8.508845001417173
      ],
      [
        "А",
        -8.509292548544936
      ],
      [
        "▁сейчас",
        -8.512876508745485
      ],
      [
        "+",
        -8.514414305530504
      ],
      [
        "▁организации",
        -8.51811242092014
      ],
      [
        "этому",
        -8.519469168588456
      ],
      [
        "когда",
        -8.52226595955267
      ],
      [
        "▁A",
        -8.528201740788527
      ],
      [
        "Когд",
        -8.53021795119033
      ],
      [
        "▁нам",
        -8.530299053031897
      ],
      [
        "▁которое",
        -8.53287313560419
      ],
      [
        "d",
        -8.535613812715981
      ],
      [
        "▁над",
        -8.543038299478548
      ],
      [
        "помощи",
        -8.54440065555509
      ],
      [
        "▁вопрос",
        -8.546553684157544
      ],
      [
        "▁друго",
        -8.546758188102578
      ],
      [
        "▁обеспечения",
        -8.551845736123237
      ],
      [
        "▁хотел",
        -8.551979418449918
      ],
      [
        "▁доступ",
        -8.553531099683422
      ],
      [
        "▁говорит",
        -8.555707027322562
      ],
      [
        "▁детей",
        -8.557506064704928
      ],
      [
        "её",
        -8.559822855182988
      ],
      [
        "▁следует",
        -8.560728588658282
      ],
      [
        "▁дня",
        -8.561189709563537
      ],
      [
        "▁друг",
        -8.562017475718003
      ],
      [
        "▁решения",
        -8.56312330739644
      ],
      [
        "▁всегда",
        -8.568031412081671
      ],
      [
        "▁два",
        -8.576015325952541
      ],
      [
        "ш",
        -8.576860126997637
      ],
      [
        "▁борьб",
        -8.584801046486183
      ],
      [
        "▁информаци",
        -8.588748955872722
      ],
      [
        "▁сделать",
        -8.59050642818202
      ],
      [
        "▁средств",
        -8.595376465673331
      ],
      [
        "сть",
        -8.596509553396205
      ],
      [
        "▁сил",
        -8.60867833260774
      ],
      [
        "ном",
        -8.614640829852778
      ],
      [
        "▁уровне",
        -8.615496889370085
      ],
      [
        "ц",
        -8.617549100382085
      ],
      [
        "▁там",
        -8.618665798649465
      ],
      [
        "y",
        -8.618795086659562
      ],
      [
        "▁Генерально",
        -8.619484292375478
      ],
      [
        "▁внимание",
        -8.62369008684168
      ],
      [
        "▁государства",
        -8.625160679079926
      ],
      [
        "▁Кроме",
        -8.62703711984602
      ],
      [
        "▁Ну",
        -8.631427557980638
      ],
      [
        "▁себе",
        -8.63271737891971
      ],
      [
        "▁собо",
        -8.634106463108042
      ],
      [
        "▁котором",
        -8.636066215759985
      ],
      [
        "ской",
        -8.639324343443844
      ],
      [
        "#",
        -8.640768370405446
      ],
      [
        "▁место",
        -8.640991935321404
      ],
      [
        "▁группы",
        -8.64133205180718
      ],
      [
        "ё",
        -8.642482085377997
      ],
      [
        "▁ряд",
        -8.645800415672369
      ],
      [
        "▁S",
        -8.647640905839529
      ],
      [
        "▁лучше",
        -8.651960645904634
      ],
      [
        "▁пока",
        -8.657496182239896
      ],
      [
        "▁П",
        -8.6576560435182
      ],
      [
        "жизнь",
        -8.657965220165547
      ],
      [
        "К",
        -8.664534044524027
      ],
      [
        "▁пункт",
        -8.665089011511178
      ],
      [
        "▁люди",
        -8.665141056181998
      ],
      [
        "▁право",
        -8.6690214937955
      ],
      [
        "▁основе",
        -8.67610242794002
      ],
      [
        "О",
        -8.676393825911322
      ],
      [
        "▁него",
        -8.676558522999748
      ],
      [
        "такие",
        -8.678097156317364
      ],
      [
        "▁целя",
        -8.683242334325518
      ],
      [
        "▁помощью",
        -8.684952941152137
      ],
      [
        "▁доклад",
        -8.68694738103946
      ],
      [
        "ского",
        -8.68952724168382
      ],
      [
        "▁двух",
        -8.69126063881739
      ],
      [
        "▁знаю",
        -8.698082172735896
      ],
      [
        "▁участие",
        -8.698659490083617
      ],
      [
        "своего",
        -8.698961901682265
      ],
      [
        "▁должна",
        -8.698992156411537
      ],
      [
        "▁таким",
        -8.704273324765254
      ],
      [
        "да",
        -8.70603247834951
      ],
      [
        "▁решение",
        -8.7068272366607
      ],
      [
        "▁проекта",
        -8.714455036395268
      ],
      [
        "или",
        -8.714670898652642
      ],
      [
        "▁сегодня",
        -8.717426135678465
      ],
      [
        "▁менее",
        -8.72007024210432
      ],
      [
        "от",
        -8.724144854372561
      ],
      [
        "▁После",
        -8.726954304840294
      ],
      [
        "▁мое",
        -8.727469613797037
      ],
      [
        "▁проблемы",
        -8.728127491824981
      ],
      [
        "▁тот",
        -8.728338887216328
      ],
      [
        "ло",
        -8.732228984803024
      ],
      [
        "▁хорошо",
        -8.734144109851908
      ],
      [
        "▁числе",
        -8.735938060894414
      ],
      [
        "▁особенно",
        -8.737397279303275
      ],
      [
        "юсь",
        -8.738199927755655
      ],
      [
        "▁города",
        -8.741131032636119
      ],
      [
        "▁должно",
        -8.743043499841233
      ],
      [
        "▁ваш",
        -8.744347041204266
      ],
      [
        "▁программ",
        -8.746885156028682
      ],
      [
        "▁the",
        -8.747453922386573
      ],
      [
        "ось",
        -8.749180251472401
      ],
      [
        "могли",
        -8.750341891975557
      ],
      [
        "▁возможно",
        -8.753708587203445
      ],
      [
        "▁странах",
        -8.756812289797603
      ],
      [
        "▁соответствующи",
        -8.757770440747706
      ],
      [
        "▁проблем",
        -8.758136319144585
      ],
      [
        "A",
        -8.758196312681468
      ],
      [
        "▁населения",
        -8.75865077455149
      ],
      [
        "▁услуг",
        -8.75880692254084
      ],
      [
        "▁резолюци",
        -8.765290100632184
      ],
      [
        "▁имеют",
        -8.765760335017909
      ],
      [
        "▁начал",
        -8.766239929946085
      ],
      [
        "▁Мне",
        -8.76942363677745
      ],
      [
        "ными",
        -8.770347985018374
      ],
      [
        "эту",
        -8.771614621921707
      ],
      [
        "одной",
        -8.772696934003973
      ],
      [
        "i",
        -8.773734670441481
      ],
      [
        "▁Д",
        -8.773915072027043
      ],
      [
        "▁номер",
        -8.778830851117387
      ],
      [
        "▁выбор",
        -8.77909095274243
      ],
      [
        "▁C",
        -8.781928979357124
      ],
      [
        "▁B",
        -8.787143673935025
      ],
      [
        "ский",
        -8.787287719029278
      ],
      [
        "▁No",
        -8.78992147337691
      ],
      [
        "▁мир",
        -8.790241837557504
      ],
      [
        "▁государств",
        -8.790352834478796
      ],
      [
        "▁частност",
        -8.791130921248998
      ],
      [
        "▁возможности",
        -8.79303874295025
      ],
      [
        "▁групп",
        -8.793833296183323
      ],
      [
        "▁служб",
        -8.798136427066638
      ],
      [
        "▁оценк",
        -8.799975233183904
      ],
      [
        "ще",
        -8.800511401287492
      ],
      [
        "ра",
        -8.802551026405252
      ],
      [
        "▁осуществлени",
        -8.802848981223855
      ],
      [
        "▁новых",
        -8.805961310625696
      ],
      [
        "▁использования",
        -8.80603947895009
      ],
      [
        "И",
        -8.80706924238141
      ],
      [
        "▁места",
        -8.807825191168158
      ],
      [
        "теперь",
        -8.80911901812326
      ],
      [
        "▁различны",
        -8.811904177891462
      ],
      [
        "▁которого",
        -8.812684473992883
      ],
      [
        "▁Совета",
        -8.81361990737924
      ],
      [
        "ись",
        -8.814947840914067
      ],
      [
        "ты",
        -8.814987245561348
      ],
      [
        "_",
        -8.815069228090355
      ],
      [
        "▁торговл",
        -8.816077027451747
      ],
      [
        "▁Его",
        -8.818284303404306
      ],
      [
        "▁которым",
        -8.82026828217394
      ],
      [
        "▁могу",
        -8.824093583018515
      ],
      [
        "▁мер",
        -8.824782384029799
      ],
      [
        "▁свой",
        -8.827921931438349
      ],
      [
        "▁мире",
        -8.829407122935976
      ],
      [
        "▁подготовк",
        -8.831641155294987
      ],
      [
        "▁задач",
        -8.831902304961536
      ],
      [
        "▁социально",
        -8.832916827638885
      ],
      [
        "▁находится",
        -8.832923068086469
      ],
      [
        "М",
        -8.833765528670835
      ],
      [
        "er",
        -8.842721362339438
      ],
      [
        "▁политики",
        -8.850694213099905
      ],
      [
        "▁сделал",
        -8.853290425239168
      ],
      [
        "ясь",
        -8.853536987462132
      ],
      [
        "ко",
        -8.853643729185551
      ],
      [
        "такой",
        -8.855055972774434
      ],
      [
        "▁среди",
        -8.860378185962132
      ],
      [
        "▁наше",
        -8.86216202138434
      ],
      [
        "меры",
        -8.863003937399295
      ],
      [
        "▁одного",
        -8.866692568609702
      ],
      [
        "▁результате",
        -8.868373860352811
      ],
      [
        "▁три",
        -8.869452755260692
      ],
      [
        "▁Во",
        -8.871362300309267
      ],
      [
        "чего",
        -8.872000020898845
      ],
      [
        "зад",
        -8.873541324530787
      ],
      [
        "▁хотя",
        -8.875898896225623
      ],
      [
        "▁одно",
        -8.876286216385308
      ],
      [
        "▁ничего",
        -8.8764967625808
      ],
      [
        "▁момент",
        -8.87868439081137
      ],
      [
        "S",
        -8.879009971678045
      ],
      [
        "▁именно",
        -8.883554984602856
      ],
      [
        "▁вместе",
        -8.888291685247589
      ],
      [
        "▁да",
        -8.89118324368422
      ],
      [
        "=",
        -8.892226074125348
      ],
      [
        "▁части",
        -8.892989543659432
      ],
      [
        "ская",
        -8.894380093388241
      ],
      [
        "▁средства",
        -8.896410758146411
      ],
      [
        "▁поскольку",
        -8.899177364901522
      ],
      [
        "ed",
        -8.901749270085476
      ],
      [
        ">",
        -8.902596249356874
      ],
      [
        "▁данные",
        -8.903992272374715
      ],
      [
        "Д",
        -8.90607631820392
      ],
      [
        "▁уровня",
        -8.908122455500944
      ],
      [
        "▁Windows",
        -8.909460871790932
      ],
      [
        "▁своем",
        -8.912134829960891
      ],
      [
        "работать",
        -8.912619740835153
      ],
      [
        "▁долларов",
        -8.913093479181288
      ],
      [
        "▁действия",
        -8.917886974737431
      ],
      [
        "▁семь",
        -8.918944924974307
      ],
      [
        "▁Республики",
        -8.920050846041132
      ],
      [
        "▁свое",
        -8.923088281229388
      ],
      [
        "хочу",
        -8.932238846442878
      ],
      [
        "▁эта",
        -8.932412925719262
      ],
      [
        "ходе",
        -8.932819355467437
      ],
      [
        "йте",
        -8.934490681910548
      ],
      [
        "▁свобод",
        -8.936435448322488
      ],
      [
        "▁самы",
        -8.936597992883641
      ],
      [
        "▁важно",
        -8.93669374970826
      ],
      [
        "▁P",
        -8.93708599254421
      ],
      [
        "▁способ",
        -8.939408828199522
      ],
      [
        "▁систем",
        -8.941733328520401
      ],
      [
        "▁деятельность",
        -8.943174250667697
      ],
      [
        "▁дела",
        -8.94388115080432
      ],
      [
        "▁учет",
        -8.946525891659874
      ],
      [
        "ля",
        -8.947876710553015
      ],
      [
        "▁действий",
        -8.948018281835365
      ],
      [
        "b",
        -8.95225295320889
      ],
      [
        "Б",
        -8.952419045669457
      ],
      [
        "▁метод",
        -8.954402889331972
      ],
      [
        "▁вопросы",
        -8.955586098113017
      ],
      [
        "▁территории",
        -8.956539665260678
      ],
      [
        "▁условия",
        -8.959179428583864
      ],
      [
        "▁опыт",
        -8.96023524474816
      ],
      [
        "▁власти",
        -8.960734061974417
      ],
      [
        "▁От",
        -8.962101236355222
      ],
      [
        "▁Т",
        -8.969507938854795
      ],
      [
        "ями",
        -8.972000131389839
      ],
      [
        "▁тогда",
        -8.973598325117457
      ],
      [
        "▁пор",
        -8.974862051410069
      ],
      [
        "▁деле",
        -8.977260203305747
      ],
      [
        "▁которую",
        -8.977426237899733
      ],
      [
        "▁усилия",
        -8.978334013248956
      ],
      [
        "сказать",
        -8.978475051969475
      ],
      [
        "▁значение",
        -8.978713691018562
      ],
      [
        "нибудь",
        -8.979855216731755
      ],
      [
        "▁реализаци",
        -8.981289939469065
      ],
      [
        "из",
        -8.981639545409122
      ],
      [
        "n",
        -8.981678651095438
      ],
      [
        "▁затем",
        -8.981838206248991
      ],
      [
        "▁мере",
        -8.987025966184156
      ],
      [
        "Г",
        -8.989073983585344
      ],
      [
        "▁Вот",
        -8.989860540200132
      ],
      [
        "▁цен",
        -8.990891931333948
      ],
      [
        "▁роль",
        -8.993399394069264
      ],
      [
        "ейчас",
        -8.994527606327836
      ],
      [
        "▁изменения",
        -8.9945563565552
      ],
      [
        "▁некоторые",
        -8.995024788575007
      ],
      [
        "▁самом",
        -8.996540843824697
      ],
      [
        "наиболе",
        -8.997155892866653
      ],
      [
        "▁ресурсов",
        -8.997422034190219
      ],
      [
        "▁результат",
        -8.99908122403559
      ],
      [
        "▁достаточно",
        -8.99998609441383
      ],
      [
        "▁дел",
        -9.000449110763258
      ],
      [
        "▁полностью",
        -9.001016415522647
      ],
      [
        "▁те",
        -9.002032664279854
      ],
      [
        "▁компьютер",
        -9.003404125039598
      ],
      [
        "▁Б",
        -9.004438779300738
      ],
      [
        "▁позволяет",
        -9.00533742605826
      ],
      [
        "▁Совет",
        -9.006296908816878
      ],
      [
        "▁группа",
        -9.007321801430644
      ],
      [
        "▁счет",
        -9.009755109914426
      ],
      [
        "▁многих",
        -9.0106479344529
      ],
      [
        "▁Эти",
        -9.01183308234142
      ],
      [
        "▁система",
        -9.016783316162838
      ],
      [
        "▁почти",
        -9.018366285052048
      ],
      [
        "▁необходимы",
        -9.018579195423492
      ],
      [
        "можем",
        -9.01895033970796
      ],
      [
        "▁около",
        -9.021107213753336
      ],
      [
        "▁сессии",
        -9.021177254504591
      ],
      [
        "▁of",
        -9.02163777179996
      ],
      [
        "▁получить",
        -9.02232155889082
      ],
      [
        "▁документ",
        -9.02352150778829
      ],
      [
        "поэтому",
        -9.023604058469715
      ],
      [
        "многие",
        -9.025805990519506
      ],
      [
        "▁Комитет",
        -9.029751599715171
      ],
      [
        "вести",
        -9.03041165272015
      ],
      [
        "йти",
        -9.032356271565623
      ],
      [
        "▁F",
        -9.033723411590126
      ],
      [
        "c",
        -9.036001396228183
      ],
      [
        "ны",
        -9.036813306519303
      ],
      [
        "▁сотрудничества",
        -9.036979105671724
      ],
      [
        "▁I",
        -9.037254031108075
      ],
      [
        "новые",
        -9.037287462384988
      ],
      [
        "▁мой",
        -9.041851543002487
      ],
      [
        "▁июн",
        -9.043274914992013
      ],
      [
        "▁дело",
        -9.045109457580795
      ],
      [
        "▁работе",
        -9.045730729764443
      ],
      [
        "▁мая",
        -9.04814911487716
      ],
      [
        "смотря",
        -9.050994373890791
      ],
      [
        "▁часто",
        -9.051872709137529
      ],
      [
        "▁одна",
        -9.052917538494155
      ],
      [
        "▁правительство",
        -9.055512093707312
      ],
      [
        "▁M",
        -9.056963502209822
      ],
      [
        "com",
        -9.057314673772277
      ],
      [
        "▁объем",
        -9.060008100550094
      ],
      [
        "тоже",
        -9.060117042665574
      ],
      [
        "▁настоящее",
        -9.06414816003037
      ],
      [
        "B",
        -9.064464489751762
      ],
      [
        "▁язык",
        -9.06674344523013
      ],
      [
        "▁делать",
        -9.067359252364184
      ],
      [
        "▁говорил",
        -9.067360142730783
      ],
      [
        "▁срок",
        -9.067950386908675
      ],
      [
        "▁постоянно",
        -9.069000868648837
      ],
      [
        "▁сам",
        -9.069412232610155
      ],
      [
        "▁некоторы",
        -9.069800470160295
      ],
      [
        "▁образования",
        -9.071080984316671
      ],
      [
        "▁быстро",
        -9.072832642892878
      ],
      [
        "П",
        -9.073466227737054
      ],
      [
        "▁развитие",
        -9.07348002158651
      ],
      [
        "ите",
        -9.07351001368199
      ],
      [
        "▁количество",
        -9.073854013116955
      ],
      [
        "▁однако",
        -9.074501706377273
      ],
      [
        "▁организаций",
        -9.074543251086242
      ],
      [
        "Я",
        -9.075255535462677
      ],
      [
        "▁путе",
        -9.07544011369767
      ],
      [
        "▁стал",
        -9.076209915017863
      ],
      [
        "декабря",
        -9.07634174893376
      ],
      [
        "▁Ф",
        -9.07937035282765
      ],
      [
        "▁помощь",
        -9.080295161814105
      ],
      [
        "▁режим",
        -9.08310711569096
      ],
      [
        "▁обычно",
        -9.083731288382534
      ],
      [
        "▁создания",
        -9.084421930377808
      ],
      [
        "▁любо",
        -9.084714423142843
      ],
      [
        "каждый",
        -9.087492288667326
      ],
      [
        "▁план",
        -9.087885296321538
      ],
      [
        "x",
        -9.088466556972332
      ],
      [
        "▁пол",
        -9.088941659241211
      ],
      [
        "▁слова",
        -9.089834514040875
      ],
      [
        "ф",
        -9.094849586491076
      ],
      [
        "▁почему",
        -9.09766692003894
      ],
      [
        "▁Конвенции",
        -9.097917848124657
      ],
      [
        "t",
        -9.09916012423096
      ],
      [
        "▁принял",
        -9.0994034193132
      ],
      [
        "рд",
        -9.100157911661311
      ],
      [
        "вер",
        -9.1011436895143
      ],
      [
        "▁Про",
        -9.102008542042812
      ],
      [
        "▁рабочи",
        -9.102091027047074
      ],
      [
        "юда",
        -9.102109099144478
      ],
      [
        "▁международных",
        -9.103818304860921
      ],
      [
        "\n",
        -9.10585738497459
      ],
      [
        "дать",
        -9.108425263552803
      ],
      [
        "▁веб",
        -9.108947999343428
      ],
      [
        "▁ваши",
        -9.109987897750374
      ],
      [
        "▁ответ",
        -9.111843047135746
      ],
      [
        "▁минут",
        -9.113012013798373
      ],
      [
        "слишком",
        -9.114509240770818
      ],
      [
        "▁уровень",
        -9.115950368627324
      ],
      [
        "▁какой",
        -9.117141316751558
      ],
      [
        "знать",
        -9.118222870594462
      ],
      [
        "▁рынка",
        -9.120047726069249
      ],
      [
        "▁D",
        -9.12268835912231
      ],
      [
        "▁директор",
        -9.122976883442707
      ],
      [
        "де",
        -9.124263027552963
      ],
      [
        "▁прямо",
        -9.124320710963564
      ],
      [
        "▁годы",
        -9.125891062751855
      ],
      [
        "▁школ",
        -9.127695796144247
      ],
      [
        "▁общества",
        -9.127769734991464
      ],
      [
        "▁оно",
        -9.128315267146723
      ],
      [
        "▁производства",
        -9.128320819855714
      ],
      [
        "▁состав",
        -9.129717579091439
      ],
      [
        "▁услови",
        -9.130222455427415
      ],
      [
        "▁государственно",
        -9.130754328232198
      ],
      [
        "▁мои",
        -9.132252875877859
      ],
      [
        "▁поддержк",
        -9.132859855174528
      ],
      [
        "▁регион",
        -9.133070621162275
      ],
      [
        "g",
        -9.133325638417862
      ],
      [
        "▁своим",
        -9.135351026586784
      ],
      [
        "▁дома",
        -9.13672092992141
      ],
      [
        "▁стратеги",
        -9.136757190736095
      ],
      [
        "o",
        -9.136857289985711
      ],
      [
        "ских",
        -9.137548552568656
      ],
      [
        "▁случая",
        -9.139513781404116
      ],
      [
        "можете",
        -9.14040154486121
      ],
      [
        "▁выше",
        -9.140743159560454
      ],
      [
        "▁стране",
        -9.141326729983483
      ],
      [
        "дней",
        -9.141381307125796
      ],
      [
        "▁До",
        -9.14424349732569
      ],
      [
        "▁закон",
        -9.144705577824542
      ],
      [
        "▁отношения",
        -9.14664869419183
      ],
      [
        "овых",
        -9.148054449787
      ],
      [
        "▁бизнес",
        -9.14858691958163
      ],
      [
        "▁сети",
        -9.151605989708422
      ],
      [
        "▁правительства",
        -9.152901828818358
      ],
      [
        "▁машин",
        -9.15441288362834
      ],
      [
        "ец",
        -9.155579644937987
      ],
      [
        "▁обеспечить",
        -9.157097682719998
      ],
      [
        "▁рас",
        -9.157846079085939
      ],
      [
        "▁проведения",
        -9.160125451041802
      ],
      [
        "▁ноябр",
        -9.162032439556302
      ],
      [
        "▁думаю",
        -9.162910050004085
      ],
      [
        "▁другими",
        -9.16598455990905
      ],
      [
        "порядке",
        -9.166317515340822
      ],
      [
        "▁июл",
        -9.16760309966185
      ],
      [
        "▁действительно",
        -9.167702928859775
      ],
      [
        "иметь",
        -9.167987042925553
      ],
      [
        "▁относительно",
        -9.169097130256192
      ],
      [
        "ing",
        -9.170179907242694
      ],
      [
        "▁Из",
        -9.171135435959101
      ],
      [
        "▁мог",
        -9.172399151835675
      ],
      [
        "одним",
        -9.17419100871059
      ],
      [
        "▁принцип",
        -9.174510915396612
      ],
      [
        "▁форм",
        -9.175156418912199
      ],
      [
        "▁компания",
        -9.175740413662478
      ],
      [
        "найти",
        -9.1762708073209
      ],
      [
        "Т",
        -9.17851626213737
      ],
      [
        "D",
        -9.178538631401594
      ],
      [
        "▁книг",
        -9.179592286045922
      ],
      [
        "конец",
        -9.181084454310634
      ],
      [
        "▁использует",
        -9.181511587345236
      ],
      [
        "▁Эта",
        -9.183250363223491
      ],
      [
        "▁представляет",
        -9.18426420247758
      ],
      [
        "▁поддержки",
        -9.18643846562549
      ],
      [
        "Этот",
        -9.189551120782145
      ],
      [
        "Х",
        -9.192177479772402
      ],
      [
        "▁ко",
        -9.192638427831165
      ],
      [
        "▁процесса",
        -9.195486333287102
      ],
      [
        "▁международного",
        -9.195626784479165
      ],
      [
        "ния",
        -9.198672054883877
      ],
      [
        "▁вот",
        -9.200923462471842
      ],
      [
        "▁ООН",
        -9.202079359913421
      ],
      [
        "нашей",
        -9.204696605202573
      ],
      [
        "▁цели",
        -9.205497979489948
      ],
      [
        "до",
        -9.206704600582075
      ],
      [
        "▁пути",
        -9.206875475424642
      ],
      [
        "▁работа",
        -9.208133841382237
      ],
      [
        "▁государственны",
        -9.208427611657351
      ],
      [
        "▁получени",
        -9.209226982570662
      ],
      [
        "▁тво",
        -9.210405227574752
      ],
      [
        "▁лица",
        -9.211792826223517
      ],
      [
        "▁положения",
        -9.21731292669253
      ],
      [
        "ков",
        -9.217857064357569
      ],
      [
        "Е",
        -9.220261490449051
      ],
      [
        "ар",
        -9.222294145899875
      ],
      [
        "▁факт",
        -9.225744901827017
      ],
      [
        "▁видел",
        -9.226133888325219
      ],
      [
        "ности",
        -9.227044916470252
      ],
      [
        "al",
        -9.228652304588453
      ],
      [
        "▁орган",
        -9.230700274998565
      ],
      [
        "▁предлагает",
        -9.232145158432694
      ],
      [
        "ещё",
        -9.23932288084113
      ],
      [
        "▁механизм",
        -9.241072692380575
      ],
      [
        "▁начала",
        -9.243928205318994
      ],
      [
        "▁http",
        -9.244292327195696
      ],
      [
        "▁Н",
        -9.244963844534762
      ],
      [
        "такое",
        -9.24536021685733
      ],
      [
        "▁региона",
        -9.24551160966506
      ],
      [
        "▁T",
        -9.246619762549438
      ],
      [
        "▁E",
        -9.246872161798708
      ],
      [
        "▁число",
        -9.248704540749669
      ],
      [
        "L",
        -9.24917362915552
      ],
      [
        "ает",
        -9.25227705951276
      ],
      [
        "▁пред",
        -9.253693685096657
      ],
      [
        "f",
        -9.253917036386158
      ],
      [
        "▁технологи",
        -9.254508601892336
      ],
      [
        "▁Хот",
        -9.255429160046084
      ],
      [
        "▁апрел",
        -9.257517625293243
      ],
      [
        "▁мест",
        -9.258126620716162
      ],
      [
        "э",
        -9.259681691220003
      ],
      [
        "▁надо",
        -9.260980836510441
      ],
      [
        "▁стали",
        -9.261017181054864
      ],
      [
        "▁заявил",
        -9.2616293870423
      ],
      [
        "целей",
        -9.262774594270978
      ],
      [
        "▁снова",
        -9.266719258522375
      ],
      [
        "емся",
        -9.266984902232322
      ],
      [
        "сентября",
        -9.267805031390544
      ],
      [
        "▁and",
        -9.268369889119613
      ],
      [
        "▁высоко",
        -9.268805506975475
      ],
      [
        "▁конференци",
        -9.269152621541384
      ],
      [
        "▁вид",
        -9.270954580551575
      ],
      [
        "ские",
        -9.271357702649077
      ],
      [
        "▁Вам",
        -9.274319212981885
      ],
      [
        "▁членов",
        -9.275119582953046
      ],
      [
        "▁совместно",
        -9.277666265805923
      ],
      [
        "▁город",
        -9.278181600437948
      ],
      [
        "▁любы",
        -9.278784377686717
      ],
      [
        "ман",
        -9.278799455479058
      ],
      [
        "▁трех",
        -9.278914626701972
      ],
      [
        "новый",
        -9.279356089621997
      ],
      [
        "чему",
        -9.279484369910609
      ],
      [
        "▁считает",
        -9.280063578700712
      ],
      [
        "P",
        -9.282919439787932
      ],
      [
        "▁нескольки",
        -9.284726615283414
      ],
      [
        "▁знал",
        -9.284801330411778
      ],
      [
        "▁представлен",
        -9.285961778161553
      ],
      [
        "▁свет",
        -9.286052826427115
      ],
      [
        "▁ситуаци",
        -9.286431563337816
      ],
      [
        "▁принять",
        -9.288636996020792
      ],
      [
        "▁органов",
        -9.291979138247726
      ],
      [
        "▁услуги",
        -9.292617211321188
      ],
      [
        "ру",
        -9.295300663561113
      ],
      [
        "▁стоит",
        -9.297522077144345
      ],
      [
        "▁последние",
        -9.297886731933664
      ],
      [
        "▁решений",
        -9.299588267759585
      ],
      [
        "ком",
        -9.300327869105217
      ],
      [
        "M",
        -9.302063512693346
      ],
      [
        "ью",
        -9.30298528949912
      ],
      [
        "▁разработк",
        -9.304664187434794
      ],
      [
        "▁делает",
        -9.307493520205405
      ],
      [
        "▁разны",
        -9.310602340564595
      ],
      [
        "ба",
        -9.311498118455997
      ],
      [
        "жмите",
        -9.31195509269558
      ],
      [
        "▁То",
        -9.312800067525634
      ],
      [
        "▁расположен",
        -9.313077482440105
      ],
      [
        "www",
        -9.314696133167118
      ],
      [
        "▁каждо",
        -9.316686774101775
      ],
      [
        "▁август",
        -9.318901615163398
      ],
      [
        "▁договор",
        -9.319639648943685
      ],
      [
        "▁Москв",
        -9.321107006017538
      ],
      [
        "▁практически",
        -9.321159640866602
      ],
      [
        "основных",
        -9.321902576796525
      ],
      [
        "▁силу",
        -9.322117787802604
      ],
      [
        "▁Таки",
        -9.323574099226223
      ],
      [
        "▁Телефон",
        -9.323590844602247
      ],
      [
        "▁прежде",
        -9.325226751720933
      ],
      [
        "Н",
        -9.325995644715338
      ],
      [
        "▁развитию",
        -9.326393154958586
      ],
      [
        "ер",
        -9.32839384411115
      ],
      [
        "▁компаний",
        -9.330553655538067
      ],
      [
        "▁сервер",
        -9.33117442130836
      ],
      [
        "▁K",
        -9.331262852852838
      ],
      [
        "▁Мо",
        -9.33223510792139
      ],
      [
        "▁суд",
        -9.33347580278962
      ],
      [
        "▁происходит",
        -9.333493456862582
      ],
      [
        "овой",
        -9.334393007300642
      ],
      [
        "▁легко",
        -9.334413405168137
      ],
      [
        "▁вопросов",
        -9.335569320893935
      ],
      [
        "при",
        -9.335590647645404
      ],
      [
        "ние",
        -9.336415203759298
      ],
      [
        "ре",
        -9.337046241420332
      ],
      [
        "тер",
        -9.33715057435818
      ],
      [
        "▁информация",
        -9.337292707394166
      ],
      [
        "▁позици",
        -9.339120644065442
      ],
      [
        "▁конце",
        -9.343298002100603
      ],
      [
        "такого",
        -9.34506387455136
      ],
      [
        "▁качества",
        -9.346323719069053
      ],
      [
        "▁меньше",
        -9.346411185426563
      ],
      [
        "▁крайне",
        -9.346411862693895
      ],
      [
        "▁рост",
        -9.34680296600613
      ],
      [
        "▁файл",
        -9.349385626201428
      ],
      [
        "▁мнени",
        -9.350243170203225
      ],
      [
        "▁истори",
        -9.350483403333943
      ],
      [
        "▁составляет",
        -9.351018954851227
      ],
      [
        "•",
        -9.353613885128485
      ],
      [
        "▁работает",
        -9.353857702576107
      ],
      [
        "▁имел",
        -9.353914092642398
      ],
      [
        "▁касается",
        -9.354382560229293
      ],
      [
        "▁войны",
        -9.354815300070332
      ],
      [
        "▁правам",
        -9.356471001948043
      ],
      [
        "p",
        -9.356493834570406
      ],
      [
        "▁виде",
        -9.357614363360875
      ],
      [
        "▁обеспечение",
        -9.35762495659078
      ],
      [
        "▁среды",
        -9.358720837218533
      ],
      [
        "▁труда",
        -9.360522738360892
      ],
      [
        "▁означает",
        -9.36203628711428
      ],
      [
        "воды",
        -9.362077274474673
      ],
      [
        "бо",
        -9.364145537953192
      ],
      [
        "▁практик",
        -9.364518972412334
      ],
      [
        "▁Хорош",
        -9.36572350784783
      ],
      [
        "▁необходимости",
        -9.365916163526062
      ],
      [
        "Л",
        -9.366000889766173
      ],
      [
        "▁отметил",
        -9.366136034782798
      ],
      [
        "▁значительно",
        -9.366378907749887
      ],
      [
        "▁G",
        -9.367083073899684
      ],
      [
        "▁ниже",
        -9.367794092788543
      ],
      [
        "$",
        -9.367829204799905
      ],
      [
        "▁R",
        -9.368295881948596
      ],
      [
        "▁контроля",
        -9.36919196482606
      ],
      [
        "▁создание",
        -9.369399507046289
      ],
      [
        "условиях",
        -9.370252498896903
      ],
      [
        "зрения",
        -9.370739320167022
      ],
      [
        "У",
        -9.371067546053688
      ],
      [
        "▁Тепер",
        -9.37141583803973
      ],
      [
        "k",
        -9.372253837858217
      ],
      [
        "▁специалист",
        -9.372393222683971
      ],
      [
        "▁согласно",
        -9.374642812685137
      ],
      [
        "▁две",
        -9.375670959930607
      ],
      [
        "▁целом",
        -9.376081164557862
      ],
      [
        "▁Э",
        -9.37734151987178
      ],
      [
        "▁благодаря",
        -9.3773562471835
      ],
      [
        "▁передач",
        -9.377926165807068
      ],
      [
        "▁использование",
        -9.378554616168708
      ],
      [
        "октября",
        -9.37867733656387
      ],
      [
        "▁сумм",
        -9.379269012683134
      ],
      [
        "▁тысяч",
        -9.381167627988498
      ],
      [
        "▁наук",
        -9.383833163155963
      ],
      [
        "▁Со",
        -9.385274765725052
      ],
      [
        "▁сравнени",
        -9.385355762028446
      ],
      [
        "▁имени",
        -9.38656442804276
      ],
      [
        "мочь",
        -9.386772301179025
      ],
      [
        "▁центр",
        -9.3874793326619
      ],
      [
        "▁крупны",
        -9.389215428469614
      ],
      [
        "чь",
        -9.391729238292157
      ],
      [
        "▁наш",
        -9.392538940547494
      ],
      [
        "▁Може",
        -9.393374563529184
      ],
      [
        "▁установк",
        -9.394452154293946
      ],
      [
        "▁подход",
        -9.39461437730315
      ],
      [
        "▁другим",
        -9.397940058895067
      ],
      [
        "▁создать",
        -9.39810245650439
      ],
      [
        "▁существует",
        -9.399072523354821
      ],
      [
        "ходят",
        -9.399199002651384
      ],
      [
        "ль",
        -9.399656960551926
      ],
      [
        "каждого",
        -9.399785290895192
      ],
      [
        "ду",
        -9.399822280213458
      ],
      [
        "▁нового",
        -9.399976760514663
      ],
      [
        "▁исследования",
        -9.402287343713041
      ],
      [
        "▁высоки",
        -9.406108820355792
      ],
      [
        "ющие",
        -9.406880784008708
      ],
      [
        "°",
        -9.40761860318126
      ],
      [
        "▁секретаря",
        -9.4088169990228
      ],
      [
        "▁достижения",
        -9.409771340552755
      ],
      [
        "▁угроз",
        -9.410544409761568
      ],
      [
        "r",
        -9.413602339571083
      ],
      [
        "▁номера",
        -9.41423692526125
      ],
      [
        "▁элемент",
        -9.414938366405993
      ],
      [
        "▁получил",
        -9.415764153089018
      ],
      [
        "Р",
        -9.41595880055912
      ],
      [
        "дает",
        -9.417771255303471
      ],
      [
        "марта",
        -9.42058771836812
      ],
      [
        "▁потребност",
        -9.421111809123602
      ],
      [
        "▁активно",
        -9.42125325182014
      ],
      [
        "степени",
        -9.423163780721064
      ],
      [
        "▁размер",
        -9.423334998884602
      ],
      [
        "▁рабоче",
        -9.42468880220221
      ],
      [
        "жа",
        -9.425434024561264
      ],
      [
        "▁окружающей",
        -9.426084700212217
      ],
      [
        "▁оста",
        -9.42621866400132
      ],
      [
        "▁состоит",
        -9.427718737115091
      ],
      [
        "▁комитет",
        -9.428276481280994
      ],
      [
        "▁лучши",
        -9.432034214070724
      ],
      [
        "v",
        -9.434022827037362
      ],
      [
        "▁конечно",
        -9.434108359509855
      ],
      [
        "▁Р",
        -9.434454898107246
      ],
      [
        "▁телефон",
        -9.435297724706125
      ],
      [
        "▁центра",
        -9.436197421876644
      ],
      [
        "кого",
        -9.437986646619827
      ],
      [
        "овые",
        -9.438000825410414
      ],
      [
        "▁связанны",
        -9.438186136258821
      ],
      [
        "▁последни",
        -9.438460117952296
      ],
      [
        "▁месяцев",
        -9.438674875263874
      ],
      [
        "деньги",
        -9.438947252224754
      ],
      [
        "большой",
        -9.439082149221049
      ],
      [
        "▁пре",
        -9.439194287938625
      ],
      [
        "ru",
        -9.439460080384707
      ],
      [
        "▁материал",
        -9.441065868607627
      ],
      [
        "an",
        -9.441211985140235
      ],
      [
        "▁январ",
        -9.441590851820465
      ],
      [
        "▁Эй",
        -9.442020872232257
      ],
      [
        "ась",
        -9.442824287649133
      ],
      [
        "▁экономики",
        -9.443146402443745
      ],
      [
        "ность",
        -9.446434751948782
      ],
      [
        "имя",
        -9.447857857944859
      ],
      [
        "сколько",
        -9.448192455877567
      ],
      [
        "▁изменени",
        -9.448848149342378
      ],
      [
        "любой",
        -9.449619008502319
      ],
      [
        "▁вариант",
        -9.450464384260039
      ],
      [
        "▁Л",
        -9.451018084288508
      ],
      [
        "▁уверен",
        -9.451635020562966
      ],
      [
        "▁граждан",
        -9.452068759800502
      ],
      [
        "мен",
        -9.45407071215998
      ],
      [
        "ша",
        -9.454518875657058
      ],
      [
        "ишь",
        -9.455578820042327
      ],
      [
        "▁инициатив",
        -9.456162499581213
      ],
      [
        "ник",
        -9.456351805176794
      ],
      [
        "▁социальны",
        -9.456512650415176
      ],
      [
        "▁данным",
        -9.458626190110966
      ],
      [
        "▁необходимость",
        -9.46011890123944
      ],
      [
        "▁Безопасности",
        -9.46288005523887
      ],
      [
        "▁роста",
        -9.462983442872707
      ],
      [
        "лен",
        -9.463718594078486
      ],
      [
        "мер",
        -9.464721294386989
      ],
      [
        "▁часов",
        -9.465812987817975
      ],
      [
        "сфере",
        -9.46753489958066
      ],
      [
        "▁немного",
        -9.468384121597566
      ],
      [
        "▁одном",
        -9.469366813595306
      ],
      [
        "▁Европы",
        -9.47168920228355
      ],
      [
        "▁Привет",
        -9.471821959836621
      ],
      [
        "вашего",
        -9.473483669308655
      ],
      [
        "▁сами",
        -9.473969323146108
      ],
      [
        "▁встреч",
        -9.475617113126077
      ],
      [
        "▁сотрудников",
        -9.475730230805096
      ],
      [
        "l",
        -9.476595695742324
      ],
      [
        "▁повестк",
        -9.477365484131763
      ],
      [
        "национальных",
        -9.47787326254637
      ],
      [
        "▁большинство",
        -9.478720680797371
      ],
      [
        "N",
        -9.480431298496867
      ],
      [
        "▁равно",
        -9.48043322774444
      ],
      [
        "ировать",
        -9.480565468452903
      ],
      [
        "разу",
        -9.481396417442001
      ],
      [
        "новой",
        -9.481517031212343
      ],
      [
        "us",
        -9.481920141211337
      ],
      [
        "▁месте",
        -9.483561830950956
      ],
      [
        "про",
        -9.485109607833293
      ],
      [
        "▁Россия",
        -9.485866292746154
      ],
      [
        "▁программа",
        -9.487017381038093
      ],
      [
        "ры",
        -9.488743137851088
      ],
      [
        "цы",
        -9.488864654206148
      ],
      [
        "G",
        -9.490373630760105
      ],
      [
        "▁Тем",
        -9.490539488330697
      ],
      [
        "▁отчет",
        -9.490599606905413
      ],
      [
        "▁интернет",
        -9.492288504729995
      ],
      [
        "▁причин",
        -9.492576237758152
      ],
      [
        "▁иностранных",
        -9.49335836447819
      ],
      [
        "▁особо",
        -9.49379250348523
      ],
      [
        "▁W",
        -9.494631490472448
      ],
      [
        "H",
        -9.4947872331878
      ],
      [
        "▁L",
        -9.495180405115951
      ],
      [
        "▁N",
        -9.495412129291385
      ],
      [
        "первый",
        -9.496365364067596
      ],
      [
        "▁хочет",
        -9.49794600961518
      ],
      [
        "▁следующие",
        -9.498608620918727
      ],
      [
        "▁ЕС",
        -9.50073352667984
      ],
      [
        "▁Ази",
        -9.500773243580584
      ],
      [
        "▁района",
        -9.501293683092873
      ],
      [
        "K",
        -9.503363704353529
      ],
      [
        "▁мужчин",
        -9.503952192828288
      ],
      [
        "▁процентов",
        -9.504047592853146
      ],
      [
        "<",
        -9.506248547928895
      ],
      [
        "▁буд",
        -9.507793805828678
      ],
      [
        "▁управление",
        -9.507821005782722
      ],
      [
        "in",
        -9.508227641761401
      ],
      [
        "▁переговор",
        -9.508664160615663
      ],
      [
        "▁перв",
        -9.509020037771016
      ],
      [
        "ор",
        -9.510278581813402
      ],
      [
        "▁специально",
        -9.510546075458821
      ],
      [
        "новь",
        -9.51152425392747
      ],
      [
        "ющих",
        -9.512598587471574
      ],
      [
        "хотите",
        -9.515520488114714
      ],
      [
        "▁выполнения",
        -9.515674823060674
      ],
      [
        "▁Аллах",
        -9.515780579140204
      ],
      [
        "всю",
        -9.517084238188168
      ],
      [
        "▁структур",
        -9.522495751807355
      ],
      [
        "▁Под",
        -9.523375396319146
      ],
      [
        "▁находят",
        -9.523539273727415
      ],
      [
        "▁второй",
        -9.524698416658277
      ],
      [
        "▁занима",
        -9.525928919292001
      ],
      [
        "▁рынк",
        -9.526915323013144
      ],
      [
        "▁стало",
        -9.527083248723795
      ],
      [
        "Чтоб",
        -9.527503679515293
      ],
      [
        "▁обеспечени",
        -9.52792964856738
      ],
      [
        "▁здравоохранения",
        -9.528000372668231
      ],
      [
        "▁российски",
        -9.528107908479933
      ],
      [
        "▁решил",
        -9.528305817892226
      ],
      [
        "▁Российско",
        -9.52851146898462
      ],
      [
        "▁ведь",
        -9.528540075144722
      ],
      [
        "▁применения",
        -9.529085300560567
      ],
      [
        "▁правила",
        -9.529280089589996
      ],
      [
        "▁определенны",
        -9.529467376707581
      ],
      [
        "T",
        -9.529786921679595
      ],
      [
        "▁оружия",
        -9.530265782386495
      ],
      [
        "▁точно",
        -9.530695792079943
      ],
      [
        "▁собственно",
        -9.5312664165362
      ],
      [
        "▁Ю",
        -9.534067567532556
      ],
      [
        "что",
        -9.534097386482483
      ],
      [
        "▁внутри",
        -9.534404178801086
      ],
      [
        "▁анализ",
        -9.534860603329884
      ],
      [
        "▁дом",
        -9.535051397242947
      ],
      [
        "стр",
        -9.5354443198797
      ],
      [
        "E",
        -9.536347769080342
      ],
      [
        "en",
        -9.536722137885851
      ],
      [
        "▁H",
        -9.539504973636225
      ],
      [
        "знаешь",
        -9.540267291210622
      ],
      [
        "▁пользу",
        -9.541122484807962
      ],
      [
        "па",
        -9.541160365861426
      ],
      [
        "мимо",
        -9.541541191830186
      ],
      [
        "▁содержит",
        -9.54265040726486
      ],
      [
        "▁потом",
        -9.543377195675369
      ],
      [
        "▁электронно",
        -9.547254145845612
      ],
      [
        "▁Интернет",
        -9.547347888778706
      ],
      [
        "▁международной",
        -9.547356416143042
      ],
      [
        "доступа",
        -9.548085056105421
      ],
      [
        "▁Бог",
        -9.548143965148578
      ],
      [
        "▁прогресс",
        -9.54869354571975
      ],
      [
        "▁характер",
        -9.54964532738392
      ],
      [
        "▁пункта",
        -9.54975822084474
      ],
      [
        "▁предприятия",
        -9.550782412280952
      ],
      [
        "▁полно",
        -9.550824202250114
      ],
      [
        "▁Африк",
        -9.551817346444489
      ],
      [
        "бы",
        -9.553466805329977
      ],
      [
        "шел",
        -9.553941239414263
      ],
      [
        "ющего",
        -9.555341778118633
      ],
      [
        "ча",
        -9.555774228523754
      ],
      [
        "▁b",
        -9.556103633509283
      ],
      [
        "▁Господ",
        -9.55625863374653
      ],
      [
        "▁ответственность",
        -9.556517492071277
      ],
      [
        "точки",
        -9.556567451886597
      ],
      [
        "кажется",
        -9.556738659970552
      ],
      [
        "w",
        -9.556858809054813
      ],
      [
        "▁технологии",
        -9.557390622371768
      ],
      [
        "▁важны",
        -9.557434228687686
      ],
      [
        "▁значит",
        -9.56019965645867
      ],
      [
        "▁сторон",
        -9.560604466949691
      ],
      [
        "самых",
        -9.560884327608704
      ],
      [
        "▁техническо",
        -9.561356737110057
      ],
      [
        "le",
        -9.562084467786134
      ],
      [
        "здоровья",
        -9.562130759637265
      ],
      [
        "▁типа",
        -9.564377868366385
      ],
      [
        "▁пыта",
        -9.56514407618716
      ],
      [
        "ющихся",
        -9.566400757935591
      ],
      [
        "▁совет",
        -9.568553522819467
      ],
      [
        "▁большинств",
        -9.570493431720704
      ],
      [
        "▁ВИЧ",
        -9.570528887970402
      ],
      [
        "▁Штат",
        -9.571817601420506
      ],
      [
        "Ф",
        -9.571968936068366
      ],
      [
        "АО",
        -9.57377703249106
      ],
      [
        "▁Ни",
        -9.57379273863548
      ],
      [
        "кой",
        -9.57510438470518
      ],
      [
        "▁общи",
        -9.576193277187784
      ],
      [
        "▁положение",
        -9.577251035603448
      ],
      [
        "ному",
        -9.577445424958748
      ],
      [
        "▁очередь",
        -9.57792543901138
      ],
      [
        "▁to",
        -9.578101464930372
      ],
      [
        "▁используют",
        -9.578751908839157
      ],
      [
        "▁Соединенны",
        -9.57891340648075
      ],
      [
        "▁Казахстан",
        -9.579378077236237
      ],
      [
        "▁продукции",
        -9.579525854829624
      ],
      [
        "▁предоставляет",
        -9.580553292056196
      ],
      [
        "▁Сегодня",
        -9.580627678722669
      ],
      [
        "▁реформ",
        -9.581209646959195
      ],
      [
        "ро",
        -9.581220396713908
      ],
      [
        "ового",
        -9.581228706791478
      ],
      [
        "▁буду",
        -9.581778481635974
      ],
      [
        "вших",
        -9.582932601951008
      ],
      [
        "тому",
        -9.582935451611524
      ],
      [
        "▁разработки",
        -9.583304010387618
      ],
      [
        "самым",
        -9.584428188417435
      ],
      [
        "▁городе",
        -9.584830582946617
      ],
      [
        "▁видео",
        -9.585269778638585
      ],
      [
        "виду",
        -9.585272189809304
      ],
      [
        "it",
        -9.58605000301404
      ],
      [
        "m",
        -9.586539314286279
      ],
      [
        "▁общего",
        -9.58687136859838
      ],
      [
        "▁международным",
        -9.587301228238154
      ],
      [
        "будем",
        -9.587764424746675
      ],
      [
        "▁первой",
        -9.588594848625025
      ],
      [
        "мной",
        -9.589102640165615
      ],
      [
        "▁глаза",
        -9.590467438572155
      ],
      [
        "▁приняты",
        -9.590717923742991
      ],
      [
        "принятия",
        -9.592236666518012
      ],
      [
        "▁само",
        -9.592364826719017
      ],
      [
        "▁совершенно",
        -9.593164222676492
      ],
      [
        "▁стоимость",
        -9.594382303212491
      ],
      [
        "систему",
        -9.594952223283482
      ],
      [
        "ость",
        -9.595787074441443
      ],
      [
        "▁материалов",
        -9.595852778355574
      ],
      [
        "W",
        -9.596192050416644
      ],
      [
        "▁системе",
        -9.596269724975732
      ],
      [
        "одну",
        -9.596604032718275
      ],
      [
        "▁вопросу",
        -9.597018932864962
      ],
      [
        "▁проблема",
        -9.59742585750077
      ],
      [
        "▁народ",
        -9.597774131633805
      ],
      [
        "▁зависимост",
        -9.598015464616367
      ],
      [
        "▁Сторон",
        -9.599007599128038
      ],
      [
        "Украины",
        -9.599057888332657
      ],
      [
        "▁де",
        -9.59919433682637
      ],
      [
        "▁появи",
        -9.59949061587478
      ],
      [
        "▁внутренни",
        -9.599967632465438
      ],
      [
        "▁документов",
        -9.600164016903152
      ],
      [
        "▁широко",
        -9.600512219027499
      ],
      [
        "путь",
        -9.600912506684807
      ],
      [
        "▁энергии",
        -9.601297256988158
      ],
      [
        "▁организациям",
        -9.601946607033502
      ],
      [
        "▁возможностей",
        -9.602513053876438
      ],
      [
        "▁участия",
        -9.603035663445992
      ],
      [
        "▁сообщил",
        -9.603264347819648
      ],
      [
        "▁исследований",
        -9.60330915563136
      ],
      [
        "игры",
        -9.6053723743898
      ],
      [
        "▁сильно",
        -9.605847201711951
      ],
      [
        "нет",
        -9.606671828778605
      ],
      [
        "on",
        -9.608202170258206
      ],
      [
        "▁Комитета",
        -9.608764752776803
      ],
      [
        "можеш",
        -9.609060120783049
      ],
      [
        "▁встреча",
        -9.60917322807446
      ],
      [
        "ском",
        -9.610075790852811
      ],
      [
        "▁Просто",
        -9.611298109313662
      ],
      [
        "▁шаг",
        -9.611387179557477
      ],
      [
        "▁этап",
        -9.61277052364866
      ],
      [
        "могла",
        -9.613436950848376
      ],
      [
        "▁продуктов",
        -9.61355784705127
      ],
      [
        "▁языка",
        -9.614453697279043
      ],
      [
        "▁специальны",
        -9.615000347176723
      ],
      [
        "▁сектора",
        -9.616413863045402
      ],
      [
        "▁президент",
        -9.616640213064667
      ],
      [
        "▁предложения",
        -9.618610436438548
      ],
      [
        "▁объект",
        -9.620369302019025
      ],
      [
        "▁станет",
        -9.62071103864078
      ],
      [
        "F",
        -9.621387509714179
      ],
      [
        "▁Microsoft",
        -9.621546970403422
      ],
      [
        "▁экран",
        -9.621744266283944
      ],
      [
        "▁отношени",
        -9.621823683811554
      ],
      [
        "▁мало",
        -9.62196138500474
      ],
      [
        "вал",
        -9.622299633901871
      ],
      [
        "▁предоставлени",
        -9.624533985751283
      ],
      [
        "прежнему",
        -9.624661837818245
      ],
      [
        "▁числа",
        -9.62474412506048
      ],
      [
        "▁риск",
        -9.625205374985674
      ],
      [
        "▁верну",
        -9.62531787122663
      ],
      [
        "▁тут",
        -9.627102915461643
      ],
      [
        "▁говорить",
        -9.628398870137596
      ],
      [
        "▁участников",
        -9.628565972626706
      ],
      [
        "▁категори",
        -9.629503004891868
      ],
      [
        "▁отеля",
        -9.629938355444917
      ],
      [
        "шь",
        -9.630143758690695
      ],
      [
        "место",
        -9.630662597811007
      ],
      [
        "▁подобны",
        -9.63273726026802
      ],
      [
        "▁Потом",
        -9.632808484632571
      ],
      [
        "ист",
        -9.633756552832358
      ],
      [
        "▁границ",
        -9.634600432988337
      ],
      [
        "▁представителей",
        -9.635019484373636
      ],
      [
        "людьми",
        -9.635281478411514
      ],
      [
        "▁бассейн",
        -9.636984027180626
      ],
      [
        "овсем",
        -9.63749611084533
      ],
      [
        "▁примерно",
        -9.638392685115331
      ],
      [
        "дер",
        -9.640605255608667
      ],
      [
        "данной",
        -9.640961536096071
      ],
      [
        "or",
        -9.64109068109778
      ],
      [
        "▁успешно",
        -9.643583955679507
      ],
      [
        "чень",
        -9.643778619105769
      ],
      [
        "▁бизнеса",
        -9.644347501852943
      ],
      [
        "▁вклад",
        -9.645093856106032
      ],
      [
        "V",
        -9.64623179950482
      ],
      [
        "▁долл",
        -9.647443324466387
      ],
      [
        "▁состоянии",
        -9.64790160317975
      ],
      [
        "▁стала",
        -9.648302573180944
      ],
      [
        "Здесь",
        -9.64892866390915
      ],
      [
        "▁ядерно",
        -9.650054159891674
      ],
      [
        "▁усили",
        -9.651223026684677
      ],
      [
        "▁сектор",
        -9.65204790314434
      ],
      [
        "▁Федерации",
        -9.652188283431688
      ],
      [
        "▁руководство",
        -9.652425665322406
      ],
      [
        "▁твое",
        -9.652706533746121
      ],
      [
        "▁функции",
        -9.654115222086148
      ],
      [
        "▁институт",
        -9.65412748656368
      ],
      [
        "▁известно",
        -9.654457267719577
      ],
      [
        "▁миллионов",
        -9.654815932200508
      ],
      [
        "рынке",
        -9.655374696987243
      ],
      [
        "▁интерес",
        -9.655681682581976
      ],
      [
        "кор",
        -9.656455059169334
      ],
      [
        "▁годов",
        -9.657201636897303
      ],
      [
        "▁Некоторы",
        -9.657394503743511
      ],
      [
        "▁поле",
        -9.657478824722148
      ],
      [
        "▁выберите",
        -9.657670938645083
      ],
      [
        "▁хороши",
        -9.658543071556688
      ],
      [
        "▁ресторан",
        -9.660111726701814
      ],
      [
        "▁включает",
        -9.660520666966864
      ],
      [
        "▁становится",
        -9.661117075542645
      ],
      [
        "▁представить",
        -9.663622684347855
      ],
      [
        "▁документа",
        -9.663976770514632
      ],
      [
        "моя",
        -9.66454439898588
      ],
      [
        "R",
        -9.667037430794494
      ],
      [
        "тон",
        -9.66712839067876
      ],
      [
        "учи",
        -9.667402481770695
      ],
      [
        "▁ответственности",
        -9.667841446225756
      ],
      [
        "▁обеспечивает",
        -9.66907615859629
      ],
      [
        "▁потенциала",
        -9.669592520489287
      ],
      [
        "▁текст",
        -9.670033912750938
      ],
      [
        "▁самое",
        -9.671773916756127
      ],
      [
        "▁результатов",
        -9.671919072313573
      ],
      [
        "тобой",
        -9.672291573160892
      ],
      [
        "▁оборудования",
        -9.673189265521364
      ],
      [
        "▁сайт",
        -9.675407758436522
      ],
      [
        "вин",
        -9.675572397487832
      ],
      [
        "▁влияние",
        -9.676119651595966
      ],
      [
        "▁каждом",
        -9.676275668146042
      ],
      [
        "тель",
        -9.676602932839662
      ],
      [
        "▁суда",
        -9.677919638969337
      ],
      [
        "▁случи",
        -9.678129978190476
      ],
      [
        "▁лично",
        -9.678228169345012
      ],
      [
        "▁Был",
        -9.678661190864338
      ],
      [
        "▁стол",
        -9.681101093036423
      ],
      [
        "округ",
        -9.681138348734589
      ],
      [
        "члены",
        -9.681340753565625
      ],
      [
        "▁запрос",
        -9.681391924708528
      ],
      [
        "▁министр",
        -9.681673884137815
      ],
      [
        "овая",
        -9.681913963591457
      ],
      [
        "правительственны",
        -9.682170149695217
      ],
      [
        "▁самого",
        -9.68308618120265
      ],
      [
        "че",
        -9.683924455211521
      ],
      [
        "▁друга",
        -9.684120644744478
      ],
      [
        "▁мероприятия",
        -9.684331241941758
      ],
      [
        "▁вывод",
        -9.68445896018504
      ],
      [
        "▁контекст",
        -9.685031253447558
      ],
      [
        "об",
        -9.685425733000757
      ],
      [
        "&",
        -9.686451534484764
      ],
      [
        "▁мероприятий",
        -9.687170852287085
      ],
      [
        "▁культуры",
        -9.687227483492132
      ],
      [
        "▁кроме",
        -9.687445896313703
      ],
      [
        "▁научно",
        -9.687464978954749
      ],
      [
        "ости",
        -9.687736716045048
      ],
      [
        "▁мисси",
        -9.688064027853047
      ],
      [
        "▁наде",
        -9.688459994617642
      ],
      [
        "ньше",
        -9.689185404294626
      ],
      [
        "▁Европе",
        -9.68954328333352
      ],
      [
        "▁список",
        -9.690279827206961
      ],
      [
        "▁привел",
        -9.690463721668953
      ],
      [
        "ска",
        -9.690783350579439
      ],
      [
        "▁различные",
        -9.691612948088647
      ],
      [
        "▁наличи",
        -9.694226397578479
      ],
      [
        "какие",
        -9.694252911558406
      ],
      [
        "▁Ре",
        -9.695204272674152
      ],
      [
        "▁весь",
        -9.697383500280145
      ],
      [
        "данного",
        -9.697616613302332
      ],
      [
        "▁Комиссии",
        -9.697634077700016
      ],
      [
        "▁принимать",
        -9.698057454437047
      ],
      [
        "re",
        -9.698171616384933
      ],
      [
        "▁комитета",
        -9.69826217128913
      ],
      [
        "▁сред",
        -9.698561797423498
      ],
      [
        "▁видов",
        -9.700003332719032
      ],
      [
        "▁пользователей",
        -9.700102718962807
      ],
      [
        "▁установлен",
        -9.701327244473017
      ],
      [
        "ьте",
        -9.70206348522443
      ],
      [
        "▁находи",
        -9.70285729544418
      ],
      [
        "▁выбора",
        -9.704249948368561
      ],
      [
        "▁четыре",
        -9.70443238413846
      ],
      [
        "▁феврал",
        -9.70487954933484
      ],
      [
        "▁содействи",
        -9.70521451733338
      ],
      [
        "▁Нью",
        -9.705226470084309
      ],
      [
        "▁множество",
        -9.705796450566497
      ],
      [
        "стер",
        -9.706206823121141
      ],
      [
        "▁расходов",
        -9.707482729844315
      ],
      [
        "ель",
        -9.707614641466426
      ],
      [
        "знает",
        -9.707809108502827
      ],
      [
        "▁экономического",
        -9.708370360220602
      ],
      [
        "▁in",
        -9.709964249889605
      ],
      [
        "▁Иисус",
        -9.710110219815945
      ],
      [
        "▁Ирак",
        -9.713658396391853
      ],
      [
        "ятся",
        -9.713670984372305
      ],
      [
        "▁Боле",
        -9.715249655396368
      ],
      [
        "▁пресс",
        -9.715275041871012
      ],
      [
        "▁соответствующе",
        -9.71548960075885
      ],
      [
        "▁рук",
        -9.715604526781714
      ],
      [
        "▁ране",
        -9.715686998962767
      ],
      [
        "она",
        -9.71585726020526
      ],
      [
        "▁ра",
        -9.716900596973733
      ],
      [
        "▁женщины",
        -9.717137739246763
      ],
      [
        "▁сообщения",
        -9.717389467191207
      ],
      [
        "▁закона",
        -9.717631736965135
      ],
      [
        "▁экспорт",
        -9.717985100403927
      ],
      [
        "▁непосредственно",
        -9.718139955864233
      ],
      [
        "▁Грузи",
        -9.718433296909097
      ],
      [
        "▁осуществляет",
        -9.72001368088465
      ],
      [
        "▁двум",
        -9.721406420731237
      ],
      [
        "▁Server",
        -9.721536213372547
      ],
      [
        "▁финансовых",
        -9.721644944967062
      ],
      [
        "▁Ассамблеи",
        -9.721733688268975
      ],
      [
        "могут",
        -9.722414354572118
      ],
      [
        "▁тип",
        -9.722655223474609
      ],
      [
        "▁X",
        -9.724087069670851
      ],
      [
        "▁правило",
        -9.725878242523574
      ],
      [
        "▁государство",
        -9.725895947062087
      ],
      [
        "▁Тогда",
        -9.726032147402867
      ],
      [
        "▁нельзя",
        -9.726046736890826
      ],
      [
        "центр",
        -9.726394944865042
      ],
      [
        "▁Только",
        -9.72749175683352
      ],
      [
        "▁V",
        -9.727545454178092
      ],
      [
        "▁цвет",
        -9.728459265778076
      ],
      [
        "тор",
        -9.729107396460885
      ],
      [
        "▁заключает",
        -9.729862077342212
      ],
      [
        "▁Президент",
        -9.73059344183587
      ],
      [
        "▁пять",
        -9.731642472016274
      ],
      [
        "▁The",
        -9.731912005855227
      ],
      [
        "▁Пере",
        -9.732272787248043
      ],
      [
        "▁ре",
        -9.732448125837077
      ],
      [
        "▁роли",
        -9.734346226791347
      ],
      [
        "лет",
        -9.734429427880034
      ],
      [
        "▁независимо",
        -9.734687037493856
      ],
      [
        "▁компани",
        -9.735648270269484
      ],
      [
        "▁направлен",
        -9.73604241920214
      ],
      [
        "▁кнопку",
        -9.736289412089478
      ],
      [
        "ения",
        -9.737132379248749
      ],
      [
        "▁Об",
        -9.737151221153846
      ],
      [
        "ран",
        -9.737312262082616
      ],
      [
        "▁известны",
        -9.739861608069685
      ],
      [
        "▁ваше",
        -9.740824359579255
      ],
      [
        "▁включен",
        -9.7420177591567
      ],
      [
        "▁клиентов",
        -9.742982305773705
      ],
      [
        "бр",
        -9.74409901281973
      ],
      [
        "▁предложение",
        -9.74415582823571
      ],
      [
        "▁предприятий",
        -9.745079358593662
      ],
      [
        "▁Европейско",
        -9.746362646250937
      ],
      [
        "хочешь",
        -9.746425527195674
      ],
      [
        "фи",
        -9.746644677553673
      ],
      [
        "раз",
        -9.748942808334089
      ],
      [
        "▁будущем",
        -9.750657966246903
      ],
      [
        "▁сведения",
        -9.751298821123216
      ],
      [
        "▁ошибк",
        -9.75130839572723
      ],
      [
        "▁события",
        -9.751778270349622
      ],
      [
        "▁файлов",
        -9.752120785247248
      ],
      [
        "общей",
        -9.753219423402308
      ],
      [
        "▁эффективности",
        -9.753361493453836
      ],
      [
        "▁сфер",
        -9.753369417369601
      ],
      [
        "▁сотрудничество",
        -9.754236415975118
      ],
      [
        "▁повышения",
        -9.755645507989819
      ],
      [
        "▁жертв",
        -9.756334181785588
      ],
      [
        "▁процедур",
        -9.756924082134354
      ],
      [
        "▁положени",
        -9.757877809103492
      ],
      [
        "вашей",
        -9.757998573732168
      ],
      [
        "▁курс",
        -9.758199437594257
      ],
      [
        "весьма",
        -9.759713616803332
      ],
      [
        "скую",
        -9.760557603966202
      ],
      [
        "▁ситуация",
        -9.761013175864946
      ],
      [
        "▁центре",
        -9.762722583677698
      ],
      [
        "основном",
        -9.763357522612644
      ],
      [
        "ребенка",
        -9.763706255637576
      ],
      [
        "▁говорят",
        -9.764138807030163
      ],
      [
        "▁Инди",
        -9.76553168126154
      ],
      [
        "ца",
        -9.766516405344902
      ],
      [
        "▁соглашения",
        -9.766585440922514
      ],
      [
        "никто",
        -9.767651048588018
      ],
      [
        "▁регистрации",
        -9.76996016693696
      ],
      [
        "▁проверк",
        -9.769979485114424
      ],
      [
        "▁экспертов",
        -9.770276141906555
      ],
      [
        "▁существующи",
        -9.770334878320444
      ],
      [
        "Ш",
        -9.770609070795023
      ],
      [
        "▁успех",
        -9.771151356371906
      ],
      [
        "▁органа",
        -9.771556561401857
      ],
      [
        "остается",
        -9.771569880973562
      ],
      [
        "▁каким",
        -9.771994864599252
      ],
      [
        "▁готовы",
        -9.77428282577752
      ],
      [
        "▁посредством",
        -9.774952776279019
      ],
      [
        "▁дети",
        -9.775744399068993
      ],
      [
        "▁правильно",
        -9.776149935178843
      ],
      [
        "▁протяжени",
        -9.777226431656967
      ],
      [
        "▁частны",
        -9.777236789644329
      ],
      [
        "▁продолжать",
        -9.777294306053827
      ],
      [
        "h",
        -9.777547289364634
      ],
      [
        "▁процедуры",
        -9.77835264531529
      ],
      [
        "▁предмет",
        -9.77845991012371
      ],
      [
        "идет",
        -9.778555329837348
      ],
      [
        "стью",
        -9.77917460435448
      ],
      [
        "гг",
        -9.779881444245714
      ],
      [
        "▁Ваш",
        -9.780039141373575
      ],
      [
        "большое",
        -9.780770267771675
      ],
      [
        "▁движения",
        -9.781499749668187
      ],
      [
        "ше",
        -9.782572860194179
      ],
      [
        "▁бюджет",
        -9.782815529865585
      ],
      [
        "▁рыно",
        -9.783216225454204
      ],
      [
        "данном",
        -9.783810977462965
      ],
      [
        "▁Конечно",
        -9.783874427122573
      ],
      [
        "▁официально",
        -9.784083336669672
      ],
      [
        "▁качество",
        -9.78588763215093
      ],
      [
        "▁проведение",
        -9.787041156092153
      ],
      [
        "местных",
        -9.78708936092651
      ],
      [
        "Э",
        -9.787257447945542
      ],
      [
        "▁своими",
        -9.787744031627623
      ],
      [
        "жды",
        -9.78854434609495
      ],
      [
        "▁отдельны",
        -9.789345518314905
      ],
      [
        "▁первы",
        -9.789429649287024
      ],
      [
        "▁провел",
        -9.789591957578066
      ],
      [
        "вшие",
        -9.79036467959681
      ],
      [
        "▁плана",
        -9.791703903710344
      ],
      [
        "▁Ответ",
        -9.792111734296784
      ],
      [
        "el",
        -9.792886294384735
      ],
      [
        "@",
        -9.793890903693388
      ],
      [
        "▁пример",
        -9.793891556307488
      ],
      [
        "словам",
        -9.794633662890723
      ],
      [
        "вообще",
        -9.794966533499446
      ],
      [
        "▁приходит",
        -9.79624583135882
      ],
      [
        "▁рекомендации",
        -9.796607441456024
      ],
      [
        "▁долго",
        -9.79697553318715
      ],
      [
        "▁Иран",
        -9.797888084897014
      ],
      [
        "▁приложения",
        -9.797935113447995
      ],
      [
        "▁член",
        -9.79794271000517
      ],
      [
        "▁та",
        -9.798158992691315
      ],
      [
        "▁контроль",
        -9.798208349629112
      ],
      [
        "▁понять",
        -9.79958747170215
      ],
      [
        "▁Согласн",
        -9.799832607051918
      ],
      [
        "объектов",
        -9.799970381882835
      ],
      [
        "▁века",
        -9.800420841724744
      ],
      [
        "▁требования",
        -9.800978410199383
      ],
      [
        "▁сообщение",
        -9.80196301631653
      ],
      [
        "Ч",
        -9.803041473241791
      ],
      [
        "отеле",
        -9.804093984558952
      ],
      [
        "▁обязательств",
        -9.804892749655965
      ],
      [
        "▁финансово",
        -9.804991145885042
      ],
      [
        "▁правил",
        -9.806095512844534
      ],
      [
        "▁меню",
        -9.807935277119167
      ],
      [
        "▁гораздо",
        -9.808619109809346
      ],
      [
        "полне",
        -9.808909429363293
      ],
      [
        "начала",
        -9.810613654658335
      ],
      [
        "▁использованием",
        -9.810920043401195
      ],
      [
        "овать",
        -9.811437172006263
      ],
      [
        "▁политических",
        -9.81174662674028
      ],
      [
        "▁никако",
        -9.81244937901482
      ],
      [
        "▁форме",
        -9.81282824069817
      ],
      [
        "▁нефт",
        -9.812851238003645
      ],
      [
        "▁общин",
        -9.814121306262491
      ],
      [
        "▁Ла",
        -9.814186304241177
      ],
      [
        "базы",
        -9.81469558863956
      ],
      [
        "▁операций",
        -9.81486686813796
      ],
      [
        "туда",
        -9.815231114103051
      ],
      [
        "▁программно",
        -9.815309776910158
      ],
      [
        "▁модели",
        -9.816118171236257
      ],
      [
        "▁национальной",
        -9.816624207042219
      ],
      [
        "▁явля",
        -9.816688825291779
      ],
      [
        "▁работник",
        -9.816977452770335
      ],
      [
        "▁требует",
        -9.817309299544693
      ],
      [
        "▁адрес",
        -9.817386602722616
      ],
      [
        "гостей",
        -9.817760558226382
      ],
      [
        "действие",
        -9.819117660191415
      ],
      [
        "▁раздел",
        -9.819666946102283
      ],
      [
        "новым",
        -9.820261336906867
      ],
      [
        "▁Ли",
        -9.821294497333035
      ],
      [
        "▁проводить",
        -9.823874092113684
      ],
      [
        "▁пожалуйста",
        -9.824423797102714
      ],
      [
        "▁современны",
        -9.826071992270203
      ],
      [
        "▁Вас",
        -9.826380057084823
      ],
      [
        "▁значения",
        -9.826392072095729
      ],
      [
        "▁полици",
        -9.826783626402706
      ],
      [
        "провести",
        -9.826920390196694
      ],
      [
        "▁организация",
        -9.826936226348755
      ],
      [
        "▁одновременно",
        -9.827618496744128
      ],
      [
        "▁поиск",
        -9.828526953719614
      ],
      [
        "▁программу",
        -9.828758495108712
      ],
      [
        "▁Компания",
        -9.828790394782436
      ],
      [
        "▁час",
        -9.82881075100198
      ],
      [
        "▁Америки",
        -9.829076700576902
      ],
      [
        "▁внешне",
        -9.829580607611886
      ],
      [
        "▁масштаб",
        -9.830178715715682
      ],
      [
        "▁фонд",
        -9.830828875403542
      ],
      [
        "▁подобно",
        -9.830927785574966
      ],
      [
        "▁обучения",
        -9.831193310607043
      ],
      [
        "смерти",
        -9.831311802176693
      ],
      [
        "▁увидеть",
        -9.83286481683829
      ],
      [
        "бер",
        -9.833045063734234
      ],
      [
        "▁товаров",
        -9.834934459392487
      ],
      [
        "▁дополнительны",
        -9.835252333218834
      ],
      [
        "изменить",
        -9.835488059127377
      ],
      [
        "▁культур",
        -9.83588467182817
      ],
      [
        "▁народов",
        -9.836298743302146
      ],
      [
        "▁связанные",
        -9.836305886107276
      ],
      [
        "правда",
        -9.83659622878828
      ],
      [
        "первого",
        -9.836939594427838
      ],
      [
        "З",
        -9.83694329224096
      ],
      [
        "эн",
        -9.837948880033462
      ],
      [
        "Спасибо",
        -9.83844340410668
      ],
      [
        "▁скоре",
        -9.839011925264353
      ],
      [
        "▁главно",
        -9.840009516469664
      ],
      [
        "▁финансирования",
        -9.840821126661538
      ],
      [
        "Давай",
        -9.841348285712787
      ],
      [
        "▁открыто",
        -9.841750647959751
      ],
      [
        "лин",
        -9.842076852130052
      ],
      [
        "денег",
        -9.842084267172485
      ],
      [
        "▁развивающихся",
        -9.842741946219897
      ],
      [
        "▁оборудование",
        -9.843002473780848
      ],
      [
        "никаких",
        -9.843238688804336
      ],
      [
        "▁доклада",
        -9.84422786801508
      ],
      [
        "▁слово",
        -9.844404509140723
      ],
      [
        "али",
        -9.846628572798846
      ],
      [
        "▁странами",
        -9.847528971484387
      ],
      [
        "▁пяти",
        -9.847900604388983
      ],
      [
        "▁экономической",
        -9.848305318005242
      ],
      [
        "ставить",
        -9.85030435011534
      ],
      [
        "▁открыты",
        -9.851121178697639
      ],
      [
        "▁класс",
        -9.851123297845534
      ],
      [
        "ван",
        -9.851978068326803
      ],
      [
        "▁основани",
        -9.852751898263868
      ],
      [
        "▁страниц",
        -9.853523711230082
      ],
      [
        "▁позволит",
        -9.853831488347904
      ],
      [
        "▁поддерживает",
        -9.85413094045673
      ],
      [
        "▁плохо",
        -9.855507008182595
      ],
      [
        "вод",
        -9.855719883047886
      ],
      [
        "u",
        -9.856163436028698
      ],
      [
        "▁промышленности",
        -9.856270018361132
      ],
      [
        "▁довольно",
        -9.856321668512223
      ],
      [
        "▁готов",
        -9.856713293267235
      ],
      [
        "ден",
        -9.856902011834327
      ],
      [
        "▁устройства",
        -9.857571149002826
      ],
      [
        "нести",
        -9.857780479894704
      ],
      [
        "▁ресурсы",
        -9.857954166295652
      ],
      [
        "▁З",
        -9.858108771207291
      ],
      [
        "менно",
        -9.858435365150669
      ],
      [
        "▁данны",
        -9.858642402622273
      ],
      [
        "▁президента",
        -9.859431144999323
      ],
      [
        "▁самой",
        -9.85961756941009
      ],
      [
        "прошлом",
        -9.86035739484549
      ],
      [
        "▁направленны",
        -9.86050355447021
      ],
      [
        "▁записи",
        -9.86141438297626
      ],
      [
        "▁собственности",
        -9.861983314847311
      ],
      [
        "▁придет",
        -9.86232636056912
      ],
      [
        "▁услугам",
        -9.863332795753635
      ],
      [
        "▁Ш",
        -9.863992560653946
      ],
      [
        "▁сердце",
        -9.864158433419854
      ],
      [
        "▁насилия",
        -9.864261542425165
      ],
      [
        "▁труд",
        -9.86464913322866
      ],
      [
        "видеть",
        -9.864822640334513
      ],
      [
        "▁знания",
        -9.86499443030381
      ],
      [
        "▁Наш",
        -9.86518667839514
      ],
      [
        "▁молоды",
        -9.865697878100246
      ],
      [
        "▁народа",
        -9.86593053417955
      ],
      [
        "▁занимает",
        -9.866055451066579
      ],
      [
        "▁файла",
        -9.866228676080514
      ],
      [
        "▁требуется",
        -9.866355481811766
      ],
      [
        "▁думал",
        -9.866515075899969
      ],
      [
        "▁обязательно",
        -9.86673114184542
      ],
      [
        "ение",
        -9.867381238413312
      ],
      [
        "▁сбор",
        -9.868137102294494
      ],
      [
        "▁разделе",
        -9.868731551766228
      ],
      [
        "▁профессионально",
        -9.868947468260576
      ],
      [
        "▁c",
        -9.869365789500552
      ],
      [
        "▁странам",
        -9.870366666777294
      ],
      [
        "▁интереса",
        -9.870452673686424
      ],
      [
        "▁информационно",
        -9.871655272170845
      ],
      [
        "▁учреждений",
        -9.872350866087853
      ],
      [
        "▁ущерб",
        -9.872518147723547
      ],
      [
        "▁максимально",
        -9.872571490428486
      ],
      [
        "▁Многи",
        -9.873318831872545
      ],
      [
        "ген",
        -9.873941664578439
      ],
      [
        "▁Гд",
        -9.874873085058345
      ],
      [
        "ic",
        -9.874919767196577
      ],
      [
        "▁расходы",
        -9.878121151985962
      ],
      [
        "▁периода",
        -9.879447221431843
      ],
      [
        "▁инвестиций",
        -9.879762065254685
      ],
      [
        "Отель",
        -9.879995157778392
      ],
      [
        "знаете",
        -9.88129406123438
      ],
      [
        "ющая",
        -9.881421216735669
      ],
      [
        "▁международном",
        -9.882501870744408
      ],
      [
        "Затем",
        -9.882776511595399
      ],
      [
        "▁отмечает",
        -9.883549744253212
      ],
      [
        "▁должност",
        -9.883771511940491
      ],
      [
        "ногда",
        -9.88491909524183
      ],
      [
        "▁Мож",
        -9.88570792155279
      ],
      [
        "нимания",
        -9.88611882078715
      ],
      [
        "▁представители",
        -9.886227351706626
      ],
      [
        "X",
        -9.887252931037363
      ],
      [
        "▁шесть",
        -9.88765508289706
      ],
      [
        "▁персонала",
        -9.887941282737586
      ],
      [
        "▁Ваше",
        -9.887988345269406
      ],
      [
        "▁сын",
        -9.88866558743278
      ],
      [
        "▁торговы",
        -9.889562409945956
      ],
      [
        "▁вещи",
        -9.889987995718162
      ],
      [
        "▁сотрудник",
        -9.890163988481223
      ],
      [
        "▁образование",
        -9.890913907322993
      ],
      [
        "“",
        -9.891252430602815
      ],
      [
        "es",
        -9.891524118906045
      ],
      [
        "▁евро",
        -9.891894158974743
      ],
      [
        "▁принимает",
        -9.892450632628336
      ],
      [
        "▁Бога",
        -9.892483910363902
      ],
      [
        "ство",
        -9.892922073876564
      ],
      [
        "▁эффективно",
        -9.893441480104816
      ],
      [
        "▁обязательства",
        -9.893448468595599
      ],
      [
        "▁местно",
        -9.893686141966906
      ],
      [
        "▁университет",
        -9.894336768254803
      ],
      [
        "▁операции",
        -9.894981939352226
      ],
      [
        "▁возможны",
        -9.895381737731801
      ],
      [
        "▁медицинско",
        -9.895473673286713
      ],
      [
        "▁выход",
        -9.895554390312636
      ],
      [
        "▁Услуг",
        -9.896205334318651
      ],
      [
        "▁статус",
        -9.896250609427259
      ],
      [
        "▁цены",
        -9.896420991031517
      ],
      [
        "▁пользователя",
        -9.89690934757075
      ],
      [
        "▁использовании",
        -9.897125699107356
      ],
      [
        "смотреть",
        -9.898418755038922
      ],
      [
        "▁последствия",
        -9.899141713457448
      ],
      [
        "▁Возможно",
        -9.900148432568496
      ],
      [
        "▁реально",
        -9.900325816780981
      ],
      [
        "▁гор",
        -9.900345383101785
      ],
      [
        "▁оказал",
        -9.901150089965373
      ],
      [
        "▁Южно",
        -9.901201843079104
      ],
      [
        "▁размере",
        -9.901216071155202
      ],
      [
        "▁любом",
        -9.901427564851605
      ],
      [
        "▁сайта",
        -9.901658434601568
      ],
      [
        "▁сообщества",
        -9.90207475659604
      ],
      [
        "ряд",
        -9.902091212638371
      ],
      [
        "ar",
        -9.9027485228324
      ],
      [
        "▁линии",
        -9.903503947979376
      ],
      [
        "▁Республика",
        -9.903587384463755
      ],
      [
        "оружие",
        -9.904289872865396
      ],
      [
        "▁игрок",
        -9.904362762812077
      ],
      [
        "▁состояние",
        -9.904571984881425
      ],
      [
        "▁доби",
        -9.905108202296402
      ],
      [
        "▁обслуживания",
        -9.906206229259023
      ],
      [
        "под",
        -9.906244578656686
      ],
      [
        "▁Всемирно",
        -9.9065994075433
      ],
      [
        "▁Турци",
        -9.906840287652592
      ],
      [
        "▁сохранени",
        -9.908794337591136
      ],
      [
        "▁трудно",
        -9.909468714592556
      ],
      [
        "▁вопроса",
        -9.909556780049243
      ],
      [
        "▁Республик",
        -9.910751152754646
      ],
      [
        "▁таблиц",
        -9.911658867484867
      ],
      [
        "▁интеграци",
        -9.911713213676052
      ],
      [
        "▁производство",
        -9.912352034693884
      ],
      [
        "начать",
        -9.913057242984607
      ],
      [
        "▁областя",
        -9.914244755839553
      ],
      [
        "I",
        -9.91447571855258
      ],
      [
        "зна",
        -9.914521061705965
      ],
      [
        "▁пакет",
        -9.916599692671104
      ],
      [
        "питания",
        -9.917639856208389
      ],
      [
        "▁Нам",
        -9.918535995487076
      ],
      [
        "ства",
        -9.919115108049164
      ],
      [
        "цев",
        -9.920091873703214
      ],
      [
        "▁O",
        -9.920281664560807
      ],
      [
        "▁памяти",
        -9.92035474511024
      ],
      [
        "▁сама",
        -9.92125992453166
      ],
      [
        "людям",
        -9.921873735852841
      ],
      [
        "▁едино",
        -9.921912271596696
      ],
      [
        "▁природ",
        -9.922347785622632
      ],
      [
        "▁заседани",
        -9.922905384744555
      ],
      [
        "▁код",
        -9.92314444190939
      ],
      [
        "▁отсутствие",
        -9.923529402838081
      ],
      [
        "держать",
        -9.923617756820532
      ],
      [
        "основные",
        -9.923732542126253
      ],
      [
        "▁определения",
        -9.924782146854806
      ],
      [
        "▁осуществление",
        -9.925464753175685
      ],
      [
        "▁серьезны",
        -9.925821299611393
      ],
      [
        "▁обмен",
        -9.925863711246357
      ],
      [
        "▁применение",
        -9.926017727976767
      ],
      [
        "▁доступны",
        -9.927511893619965
      ],
      [
        "▁законодательств",
        -9.92845713834887
      ],
      [
        "▁норм",
        -9.929113177406553
      ],
      [
        "▁работал",
        -9.9299626607428
      ],
      [
        "▁другого",
        -9.931305515041574
      ],
      [
        "вар",
        -9.931317750695879
      ],
      [
        "тен",
        -9.931423703960524
      ],
      [
        "казать",
        -9.931553848554143
      ],
      [
        "емых",
        -9.933988085412096
      ],
      [
        "▁нужда",
        -9.935331314214078
      ],
      [
        "пер",
        -9.936102533754504
      ],
      [
        "▁Ха",
        -9.936773369138447
      ],
      [
        "▁II",
        -9.938209160601325
      ],
      [
        "▁ту",
        -9.938323908707524
      ],
      [
        "▁определить",
        -9.938404902685864
      ],
      [
        "▁требованиям",
        -9.938452325484509
      ],
      [
        "ведет",
        -9.939399033210115
      ],
      [
        "▁анализа",
        -9.939572942186942
      ],
      [
        "три",
        -9.940172260486431
      ],
      [
        "▁взял",
        -9.941032554588705
      ],
      [
        "▁район",
        -9.94107897577149
      ],
      [
        "▁всеми",
        -9.941093220468687
      ],
      [
        "сайте",
        -9.941773591106958
      ],
      [
        "▁изучени",
        -9.941888225821149
      ],
      [
        "▁поиска",
        -9.942855305877735
      ],
      [
        "▁ясно",
        -9.944250792869369
      ],
      [
        "воду",
        -9.944754135400464
      ],
      [
        "▁исключением",
        -9.945900639748842
      ],
      [
        "▁общество",
        -9.945918731667636
      ],
      [
        "▁продолжает",
        -9.946648503093328
      ],
      [
        "▁учебны",
        -9.946869604225379
      ],
      [
        "▁стандарт",
        -9.94695022899192
      ],
      [
        "un",
        -9.947498512794034
      ],
      [
        "стро",
        -9.948641095042312
      ],
      [
        "нный",
        -9.949178940886652
      ],
      [
        "▁месяц",
        -9.949921441837521
      ],
      [
        "▁поддержке",
        -9.950534525683793
      ],
      [
        "▁призывает",
        -9.951065476763677
      ],
      [
        "▁рекомендаци",
        -9.95109738742354
      ],
      [
        "▁дополнительно",
        -9.95119266251917
      ],
      [
        "▁момента",
        -9.951815221486658
      ],
      [
        "▁взгляд",
        -9.952081933717096
      ],
      [
        "▁произошл",
        -9.952385249522134
      ],
      [
        "др",
        -9.952876491661506
      ],
      [
        "▁жить",
        -9.952897460809323
      ],
      [
        "▁море",
        -9.95415549354221
      ],
      [
        "▁полной",
        -9.954607177807908
      ],
      [
        "▁тыс",
        -9.955207928592882
      ],
      [
        "▁определенно",
        -9.955289670057141
      ],
      [
        "ющей",
        -9.956317769545274
      ],
      [
        "шего",
        -9.956921123320276
      ],
      [
        "▁больш",
        -9.95705538819379
      ],
      [
        "▁Александр",
        -9.957153818265304
      ],
      [
        "▁Армени",
        -9.958416943093624
      ],
      [
        "▁понял",
        -9.960120529615253
      ],
      [
        "▁комната",
        -9.960195433838813
      ],
      [
        "ly",
        -9.962074259438925
      ],
      [
        "▁Там",
        -9.962548297948482
      ],
      [
        "▁газа",
        -9.962615131232695
      ],
      [
        "мет",
        -9.963803693696335
      ],
      [
        "▁магазин",
        -9.96402707929192
      ],
      [
        "▁земле",
        -9.964185843464199
      ],
      [
        "▁автомобиле",
        -9.96463963027728
      ],
      [
        "▁выбрать",
        -9.964868927424543
      ],
      [
        "▁сотрудничеств",
        -9.9651778259965
      ],
      [
        "▁Те",
        -9.965538748949083
      ],
      [
        "▁мо",
        -9.965994592226934
      ],
      [
        "▁потенциал",
        -9.966171358365258
      ],
      [
        "▁СМИ",
        -9.966578745329487
      ],
      [
        "▁невозможно",
        -9.96696279517417
      ],
      [
        "▁Пол",
        -9.968866189874877
      ],
      [
        "▁безопасность",
        -9.969263276088725
      ],
      [
        "тан",
        -9.969301563809797
      ],
      [
        "▁площад",
        -9.96936374672979
      ],
      [
        "▁фильм",
        -9.969855044095212
      ],
      [
        "бежать",
        -9.96993150148884
      ],
      [
        "▁сообщени",
        -9.970144017506069
      ],
      [
        "лицо",
        -9.970609259187341
      ],
      [
        "”",
        -9.9718059781651
      ],
      [
        "▁рекомендует",
        -9.972331831840442
      ],
      [
        "ски",
        -9.97259120778602
      ],
      [
        "▁Зна",
        -9.97355547233551
      ],
      [
        "жалуйста",
        -9.973780924415985
      ],
      [
        "▁недавно",
        -9.973993218972836
      ],
      [
        "▁источник",
        -9.974142276271252
      ],
      [
        "ским",
        -9.974243250148476
      ],
      [
        "▁банка",
        -9.974675311554865
      ],
      [
        "▁куда",
        -9.974718780882247
      ],
      [
        "▁следующих",
        -9.975025816183708
      ],
      [
        "▁Други",
        -9.975035870154768
      ],
      [
        "бор",
        -9.976396007334241
      ],
      [
        "▁Благодар",
        -9.976398151831125
      ],
      [
        "▁Ц",
        -9.976533069854163
      ],
      [
        "▁соответствующим",
        -9.976855942475698
      ],
      [
        "▁Ка",
        -9.97718387308548
      ],
      [
        "▁представления",
        -9.977319954119029
      ],
      [
        "▁набор",
        -9.977586597378028
      ],
      [
        "знаем",
        -9.97866168610081
      ],
      [
        "▁считают",
        -9.978729394271813
      ],
      [
        "▁символ",
        -9.979354217581193
      ],
      [
        "ают",
        -9.979611389600485
      ],
      [
        "th",
        -9.98083896018948
      ],
      [
        "▁остальны",
        -9.981100759337755
      ],
      [
        "▁политика",
        -9.981225292110931
      ],
      [
        "бл",
        -9.981958898260618
      ],
      [
        "▁принято",
        -9.983712302693748
      ],
      [
        "думать",
        -9.983769316293026
      ],
      [
        "▁источников",
        -9.984688405754806
      ],
      [
        "▁Ко",
        -9.985086383205612
      ],
      [
        "▁рек",
        -9.9855404872701
      ],
      [
        "▁глав",
        -9.985874896207097
      ],
      [
        "▁установить",
        -9.98852904112935
      ],
      [
        "куда",
        -9.990192840440976
      ],
      [
        "▁газет",
        -9.990726663144743
      ],
      [
        "at",
        -9.991968006261214
      ],
      [
        "▁Сан",
        -9.992083110895074
      ],
      [
        "лов",
        -9.992385352509274
      ],
      [
        "▁приоритет",
        -9.992491802857236
      ],
      [
        "▁кризис",
        -9.992689482364622
      ],
      [
        "▁политической",
        -9.992732156442477
      ],
      [
        "▁заявление",
        -9.992842642194343
      ],
      [
        "столько",
        -9.993161489734744
      ],
      [
        "▁канал",
        -9.993313819251503
      ],
      [
        "сможет",
        -9.993381034623772
      ],
      [
        "ch",
        -9.993587354004365
      ],
      [
        "▁класса",
        -9.993849440774275
      ],
      [
        "▁ключевы",
        -9.993863917032268
      ],
      [
        "▁глубоко",
        -9.994657169761634
      ],
      [
        "▁начинает",
        -9.994913234865365
      ],
      [
        "дальше",
        -9.994954176730062
      ],
      [
        "▁исключительно",
        -9.995152150419646
      ],
      [
        "▁позволил",
        -9.996140479300369
      ],
      [
        "▁приложение",
        -9.996523542064569
      ],
      [
        "ует",
        -9.996615653167595
      ],
      [
        "▁создан",
        -9.997563172569677
      ],
      [
        "истории",
        -9.997614088151103
      ],
      [
        "домой",
        -9.99766996947708
      ],
      [
        "▁Лад",
        -9.998470706986357
      ],
      [
        "ирование",
        -9.998490980731287
      ],
      [
        "▁игр",
        -9.999043856321894
      ],
      [
        "▁текуще",
        -9.999085134720868
      ],
      [
        "▁особенност",
        -9.99909175457942
      ],
      [
        "мин",
        -9.99909619808404
      ],
      [
        "ющее",
        -9.999522506902652
      ],
      [
        "▁Ма",
        -10.001019399344592
      ],
      [
        "ситуации",
        -10.001252864511958
      ],
      [
        "▁плане",
        -10.001301839205599
      ],
      [
        "▁J",
        -10.001449742350403
      ],
      [
        "Fi",
        -10.001603888551053
      ],
      [
        "▁Путин",
        -10.002843436089755
      ],
      [
        "▁анти",
        -10.003790078526219
      ],
      [
        "▁национального",
        -10.003973924165377
      ],
      [
        "▁воз",
        -10.004308542908609
      ],
      [
        "▁событий",
        -10.005004775912532
      ],
      [
        "▁Ник",
        -10.0053249642713
      ],
      [
        "▁повод",
        -10.00576093863846
      ],
      [
        "▁совета",
        -10.007220176792526
      ],
      [
        "зже",
        -10.007393435459758
      ],
      [
        "▁проводит",
        -10.008443580440726
      ],
      [
        "▁удалось",
        -10.008543204361962
      ],
      [
        "ющий",
        -10.008856531237093
      ],
      [
        "ши",
        -10.010317705765269
      ],
      [
        "▁основ",
        -10.010350722401554
      ],
      [
        "▁играть",
        -10.010506380047492
      ],
      [
        "▁зависит",
        -10.010639481169392
      ],
      [
        "▁мистер",
        -10.010843376571403
      ],
      [
        "▁количества",
        -10.01255918176847
      ],
      [
        "гр",
        -10.012716714832708
      ],
      [
        "▁Кажды",
        -10.013045306549055
      ],
      [
        "▁региональных",
        -10.014030227076375
      ],
      [
        "▁списк",
        -10.01416988776979
      ],
      [
        "▁Председатель",
        -10.01446620364737
      ],
      [
        "▁кампани",
        -10.014546070325808
      ],
      [
        "▁власть",
        -10.015721178714717
      ],
      [
        "▁серьезно",
        -10.016048346402606
      ],
      [
        "стра",
        -10.016757210948862
      ],
      [
        "▁просьб",
        -10.016847508869759
      ],
      [
        "▁слышал",
        -10.016937161805199
      ],
      [
        "▁обраща",
        -10.017331247066117
      ],
      [
        "▁столь",
        -10.018115510956436
      ],
      [
        "другом",
        -10.018269138854901
      ],
      [
        "овый",
        -10.018589454476668
      ],
      [
        "▁вне",
        -10.019071889244541
      ],
      [
        "сеть",
        -10.019253844747489
      ],
      [
        "▁поддержани",
        -10.01949065830894
      ],
      [
        "▁автоматически",
        -10.019881820761398
      ],
      [
        "▁большим",
        -10.020120122999408
      ],
      [
        "▁дале",
        -10.02139684653223
      ],
      [
        "▁Проект",
        -10.021467430061886
      ],
      [
        "▁Поскольку",
        -10.022055081844584
      ],
      [
        "▁важн",
        -10.023243210993279
      ],
      [
        "▁обрати",
        -10.023417646489367
      ],
      [
        "▁стоимости",
        -10.023609544887993
      ],
      [
        "ирует",
        -10.023662618335958
      ],
      [
        "Германии",
        -10.023841314372971
      ],
      [
        "org",
        -10.024572400023548
      ],
      [
        "▁предварительно",
        -10.025227730822497
      ],
      [
        "▁достижени",
        -10.026557555208825
      ],
      [
        "▁насколько",
        -10.026595504843732
      ],
      [
        "▁возраст",
        -10.026608496581396
      ],
      [
        "▁ПО",
        -10.02695847082187
      ],
      [
        "▁Китай",
        -10.027475026424613
      ],
      [
        "нравитс",
        -10.027754275135178
      ],
      [
        "▁дискриминации",
        -10.027773164550744
      ],
      [
        "▁заинтересованны",
        -10.029933816268361
      ],
      [
        "ников",
        -10.030069513088035
      ],
      [
        "▁принадлежност",
        -10.030100327308418
      ],
      [
        "следующий",
        -10.030872263629977
      ],
      [
        "вор",
        -10.031072229554983
      ],
      [
        "▁пришло",
        -10.0313210639585
      ],
      [
        "▁Или",
        -10.031663699970132
      ],
      [
        "▁конфликт",
        -10.031875038216361
      ],
      [
        "▁оказани",
        -10.031916751912947
      ],
      [
        "▁последне",
        -10.032688038304713
      ],
      [
        "▁получает",
        -10.032707705614111
      ],
      [
        "говорить",
        -10.032794889277756
      ],
      [
        "главным",
        -10.03289857835652
      ],
      [
        "▁обратно",
        -10.033260794757267
      ],
      [
        "▁кон",
        -10.033385075776156
      ],
      [
        "▁обязан",
        -10.033633599654362
      ],
      [
        "▁первом",
        -10.034234414802311
      ],
      [
        "▁Вмест",
        -10.034519985354358
      ],
      [
        "▁рода",
        -10.034528916334743
      ],
      [
        "▁РФ",
        -10.035371742987834
      ],
      [
        "рез",
        -10.035419756234266
      ],
      [
        "▁бюджета",
        -10.035861313720444
      ],
      [
        "▁союз",
        -10.036945361323353
      ],
      [
        "▁планировани",
        -10.037229142596852
      ],
      [
        "▁фактически",
        -10.038432579793428
      ],
      [
        "ирования",
        -10.038889312448218
      ],
      [
        "▁экономических",
        -10.038996697388006
      ],
      [
        "▁обзор",
        -10.039301558926528
      ],
      [
        "имеющих",
        -10.039308447187942
      ],
      [
        "▁настоящего",
        -10.040348444237786
      ],
      [
        "▁дальнейше",
        -10.04055236151428
      ],
      [
        "▁Аллаха",
        -10.041427040449062
      ],
      [
        "▁Международно",
        -10.041801250278978
      ],
      [
        "▁состояния",
        -10.041990982888503
      ],
      [
        "партии",
        -10.042375865045056
      ],
      [
        "▁персонал",
        -10.042870854129543
      ],
      [
        "▁развиты",
        -10.043180697990831
      ],
      [
        "новую",
        -10.045289958890898
      ],
      [
        "▁коренны",
        -10.045384219242214
      ],
      [
        "▁новост",
        -10.045676116487112
      ],
      [
        "▁внутренне",
        -10.045961255359265
      ],
      [
        "▁шанс",
        -10.045999362359261
      ],
      [
        "бар",
        -10.046204777895184
      ],
      [
        "▁оборон",
        -10.046487405772256
      ],
      [
        "▁производительно",
        -10.04660440668805
      ],
      [
        "▁комиссии",
        -10.047210208495482
      ],
      [
        "▁Де",
        -10.047399379976328
      ],
      [
        "\\",
        -10.047886783326089
      ],
      [
        "▁взнос",
        -10.047897329228935
      ],
      [
        "отметить",
        -10.048298913095088
      ],
      [
        "▁Ар",
        -10.048315793799437
      ],
      [
        "▁перспектив",
        -10.048954021093708
      ],
      [
        "▁Раз",
        -10.049294430216444
      ],
      [
        "▁протокол",
        -10.049841362695744
      ],
      [
        "▁модель",
        -10.051175086239956
      ],
      [
        "ходить",
        -10.051199719319136
      ],
      [
        "рен",
        -10.051407134347695
      ],
      [
        "▁учены",
        -10.051763527427282
      ],
      [
        "▁конфликта",
        -10.052671755524752
      ],
      [
        "▁главны",
        -10.054694078729714
      ],
      [
        "▁контакт",
        -10.054820389172447
      ],
      [
        "вед",
        -10.055109795617856
      ],
      [
        "▁прибыл",
        -10.055457632180811
      ],
      [
        "создании",
        -10.05587216836751
      ],
      [
        "▁точк",
        -10.055918237061983
      ],
      [
        "▁собира",
        -10.05656473900737
      ],
      [
        "ста",
        -10.05673714256757
      ],
      [
        "▁рассмотрения",
        -10.057561906832088
      ],
      [
        "ход",
        -10.057572047133595
      ],
      [
        "▁тела",
        -10.058109503079141
      ],
      [
        "речь",
        -10.05849971492389
      ],
      [
        "нул",
        -10.058715592322681
      ],
      [
        "▁Wi",
        -10.058718758684597
      ],
      [
        "▁свободно",
        -10.058738345732241
      ],
      [
        "отец",
        -10.0594768251862
      ],
      [
        "▁Один",
        -10.059688798236774
      ],
      [
        "z",
        -10.060669169101853
      ],
      [
        "▁строительства",
        -10.062235766209689
      ],
      [
        "▁следующим",
        -10.062643330298098
      ],
      [
        "мировой",
        -10.064024933711368
      ],
      [
        "▁месяца",
        -10.064540436591066
      ],
      [
        "▁Канад",
        -10.068028192481275
      ],
      [
        "▁выставк",
        -10.068029010952053
      ],
      [
        "▁Конференции",
        -10.068285922990452
      ],
      [
        "id",
        -10.068806043828097
      ],
      [
        "▁Пока",
        -10.069521824819207
      ],
      [
        "аль",
        -10.069886202415587
      ],
      [
        "▁нужны",
        -10.070314408796465
      ],
      [
        "▁игра",
        -10.070997580108575
      ],
      [
        "ника",
        -10.071068145511616
      ],
      [
        "▁слов",
        -10.071150049340098
      ],
      [
        "▁Группа",
        -10.07210600563587
      ],
      [
        "работают",
        -10.072448202776258
      ],
      [
        "▁показал",
        -10.072506732332355
      ],
      [
        "▁банк",
        -10.073391927425604
      ],
      [
        "прав",
        -10.073637643764902
      ],
      [
        "▁создал",
        -10.073820457115463
      ],
      [
        "▁дополнительные",
        -10.073965175972054
      ],
      [
        "▁ликвидаци",
        -10.07454861224355
      ],
      [
        "▁Re",
        -10.075213677935164
      ],
      [
        "ция",
        -10.075812325230363
      ],
      [
        "▁воздух",
        -10.076935134864824
      ],
      [
        "▁церкв",
        -10.078242663793159
      ],
      [
        "▁Статья",
        -10.078262197583358
      ],
      [
        "род",
        -10.078572415539277
      ],
      [
        "▁утра",
        -10.078729075185747
      ],
      [
        "▁связь",
        -10.079100536321253
      ],
      [
        "▁программе",
        -10.079138466101512
      ],
      [
        "пл",
        -10.079862747835499
      ],
      [
        "сел",
        -10.079978889713473
      ],
      [
        "▁профессиональны",
        -10.079990212242539
      ],
      [
        "нос",
        -10.080215605894981
      ],
      [
        "учить",
        -10.080481259883403
      ],
      [
        "▁копи",
        -10.08124608533021
      ],
      [
        "▁официальны",
        -10.0820328229379
      ],
      [
        "▁пост",
        -10.082108023249692
      ],
      [
        "▁предоставить",
        -10.082149501182958
      ],
      [
        "▁разрешения",
        -10.082508618988555
      ],
      [
        "▁создает",
        -10.083395881121614
      ],
      [
        "▁представитель",
        -10.08405734179304
      ],
      [
        "▁Ло",
        -10.084757459019258
      ],
      [
        "▁дорог",
        -10.084988678043135
      ],
      [
        "▁кажд",
        -10.085238322772375
      ],
      [
        "▁бес",
        -10.086054775096608
      ],
      [
        "▁четырех",
        -10.086539240119876
      ],
      [
        "любовь",
        -10.08683453432495
      ],
      [
        "ССР",
        -10.088514809268894
      ],
      [
        "▁офис",
        -10.088589390679116
      ],
      [
        "▁заседания",
        -10.088714687538316
      ],
      [
        "первые",
        -10.088880016706483
      ],
      [
        "▁климата",
        -10.088983875086857
      ],
      [
        "▁объекта",
        -10.089194077851253
      ],
      [
        "▁брат",
        -10.091189355191759
      ],
      [
        "▁техник",
        -10.091642061292383
      ],
      [
        "дел",
        -10.091762732072594
      ],
      [
        "▁ради",
        -10.092096864514975
      ],
      [
        "вший",
        -10.09241972232622
      ],
      [
        "▁Первы",
        -10.093183491775996
      ],
      [
        "se",
        -10.094173964626686
      ],
      [
        "▁образ",
        -10.094584668693214
      ],
      [
        "▁акций",
        -10.095554268338958
      ],
      [
        "ужен",
        -10.095885287106405
      ],
      [
        "▁судебно",
        -10.096015763149428
      ],
      [
        "▁эффективны",
        -10.09632959995744
      ],
      [
        "▁начало",
        -10.096944482574528
      ],
      [
        "▁выполнять",
        -10.09699516746895
      ],
      [
        "основной",
        -10.097568375406537
      ],
      [
        "▁фонда",
        -10.098097414727551
      ],
      [
        "миру",
        -10.09833109105627
      ],
      [
        "▁конца",
        -10.099079108312415
      ],
      [
        "включают",
        -10.099450734268048
      ],
      [
        "▁удар",
        -10.099452109382876
      ],
      [
        "ir",
        -10.099861023079502
      ],
      [
        "ируют",
        -10.099890830631757
      ],
      [
        "▁твои",
        -10.099997301408123
      ],
      [
        "▁верси",
        -10.101006833096058
      ],
      [
        "▁конвенци",
        -10.101281165963677
      ],
      [
        "нер",
        -10.10173758069274
      ],
      [
        "▁сторону",
        -10.10211590835796
      ],
      [
        "▁Председателя",
        -10.10251534433224
      ],
      [
        "▁процента",
        -10.102913928926492
      ],
      [
        "▁журналист",
        -10.10326700059658
      ],
      [
        "▁вес",
        -10.103545632011667
      ],
      [
        "▁Восток",
        -10.104221628821914
      ],
      [
        "созданию",
        -10.104322895455192
      ],
      [
        "▁говоря",
        -10.10476656664715
      ],
      [
        "▁отношение",
        -10.10581529282759
      ],
      [
        "▁команды",
        -10.105953634364514
      ],
      [
        "▁баз",
        -10.106259359008748
      ],
      [
        "▁вероятно",
        -10.106439064874781
      ],
      [
        "▁Х",
        -10.10677015638479
      ],
      [
        "знаний",
        -10.106890575300877
      ],
      [
        "▁умолчанию",
        -10.10693830269619
      ],
      [
        "▁показател",
        -10.107041811264853
      ],
      [
        "районе",
        -10.107671530799418
      ],
      [
        "▁рука",
        -10.107748907937584
      ],
      [
        "▁связ",
        -10.10849272934243
      ],
      [
        "кан",
        -10.109544057120885
      ],
      [
        "▁гражданского",
        -10.109806854578432
      ],
      [
        "чин",
        -10.110773454353145
      ],
      [
        "▁семей",
        -10.110851288761912
      ],
      [
        "▁конкретно",
        -10.112162155453833
      ],
      [
        "идти",
        -10.112244378897717
      ],
      [
        "▁Суд",
        -10.112423191624309
      ],
      [
        "инг",
        -10.11285327728828
      ],
      [
        "поможет",
        -10.112944328567124
      ],
      [
        "▁часа",
        -10.113810018614164
      ],
      [
        "▁учреждения",
        -10.114086973817471
      ],
      [
        "▁поддерживать",
        -10.114354017095105
      ],
      [
        "▁существенно",
        -10.11553117533778
      ],
      [
        "▁четко",
        -10.117397678199637
      ],
      [
        "▁водо",
        -10.11740300679458
      ],
      [
        "▁остров",
        -10.117523889030128
      ],
      [
        "▁компонент",
        -10.117693623200552
      ],
      [
        "▁получили",
        -10.119043902947013
      ],
      [
        "▁предотвращени",
        -10.119703307145114
      ],
      [
        "▁комнат",
        -10.119808151354542
      ],
      [
        "▁Правительство",
        -10.11995265832183
      ],
      [
        "▁увеличение",
        -10.120602602796875
      ],
      [
        "▁семинар",
        -10.12124610736478
      ],
      [
        "▁составил",
        -10.121288323433692
      ],
      [
        "▁повышение",
        -10.12134425885208
      ],
      [
        "ское",
        -10.122540089072352
      ],
      [
        "▁хозяйства",
        -10.122775600756702
      ],
      [
        "воз",
        -10.123292701913456
      ],
      [
        "▁расширения",
        -10.123512507373867
      ],
      [
        "участник",
        -10.123946622304876
      ],
      [
        "▁Итак",
        -10.124069541667456
      ],
      [
        "▁зон",
        -10.124521908278265
      ],
      [
        "▁проблемам",
        -10.125110064658836
      ],
      [
        "ur",
        -10.125608476565478
      ],
      [
        "▁рассматривать",
        -10.1256980689414
      ],
      [
        "▁радио",
        -10.125739054289241
      ],
      [
        "▁пар",
        -10.125912960575313
      ],
      [
        "дин",
        -10.126519848498058
      ],
      [
        "▁журнал",
        -10.12671813578553
      ],
      [
        "▁доктор",
        -10.126738770023621
      ],
      [
        "лечения",
        -10.127198501527017
      ],
      [
        "▁настояще",
        -10.127683582013194
      ],
      [
        "▁делал",
        -10.128298320727431
      ],
      [
        "▁Центральной",
        -10.129633359233218
      ],
      [
        "По",
        -10.130230844677133
      ],
      [
        "▁недели",
        -10.130466526611654
      ],
      [
        "▁предусмотрен",
        -10.131625862978122
      ],
      [
        "▁фактор",
        -10.131806410858026
      ],
      [
        "▁особы",
        -10.134053230063113
      ],
      [
        "▁Владимир",
        -10.134200244596556
      ],
      [
        "▁вида",
        -10.1349992799935
      ],
      [
        "▁обновления",
        -10.135985584844619
      ],
      [
        "▁создавать",
        -10.136325880040088
      ],
      [
        "▁бесплатно",
        -10.136736803965363
      ],
      [
        "честь",
        -10.137033130714801
      ],
      [
        "бит",
        -10.137069442645778
      ],
      [
        "вижу",
        -10.137139068006222
      ],
      [
        "▁республик",
        -10.13715478353275
      ],
      [
        "▁Тебе",
        -10.137602034667962
      ],
      [
        "▁эффект",
        -10.137893509680946
      ],
      [
        "▁выгод",
        -10.137928545660596
      ],
      [
        "▁сэр",
        -10.138188411428935
      ],
      [
        "▁температур",
        -10.139366446873572
      ],
      [
        "▁возраста",
        -10.139387450888222
      ],
      [
        "▁комплекс",
        -10.139509259168442
      ],
      [
        "▁клиент",
        -10.140285687201064
      ],
      [
        "st",
        -10.14030281902243
      ],
      [
        "▁зарегистрирован",
        -10.140504006508868
      ],
      [
        "▁обмена",
        -10.14065854951161
      ],
      [
        "▁Беларуси",
        -10.14096722003486
      ],
      [
        "▁земли",
        -10.141028416471473
      ],
      [
        "▁компьютера",
        -10.141657201032299
      ],
      [
        "▁различным",
        -10.142146906949112
      ],
      [
        "▁нищет",
        -10.14234974721089
      ],
      [
        "▁демократи",
        -10.142441487928803
      ],
      [
        "▁голос",
        -10.142506994436145
      ],
      [
        "▁Китая",
        -10.142982172547356
      ],
      [
        "▁режима",
        -10.143040122392637
      ],
      [
        "▁завод",
        -10.143241079062392
      ],
      [
        "▁планет",
        -10.144184755626837
      ],
      [
        "дают",
        -10.144487419397649
      ],
      [
        "▁увидел",
        -10.144570648274788
      ],
      [
        "оказания",
        -10.145203193766053
      ],
      [
        "▁идея",
        -10.145283214081413
      ],
      [
        "▁отрасл",
        -10.145500578778037
      ],
      [
        "файлы",
        -10.14555110770779
      ],
      [
        "прям",
        -10.14625642321463
      ],
      [
        "▁Международного",
        -10.146321808569116
      ],
      [
        "фа",
        -10.146647935704106
      ],
      [
        "▁минута",
        -10.146836448865134
      ],
      [
        "▁последстви",
        -10.147096852637386
      ],
      [
        "▁Ра",
        -10.147553482499916
      ],
      [
        "▁интересов",
        -10.147757495066443
      ],
      [
        "▁попытк",
        -10.148931968017099
      ],
      [
        "▁понимаю",
        -10.149150365936947
      ],
      [
        "▁физическо",
        -10.14931207147039
      ],
      [
        "▁Бо",
        -10.149409140528572
      ],
      [
        "▁минимум",
        -10.149562285982665
      ],
      [
        "ночь",
        -10.149803686124745
      ],
      [
        "▁взять",
        -10.149924877950541
      ],
      [
        "▁представляют",
        -10.149957219048659
      ],
      [
        "охраны",
        -10.150403567115768
      ],
      [
        "▁for",
        -10.15084457785727
      ],
      [
        "is",
        -10.151157582543936
      ],
      [
        "▁дал",
        -10.151211751641746
      ],
      [
        "▁прекрасно",
        -10.15137342237234
      ],
      [
        "▁жителе",
        -10.151894283200239
      ],
      [
        "▁рыб",
        -10.15210473289956
      ],
      [
        "▁моря",
        -10.153080531685394
      ],
      [
        "Группы",
        -10.153136375286532
      ],
      [
        "▁далеко",
        -10.153240466250937
      ],
      [
        "▁указанны",
        -10.153452235936802
      ],
      [
        "▁оказывает",
        -10.15349977874341
      ],
      [
        "хотят",
        -10.153611659610167
      ],
      [
        "▁вперед",
        -10.153786847864065
      ],
      [
        "куп",
        -10.153900064664262
      ],
      [
        "▁стара",
        -10.154116871848517
      ],
      [
        "▁деть",
        -10.154307311712557
      ],
      [
        "▁Новы",
        -10.154647107473002
      ],
      [
        "пять",
        -10.154778768765823
      ],
      [
        "▁скоро",
        -10.154794101175662
      ],
      [
        "▁сожалени",
        -10.155418165009372
      ],
      [
        "▁Без",
        -10.155587609052994
      ],
      [
        "▁сложно",
        -10.156103142489954
      ],
      [
        "▁нарушения",
        -10.157673746132543
      ],
      [
        "▁мирово",
        -10.158863253730015
      ],
      [
        "▁уровнях",
        -10.159136737414908
      ],
      [
        "▁нашу",
        -10.159299872735186
      ],
      [
        "▁наша",
        -10.159599249200548
      ],
      [
        "J",
        -10.159860309604788
      ],
      [
        "Y",
        -10.161344830317928
      ],
      [
        "▁животных",
        -10.162038381964152
      ],
      [
        "▁планирует",
        -10.162241342143727
      ],
      [
        "▁стары",
        -10.162706267248183
      ],
      [
        "▁Закон",
        -10.162984214636463
      ],
      [
        "▁высокого",
        -10.1636691663346
      ],
      [
        "▁отсутстви",
        -10.163736212615976
      ],
      [
        "▁надежд",
        -10.16417042824329
      ],
      [
        "могло",
        -10.164293277937958
      ],
      [
        "▁арми",
        -10.164429767150605
      ],
      [
        "▁медицински",
        -10.164638785527403
      ],
      [
        "▁экологически",
        -10.164775213703235
      ],
      [
        "▁совещания",
        -10.164830120019293
      ],
      [
        "▁круг",
        -10.165003193064967
      ],
      [
        "▁хорош",
        -10.16527918819986
      ],
      [
        "▁обсуждения",
        -10.16546224684399
      ],
      [
        "чную",
        -10.16635534933802
      ],
      [
        "▁регулярно",
        -10.166488004617927
      ],
      [
        "▁раза",
        -10.167282306851487
      ],
      [
        "▁тонн",
        -10.167329841261102
      ],
      [
        "скорость",
        -10.16740412713203
      ],
      [
        "▁веществ",
        -10.167593408718549
      ],
      [
        "▁тенденци",
        -10.168556418096248
      ],
      [
        "de",
        -10.168591963161722
      ],
      [
        "▁черт",
        -10.168636068153539
      ],
      [
        "есь",
        -10.168675749876423
      ],
      [
        "▁настоящи",
        -10.168688142760852
      ],
      [
        "▁нему",
        -10.170127285796989
      ],
      [
        "▁полны",
        -10.170267330147393
      ],
      [
        "▁дух",
        -10.170406080151077
      ],
      [
        "▁объема",
        -10.170653119466255
      ],
      [
        "▁уголовно",
        -10.170740833293543
      ],
      [
        "▁эксплуатации",
        -10.170753987436848
      ],
      [
        "ad",
        -10.171061724369988
      ],
      [
        "▁НАТО",
        -10.171111403457648
      ],
      [
        "▁Министерство",
        -10.171221296218715
      ],
      [
        "▁хранения",
        -10.17164649059443
      ],
      [
        "▁Запад",
        -10.172299578802201
      ],
      [
        "▁переход",
        -10.172562632260462
      ],
      [
        "▁Ин",
        -10.17265198532836
      ],
      [
        "▁сервера",
        -10.172792090253836
      ],
      [
        "▁физически",
        -10.172911463372145
      ],
      [
        "▁ежегодно",
        -10.172976468098602
      ],
      [
        "новое",
        -10.173190047974618
      ],
      [
        "▁перво",
        -10.173783256406924
      ],
      [
        "люблю",
        -10.174370570075999
      ],
      [
        "▁Кар",
        -10.174497263566373
      ],
      [
        "▁соглашени",
        -10.174655913291515
      ],
      [
        "бе",
        -10.175364746814761
      ],
      [
        "▁обо",
        -10.175799526386733
      ],
      [
        "▁истин",
        -10.176058251055377
      ],
      [
        "▁кризиса",
        -10.176326367701868
      ],
      [
        "▁страна",
        -10.176671373264703
      ],
      [
        "▁преступления",
        -10.176911964087324
      ],
      [
        "дается",
        -10.176980068999658
      ],
      [
        "▁политику",
        -10.177065136338548
      ],
      [
        "ками",
        -10.177411505559602
      ],
      [
        "http",
        -10.178037836328706
      ],
      [
        "ri",
        -10.178647434017307
      ],
      [
        "▁матери",
        -10.179280761933262
      ],
      [
        "▁требований",
        -10.179808048869546
      ],
      [
        "▁др",
        -10.179923151990415
      ],
      [
        "енная",
        -10.180068903917661
      ],
      [
        "▁содержание",
        -10.181011184498235
      ],
      [
        "▁перевод",
        -10.181078647188546
      ],
      [
        "▁Управление",
        -10.18114382409269
      ],
      [
        "▁характера",
        -10.181728469579733
      ],
      [
        "▁Ест",
        -10.181781542745698
      ],
      [
        "исты",
        -10.181815822731544
      ],
      [
        "▁национальном",
        -10.18306218771837
      ],
      [
        "▁назначения",
        -10.183429848612704
      ],
      [
        "▁заявления",
        -10.183555894152803
      ],
      [
        "▁аэропорта",
        -10.183935689104999
      ],
      [
        "▁благо",
        -10.18486613622522
      ],
      [
        "▁будущи",
        -10.184872235919833
      ],
      [
        "▁бо",
        -10.185575840500006
      ],
      [
        "▁государствами",
        -10.18678743429243
      ],
      [
        "▁жалоб",
        -10.187444304789278
      ],
      [
        "▁кухн",
        -10.187643613797267
      ],
      [
        "▁уход",
        -10.189257990350736
      ],
      [
        "▁транспорт",
        -10.191432564646732
      ],
      [
        "сен",
        -10.1917127242232
      ],
      [
        "▁делают",
        -10.19212619029475
      ],
      [
        "тар",
        -10.192750024983386
      ],
      [
        "▁отдыха",
        -10.194962579769907
      ],
      [
        "▁договора",
        -10.195354051615677
      ],
      [
        "▁дополнительн",
        -10.195391634337621
      ],
      [
        "▁сообщество",
        -10.196096784718492
      ],
      [
        "пол",
        -10.196197913023006
      ],
      [
        "▁улучшения",
        -10.19729445833655
      ],
      [
        "▁сделан",
        -10.197460216020868
      ],
      [
        "▁укрепления",
        -10.198282235745372
      ],
      [
        "j",
        -10.198350758873357
      ],
      [
        "▁формат",
        -10.198529113772482
      ],
      [
        "▁п",
        -10.198686017856522
      ],
      [
        "▁способствова",
        -10.20012247156938
      ],
      [
        "жу",
        -10.20013872576256
      ],
      [
        "▁университета",
        -10.20034356132745
      ],
      [
        "▁ограничения",
        -10.200701518793922
      ],
      [
        "▁строительство",
        -10.20085385327814
      ],
      [
        "▁отношению",
        -10.201145845650636
      ],
      [
        "▁аспект",
        -10.201333062051177
      ],
      [
        "▁пациент",
        -10.201514505152332
      ],
      [
        "▁Узбекистан",
        -10.201662092342636
      ],
      [
        "▁приложени",
        -10.201677647731376
      ],
      [
        "▁общем",
        -10.202026303238643
      ],
      [
        "вайте",
        -10.202329954721392
      ],
      [
        "енные",
        -10.202669495062603
      ],
      [
        "▁вооруженны",
        -10.202850465438345
      ],
      [
        "▁продукт",
        -10.203130670931383
      ],
      [
        "▁конкретных",
        -10.20329529051867
      ],
      [
        "▁задача",
        -10.204152973179006
      ],
      [
        "▁восстановления",
        -10.204489202840772
      ],
      [
        "▁прочи",
        -10.204686310830333
      ],
      [
        "▁предусматривает",
        -10.204776950422136
      ],
      [
        "▁Меня",
        -10.205115322214684
      ],
      [
        "▁абсолютно",
        -10.205214454623073
      ],
      [
        "▁кажды",
        -10.205267266558321
      ],
      [
        "▁проведен",
        -10.205726887393112
      ],
      [
        "▁нами",
        -10.205816501291034
      ],
      [
        "▁предложил",
        -10.20602610318598
      ],
      [
        "▁каса",
        -10.20674996518101
      ],
      [
        "законодательства",
        -10.206904993084784
      ],
      [
        "▁устойчивого",
        -10.207467483094312
      ],
      [
        "▁административны",
        -10.207755825637712
      ],
      [
        "▁состоя",
        -10.207831520577589
      ],
      [
        "▁область",
        -10.208381160176831
      ],
      [
        "▁побед",
        -10.20849537862963
      ],
      [
        "▁друзья",
        -10.208516214338662
      ],
      [
        "ток",
        -10.20938655807902
      ],
      [
        "▁многочисленны",
        -10.209419452140251
      ],
      [
        "членами",
        -10.21003928157612
      ],
      [
        "членов",
        -10.210726544461519
      ],
      [
        "▁выразил",
        -10.210794847260289
      ],
      [
        "ган",
        -10.21082573774578
      ],
      [
        "ров",
        -10.210864909770965
      ],
      [
        "▁распространения",
        -10.211503309538426
      ],
      [
        "▁смысл",
        -10.212112847897933
      ],
      [
        "структуры",
        -10.212287756474224
      ],
      [
        "▁рассказал",
        -10.212575544917417
      ],
      [
        "il",
        -10.212987325545548
      ],
      [
        "ro",
        -10.213029937728358
      ],
      [
        "▁поставщик",
        -10.213467572169243
      ],
      [
        "▁воздействия",
        -10.213489903618443
      ],
      [
        "став",
        -10.21398793121416
      ],
      [
        "▁направлении",
        -10.214286168007902
      ],
      [
        "▁группе",
        -10.214559857586611
      ],
      [
        "▁подчеркнул",
        -10.214643058508038
      ],
      [
        "▁Комиссия",
        -10.215412087513505
      ],
      [
        "▁молодеж",
        -10.215462693738461
      ],
      [
        "емые",
        -10.215745768888258
      ],
      [
        "▁кандидат",
        -10.215819113908097
      ],
      [
        "ём",
        -10.215903139761913
      ],
      [
        "▁процессов",
        -10.216170796432941
      ],
      [
        "▁улиц",
        -10.216386503196254
      ],
      [
        "▁Организация",
        -10.216486154412092
      ],
      [
        "нная",
        -10.216619245887077
      ],
      [
        "▁U",
        -10.21712687635323
      ],
      [
        "▁Беларусь",
        -10.217252666052325
      ],
      [
        "▁международные",
        -10.217261117827633
      ],
      [
        "▁ряда",
        -10.217295200869911
      ],
      [
        "▁инструмент",
        -10.217463942552925
      ],
      [
        "обладает",
        -10.217583359144497
      ],
      [
        "▁давно",
        -10.217617727163372
      ],
      [
        "вернуть",
        -10.21793839392641
      ],
      [
        "▁Польш",
        -10.218620793531606
      ],
      [
        "▁вред",
        -10.218815473152532
      ],
      [
        "▁инструментов",
        -10.219034710296427
      ],
      [
        "Одна",
        -10.219397231537085
      ],
      [
        "верить",
        -10.219665433303671
      ],
      [
        "▁осуществлять",
        -10.220115567530414
      ],
      [
        "▁продаж",
        -10.220354913395052
      ],
      [
        "шёл",
        -10.220410576287222
      ],
      [
        "СПИД",
        -10.220514769860142
      ],
      [
        "▁настройки",
        -10.220865937059788
      ],
      [
        "▁тело",
        -10.221019132215801
      ],
      [
        "ания",
        -10.222217960744175
      ],
      [
        "▁повышени",
        -10.223840992643765
      ],
      [
        "▁рассмотрение",
        -10.22432159877221
      ],
      [
        "На",
        -10.224480436414673
      ],
      [
        "▁координации",
        -10.225530699243599
      ],
      [
        "▁связан",
        -10.227106033091124
      ],
      [
        "▁поля",
        -10.227676370828416
      ],
      [
        "ним",
        -10.227715865156364
      ],
      [
        "▁отдел",
        -10.228048511198404
      ],
      [
        "▁воздействие",
        -10.2281212441193
      ],
      [
        "фе",
        -10.228454438815529
      ],
      [
        "движение",
        -10.22851915121424
      ],
      [
        "▁показателе",
        -10.228738122902664
      ],
      [
        "▁рассмотре",
        -10.229157946100536
      ],
      [
        "тра",
        -10.229848597383967
      ],
      [
        "▁учитыва",
        -10.230237022440216
      ],
      [
        "▁музык",
        -10.231032937248408
      ],
      [
        "порт",
        -10.231742222333121
      ],
      [
        "▁целы",
        -10.231787868308107
      ],
      [
        "▁судебны",
        -10.23181139432874
      ],
      [
        "▁затрат",
        -10.232138792360473
      ],
      [
        "▁инфраструктуры",
        -10.23221859904626
      ],
      [
        "and",
        -10.232838876984554
      ],
      [
        "▁лицензи",
        -10.232906770629526
      ],
      [
        "▁диск",
        -10.233033882323658
      ],
      [
        "▁квартал",
        -10.233143039936778
      ],
      [
        "▁эксперт",
        -10.233416014638998
      ],
      [
        "▁авто",
        -10.233692069342897
      ],
      [
        "▁лидер",
        -10.233740461415607
      ],
      [
        "▁традиционны",
        -10.234089482807288
      ],
      [
        "▁выпуск",
        -10.234214500096781
      ],
      [
        "▁финансовые",
        -10.234846403980004
      ],
      [
        "ции",
        -10.234874511684303
      ],
      [
        "▁следующем",
        -10.235082086345157
      ],
      [
        "вали",
        -10.235108874855374
      ],
      [
        "вид",
        -10.23513499812594
      ],
      [
        "впервые",
        -10.235377092196515
      ],
      [
        "▁огромно",
        -10.235419581022887
      ],
      [
        "▁поддержка",
        -10.23552632185464
      ],
      [
        "▁существую",
        -10.236094960930004
      ],
      [
        "▁расширение",
        -10.236123547499554
      ],
      [
        "важным",
        -10.237650614372484
      ],
      [
        "▁большую",
        -10.237722564059855
      ],
      [
        "O",
        -10.237941574729605
      ],
      [
        "▁Специально",
        -10.238044681712504
      ],
      [
        "▁папк",
        -10.238709550956855
      ],
      [
        "шей",
        -10.239102972167831
      ],
      [
        "▁премьер",
        -10.239377198988628
      ],
      [
        "▁атмосфер",
        -10.23938317756425
      ],
      [
        "▁штат",
        -10.240004450258926
      ],
      [
        "функций",
        -10.240024157639965
      ],
      [
        "▁проходит",
        -10.240175601501111
      ],
      [
        "▁международно",
        -10.240297964505306
      ],
      [
        "▁общественны",
        -10.240430351201585
      ],
      [
        "▁представление",
        -10.240470167509262
      ],
      [
        "▁Па",
        -10.240887443928836
      ],
      [
        "▁способны",
        -10.241114062921334
      ],
      [
        "▁соглашение",
        -10.241207916647564
      ],
      [
        "▁культурно",
        -10.24239556990287
      ],
      [
        "овым",
        -10.243839278942605
      ],
      [
        "▁военных",
        -10.243963503824812
      ],
      [
        "▁сохранить",
        -10.244234448270161
      ],
      [
        "▁опыта",
        -10.244760695253564
      ],
      [
        "am",
        -10.244824860968311
      ],
      [
        "базе",
        -10.244994705626706
      ],
      [
        "говорю",
        -10.245763730281798
      ],
      [
        "▁чисто",
        -10.246079278647532
      ],
      [
        "▁показывает",
        -10.246150121375042
      ],
      [
        "▁малы",
        -10.246289373878504
      ],
      [
        "▁част",
        -10.246495691503926
      ],
      [
        "действовать",
        -10.246576133938252
      ],
      [
        "▁устройств",
        -10.246963334944004
      ],
      [
        "▁правд",
        -10.247368044803022
      ],
      [
        "▁маленьки",
        -10.2477536444014
      ],
      [
        "▁ценны",
        -10.247851278649744
      ],
      [
        "▁Центр",
        -10.248450957325714
      ],
      [
        "▁сцен",
        -10.249112320272577
      ],
      [
        "▁выполнение",
        -10.249272878285748
      ],
      [
        "▁используя",
        -10.249576605569953
      ],
      [
        "▁одежд",
        -10.250116295533006
      ],
      [
        "▁денежны",
        -10.25021970972211
      ],
      [
        "▁отс",
        -10.250659438845194
      ],
      [
        "▁срока",
        -10.25101659109269
      ],
      [
        "новая",
        -10.25148449115089
      ],
      [
        "▁форум",
        -10.251510404194095
      ],
      [
        "знают",
        -10.251981530738544
      ],
      [
        "▁продукта",
        -10.252121615335664
      ],
      [
        "▁получать",
        -10.252673169663366
      ],
      [
        "▁требуют",
        -10.252915267451343
      ],
      [
        "▁устройство",
        -10.252943238108799
      ],
      [
        "▁Мой",
        -10.253106545802195
      ],
      [
        "ата",
        -10.25340059330518
      ],
      [
        "▁незаконно",
        -10.254000981406996
      ],
      [
        "▁юридически",
        -10.254408215615532
      ],
      [
        "▁фото",
        -10.25458027978545
      ],
      [
        "▁завтрак",
        -10.255264098007952
      ],
      [
        "▁сессия",
        -10.256159236021517
      ],
      [
        "каких",
        -10.256269013086328
      ],
      [
        "▁карты",
        -10.256369798503925
      ],
      [
        "▁распространение",
        -10.257605108315104
      ],
      [
        "▁Среди",
        -10.257734604481652
      ],
      [
        "рок",
        -10.25779353951527
      ],
      [
        "▁правосуди",
        -10.258165299603178
      ],
      [
        "▁онлайн",
        -10.258283830188716
      ],
      [
        "сер",
        -10.258808137594194
      ],
      [
        "▁нормально",
        -10.259263186286617
      ],
      [
        "▁намерен",
        -10.259551492576481
      ],
      [
        "▁сигнал",
        -10.259609896854549
      ],
      [
        "пределах",
        -10.259646503957368
      ],
      [
        "решить",
        -10.259757462730553
      ],
      [
        "▁прием",
        -10.259757819300777
      ],
      [
        "▁укреплени",
        -10.259790653708961
      ],
      [
        "▁обработки",
        -10.260320128477204
      ],
      [
        "▁капитала",
        -10.260574334018546
      ],
      [
        "вшис",
        -10.260595307152588
      ],
      [
        "нию",
        -10.260737492815593
      ],
      [
        "▁способность",
        -10.2611607043515
      ],
      [
        "▁Га",
        -10.262174374596414
      ],
      [
        "Add",
        -10.262282568949956
      ],
      [
        "открыть",
        -10.262935910693255
      ],
      [
        "▁клуб",
        -10.26306208396717
      ],
      [
        "вашем",
        -10.263693127983721
      ],
      [
        "▁кому",
        -10.264080785083381
      ],
      [
        "▁недостаточно",
        -10.264659791514354
      ],
      [
        "▁печат",
        -10.264668838544441
      ],
      [
        "▁мою",
        -10.264761517087553
      ],
      [
        "▁Санкт",
        -10.265819133392114
      ],
      [
        "▁навык",
        -10.266122810417528
      ],
      [
        "▁дни",
        -10.266464991832965
      ],
      [
        "▁Ле",
        -10.266712273723572
      ],
      [
        "▁выступил",
        -10.266789911311996
      ],
      [
        "ent",
        -10.266916256089779
      ],
      [
        "▁построен",
        -10.266985465658253
      ],
      [
        "▁тесно",
        -10.267013450399283
      ],
      [
        "▁ибо",
        -10.267216654592755
      ],
      [
        "et",
        -10.267341385021028
      ],
      [
        "▁скорост",
        -10.267516911010492
      ],
      [
        "▁платформ",
        -10.267586794291296
      ],
      [
        "▁администраци",
        -10.267916859897973
      ],
      [
        "▁прошло",
        -10.26797397420619
      ],
      [
        "▁Великобритании",
        -10.268805081864901
      ],
      [
        "считать",
        -10.268852311454822
      ],
      [
        "▁Post",
        -10.268936157245799
      ],
      [
        "ща",
        -10.270644732657042
      ],
      [
        "▁De",
        -10.271093683316245
      ],
      [
        "▁давление",
        -10.271276517050339
      ],
      [
        "▁показан",
        -10.271380762756833
      ],
      [
        "▁неделю",
        -10.271934612702244
      ],
      [
        "▁полу",
        -10.272012252818563
      ],
      [
        "ойти",
        -10.272262873444097
      ],
      [
        "возрасте",
        -10.272510601041386
      ],
      [
        "▁Вопрос",
        -10.272972045861334
      ],
      [
        "▁будущее",
        -10.273993285650803
      ],
      [
        "▁ответил",
        -10.27426754971653
      ],
      [
        "площадь",
        -10.27449222219908
      ],
      [
        "▁самостоятельно",
        -10.274647361913157
      ],
      [
        "▁семья",
        -10.274740532420557
      ],
      [
        "▁основан",
        -10.275553235600476
      ],
      [
        "рос",
        -10.275906369656576
      ],
      [
        "▁мнения",
        -10.276023633984455
      ],
      [
        "▁Программы",
        -10.276108191976906
      ],
      [
        "▁прогноз",
        -10.276317166547283
      ],
      [
        "▁интервью",
        -10.276523589272273
      ],
      [
        "▁ожидает",
        -10.276715743737878
      ],
      [
        "ехать",
        -10.27735301119623
      ],
      [
        "▁конкретны",
        -10.277401838573706
      ],
      [
        "нужна",
        -10.277821691115456
      ],
      [
        "▁дороги",
        -10.278110720608211
      ],
      [
        "жен",
        -10.27844019995202
      ],
      [
        "▁соответственно",
        -10.27858556988075
      ],
      [
        "воё",
        -10.279380281578508
      ],
      [
        "▁американски",
        -10.279805738956714
      ],
      [
        "▁Казахстана",
        -10.280106009055944
      ],
      [
        "▁кем",
        -10.280448068642322
      ],
      [
        "ation",
        -10.280733019145671
      ],
      [
        "▁Деклараци",
        -10.281290422593301
      ],
      [
        "▁сад",
        -10.281337985672266
      ],
      [
        "▁бумаг",
        -10.281551786550718
      ],
      [
        "мат",
        -10.282314168075853
      ],
      [
        "▁риска",
        -10.282728026518306
      ],
      [
        "▁призыв",
        -10.283429823768774
      ],
      [
        "политике",
        -10.284414168150182
      ],
      [
        "▁руководства",
        -10.284679377991658
      ],
      [
        "▁активов",
        -10.284855411673366
      ],
      [
        "▁чрезвычайно",
        -10.285498644372609
      ],
      [
        "▁последнее",
        -10.286256672571241
      ],
      [
        "▁состояни",
        -10.287645189436827
      ],
      [
        "▁женщина",
        -10.288261068343505
      ],
      [
        "▁государствам",
        -10.288930705309479
      ],
      [
        "▁открыл",
        -10.28900589922549
      ],
      [
        "▁зал",
        -10.289300699110775
      ],
      [
        "▁терроризм",
        -10.289503660458461
      ],
      [
        "ЭК",
        -10.28977444202188
      ],
      [
        "▁экономически",
        -10.290616398030586
      ],
      [
        "беженцев",
        -10.291042895773664
      ],
      [
        "▁Кон",
        -10.291190186906878
      ],
      [
        "▁Ж",
        -10.291414854900403
      ],
      [
        "▁граждански",
        -10.29161895151093
      ],
      [
        "ведения",
        -10.29235453393504
      ],
      [
        "чат",
        -10.293016231014459
      ],
      [
        "мать",
        -10.293083700111525
      ],
      [
        "Украине",
        -10.293367342195253
      ],
      [
        "продукты",
        -10.293372544435009
      ],
      [
        "ельскохозяйствен",
        -10.29341010129262
      ],
      [
        "▁союза",
        -10.293441531318232
      ],
      [
        "Ц",
        -10.293667383994435
      ],
      [
        "▁большей",
        -10.295030427939901
      ],
      [
        "кро",
        -10.296162616621938
      ],
      [
        "▁очевидно",
        -10.296648636366209
      ],
      [
        "▁специализирован",
        -10.29675263834586
      ],
      [
        "▁Департамент",
        -10.29680508650082
      ],
      [
        "▁население",
        -10.296816739485939
      ],
      [
        "▁обслуживание",
        -10.296873384503744
      ],
      [
        "ско",
        -10.297027278945594
      ],
      [
        "▁Израиль",
        -10.297402903034477
      ],
      [
        "▁Та",
        -10.297789585394657
      ],
      [
        "▁принятие",
        -10.297880741833271
      ],
      [
        "▁половин",
        -10.298071361073852
      ],
      [
        "писать",
        -10.298298404634814
      ],
      [
        "▁прошлого",
        -10.298369548289767
      ],
      [
        "▁Программа",
        -10.299072900898638
      ],
      [
        "▁рассмотрени",
        -10.29953766805247
      ],
      [
        "▁убил",
        -10.299539598846389
      ],
      [
        "доходов",
        -10.299769767824007
      ],
      [
        "рет",
        -10.299800075007163
      ],
      [
        "▁изображения",
        -10.30095858877526
      ],
      [
        "▁порядка",
        -10.301237252154964
      ],
      [
        "▁вызов",
        -10.301411645707145
      ],
      [
        "▁здоровье",
        -10.301555572270257
      ],
      [
        "лад",
        -10.303476970607694
      ],
      [
        "первым",
        -10.303576846501347
      ],
      [
        "любви",
        -10.304171787209269
      ],
      [
        "▁секунд",
        -10.304372548770257
      ],
      [
        "рас",
        -10.304596966447203
      ],
      [
        "▁Тво",
        -10.30526770298836
      ],
      [
        "▁больниц",
        -10.305716676167254
      ],
      [
        "▁содержания",
        -10.305961849156
      ],
      [
        "▁бюро",
        -10.306871914795373
      ],
      [
        "▁позволяют",
        -10.307392403774664
      ],
      [
        "ключ",
        -10.307663329181466
      ],
      [
        "▁Восточно",
        -10.308177392152283
      ],
      [
        "▁форма",
        -10.308552655523687
      ],
      [
        "Йорк",
        -10.308570519922835
      ],
      [
        "▁совещани",
        -10.308843006655094
      ],
      [
        "▁цена",
        -10.309199914024916
      ],
      [
        "▁искусства",
        -10.309204287619318
      ],
      [
        "▁начали",
        -10.309827241669446
      ],
      [
        "развитии",
        -10.310285212886775
      ],
      [
        "▁поверхност",
        -10.310437598099128
      ],
      [
        "▁ими",
        -10.311219650734369
      ],
      [
        "▁времена",
        -10.311311160183479
      ],
      [
        "▁Цель",
        -10.312194125818898
      ],
      [
        "▁культурны",
        -10.312450748581929
      ],
      [
        "▁масс",
        -10.312583855601138
      ],
      [
        "▁оказывать",
        -10.31330525943364
      ],
      [
        "▁Думаю",
        -10.313742123150867
      ],
      [
        "▁покупк",
        -10.313930085647499
      ],
      [
        "▁взрослы",
        -10.314022622870434
      ],
      [
        "▁электронны",
        -10.315118851595972
      ],
      [
        "лом",
        -10.315551431320083
      ],
      [
        "Франции",
        -10.315863692685761
      ],
      [
        "тр",
        -10.316098905286612
      ],
      [
        "▁Бар",
        -10.31614544646522
      ],
      [
        "пред",
        -10.316640401784337
      ],
      [
        "▁мониторинга",
        -10.316869820877248
      ],
      [
        "пасибо",
        -10.317090464364469
      ],
      [
        "▁реальны",
        -10.317970946955391
      ],
      [
        "html",
        -10.31806393197569
      ],
      [
        "as",
        -10.318065872792797
      ],
      [
        "▁стиле",
        -10.318289745008183
      ],
      [
        "▁пользовател",
        -10.319171808592264
      ],
      [
        "думаешь",
        -10.320456119182136
      ],
      [
        "версии",
        -10.320766898774309
      ],
      [
        "co",
        -10.321331865415257
      ],
      [
        "▁осуществлении",
        -10.322612512851066
      ],
      [
        "▁большие",
        -10.3230713368426
      ],
      [
        "▁оснащен",
        -10.324151253069271
      ],
      [
        "▁тюрьм",
        -10.324159730316927
      ],
      [
        "запись",
        -10.32416479568624
      ],
      [
        "▁Че",
        -10.324538242274055
      ],
      [
        "▁доме",
        -10.324557275149662
      ],
      [
        "▁IP",
        -10.324561930845226
      ],
      [
        "▁Пункт",
        -10.324590699100547
      ],
      [
        "▁Кор",
        -10.326443071756385
      ],
      [
        "▁сокращения",
        -10.326916903349723
      ],
      [
        "▁Су",
        -10.327070223538566
      ],
      [
        "▁контракт",
        -10.327082768182946
      ],
      [
        "▁отлича",
        -10.327198848589648
      ],
      [
        "▁сделк",
        -10.327246429429817
      ],
      [
        "нашли",
        -10.327456845230683
      ],
      [
        "бу",
        -10.32802422434182
      ],
      [
        "▁проведении",
        -10.328056530990272
      ],
      [
        "▁Мак",
        -10.328394979345187
      ],
      [
        "▁Специальны",
        -10.328569035561113
      ],
      [
        "ники",
        -10.32896878520543
      ],
      [
        "▁сила",
        -10.329527078403904
      ],
      [
        "▁дости",
        -10.329788221487172
      ],
      [
        "▁директора",
        -10.330116059491168
      ],
      [
        "смысле",
        -10.330933990916694
      ],
      [
        "▁вынужден",
        -10.331175123832079
      ],
      [
        "чен",
        -10.331383565995353
      ],
      [
        "какое",
        -10.331384746503446
      ],
      [
        "▁Азербайджан",
        -10.332028657432865
      ],
      [
        "▁f",
        -10.332552729110526
      ],
      [
        "ост",
        -10.332613448635431
      ],
      [
        "▁воспользоваться",
        -10.333261791686024
      ],
      [
        "▁содействие",
        -10.333667231967887
      ],
      [
        "▁In",
        -10.333975824949654
      ],
      [
        "▁относятся",
        -10.334100552733307
      ],
      [
        "▁Израиля",
        -10.334854674408358
      ],
      [
        "▁здания",
        -10.335366697940238
      ],
      [
        "▁песн",
        -10.335764342755713
      ],
      [
        "▁Японии",
        -10.335820663905283
      ],
      [
        "▁земл",
        -10.335973388051805
      ],
      [
        "▁Ч",
        -10.336347227902095
      ],
      [
        "▁крови",
        -10.336375071987332
      ],
      [
        "рис",
        -10.336382293329414
      ],
      [
        "▁политическо",
        -10.336485336285932
      ],
      [
        "▁применять",
        -10.33666170904991
      ],
      [
        "Ж",
        -10.33672587604493
      ],
      [
        "▁цвета",
        -10.337585845844561
      ],
      [
        "▁вниз",
        -10.338111679817533
      ],
      [
        "▁указывает",
        -10.338156893063305
      ],
      [
        "▁название",
        -10.338577245956666
      ],
      [
        "касающие",
        -10.339091947886185
      ],
      [
        "▁правительств",
        -10.339283148354749
      ],
      [
        "▁природны",
        -10.3412380534783
      ],
      [
        "▁Мар",
        -10.34127609680749
      ],
      [
        "▁парень",
        -10.341534227769998
      ],
      [
        "▁Ассамблее",
        -10.341886869754767
      ],
      [
        "▁получит",
        -10.342562285719294
      ],
      [
        "▁телевизор",
        -10.342652029167166
      ],
      [
        "▁отказа",
        -10.343428742899562
      ],
      [
        "▁меж",
        -10.344078849256064
      ],
      [
        "вшей",
        -10.344911152845832
      ],
      [
        "▁перевозк",
        -10.345250500103301
      ],
      [
        "▁Большинство",
        -10.345406279758397
      ],
      [
        "тал",
        -10.345663252581845
      ],
      [
        "▁Ба",
        -10.345831736088805
      ],
      [
        "▁предоставление",
        -10.346234734715765
      ],
      [
        "уже",
        -10.346463800745617
      ],
      [
        "▁Китае",
        -10.34665153538337
      ],
      [
        "▁работающи",
        -10.347767363033055
      ],
      [
        "▁общественного",
        -10.347828338709885
      ],
      [
        "▁верно",
        -10.348066775011446
      ],
      [
        "▁становя",
        -10.348447444293022
      ],
      [
        "▁эффективность",
        -10.349030553212444
      ],
      [
        "чаще",
        -10.349392590409007
      ],
      [
        "первы",
        -10.349776133578182
      ],
      [
        "▁история",
        -10.349915699664383
      ],
      [
        "смерть",
        -10.35009212859143
      ],
      [
        "▁Джон",
        -10.3514319941489
      ],
      [
        "▁данно",
        -10.351731245351242
      ],
      [
        "▁входит",
        -10.351836790545086
      ],
      [
        "жив",
        -10.352189795196756
      ],
      [
        "▁урок",
        -10.352243975392076
      ],
      [
        "▁похоже",
        -10.352279967065929
      ],
      [
        "временем",
        -10.352925106235798
      ],
      [
        "▁бар",
        -10.353185005059025
      ],
      [
        "▁подхода",
        -10.353272983825484
      ],
      [
        "альная",
        -10.354581195310647
      ],
      [
        "▁гражданско",
        -10.354903519424973
      ],
      [
        "▁вызывает",
        -10.355391993464377
      ],
      [
        "AC",
        -10.35574015147946
      ],
      [
        "▁найден",
        -10.355770575863897
      ],
      [
        "зал",
        -10.356054620189152
      ],
      [
        "▁принимают",
        -10.356291961053625
      ],
      [
        "анд",
        -10.356419623285127
      ],
      [
        "▁узнал",
        -10.356900862368878
      ],
      [
        "брать",
        -10.357650585363135
      ],
      [
        "помогает",
        -10.357685412415847
      ],
      [
        "иначе",
        -10.358014624447794
      ],
      [
        "жал",
        -10.358198667714472
      ],
      [
        "лож",
        -10.35820350771214
      ],
      [
        "▁общественност",
        -10.358393712212132
      ],
      [
        "иль",
        -10.35866766386561
      ],
      [
        "▁партнеров",
        -10.358895120788516
      ],
      [
        "▁приняти",
        -10.35892102621506
      ],
      [
        "▁заказ",
        -10.358997761792182
      ],
      [
        "ила",
        -10.358999056528596
      ],
      [
        "▁приводит",
        -10.359246414526424
      ],
      [
        "▁открывает",
        -10.35975057824849
      ],
      [
        "▁глобальны",
        -10.360100456291137
      ],
      [
        "желает",
        -10.360332026931118
      ],
      [
        "страницы",
        -10.36047511346387
      ],
      [
        "чём",
        -10.36062280150815
      ],
      [
        "▁глава",
        -10.360831973105999
      ],
      [
        "▁отлично",
        -10.360929870466329
      ],
      [
        "выше",
        -10.361021888727123
      ],
      [
        "Не",
        -10.361277956467507
      ],
      [
        "видом",
        -10.361336764638542
      ],
      [
        "▁относится",
        -10.362536671028744
      ],
      [
        "цен",
        -10.363510565069014
      ],
      [
        "▁Боже",
        -10.363881219944883
      ],
      [
        "За",
        -10.36421045310351
      ],
      [
        "▁знак",
        -10.364473093683536
      ],
      [
        "чик",
        -10.364663260138748
      ],
      [
        "порядок",
        -10.364692824157263
      ],
      [
        "▁традиционно",
        -10.364772895690422
      ],
      [
        "рождения",
        -10.364804790999498
      ],
      [
        "счет",
        -10.365945535955351
      ],
      [
        "um",
        -10.367082400830132
      ],
      [
        "▁последующи",
        -10.367511452380498
      ],
      [
        "▁прибыль",
        -10.367518963064647
      ],
      [
        "to",
        -10.367847674129887
      ],
      [
        "правовой",
        -10.368478997546381
      ],
      [
        "▁разрешение",
        -10.368984643623792
      ],
      [
        "▁шести",
        -10.369355908280138
      ],
      [
        "клад",
        -10.370222221784804
      ],
      [
        "ент",
        -10.370336713667
      ],
      [
        "▁обращения",
        -10.370446483858863
      ],
      [
        "▁национальным",
        -10.370747779604553
      ],
      [
        "▁капитал",
        -10.370856193617378
      ],
      [
        "▁согласи",
        -10.371249991245172
      ],
      [
        "▁диалог",
        -10.372206779644657
      ],
      [
        "▁Разве",
        -10.372258098565247
      ],
      [
        "▁размера",
        -10.372330723230446
      ],
      [
        "▁необходим",
        -10.372613938774949
      ],
      [
        "читать",
        -10.372851753159498
      ],
      [
        "▁стратегически",
        -10.374268564496084
      ],
      [
        "▁Союз",
        -10.374562504094454
      ],
      [
        "▁пришли",
        -10.374605863869897
      ],
      [
        "▁on",
        -10.375012341682584
      ],
      [
        "обучение",
        -10.37510285069175
      ],
      [
        "давать",
        -10.375892733404928
      ],
      [
        "▁Вашингтон",
        -10.376254493780625
      ],
      [
        "десят",
        -10.376278261288316
      ],
      [
        "▁представителя",
        -10.377403736800357
      ],
      [
        "▁добра",
        -10.377568296001185
      ],
      [
        "лег",
        -10.377623238874602
      ],
      [
        "вания",
        -10.377677725940806
      ],
      [
        "делаешь",
        -10.378393705756219
      ],
      [
        "ющую",
        -10.378819398456018
      ],
      [
        "▁совместны",
        -10.37910199719487
      ],
      [
        "отличие",
        -10.379106738538603
      ],
      [
        "шен",
        -10.379191899067909
      ],
      [
        "all",
        -10.38047962649659
      ],
      [
        "▁средне",
        -10.380541170494283
      ],
      [
        "▁центрально",
        -10.381400923650816
      ],
      [
        "▁постепенно",
        -10.381761922087552
      ],
      [
        "▁мысли",
        -10.381850604551637
      ],
      [
        "▁кнопк",
        -10.381879911313064
      ],
      [
        "▁названием",
        -10.381954502698552
      ],
      [
        "ладно",
        -10.382614269461307
      ],
      [
        "▁Рас",
        -10.382774006846049
      ],
      [
        "▁теле",
        -10.382894483869558
      ],
      [
        "▁сексуально",
        -10.38349825560416
      ],
      [
        "▁окна",
        -10.38409519670984
      ],
      [
        "▁списка",
        -10.384222099054941
      ],
      [
        "▁стандартов",
        -10.384298649918115
      ],
      [
        "ers",
        -10.38470257371621
      ],
      [
        "десять",
        -10.384873138610534
      ],
      [
        "▁немедленно",
        -10.384911708296542
      ],
      [
        "▁отель",
        -10.385283481603842
      ],
      [
        "▁поток",
        -10.385598755625994
      ],
      [
        "▁Рабоч",
        -10.385893714130678
      ],
      [
        "▁э",
        -10.386233939374023
      ],
      [
        "▁наград",
        -10.386381685084656
      ],
      [
        "▁жена",
        -10.386895794248606
      ],
      [
        "▁пищ",
        -10.387231733784253
      ],
      [
        "▁пределами",
        -10.387294352915482
      ],
      [
        "▁отца",
        -10.38834208468624
      ],
      [
        "▁указан",
        -10.388368362855122
      ],
      [
        "степень",
        -10.388635835403786
      ],
      [
        "ложен",
        -10.388940724104664
      ],
      [
        "▁транспорта",
        -10.389271764630186
      ],
      [
        "▁акци",
        -10.39022774375199
      ],
      [
        "кар",
        -10.390775929300023
      ],
      [
        "▁обычны",
        -10.390891372730573
      ],
      [
        "▁Ассамблея",
        -10.391001606630095
      ],
      [
        "▁сильны",
        -10.391026226785748
      ],
      [
        "▁руководящи",
        -10.391393840358033
      ],
      [
        "сайт",
        -10.392133846771383
      ],
      [
        "чит",
        -10.392246809105051
      ],
      [
        "▁оперативно",
        -10.392551162469278
      ],
      [
        "▁утверждает",
        -10.393824104220512
      ],
      [
        "▁билет",
        -10.393878906725497
      ],
      [
        "▁валют",
        -10.394011654514177
      ],
      [
        "▁уж",
        -10.394419218882938
      ],
      [
        "енных",
        -10.39548657931833
      ],
      [
        "НЕСКО",
        -10.39548675975962
      ],
      [
        "▁машина",
        -10.395784885354685
      ],
      [
        "▁мобильны",
        -10.395786804993854
      ],
      [
        "▁спрос",
        -10.395837461919278
      ],
      [
        "▁смог",
        -10.396323082629394
      ],
      [
        "▁Таджикистан",
        -10.396722656886755
      ],
      [
        "▁панели",
        -10.396943828233345
      ],
      [
        "▁случай",
        -10.397259181956352
      ],
      [
        "▁начина",
        -10.397463155212698
      ],
      [
        "ъ",
        -10.397479545469325
      ],
      [
        "▁Вер",
        -10.397509386029066
      ],
      [
        "▁расчет",
        -10.397583797766242
      ],
      [
        "U",
        -10.398773565659337
      ],
      [
        "ация",
        -10.399815207201447
      ],
      [
        "▁пуст",
        -10.399821700864038
      ],
      [
        "▁компенсаци",
        -10.39982864981732
      ],
      [
        "овую",
        -10.399921982633767
      ],
      [
        "▁предоставлен",
        -10.399997333617677
      ],
      [
        "след",
        -10.400176296012749
      ],
      [
        "la",
        -10.401643303015817
      ],
      [
        "атор",
        -10.401715346472159
      ],
      [
        "НПО",
        -10.402210170145555
      ],
      [
        "▁произ",
        -10.402492298473131
      ],
      [
        "▁соответствует",
        -10.403129202426541
      ],
      [
        "▁традици",
        -10.403311435335691
      ],
      [
        "▁финансов",
        -10.403318794711353
      ],
      [
        "рат",
        -10.403708853140852
      ],
      [
        "представительств",
        -10.404261912370526
      ],
      [
        "▁нарушение",
        -10.404490295114087
      ],
      [
        "▁Буд",
        -10.404568222214186
      ],
      [
        "▁команда",
        -10.404698618178333
      ],
      [
        "▁конфликтов",
        -10.405115014690882
      ],
      [
        "▁применени",
        -10.405535580397629
      ],
      [
        "▁обстоятельства",
        -10.405541810729364
      ],
      [
        "включать",
        -10.40571779898345
      ],
      [
        "ющим",
        -10.405723609511396
      ],
      [
        "оставить",
        -10.405904030338467
      ],
      [
        "ВП",
        -10.406003797936041
      ],
      [
        "Северной",
        -10.406747960290648
      ],
      [
        "▁получение",
        -10.407157653284706
      ],
      [
        "▁резко",
        -10.407612365651818
      ],
      [
        "▁документе",
        -10.40767229006313
      ],
      [
        "▁сердца",
        -10.407828186174285
      ],
      [
        "ёр",
        -10.407921144104147
      ],
      [
        "принципы",
        -10.408034274285693
      ],
      [
        "летни",
        -10.408878916662598
      ],
      [
        "▁третье",
        -10.408980985264616
      ],
      [
        "▁соблюдения",
        -10.409048066968321
      ],
      [
        "▁статья",
        -10.409258073088012
      ],
      [
        "▁карьер",
        -10.409587229169592
      ],
      [
        "▁эффективного",
        -10.409805369997326
      ],
      [
        "▁опасны",
        -10.4098192943081
      ],
      [
        "ряду",
        -10.409982262148676
      ],
      [
        "▁Генеральны",
        -10.410739796120136
      ],
      [
        "▁субъект",
        -10.411434289093771
      ],
      [
        "тельно",
        -10.411727695239913
      ],
      [
        "▁выполнить",
        -10.411932898330537
      ],
      [
        "Ю",
        -10.411973056132034
      ],
      [
        "▁умер",
        -10.41203625611153
      ],
      [
        "▁содержат",
        -10.412043058406056
      ],
      [
        "▁выплат",
        -10.412189757405596
      ],
      [
        "▁рубле",
        -10.41223345925457
      ],
      [
        "НК",
        -10.412401634338757
      ],
      [
        "▁корпораци",
        -10.412616499343406
      ],
      [
        "больших",
        -10.412788477190983
      ],
      [
        "против",
        -10.412801197788749
      ],
      [
        "▁пришел",
        -10.413984141416893
      ],
      [
        "▁оказа",
        -10.414017396613469
      ],
      [
        "▁предназначен",
        -10.414553245778233
      ],
      [
        "▁пару",
        -10.414906423548548
      ],
      [
        "▁кино",
        -10.414949562233694
      ],
      [
        "ie",
        -10.415156509661546
      ],
      [
        "▁de",
        -10.415390298531257
      ],
      [
        "дверь",
        -10.415574215114706
      ],
      [
        "▁обои",
        -10.41575347708255
      ],
      [
        "▁Ничего",
        -10.415820104282833
      ],
      [
        "▁домашни",
        -10.41586626287205
      ],
      [
        "▁доход",
        -10.416125605505847
      ],
      [
        "▁происхождения",
        -10.41659843038278
      ],
      [
        "▁школа",
        -10.416671988994981
      ],
      [
        "▁Банк",
        -10.41684262733038
      ],
      [
        "▁военно",
        -10.417193082434146
      ],
      [
        "зер",
        -10.41740344093021
      ],
      [
        "▁детя",
        -10.417786770095196
      ],
      [
        "▁Министерства",
        -10.417895003923107
      ],
      [
        "▁причине",
        -10.418159895836222
      ],
      [
        "ала",
        -10.418613731388367
      ],
      [
        "▁форму",
        -10.418667528694353
      ],
      [
        "купить",
        -10.418963168281543
      ],
      [
        "▁успеха",
        -10.418996453209225
      ],
      [
        "лон",
        -10.419193445854518
      ],
      [
        "lo",
        -10.420003426461568
      ],
      [
        "▁банков",
        -10.420254827305818
      ],
      [
        "▁коммерчески",
        -10.420479806525671
      ],
      [
        "▁аэропорт",
        -10.420808915925655
      ],
      [
        "▁содействовать",
        -10.421020712270547
      ],
      [
        "▁национальные",
        -10.42125249079732
      ],
      [
        "кое",
        -10.421773011646994
      ],
      [
        "▁определение",
        -10.423452096156156
      ],
      [
        "▁участвова",
        -10.423598491912033
      ],
      [
        "▁чувство",
        -10.424391634750961
      ],
      [
        "▁функци",
        -10.42479323320523
      ],
      [
        "▁консультации",
        -10.425351879056034
      ],
      [
        "▁функция",
        -10.425984890840667
      ],
      [
        "▁подробно",
        -10.42642029368574
      ],
      [
        "▁крупнейши",
        -10.42642366615071
      ],
      [
        "▁нынешне",
        -10.427562746679317
      ],
      [
        "▁низко",
        -10.427966390900542
      ],
      [
        "▁вкус",
        -10.428055509271484
      ],
      [
        "▁религиозны",
        -10.428500281690948
      ],
      [
        "эр",
        -10.428677090925103
      ],
      [
        "▁взаимодействия",
        -10.429206559738619
      ],
      [
        "▁Фонд",
        -10.429227994209326
      ],
      [
        "▁признак",
        -10.429620457227006
      ],
      [
        "онных",
        -10.429960909744814
      ],
      [
        "▁студентов",
        -10.430018270501797
      ],
      [
        "лер",
        -10.430156490149209
      ],
      [
        "▁заявк",
        -10.430395706285925
      ],
      [
        "бил",
        -10.430412285354409
      ],
      [
        "▁длин",
        -10.430749709942404
      ],
      [
        "ред",
        -10.430877895560329
      ],
      [
        "важность",
        -10.431068919935075
      ],
      [
        "вечером",
        -10.431101697058388
      ],
      [
        "ta",
        -10.431474640318244
      ],
      [
        "▁автобус",
        -10.431582266231743
      ],
      [
        "джи",
        -10.431852679370955
      ],
      [
        "▁обеспечивать",
        -10.43210284042349
      ],
      [
        "▁душ",
        -10.4324164472594
      ],
      [
        "▁рад",
        -10.432472519751434
      ],
      [
        "щ",
        -10.43317313533026
      ],
      [
        "▁написал",
        -10.433387680045001
      ],
      [
        "me",
        -10.43363398802311
      ],
      [
        "▁финансирование",
        -10.433937831458682
      ],
      [
        "▁влияния",
        -10.43403836984802
      ],
      [
        "vi",
        -10.434115131155586
      ],
      [
        "пр",
        -10.435079049143553
      ],
      [
        "▁нарушени",
        -10.435127076557437
      ],
      [
        "▁жиль",
        -10.435383949648703
      ],
      [
        "▁СНГ",
        -10.435437732620457
      ],
      [
        "▁надзор",
        -10.435671858710876
      ],
      [
        "▁изменение",
        -10.436087516327241
      ],
      [
        "▁безопасно",
        -10.436345337814503
      ],
      [
        "тур",
        -10.436502792640916
      ],
      [
        "▁картин",
        -10.436938506945648
      ],
      [
        "хотим",
        -10.437289309576506
      ],
      [
        "▁проживани",
        -10.437771996233723
      ],
      [
        "▁следующее",
        -10.437815380963688
      ],
      [
        "▁Необходимо",
        -10.438210242094808
      ],
      [
        "▁Ан",
        -10.438235155780358
      ],
      [
        "▁оставил",
        -10.43847470158194
      ],
      [
        "▁мировы",
        -10.439229205714394
      ],
      [
        "▁доля",
        -10.439484707944857
      ],
      [
        "▁метров",
        -10.439871887271188
      ],
      [
        "▁некоторо",
        -10.439883300856412
      ],
      [
        "▁письмо",
        -10.440006392812743
      ],
      [
        "▁возник",
        -10.440410571627282
      ],
      [
        "▁законом",
        -10.440506268313584
      ],
      [
        "▁выполнен",
        -10.44130682911948
      ],
      [
        "▁спросил",
        -10.441403751679418
      ],
      [
        "▁настоятельно",
        -10.441443331081892
      ],
      [
        "▁недель",
        -10.441766093322027
      ],
      [
        "▁счета",
        -10.442139115791651
      ],
      [
        "дра",
        -10.442430657871245
      ],
      [
        "рит",
        -10.442502543449828
      ],
      [
        "Выберите",
        -10.442788049287579
      ],
      [
        "ночи",
        -10.442855239166125
      ],
      [
        "▁экономик",
        -10.44294773679539
      ],
      [
        "просить",
        -10.44311126367012
      ],
      [
        "▁высот",
        -10.443184499574343
      ],
      [
        "▁следующе",
        -10.443207167001418
      ],
      [
        "▁настоящем",
        -10.443496960756342
      ],
      [
        "▁обязанности",
        -10.444289933288697
      ],
      [
        "шла",
        -10.446209330627312
      ],
      [
        "▁стороне",
        -10.446244287743403
      ],
      [
        "▁топлива",
        -10.446258936742272
      ],
      [
        "▁Хо",
        -10.447059380374505
      ],
      [
        "▁усилени",
        -10.44758991084549
      ],
      [
        "▁отчетности",
        -10.44762040564233
      ],
      [
        "▁завершения",
        -10.447688144566253
      ],
      [
        "ера",
        -10.44791613413372
      ],
      [
        "▁St",
        -10.448348585279536
      ],
      [
        "▁порт",
        -10.448570753857311
      ],
      [
        "▁политические",
        -10.44891304238678
      ],
      [
        "элементы",
        -10.449133391238279
      ],
      [
        "ации",
        -10.449382383425839
      ],
      [
        "▁SQL",
        -10.449616813573266
      ],
      [
        "▁временно",
        -10.449731619339248
      ],
      [
        "министр",
        -10.449742990221154
      ],
      [
        "▁решении",
        -10.4500340551068
      ],
      [
        "▁представленны",
        -10.450286710734625
      ],
      [
        "▁больша",
        -10.450485994991482
      ],
      [
        "▁зоны",
        -10.450954250105259
      ],
      [
        "▁почты",
        -10.451010312515944
      ],
      [
        "▁глаз",
        -10.45118804405559
      ],
      [
        "▁родител",
        -10.451221575332273
      ],
      [
        "друг",
        -10.451275782167755
      ],
      [
        "ступить",
        -10.451424480256197
      ],
      [
        "▁каза",
        -10.451432368946747
      ],
      [
        "▁Мин",
        -10.45156739835203
      ],
      [
        "▁основным",
        -10.451644414134151
      ],
      [
        "▁объявил",
        -10.452226175451383
      ],
      [
        "▁предполагает",
        -10.452389383845361
      ],
      [
        "факторов",
        -10.452650602441388
      ],
      [
        "Й",
        -10.453216758718767
      ],
      [
        "▁окно",
        -10.453530588035974
      ],
      [
        "▁Ро",
        -10.453677100737492
      ],
      [
        "▁сведени",
        -10.453836306164053
      ],
      [
        "▁визит",
        -10.453898791615186
      ],
      [
        "▁финансового",
        -10.45436033055136
      ],
      [
        "пле",
        -10.454620893882035
      ],
      [
        "Z",
        -10.454722232053054
      ],
      [
        "▁сбора",
        -10.455206418420051
      ],
      [
        "▁ядерны",
        -10.455673738061382
      ],
      [
        "▁называет",
        -10.455861451778095
      ],
      [
        "▁вести",
        -10.456913421085805
      ],
      [
        "▁технически",
        -10.458348949649602
      ],
      [
        "▁обстановк",
        -10.45838666643003
      ],
      [
        "▁участники",
        -10.458567549504302
      ],
      [
        "▁торгово",
        -10.458610037444606
      ],
      [
        "ключа",
        -10.45883024944452
      ],
      [
        "▁разработан",
        -10.459226726578052
      ],
      [
        "образ",
        -10.460107729988579
      ],
      [
        "▁представителям",
        -10.460246419859416
      ],
      [
        "▁Буш",
        -10.460268586230264
      ],
      [
        "▁предложит",
        -10.460295745023283
      ],
      [
        "▁забот",
        -10.46043831300751
      ],
      [
        "▁параметры",
        -10.461073908063572
      ],
      [
        "▁Доклад",
        -10.461110687463563
      ],
      [
        "пере",
        -10.461491099216133
      ],
      [
        "▁Верховно",
        -10.46161482884032
      ],
      [
        "ющийся",
        -10.461625445812366
      ],
      [
        "▁Генеральн",
        -10.462171315576867
      ],
      [
        "платить",
        -10.46268280365977
      ],
      [
        "▁выпуска",
        -10.46278391641286
      ],
      [
        "▁версия",
        -10.462815593210406
      ],
      [
        "даты",
        -10.463154566446084
      ],
      [
        "ТА",
        -10.463606391889428
      ],
      [
        "▁конц",
        -10.464175485026034
      ],
      [
        "▁па",
        -10.464360625218541
      ],
      [
        "▁положении",
        -10.464600996179437
      ],
      [
        "кус",
        -10.465371596238246
      ],
      [
        "ведут",
        -10.465537873104466
      ],
      [
        "▁DVD",
        -10.46586862464141
      ],
      [
        "▁какого",
        -10.466351538634918
      ],
      [
        "рин",
        -10.466484311600613
      ],
      [
        "▁курса",
        -10.467010188849985
      ],
      [
        "▁Основны",
        -10.467027397446005
      ],
      [
        "▁собственны",
        -10.467103795693799
      ],
      [
        "теля",
        -10.467721587283162
      ],
      [
        "▁♪",
        -10.467897021215762
      ],
      [
        "пор",
        -10.46791926849877
      ],
      [
        "ших",
        -10.468140632814245
      ],
      [
        "касающих",
        -10.468519614755483
      ],
      [
        "добавить",
        -10.468762812022558
      ],
      [
        "▁пространства",
        -10.468796114822627
      ],
      [
        "▁стади",
        -10.469559565291148
      ],
      [
        "▁огромны",
        -10.46978108356408
      ],
      [
        "чер",
        -10.469817650650816
      ],
[...]
