{
  "version": "1.0",
  "truncation": null,
  "padding": null,
  "added_tokens": [
    {
      "id": 0,
      "content": "<pad>",
      "single_word": false,
      "lstrip": false,
      "rstrip": false,
      "normalized": false,
      "special": true
    },
    {
      "id": 1,
      "content": "<s>",
      "single_word": false,
      "lstrip": false,
      "rstrip": false,
      "normalized": false,
      "special": true
    },
    {
      "id": 2,
      "content": "</s>",
      "single_word": false,
      "lstrip": false,
      "rstrip": false,
      "normalized": false,
      "special": true
    },
    {
      "id": 3,
      "content": "<unk>",
      "single_word": false,
      "lstrip": false,
      "rstrip": false,
      "normalized": false,
      "special": true
    },
    {
      "id": 4,
      "content": "<2ru>",
      "single_word": false,
      "lstrip": false,
      "rstrip": false,
      "normalized": false,
      "special": true
    },
    {
      "id": 5,
      "content": "<2en>",
      "single_word": false,
      "lstrip": false,
      "rstrip": false,
      "normalized": false,
      "special": true
    }
  ],
  "normalizer": {
    "type": "NFKC"
  },
  "pre_tokenizer": {
    "type": "Sequence",
    "pretokenizers": [
      {
        "type": "Metaspace",
        "replacement": "▁",
        "prepend_scheme": "always",
        "split": true
      },
      {
        "type": "Punctuation",
        "behavior": "Isolated"
      },
      {
        "type": "Digits",
        "individual_digits": true
      }
    ]
  },
  "post_processor": {
    "type": "TemplateProcessing",
    "single": [
      {
        "SpecialToken": {
          "id": "<s>",
          "type_id": 0
        }
      },
      {
        "Sequence": {
          "id": "A",
          "type_id": 0
        }
      },
      {
        "SpecialToken": {
          "id": "</s>",
          "type_id": 0
        }
      }
    ],
    "pair": [
      {
        "Sequence": {
          "id": "A",
          "type_id": 0
        }
      },
      {
        "Sequence": {
          "id": "B",
          "type_id": 1
        }
      }
    ],
    "special_tokens": {
      "</s>": {
        "id": "</s>",
        "ids": [
          2
        ],
        "tokens": [
          "</s>"
        ]
      },
      "<s>": {
        "id": "<s>",
        "ids": [
          1
        ],
        "tokens": [
          "<s>"
        ]
      }
    }
  },
  "decoder": {
    "type": "Metaspace",
    "replacement": "▁",
    "prepend_scheme": "always",
    "split": true
  },
  "model": {
    "type": "Unigram",
    "unk_id": 3,
    "vocab": [
      [
        "<pad>",
        0.0
      ],
      [
        "<s>",
        0.0
      ],
      [
        "</s>",
        0.0
      ],
      [
        "<unk>",
        0.0
      ],
      [
        "<2ru>",
        0.0
      ],
      [
        "<2en>",
        0.0
      ],
      [
        "▁",
        -1.842340255050427
      ],
      [
        ",",
        -3.232522747264607
      ],
      [
        ".",
        -3.5762536709260146
      ],
      [
        "▁the",
        -3.8649335814545616
      ],
      [
        "и",
        -3.964509945592905
      ],
      [
        "▁of",
        -4.314351783740355
      ],
      [
        "s",
        -4.321715045966814
      ],
      [
        "в",
        -4.510182950717194
      ],
      [
        "▁and",
        -4.561419232951414
      ],
      [
        "0",
        -4.673425934573078
      ],
      [
        "1",
        -4.67489000816831
      ],
      [
        "е",
        -4.688733116904844
      ],
      [
        "▁to",
        -4.769495542005037
      ],
      [
        "2",
        -4.8482283446571195
      ],
      [
        "-",
        -4.923629545801786
      ],
      [
        "й",
        -5.003300845320068
      ],
      [
        "▁in",
        -5.0392726595647925
      ],
      [
        "х",
        -5.13362000922675
      ],
      [
        "a",
        -5.174650592205065
      ],
      [
        "а",
        -5.350151726676582
      ],
      [
        ")",
        -5.403523855350892
      ],
      [
        "9",
        -5.4536189607047145
      ],
      [
        "с",
        -5.465569481506977
      ],
      [
        "▁на",
        -5.492861804533106
      ],
      [
        "(",
        -5.502326520045667
      ],
      [
        "ed",
        -5.5378765180636655
      ],
      [
        "3",
        -5.570165912362905
      ],
      [
        "5",
        -5.624371192652861
      ],
      [
        "▁по",
        -5.646061171709475
      ],
      [
        ":",
        -5.6788096819807095
      ],
      [
        "4",
        -5.706870381469249
      ],
      [
        "м",
        -5.7354883662622225
      ],
      [
        "▁for",
        -5.7355263982550895
      ],
      [
        "я",
        -5.764653450894707
      ],
      [
        "ы",
        -5.776667481098384
      ],
      [
        "о",
        -5.780086063858613
      ],
      [
        "ing",
        -5.785862927601615
      ],
      [
        "/",
        -5.809019822380463
      ],
      [
        "го",
        -5.837206402271882
      ],
      [
        "6",
        -5.867940895249523
      ],
      [
        "▁that",
        -5.8697643954675165
      ],
      [
        "▁on",
        -5.926901401915144
      ],
      [
        "у",
        -5.927667906899064
      ],
      [
        "7",
        -6.001911423053853
      ],
      [
        "▁The",
        -6.0084362583389375
      ],
      [
        "8",
        -6.017161548253432
      ],
      [
        "▁is",
        -6.049994674068209
      ],
      [
        "ю",
        -6.1056225289009465
      ],
      [
        "▁не",
        -6.158324036846718
      ],
      [
        "\"",
        -6.174603373623167
      ],
      [
        "▁что",
        -6.2013435042478715
      ],
      [
        "▁with",
        -6.216041929326687
      ],
      [
        ";",
        -6.230508732053078
      ],
      [
        "к",
        -6.239323280215139
      ],
      [
        "▁для",
        -6.263045560277481
      ],
      [
        "▁be",
        -6.343405464098504
      ],
      [
        "e",
        -6.360616069972966
      ],
      [
        "▁by",
        -6.3839240643061945
      ],
      [
        "▁as",
        -6.3897256714680655
      ],
      [
        "y",
        -6.4246474023391915
      ],
      [
        "'",
        -6.550725626220332
      ],
      [
        "d",
        -6.552849109843301
      ],
      [
        "▁В",
        -6.563433801902184
      ],
      [
        "ly",
        -6.592708859848177
      ],
      [
        "▁are",
        -6.658780937190091
      ],
      [
        "ов",
        -6.663242181061557
      ],
      [
        "ом",
        -6.681378783543183
      ],
      [
        "ть",
        -6.698844310659329
      ],
      [
        "t",
        -6.764259305596877
      ],
      [
        "ми",
        -6.766448499982957
      ],
      [
        "▁was",
        -6.818932372918537
      ],
      [
        "т",
        -6.839208127152361
      ],
      [
        "▁from",
        -6.841890800831907
      ],
      [
        "▁not",
        -6.861169675471846
      ],
      [
        "▁от",
        -6.868434707114165
      ],
      [
        "▁or",
        -6.870266030497586
      ],
      [
        "▁it",
        -6.885750651928168
      ],
      [
        "▁at",
        -6.8933874107456745
      ],
      [
        "▁its",
        -6.92391516775171
      ],
      [
        "o",
        -6.926896788378135
      ],
      [
        "▁года",
        -6.946228200932795
      ],
      [
        "▁I",
        -6.95369473956629
      ],
      [
        "▁за",
        -6.957415983798887
      ],
      [
        "ая",
        -6.980276627121997
      ],
      [
        "▁из",
        -6.985411835101942
      ],
      [
        "▁или",
        -7.001468194838383
      ],
      [
        "▁как",
        -7.007924896858219
      ],
      [
        "▁you",
        -7.022307726564213
      ],
      [
        "▁также",
        -7.039774676173137
      ],
      [
        "▁have",
        -7.041371686328352
      ],
      [
        "▁an",
        -7.080092055309633
      ],
      [
        "▁which",
        -7.0867824297368305
      ],
      [
        "n",
        -7.099801499767693
      ],
      [
        "▁this",
        -7.106526367895254
      ],
      [
        "▁will",
        -7.110346875545902
      ],
      [
        "?",
        -7.129560433849679
      ],
      [
        "▁A",
        -7.141644070109539
      ],
      [
        "▁their",
        -7.146865614004236
      ],
      [
        "▁In",
        -7.174687418533342
      ],
      [
        "▁all",
        -7.175095800982083
      ],
      [
        "▁has",
        -7.243292616414436
      ],
      [
        "United",
        -7.25711872443682
      ],
      [
        "ей",
        -7.2666315842668325
      ],
      [
        "ую",
        -7.300509661145368
      ],
      [
        "ой",
        -7.304691752916662
      ],
      [
        "ся",
        -7.329163207500004
      ],
      [
        "▁при",
        -7.346833907796434
      ],
      [
        "▁их",
        -7.401844896817471
      ],
      [
        "ь",
        -7.407844493881486
      ],
      [
        "▁его",
        -7.425553836982736
      ],
      [
        "»",
        -7.426403893705601
      ],
      [
        "▁которые",
        -7.45340487545193
      ],
      [
        "▁Nations",
        -7.464587764826657
      ],
      [
        "▁Объединенны",
        -7.46756254373514
      ],
      [
        "▁чтобы",
        -7.470525184600241
      ],
      [
        "«",
        -7.471707923296146
      ],
      [
        "▁had",
        -7.47576884990557
      ],
      [
        "▁Наций",
        -7.476195512156252
      ],
      [
        "i",
        -7.4786414507839005
      ],
      [
        "▁also",
        -7.4894426653265675
      ],
      [
        "▁Организации",
        -7.509374703384573
      ],
      [
        "▁were",
        -7.533136452281903
      ],
      [
        "▁это",
        -7.536657307556117
      ],
      [
        "▁other",
        -7.538029573614359
      ],
      [
        "ется",
        -7.538285995709606
      ],
      [
        "▁been",
        -7.539219481330868
      ],
      [
        "му",
        -7.545654185354401
      ],
      [
        "▁international",
        -7.558369264911349
      ],
      [
        "▁Committee",
        -7.56431969357598
      ],
      [
        "▁can",
        -7.575909447160532
      ],
      [
        "ies",
        -7.576556440639617
      ],
      [
        "ться",
        -7.578974215997151
      ],
      [
        "m",
        -7.628671432005351
      ],
      [
        "—",
        -7.656741016033399
      ],
      [
        "▁том",
        -7.663447300913278
      ],
      [
        "▁States",
        -7.673725296201091
      ],
      [
        "b",
        -7.693932156813267
      ],
      [
        "▁should",
        -7.696055142961656
      ],
      [
        "ами",
        -7.699249310589545
      ],
      [
        "н",
        -7.700915999160275
      ],
      [
        "C",
        -7.708038160585442
      ],
      [
        "▁development",
        -7.718495830020382
      ],
      [
        "▁до",
        -7.718555005861774
      ],
      [
        "c",
        -7.72629761098155
      ],
      [
        "▁countries",
        -7.727675298143444
      ],
      [
        "▁report",
        -7.733674358717957
      ],
      [
        "ем",
        -7.738610949540369
      ],
      [
        "▁вы",
        -7.744433680113897
      ],
      [
        "▁того",
        -7.758589730360031
      ],
      [
        "▁области",
        -7.76056105930102
      ],
      [
        "▁would",
        -7.773907707789693
      ],
      [
        "▁все",
        -7.774406856344866
      ],
      [
        "ли",
        -7.780849910858732
      ],
      [
        "г",
        -7.786478939393943
      ],
      [
        "!",
        -7.788358482166522
      ],
      [
        "▁It",
        -7.793041733842609
      ],
      [
        "▁будет",
        -7.808562886812549
      ],
      [
        "▁С",
        -7.809755108009382
      ],
      [
        "▁more",
        -7.8119678526979985
      ],
      [
        "▁более",
        -7.819173725924081
      ],
      [
        "–",
        -7.824066914744748
      ],
      [
        "▁your",
        -7.8259898398251
      ],
      [
        "▁we",
        -7.83566284605973
      ],
      [
        "▁such",
        -7.839716386658058
      ],
      [
        "ных",
        -7.853934924422401
      ],
      [
        "▁rights",
        -7.858333438168103
      ],
      [
        "▁work",
        -7.882437798880799
      ],
      [
        "▁one",
        -7.889913081273404
      ],
      [
        "▁who",
        -7.892175074890266
      ],
      [
        "A",
        -7.893246876871773
      ],
      [
        "▁развития",
        -7.898120677286734
      ],
      [
        "▁человека",
        -7.901151385035417
      ],
      [
        "▁S",
        -7.903962276009773
      ],
      [
        "▁under",
        -7.904698439239715
      ],
      [
        "er",
        -7.907385719471163
      ],
      [
        "▁information",
        -7.909955142787021
      ],
      [
        "▁his",
        -7.9210775813666
      ],
      [
        "▁то",
        -7.92745206480531
      ],
      [
        "al",
        -7.931200248525608
      ],
      [
        "▁they",
        -7.933172953339167
      ],
      [
        "▁бы",
        -7.948208120239949
      ],
      [
        "▁but",
        -7.950894997685488
      ],
      [
        "he",
        -7.957822221458715
      ],
      [
        "▁со",
        -7.974139376522592
      ],
      [
        "resolution",
        -7.9765353325611805
      ],
      [
        "▁так",
        -7.979152929402472
      ],
      [
        "▁human",
        -7.980110117992782
      ],
      [
        "▁new",
        -7.986713635321836
      ],
      [
        "▁во",
        -7.998217966545425
      ],
      [
        "▁прав",
        -8.003269119025385
      ],
      [
        "▁including",
        -8.003796284254722
      ],
      [
        "▁является",
        -8.004969544164341
      ],
      [
        "▁он",
        -8.008584924060969
      ],
      [
        "▁может",
        -8.013015209875798
      ],
      [
        "▁На",
        -8.015112220690991
      ],
      [
        "▁national",
        -8.018223831601434
      ],
      [
        "▁об",
        -8.022587484377503
      ],
      [
        "ются",
        -8.027309815521885
      ],
      [
        "▁По",
        -8.027928187791511
      ],
      [
        "▁году",
        -8.029252786207255
      ],
      [
        "ет",
        -8.029396265822335
      ],
      [
        "▁время",
        -8.032718564051663
      ],
      [
        "▁into",
        -8.033829014161702
      ],
      [
        "▁there",
        -8.036696145775304
      ],
      [
        "%",
        -8.036901669367195
      ],
      [
        "▁Council",
        -8.038132783193413
      ],
      [
        "▁any",
        -8.039722475287313
      ],
      [
        "▁people",
        -8.046175877492061
      ],
      [
        "r",
        -8.047715970240136
      ],
      [
        "▁time",
        -8.054006329191727
      ],
      [
        "▁Генерально",
        -8.061226681248293
      ],
      [
        "▁всех",
        -8.06277596269089
      ],
      [
        "g",
        -8.064758917914078
      ],
      [
        "▁было",
        -8.065105799402952
      ],
      [
        "▁тем",
        -8.071347871304924
      ],
      [
        "▁State",
        -8.079226988760453
      ],
      [
        "▁support",
        -8.080523034321187
      ],
      [
        "▁our",
        -8.081617358034642
      ],
      [
        "▁мы",
        -8.084138760886761
      ],
      [
        "▁быть",
        -8.100926051516527
      ],
      [
        "▁out",
        -8.11039129060383
      ],
      [
        "▁well",
        -8.117667621644657
      ],
      [
        "л",
        -8.125740069584594
      ],
      [
        "▁они",
        -8.12707233084976
      ],
      [
        "ах",
        -8.139609013023305
      ],
      [
        "▁about",
        -8.141474941791481
      ],
      [
        "▁This",
        -8.141929875107962
      ],
      [
        "in",
        -8.144878593513619
      ],
      [
        "▁резолюци",
        -8.14771635601321
      ],
      [
        "этой",
        -8.153094698562349
      ],
      [
        "▁отношении",
        -8.153338417362544
      ],
      [
        "▁были",
        -8.16194736343562
      ],
      [
        "▁women",
        -8.171218148102804
      ],
      [
        "▁между",
        -8.175649034684291
      ],
      [
        "▁use",
        -8.176957948276058
      ],
      [
        "L",
        -8.18418517230902
      ],
      [
        "▁деятельности",
        -8.184778952109095
      ],
      [
        "S",
        -8.185552637201155
      ],
      [
        "▁Комитет",
        -8.190173485450835
      ],
      [
        "’",
        -8.195407153421732
      ],
      [
        "▁стран",
        -8.196304042623145
      ],
      [
        "▁only",
        -8.204617714306387
      ],
      [
        "▁them",
        -8.206347973671374
      ],
      [
        "▁system",
        -8.207177180935778
      ],
      [
        "▁под",
        -8.20943607927364
      ],
      [
        "▁но",
        -8.217039247065498
      ],
      [
        "▁вопросам",
        -8.21802736224359
      ],
      [
        "▁those",
        -8.226536607958948
      ],
      [
        "▁made",
        -8.234677509042102
      ],
      [
        "▁был",
        -8.23499774740422
      ],
      [
        "▁We",
        -8.235525962738551
      ],
      [
        "▁between",
        -8.236219677969626
      ],
      [
        "▁связи",
        -8.237694635662308
      ],
      [
        "General",
        -8.249480151531454
      ],
      [
        "▁женщин",
        -8.25874414498817
      ],
      [
        "ные",
        -8.261767854382084
      ],
      [
        "▁этого",
        -8.270697866329794
      ],
      [
        "▁these",
        -8.271364330970899
      ],
      [
        "▁И",
        -8.271415927074488
      ],
      [
        "▁no",
        -8.277532426068058
      ],
      [
        "▁law",
        -8.285496871239058
      ],
      [
        "ная",
        -8.285920042153887
      ],
      [
        "▁concern",
        -8.286050123399049
      ],
      [
        "p",
        -8.289359553058349
      ],
      [
        "▁may",
        -8.289743837391374
      ],
      [
        "f",
        -8.291440670906125
      ],
      [
        "▁years",
        -8.294577519657935
      ],
      [
        "▁же",
        -8.294777665018788
      ],
      [
        "ity",
        -8.295137269208384
      ],
      [
        "▁Government",
        -8.297167716454245
      ],
      [
        "P",
        -8.297848376202166
      ],
      [
        "ion",
        -8.300275590624185
      ],
      [
        "лись",
        -8.30075794743077
      ],
      [
        "▁E",
        -8.301520380974736
      ],
      [
        "▁against",
        -8.30960736635084
      ],
      [
        "*",
        -8.311277032340348
      ],
      [
        "▁Convention",
        -8.313435209217971
      ],
      [
        "▁through",
        -8.324696950891026
      ],
      [
        "▁up",
        -8.326612356316613
      ],
      [
        "▁который",
        -8.327336103025992
      ],
      [
        "▁только",
        -8.332773758818155
      ],
      [
        "▁than",
        -8.333081884761262
      ],
      [
        "▁соответствии",
        -8.340784688906501
      ],
      [
        "▁session",
        -8.341699402212397
      ],
      [
        "▁Assembly",
        -8.347037458216052
      ],
      [
        "зад",
        -8.351405595196772
      ],
      [
        "▁do",
        -8.353745047415432
      ],
      [
        "▁number",
        -8.357047722484717
      ],
      [
        "▁activities",
        -8.357279638365847
      ],
      [
        "▁implementation",
        -8.366681105889349
      ],
      [
        "д",
        -8.368803214633315
      ],
      [
        "▁Я",
        -8.373575923830108
      ],
      [
        "▁country",
        -8.377815618661481
      ],
      [
        "▁этом",
        -8.382781795359158
      ],
      [
        "h",
        -8.383198044130413
      ],
      [
        "▁должны",
        -8.388491297857465
      ],
      [
        "▁могут",
        -8.394469025248089
      ],
      [
        "able",
        -8.395117210427594
      ],
      [
        "▁some",
        -8.396364866747072
      ],
      [
        "▁per",
        -8.401945208054233
      ],
      [
        "▁ago",
        -8.40398781275627
      ],
      [
        "▁need",
        -8.404361697551245
      ],
      [
        "▁if",
        -8.410035452171451
      ],
      [
        "▁других",
        -8.410209561380704
      ],
      [
        "▁безопасности",
        -8.410636988734344
      ],
      [
        "то",
        -8.411798042295993
      ],
      [
        "Secretary",
        -8.413446321630772
      ],
      [
        "▁over",
        -8.41553127011252
      ],
      [
        "▁целях",
        -8.419975262892219
      ],
      [
        "▁если",
        -8.421263214978156
      ],
      [
        "▁рамках",
        -8.422883226415959
      ],
      [
        "▁two",
        -8.425980313224434
      ],
      [
        "▁effort",
        -8.426948740837737
      ],
      [
        "на",
        -8.427868235484112
      ],
      [
        "“",
        -8.429734140780909
      ],
      [
        "▁when",
        -8.429864104508441
      ],
      [
        "▁права",
        -8.443483272587486
      ],
      [
        "▁take",
        -8.445276653709312
      ],
      [
        "▁most",
        -8.446160084866161
      ],
      [
        "on",
        -8.44713725501015
      ],
      [
        "▁order",
        -8.447946595026139
      ],
      [
        "▁Republic",
        -8.44954017944346
      ],
      [
        "▁first",
        -8.453176114679573
      ],
      [
        "▁когда",
        -8.45520106700051
      ],
      [
        "or",
        -8.45955374442205
      ],
      [
        "▁T",
        -8.460451743221446
      ],
      [
        "▁работы",
        -8.464800866451133
      ],
      [
        "▁Это",
        -8.466925335119466
      ],
      [
        "ной",
        -8.467369838402174
      ],
      [
        "▁economic",
        -8.468675766725507
      ],
      [
        "▁provide",
        -8.47197011598107
      ],
      [
        "▁children",
        -8.472954560458874
      ],
      [
        "l",
        -8.47415365728736
      ],
      [
        "▁could",
        -8.479909881955678
      ],
      [
        "▁обеспечения",
        -8.481583855578467
      ],
      [
        "▁International",
        -8.483302613041438
      ],
      [
        "ного",
        -8.489070375866074
      ],
      [
        "”",
        -8.490437774315282
      ],
      [
        "▁системы",
        -8.494635670710679
      ],
      [
        "▁right",
        -8.498816401506682
      ],
      [
        "▁security",
        -8.504893604389942
      ],
      [
        "measures",
        -8.50513963475765
      ],
      [
        "ever",
        -8.507995911282505
      ],
      [
        "▁включая",
        -8.508684731169765
      ],
      [
        "▁Commission",
        -8.509857634362314
      ],
      [
        "▁государств",
        -8.509965272405944
      ],
      [
        "▁meeting",
        -8.511093956877742
      ],
      [
        "▁General",
        -8.512014772859741
      ],
      [
        "▁D",
        -8.513365603911506
      ],
      [
        "]",
        -8.51680851664232
      ],
      [
        "▁un",
        -8.522841745775187
      ],
      [
        "▁B",
        -8.532692250219005
      ],
      [
        "▁must",
        -8.53355785234498
      ],
      [
        "<",
        -8.534074627259892
      ],
      [
        "▁страны",
        -8.535058058796684
      ],
      [
        ">",
        -8.54236002783816
      ],
      [
        "th",
        -8.542959632953396
      ],
      [
        "▁после",
        -8.547358229472312
      ],
      [
        "ого",
        -8.547613465380593
      ],
      [
        "▁world",
        -8.549254531646284
      ],
      [
        "[",
        -8.550468205877856
      ],
      [
        "ensure",
        -8.550997654462149
      ],
      [
        "▁Mr",
        -8.55138068397558
      ],
      [
        "▁cooperation",
        -8.556721900373152
      ],
      [
        "▁said",
        -8.558713954196083
      ],
      [
        "▁которых",
        -8.560050928962552
      ],
      [
        "D",
        -8.56559986656163
      ],
      [
        "▁Мы",
        -8.569973831273497
      ],
      [
        "▁public",
        -8.570270852749772
      ],
      [
        "▁process",
        -8.572074432865993
      ],
      [
        "▁social",
        -8.572298881279265
      ],
      [
        "▁можно",
        -8.572396851000105
      ],
      [
        "▁помощи",
        -8.57258759672463
      ],
      [
        "этих",
        -8.580441988485516
      ],
      [
        "▁государства",
        -8.581635593774019
      ],
      [
        "ную",
        -8.582001985824423
      ],
      [
        "▁my",
        -8.586651631155483
      ],
      [
        "▁where",
        -8.587467382123242
      ],
      [
        "она",
        -8.587872807671408
      ],
      [
        "▁стать",
        -8.58911801782788
      ],
      [
        "▁сессии",
        -8.593422100288645
      ],
      [
        "organizations",
        -8.598308295995873
      ],
      [
        "▁мира",
        -8.599660188954601
      ],
      [
        "ный",
        -8.605396516035965
      ],
      [
        "▁non",
        -8.605442476153968
      ],
      [
        "ам",
        -8.608043103130804
      ],
      [
        "▁своей",
        -8.610351500473437
      ],
      [
        "▁информации",
        -8.612295163143992
      ],
      [
        "▁будут",
        -8.614565067469984
      ],
      [
        "▁request",
        -8.614990624648117
      ],
      [
        "▁how",
        -8.617161364415479
      ],
      [
        "▁many",
        -8.617466633282868
      ],
      [
        "▁период",
        -8.617649517737362
      ],
      [
        "▁А",
        -8.618622842281441
      ],
      [
        "▁лет",
        -8.619130603718393
      ],
      [
        "▁services",
        -8.621810950993686
      ],
      [
        "▁UN",
        -8.626518380694058
      ],
      [
        "▁part",
        -8.627570835206074
      ],
      [
        "▁He",
        -8.628134879767542
      ],
      [
        "ers",
        -8.628518215607478
      ],
      [
        "▁лиц",
        -8.630565989428584
      ],
      [
        "▁shall",
        -8.633587419594457
      ],
      [
        "меры",
        -8.634928726859176
      ],
      [
        "▁make",
        -8.642415641784932
      ],
      [
        "▁случае",
        -8.648512973115807
      ],
      [
        "▁address",
        -8.65102915370836
      ],
      [
        "▁была",
        -8.655197251582777
      ],
      [
        "▁которая",
        -8.658044017100734
      ],
      [
        "▁Г",
        -8.659839597339328
      ],
      [
        "O",
        -8.664031460103056
      ],
      [
        "▁качестве",
        -8.664799409577212
      ],
      [
        "▁year",
        -8.666767007418779
      ],
      [
        "during",
        -8.668378782626505
      ],
      [
        "▁resources",
        -8.671610013366587
      ],
      [
        "▁high",
        -8.67207119878852
      ],
      [
        "▁детей",
        -8.6763728581209
      ],
      [
        "▁Он",
        -8.678008844119178
      ],
      [
        "▁draft",
        -8.67981999255665
      ],
      [
        "еще",
        -8.68136055039133
      ],
      [
        "▁Совета",
        -8.681991324200329
      ],
      [
        "within",
        -8.682984571477792
      ],
      [
        "▁год",
        -8.683205915844127
      ],
      [
        "▁образом",
        -8.689332827256365
      ],
      [
        "но",
        -8.690378900653215
      ],
      [
        "▁issues",
        -8.693130250468652
      ],
      [
        "▁без",
        -8.698361186993724
      ],
      [
        "▁You",
        -8.698437938911617
      ],
      [
        "▁частност",
        -8.70036224368262
      ],
      [
        "▁what",
        -8.702416624472672
      ],
      [
        "▁усилия",
        -8.704171063882564
      ],
      [
        "▁situation",
        -8.70577607021017
      ],
      [
        "▁financial",
        -8.70876158211897
      ],
      [
        "▁article",
        -8.710146684306245
      ],
      [
        "▁regional",
        -8.715447036077416
      ],
      [
        "▁борьб",
        -8.7196545119388
      ],
      [
        "▁чем",
        -8.720421617906977
      ],
      [
        "based",
        -8.744871846488742
      ],
      [
        "этому",
        -8.746647151156006
      ],
      [
        "п",
        -8.74768709034298
      ],
      [
        "▁К",
        -8.747828747195776
      ],
      [
        "▁уровне",
        -8.74844234548039
      ],
      [
        "him",
        -8.750590787551781
      ],
      [
        "▁Group",
        -8.750936192902874
      ],
      [
        "▁О",
        -8.755108101218589
      ],
      [
        "▁For",
        -8.755196476136867
      ],
      [
        "осуществления",
        -8.755438725114969
      ],
      [
        "▁Конвенции",
        -8.756292531713248
      ],
      [
        "▁being",
        -8.75909196116595
      ],
      [
        "▁party",
        -8.75981073781541
      ],
      [
        "▁программы",
        -8.75992773575674
      ],
      [
        "▁further",
        -8.760294213105544
      ],
      [
        "ла",
        -8.760926024279833
      ],
      [
        "▁important",
        -8.761738019003145
      ],
      [
        "▁At",
        -8.763962424068533
      ],
      [
        "&",
        -8.765427199543616
      ],
      [
        "▁me",
        -8.765747548946585
      ],
      [
        "taken",
        -8.76645519598054
      ],
      [
        "▁доклад",
        -8.767128770656784
      ],
      [
        "▁like",
        -8.76797239327441
      ],
      [
        "held",
        -8.768571572508979
      ],
      [
        "▁particular",
        -8.769637478275058
      ],
      [
        "▁health",
        -8.771697822265219
      ],
      [
        "▁Security",
        -8.771792343122478
      ],
      [
        "▁необходимо",
        -8.773223448034713
      ],
      [
        "▁level",
        -8.77426355195667
      ],
      [
        "▁им",
        -8.774372594820436
      ],
      [
        "следует",
        -8.78132786162156
      ],
      [
        "▁political",
        -8.78310789260877
      ],
      [
        "▁access",
        -8.783498017277228
      ],
      [
        "основе",
        -8.784550670092637
      ],
      [
        "▁Conference",
        -8.784863169931374
      ],
      [
        "▁members",
        -8.787340169887523
      ],
      [
        "▁data",
        -8.794565881980349
      ],
      [
        "provided",
        -8.795079740005502
      ],
      [
        "▁management",
        -8.797584812239695
      ],
      [
        "re",
        -8.800000385749666
      ],
      [
        "▁As",
        -8.804091584068464
      ],
      [
        "▁month",
        -8.80573782869048
      ],
      [
        "developing",
        -8.805941522876662
      ],
      [
        "▁used",
        -8.806555904130514
      ],
      [
        "▁very",
        -8.80706759221795
      ],
      [
        "▁решения",
        -8.8111006585204
      ],
      [
        "le",
        -8.813606661726642
      ],
      [
        "▁both",
        -8.813940503097962
      ],
      [
        "▁programme",
        -8.81486676949188
      ],
      [
        "assistance",
        -8.815600057904586
      ],
      [
        "▁To",
        -8.815614676726087
      ],
      [
        "▁same",
        -8.816118888571946
      ],
      [
        "таких",
        -8.821826022089141
      ],
      [
        "▁view",
        -8.82305054064408
      ],
      [
        "▁review",
        -8.823479641479762
      ],
      [
        "▁Если",
        -8.82353981237466
      ],
      [
        "▁Development",
        -8.823599028226354
      ],
      [
        "▁секретаря",
        -8.82378468220081
      ],
      [
        "лось",
        -8.824200665228357
      ],
      [
        "▁данных",
        -8.824578000644156
      ],
      [
        "▁paragraph",
        -8.82546000983568
      ],
      [
        "▁after",
        -8.82776939933152
      ],
      [
        "▁своих",
        -8.828145527996048
      ],
      [
        "лась",
        -8.82880070375496
      ],
      [
        "▁свои",
        -8.829062640776026
      ],
      [
        "▁decision",
        -8.831808044343433
      ],
      [
        "▁period",
        -8.83387816505166
      ],
      [
        "▁How",
        -8.834979277152383
      ],
      [
        "▁эти",
        -8.835941089768264
      ],
      [
        "▁Rights",
        -8.836079028133366
      ],
      [
        "▁her",
        -8.836146809031655
      ],
      [
        "▁account",
        -8.841088652693106
      ],
      [
        "▁place",
        -8.841091239820488
      ],
      [
        "▁Russian",
        -8.843221169163664
      ],
      [
        "▁regard",
        -8.845736706207393
      ],
      [
        "u",
        -8.852820938439786
      ],
      [
        "▁мер",
        -8.853552221305105
      ],
      [
        "▁And",
        -8.85356570280408
      ],
      [
        "▁социально",
        -8.854191590988927
      ],
      [
        "лся",
        -8.855745815975236
      ],
      [
        "либо",
        -8.856391891251706
      ],
      [
        "▁cent",
        -8.856796452993148
      ],
      [
        "▁дня",
        -8.857218329188347
      ],
      [
        "▁уже",
        -8.862762051648247
      ],
      [
        "▁before",
        -8.863554865989181
      ],
      [
        "▁President",
        -8.867024965599464
      ],
      [
        "▁числе",
        -8.869566448733888
      ],
      [
        "ment",
        -8.870857738860494
      ],
      [
        "▁peace",
        -8.872148533969897
      ],
      [
        "▁If",
        -8.873324664057579
      ],
      [
        "▁provision",
        -8.874364129720417
      ],
      [
        "▁внимание",
        -8.87452497267788
      ],
      [
        "▁Совет",
        -8.87536012255578
      ],
      [
        "▁управления",
        -8.877009848178087
      ],
      [
        "▁following",
        -8.877405268578348
      ],
      [
        "areas",
        -8.877448635425498
      ],
      [
        "▁policy",
        -8.879797042563078
      ],
      [
        "▁help",
        -8.880689892360307
      ],
      [
        "▁Как",
        -8.883100172666381
      ],
      [
        "свою",
        -8.884177279391288
      ],
      [
        "▁education",
        -8.88527663859259
      ],
      [
        "▁действий",
        -8.885699991076779
      ],
      [
        "related",
        -8.887285114932403
      ],
      [
        "▁legal",
        -8.88765379026527
      ],
      [
        "▁On",
        -8.889966094211088
      ],
      [
        "▁международного",
        -8.891951285049624
      ],
      [
        "за",
        -8.893756983439726
      ],
      [
        "E",
        -8.894844557054213
      ],
      [
        "▁Special",
        -8.895121525310772
      ],
      [
        "▁protection",
        -8.899122645113355
      ],
      [
        "▁против",
        -8.9005451073526
      ],
      [
        "▁программ",
        -8.90260563559974
      ],
      [
        "▁Вы",
        -8.903447352243733
      ],
      [
        "сти",
        -8.903755277294442
      ],
      [
        "▁организации",
        -8.90623551941786
      ],
      [
        "▁У",
        -8.908799219902644
      ],
      [
        "▁N",
        -8.910068535816272
      ],
      [
        "an",
        -8.914237130709749
      ],
      [
        "▁region",
        -8.916736017833134
      ],
      [
        "▁without",
        -8.916803437933721
      ],
      [
        "▁continue",
        -8.916820914199501
      ],
      [
        "тся",
        -8.920921452526157
      ],
      [
        "ка",
        -8.921041767127509
      ],
      [
        "▁among",
        -8.92137523066775
      ],
      [
        "▁ресурсов",
        -8.922881202690835
      ],
      [
        "▁F",
        -8.924248021962644
      ],
      [
        "ходе",
        -8.926354304219451
      ],
      [
        "▁persons",
        -8.927452098244942
      ],
      [
        "▁Office",
        -8.927803871036176
      ],
      [
        "▁life",
        -8.92782053336781
      ],
      [
        "▁средств",
        -8.927824441466639
      ],
      [
        "▁available",
        -8.935287624715398
      ],
      [
        "▁Кром",
        -8.937897753290398
      ],
      [
        "▁раз",
        -8.940105644390531
      ],
      [
        "▁action",
        -8.941163374730442
      ],
      [
        "▁являются",
        -8.94328907564974
      ],
      [
        "▁этот",
        -8.945583334206237
      ],
      [
        "▁положения",
        -8.948342887146195
      ],
      [
        "▁населения",
        -8.952067089586514
      ],
      [
        "▁community",
        -8.954519247454481
      ],
      [
        "▁now",
        -8.956747356186336
      ],
      [
        "▁present",
        -8.957682295042465
      ],
      [
        "▁всего",
        -8.959889194838254
      ],
      [
        "▁way",
        -8.960512518909582
      ],
      [
        "ation",
        -8.960861215585014
      ],
      [
        "▁set",
        -8.96103312133731
      ],
      [
        "▁стороны",
        -8.961597651245638
      ],
      [
        "▁possible",
        -8.964726971513826
      ],
      [
        "▁R",
        -8.96486892716052
      ],
      [
        "▁role",
        -8.96577017750494
      ],
      [
        "▁programmes",
        -8.966886584777043
      ],
      [
        "is",
        -8.967845943299391
      ],
      [
        "▁есть",
        -8.968797555976236
      ],
      [
        "▁Не",
        -8.970663186503774
      ],
      [
        "relevant",
        -8.970706230037992
      ],
      [
        "з",
        -8.972077223234924
      ],
      [
        "▁группы",
        -8.973786963279219
      ],
      [
        "▁G",
        -8.97417782920053
      ],
      [
        "▁сотрудничества",
        -8.976103603863914
      ],
      [
        "целью",
        -8.979261076008381
      ],
      [
        "▁contain",
        -8.981390351509335
      ],
      [
        "▁three",
        -8.981668904932022
      ],
      [
        "▁special",
        -8.982266044509831
      ],
      [
        "▁странах",
        -8.983304256677322
      ],
      [
        "▁area",
        -8.98447196709664
      ],
      [
        "▁training",
        -8.984499336406932
      ],
      [
        "▁Human",
        -8.986676468193545
      ],
      [
        "each",
        -8.987632561338806
      ],
      [
        "▁вопрос",
        -8.989374051478856
      ],
      [
        "▁про",
        -8.990976330897235
      ],
      [
        "▁них",
        -8.991110947141971
      ],
      [
        "▁политики",
        -8.997583698485393
      ],
      [
        "▁civil",
        -8.998568205895154
      ],
      [
        "▁necessary",
        -8.998810083206914
      ],
      [
        "▁особенно",
        -8.999936667610239
      ],
      [
        "▁did",
        -9.000324715919662
      ],
      [
        "▁Для",
        -9.00164457840662
      ],
      [
        "▁even",
        -9.003246859241026
      ],
      [
        "▁effective",
        -9.003307122161486
      ],
      [
        "▁участие",
        -9.003856201372706
      ],
      [
        "▁возможность",
        -9.003970425346354
      ],
      [
        "▁М",
        -9.004602988007747
      ],
      [
        "▁информацию",
        -9.009289605683826
      ],
      [
        "capacity",
        -9.010635403980396
      ],
      [
        "▁respect",
        -9.010787295470967
      ],
      [
        "▁жизни",
        -9.011526804959233
      ],
      [
        "▁M",
        -9.014873975082264
      ],
      [
        "parties",
        -9.017636499439865
      ],
      [
        "▁general",
        -9.02007549173808
      ],
      [
        "▁local",
        -9.021066264018495
      ],
      [
        "▁больше",
        -9.023145998156775
      ],
      [
        "▁result",
        -9.02341549635435
      ],
      [
        "▁защиты",
        -9.023958698397923
      ],
      [
        "▁know",
        -9.024950718570311
      ],
      [
        "December",
        -9.025525645229859
      ],
      [
        "▁group",
        -9.025873416834349
      ],
      [
        "▁где",
        -9.025993595549583
      ],
      [
        "▁которой",
        -9.027005099725818
      ],
      [
        "▁имеет",
        -9.028801845216963
      ],
      [
        "▁global",
        -9.036755678744942
      ],
      [
        "▁Безопасности",
        -9.037625437578662
      ],
      [
        "▁право",
        -9.04071917300932
      ],
      [
        "▁control",
        -9.045755131752664
      ],
      [
        "▁staff",
        -9.05041016546924
      ],
      [
        "▁European",
        -9.051536993552743
      ],
      [
        "▁while",
        -9.052489207099914
      ],
      [
        "▁full",
        -9.05450089068311
      ],
      [
        "▁project",
        -9.057837318729351
      ],
      [
        "▁because",
        -9.057864089474455
      ],
      [
        "delegation",
        -9.059712072450772
      ],
      [
        "▁working",
        -9.061216650127408
      ],
      [
        "▁re",
        -9.061477030041612
      ],
      [
        "▁case",
        -9.066542263737405
      ],
      [
        "▁другие",
        -9.068773960193965
      ],
      [
        "▁institution",
        -9.068830768483021
      ],
      [
        "▁There",
        -9.071646797200694
      ],
      [
        "adopted",
        -9.071672866144812
      ],
      [
        "to",
        -9.071727575989385
      ],
      [
        "▁good",
        -9.073788835293097
      ],
      [
        "С",
        -9.075814520088565
      ],
      [
        "w",
        -9.079018085633265
      ],
      [
        "К",
        -9.080086713470317
      ],
      [
        "▁since",
        -9.08129843819213
      ],
      [
        "▁just",
        -9.082807567076086
      ],
      [
        "ч",
        -9.083073201140055
      ],
      [
        "▁us",
        -9.084668747694396
      ],
      [
        "▁Республики",
        -9.085788116713703
      ],
      [
        "обеспечить",
        -9.088081099527214
      ],
      [
        "est",
        -9.089403640802068
      ],
      [
        "правам",
        -9.090260816112913
      ],
      [
        "▁проект",
        -9.09151508607326
      ],
      [
        "▁specific",
        -9.093965993839973
      ],
      [
        "▁does",
        -9.094727490972081
      ],
      [
        "accordance",
        -9.0953986728505
      ],
      [
        "▁правительство",
        -9.095492665605525
      ],
      [
        "▁different",
        -9.097675775661976
      ],
      [
        "▁end",
        -9.097865826279955
      ],
      [
        "▁тех",
        -9.098477375145686
      ],
      [
        "▁себя",
        -9.099868720790452
      ],
      [
        "▁пере",
        -9.099967738481187
      ],
      [
        "▁международных",
        -9.100421472228227
      ],
      [
        "▁progress",
        -9.100808138477952
      ],
      [
        "течение",
        -9.102650897645297
      ],
      [
        "А",
        -9.102853270162797
      ],
      [
        "▁issue",
        -9.106904815281718
      ],
      [
        "▁procedure",
        -9.10696957961806
      ],
      [
        "▁очень",
        -9.109764372024745
      ],
      [
        "▁free",
        -9.112693962157518
      ],
      [
        "▁long",
        -9.112728195585877
      ],
      [
        "W",
        -9.11425074399764
      ],
      [
        "▁main",
        -9.11717429918945
      ],
      [
        "▁small",
        -9.117417816189892
      ],
      [
        "▁через",
        -9.125865695856655
      ],
      [
        "▁пункт",
        -9.126251064992148
      ],
      [
        "▁которое",
        -9.127210287372131
      ],
      [
        "людей",
        -9.128470328135018
      ],
      [
        "I",
        -9.131450451321124
      ],
      [
        "▁nuclear",
        -9.133234739272178
      ],
      [
        "▁При",
        -9.13543677390604
      ],
      [
        "▁этим",
        -9.13580377720159
      ],
      [
        "▁проблем",
        -9.137279055920597
      ],
      [
        "▁technical",
        -9.138545645818441
      ],
      [
        "▁include",
        -9.142204653012334
      ],
      [
        "▁service",
        -9.148198671827613
      ],
      [
        "▁established",
        -9.148869417912065
      ],
      [
        "▁говорит",
        -9.150093602532474
      ],
      [
        "▁механизм",
        -9.151133317845598
      ],
      [
        "▁Но",
        -9.152052723608906
      ],
      [
        "▁implement",
        -9.152611621760762
      ],
      [
        "▁проекта",
        -9.154471992007137
      ],
      [
        "▁water",
        -9.155217850853921
      ],
      [
        "Е",
        -9.155580889920197
      ],
      [
        "▁conditions",
        -9.159278267647158
      ],
      [
        "▁own",
        -9.165022283702916
      ],
      [
        "▁V",
        -9.165050029970946
      ],
      [
        "▁использования",
        -9.165500045705597
      ],
      [
        "x",
        -9.165905724310752
      ],
      [
        "▁Part",
        -9.166672144706133
      ],
      [
        "▁agreement",
        -9.167455048742196
      ],
      [
        "▁Ассамблеи",
        -9.16807243749249
      ],
      [
        "▁World",
        -9.169208336967756
      ],
      [
        "▁Organization",
        -9.17874579557328
      ],
      [
        "ок",
        -9.18297942208221
      ],
      [
        "▁improve",
        -9.18523330196159
      ],
      [
        "violence",
        -9.186456501062288
      ],
      [
        "▁проблемы",
        -9.188067797190627
      ],
      [
        "▁котором",
        -9.18958735607904
      ],
      [
        "▁great",
        -9.191093025829993
      ],
      [
        "▁basi",
        -9.19210527302741
      ],
      [
        "▁population",
        -9.193731455072802
      ],
      [
        "ary",
        -9.194313649306787
      ],
      [
        "upon",
        -9.194531725703857
      ],
      [
        "▁комитет",
        -9.19462551799464
      ],
      [
        "▁various",
        -9.196023023537611
      ],
      [
        "▁inter",
        -9.196143279587762
      ],
      [
        "▁recommendations",
        -9.203936559348746
      ],
      [
        "▁правительства",
        -9.205223231116667
      ],
      [
        "ness",
        -9.20580361124661
      ],
      [
        "▁всем",
        -9.206082792926047
      ],
      [
        "▁But",
        -9.208753638226204
      ],
      [
        "▁вам",
        -9.211479732385731
      ],
      [
        "▁услуг",
        -9.211661788043664
      ],
      [
        "us",
        -9.212856877756598
      ],
      [
        "v",
        -9.214303233014773
      ],
      [
        "▁Комитета",
        -9.222577210524598
      ],
      [
        "▁trade",
        -9.222909722411332
      ],
      [
        "▁All",
        -9.2233235324529
      ],
      [
        "▁ни",
        -9.223668048994346
      ],
      [
        "▁уровня",
        -9.223852319508678
      ],
      [
        "▁get",
        -9.224362707959525
      ],
      [
        "▁должен",
        -9.224805164778937
      ],
      [
        "ями",
        -9.224856317514323
      ],
      [
        "декабря",
        -9.226903179996965
      ],
      [
        "▁needs",
        -9.228421120529957
      ],
      [
        "▁Member",
        -9.229788402136657
      ],
      [
        "▁increase",
        -9.230697493772771
      ],
      [
        "policies",
        -9.232053510644938
      ],
      [
        "▁человек",
        -9.233779605979192
      ],
      [
        "▁follow",
        -9.235647666853469
      ],
      [
        "▁результате",
        -9.238494251226577
      ],
      [
        "▁Комиссии",
        -9.239570972720374
      ],
      [
        "society",
        -9.240951033913513
      ],
      [
        "▁remain",
        -9.241045739566125
      ],
      [
        "▁решение",
        -9.242233045957002
      ],
      [
        "▁National",
        -9.242653576207207
      ],
      [
        "▁времени",
        -9.243538165699333
      ],
      [
        "▁power",
        -9.247770857904287
      ],
      [
        "groups",
        -9.248857243630047
      ],
      [
        "ant",
        -9.249233656933896
      ],
      [
        "▁значение",
        -9.249420133595393
      ],
      [
        "целей",
        -9.250841891327992
      ],
      [
        "▁appropriate",
        -9.251837442731643
      ],
      [
        "▁возможности",
        -9.252792850904802
      ],
      [
        "▁поскольку",
        -9.252947643287166
      ],
      [
        "▁организаций",
        -9.254234022671874
      ],
      [
        "▁вопросу",
        -9.255143719619458
      ],
      [
        "▁open",
        -9.255191810547801
      ],
      [
        "up",
        -9.257532159447813
      ],
      [
        "▁future",
        -9.257747399096377
      ],
      [
        "б",
        -9.258849416450587
      ],
      [
        "▁важно",
        -9.259510325392759
      ],
      [
        "▁имеют",
        -9.259827660233952
      ],
      [
        "▁express",
        -9.26033033618853
      ],
      [
        "less",
        -9.262425459094302
      ],
      [
        "▁должно",
        -9.262694366113124
      ],
      [
        "▁every",
        -9.263302121952599
      ],
      [
        "такие",
        -9.263737090233935
      ],
      [
        "проведения",
        -9.264263802099412
      ],
      [
        "принять",
        -9.264421290676177
      ],
      [
        "▁кто",
        -9.264765146652412
      ],
      [
        "ное",
        -9.26493439815969
      ],
      [
        "U",
        -9.264944794723968
      ],
      [
        "▁поддержки",
        -9.26558220861903
      ],
      [
        "June",
        -9.266752687206358
      ],
      [
        "▁один",
        -9.270321033715865
      ],
      [
        "▁различных",
        -9.27175260762291
      ],
      [
        "▁change",
        -9.271875873329845
      ],
      [
        "▁Russia",
        -9.272143810802696
      ],
      [
        "▁current",
        -9.272497780556511
      ],
      [
        "ый",
        -9.274974442685277
      ],
      [
        "▁Так",
        -9.275000472332048
      ],
      [
        "▁New",
        -9.275519372334978
      ],
      [
        "▁field",
        -9.275581595637865
      ],
      [
        "▁вопросы",
        -9.277254591406965
      ],
      [
        "▁процесса",
        -9.277472776455976
      ],
      [
        "▁sector",
        -9.27901562572362
      ],
      [
        "▁роль",
        -9.279598061983128
      ],
      [
        "собой",
        -9.279612432948174
      ],
      [
        "р",
        -9.279673619164914
      ],
      [
        "▁promote",
        -9.279960220204996
      ],
      [
        "▁mechanism",
        -9.28418033820968
      ],
      [
        "поддержку",
        -9.284215416851637
      ],
      [
        "▁деятельность",
        -9.284822700978319
      ],
      [
        "▁даже",
        -9.286282992264146
      ],
      [
        "▁state",
        -9.288659046251263
      ],
      [
        "▁образования",
        -9.29055349251005
      ],
      [
        "▁budget",
        -9.291743114115018
      ],
      [
        "▁Africa",
        -9.292718680255158
      ],
      [
        "оружия",
        -9.29347342842023
      ],
      [
        "▁want",
        -9.294001539103785
      ],
      [
        "the",
        -9.294923374326078
      ],
      [
        "▁developed",
        -9.296674337031142
      ],
      [
        "▁над",
        -9.296798501815218
      ],
      [
        "▁помощь",
        -9.299425146228938
      ],
      [
        "▁xHamster",
        -9.299496552905623
      ],
      [
        "cases",
        -9.30060194880321
      ],
      [
        "▁become",
        -9.300637954343454
      ],
      [
        "▁May",
        -9.30085270423261
      ],
      [
        "governmental",
        -9.301765401768058
      ],
      [
        "refore",
        -9.303526306612131
      ],
      [
        "▁Programme",
        -9.305071219869951
      ],
      [
        "▁business",
        -9.305406866039938
      ],
      [
        "▁production",
        -9.307516321527686
      ],
      [
        "▁Economic",
        -9.308335153856616
      ],
      [
        "▁effect",
        -9.310073531585155
      ],
      [
        "же",
        -9.310294052444569
      ],
      [
        "#",
        -9.310947021220487
      ],
      [
        "▁consider",
        -9.311291149413105
      ],
      [
        "своем",
        -9.312054508081367
      ],
      [
        "▁работе",
        -9.313121979124354
      ],
      [
        "July",
        -9.314022987177989
      ],
      [
        "▁best",
        -9.316749924111052
      ],
      [
        "▁large",
        -9.317891967562494
      ],
      [
        "▁меня",
        -9.31808791767352
      ],
      [
        "means",
        -9.318274845469796
      ],
      [
        "▁With",
        -9.319952441566432
      ],
      [
        "▁she",
        -9.3206016910374
      ],
      [
        "▁fact",
        -9.32075168685303
      ],
      [
        "framework",
        -9.324348939270026
      ],
      [
        "particularly",
        -9.325416628193366
      ],
      [
        "▁органов",
        -9.325771626535069
      ],
      [
        "▁still",
        -9.326643951255118
      ],
      [
        "▁authorities",
        -9.327503903971335
      ],
      [
        "▁experience",
        -9.329574122141826
      ],
      [
        "например",
        -9.329893398654974
      ],
      [
        "▁Что",
        -9.330324912895588
      ],
      [
        "▁ты",
        -9.331958081572404
      ],
      [
        "sustainable",
        -9.332052782379403
      ],
      [
        "▁работу",
        -9.332164099979554
      ],
      [
        "▁П",
        -9.33455988521135
      ],
      [
        "▁impact",
        -9.334931344484303
      ],
      [
        "ability",
        -9.33666035948423
      ],
      [
        "▁потенциала",
        -9.336807641620638
      ],
      [
        "новых",
        -9.339144880657743
      ],
      [
        "▁Однако",
        -9.340061868318136
      ],
      [
        "▁matter",
        -9.340762851267796
      ],
      [
        "▁июн",
        -9.341109770930785
      ],
      [
        "considered",
        -9.342304936362162
      ],
      [
        "Add",
        -9.342840289921996
      ],
      [
        "▁доклада",
        -9.34357192902894
      ],
      [
        "▁see",
        -9.343767019725126
      ],
      [
        "▁действия",
        -9.345493412850013
      ],
      [
        "▁вопросов",
        -9.345746119920808
      ],
      [
        "▁purpose",
        -9.345855916401604
      ],
      [
        "▁risk",
        -9.346363379235799
      ],
      [
        "▁доступ",
        -9.348899234375882
      ],
      [
        "▁energy",
        -9.349688740181568
      ],
      [
        "участник",
        -9.349968963866035
      ],
      [
        "▁day",
        -9.35018361261592
      ],
      [
        "required",
        -9.350429807027657
      ],
      [
        "▁market",
        -9.350727481539657
      ],
      [
        "▁give",
        -9.352687521460185
      ],
      [
        "▁За",
        -9.353091914687017
      ],
      [
        "соответствующих",
        -9.354790323359927
      ],
      [
        "▁second",
        -9.35670664135799
      ],
      [
        "национальных",
        -9.357456785338936
      ],
      [
        "▁conflict",
        -9.357718671744607
      ],
      [
        "example",
        -9.358046640248435
      ],
      [
        "должна",
        -9.358501338543995
      ],
      [
        "лишь",
        -9.358699285319114
      ],
      [
        "▁H",
        -9.358931896963782
      ],
      [
        "▁results",
        -9.359608715545448
      ],
      [
        "▁процесс",
        -9.359747464271992
      ],
      [
        "учетом",
        -9.361272407385547
      ],
      [
        "▁средства",
        -9.364839125633868
      ],
      [
        "▁развитию",
        -9.365167697897698
      ],
      [
        "▁II",
        -9.365263068907485
      ],
      [
        "ло",
        -9.367373635578799
      ],
      [
        "▁systems",
        -9.367481174251216
      ],
      [
        "▁crime",
        -9.36918090184316
      ],
      [
        "▁military",
        -9.370422349094406
      ],
      [
        "▁gender",
        -9.37042859775594
      ],
      [
        "▁среди",
        -9.371250411863343
      ],
      [
        "B",
        -9.372508034795866
      ],
      [
        "▁mandate",
        -9.372730968417704
      ],
      [
        "▁вас",
        -9.373501650184364
      ],
      [
        "▁Все",
        -9.374221904051675
      ],
      [
        "ему",
        -9.374867537500636
      ],
      [
        "ным",
        -9.375208114207599
      ],
      [
        "путем",
        -9.375423047132236
      ],
      [
        "▁повестк",
        -9.37547461288335
      ],
      [
        "consideration",
        -9.376162411438525
      ],
      [
        "▁Union",
        -9.376734376932625
      ],
      [
        "▁таким",
        -9.37700016118911
      ],
      [
        "given",
        -9.37772302363925
      ],
      [
        "▁группа",
        -9.378019294015056
      ],
      [
        "importance",
        -9.379470966650723
      ],
      [
        "▁private",
        -9.380699908575286
      ],
      [
        "не",
        -9.382271959531602
      ],
      [
        "▁subject",
        -9.383062116911729
      ],
      [
        "▁prevent",
        -9.383114386483085
      ],
      [
        "making",
        -9.384171564009348
      ],
      [
        "настоящее",
        -9.384209802402154
      ],
      [
        "▁last",
        -9.387549295038216
      ],
      [
        "▁addition",
        -9.388180434702365
      ],
      [
        "▁environment",
        -9.38895555421546
      ],
      [
        "▁week",
        -9.38913238264562
      ],
      [
        "В",
        -9.38977695664284
      ],
      [
        "▁сотрудников",
        -9.39141650568534
      ],
      [
        "▁plan",
        -9.39166744065606
      ],
      [
        "▁document",
        -9.392982778641
      ],
      [
        "▁challenge",
        -9.393144666936541
      ],
      [
        "▁документ",
        -9.39448684710664
      ],
      [
        "ally",
        -9.395246703352948
      ],
      [
        "▁question",
        -9.397944571723135
      ],
      [
        "▁Working",
        -9.397967915037157
      ],
      [
        "касается",
        -9.39862307758779
      ],
      [
        "▁хотел",
        -9.399388901534735
      ],
      [
        "▁продолжа",
        -9.399615684792215
      ],
      [
        "▁изменения",
        -9.40073099161766
      ],
      [
        "▁show",
        -9.404139550295477
      ],
      [
        "▁перед",
        -9.404748505044314
      ],
      [
        "случая",
        -9.407674550693873
      ],
      [
        "▁создания",
        -9.407857916447048
      ],
      [
        "▁много",
        -9.409093017089747
      ],
      [
        "H",
        -9.409618176855302
      ],
      [
        "going",
        -9.41035342218382
      ],
      [
        "▁name",
        -9.411207712625743
      ],
      [
        "своего",
        -9.411278914213362
      ],
      [
        "▁child",
        -9.41196039672583
      ],
      [
        "ian",
        -9.414490941134963
      ],
      [
        "▁big",
        -9.414495175075459
      ],
      [
        "▁Board",
        -9.416869927962711
      ],
      [
        "▁quality",
        -9.417939631742996
      ],
      [
        "▁problems",
        -9.419053127697255
      ],
      [
        "▁июл",
        -9.422729772966468
      ],
      [
        "▁мне",
        -9.422834743323833
      ],
      [
        "▁двух",
        -9.424268883298405
      ],
      [
        "▁необходимость",
        -9.424738579121604
      ],
      [
        "▁September",
        -9.425048605090199
      ],
      [
        "▁территории",
        -9.426155214634464
      ],
      [
        "participation",
        -9.42637963858448
      ],
      [
        "whether",
        -9.426462598098635
      ],
      [
        "▁срок",
        -9.427871008471834
      ],
      [
        "▁days",
        -9.429900778899437
      ],
      [
        "ющихся",
        -9.430829546761121
      ],
      [
        "▁attention",
        -9.431263783244297
      ],
      [
        "▁commitment",
        -9.431634068208796
      ],
      [
        "▁общества",
        -9.433332369559118
      ],
      [
        "▁решений",
        -9.434180881846553
      ],
      [
        "вести",
        -9.43447022633843
      ],
      [
        "M",
        -9.434473497431231
      ],
      [
        "▁agenda",
        -9.43447738569461
      ],
      [
        "▁find",
        -9.436184747165944
      ],
      [
        "▁much",
        -9.436258084503619
      ],
      [
        "ными",
        -9.436403144302064
      ],
      [
        "▁strengthen",
        -9.437327777249543
      ],
      [
        "▁несколько",
        -9.437368706558415
      ],
      [
        "it",
        -9.438283774811675
      ],
      [
        "▁de",
        -9.439304728048231
      ],
      [
        "▁Т",
        -9.439648058832478
      ],
      [
        "▁развитие",
        -9.44061609880458
      ],
      [
        "▁government",
        -9.440699736375793
      ],
      [
        "▁относительно",
        -9.441128379846258
      ],
      [
        "▁submitt",
        -9.441305787801927
      ],
      [
        "▁Рабоч",
        -9.442358734702433
      ],
      [
        "▁company",
        -9.442657428123558
      ],
      [
        "▁here",
        -9.443473270015652
      ],
      [
        "▁групп",
        -9.444332585053031
      ],
      [
        "▁person",
        -9.446395064739349
      ],
      [
        "▁Да",
        -9.447145041740116
      ],
      [
        "▁членов",
        -9.447626417866037
      ],
      [
        "k",
        -9.448538928555948
      ],
      [
        "▁ядерно",
        -9.450290561749076
      ],
      [
        "▁African",
        -9.450315222841066
      ],
      [
        "▁деле",
        -9.452284916869406
      ],
      [
        "▁свое",
        -9.452434480472553
      ],
      [
        "Б",
        -9.452509007972647
      ],
      [
        "принятия",
        -9.452890429811685
      ],
      [
        "▁using",
        -9.453166442180944
      ],
      [
        "▁major",
        -9.454019046234437
      ],
      [
        "торговли",
        -9.454548982388323
      ],
      [
        "▁Конференци",
        -9.45550088365752
      ],
      [
        "▁отметил",
        -9.45564631676164
      ],
      [
        "▁Department",
        -9.455661708738633
      ],
      [
        "▁K",
        -9.456243915332216
      ],
      [
        "▁force",
        -9.456432479486631
      ],
      [
        "сть",
        -9.456777340360675
      ],
      [
        "▁докладе",
        -9.456783723444849
      ],
      [
        "▁достижения",
        -9.457168506975972
      ],
      [
        "▁establish",
        -9.459184789921855
      ],
      [
        "November",
        -9.45955600843675
      ],
      [
        "▁Minister",
        -9.461073347270712
      ],
      [
        "several",
        -9.461420421338184
      ],
      [
        "ities",
        -9.46184823514499
      ],
      [
        "ясь",
        -9.464429357072747
      ],
      [
        "менее",
        -9.464705454128731
      ],
      [
        "▁использовать",
        -9.464957853294552
      ],
      [
        "already",
        -9.465699226968514
      ],
      [
        "оценки",
        -9.466245715526707
      ],
      [
        "▁место",
        -9.466969710537487
      ],
      [
        "▁approach",
        -9.467686159655035
      ],
      [
        "основных",
        -9.470355608604802
      ],
      [
        "▁additional",
        -9.471167626832651
      ],
      [
        "прежнему",
        -9.47205815970661
      ],
      [
        "bodies",
        -9.472456337728675
      ],
      [
        "▁October",
        -9.473525759117903
      ],
      [
        "▁What",
        -9.473638772158598
      ],
      [
        "violation",
        -9.477552267076481
      ],
      [
        "международным",
        -9.477805680097118
      ],
      [
        "осуществление",
        -9.477928339658794
      ],
      [
        "▁другими",
        -9.47827932853526
      ],
      [
        "▁два",
        -9.480775358483767
      ],
      [
        "▁especially",
        -9.48312489707868
      ],
      [
        "▁requirements",
        -9.483186147885434
      ],
      [
        "▁humanitarian",
        -9.483190747817298
      ],
      [
        "▁No",
        -9.483388850385749
      ],
      [
        "▁возможно",
        -9.483532176372098
      ],
      [
        "▁God",
        -9.485223223242615
      ],
      [
        "▁Штат",
        -9.487220152027641
      ],
      [
        "▁High",
        -9.487322196668005
      ],
      [
        "▁March",
        -9.487917761023457
      ],
      [
        "развивающихся",
        -9.488408239991562
      ],
      [
        "▁просто",
        -9.48958644402993
      ],
      [
        "▁цели",
        -9.492118702449263
      ],
      [
        "initiative",
        -9.49214764276072
      ],
      [
        "▁poverty",
        -9.493328067346587
      ],
      [
        "▁Social",
        -9.494291414834786
      ],
      [
        "▁environmental",
        -9.494688718498914
      ],
      [
        "ic",
        -9.495534959019043
      ],
      [
        "▁family",
        -9.495632094531874
      ],
      [
        "▁пункта",
        -9.495873368479007
      ],
      [
        "▁certain",
        -9.496522305448144
      ],
      [
        "▁note",
        -9.496624391894613
      ],
      [
        "see",
        -9.49685895515075
      ],
      [
        "▁которого",
        -9.496991936047825
      ],
      [
        "▁обеспечени",
        -9.497451353000331
      ],
      [
        "um",
        -9.497508904405896
      ],
      [
        "по",
        -9.49823693588398
      ],
      [
        "▁ответ",
        -9.499746410878183
      ],
      [
        "continued",
        -9.499972153470337
      ],
      [
        "▁organization",
        -9.500055304327557
      ],
      [
        "одной",
        -9.500478671936193
      ],
      [
        "T",
        -9.501526683434207
      ],
      [
        "▁technology",
        -9.501568540606842
      ],
      [
        "building",
        -9.506370962417328
      ],
      [
        "▁believe",
        -9.508657935814314
      ],
      [
        "▁products",
        -9.508710555154847
      ],
      [
        "▁above",
        -9.508781660469012
      ],
      [
        "▁мере",
        -9.508846539540919
      ],
      [
        "▁Они",
        -9.509568797199565
      ],
      [
        "▁инициатив",
        -9.509981168634054
      ],
      [
        "▁research",
        -9.510851792064985
      ],
      [
        "▁применения",
        -9.510908667299606
      ],
      [
        "▁занима",
        -9.511398100960523
      ],
      [
        "▁China",
        -9.511831427486577
      ],
      [
        "▁дел",
        -9.511991144659055
      ],
      [
        "▁another",
        -9.512196277545401
      ],
      [
        "▁land",
        -9.512280332028544
      ],
      [
        "▁form",
        -9.514263348047088
      ],
      [
        "proposal",
        -9.515048654882394
      ],
      [
        "▁total",
        -9.515266360731081
      ],
      [
        "▁нет",
        -9.51623716926066
      ],
      [
        "▁legislation",
        -9.51709767265266
      ],
      [
        "▁key",
        -9.51808955608128
      ],
      [
        "подготовки",
        -9.518466361008665
      ],
      [
        "levels",
        -9.519732592284567
      ],
      [
        "▁program",
        -9.519969842192495
      ],
      [
        "▁reform",
        -9.52173262002265
      ],
      [
        "▁weapons",
        -9.522074088644239
      ],
      [
        "▁помощью",
        -9.523103681361825
      ],
      [
        "▁дискриминации",
        -9.523684718944086
      ],
      [
        "О",
        -9.52408029737318
      ],
      [
        "▁насилия",
        -9.52566252511153
      ],
      [
        "ve",
        -9.526185340495838
      ],
      [
        "projects",
        -9.529211118794517
      ],
      [
        "▁представляет",
        -9.529865217065678
      ],
      [
        "growth",
        -9.530066501907939
      ],
      [
        "▁части",
        -9.531299922410431
      ],
      [
        "ll",
        -9.531609901957241
      ],
      [
        "▁close",
        -9.53187558622808
      ],
      [
        "▁данные",
        -9.53198687726038
      ],
      [
        "вновь",
        -9.532457138628468
      ],
      [
        "хотя",
        -9.533291963107471
      ],
      [
        "▁день",
        -9.53333769134257
      ],
      [
        "X",
        -9.534317821303013
      ],
      [
        "com",
        -9.534890290224233
      ],
      [
        "▁back",
        -9.536745703227885
      ],
      [
        "связанных",
        -9.53705309713386
      ],
      [
        "reports",
        -9.537358206640715
      ],
      [
        "towards",
        -9.539091405777672
      ],
      [
        "▁доступа",
        -9.539550568758406
      ],
      [
        "representatives",
        -9.539830270369192
      ],
      [
        "▁объем",
        -9.540468849061288
      ],
      [
        "▁комитета",
        -9.542849156120845
      ],
      [
        "▁better",
        -9.542893534892611
      ],
      [
        "▁подход",
        -9.545483967826609
      ],
      [
        "▁Court",
        -9.547888870442312
      ],
      [
        "▁компании",
        -9.548136138302986
      ],
      [
        "▁standards",
        -9.548402620230098
      ],
      [
        "▁годы",
        -9.549510796929098
      ],
      [
        "▁ряд",
        -9.549983262671562
      ],
      [
        "▁food",
        -9.552038193333289
      ],
      [
        "▁member",
        -9.554328809975248
      ],
      [
        "▁police",
        -9.554736763537058
      ],
      [
        "▁operations",
        -9.55649028158747
      ],
      [
        "▁April",
        -9.557446591313468
      ],
      [
        "agencies",
        -9.559377288257062
      ],
      [
        "▁foreign",
        -9.559985940334963
      ],
      [
        "▁come",
        -9.561606939014695
      ],
      [
        "▁усили",
        -9.562821336429073
      ],
      [
        "▁When",
        -9.563082323125162
      ],
      [
        "▁natural",
        -9.563264060683109
      ],
      [
        "окружающей",
        -9.564248852412836
      ],
      [
        "▁государство",
        -9.566597263825871
      ],
      [
        "▁contribution",
        -9.567126695246571
      ],
      [
        "▁application",
        -9.567150703142106
      ],
      [
        "▁процентов",
        -9.56733265983137
      ],
      [
        "▁She",
        -9.56811991553804
      ],
      [
        "▁representative",
        -9.570347798525642
      ],
      [
        "proposed",
        -9.571103538708645
      ],
      [
        "▁нас",
        -9.575695797667198
      ],
      [
        "▁социальны",
        -9.576233064236188
      ],
      [
        "▁Protocol",
        -9.57723368300606
      ],
      [
        "▁South",
        -9.578053839605117
      ],
      [
        "freedom",
        -9.57812037680774
      ],
      [
        "▁Она",
        -9.57814048453164
      ],
      [
        "▁fully",
        -9.578903485495493
      ],
      [
        "▁response",
        -9.579406616775767
      ],
      [
        "▁return",
        -9.57952971209651
      ],
      [
        "existing",
        -9.579683126304044
      ],
      [
        "▁January",
        -9.580834537854992
      ],
      [
        "▁Специальны",
        -9.580919750052574
      ],
      [
        "▁context",
        -9.581576976528977
      ],
      [
        "▁Соединенны",
        -9.583213892530337
      ],
      [
        "status",
        -9.583473342693436
      ],
      [
        "месяцев",
        -9.583782680830495
      ],
      [
        "▁might",
        -9.584621508275957
      ],
      [
        "▁сказал",
        -9.584774944775974
      ],
      [
        "took",
        -9.584920989971124
      ],
      [
        "▁переговор",
        -9.587762593295986
      ],
      [
        "▁представить",
        -9.58813913105205
      ],
      [
        "до",
        -9.588991232959412
      ],
      [
        "▁Ukraine",
        -9.590413543313229
      ],
      [
        "discussion",
        -9.591024369720252
      ],
      [
        "ce",
        -9.591362280402244
      ],
      [
        "▁go",
        -9.591920894712661
      ],
      [
        "▁individual",
        -9.592347003089396
      ],
      [
        "▁common",
        -9.592548863097813
      ],
      [
        "▁число",
        -9.592762733629456
      ],
      [
        "▁received",
        -9.59392102374929
      ],
      [
        "▁cause",
        -9.59419947381911
      ],
      [
        "▁That",
        -9.594675449708564
      ],
      [
        "▁контроля",
        -9.596662507444263
      ],
      [
        "▁strong",
        -9.597354188691009
      ],
      [
        "▁discrimination",
        -9.598946219020254
      ],
      [
        "▁январ",
        -9.599438442389701
      ],
      [
        "наиболее",
        -9.599749288891113
      ],
      [
        "▁found",
        -9.599850256178533
      ],
      [
        "▁wide",
        -9.599944235356727
      ],
      [
        "▁comprehensive",
        -9.60211233852452
      ],
      [
        "increased",
        -9.603300158211695
      ],
      [
        "▁instrument",
        -9.603526372955779
      ],
      [
        "▁имени",
        -9.604799455289356
      ],
      [
        "taking",
        -9.604899151326265
      ],
      [
        "▁нищет",
        -9.605255738222398
      ],
      [
        "▁develop",
        -9.605914252640186
      ],
      [
        "ской",
        -9.606193724918812
      ],
      [
        "▁item",
        -9.606535752837218
      ],
      [
        "▁due",
        -9.606644171749654
      ],
      [
        "Article",
        -9.607770944470046
      ],
      [
        "или",
        -9.608038950132988
      ],
      [
        "▁стране",
        -9.608373833761652
      ],
      [
        "▁мире",
        -9.609011007998406
      ],
      [
        "agreed",
        -9.609944807636124
      ],
      [
        "Y",
        -9.61004757541451
      ],
      [
        "международной",
        -9.610515295811506
      ],
      [
        "▁свой",
        -9.611623545408564
      ],
      [
        "▁together",
        -9.612361404909445
      ],
      [
        "▁лица",
        -9.612745324508335
      ],
      [
        "оно",
        -9.613835960597562
      ],
      [
        "▁согласно",
        -9.617212132356403
      ],
      [
        "▁систем",
        -9.617594742190525
      ],
      [
        "▁многих",
        -9.618523170994633
      ],
      [
        "▁призывае",
        -9.620408636925864
      ],
      [
        "▁serious",
        -9.620635582119597
      ],
      [
        "▁create",
        -9.620675224765588
      ],
      [
        "▁domestic",
        -9.621201603962833
      ],
      [
        "Rapporteur",
        -9.622612665923816
      ],
      [
        "least",
        -9.622758264290416
      ],
      [
        "▁down",
        -9.625550147260814
      ],
      [
        "term",
        -9.62579003285926
      ],
      [
        "такой",
        -9.626375860299422
      ],
      [
        "▁сделать",
        -9.628001825716305
      ],
      [
        "проектов",
        -9.628181004941482
      ],
      [
        "▁Europe",
        -9.629755086700953
      ],
      [
        "▁ЮН",
        -9.629879772447303
      ],
      [
        "▁reason",
        -9.630437404432469
      ],
      [
        "▁body",
        -9.631627417264417
      ],
      [
        "▁course",
        -9.634035382525807
      ],
      [
        "▁care",
        -9.634580789187588
      ],
      [
        "▁criminal",
        -9.635453505692615
      ],
      [
        "М",
        -9.635517203198733
      ],
      [
        "terms",
        -9.63637286483822
      ],
      [
        "▁однако",
        -9.636412249542174
      ],
      [
        "▁После",
        -9.636888780630734
      ],
      [
        "▁million",
        -9.637193551000784
      ],
      [
        "next",
        -9.637266551612894
      ],
      [
        "and",
        -9.637808890517283
      ],
      [
        "условиях",
        -9.638225054516669
      ],
      [
        "monitoring",
        -9.640600202615415
      ],
      [
        "▁Эти",
        -9.641114908522695
      ],
      [
        "▁Ассамблее",
        -9.641930166650244
      ],
      [
        "▁задач",
        -9.643778185037432
      ],
      [
        "ry",
        -9.643950082375335
      ],
      [
        "▁Windows",
        -9.644151379693449
      ],
      [
        "consultation",
        -9.644219704653779
      ],
      [
        "previous",
        -9.645976841958648
      ],
      [
        "некоторые",
        -9.646722995290283
      ],
      [
        "▁США",
        -9.64852727259759
      ],
      [
        "▁Palestinian",
        -9.648653723067882
      ],
      [
        "▁rule",
        -9.648676225338574
      ],
      [
        "▁list",
        -9.650267740755663
      ],
      [
        "▁возможностей",
        -9.650615661500103
      ],
      [
        "▁среды",
        -9.650970038709659
      ],
      [
        "▁deal",
        -9.651024044861725
      ],
      [
        "от",
        -9.65112647966274
      ],
      [
        "▁establishment",
        -9.651516409044593
      ],
      [
        "содействия",
        -9.65155675871094
      ],
      [
        "▁рекомендации",
        -9.652273313375057
      ],
      [
        "▁общин",
        -9.652498412532573
      ],
      [
        "отмечает",
        -9.65529116884022
      ],
      [
        "▁силу",
        -9.655941183433933
      ],
      [
        "DP",
        -9.656888372265941
      ],
      [
        "▁счет",
        -9.658363645045748
      ],
      [
        "▁living",
        -9.659343661751581
      ],
      [
        "▁Action",
        -9.659427152346995
      ],
      [
        "▁состав",
        -9.659466682624053
      ],
      [
        "▁особо",
        -9.660209921358662
      ],
      [
        "▁Сторон",
        -9.6605894630645
      ],
      [
        "▁called",
        -9.661715471561807
      ],
      [
        "justice",
        -9.66305731801915
      ],
      [
        "land",
        -9.664076029421121
      ],
      [
        "▁light",
        -9.664623250952914
      ],
      [
        "▁Во",
        -9.664694044612478
      ],
      [
        "▁ноябр",
        -9.665422282575541
      ],
      [
        "G",
        -9.665706346354195
      ],
      [
        "▁focus",
        -9.666370538884605
      ],
      [
        "▁производства",
        -9.666949049459038
      ],
      [
        "жизнь",
        -9.669356146561464
      ],
      [
        "▁России",
        -9.669460781510814
      ],
      [
        "некоторых",
        -9.669880361762976
      ],
      [
        "▁significant",
        -9.6709823788634
      ],
      [
        "▁сторон",
        -9.671853158744165
      ],
      [
        "ж",
        -9.67285508422693
      ],
      [
        "экономического",
        -9.6732040773109
      ],
      [
        "▁One",
        -9.673458783244579
      ],
      [
        "ном",
        -9.67532641920238
      ],
      [
        "half",
        -9.675568170077296
      ],
      [
        "необходимости",
        -9.675679399122036
      ],
      [
        "▁конвенци",
        -9.677170394169098
      ],
      [
        "▁международном",
        -9.677213703459756
      ],
      [
        "числа",
        -9.679212837291475
      ],
      [
        "▁здесь",
        -9.679412613056261
      ],
      [
        "▁власти",
        -9.680056252948749
      ],
      [
        "▁put",
        -9.683159636741792
      ],
      [
        "included",
        -9.683233155283759
      ],
      [
        "полностью",
        -9.683410818349367
      ],
      [
        "The",
        -9.684278830043825
      ],
      [
        "ни",
        -9.684315119060411
      ],
      [
        "▁position",
        -9.684826149649401
      ],
      [
        "▁providing",
        -9.685759363870142
      ],
      [
        "▁meet",
        -9.686099515802168
      ],
      [
        "▁странам",
        -9.686216251721488
      ],
      [
        "▁учреждений",
        -9.686373855388341
      ],
      [
        "▁обеспечение",
        -9.686900842246029
      ],
      [
        "▁men",
        -9.686989742871772
      ],
      [
        "▁treatment",
        -9.687448705333404
      ],
      [
        "▁air",
        -9.687562239951243
      ],
      [
        "principles",
        -9.68788230715431
      ],
      [
        "▁four",
        -9.687905477601845
      ],
      [
        "▁statement",
        -9.687995741672655
      ],
      [
        "▁тот",
        -9.6879980549368
      ],
      [
        "осуществлению",
        -9.68818657523115
      ],
      [
        "Ministry",
        -9.688361685923068
      ],
      [
        "▁просьб",
        -9.688398253662982
      ],
      [
        "▁design",
        -9.688493699781748
      ],
      [
        "▁Групп",
        -9.689506658085877
      ],
      [
        "члены",
        -9.689977873471657
      ],
      [
        "▁America",
        -9.690253813490461
      ],
      [
        "▁Председателя",
        -9.690725337219519
      ],
      [
        "_",
        -9.69072677536277
      ],
      [
        "▁сентября",
        -9.691281715245811
      ],
      [
        "▁контекст",
        -9.691735632499986
      ],
      [
        "▁maintain",
        -9.691742477833374
      ],
      [
        "▁Fund",
        -9.691863613753283
      ],
      [
        "▁often",
        -9.6923564890909
      ],
      [
        "▁норм",
        -9.692851685321482
      ],
      [
        "▁масштаб",
        -9.69286865038847
      ],
      [
        "▁экспертов",
        -9.693353878424878
      ],
      [
        "▁space",
        -9.693968549503982
      ],
      [
        "▁equipment",
        -9.694018707102927
      ],
      [
        "▁направленны",
        -9.694738320135457
      ],
      [
        "▁создание",
        -9.697211311391218
      ],
      [
        "▁potential",
        -9.69756783785043
      ],
      [
        "▁можете",
        -9.697648221957676
      ],
      [
        "заседании",
        -9.700044529511855
      ],
      [
        "N",
        -9.700496438512236
      ],
      [
        "According",
        -9.700519748477646
      ],
      [
        "реализации",
        -9.700552552861918
      ],
      [
        "он",
        -9.701725746703639
      ],
      [
        "▁don",
        -9.702461098682614
      ],
      [
        "▁problem",
        -9.703046132944316
      ],
      [
        "могли",
        -9.704026165788058
      ],
      [
        "▁lack",
        -9.705349272817934
      ],
      [
        "▁закон",
        -9.705824027153508
      ],
      [
        "▁одного",
        -9.706006378545812
      ],
      [
        "эффективности",
        -9.70657331684958
      ],
      [
        "one",
        -9.706891806781151
      ],
      [
        "▁три",
        -9.706948715851766
      ],
      [
        "▁wish",
        -9.708217146564069
      ],
      [
        "▁Ф",
        -9.709114015795572
      ],
      [
        "участия",
        -9.709189650718852
      ],
      [
        "▁годов",
        -9.70979092576513
      ],
      [
        "adequate",
        -9.710300675834489
      ],
      [
        "▁clear",
        -9.710437322520741
      ],
      [
        "rules",
        -9.710547531006014
      ],
      [
        "▁pre",
        -9.712372984494834
      ],
      [
        "▁Secretariat",
        -9.712621985206777
      ],
      [
        "according",
        -9.71277868230188
      ],
      [
        "ive",
        -9.713241781394553
      ],
      [
        "осуществлении",
        -9.71418360981859
      ],
      [
        "сфере",
        -9.714440754751614
      ],
      [
        "▁Israel",
        -9.715889977260753
      ],
      [
        "ского",
        -9.719193666717821
      ],
      [
        "▁city",
        -9.71926405194894
      ],
      [
        "▁look",
        -9.719750570572531
      ],
      [
        "▁responsibility",
        -9.720086920269376
      ],
      [
        "▁нам",
        -9.721732567680087
      ],
      [
        "low",
        -9.723851683266764
      ],
      [
        "Комиссия",
        -9.725773627070545
      ],
      [
        "▁Whi",
        -9.727499921403478
      ],
      [
        "октября",
        -9.727897806870295
      ],
      [
        "ку",
        -9.728355690069996
      ],
      [
        "▁practice",
        -9.729438542749756
      ],
      [
        "▁любы",
        -9.729635641596476
      ],
      [
        "R",
        -9.730734720447003
      ],
      [
        "▁Law",
        -9.73116685147623
      ],
      [
        "▁So",
        -9.73149465147294
      ],
      [
        "few",
        -9.731735165470438
      ],
      [
        "▁выполнения",
        -9.732614443660674
      ],
      [
        "▁мая",
        -9.73318946312703
      ],
      [
        "▁обзор",
        -9.733582734483477
      ],
      [
        "regarding",
        -9.733627178026193
      ],
      [
        "▁recent",
        -9.735169920718777
      ],
      [
        "around",
        -9.735292626684421
      ],
      [
        "▁personal",
        -9.737523498252019
      ],
      [
        "▁past",
        -9.738075992882116
      ],
      [
        "ых",
        -9.7384176274437
      ],
      [
        "▁assist",
        -9.738656334601128
      ],
      [
        "▁которым",
        -9.739095846386967
      ],
      [
        "by",
        -9.739425537570789
      ],
      [
        "cannot",
        -9.74056079174856
      ],
      [
        "▁Его",
        -9.740668810988746
      ],
      [
        "▁информация",
        -9.743711983148382
      ],
      [
        "▁интереса",
        -9.744056624429712
      ],
      [
        "▁entitl",
        -9.74648901296544
      ],
      [
        "▁real",
        -9.747202214720053
      ],
      [
        "▁transport",
        -9.747362564261552
      ],
      [
        "▁knowledge",
        -9.74846338246941
      ],
      [
        "те",
        -9.748602303232282
      ],
      [
        "условий",
        -9.749259832437954
      ],
      [
        "жа",
        -9.750706734628812
      ],
      [
        "V",
        -9.750878283096334
      ],
      [
        "▁Declaration",
        -9.752753047289032
      ],
      [
        "▁целом",
        -9.753044651938414
      ],
      [
        "новые",
        -9.75414018899458
      ],
      [
        "▁third",
        -9.754209066099689
      ],
      [
        "▁характер",
        -9.754878452428914
      ],
      [
        "▁interest",
        -9.754910099184148
      ],
      [
        "▁point",
        -9.754948510242349
      ],
      [
        "мероприятий",
        -9.755031749321024
      ],
      [
        "▁always",
        -9.75509781735318
      ],
      [
        "▁investment",
        -9.755424728901641
      ],
      [
        "▁совместно",
        -9.755684850218701
      ],
      [
        "▁повышения",
        -9.756890096485337
      ],
      [
        "▁часть",
        -9.75717346422906
      ],
      [
        "▁вклад",
        -9.758076603789936
      ],
      [
        "устойчивого",
        -9.758132327751538
      ],
      [
        "▁персонала",
        -9.759612079791896
      ],
      [
        "▁cultural",
        -9.759899383419228
      ],
      [
        "▁property",
        -9.75997147387369
      ],
      [
        "▁факт",
        -9.760394763688584
      ],
      [
        "ш",
        -9.762090346615315
      ],
      [
        "▁discuss",
        -9.763048548846324
      ],
      [
        "▁war",
        -9.76352073287782
      ],
      [
        "▁Arab",
        -9.763846513843903
      ],
      [
        "▁cost",
        -9.76525602401188
      ],
      [
        "Federation",
        -9.765711818973395
      ],
      [
        "▁August",
        -9.766724474302269
      ],
      [
        "▁всегда",
        -9.76695947296277
      ],
      [
        "▁Украин",
        -9.76864604032857
      ],
      [
        "▁room",
        -9.768786412138647
      ],
      [
        "▁апрел",
        -9.769372517335935
      ],
      [
        "▁man",
        -9.770386447327732
      ],
      [
        "decided",
        -9.77115111291559
      ],
      [
        "▁say",
        -9.771368491354584
      ],
      [
        "▁последствия",
        -9.771402694666811
      ],
      [
        "▁народов",
        -9.771858970367353
      ],
      [
        "▁call",
        -9.772054442316799
      ],
      [
        "▁think",
        -9.772123909754162
      ],
      [
        "February",
        -9.77240480637213
      ],
      [
        "▁рассмотрения",
        -9.772504625874534
      ],
      [
        "▁Специально",
        -9.773048490658853
      ],
      [
        "укрепления",
        -9.773776981335196
      ],
      [
        "▁содержит",
        -9.776851795797967
      ],
      [
        "▁мужчин",
        -9.776889528506436
      ],
      [
        "Affair",
        -9.77698269526933
      ],
      [
        "▁performance",
        -9.777703851324345
      ],
      [
        "▁welcome",
        -9.778436129183394
      ],
      [
        "armed",
        -9.77989451616858
      ],
      [
        "▁official",
        -9.780111440409462
      ],
      [
        "марта",
        -9.781523331335293
      ],
      [
        "разработки",
        -9.782553591104188
      ],
      [
        "▁value",
        -9.782756502614307
      ],
      [
        "▁five",
        -9.782979511940683
      ],
      [
        "▁media",
        -9.784120964974
      ],
      [
        "▁процедур",
        -9.784217738939628
      ],
      [
        "эту",
        -9.78425636171314
      ],
      [
        "▁post",
        -9.784400324374387
      ],
      [
        "▁His",
        -9.784459498330792
      ],
      [
        "▁encourage",
        -9.785900580129482
      ],
      [
        "▁drug",
        -9.788041460670453
      ],
      [
        "▁joint",
        -9.78870118530674
      ],
      [
        "▁school",
        -9.789060299640544
      ],
      [
        "▁Dur",
        -9.789179926634887
      ],
      [
        "▁нужно",
        -9.79018810256193
      ],
      [
        "ра",
        -9.79030194074082
      ],
      [
        "▁building",
        -9.790985228075671
      ],
      [
        "▁обязательств",
        -9.791007629729382
      ],
      [
        "at",
        -9.79251114929575
      ],
      [
        "▁ликвидаци",
        -9.792804508697007
      ],
      [
        "▁young",
        -9.793668264061207
      ],
      [
        "▁Kazakhstan",
        -9.794400504157474
      ],
      [
        "▁Act",
        -9.795073989371138
      ],
      [
        "операций",
        -9.795366991585263
      ],
      [
        "▁enhance",
        -9.797141236544284
      ],
      [
        "cy",
        -9.798230213034609
      ],
      [
        "одним",
        -9.798240321536683
      ],
      [
        "▁changes",
        -9.798809034189139
      ],
      [
        "зрения",
        -9.799911628544196
      ],
      [
        "Этот",
        -9.802199931824472
      ],
      [
        "▁него",
        -9.803348368233983
      ],
      [
        "meetings",
        -9.80518806630804
      ],
      [
        "relating",
        -9.805364384159711
      ],
      [
        "K",
        -9.806936305534197
      ],
      [
        "CN",
        -9.8069432062889
      ],
      [
        "▁section",
        -9.807037183634105
      ],
      [
        "▁выше",
        -9.807608055082408
      ],
      [
        "▁An",
        -9.808200943880154
      ],
      [
        "▁поддержани",
        -9.808202610652241
      ],
      [
        "▁делегаци",
        -9.808455997838772
      ],
      [
        "▁которую",
        -9.808556425776978
      ],
      [
        "сотрудничество",
        -9.808828049857004
      ],
      [
        "▁находится",
        -9.808942431607885
      ],
      [
        "▁государствами",
        -9.810137700305697
      ],
      [
        "refugee",
        -9.811039411028837
      ],
      [
        "▁nature",
        -9.811799868592084
      ],
      [
        "▁again",
        -9.812250404563162
      ],
      [
        "▁material",
        -9.813069230282677
      ],
      [
        "оказания",
        -9.813139953778315
      ],
      [
        "obligations",
        -9.815456633964349
      ],
      [
        "led",
        -9.815877366896238
      ],
      [
        "▁Bank",
        -9.81601012144334
      ],
      [
        "practices",
        -9.816270051550314
      ],
      [
        "чи",
        -9.816318129639715
      ],
      [
        "▁protect",
        -9.816505108141572
      ],
      [
        "early",
        -9.81705991727761
      ],
      [
        "большой",
        -9.817257551852244
      ],
      [
        "Хотя",
        -9.817444704595898
      ],
      [
        "▁координации",
        -9.817576979881839
      ],
      [
        "ью",
        -9.817953329428754
      ],
      [
        "процедуры",
        -9.818927392183944
      ],
      [
        "▁facilities",
        -9.820064296793918
      ],
      [
        "▁уровень",
        -9.820672632263552
      ],
      [
        "▁получить",
        -9.821010211998182
      ],
      [
        "amount",
        -9.822728418839132
      ],
      [
        "▁My",
        -9.822799451327462
      ],
      [
        "▁любо",
        -9.822896218154733
      ],
      [
        "▁стратеги",
        -9.822918659956324
      ],
      [
        "дней",
        -9.823456532974907
      ],
      [
        "▁rate",
        -9.825808468872788
      ],
      [
        "▁home",
        -9.82640711770127
      ],
      [
        "▁международно",
        -9.82696801067497
      ],
      [
        "точки",
        -9.827187329775922
      ],
      [
        "▁заявил",
        -9.827562130340254
      ],
      [
        "финансовых",
        -9.82823941901191
      ],
      [
        "until",
        -9.82826052312023
      ],
      [
        "▁personnel",
        -9.828338453688131
      ],
      [
        "▁network",
        -9.829400525433588
      ],
      [
        "▁Director",
        -9.829425741149835
      ],
      [
        "▁мнени",
        -9.82951363840488
      ],
      [
        "статье",
        -9.830456385820398
      ],
      [
        "over",
        -9.832205232936337
      ],
      [
        "▁Был",
        -9.833801513701829
      ],
      [
        "▁Central",
        -9.833916175498421
      ],
      [
        "воду",
        -9.833923953955201
      ],
      [
        "ская",
        -9.834240071021684
      ],
      [
        "▁Председатель",
        -9.834898361751565
      ],
      [
        "▁basic",
        -9.83687695677696
      ],
      [
        "Ассамблея",
        -9.83689891359248
      ],
      [
        "▁claim",
        -9.837204892805499
      ],
      [
        "▁расходов",
        -9.838838065443712
      ],
      [
        "степени",
        -9.83905310615097
      ],
      [
        "ны",
        -9.839795922093144
      ],
      [
        "▁условия",
        -9.840040028247197
      ],
      [
        "▁bring",
        -9.840186125052597
      ],
      [
        "▁представителей",
        -9.841048243154253
      ],
      [
        "▁государствам",
        -9.842076591325123
      ],
      [
        "ще",
        -9.843509390433388
      ],
      [
        "экономических",
        -9.843554680593753
      ],
      [
        "F",
        -9.84372299058702
      ],
      [
        "▁represent",
        -9.844239790335372
      ],
      [
        "either",
        -9.844393729973014
      ],
      [
        "▁play",
        -9.844885747501223
      ],
      [
        "▁укреплени",
        -9.845015816106057
      ],
      [
        "▁служб",
        -9.845987544964355
      ],
      [
        "▁член",
        -9.846067709480646
      ],
      [
        "ism",
        -9.846084778950248
      ],
      [
        "▁date",
        -9.846428643845202
      ],
      [
        "▁здоровья",
        -9.847351575653134
      ],
      [
        "иметь",
        -9.847353029076949
      ],
      [
        "▁Д",
        -9.847926944826234
      ],
      [
        "coordination",
        -9.848398677586546
      ],
      [
        "▁учитыва",
        -9.849423185918054
      ],
      [
        "▁final",
        -9.849456276225242
      ],
      [
        "▁recommend",
        -9.849564882033247
      ],
      [
        "именно",
        -9.849626299735407
      ],
      [
        "следующие",
        -9.850134532408534
      ],
      [
        "▁achieve",
        -9.850164119250266
      ],
      [
        "▁hand",
        -9.850741445217169
      ],
      [
        "▁model",
        -9.850811650149126
      ],
      [
        "yet",
        -9.852100207285817
      ],
      [
        "▁труда",
        -9.852393074293472
      ],
      [
        "▁annex",
        -9.853308484676276
      ],
      [
        "▁эффективно",
        -9.8534005953948
      ],
      [
        "▁opportunity",
        -9.853577919030984
      ],
      [
        "▁am",
        -9.853799505360401
      ],
      [
        "ц",
        -9.854588292869732
      ],
      [
        "▁enjoy",
        -9.854659905872126
      ],
      [
        "▁нашей",
        -9.85475038144793
      ],
      [
        "analysi",
        -9.854752644994411
      ],
      [
        "▁combat",
        -9.855261285819962
      ],
      [
        "secretariat",
        -9.855673156537474
      ],
      [
        "equality",
        -9.85627768312038
      ],
      [
        "amp",
        -9.85655633988039
      ],
      [
        "▁подготовк",
        -9.856793915375201
      ],
      [
        "▁Mission",
        -9.857624669800687
      ],
      [
        "▁documents",
        -9.858502596721026
      ],
      [
        "соответствующие",
        -9.85910965526984
      ],
      [
        "▁essential",
        -9.859499316825296
      ],
      [
        "пункте",
        -9.860141926238985
      ],
      [
        "▁предложения",
        -9.860157860162065
      ],
      [
        "▁мир",
        -9.86018213540105
      ],
      [
        "▁момент",
        -9.860832965300084
      ],
      [
        "planning",
        -9.862639703363204
      ],
      [
        "strengthening",
        -9.862660135170694
      ],
      [
        "финансирования",
        -9.864072447268631
      ],
      [
        "▁range",
        -9.864904602074226
      ],
      [
        "стратегии",
        -9.86499514112198
      ],
      [
        "victims",
        -9.865289895004201
      ],
      [
        "▁постоянно",
        -9.866227324476872
      ],
      [
        "▁costs",
        -9.866250030960622
      ],
      [
        "▁политических",
        -9.866469266643172
      ],
      [
        "▁услуги",
        -9.866521029285403
      ],
      [
        "▁плане",
        -9.866678964919753
      ],
      [
        "▁система",
        -9.867011100731514
      ],
      [
        "▁study",
        -9.86725144769899
      ],
      [
        "И",
        -9.86732706840949
      ],
      [
        "▁заседани",
        -9.867350457068994
      ],
      [
        "многие",
        -9.86796287474587
      ],
      [
        "▁near",
        -9.868140297433996
      ],
      [
        "▁ответственность",
        -9.868803568773815
      ],
      [
        "ory",
        -9.869520456616145
      ],
      [
        "▁эта",
        -9.869910338359032
      ],
      [
        "known",
        -9.870270035857317
      ],
      [
        "емся",
        -9.870399689622772
      ],
      [
        "▁office",
        -9.870698096808919
      ],
      [
        "защите",
        -9.87081228111195
      ],
      [
        "▁equal",
        -9.871172317920497
      ],
      [
        "provides",
        -9.871921838009708
      ],
      [
        "▁exchange",
        -9.872626067518992
      ],
      [
        "▁Women",
        -9.874017341283999
      ],
      [
        "роста",
        -9.874365338246397
      ],
      [
        "▁себе",
        -9.875009308844255
      ],
      [
        "▁здравоохранения",
        -9.875794031566802
      ],
      [
        "▁ответственности",
        -9.876061588020127
      ],
      [
        "▁прогресс",
        -9.876747121029402
      ],
      [
        "положений",
        -9.877720136814302
      ],
      [
        "▁вывод",
        -9.877803257496902
      ],
      [
        "технологий",
        -9.87856462640582
      ],
      [
        "man",
        -9.878825883126297
      ],
      [
        "▁процента",
        -9.88025344255932
      ],
      [
        "strategy",
        -9.881357855442214
      ],
      [
        "▁общего",
        -9.8814723379596
      ],
      [
        "организациями",
        -9.881580713004613
      ],
      [
        "aimed",
        -9.881771116687437
      ],
      [
        "другой",
        -9.883684123190145
      ],
      [
        "Governments",
        -9.886467636954979
      ],
      [
        "▁Service",
        -9.887092056554241
      ],
      [
        "indigenous",
        -9.887784450830303
      ],
      [
        "▁assessment",
        -9.888002209140865
      ],
      [
        "▁start",
        -9.88827424269768
      ],
      [
        "▁Asia",
        -9.88858693066864
      ],
      [
        "responsible",
        -9.889012954918933
      ],
      [
        "проведение",
        -9.889047898234063
      ],
      [
        "▁aspect",
        -9.88912374982588
      ],
      [
        "▁whole",
        -9.889398458821422
      ],
      [
        "потребностей",
        -9.889410173758774
      ],
      [
        "положение",
        -9.889437279446357
      ],
      [
        "▁документа",
        -9.889500826722504
      ],
      [
        "▁death",
        -9.890099177783457
      ],
      [
        "adoption",
        -9.890734438969057
      ],
      [
        "self",
        -9.892032836022386
      ],
      [
        "economy",
        -9.892778425574523
      ],
      [
        "▁пока",
        -9.892923159064816
      ],
      [
        "▁pay",
        -9.893055174954517
      ],
      [
        "▁Representative",
        -9.893685774950058
      ],
      [
        "сейчас",
        -9.893935846473466
      ],
      [
        "▁делегация",
        -9.894089772747256
      ],
      [
        "▁independent",
        -9.895009053597114
      ],
      [
        "▁использование",
        -9.895151908417576
      ],
      [
        "carried",
        -9.895824935273103
      ],
      [
        "▁Республика",
        -9.895921704793901
      ],
      [
        "▁Some",
        -9.896039626534424
      ],
      [
        "▁enable",
        -9.896239810448204
      ],
      [
        "коренны",
        -9.897386048115681
      ],
      [
        "▁today",
        -9.897924826649524
      ],
      [
        "▁companies",
        -9.89816209233415
      ],
      [
        "▁co",
        -9.898427551229583
      ],
      [
        "▁пути",
        -9.899554061199504
      ],
      [
        "▁дела",
        -9.89963245929277
      ],
      [
        "▁demand",
        -9.901750898265956
      ],
      [
        "▁конференции",
        -9.902116543065295
      ],
      [
        "▁site",
        -9.902477189260292
      ],
      [
        "dialogue",
        -9.902915356645352
      ],
      [
        "▁promot",
        -9.904261103415854
      ],
      [
        "Л",
        -9.90427141490711
      ],
      [
        "регионе",
        -9.904535068482296
      ],
      [
        "▁pursu",
        -9.904631982267828
      ],
      [
        "экономической",
        -9.904732250394852
      ],
      [
        "разработке",
        -9.905540194474929
      ],
      [
        "▁Эта",
        -9.90575466886247
      ],
      [
        "▁East",
        -9.905865792526736
      ],
      [
        "promotion",
        -9.905903402544931
      ],
      [
        "▁Ты",
        -9.906240949303891
      ],
      [
        "▁позволяет",
        -9.9063684203294
      ],
      [
        "▁значительно",
        -9.90688154473677
      ],
      [
        "needed",
        -9.907192887589275
      ],
      [
        "▁others",
        -9.907402213072295
      ],
      [
        "reported",
        -9.908623685184702
      ],
      [
        "▁сектора",
        -9.908712884993843
      ],
      [
        "▁странами",
        -9.908814024676326
      ],
      [
        "▁правил",
        -9.90886346831082
      ],
      [
        "▁обязательства",
        -9.909031132810773
      ],
      [
        "▁offer",
        -9.909676679261096
      ],
      [
        "▁far",
        -9.909926559374554
      ],
      [
        "▁состоит",
        -9.909962384562062
      ],
      [
        "steps",
        -9.910273452957181
      ],
      [
        "▁рекомендаций",
        -9.911238408939141
      ],
      [
        "▁качества",
        -9.911352743759084
      ],
      [
        "гражданского",
        -9.912123902975218
      ],
      [
        "currently",
        -9.912439311303883
      ],
      [
        "▁трех",
        -9.913313966950172
      ],
      [
        "▁этап",
        -9.913679562936748
      ],
      [
        "▁activity",
        -9.914188259676187
      ],
      [
        "результаты",
        -9.914521816855673
      ],
      [
        "prepared",
        -9.91568352801058
      ],
      [
        "done",
        -9.915877207438418
      ],
      [
        "областях",
        -9.916567634025032
      ],
      [
        "▁Party",
        -9.916739437668822
      ],
      [
        "неправительствен",
        -9.917113132217631
      ],
      [
        "▁сотрудничеств",
        -9.917689908020172
      ],
      [
        "arms",
        -9.918419444620877
      ],
      [
        "службы",
        -9.920461615516155
      ],
      [
        "▁сил",
        -9.922575939685483
      ],
      [
        "▁беженцев",
        -9.922981261338894
      ],
      [
        "ский",
        -9.92425939090582
      ],
      [
        "касающихся",
        -9.925077504450245
      ],
      [
        "зависимости",
        -9.925538369410516
      ],
      [
        "▁судебно",
        -9.9257379975327
      ],
      [
        "▁allow",
        -9.926246712020262
      ],
      [
        "safety",
        -9.92643269896106
      ],
      [
        "involved",
        -9.928863894510243
      ],
      [
        "▁рассмотрение",
        -9.929973320990198
      ],
      [
        "▁More",
        -9.930827611874312
      ],
      [
        "XXX",
        -9.931706711521988
      ],
      [
        "▁principle",
        -9.931748139240424
      ],
      [
        "имя",
        -9.931793295237979
      ],
      [
        "▁organized",
        -9.93268745488933
      ],
      [
        "having",
        -9.93329140218424
      ],
      [
        "▁higher",
        -9.933499279307705
      ],
      [
        "▁threat",
        -9.933732305187055
      ],
      [
        "▁Re",
        -9.93410397405448
      ],
      [
        "▁вместе",
        -9.934837672905186
      ],
      [
        "▁общи",
        -9.935267287398494
      ],
      [
        "процессе",
        -9.935927953641606
      ],
      [
        "▁reduction",
        -9.937317575057714
      ],
      [
        "z",
        -9.937587270239135
      ],
      [
        "▁reduce",
        -9.937669663827917
      ],
      [
        "▁connection",
        -9.938849787333167
      ],
      [
        "▁граждан",
        -9.94053077953217
      ],
      [
        "национального",
        -9.941642940879126
      ],
      [
        "administrative",
        -9.942574892758476
      ],
      [
        "▁Executive",
        -9.942880582097528
      ],
      [
        "acts",
        -9.943701886273637
      ],
      [
        "▁Ирак",
        -9.943878858624599
      ],
      [
        "▁III",
        -9.944261279977491
      ],
      [
        "▁Африк",
        -9.945019495574766
      ],
      [
        "prevention",
        -9.94509414643541
      ],
      [
        "▁программа",
        -9.945859045918247
      ],
      [
        "▁количество",
        -9.945960367021774
      ],
      [
        "▁Америки",
        -9.946126902434942
      ],
      [
        "▁соглашения",
        -9.946489855054454
      ],
      [
        "▁short",
        -9.946978555488448
      ],
      [
        "▁team",
        -9.94777803217186
      ],
      [
        "ющиеся",
        -9.947950532459064
      ],
      [
        "▁mission",
        -9.948546428967036
      ],
      [
        "▁вопроса",
        -9.948598905698011
      ],
      [
        "▁Porn",
        -9.948885752580727
      ],
      [
        "funds",
        -9.949387201682768
      ],
      [
        "▁уделя",
        -9.949458656367579
      ],
      [
        "▁плана",
        -9.949624897165695
      ],
      [
        "▁line",
        -9.949680868908382
      ],
      [
        "▁visit",
        -9.949704333916308
      ],
      [
        "▁города",
        -9.949828463758482
      ],
      [
        "▁communication",
        -9.949881003758861
      ],
      [
        "▁University",
        -9.95009001020867
      ],
      [
        "▁ним",
        -9.95040955171039
      ],
      [
        "committed",
        -9.9520626833532
      ],
      [
        "regulation",
        -9.95250401948497
      ],
      [
        "▁difficult",
        -9.952655370015934
      ],
      [
        "▁court",
        -9.953178486764841
      ],
      [
        "greater",
        -9.95412887035551
      ],
      [
        "▁явля",
        -9.95452038229468
      ],
      [
        "потому",
        -9.954691100721586
      ],
      [
        "▁materials",
        -9.954934845990785
      ],
      [
        "▁annual",
        -9.95592207469441
      ],
      [
        "nsuring",
        -9.95635753766155
      ],
      [
        "▁events",
        -9.957019255782434
      ],
      [
        "▁Когда",
        -9.957613210739892
      ],
      [
        "priority",
        -9.958354005685651
      ],
      [
        "▁Европейско",
        -9.959547190801628
      ],
      [
        "▁attack",
        -9.95955334262784
      ],
      [
        "▁direct",
        -9.960028932415375
      ],
      [
        "▁partners",
        -9.960186407471056
      ],
      [
        "▁специально",
        -9.960245121235792
      ],
      [
        "▁transfer",
        -9.960394786750442
      ],
      [
        "▁сегодня",
        -9.961440253114342
      ],
      [
        "▁настоятельно",
        -9.961444620872804
      ],
      [
        "opportunities",
        -9.962057653577547
      ],
      [
        "▁приняты",
        -9.96311284975378
      ],
      [
        "▁опыт",
        -9.963474955944285
      ],
      [
        "▁sexual",
        -9.963610675739066
      ],
      [
        "trafficking",
        -9.964003480531757
      ],
      [
        "▁посредством",
        -9.964467579558997
      ],
      [
        "▁wh",
        -9.965716381938714
      ],
      [
        "соответствующим",
        -9.966601709992783
      ],
      [
        "▁достаточно",
        -9.9670281529389
      ],
      [
        "actions",
        -9.967295820498114
      ],
      [
        "disarmament",
        -9.967608829772093
      ],
      [
        "▁считает",
        -9.96777873922046
      ],
      [
        "▁те",
        -9.967867312090382
      ],
      [
        "▁принимать",
        -9.968244960767871
      ],
      [
        "▁Centre",
        -9.96838878120738
      ],
      [
        "▁J",
        -9.969143614360451
      ],
      [
        "▁цен",
        -9.969389690292827
      ],
      [
        "▁receive",
        -9.970241926402364
      ],
      [
        "▁Code",
        -9.970740140680398
      ],
      [
        "▁план",
        -9.970780027962455
      ],
      [
        "распространения",
        -9.971300289191007
      ],
      [
        "▁employment",
        -9.971928858816945
      ],
      [
        "▁реформ",
        -9.972231780326782
      ],
      [
        "▁Таки",
        -9.972498012524968
      ],
      [
        "люди",
        -9.973355104363025
      ],
      [
        "▁осуществлять",
        -9.973588752433084
      ],
      [
        "▁региональных",
        -9.975012635564585
      ],
      [
        "▁сообщества",
        -9.9752358672525
      ],
      [
        "▁соответствующе",
        -9.975258931376475
      ],
      [
        "▁бюджета",
        -9.975735111123614
      ],
      [
        "▁share",
        -9.975852977410712
      ],
      [
        "силы",
        -9.975927617505896
      ],
      [
        "ситуации",
        -9.976638759716826
      ],
      [
        "конец",
        -9.976639388226806
      ],
      [
        "национальной",
        -9.977002024547078
      ],
      [
        "▁ВИЧ",
        -9.977324547955561
      ],
      [
        "де",
        -9.977369905598898
      ],
      [
        "ar",
        -9.97737820719944
      ],
      [
        "▁After",
        -9.977784257280838
      ],
      [
        "районах",
        -9.977817331711083
      ],
      [
        "▁принял",
        -9.97867581878138
      ],
      [
        "contribute",
        -9.978855526315241
      ],
      [
        "▁six",
        -9.979395986020648
      ],
      [
        "▁live",
        -9.979417958571137
      ],
      [
        "▁Генеральн",
        -9.980493876293309
      ],
      [
        "el",
        -9.980689812379008
      ],
      [
        "да",
        -9.980953250965602
      ],
      [
        "Chairman",
        -9.981819523846207
      ],
      [
        "forces",
        -9.982813686100082
      ],
      [
        "йте",
        -9.982918410422904
      ],
      [
        "Международного",
        -9.98334065872551
      ],
      [
        "processes",
        -9.98375192988002
      ],
      [
        "infrastructure",
        -9.984086991107038
      ],
      [
        "▁comment",
        -9.984878976408508
      ],
      [
        "ization",
        -9.985774235737537
      ],
      [
        "▁HIV",
        -9.986244804935053
      ],
      [
        "▁информационно",
        -9.986910141106508
      ],
      [
        "located",
        -9.986998038199582
      ],
      [
        "partnership",
        -9.987111174248062
      ],
      [
        "▁never",
        -9.987239828138193
      ],
      [
        "▁Information",
        -9.987422963001487
      ],
      [
        "▁event",
        -9.987606474305997
      ],
      [
        "второй",
        -9.987779902992264
      ],
      [
        "AC",
        -9.98809375410984
      ],
      [
        "▁август",
        -9.988246510625942
      ],
      [
        "▁активно",
        -9.989437534205607
      ],
      [
        "дать",
        -9.98947087166273
      ],
      [
        "experts",
        -9.990214917128458
      ],
      [
        "иностранных",
        -9.990878673368803
      ],
      [
        "▁climate",
        -9.991201612660017
      ],
      [
        "limited",
        -9.99192714665722
      ],
      [
        "▁вооруженны",
        -9.992246235526178
      ],
      [
        "получения",
        -9.992625398013532
      ],
      [
        "тому",
        -9.992760593951816
      ],
      [
        "членами",
        -9.992804815078868
      ],
      [
        "▁treat",
        -9.993369438863546
      ],
      [
        "▁shemale",
        -9.993425644072772
      ],
      [
        "▁каса",
        -9.993647177596385
      ],
      [
        "▁age",
        -9.994975569563469
      ],
      [
        "▁региона",
        -9.995101435522432
      ],
      [
        "▁house",
        -9.995190556472133
      ],
      [
        "▁construction",
        -9.995512345751399
      ],
      [
        "▁Б",
        -9.995528049854688
      ],
      [
        "▁understanding",
        -9.995695037088792
      ],
      [
        "Г",
        -9.996561862545638
      ],
      [
        "mm",
        -9.997058699806256
      ],
      [
        "away",
        -9.997228699360873
      ],
      [
        "▁создать",
        -9.997498050631776
      ],
      [
        "общей",
        -9.998448307710822
      ],
      [
        "▁результатов",
        -9.99878650189358
      ],
      [
        "•",
        -9.999209705572111
      ],
      [
        "уровнях",
        -9.99926355162377
      ],
      [
        "▁Al",
        -10.00098572559869
      ],
      [
        "▁совещания",
        -10.001241228654841
      ],
      [
        "former",
        -10.001678407659586
      ],
      [
        "▁increasing",
        -10.00209604112836
      ],
      [
        "▁type",
        -10.002555148648376
      ],
      [
        "▁последние",
        -10.003206341759155
      ],
      [
        "▁conference",
        -10.004976275293014
      ],
      [
        "▁ниже",
        -10.0050303026686
      ],
      [
        "▁produce",
        -10.006098482035453
      ],
      [
        "▁Peace",
        -10.00683833174817
      ],
      [
        "▁prison",
        -10.00731425715233
      ],
      [
        "принципов",
        -10.007819488176873
      ],
      [
        "▁lead",
        -10.008560126892043
      ],
      [
        "▁феврал",
        -10.00886646750346
      ],
      [
        "▁low",
        -10.009009363918546
      ],
      [
        "▁text",
        -10.009105984407416
      ],
      [
        "▁oil",
        -10.009229111818065
      ],
      [
        "▁мероприятия",
        -10.010857667534083
      ],
      [
        "членов",
        -10.011126628730421
      ],
      [
        "ты",
        -10.011613879770643
      ],
      [
        "▁работа",
        -10.011620568105213
      ],
      [
        "▁видов",
        -10.011662576250997
      ],
      [
        "forms",
        -10.012003270953928
      ],
      [
        "▁Iraq",
        -10.012143604570424
      ],
      [
        "▁export",
        -10.012486206465212
      ],
      [
        "▁периода",
        -10.01301684811551
      ],
      [
        "▁language",
        -10.013050477406859
      ],
      [
        "identify",
        -10.013181127959312
      ],
      [
        "▁угроз",
        -10.013430878890654
      ],
      [
        "порядке",
        -10.0137484191263
      ],
      [
        "▁пор",
        -10.014941744695015
      ],
      [
        "age",
        -10.015643950945295
      ],
      [
        "▁анализ",
        -10.01601903985505
      ],
      [
        "▁другим",
        -10.016732845240906
      ],
      [
        "связанные",
        -10.017005484651982
      ],
      [
        "coming",
        -10.01709338607591
      ],
      [
        "▁быстро",
        -10.017178431905545
      ],
      [
        "level",
        -10.018077524428955
      ],
      [
        "▁software",
        -10.018606297403327
      ],
      [
        "▁инфраструктур",
        -10.019238925767471
      ],
      [
        "▁author",
        -10.019834529230263
      ],
      [
        "▁guarantee",
        -10.019903789269058
      ],
      [
        "▁име",
        -10.020435150294068
      ],
      [
        "▁материал",
        -10.020521083748186
      ],
      [
        "▁женщины",
        -10.020558929126814
      ],
      [
        "тер",
        -10.0206416413841
      ],
      [
        "▁благодаря",
        -10.020786409815198
      ],
      [
        "национальном",
        -10.02199624327784
      ],
      [
        "strategies",
        -10.022277107881575
      ],
      [
        "facilitate",
        -10.022305346291288
      ],
      [
        "ECE",
        -10.023032540119852
      ],
      [
        "ShemaleZ",
        -10.023556867115898
      ],
      [
        "expected",
        -10.023749195868355
      ],
      [
        "▁рекомендует",
        -10.023884277122798
      ],
      [
        "j",
        -10.023974790845047
      ],
      [
        "▁метод",
        -10.02412611069104
      ],
      [
        "Advisor",
        -10.024571775974625
      ],
      [
        "▁Report",
        -10.025288772354457
      ],
      [
        "▁учреждения",
        -10.026341592686427
      ],
      [
        "рассмотреть",
        -10.027387465265614
      ],
      [
        "▁presented",
        -10.027672828538066
      ],
      [
        "▁participants",
        -10.027862820070988
      ],
      [
        "▁крайне",
        -10.027943487494316
      ],
      [
        "Группа",
        -10.028115331149984
      ],
      [
        "▁crisis",
        -10.028141867166042
      ],
      [
        "▁документов",
        -10.029009809067851
      ],
      [
        "▁места",
        -10.029137571615362
      ],
      [
        "▁взнос",
        -10.030396127911905
      ],
      [
        "▁обычно",
        -10.030944297470032
      ],
      [
        "▁ЮНИ",
        -10.031064032068175
      ],
      [
        "поддержке",
        -10.031683110881032
      ],
      [
        "▁обслуживания",
        -10.033143845633948
      ],
      [
        "▁carry",
        -10.033873794056685
      ],
      [
        "awareness",
        -10.034611107957371
      ],
      [
        "▁ними",
        -10.034860532257685
      ],
      [
        "created",
        -10.034865657551007
      ],
      [
        "▁regular",
        -10.03488588774343
      ],
      [
        "▁exercise",
        -10.035584235310788
      ],
      [
        "государственных",
        -10.035788929171105
      ],
      [
        "Covenant",
        -10.036119277375253
      ],
      [
        "▁отчет",
        -10.036278350767404
      ],
      [
        "▁учебны",
        -10.036294947863313
      ],
      [
        "▁заявления",
        -10.03699815086949
      ],
      [
        "territory",
        -10.037215446201786
      ],
      [
        "ting",
        -10.037377209210476
      ],
      [
        "▁вариант",
        -10.03742257112685
      ],
      [
        "itself",
        -10.03753181852585
      ],
      [
        "▁Thes",
        -10.037558130472267
      ],
      [
        "▁своим",
        -10.037881629899255
      ],
      [
        "▁Moscow",
        -10.038463185920431
      ],
      [
        "▁бюджет",
        -10.039525335949268
      ],
      [
        "▁capital",
        -10.039695034688632
      ],
      [
        "▁Организация",
        -10.039765161772536
      ],
      [
        "▁лучше",
        -10.039799345434599
      ],
      [
        "▁TV",
        -10.040163707131683
      ],
      [
        "▁Ms",
        -10.041559949253736
      ],
      [
        "decisions",
        -10.042057237104212
      ],
      [
        "работать",
        -10.042347166656507
      ],
      [
        "▁представления",
        -10.04246749328188
      ],
      [
        "▁сообщения",
        -10.043594761458884
      ],
      [
        "▁By",
        -10.044435285304155
      ],
      [
        "▁развиты",
        -10.045496175063427
      ],
      [
        "▁hope",
        -10.04571689128797
      ],
      [
        "▁От",
        -10.046008184802139
      ],
      [
        "какой",
        -10.046599787971479
      ],
      [
        "recommended",
        -10.046838730131338
      ],
      [
        "▁positive",
        -10.047069895946438
      ],
      [
        "местах",
        -10.047113407683172
      ],
      [
        "▁друг",
        -10.047206194870649
      ],
      [
        "▁operation",
        -10.047598875203386
      ],
      [
        "▁климата",
        -10.049212518285362
      ],
      [
        "once",
        -10.049399198151622
      ],
      [
        "workers",
        -10.050251354128427
      ],
      [
        "▁communit",
        -10.050429664750641
      ],
      [
        "▁citizens",
        -10.050655958247638
      ],
      [
        "affected",
        -10.051403323767035
      ],
      [
        "▁extend",
        -10.05160674223887
      ],
      [
        "экономики",
        -10.051815213818209
      ],
      [
        "▁предлагает",
        -10.051882728547797
      ],
      [
        "применение",
        -10.05260779540976
      ],
      [
        "▁industry",
        -10.053085036728739
      ],
      [
        "▁complex",
        -10.053763142546137
      ],
      [
        "▁последстви",
        -10.054459123125538
      ],
      [
        "▁нарушения",
        -10.054948607750127
      ],
      [
        "▁money",
        -10.054972834128353
      ],
      [
        "▁внимани",
        -10.055219686462157
      ],
      [
        "чего",
        -10.056637869830356
      ],
      [
        "▁mind",
        -10.056761252617502
      ],
      [
        "▁категории",
        -10.056865739507185
      ],
      [
        "▁physical",
        -10.057137474276836
      ],
      [
        "▁прежде",
        -10.057456351812133
      ],
      [
        "▁серьезны",
        -10.058372645940782
      ],
      [
        "ребенка",
        -10.058715042835686
      ],
      [
        "▁Be",
        -10.059036960613039
      ],
      [
        "▁complete",
        -10.06041211487641
      ],
      [
        "▁одно",
        -10.060502043118618
      ],
      [
        "▁online",
        -10.060515386126685
      ],
      [
        "▁conduct",
        -10.06175988698363
      ],
      [
        "▁часто",
        -10.06199668023463
      ],
      [
        "▁сообщил",
        -10.062382179969351
      ],
      [
        "▁мест",
        -10.063437560682821
      ],
      [
        "▁всё",
        -10.06381732750947
      ],
      [
        "правах",
        -10.063957378259351
      ],
      [
        "▁гендерно",
        -10.064400512816047
      ],
      [
        "▁professional",
        -10.064861753414462
      ],
      [
        "▁рабоче",
        -10.06514010225223
      ],
      [
        "▁ресурсы",
        -10.06530030055475
      ],
      [
        "directly",
        -10.066160616783838
      ],
      [
        "из",
        -10.066344075140561
      ],
      [
        "▁act",
        -10.06688897308196
      ],
      [
        "▁жертв",
        -10.067474810345736
      ],
      [
        "▁relations",
        -10.067761643579006
      ],
      [
        "▁face",
        -10.069154799199078
      ],
      [
        "▁self",
        -10.070273558016236
      ],
      [
        "▁Our",
        -10.070389749292746
      ],
      [
        "▁torture",
        -10.071229522000113
      ],
      [
        "religious",
        -10.071947306304466
      ],
      [
        "▁Internet",
        -10.072204422992321
      ],
      [
        "▁strategic",
        -10.072347617989761
      ],
      [
        "людьми",
        -10.072357484311931
      ],
      [
        "провести",
        -10.072866519980021
      ],
      [
        "▁роли",
        -10.073056476702009
      ],
      [
        "▁times",
        -10.073229676421386
      ],
      [
        "наших",
        -10.073578470541934
      ],
      [
        "▁People",
        -10.073587039755848
      ],
      [
        "▁сети",
        -10.0738255116675
      ],
      [
        "▁ущерб",
        -10.074008568206379
      ],
      [
        "▁fundamental",
        -10.074607799507165
      ],
      [
        "▁министр",
        -10.075129963797988
      ],
      [
        "▁рассматрива",
        -10.075550383074933
      ],
      [
        "▁Since",
        -10.075583110798695
      ],
      [
        "▁энергии",
        -10.075795216614145
      ],
      [
        "▁active",
        -10.07580837788672
      ],
      [
        "▁причин",
        -10.076036373172032
      ],
      [
        "▁forward",
        -10.076377058359029
      ],
      [
        "▁около",
        -10.077827842916083
      ],
      [
        "▁informed",
        -10.078566166350598
      ],
      [
        "▁kind",
        -10.078578872302224
      ],
      [
        "stated",
        -10.078755828035572
      ],
      [
        "▁граждански",
        -10.079183251158678
      ],
      [
        "▁Организаци",
        -10.079541049401278
      ],
      [
        "▁просит",
        -10.080703739737691
      ],
      [
        "▁sex",
        -10.080825285323694
      ],
      [
        "▁themselves",
        -10.08137708889125
      ],
      [
        "ate",
        -10.082548950721623
      ],
      [
        "▁сведени",
        -10.083034729245961
      ],
      [
        "▁слова",
        -10.084079553367586
      ],
      [
        "▁стали",
        -10.08432981638683
      ],
      [
        "▁Live",
        -10.085062333512125
      ],
      [
        "▁contact",
        -10.085084795003398
      ],
      [
        "▁terrorism",
        -10.085321039036401
      ],
      [
        "▁способ",
        -10.085355316623088
      ],
      [
        "▁methods",
        -10.085369707007423
      ],
      [
        "▁месяца",
        -10.085630569161196
      ],
      [
        "▁technologies",
        -10.086303625634843
      ],
      [
        "▁Ази",
        -10.086347472818622
      ],
      [
        "▁преступления",
        -10.087322298091685
      ],
      [
        "▁Do",
        -10.087368403570897
      ],
      [
        "▁Management",
        -10.087520052284571
      ],
      [
        "▁obtain",
        -10.087581165788542
      ],
      [
        "первой",
        -10.08802474047399
      ],
      [
        "plans",
        -10.08915761625247
      ],
      [
        "thus",
        -10.08923150725806
      ],
      [
        "words",
        -10.089327094131452
      ],
      [
        "AIDS",
        -10.089824157771222
      ],
      [
        "▁минут",
        -10.090163737276377
      ],
      [
        "▁price",
        -10.090857039200209
      ],
      [
        "▁практически",
        -10.091444362508087
      ],
      [
        "Декларации",
        -10.091788415751173
      ],
      [
        "▁исследования",
        -10.092029773467742
      ],
      [
        "▁сектор",
        -10.092715965474484
      ],
      [
        "Hub",
        -10.093064157104223
      ],
      [
        "conclusion",
        -10.093641754185162
      ],
      [
        "вер",
        -10.095058763833379
      ],
      [
        "говорит",
        -10.095084818603631
      ],
      [
        "▁officials",
        -10.095314908313757
      ],
      [
        "▁материалов",
        -10.096524273601347
      ],
      [
        "▁технологии",
        -10.096795459770156
      ],
      [
        "▁girls",
        -10.097700116292582
      ],
      [
        "▁ООН",
        -10.09802870152341
      ],
      [
        "entire",
        -10.099033075781554
      ],
      [
        "▁Other",
        -10.099512688941077
      ],
      [
        "▁medical",
        -10.09972853857082
      ],
      [
        "treaty",
        -10.10003115284705
      ],
      [
        "▁секретариат",
        -10.10096145826636
      ],
      [
        "▁evaluation",
        -10.10127042957858
      ],
      [
        "П",
        -10.101802112251148
      ],
      [
        "▁докладчик",
        -10.101922640221616
      ],
      [
        "▁различные",
        -10.102209844264639
      ],
      [
        "▁submit",
        -10.10262671535283
      ],
      [
        "▁там",
        -10.102669648663232
      ],
      [
        "▁sub",
        -10.102795235192962
      ],
      [
        "▁недели",
        -10.103181627524952
      ],
      [
        "▁transition",
        -10.103697898754865
      ],
      [
        "▁конфликта",
        -10.10399245578205
      ],
      [
        "day",
        -10.104642576117394
      ],
      [
        "vote",
        -10.10485752096966
      ],
      [
        "▁participate",
        -10.105003393564298
      ],
      [
        "полной",
        -10.10534187164301
      ],
      [
        "▁суда",
        -10.10599539830933
      ],
      [
        "▁sea",
        -10.106743729696458
      ],
      [
        "▁представители",
        -10.10751281694445
      ],
      [
        "▁мл",
        -10.108149076888544
      ],
      [
        "▁evidence",
        -10.10844195869537
      ],
      [
        "▁системе",
        -10.108521746269108
      ],
      [
        "supported",
        -10.108734573733612
      ],
      [
        "▁website",
        -10.109386716497298
      ],
      [
        "ских",
        -10.109579881854186
      ],
      [
        "отсутствие",
        -10.109915213081491
      ],
      [
        "конкретных",
        -10.110174185655472
      ],
      [
        "poor",
        -10.111002758694866
      ],
      [
        "▁computer",
        -10.112318045233016
      ],
      [
        "сколько",
        -10.112378261886695
      ],
      [
        "compliance",
        -10.112409216290787
      ],
      [
        "нести",
        -10.113328486590992
      ],
      [
        "▁сфер",
        -10.113794459791126
      ],
      [
        "outcome",
        -10.114151856835718
      ],
      [
        "▁affect",
        -10.114816325461819
      ],
      [
        "▁конкретны",
        -10.11512864758901
      ],
      [
        "▁финансово",
        -10.11535332854658
      ],
      [
        "▁para",
        -10.115377513189568
      ],
      [
        "▁тебя",
        -10.115836222007845
      ],
      [
        "▁повышени",
        -10.11611946963976
      ],
      [
        "▁участников",
        -10.116585997550997
      ],
      [
        "дает",
        -10.118020601366865
      ],
      [
        "Treaty",
        -10.118604711467642
      ],
      [
        "касающиеся",
        -10.120798204038135
      ],
      [
        "▁независимо",
        -10.121463690667275
      ],
      [
        "Kingdom",
        -10.121922848730584
      ],
      [
        "▁structure",
        -10.121998293410199
      ],
      [
        "WP",
        -10.122454905427276
      ],
      [
        "▁modern",
        -10.123458812729385
      ],
      [
        "▁правительств",
        -10.123972441060717
      ],
      [
        "▁UNI",
        -10.124099744797862
      ],
      [
        "▁product",
        -10.12462865015743
      ],
      [
        "▁old",
        -10.125729372801318
      ],
      [
        "objectives",
        -10.125770989363065
      ],
      [
        "▁почти",
        -10.125798307707809
      ],
      [
        "▁сравнени",
        -10.12622837129614
      ],
      [
        "dated",
        -10.126516898414838
      ],
      [
        "▁require",
        -10.126553600925831
      ],
      [
        "▁профессионально",
        -10.127106410243952
      ],
      [
        "▁нового",
        -10.128246839962138
      ],
      [
        "▁St",
        -10.131237441962215
      ],
      [
        "▁internal",
        -10.131556413142249
      ],
      [
        "▁ко",
        -10.132402579999829
      ],
      [
        "funding",
        -10.132613213491483
      ],
      [
        "Х",
        -10.133278397976255
      ],
      [
        "▁систему",
        -10.134030863426382
      ],
      [
        "практики",
        -10.134118437006235
      ],
      [
        "▁пред",
        -10.134602517602001
      ],
      [
        "▁anti",
        -10.136238026976272
      ],
      [
        "goals",
        -10.13674577006706
      ],
      [
        "▁выражает",
        -10.136976081339803
      ],
      [
        "year",
        -10.137016788011454
      ],
      [
        "▁консультаци",
        -10.137404248029972
      ],
      [
        "un",
        -10.138543099816866
      ],
      [
        "things",
        -10.139729069886185
      ],
      [
        "▁приложение",
        -10.14185755882577
      ],
      [
        "▁Ро",
        -10.14218772110029
      ],
      [
        "▁little",
        -10.142347806230513
      ],
      [
        "необходимые",
        -10.14275053551719
      ],
      [
        "оказывать",
        -10.143245315204103
      ],
      [
        "out",
        -10.143308570559466
      ],
      [
        "manner",
        -10.14444266301552
      ],
      [
        "▁исследований",
        -10.144962024699032
      ],
      [
        "▁single",
        -10.146110488084176
      ],
      [
        "▁First",
        -10.146659472503885
      ],
      [
        "воды",
        -10.146839100600653
      ],
      [
        "▁head",
        -10.146844615624966
      ],
      [
        "▁создан",
        -10.148405424148557
      ],
      [
        "▁similar",
        -10.14880520162406
      ],
      [
        "сообщество",
        -10.14895780901248
      ],
      [
        "approved",
        -10.148961541095076
      ],
      [
        "etention",
        -10.149127622056227
      ],
      [
        "▁central",
        -10.149384417021988
      ],
      [
        "каждый",
        -10.150251645590489
      ],
      [
        "▁позволит",
        -10.150254511220774
      ],
      [
        "▁принцип",
        -10.15067335386097
      ],
      [
        "Генеральный",
        -10.1512693590922
      ],
      [
        "▁grant",
        -10.15161014395928
      ],
      [
        "peacekeeping",
        -10.152062792160484
      ],
      [
        "▁веб",
        -10.152066351629013
      ],
      [
        "throughout",
        -10.152149011561129
      ],
      [
        "любой",
        -10.152698641334581
      ],
      [
        "designed",
        -10.15292307601586
      ],
      [
        "implemented",
        -10.153018385785204
      ],
      [
        "▁виде",
        -10.153663960282271
      ],
      [
        "▁labour",
        -10.153774465922357
      ],
      [
        "stability",
        -10.15391881104338
      ],
      [
        "▁Co",
        -10.154233059807867
      ],
      [
        "ways",
        -10.154418769485817
      ],
      [
        "законодательства",
        -10.155003212946975
      ],
      [
        "▁суд",
        -10.155055646137585
      ],
      [
        "▁keep",
        -10.155077848282085
      ],
      [
        "овых",
        -10.157478618178645
      ],
      [
        "которыми",
        -10.159578953036746
      ],
      [
        "▁проводить",
        -10.15971182434385
      ],
      [
        "самым",
        -10.160155694060936
      ],
      [
        "▁perform",
        -10.16063225344326
      ],
      [
        "следующих",
        -10.160747330658628
      ],
      [
        "полиции",
        -10.161556342323042
      ],
      [
        "▁Charter",
        -10.161825361467992
      ],
      [
        "▁solution",
        -10.16232885602621
      ],
      [
        "▁universal",
        -10.162935260040372
      ],
      [
        "▁recognize",
        -10.163177485798702
      ],
      [
        "▁оказани",
        -10.163666462333977
      ],
      [
        "▁turn",
        -10.164363330821221
      ],
      [
        "ко",
        -10.164406985459802
      ],
      [
        "свободы",
        -10.164931973500561
      ],
      [
        "Д",
        -10.16498184297733
      ],
      [
        "▁love",
        -10.165073025515497
      ],
      [
        "▁try",
        -10.165112818039185
      ],
      [
        "требуется",
        -10.165270986636264
      ],
      [
        "▁record",
        -10.165437081434286
      ],
      [
        "▁каждого",
        -10.16745007651946
      ],
      [
        "▁objective",
        -10.167613724387962
      ],
      [
        "эффективного",
        -10.168608134125309
      ],
      [
        "▁семьи",
        -10.169071213357334
      ],
      [
        "заявление",
        -10.169074442080131
      ],
      [
        "▁vehicle",
        -10.169632897397253
      ],
      [
        "▁recogniz",
        -10.16993772587092
      ],
      [
        "▁host",
        -10.170318425246851
      ],
      [
        "существует",
        -10.17108072747093
      ],
      [
        "integrated",
        -10.171336009131512
      ],
      [
        "СПИД",
        -10.172121705087811
      ],
      [
        "▁одна",
        -10.172602170977822
      ],
      [
        "секретарь",
        -10.173011270189772
      ],
      [
        "▁равно",
        -10.173128459455226
      ],
      [
        "Я",
        -10.173299002511575
      ],
      [
        "▁выразил",
        -10.173377463163119
      ],
      [
        "▁расширения",
        -10.173401878787992
      ],
      [
        "▁содействовать",
        -10.173971559812701
      ],
      [
        "▁preparation",
        -10.174355331876898
      ],
      [
        "▁administration",
        -10.174719616176048
      ],
      [
        "gan",
        -10.176414708204103
      ],
      [
        "правовой",
        -10.176754871497085
      ],
      [
        "▁затем",
        -10.176776766507151
      ],
      [
        "elections",
        -10.177434391945583
      ],
      [
        "статья",
        -10.177527688796308
      ],
      [
        "hours",
        -10.177621503277392
      ],
      [
        "заседания",
        -10.178664697178913
      ],
      [
        "рабочих",
        -10.17869182946438
      ],
      [
        "▁suggest",
        -10.179066653135312
      ],
      [
        "▁culture",
        -10.179360224816703
      ],
      [
        "something",
        -10.17965537545242
      ],
      [
        "▁закона",
        -10.17966653568862
      ],
      [
        "▁Из",
        -10.179949672666412
      ],
      [
        "▁practical",
        -10.181084067941349
      ],
      [
        "▁hotel",
        -10.181620774023187
      ],
      [
        "▁operational",
        -10.181845700039796
      ],
      [
        "новой",
        -10.181848724970829
      ],
      [
        "▁later",
        -10.181999710832951
      ],
      [
        "be",
        -10.18222530247683
      ],
      [
        "officer",
        -10.182892392254374
      ],
      [
        "ПРООН",
        -10.183790592489121
      ],
      [
        "▁Force",
        -10.18391697329902
      ],
      [
        "▁ваш",
        -10.185053099275938
      ],
      [
        "▁De",
        -10.185257012654958
      ],
      [
        "▁benefit",
        -10.1856241088019
      ],
      [
        "▁международные",
        -10.185756318799594
      ],
      [
        "questions",
        -10.186326768092334
      ],
      [
        "▁benefits",
        -10.186561559585398
      ],
      [
        "▁начала",
        -10.18669694028105
      ],
      [
        "какие",
        -10.186746031824661
      ],
      [
        "dependence",
        -10.186833073170968
      ],
      [
        "▁представитель",
        -10.186840917198783
      ],
      [
        "▁подчеркнул",
        -10.187395527262579
      ],
      [
        "смотря",
        -10.187437774716956
      ],
      [
        "▁отношения",
        -10.187444849833943
      ],
      [
        "ors",
        -10.187447618706114
      ],
      [
        "▁ней",
        -10.18745296417461
      ],
      [
        "▁opinion",
        -10.187687901271783
      ],
      [
        "▁Constitution",
        -10.187798746764258
      ],
      [
        "▁выбор",
        -10.187976813295723
      ],
      [
        "▁improvement",
        -10.187981606060031
      ],
      [
        "мимо",
        -10.18819252447114
      ],
      [
        "▁успешно",
        -10.18839997341526
      ],
      [
        "▁центра",
        -10.188472695802943
      ],
      [
        "▁ethnic",
        -10.188966666597736
      ],
      [
        "respective",
        -10.189143518112736
      ],
      [
        "▁непосредственно",
        -10.189480411486599
      ],
      [
        "овые",
        -10.189698323260577
      ],
      [
        "▁преступности",
        -10.189853104440829
      ],
      [
        "пример",
        -10.190082566819664
      ],
      [
        "overall",
        -10.19030435274959
      ],
      [
        "▁scientific",
        -10.190626887832316
      ],
      [
        "▁новый",
        -10.191556990749199
      ],
      [
        "▁task",
        -10.191699504643575
      ],
      [
        "efficient",
        -10.191788885755274
      ],
      [
        "▁техническо",
        -10.19206873097926
      ],
      [
        "▁правосудия",
        -10.19234675812531
      ],
      [
        "▁conclud",
        -10.192411396094235
      ],
      [
        "▁принимает",
        -10.1925739298711
      ],
      [
        "primary",
        -10.193039769970621
      ],
      [
        "financing",
        -10.193214715156072
      ],
      [
        "▁поддерживает",
        -10.193399797531205
      ],
      [
        "Африки",
        -10.194368742923848
      ],
      [
        "▁less",
        -10.194430703857321
      ],
      [
        "большие",
        -10.19524962135864
      ],
      [
        "rural",
        -10.196379473118142
      ],
      [
        "▁integration",
        -10.196864966354436
      ],
      [
        "▁indicate",
        -10.196993785810092
      ],
      [
        "далее",
        -10.197194828806502
      ],
      [
        "▁stress",
        -10.198545416913767
      ],
      [
        "efficiency",
        -10.199525684334485
      ],
      [
        "▁Agreement",
        -10.200189832523636
      ],
      [
        "▁определенны",
        -10.200480751833295
      ],
      [
        "способствовать",
        -10.200597322715268
      ],
      [
        "▁Управлени",
        -10.200811648475128
      ],
      [
        "культуры",
        -10.200842775092314
      ],
      [
        "информацией",
        -10.200845791358692
      ],
      [
        "▁supply",
        -10.200853595918314
      ],
      [
        "▁adopt",
        -10.202060082545664
      ],
      [
        "органы",
        -10.202645079537243
      ],
      [
        "authority",
        -10.202920719198648
      ],
      [
        "Meeting",
        -10.203535289659873
      ],
      [
        "students",
        -10.20359882277319
      ],
      [
        "negotiations",
        -10.204174662645608
      ],
      [
        "rather",
        -10.20462233573265
      ],
      [
        "▁reflect",
        -10.205317689507913
      ],
      [
        "abuse",
        -10.205322099683697
      ],
      [
        "▁came",
        -10.205673511878
      ],
      [
        "▁шесть",
        -10.20587601003015
      ],
      [
        "▁Про",
        -10.206361202845818
      ],
      [
        "▁left",
        -10.206443914294448
      ],
      [
        "▁ситуаци",
        -10.206688746295468
      ],
      [
        "▁interests",
        -10.206728332516185
      ],
      [
        "▁хорошо",
        -10.207499507919131
      ],
      [
        "individuals",
        -10.208137156545307
      ],
      [
        "▁озабоченност",
        -10.208384787890058
      ],
      [
        "ния",
        -10.20858124280519
      ],
      [
        "▁правила",
        -10.2086924349885
      ],
      [
        "прогресса",
        -10.209012455278828
      ],
      [
        "▁цель",
        -10.209375690186537
      ],
      [
        "circumstance",
        -10.209657522072138
      ],
      [
        "▁American",
        -10.210035291973913
      ],
      [
        "▁build",
        -10.212023572067912
      ],
      [
        "conducted",
        -10.212527683787883
      ],
      [
        "ба",
        -10.213169210740276
      ],
      [
        "▁функции",
        -10.213375362654208
      ],
      [
        "▁характера",
        -10.213778515951212
      ],
      [
        "▁Germany",
        -10.21403220453366
      ],
      [
        "referred",
        -10.214088322610685
      ],
      [
        "▁hard",
        -10.214296509364464
      ],
      [
        "Т",
        -10.214308077466532
      ],
      [
        "functions",
        -10.214308849549829
      ],
      [
        "▁mean",
        -10.214733475647314
      ],
      [
        "etc",
        -10.214780403193162
      ],
      [
        "▁незаконно",
        -10.214802488508077
      ],
      [
        "▁standard",
        -10.215176965356063
      ],
      [
        "▁avoid",
        -10.216302423823853
      ],
      [
        "▁обсуждения",
        -10.21752376317847
      ],
      [
        "▁связан",
        -10.217530555431777
      ],
      [
        "▁Institute",
        -10.217723768044664
      ],
      [
        "▁союз",
        -10.218117297864868
      ],
      [
        "il",
        -10.218507030155216
      ],
      [
        "▁предусматривает",
        -10.218613996680167
      ],
      [
        "пыток",
        -10.218914230795251
      ],
      [
        "ходят",
        -10.221022227578942
      ],
      [
        "along",
        -10.221058775421188
      ],
      [
        "▁заинтересованны",
        -10.221360404498888
      ],
      [
        "▁доби",
        -10.221610801680361
      ],
      [
        "▁отмеча",
        -10.22241410926337
      ],
      [
        "▁sources",
        -10.222937265930092
      ],
      [
        "▁off",
        -10.223017152386065
      ],
      [
        "▁Commissioner",
        -10.223235385816702
      ],
      [
        "▁государственно",
        -10.223242714344435
      ],
      [
        "▁Manager",
        -10.22358478684011
      ],
      [
        "▁определения",
        -10.224715074324996
      ],
      [
        "▁Under",
        -10.224933493566585
      ],
      [
        "ду",
        -10.225134807347738
      ],
      [
        "ance",
        -10.225408763861372
      ],
      [
        "▁understand",
        -10.225939441566839
      ],
      [
        "▁launch",
        -10.225952311722606
      ],
      [
        "▁нескольких",
        -10.22729351117676
      ],
      [
        "союза",
        -10.227391439100314
      ],
      [
        "▁version",
        -10.227549814628942
      ],
      [
        "▁конфликтов",
        -10.22766661851328
      ],
      [
        "guidelines",
        -10.227897525412764
      ],
      [
        "achieved",
        -10.228152150014866
      ],
      [
        "равенства",
        -10.228220563931545
      ],
      [
        "ющимся",
        -10.228248100812952
      ],
      [
        "brough",
        -10.228511007967242
      ],
      [
        "▁users",
        -10.228807001027462
      ],
      [
        "▁leave",
        -10.22886797701643
      ],
      [
        "▁сведения",
        -10.228998824376703
      ],
      [
        "▁file",
        -10.229070132893048
      ],
      [
        "▁ране",
        -10.229082495342002
      ],
      [
        "▁income",
        -10.229251808058574
      ],
      [
        "of",
        -10.229308007010806
      ],
      [
        "огда",
        -10.229416700707676
      ],
      [
        "▁border",
        -10.229732256931044
      ],
      [
        "asked",
        -10.230243045900725
      ],
      [
        "Управление",
        -10.230625252693688
      ],
      [
        "▁traditional",
        -10.230712347651368
      ],
      [
        "▁представителя",
        -10.231023272428585
      ],
      [
        "improving",
        -10.231104511790944
      ],
      [
        "▁большинство",
        -10.231272927415889
      ],
      [
        "составляет",
        -10.231277880972526
      ],
      [
        "заключается",
        -10.231463126426553
      ],
      [
        "▁дома",
        -10.231510653262964
      ],
      [
        "▁политической",
        -10.232182075317604
      ],
      [
        "▁separate",
        -10.232303822532263
      ],
      [
        "history",
        -10.232728491341483
      ],
      [
        "▁обрати",
        -10.233024794810168
      ],
      [
        "содействие",
        -10.233166663054147
      ],
      [
        "▁creation",
        -10.234466655816297
      ],
      [
        "▁test",
        -10.23573286418131
      ],
      [
        "Democratic",
        -10.236872178330081
      ],
      [
        "▁Plan",
        -10.236967530374342
      ],
      [
        "докладов",
        -10.236982289298902
      ],
      [
        "▁программам",
        -10.237324926716708
      ],
      [
        "соблюдения",
        -10.237426437139689
      ],
      [
        "▁широко",
        -10.237824618586636
      ],
      [
        "делам",
        -10.237891314365733
      ],
      [
        "elements",
        -10.238154584465102
      ],
      [
        "никогда",
        -10.238592316714593
      ],
      [
        "▁договор",
        -10.239047806056222
      ],
      [
        "самых",
        -10.239193502379726
      ],
      [
        "▁народа",
        -10.239625643258991
      ],
      [
        "Программы",
        -10.24011514928035
      ],
      [
        "▁goal",
        -10.240227971578985
      ],
      [
        "▁Р",
        -10.241109729334413
      ],
      [
        "▁тысячелетия",
        -10.241845197492813
      ],
      [
        "▁mention",
        -10.242746643377334
      ],
      [
        "▁multilateral",
        -10.242875923895499
      ],
      [
        "Jesus",
        -10.24323680963346
      ],
      [
        "▁Иисус",
        -10.24327768710117
      ],
      [
        "предложение",
        -10.24334881609897
      ],
      [
        "весьма",
        -10.243354710716735
      ],
      [
        "sufficient",
        -10.2434217113445
      ],
      [
        "▁limit",
        -10.243472185020586
      ],
      [
        "notes",
        -10.243557001997178
      ],
      [
        "ности",
        -10.243926179365944
      ],
      [
        "▁всеми",
        -10.243929912798166
      ],
      [
        "▁register",
        -10.244059569965783
      ],
      [
        "▁car",
        -10.244146948039857
      ],
      [
        "▁gas",
        -10.244558867568575
      ],
      [
        "рынка",
        -10.244983546556908
      ],
      [
        "▁Home",
        -10.245114882932157
      ],
      [
        "ля",
        -10.245705502849084
      ],
      [
        "▁debt",
        -10.245815198063045
      ],
      [
        "▁types",
        -10.245979611868853
      ],
      [
        "Tribunal",
        -10.24600532655397
      ],
      [
        "▁monitor",
        -10.246754068815795
      ],
      [
        "▁punish",
        -10.247314877134487
      ],
      [
        "enforcement",
        -10.247323118553153
      ],
      [
        "almost",
        -10.247622194547338
      ],
      [
        "▁трудност",
        -10.248489874785566
      ],
      [
        "gency",
        -10.249407869520828
      ],
      [
        "▁safe",
        -10.249586384512993
      ],
      [
        "▁Global",
        -10.251094518820066
      ],
      [
        "▁regime",
        -10.252884501926129
      ],
      [
        "effectively",
        -10.253332002601278
      ],
      [
        "▁предмет",
        -10.253516543848436
      ],
      [
        "▁Israeli",
        -10.253608561387837
      ],
      [
        "такое",
        -10.253909334320012
      ],
      [
        "разоружения",
        -10.254475431928345
      ],
      [
        "▁letter",
        -10.254845201729294
      ],
      [
        "предоставления",
        -10.255302099514212
      ],
      [
        "▁side",
        -10.255659800007612
      ],
      [
        "keeping",
        -10.256133851165563
      ],
      [
        "отношений",
        -10.256415003950073
      ],
      [
        "▁тогда",
        -10.256835644266776
      ],
      [
        "овой",
        -10.257307923335295
      ],
      [
        "местных",
        -10.25806958088135
      ],
      [
        "▁read",
        -10.258097031206558
      ],
      [
        "▁exist",
        -10.258381271463165
      ],
      [
        "управление",
        -10.25838803015936
      ],
      [
        "всей",
        -10.258865814750562
      ],
      [
        "▁famil",
        -10.259214383355937
      ],
      [
        "основные",
        -10.259723054563333
      ],
      [
        "▁две",
        -10.25978711907286
      ],
      [
        "выборов",
        -10.260081561615708
      ],
      [
        "▁приняти",
        -10.260639718761384
      ],
      [
        "▁До",
        -10.26130040475912
      ],
      [
        "▁найти",
        -10.26132013445354
      ],
      [
        "▁языка",
        -10.261516395546387
      ],
      [
        "▁outside",
        -10.261616674594183
      ],
      [
        "▁disease",
        -10.26175059220175
      ],
      [
        "fence",
        -10.262058166196194
      ],
      [
        "▁Вмест",
        -10.263619661996652
      ],
      [
        "Согласно",
        -10.263684628399126
      ],
      [
        "missions",
        -10.264895414567649
      ],
      [
        "▁Azerbaijan",
        -10.265131905893233
      ],
      [
        "▁образование",
        -10.265531044656392
      ],
      [
        "▁Criminal",
        -10.265557737953893
      ],
      [
        "принципы",
        -10.265699100801612
      ],
      [
        "▁concept",
        -10.265822955705318
      ],
      [
        "across",
        -10.266163759084655
      ],
      [
        "▁step",
        -10.266784105695576
      ],
      [
        "apply",
        -10.267091363056807
      ],
      [
        "▁анализа",
        -10.267433016243642
      ],
      [
        "комиссии",
        -10.267635314050503
      ],
      [
        "▁протокол",
        -10.267913726172134
      ],
      [
        "▁игры",
        -10.268300642444947
      ],
      [
        "▁user",
        -10.268809439986065
      ],
      [
        "▁seek",
        -10.268990458188576
      ],
      [
        "▁points",
        -10.269284186286953
      ],
      [
        "▁текст",
        -10.269796894573505
      ],
      [
        "можем",
        -10.270278269791218
      ],
      [
        "созданию",
        -10.271140494963058
      ],
      [
        "Millennium",
        -10.272131288485602
      ],
      [
        "▁Н",
        -10.27235825739854
      ],
      [
        "▁поощрени",
        -10.275527213998354
      ],
      [
        "▁третье",
        -10.275828898973113
      ],
      [
        "▁stage",
        -10.276438048832931
      ],
      [
        "Fi",
        -10.276838221126122
      ],
      [
        "▁Устав",
        -10.278711830794993
      ],
      [
        "▁content",
        -10.278814730747106
      ],
      [
        "э",
        -10.27885799371968
      ],
      [
        "▁size",
        -10.279021781056631
      ],
      [
        "▁source",
        -10.279101898884162
      ],
      [
        "▁теперь",
        -10.27915392049681
      ],
      [
        "ющих",
        -10.279394157548316
      ],
      [
        "▁deep",
        -10.279416902007748
      ],
      [
        "seem",
        -10.27955716532348
      ],
      [
        "offers",
        -10.279815821712775
      ],
      [
        "▁heart",
        -10.280002241615554
      ],
      [
        "▁Европы",
        -10.280115414725003
      ],
      [
        "▁met",
        -10.280119940378132
      ],
      [
        "чь",
        -10.28080849546833
      ],
      [
        "damage",
        -10.28085252775878
      ],
      [
        "▁identifi",
        -10.281142455091043
      ],
      [
        "peaceful",
        -10.28122660244532
      ],
      [
        "ach",
        -10.281944061926913
      ],
      [
        "▁рост",
        -10.28284467471721
      ],
      [
        "▁forest",
        -10.283036425778008
      ],
      [
        "▁minor",
        -10.283048016838825
      ],
      [
        "▁travel",
        -10.283598143571874
      ],
      [
        "▁сталкива",
        -10.284668178863067
      ],
      [
        "защиту",
        -10.284792684141044
      ],
      [
        "▁наши",
        -10.285469532497235
      ],
      [
        "▁Foreign",
        -10.285910862908496
      ],
      [
        "▁educational",
        -10.286155256117778
      ],
      [
        "▁Российско",
        -10.286473594731854
      ],
      [
        "▁resource",
        -10.286728505309542
      ],
      [
        "▁форм",
        -10.286993137403094
      ],
      [
        "▁broad",
        -10.287676114707821
      ],
      [
        "▁beginning",
        -10.287842449011167
      ],
      [
        "приветствует",
        -10.28912936415427
      ],
      [
        "▁высокого",
        -10.289270215460503
      ],
      [
        "▁структур",
        -10.29191962226729
      ],
      [
        "▁конкретно",
        -10.29201100710551
      ],
      [
        "▁game",
        -10.292523102410915
      ],
      [
        "▁доклады",
        -10.294217277537566
      ],
      [
        "▁Тем",
        -10.29460280496588
      ],
      [
        "▁appear",
        -10.294743430627578
      ],
      [
        "ov",
        -10.29562810528825
      ],
      [
        "совершенствовани",
        -10.295721699845927
      ],
      [
        "▁check",
        -10.29581217566129
      ],
      [
        "▁Korea",
        -10.295861130742448
      ],
      [
        "резолюция",
        -10.295985243988094
      ],
      [
        "▁System",
        -10.296003805838854
      ],
      [
        "time",
        -10.296072066085053
      ],
      [
        "▁жалоб",
        -10.296462195304237
      ],
      [
        "▁campaign",
        -10.296657579581066
      ],
      [
        "▁Forum",
        -10.297403639183505
      ],
      [
        "▁режим",
        -10.29828642043331
      ],
      [
        "▁деклараци",
        -10.299010405482866
      ],
      [
        "▁войны",
        -10.300980218460687
      ],
      [
        "▁рас",
        -10.301228044014653
      ],
      [
        "▁collection",
        -10.301332343176846
      ],
      [
        "▁самом",
        -10.301505146446344
      ],
      [
        "▁сексуально",
        -10.301651125239578
      ],
      [
        "▁трансы",
        -10.301734142856517
      ],
      [
        "важность",
        -10.301876321316712
      ],
      [
        "www",
        -10.301971685178158
      ],
      [
        "▁thought",
        -10.302483680590926
      ],
      [
        "принятие",
        -10.303318938964946
      ],
      [
        "обеспечивать",
        -10.303533917727341
      ],
      [
        "▁talk",
        -10.303600604037362
      ],
      [
        "regions",
        -10.303794362868233
      ],
      [
        "▁экологически",
        -10.30556311714957
      ],
      [
        "aid",
        -10.306087442340923
      ],
      [
        "▁сокращения",
        -10.306179873251452
      ],
      [
        "▁органа",
        -10.306389199684755
      ],
      [
        "▁наличи",
        -10.30687912535318
      ],
      [
        "soon",
        -10.306938591178236
      ],
      [
        "▁Trade",
        -10.307041990682146
      ],
      [
        "законодательство",
        -10.307451388744855
      ],
      [
        "▁обеспечивает",
        -10.30850748087942
      ],
      [
        "имеющих",
        -10.308646017950473
      ],
      [
        "▁обеспокоенность",
        -10.309522109208007
      ],
      [
        "▁tits",
        -10.310126129412218
      ],
      [
        "leading",
        -10.310399256923487
      ],
      [
        "охраны",
        -10.31141187624839
      ],
      [
        "▁success",
        -10.311883302641109
      ],
      [
        "провел",
        -10.311998420537615
      ],
      [
        "органами",
        -10.312240874488348
      ],
      [
        "▁Грузи",
        -10.31240959223138
      ],
      [
        "operating",
        -10.313074734789572
      ],
      [
        "ial",
        -10.313348673614032
      ],
      [
        "Республике",
        -10.314521002874363
      ],
      [
        "▁credit",
        -10.31503423820326
      ],
      [
        "▁потенциал",
        -10.315635454225989
      ],
      [
        "▁Please",
        -10.315740617615091
      ],
      [
        "членам",
        -10.316223607185355
      ],
      [
        "org",
        -10.31633716424928
      ],
      [
        "▁reference",
        -10.31636559679404
      ],
      [
        "▁сбор",
        -10.316380933629738
      ],
      [
        "улучшения",
        -10.31646390527821
      ],
      [
        "communications",
        -10.316929771642705
      ],
      [
        "▁page",
        -10.317298207682292
      ],
      [
        "▁Южно",
        -10.318799274153164
      ],
      [
        "мер",
        -10.318822564646869
      ],
      [
        "▁France",
        -10.318898887836028
      ],
      [
        "▁статус",
        -10.319671689931877
      ],
      [
        "ch",
        -10.320342349451685
      ],
      [
        "arrangements",
        -10.320716825683794
      ],
      [
        "▁sustain",
        -10.320921898427232
      ],
      [
        "▁critical",
        -10.321249072430978
      ],
      [
        "▁центр",
        -10.321385564395268
      ],
      [
        "statements",
        -10.322369529391993
      ],
      [
        "▁Секретариат",
        -10.32242851327356
      ],
      [
        "▁expert",
        -10.322852823392658
      ],
      [
        "ре",
        -10.32290646220943
      ],
      [
        "▁floor",
        -10.323576358982042
      ],
      [
        "associated",
        -10.323671967105728
      ],
      [
        "ность",
        -10.323773466825893
      ],
      [
        "технического",
        -10.323849402876604
      ],
      [
        "▁консультации",
        -10.323972269146966
      ],
      [
        "▁требует",
        -10.324474290697527
      ],
      [
        "▁appeal",
        -10.324861151767006
      ],
      [
        "men",
        -10.325538709681698
      ],
      [
        "Правительство",
        -10.326211768805353
      ],
      [
        "йти",
        -10.326670771962762
      ],
      [
        "означает",
        -10.326762057354506
      ],
      [
        "▁server",
        -10.32700795686215
      ],
      [
        "▁Crime",
        -10.327170598175643
      ],
      [
        "▁Support",
        -10.327363363096023
      ],
      [
        "данной",
        -10.327597657653525
      ],
      [
        "▁Services",
        -10.327750050065555
      ],
      [
        "longer",
        -10.32815236006409
      ],
      [
        "for",
        -10.328429030061953
      ],
      [
        "положении",
        -10.328526525859823
      ],
      [
        "▁см",
        -10.32964068781951
      ],
      [
        "▁её",
        -10.330470382894173
      ],
      [
        "▁commission",
        -10.330477699605428
      ],
      [
        "▁distribution",
        -10.330647704768118
      ],
      [
        "▁Мисси",
        -10.331708202206386
      ],
      [
        "призвал",
        -10.331834282758098
      ],
      [
        "▁HD",
        -10.33206678770067
      ],
      [
        "▁successful",
        -10.332207037554893
      ],
      [
        "everything",
        -10.33293566406735
      ],
      [
        "▁обращения",
        -10.333115879385513
      ],
      [
        "▁Such",
        -10.334271035505658
      ],
      [
        "▁disaster",
        -10.334402321879736
      ],
      [
        "▁приоритет",
        -10.33487234290546
      ],
      [
        "▁важн",
        -10.33495974987053
      ],
      [
        "remains",
        -10.335224594883414
      ],
      [
        "▁contract",
        -10.335381086619924
      ],
      [
        "attempt",
        -10.33565905686305
      ],
      [
        "Всемирной",
        -10.335664253189229
      ],
      [
        "▁thousand",
        -10.335940375566642
      ],
      [
        "tended",
        -10.336576519460221
      ],
      [
        "paid",
        -10.337787325616198
      ],
      [
        "▁сохраня",
        -10.338247365637265
      ],
      [
        "▁table",
        -10.33851475295196
      ],
      [
        "большая",
        -10.338590722913779
      ],
      [
        "▁достигнуты",
        -10.339424023432878
      ],
      [
        "▁mass",
        -10.339601159185962
      ],
      [
        "▁важны",
        -10.340412504658257
      ],
      [
        "потребности",
        -10.340984269968189
      ],
      [
        "ge",
        -10.341510787430721
      ],
      [
        "▁перв",
        -10.341865376387174
      ],
      [
        "ешь",
        -10.342031573892008
      ],
      [
        "judicial",
        -10.342716341512649
      ],
      [
        "▁institutional",
        -10.342962967609216
      ],
      [
        "играть",
        -10.343232636175365
      ],
      [
        "▁источников",
        -10.343462257195092
      ],
      [
        "CEF",
        -10.344269266927595
      ],
      [
        "услугам",
        -10.344793544554685
      ],
      [
        "▁Foundation",
        -10.345890257750757
      ],
      [
        "вшихся",
        -10.346238820963798
      ],
      [
        "▁научно",
        -10.346330310742587
      ],
      [
        "различным",
        -10.346865229679548
      ],
      [
        "енных",
        -10.34690204365869
      ],
      [
        "▁нем",
        -10.346953408926401
      ],
      [
        "▁меньше",
        -10.347010733085014
      ],
      [
        "▁обзора",
        -10.347759192573365
      ],
      [
        "оружие",
        -10.34863340977406
      ],
      [
        "▁призыв",
        -10.348691533557377
      ],
      [
        "▁сумм",
        -10.349394265112064
      ],
      [
        "стью",
        -10.349466797477248
      ],
      [
        "▁Интернет",
        -10.349487551904383
      ],
      [
        "знать",
        -10.349576373067741
      ],
      [
        "ф",
        -10.349699528197887
      ],
      [
        "▁terrorist",
        -10.350164462402214
      ],
      [
        "im",
        -10.35077777705573
      ],
      [
        "rates",
        -10.351108099916
      ],
      [
        "▁инвестиций",
        -10.351257694692473
      ],
      [
        "▁target",
        -10.35168806025991
      ],
      [
        "ru",
        -10.352140505726283
      ],
      [
        "▁внутри",
        -10.35265263611586
      ],
      [
        "settlement",
        -10.353335473106469
      ],
      [
        "▁Со",
        -10.353372196775878
      ],
      [
        "▁национальным",
        -10.35338305520781
      ],
      [
        "У",
        -10.353923278342423
      ],
      [
        "показателей",
        -10.354175828629907
      ],
      [
        "▁Департамент",
        -10.354307696173906
      ],
      [
        "donor",
        -10.35485943588774
      ],
      [
        "▁частны",
        -10.355126102041341
      ],
      [
        "effectiveness",
        -10.355349970945968
      ],
      [
        "includes",
        -10.355433501322416
      ],
      [
        "▁культурны",
        -10.355933360504283
      ],
      [
        "▁обучения",
        -10.356040770148079
      ],
      [
        "▁sent",
        -10.356304024863947
      ],
      [
        "▁lower",
        -10.356335973809815
      ],
      [
        "▁стал",
        -10.356502108199864
      ],
      [
        "▁замечания",
        -10.356715665172846
      ],
      [
        "laws",
        -10.357027899272893
      ],
      [
        "▁легко",
        -10.357274790777351
      ],
      [
        "постановил",
        -10.357308237363592
      ],
      [
        "▁Mo",
        -10.357321500455363
      ],
      [
        "applied",
        -10.357632820441355
      ],
      [
        "Н",
        -10.357718841089497
      ],
      [
        "▁informal",
        -10.358081745163405
      ],
      [
        "▁сельскохозяйств",
        -10.358144486013273
      ],
      [
        "ling",
        -10.358531780035436
      ],
      [
        "lthough",
        -10.358745495403289
      ],
      [
        "АО",
        -10.359096215206336
      ],
      [
        "▁Вам",
        -10.359575492589787
      ],
      [
        "indicators",
        -10.359772089819584
      ],
      [
        "▁centre",
        -10.359939371430006
      ],
      [
        "▁Wi",
        -10.359944783433175
      ],
      [
        "▁base",
        -10.360009320319744
      ],
      [
        "▁обраща",
        -10.360927476010854
      ],
      [
        "▁мандат",
        -10.361968385607234
      ],
      [
        "стало",
        -10.361972932646697
      ],
      [
        "▁запрос",
        -10.36214394992887
      ],
      [
        "▁четко",
        -10.362516631626566
      ],
      [
        "данного",
        -10.362881184419889
      ],
      [
        "▁happen",
        -10.362929868638371
      ],
      [
        "ur",
        -10.362983088721574
      ],
      [
        "▁join",
        -10.363143506557183
      ],
      [
        "Division",
        -10.363270916417575
      ],
      [
        "▁Public",
        -10.363453395859729
      ],
      [
        "▁включает",
        -10.363679093105626
      ],
      [
        "удовлетворение",
        -10.363971437962338
      ],
      [
        "▁надлежаще",
        -10.364390054919376
      ],
      [
        "am",
        -10.364622051606752
      ],
      [
        "features",
        -10.364714526882356
      ],
      [
        "ent",
        -10.365188490843858
      ],
      [
        "▁представил",
        -10.365786303657023
      ],
      [
        "правило",
        -10.365850996244353
      ],
      [
        "▁согласи",
        -10.366533823779811
      ],
      [
        "▁states",
        -10.366714170832802
      ],
      [
        "ful",
        -10.367110331371176
      ],
      [
        "▁periodic",
        -10.367664927250528
      ],
      [
        "▁Now",
        -10.367967858768516
      ],
      [
        "▁Center",
        -10.368172517297351
      ],
      [
        "▁Фонд",
        -10.368829929961935
      ],
      [
        "series",
        -10.368853649539739
      ],
      [
        "очередь",
        -10.369261910476025
      ],
      [
        "majority",
        -10.369441349773457
      ],
      [
        "национальные",
        -10.369785552273624
      ],
      [
        "Международной",
        -10.369821826350016
      ],
      [
        "▁serve",
        -10.370023593152371
      ],
      [
        "▁действительно",
        -10.37015208276133
      ],
      [
        "▁гуманитарно",
        -10.370411501196616
      ],
      [
        "▁Верховно",
        -10.370604705977836
      ],
      [
        "▁язык",
        -10.3711849736051
      ],
      [
        "Justice",
        -10.371199692974901
      ],
      [
        "▁Федерации",
        -10.371555296073762
      ],
      [
        "UN",
        -10.371628410194093
      ],
      [
        "▁Non",
        -10.372649209356318
      ],
      [
        "▁undertake",
        -10.373713924857896
      ],
      [
        "находятся",
        -10.37413453071988
      ],
      [
        "Serbia",
        -10.375247484421255
      ],
      [
        "▁делать",
        -10.375588061590971
      ],
      [
        "▁проведен",
        -10.376130313831075
      ],
      [
        "▁первый",
        -10.37635667245175
      ],
      [
        "изменений",
        -10.37684577006119
      ],
      [
        "▁paper",
        -10.37731382410067
      ],
      [
        "Although",
        -10.377404574730042
      ],
      [
        "▁Over",
        -10.378250201621476
      ],
      [
        "introduced",
        -10.378726042084823
      ],
      [
        "signed",
        -10.379161447812129
      ],
      [
        "Несмотря",
        -10.379457972855514
      ],
      [
        "▁expect",
        -10.379724056384761
      ],
      [
        "▁должности",
        -10.379925536042279
      ],
      [
        "интеграции",
        -10.380227134936447
      ],
      [
        "▁fair",
        -10.38038308386135
      ],
      [
        "▁организация",
        -10.380500890475917
      ],
      [
        "▁успех",
        -10.38066992441509
      ],
      [
        "▁external",
        -10.380689770592054
      ],
      [
        "▁Hotel",
        -10.381052021582548
      ],
      [
        "▁initial",
        -10.381089497700751
      ],
      [
        "▁требования",
        -10.381141629575229
      ],
      [
        "scope",
        -10.38166643669039
      ],
      [
        "▁выступил",
        -10.381755628681322
      ],
      [
        "▁предложени",
        -10.382066279732495
      ],
      [
        "▁Japan",
        -10.382367621890078
      ],
      [
        "▁дело",
        -10.38281485115326
      ],
      [
        "▁тесно",
        -10.383211663758685
      ],
      [
        "программу",
        -10.38321799692423
      ],
      [
        "governance",
        -10.383238755910998
      ],
      [
        "▁контроль",
        -10.383840528802017
      ],
      [
        "▁Review",
        -10.384427378998874
      ],
      [
        "▁глобальны",
        -10.385004015458028
      ],
      [
        "▁alternative",
        -10.385230560966374
      ],
      [
        "ized",
        -10.385799917339012
      ],
      [
        "▁серьезно",
        -10.385894715034379
      ],
      [
        "жи",
        -10.386587199489966
      ],
      [
        "▁преступлений",
        -10.386806137259684
      ],
      [
        "▁unique",
        -10.387033689762125
      ],
      [
        "сказать",
        -10.387044996548628
      ],
      [
        "▁обмен",
        -10.387199316975186
      ],
      [
        "виду",
        -10.38725417971263
      ],
      [
        "▁press",
        -10.387708532278877
      ],
      [
        "Sudan",
        -10.387839986417704
      ],
      [
        "▁ground",
        -10.388006978133472
      ],
      [
        "▁From",
        -10.388389535709024
      ],
      [
        "▁maintenance",
        -10.388680048702074
      ],
      [
        "той",
        -10.389079980894502
      ],
      [
        "подхода",
        -10.389341638603335
      ],
      [
        "▁компания",
        -10.389529423587778
      ],
      [
        "iennium",
        -10.38968814646426
      ],
      [
        "▁delivery",
        -10.390022550251546
      ],
      [
        "▁Sea",
        -10.390277928379415
      ],
      [
        "seen",
        -10.390717649625376
      ],
      [
        "Чтобы",
        -10.391014539422391
      ],
      [
        "▁содействи",
        -10.391067513621744
      ],
      [
        "▁каким",
        -10.391315892369354
      ],
      [
        "growing",
        -10.391443402601922
      ],
      [
        "▁fail",
        -10.392396440846237
      ],
      [
        "▁будущем",
        -10.392860512296187
      ],
      [
        "▁industrial",
        -10.392938209369646
      ],
      [
        "Некоторы",
        -10.393326670756437
      ],
      [
        "работает",
        -10.394254408057849
      ],
      [
        "▁hold",
        -10.394474796952611
      ],
      [
        "▁номер",
        -10.394530396472131
      ],
      [
        "▁sound",
        -10.395139385429577
      ],
      [
        "ka",
        -10.395225567948303
      ],
      [
        "▁Health",
        -10.39525396656791
      ],
      [
        "▁US",
        -10.395328792337573
      ],
      [
        "really",
        -10.395999300453353
      ],
      [
        "▁оборудования",
        -10.396026511584482
      ],
      [
        "▁должност",
        -10.396599683611983
      ],
      [
        "▁фонд",
        -10.397263704574637
      ],
      [
        "factors",
        -10.397325155997503
      ],
      [
        "housing",
        -10.397580875347257
      ],
      [
        "судебны",
        -10.398112596456082
      ],
      [
        "priorities",
        -10.398456916330298
      ],
      [
        "▁форум",
        -10.398762376401637
      ],
      [
        "▁привел",
        -10.399782703271919
      ],
      [
        "Ф",
        -10.399845321312192
      ],
      [
        "создании",
        -10.400362553687978
      ],
      [
        "▁веществ",
        -10.401143244830317
      ],
      [
        "▁Not",
        -10.401160337870142
      ],
      [
        "▁мог",
        -10.401461530659205
      ],
      [
        "▁государству",
        -10.401572732815227
      ],
      [
        "▁воздух",
        -10.40160613601607
      ],
      [
        "тебе",
        -10.401915656636602
      ],
      [
        "▁function",
        -10.401941238276313
      ],
      [
        "▁использованием",
        -10.401966366039257
      ],
      [
        "ша",
        -10.402137303066535
      ],
      [
        "главным",
        -10.402293288505524
      ],
      [
        "▁открыто",
        -10.402377722720958
      ],
      [
        "▁respond",
        -10.402952800865696
      ],
      [
        "▁оперативно",
        -10.402964208584029
      ],
      [
        "useful",
        -10.402981618525386
      ],
      [
        "уголовного",
        -10.403044973803656
      ],
      [
        "ShemaleTube",
        -10.404523549739025
      ],
      [
        "▁сделал",
        -10.404667898006405
      ],
      [
        "▁Пакт",
        -10.404789087050904
      ],
      [
        "▁эксплуатации",
        -10.404808965739402
      ],
      [
        "▁Panel",
        -10.404850535697367
      ],
      [
        "▁приложения",
        -10.40509001022406
      ],
      [
        "▁applications",
        -10.40525087552648
      ],
      [
        "▁интерес",
        -10.405377213599062
      ],
      [
        "деть",
        -10.405774062637002
      ],
      [
        "районе",
        -10.406208732789443
      ],
      [
        "▁island",
        -10.406284295141067
      ],
      [
        "▁пыта",
        -10.406762634235706
      ],
      [
        "ние",
        -10.406928133123433
      ],
      [
        "▁УВК",
        -10.406942089418932
      ],
      [
        "овая",
        -10.40812769281859
      ],
      [
        "военных",
        -10.40858789665318
      ],
      [
        "▁balance",
        -10.410638430553082
      ],
      [
        "▁urge",
        -10.411631414630016
      ],
      [
        "▁Protection",
        -10.411907903383764
      ],
      [
        "feel",
        -10.412540198264235
      ],
      [
        "true",
        -10.41263888638742
      ],
      [
        "оценке",
        -10.412886866883099
      ],
      [
        "▁topic",
        -10.413212050398592
      ],
      [
        "учета",
        -10.413383746468384
      ],
      [
        "▁aim",
        -10.413680369980167
      ],
      [
        "▁безопасность",
        -10.413717942484551
      ],
      [
        "▁Инди",
        -10.41402870839182
      ],
      [
        "передачи",
        -10.414207222598266
      ],
      [
        "планирования",
        -10.414263459851096
      ],
      [
        "▁Genev",
        -10.41433436639225
      ],
      [
        "▁works",
        -10.414779479385102
      ],
      [
        "▁Канад",
        -10.41505341090837
      ],
      [
        "предприятий",
        -10.41552946058994
      ],
      [
        "▁move",
        -10.415615884220719
      ],
      [
        "каждой",
        -10.415791519151728
      ],
      [
        "▁fire",
        -10.416187087145673
      ],
      [
        "proceeding",
        -10.416436130910109
      ],
      [
        "▁West",
        -10.416706065492514
      ],
      [
        "▁гражданско",
        -10.416934137552452
      ],
      [
        "▁Server",
        -10.417071139069623
      ],
      [
        "▁stay",
        -10.417074529835158
      ],
      [
        "важным",
        -10.417273049289832
      ],
      [
        "▁easi",
        -10.418225134057161
      ],
      [
        "ющейся",
        -10.418904830110701
      ],
      [
        "▁предоставлени",
        -10.419313297488392
      ],
      [
        "▁сами",
        -10.420417690074721
      ],
      [
        "entities",
        -10.42052240032396
      ],
      [
        "ри",
        -10.420606504416194
      ],
      [
        "▁Iran",
        -10.420880214333168
      ],
      [
        "▁улучшени",
        -10.420901576543454
      ],
      [
        "▁center",
        -10.421205524327076
      ],
      [
        "▁наде",
        -10.421215225730856
      ],
      [
        "became",
        -10.42161922706692
      ],
      [
        "▁онлайн",
        -10.422024520967899
      ],
      [
        "ummit",
        -10.422169849578323
      ],
      [
        "ские",
        -10.422246141418201
      ],
      [
        "▁народ",
        -10.42251309065024
      ],
      [
        "объема",
        -10.423268050560354
      ],
      [
        "протяжении",
        -10.423524563309352
      ],
      [
        "reached",
        -10.423646686164902
      ],
      [
        "▁movement",
        -10.424001638759371
      ],
      [
        "▁fifty",
        -10.424486114126443
      ],
      [
        "▁IV",
        -10.425460898133112
      ],
      [
        "▁exten",
        -10.425771220059843
      ],
      [
        "NGO",
        -10.426059884533835
      ],
      [
        "▁высоко",
        -10.426293635644553
      ],
      [
        "J",
        -10.426846676733714
      ],
      [
        "мочь",
        -10.426912380171945
      ],
      [
        "▁игра",
        -10.427061670050072
      ],
      [
        "▁Expert",
        -10.427211541454577
      ],
      [
        "SR",
        -10.427322919956767
      ],
      [
        "▁election",
        -10.427442349731898
      ],
      [
        "дополнительные",
        -10.42793041016762
      ],
      [
        "▁tell",
        -10.428426476123636
      ],
      [
        "▁enhanc",
        -10.428527421235968
      ],
      [
        "jurisdiction",
        -10.428533230302747
      ],
      [
        "▁протокола",
        -10.428596032121133
      ],
      [
        "▁convention",
        -10.428958522080174
      ],
      [
        "▁сельски",
        -10.428992639588758
      ],
      [
        "▁Your",
        -10.429317323361559
      ],
      [
        "▁moment",
        -10.42938666346238
      ],
      [
        "▁competition",
        -10.42959235585778
      ],
      [
        "▁призна",
        -10.42964474597476
      ],
      [
        "▁четыре",
        -10.430127995549961
      ],
      [
        "▁negative",
        -10.430898474504016
      ],
      [
        "leaders",
        -10.431073625800254
      ],
      [
        "▁представлен",
        -10.43117356658321
      ],
      [
        "об",
        -10.431361468864
      ],
      [
        "▁Китая",
        -10.431606321439569
      ],
      [
        "iv",
        -10.431778564345391
      ],
      [
        "состоянии",
        -10.431797321696012
      ],
      [
        "продукции",
        -10.431892731020925
      ],
      [
        "vulnerabl",
        -10.432010738806648
      ],
      [
        "▁никаки",
        -10.43246687433355
      ],
      [
        "выполнять",
        -10.433059120394589
      ],
      [
        "▁сиськи",
        -10.433941014838357
      ],
      [
        "offices",
        -10.434136281570177
      ],
      [
        "▁Пере",
        -10.434385273816241
      ],
      [
        "▁attend",
        -10.435132262602004
      ],
      [
        "items",
        -10.43527426947968
      ],
      [
        "▁Мо",
        -10.435494941023636
      ],
      [
        "правительственны",
        -10.435640546079027
      ],
      [
        "проведении",
        -10.435705106243894
      ],
      [
        "▁само",
        -10.436451332100196
      ],
      [
        "▁French",
        -10.436704500667775
      ],
      [
        "▁term",
        -10.43690209877888
      ],
      [
        "финансовые",
        -10.437923923768123
      ],
      [
        "▁Goal",
        -10.43802045341291
      ],
      [
        "данном",
        -10.439106524373873
      ],
      [
        "▁youth",
        -10.439120095999078
      ],
      [
        "каких",
        -10.439259934094284
      ],
      [
        "▁recommendation",
        -10.439712903537925
      ],
      [
        "ions",
        -10.440005363963577
      ],
      [
        "▁Э",
        -10.440166301581637
      ],
      [
        "▁orgasm",
        -10.440193377023375
      ],
      [
        "▁Permanent",
        -10.440883302887913
      ],
      [
        "difference",
        -10.441175126474594
      ],
      [
        "▁Als",
        -10.441851323875806
      ],
      [
        "чень",
        -10.441969920406985
      ],
      [
        "рд",
        -10.442254820592984
      ],
      [
        "▁posts",
        -10.442298435943723
      ],
      [
        "▁труд",
        -10.443609267018989
      ],
      [
        "▁фонда",
        -10.443860143936943
      ],
      [
        "skills",
        -10.44411977306154
      ],
      [
        "▁содержания",
        -10.44415005522775
      ],
      [
        "▁пятьдесят",
        -10.444241527476752
      ],
      [
        "relative",
        -10.44427783083123
      ],
      [
        "ком",
        -10.444669856113903
      ],
      [
        "отдельных",
        -10.445084946076742
      ],
      [
        "ъ",
        -10.445183847998921
      ],
      [
        "ought",
        -10.445432701247112
      ],
      [
        "▁основании",
        -10.44558076321891
      ],
      [
        "presence",
        -10.445668831454798
      ],
      [
        "▁cover",
        -10.445960575495475
      ],
      [
        "расходы",
        -10.446872282416217
      ],
      [
        "▁чрезвычайно",
        -10.447601884336285
      ],
      [
        "▁arrest",
        -10.447939165297507
      ],
      [
        "▁Телефон",
        -10.448001341847025
      ],
      [
        "▁расположен",
        -10.448274955423182
      ],
      [
        "▁семей",
        -10.448305209460571
      ],
      [
        "▁сам",
        -10.44831766384979
      ],
      [
        "▁alia",
        -10.44882236237484
      ],
      [
        "ians",
        -10.448924347269559
      ],
      [
        "▁extreme",
        -10.44897506916187
      ],
      [
        "▁всеобъемлюще",
        -10.449122650891322
      ],
      [
        "amendment",
        -10.449700557793994
      ],
      [
        "detailed",
        -10.449858742070914
      ],
      [
        "CR",
        -10.4508201208259
      ],
      [
        "▁воздействие",
        -10.451493673088459
      ],
      [
        "▁оргазм",
        -10.451927211800632
      ],
      [
        "constitute",
        -10.452071147810512
      ],
      [
        "▁Unit",
        -10.452278941583426
      ],
      [
        "занятости",
        -10.45231604684006
      ],
      [
        "▁территори",
        -10.452605858508928
      ],
      [
        "achieving",
        -10.452639506876935
      ],
      [
        "повышение",
        -10.452691554232242
      ],
      [
        "инг",
        -10.452714566578186
      ],
      [
        "Р",
        -10.453041685763504
      ],
      [
        "▁fight",
        -10.45306110330421
      ],
      [
        "▁Latvia",
        -10.453131259901024
      ],
      [
        "▁cock",
        -10.453376559188138
      ],
      [
        "▁эффективны",
        -10.453588129449127
      ],
      [
        "▁advance",
        -10.453613762256438
      ],
      [
        "▁устойчиво",
        -10.45373940615105
      ],
      [
        "особы",
        -10.453959052458526
      ],
      [
        "deed",
        -10.45400307476705
      ],
      [
        "операции",
        -10.45433762474358
      ],
      [
        "▁http",
        -10.454668020287391
      ],
      [
        "▁Canada",
        -10.454861188018764
      ],
      [
        "мигрантов",
        -10.455086051338299
      ],
      [
        "▁run",
        -10.455205355189474
      ],
      [
        "▁поправк",
        -10.456039788113374
      ],
      [
        "▁специалистов",
        -10.456122719925823
      ],
      [
        "▁методо",
        -10.456323397552062
      ],
      [
        "▁Pro",
        -10.456383841025561
      ],
      [
        "остается",
        -10.45662494471564
      ],
      [
        "учреждениями",
        -10.4568046072595
      ],
      [
        "▁предприятия",
        -10.456879114711748
      ],
      [
        "▁India",
        -10.457154482682359
      ],
      [
        "▁markets",
        -10.457946890446921
      ],
      [
        "нарушение",
        -10.458073939413701
      ],
      [
        "▁практике",
        -10.458561233924511
      ],
      [
        "▁Georgia",
        -10.459673996221621
      ],
      [
        "▁договора",
        -10.459730936070798
      ],
      [
        "▁конфликт",
        -10.459908704960984
      ],
      [
        "art",
        -10.460122662827136
      ],
      [
        "▁максимально",
        -10.460375160996806
      ],
      [
        "участника",
        -10.460428581270675
      ],
      [
        "▁sure",
        -10.461468840910578
      ],
      [
        "частью",
        -10.461679161122564
      ],
      [
        "▁pressure",
        -10.461779804639876
      ],
      [
        "line",
        -10.462616036923922
      ],
      [
        "ства",
        -10.462919721426644
      ],
      [
        "▁let",
        -10.463923092353763
      ],
      [
        "молодежи",
        -10.463949312179077
      ],
      [
        "большое",
        -10.46395660245257
      ],
      [
        "полного",
        -10.463968285615431
      ],
      [
        "▁вид",
        -10.463987921102841
      ],
      [
        "ите",
        -10.464597972331253
      ],
      [
        "statistics",
        -10.464635758333397
      ],
      [
        "▁obligation",
        -10.464851266127694
      ],
      [
        "▁assess",
        -10.46491164368395
      ],
      [
        "legislative",
        -10.465285856736525
      ],
      [
        "▁Cooperation",
        -10.466212110376961
      ],
      [
        "▁месте",
        -10.466259188001446
      ],
      [
        "мерах",
        -10.466270600277547
      ],
      [
        "▁нашего",
        -10.466484989578978
      ],
      [
        "▁вооружени",
        -10.466943498541694
      ],
      [
        "recall",
        -10.467417048557387
      ],
      [
        "решении",
        -10.467666152410942
      ],
      [
        "подготовку",
        -10.468179653015317
      ],
      [
        "▁ядерны",
        -10.468201424153024
      ],
      [
        "Islamic",
        -10.468741331860125
      ],
      [
        "▁tax",
        -10.469057300547746
      ],
      [
        "▁исключительно",
        -10.469484112244787
      ],
      [
        "▁Иран",
        -10.469626249745065
      ],
      [
        "функций",
        -10.469714516872797
      ],
      [
        "ста",
        -10.469885668966242
      ],
      [
        "▁EU",
        -10.470015217626107
      ],
      [
        "▁road",
        -10.470042426158765
      ],
      [
        "▁размер",
        -10.470235953799566
      ],
      [
        "▁свобод",
        -10.470569333019649
      ],
      [
        "▁York",
        -10.470889393345454
      ],
      [
        "▁Regional",
        -10.470993083260533
      ],
      [
        "▁видео",
        -10.472216593610744
      ],
      [
        "правовы",
        -10.472227153876895
      ],
      [
        "▁конце",
        -10.472458802452694
      ],
      [
        "▁двум",
        -10.47287840168999
      ],
      [
        "▁waste",
        -10.473825306115861
      ],
      [
        "▁товаров",
        -10.47408705471494
      ],
      [
        "▁illegal",
        -10.474387650107303
      ],
      [
        "▁English",
        -10.474427041182004
      ],
      [
        "▁Great",
        -10.4762040342729
      ],
      [
        "▁меньшинств",
        -10.476220860339504
      ],
      [
        "▁revis",
        -10.477280958095655
      ],
      [
        "ably",
        -10.47773653648644
      ],
      [
        "▁малы",
        -10.478023077279888
      ],
      [
        "▁происхождения",
        -10.479866085545444
      ],
      [
        "▁прямо",
        -10.480285937416905
      ],
      [
        "▁Афганистан",
        -10.480915230425364
      ],
      [
        "кор",
        -10.480983950141713
      ],
      [
        "▁мандата",
        -10.481441546596558
      ],
      [
        "▁нужда",
        -10.481545928211117
      ],
      [
        "честь",
        -10.481615139319212
      ],
      [
        "▁Many",
        -10.482364068102555
      ],
      [
        "▁determine",
        -10.48323425672253
      ],
      [
        "▁указан",
        -10.484186894834044
      ],
      [
        "▁prior",
        -10.484764192607885
      ],
      [
        "СЕФ",
        -10.485424222349097
      ],
      [
        "▁investigation",
        -10.48614122506248
      ],
      [
        "миссии",
        -10.486147027871423
      ],
      [
        "▁стреми",
        -10.486794264502974
      ],
      [
        "▁диалог",
        -10.486969308283529
      ],
      [
        "solutions",
        -10.487399199610648
      ],
      [
        "необходимых",
        -10.487787230143502
      ],
      [
        "линии",
        -10.487974695929134
      ],
      [
[...]
