{
  "version": "1.0",
  "truncation": null,
  "padding": null,
  "added_tokens": [
    {
      "id": 0,
      "content": "<pad>",
      "single_word": false,
      "lstrip": false,
      "rstrip": false,
      "normalized": false,
      "special": true
    },
    {
      "id": 1,
      "content": "<s>",
      "single_word": false,
      "lstrip": false,
      "rstrip": false,
      "normalized": false,
      "special": true
    },
    {
      "id": 2,
      "content": "</s>",
      "single_word": false,
      "lstrip": false,
      "rstrip": false,
      "normalized": false,
      "special": true
    },
    {
      "id": 3,
      "content": "<unk>",
      "single_word": false,
      "lstrip": false,
      "rstrip": false,
      "normalized": false,
      "special": true
    },
    {
      "id": 4,
      "content": "<2ru>",
      "single_word": false,
      "lstrip": false,
      "rstrip": false,
      "normalized": false,
      "special": true
    },
    {
      "id": 5,
      "content": "<2en>",
      "single_word": false,
      "lstrip": false,
      "rstrip": false,
      "normalized": false,
      "special": true
    }
  ],
  "normalizer": {
    "type": "NFKC"
  },
  "pre_tokenizer": {
    "type": "Sequence",
    "pretokenizers": [
      {
        "type": "Metaspace",
        "replacement": "▁",
        "prepend_scheme": "always",
        "split": true
      },
      {
        "type": "Punctuation",
        "behavior": "Isolated"
      },
      {
        "type": "Digits",
        "individual_digits": true
      }
    ]
  },
  "post_processor": {
    "type": "TemplateProcessing",
    "single": [
      {
        "SpecialToken": {
          "id": "<s>",
          "type_id": 0
        }
      },
      {
        "Sequence": {
          "id": "A",
          "type_id": 0
        }
      },
      {
        "SpecialToken": {
          "id": "</s>",
          "type_id": 0
        }
      }
    ],
    "pair": [
      {
        "Sequence": {
          "id": "A",
          "type_id": 0
        }
      },
      {
        "Sequence": {
          "id": "B",
          "type_id": 1
        }
      }
    ],
    "special_tokens": {
      "</s>": {
        "id": "</s>",
        "ids": [
          2
        ],
        "tokens": [
          "</s>"
        ]
      },
      "<s>": {
        "id": "<s>",
        "ids": [
          1
        ],
        "tokens": [
          "<s>"
        ]
      }
    }
  },
  "decoder": {
    "type": "Metaspace",
    "replacement": "▁",
    "prepend_scheme": "always",
    "split": true
  },
  "model": {
    "type": "Unigram",
    "unk_id": 3,
    "vocab": [
      [
        "<pad>",
        0.0
      ],
      [
        "<s>",
        0.0
      ],
      [
        "</s>",
        0.0
      ],
      [
        "<unk>",
        0.0
      ],
      [
        "<2ru>",
        0.0
      ],
      [
        "<2en>",
        0.0
      ],
      [
        "▁",
        -1.942922781874774
      ],
      [
        ",",
        -3.151037884063257
      ],
      [
        ".",
        -3.439861025760697
      ],
      [
        "▁the",
        -4.041389392710439
      ],
      [
        "и",
        -4.12169736684605
      ],
      [
        "s",
        -4.323999208903794
      ],
      [
        "▁of",
        -4.482303309203354
      ],
      [
        "0",
        -4.634746686421668
      ],
      [
        "в",
        -4.691976375002559
      ],
      [
        "е",
        -4.736705187111561
      ],
      [
        "▁and",
        -4.75644415190359
      ],
      [
        "1",
        -4.771861941191661
      ],
      [
        "-",
        -4.830460644845854
      ],
      [
        "▁to",
        -4.934387409053645
      ],
      [
        "2",
        -4.950372124023467
      ],
      [
        "a",
        -5.022286867165047
      ],
      [
        "й",
        -5.087445890374683
      ],
      [
        ":",
        -5.098706737368728
      ],
      [
        "▁in",
        -5.177074289290623
      ],
      [
        "а",
        -5.22706694662701
      ],
      [
        "с",
        -5.519184384790435
      ],
      [
        "х",
        -5.550842466511421
      ],
      [
        ")",
        -5.581429678544309
      ],
      [
        "▁на",
        -5.593918613596303
      ],
      [
        "3",
        -5.612823815635755
      ],
      [
        "(",
        -5.634020806676533
      ],
      [
        "5",
        -5.653361673798422
      ],
      [
        "▁is",
        -5.685362543217666
      ],
      [
        "ed",
        -5.687472141421228
      ],
      [
        "ы",
        -5.741167961014028
      ],
      [
        "я",
        -5.753075834408458
      ],
      [
        "4",
        -5.768383449329418
      ],
      [
        "▁for",
        -5.813533957377324
      ],
      [
        "м",
        -5.816988466995447
      ],
      [
        "ing",
        -5.836682697444894
      ],
      [
        "у",
        -5.846415818443315
      ],
      [
        "\"",
        -5.895641684574807
      ],
      [
        "9",
        -5.897839621189387
      ],
      [
        "▁не",
        -5.974128902640281
      ],
      [
        "6",
        -5.987455351617175
      ],
      [
        "о",
        -6.012911757141536
      ],
      [
        "▁that",
        -6.0430756890701804
      ],
      [
        "▁по",
        -6.0588553478463325
      ],
      [
        "8",
        -6.07450667179973
      ],
      [
        "7",
        -6.103550062229516
      ],
      [
        "го",
        -6.116270144538596
      ],
      [
        "'",
        -6.12382236046615
      ],
      [
        "▁The",
        -6.130102514353027
      ],
      [
        "▁with",
        -6.165320039930888
      ],
      [
        "▁you",
        -6.2282496997784005
      ],
      [
        "▁on",
        -6.229142062995734
      ],
      [
        "▁что",
        -6.234928799366347
      ],
      [
        "▁для",
        -6.273881222898929
      ],
      [
        ";",
        -6.277821816500925
      ],
      [
        "y",
        -6.336566593808641
      ],
      [
        "/",
        -6.337699216435631
      ],
      [
        "?",
        -6.3757926955958055
      ],
      [
        "к",
        -6.392724466379754
      ],
      [
        "▁be",
        -6.404122513195107
      ],
      [
        "▁are",
        -6.412576230478164
      ],
      [
        "ю",
        -6.454660684103635
      ],
      [
        "e",
        -6.479649350458574
      ],
      [
        "ly",
        -6.483246035583148
      ],
      [
        "t",
        -6.497351847155082
      ],
      [
        "▁I",
        -6.498763879780737
      ],
      [
        "▁as",
        -6.52170891977593
      ],
      [
        "▁it",
        -6.544449513118394
      ],
      [
        "ов",
        -6.54624900034303
      ],
      [
        "d",
        -6.550976083588086
      ],
      [
        "ом",
        -6.560549300758138
      ],
      [
        "▁by",
        -6.603617604141622
      ],
      [
        "▁В",
        -6.604598452898335
      ],
      [
        "»",
        -6.639628927551909
      ],
      [
        "«",
        -6.688376779499416
      ],
      [
        "▁from",
        -6.700090812910254
      ],
      [
        "▁not",
        -6.721143805685857
      ],
      [
        "ая",
        -6.746993237213168
      ],
      [
        "▁из",
        -6.771194460935995
      ],
      [
        "▁or",
        -6.7834472729490525
      ],
      [
        "▁will",
        -6.786190159419942
      ],
      [
        "ть",
        -6.807527513626383
      ],
      [
        "▁от",
        -6.812852580100255
      ],
      [
        "▁was",
        -6.828134373123698
      ],
      [
        "▁как",
        -6.854343717638464
      ],
      [
        "▁this",
        -6.854822948941974
      ],
      [
        "ми",
        -6.863281625886074
      ],
      [
        "▁have",
        -6.880384184069847
      ],
      [
        "▁или",
        -6.921827581835256
      ],
      [
        "▁your",
        -6.931367710982899
      ],
      [
        "▁at",
        -6.932531226722901
      ],
      [
        "▁за",
        -6.9457113733367475
      ],
      [
        "—",
        -6.958869409635621
      ],
      [
        "!",
        -6.984410719582568
      ],
      [
        "▁can",
        -7.01826109290486
      ],
      [
        "ой",
        -7.059075098582529
      ],
      [
        "–",
        -7.065521028936674
      ],
      [
        "▁an",
        -7.070982166565367
      ],
      [
        "▁это",
        -7.079154898076077
      ],
      [
        "▁вы",
        -7.1146693540637145
      ],
      [
        "▁all",
        -7.169114836211817
      ],
      [
        "▁A",
        -7.184063054846916
      ],
      [
        "ь",
        -7.194538449477463
      ],
      [
        "n",
        -7.210193324550534
      ],
      [
        "▁which",
        -7.2208453390592116
      ],
      [
        "▁has",
        -7.228595695460099
      ],
      [
        "*",
        -7.272586228252358
      ],
      [
        "т",
        -7.280991616016486
      ],
      [
        "▁In",
        -7.285618791581541
      ],
      [
        "m",
        -7.292412429031225
      ],
      [
        "ую",
        -7.347185908286569
      ],
      [
        "▁their",
        -7.350303745117044
      ],
      [
        "▁we",
        -7.3517290525586
      ],
      [
        "▁при",
        -7.379264979726742
      ],
      [
        "▁его",
        -7.397357505582187
      ],
      [
        "▁также",
        -7.405314518383182
      ],
      [
        "ей",
        -7.4074852516000576
      ],
      [
        "o",
        -7.4234128674804705
      ],
      [
        "i",
        -7.463878824373461
      ],
      [
        "ами",
        -7.476199814525792
      ],
      [
        "▁чтобы",
        -7.479798866486895
      ],
      [
        "%",
        -7.483068286871545
      ],
      [
        "▁до",
        -7.493081584589213
      ],
      [
        "▁С",
        -7.524175335861019
      ],
      [
        "▁one",
        -7.530144207651716
      ],
      [
        "ся",
        -7.541018630753687
      ],
      [
        "er",
        -7.553221128091623
      ],
      [
        "’",
        -7.5552988387636955
      ],
      [
        "ться",
        -7.557314721026959
      ],
      [
        "▁its",
        -7.558579982736745
      ],
      [
        "▁but",
        -7.564984461874095
      ],
      [
        "▁года",
        -7.57085836818435
      ],
      [
        "▁who",
        -7.573258693791619
      ],
      [
        "▁мы",
        -7.58566762260098
      ],
      [
        "▁other",
        -7.586738037670893
      ],
      [
        "▁they",
        -7.599357211698631
      ],
      [
        "▁our",
        -7.600742633077562
      ],
      [
        "ется",
        -7.608735234652945
      ],
      [
        "▁he",
        -7.611525505890224
      ],
      [
        "es",
        -7.615599596256496
      ],
      [
        "▁их",
        -7.61957154261885
      ],
      [
        "г",
        -7.625854632176063
      ],
      [
        "▁It",
        -7.628574816112502
      ],
      [
        "▁more",
        -7.630040729545319
      ],
      [
        "▁his",
        -7.6331726758494565
      ],
      [
        "▁все",
        -7.637662734884925
      ],
      [
        "▁also",
        -7.646343694750925
      ],
      [
        "ем",
        -7.681581832069446
      ],
      [
        "▁were",
        -7.68650209614332
      ],
      [
        "▁ago",
        -7.687301868891497
      ],
      [
        "▁назад",
        -7.693224478443987
      ],
      [
        "▁about",
        -7.695783594821441
      ],
      [
        "▁которые",
        -7.703763947679997
      ],
      [
        "▁он",
        -7.725401503792508
      ],
      [
        "▁так",
        -7.732865034155212
      ],
      [
        "▁но",
        -7.7335096720798
      ],
      [
        "▁time",
        -7.759503061717229
      ],
      [
        "▁будет",
        -7.766089986177665
      ],
      [
        "▁do",
        -7.769187319731552
      ],
      [
        "▁This",
        -7.77710419596756
      ],
      [
        "▁S",
        -7.780959690133654
      ],
      [
        "▁И",
        -7.790734598808649
      ],
      [
        "“",
        -7.801950659834622
      ],
      [
        "▁Я",
        -7.80409613336033
      ],
      [
        "▁been",
        -7.808051482096589
      ],
      [
        "▁то",
        -7.818491532014255
      ],
      [
        "▁может",
        -7.829172186569158
      ],
      [
        "▁there",
        -7.8305946054250875
      ],
      [
        "”",
        -7.834207991129569
      ],
      [
        "▁any",
        -7.83976960806536
      ],
      [
        "▁new",
        -7.841697861235398
      ],
      [
        "ет",
        -7.877180579322262
      ],
      [
        "▁время",
        -7.882084917419288
      ],
      [
        "▁only",
        -7.885225169241082
      ],
      [
        "▁them",
        -7.888226928884157
      ],
      [
        "c",
        -7.894854922164479
      ],
      [
        "▁We",
        -7.911916342373138
      ],
      [
        "▁You",
        -7.912338349099645
      ],
      [
        "▁По",
        -7.913523259262552
      ],
      [
        "&",
        -7.915916195033866
      ],
      [
        "▁up",
        -7.926682896963298
      ],
      [
        "ных",
        -7.92977207992503
      ],
      [
        "▁file",
        -7.9368794973473555
      ],
      [
        "ах",
        -7.937630147164997
      ],
      [
        "то",
        -7.942902461392199
      ],
      [
        "▁они",
        -7.943513455893717
      ],
      [
        "▁только",
        -7.9444742934494865
      ],
      [
        "▁быть",
        -7.950984455706401
      ],
      [
        "▁более",
        -7.952339162019623
      ],
      [
        "▁На",
        -7.953078581750363
      ],
      [
        "▁out",
        -7.95692931039002
      ],
      [
        "му",
        -7.961020160871447
      ],
      [
        "▁people",
        -7.9659320924532455
      ],
      [
        "ная",
        -7.970516149114404
      ],
      [
        "▁Это",
        -7.976279466813693
      ],
      [
        "r",
        -7.9850899141956635
      ],
      [
        "ные",
        -7.992695452962742
      ],
      [
        "▁T",
        -7.995800969968887
      ],
      [
        "того",
        -7.996095216220432
      ],
      [
        "▁so",
        -7.996884221551808
      ],
      [
        "in",
        -7.997472362373324
      ],
      [
        "▁into",
        -7.999769429460647
      ],
      [
        "▁had",
        -8.00924038773914
      ],
      [
        "▁years",
        -8.013578232026353
      ],
      [
        "▁E",
        -8.01491724002343
      ],
      [
        "▁во",
        -8.02108487959689
      ],
      [
        "▁же",
        -8.029496508534331
      ],
      [
        "▁when",
        -8.051348437019948
      ],
      [
        "al",
        -8.059736401230776
      ],
      [
        "▁use",
        -8.060113296349051
      ],
      [
        "▁если",
        -8.062962358860753
      ],
      [
        "▁со",
        -8.067994244877193
      ],
      [
        "▁является",
        -8.068816365375826
      ],
      [
        "▁no",
        -8.068984936003602
      ],
      [
        "▁if",
        -8.073223513006335
      ],
      [
        "▁And",
        -8.076640291687006
      ],
      [
        "н",
        -8.084165932160492
      ],
      [
        "▁information",
        -8.085078972733578
      ],
      [
        "▁бы",
        -8.087612151885443
      ],
      [
        "▁what",
        -8.089491351690745
      ],
      [
        "ются",
        -8.094413724248144
      ],
      [
        "▁можно",
        -8.099641439224989
      ],
      [
        "▁было",
        -8.10152352959521
      ],
      [
        "▁C",
        -8.103234233971738
      ],
      [
        "▁my",
        -8.10549002502569
      ],
      [
        "ли",
        -8.106250491510632
      ],
      [
        "▁would",
        -8.106358727838446
      ],
      [
        "▁such",
        -8.10796978190992
      ],
      [
        "▁Вы",
        -8.116781691172045
      ],
      [
        "▁than",
        -8.11955124428042
      ],
      [
        "▁D",
        -8.129231811499858
      ],
      [
        "▁me",
        -8.129991497240198
      ],
      [
        "▁был",
        -8.132162280483021
      ],
      [
        "ies",
        -8.135061916757007
      ],
      [
        "p",
        -8.145053010810887
      ],
      [
        "▁may",
        -8.14579838007916
      ],
      [
        "▁P",
        -8.147697432646181
      ],
      [
        "▁Если",
        -8.152145079214085
      ],
      [
        "him",
        -8.15632114485255
      ],
      [
        "able",
        -8.156671577800365
      ],
      [
        "▁well",
        -8.158245438346613
      ],
      [
        "ют",
        -8.16452799176414
      ],
      [
        "▁А",
        -8.167691776771612
      ],
      [
        "▁B",
        -8.167827277536016
      ],
      [
        "▁If",
        -8.170140150683034
      ],
      [
        "▁first",
        -8.17668313303851
      ],
      [
        "▁should",
        -8.176825535778617
      ],
      [
        "h",
        -8.178307836001157
      ],
      [
        "▁work",
        -8.178998555265736
      ],
      [
        "▁these",
        -8.179775731390027
      ],
      [
        "▁когда",
        -8.1875259983231
      ],
      [
        "b",
        -8.194844632600859
      ],
      [
        "▁том",
        -8.208555505895093
      ],
      [
        "▁под",
        -8.224987537512229
      ],
      [
        "▁most",
        -8.230520973498127
      ],
      [
        "▁M",
        -8.232309459523384
      ],
      [
        "or",
        -8.233874831684702
      ],
      [
        "на",
        -8.238386808720168
      ],
      [
        "▁об",
        -8.238959489437297
      ],
      [
        "ной",
        -8.240787648474232
      ],
      [
        "▁Мы",
        -8.246266154955958
      ],
      [
        "▁He",
        -8.257076450958937
      ],
      [
        "л",
        -8.265258797626272
      ],
      [
        "S",
        -8.266900161463038
      ],
      [
        "▁know",
        -8.267073056719795
      ],
      [
        "▁который",
        -8.279794822547899
      ],
      [
        "re",
        -8.294968976640188
      ],
      [
        "ный",
        -8.297608136433682
      ],
      [
        "▁month",
        -8.300402749299485
      ],
      [
        "]",
        -8.301384047119765
      ],
      [
        "д",
        -8.30371886614671
      ],
      [
        "▁need",
        -8.304222195321525
      ],
      [
        "▁some",
        -8.305319888415358
      ],
      [
        "▁system",
        -8.305876599165178
      ],
      [
        "▁вам",
        -8.30688696202861
      ],
      [
        "ers",
        -8.313650917557428
      ],
      [
        "▁Russian",
        -8.315458230451702
      ],
      [
        "ного",
        -8.315661881261732
      ],
      [
        "▁есть",
        -8.323060527124834
      ],
      [
        "▁могут",
        -8.327592405276265
      ],
      [
        "▁К",
        -8.33004556605596
      ],
      [
        "[",
        -8.330751141611206
      ],
      [
        "▁like",
        -8.33108108809958
      ],
      [
        "▁этом",
        -8.331326869786695
      ],
      [
        "▁two",
        -8.335763264017988
      ],
      [
        "▁said",
        -8.34697909472251
      ],
      [
        "▁были",
        -8.347479346403821
      ],
      [
        "ого",
        -8.348490486082794
      ],
      [
        "▁году",
        -8.35041804493318
      ],
      [
        "▁этого",
        -8.352001139029666
      ],
      [
        "▁over",
        -8.35230376151042
      ],
      [
        "▁how",
        -8.354118567452069
      ],
      [
        "A",
        -8.354193446887646
      ],
      [
        "ity",
        -8.35443613223626
      ],
      [
        "▁very",
        -8.367565285730759
      ],
      [
        "▁year",
        -8.371857562018587
      ],
      [
        "▁world",
        -8.373002502695558
      ],
      [
        "▁us",
        -8.379841456368872
      ],
      [
        "▁всех",
        -8.385796748677294
      ],
      [
        "▁For",
        -8.387108174641817
      ],
      [
        "▁Он",
        -8.388493555882814
      ],
      [
        "f",
        -8.397663134646615
      ],
      [
        "▁О",
        -8.402766039016377
      ],
      [
        "▁development",
        -8.406114801521127
      ],
      [
        "th",
        -8.40826309372292
      ],
      [
        "l",
        -8.412940147301057
      ],
      [
        "▁Как",
        -8.419524501417838
      ],
      [
        "▁лет",
        -8.42016153410763
      ],
      [
        "лись",
        -8.422484353915827
      ],
      [
        "▁want",
        -8.423207628392966
      ],
      [
        "▁under",
        -8.424736250596197
      ],
      [
        "▁чем",
        -8.426142974109615
      ],
      [
        "▁How",
        -8.427319154300273
      ],
      [
        "D",
        -8.43234932803349
      ],
      [
        "▁To",
        -8.437421546930576
      ],
      [
        "g",
        -8.438231419361035
      ],
      [
        "on",
        -8.441873396998224
      ],
      [
        "▁Windows",
        -8.44919998036633
      ],
      [
        "▁her",
        -8.459361953058353
      ],
      [
        "но",
        -8.46850087695753
      ],
      [
        "▁many",
        -8.469129134710169
      ],
      [
        "▁Но",
        -8.475326746796833
      ],
      [
        "ever",
        -8.475523892713287
      ],
      [
        "▁where",
        -8.477872796150114
      ],
      [
        "▁after",
        -8.479809460070664
      ],
      [
        "▁high",
        -8.485883848401517
      ],
      [
        "▁number",
        -8.488870173413547
      ],
      [
        "▁now",
        -8.49555291651668
      ],
      [
        "▁после",
        -8.50783915296866
      ],
      [
        "▁очень",
        -8.51019819506711
      ],
      [
        "▁R",
        -8.511392021305287
      ],
      [
        "▁У",
        -8.516413073405227
      ],
      [
        "▁even",
        -8.51731109459287
      ],
      [
        "▁through",
        -8.518965057118937
      ],
      [
        "▁between",
        -8.525804578263912
      ],
      [
        "ную",
        -8.526548720739198
      ],
      [
        "▁Russia",
        -8.52698917906967
      ],
      [
        "▁get",
        -8.529547603478687
      ],
      [
        "ам",
        -8.531434638727665
      ],
      [
        "▁must",
        -8.53746101690842
      ],
      [
        "▁used",
        -8.538318546024827
      ],
      [
        "▁just",
        -8.541433642787824
      ],
      [
        "▁xHamster",
        -8.5421408610368
      ],
      [
        "▁But",
        -8.547986319798701
      ],
      [
        "▁open",
        -8.55194124179682
      ],
      [
        "лся",
        -8.552757122179115
      ],
      [
        "▁life",
        -8.557469922736994
      ],
      [
        "#",
        -8.55782188011388
      ],
      [
        "x",
        -8.560851212876821
      ],
      [
        "▁those",
        -8.563049771440376
      ],
      [
        "▁ты",
        -8.564709679967908
      ],
      [
        "▁без",
        -8.570078549775793
      ],
      [
        "▁take",
        -8.57032118129133
      ],
      [
        "▁way",
        -8.572034357142634
      ],
      [
        "▁right",
        -8.57416670935985
      ],
      [
        "▁make",
        -8.577308872594982
      ],
      [
        "▁then",
        -8.580720105071435
      ],
      [
        "▁un",
        -8.584609454792371
      ],
      [
        "▁G",
        -8.586779751639671
      ],
      [
        "▁part",
        -8.591752692941942
      ],
      [
        "▁Не",
        -8.593837938364167
      ],
      [
        "gt",
        -8.594442966614016
      ],
      [
        "▁раз",
        -8.594754545599068
      ],
      [
        "▁уже",
        -8.594997857101784
      ],
      [
        "▁она",
        -8.59975253623708
      ],
      [
        "▁free",
        -8.601509747356232
      ],
      [
        "▁тем",
        -8.60824713608719
      ],
      [
        "▁была",
        -8.61089981775622
      ],
      [
        "▁shall",
        -8.612654478233974
      ],
      [
        "▁между",
        -8.616119964547435
      ],
      [
        "▁could",
        -8.61759676947063
      ],
      [
        "▁made",
        -8.619037134121244
      ],
      [
        "▁countries",
        -8.619180762563705
      ],
      [
        "еще",
        -8.6236652515014
      ],
      [
        "▁international",
        -8.624545030882016
      ],
      [
        "▁place",
        -8.625648691995465
      ],
      [
        "▁файл",
        -8.627582179011945
      ],
      [
        "▁program",
        -8.637367376155462
      ],
      [
        "▁должны",
        -8.637617568741243
      ],
      [
        "ка",
        -8.643162841233021
      ],
      [
        "▁вас",
        -8.643517880839806
      ],
      [
        "▁help",
        -8.64500598082266
      ],
      [
        "ion",
        -8.645211173731386
      ],
      [
        "est",
        -8.645418614881882
      ],
      [
        "▁see",
        -8.651152449917276
      ],
      [
        "▁W",
        -8.653725916877521
      ],
      [
        "▁больше",
        -8.65704838371158
      ],
      [
        "▁did",
        -8.658619415505159
      ],
      [
        "ла",
        -8.661846487607507
      ],
      [
        "ок",
        -8.663441223023266
      ],
      [
        "▁support",
        -8.665406908659099
      ],
      [
        "▁L",
        -8.669562377965484
      ],
      [
        "▁области",
        -8.669747960298695
      ],
      [
        "▁меня",
        -8.67021332737916
      ],
      [
        "за",
        -8.676773725595291
      ],
      [
        "▁будут",
        -8.679299351859774
      ],
      [
        "▁same",
        -8.682665384084594
      ],
      [
        "▁год",
        -8.692895848540077
      ],
      [
        "▁N",
        -8.693951292888213
      ],
      [
        "▁случае",
        -8.69521422560679
      ],
      [
        "v",
        -8.698714151159441
      ],
      [
        "▁God",
        -8.709317792001382
      ],
      [
        "▁big",
        -8.712496425381556
      ],
      [
        "▁What",
        -8.714697814618292
      ],
      [
        "▁всего",
        -8.719722458960609
      ],
      [
        "▁других",
        -8.721294237045504
      ],
      [
        "▁где",
        -8.723131031565407
      ],
      [
        "▁country",
        -8.72735140029235
      ],
      [
        "▁F",
        -8.728446040993935
      ],
      [
        "▁Для",
        -8.729335597449808
      ],
      [
        "▁через",
        -8.729837282682121
      ],
      [
        "▁day",
        -8.733934418031966
      ],
      [
        "лась",
        -8.748118881519463
      ],
      [
        "▁being",
        -8.748443449939344
      ],
      [
        "u",
        -8.749948680927728
      ],
      [
        "▁company",
        -8.752441694495712
      ],
      [
        "▁because",
        -8.755143015059431
      ],
      [
        "▁O",
        -8.758979467694784
      ],
      [
        "▁service",
        -8.759044043514393
      ],
      [
        "▁before",
        -8.759061130103031
      ],
      [
        "▁data",
        -8.764846336580057
      ],
      [
        "▁просто",
        -8.765143549667567
      ],
      [
        "▁during",
        -8.766691063807157
      ],
      [
        "▁There",
        -8.766843796509196
      ],
      [
        "пример",
        -8.76911686506424
      ],
      [
        "▁using",
        -8.770475599887817
      ],
      [
        "▁available",
        -8.773734936870573
      ],
      [
        "▁работы",
        -8.774534904624472
      ],
      [
        "сти",
        -8.77664092768273
      ],
      [
        "▁here",
        -8.777196437733645
      ],
      [
        "I",
        -8.777718304842143
      ],
      [
        "▁себя",
        -8.78131666331066
      ],
      [
        "▁которая",
        -8.786664471342286
      ],
      [
        "▁good",
        -8.788145241224505
      ],
      [
        "этой",
        -8.790212983327706
      ],
      [
        "▁week",
        -8.79299488438143
      ],
      [
        "▁software",
        -8.795050045684373
      ],
      [
        "▁As",
        -8.798321128668734
      ],
      [
        "▁этот",
        -8.800717683090813
      ],
      [
        "each",
        -8.803675382652735
      ],
      [
        "▁кто",
        -8.804457456927201
      ],
      [
        "ый",
        -8.804816714445815
      ],
      [
        "▁own",
        -8.804988569006191
      ],
      [
        "▁including",
        -8.805102787098553
      ],
      [
        "▁power",
        -8.80573918134905
      ],
      [
        "▁про",
        -8.808889712113881
      ],
      [
        "▁K",
        -8.809708330101238
      ],
      [
        "▁order",
        -8.810363296321222
      ],
      [
        "an",
        -8.814169806155796
      ],
      [
        "is",
        -8.814923199683319
      ],
      [
        "▁without",
        -8.816459172626443
      ],
      [
        "com",
        -8.816468768396327
      ],
      [
        "▁При",
        -8.816684814695416
      ],
      [
        "▁state",
        -8.818844040763816
      ],
      [
        "▁great",
        -8.820249445934522
      ],
      [
        "▁against",
        -8.822008520315237
      ],
      [
        "▁On",
        -8.823875048705611
      ],
      [
        "▁мне",
        -8.824406095269044
      ],
      [
        "to",
        -8.837042688046628
      ],
      [
        "▁ваш",
        -8.837533919816172
      ],
      [
        "▁развития",
        -8.83965568194628
      ],
      [
        "▁файла",
        -8.842025374590976
      ],
      [
        "▁Так",
        -8.842096535817081
      ],
      [
        "▁go",
        -8.842518745746702
      ],
      [
        "▁данных",
        -8.848002848304802
      ],
      [
        "▁системы",
        -8.8517944136284
      ],
      [
        "▁даже",
        -8.857412497576075
      ],
      [
        "▁services",
        -8.857837877875605
      ],
      [
        "▁сказал",
        -8.85798083352606
      ],
      [
        "▁им",
        -8.863410329014236
      ],
      [
        "▁Republic",
        -8.863668474186337
      ],
      [
        "▁different",
        -8.86388224790803
      ],
      [
        "▁every",
        -8.86430196679676
      ],
      [
        "▁within",
        -8.865826745736623
      ],
      [
        "▁V",
        -8.867432667153281
      ],
      [
        "▁days",
        -8.870468846320708
      ],
      [
        "▁public",
        -8.874392383515072
      ],
      [
        "▁жизни",
        -8.877687408994586
      ],
      [
        "▁файлов",
        -8.87770315400456
      ],
      [
        "▁All",
        -8.87802946001009
      ],
      [
        "▁нас",
        -8.878207549279875
      ],
      [
        "▁No",
        -8.878677264648402
      ],
      [
        "▁эти",
        -8.884682573453379
      ],
      [
        "▁long",
        -8.885735912643506
      ],
      [
        "C",
        -8.886102768386458
      ],
      [
        "▁following",
        -8.886692837768523
      ],
      [
        "▁них",
        -8.887132090059346
      ],
      [
        "▁пере",
        -8.893248243522882
      ],
      [
        "ые",
        -8.894555538814389
      ],
      [
        "▁she",
        -8.894651785994592
      ],
      [
        "▁информацию",
        -8.894928524251176
      ],
      [
        "▁компании",
        -8.895480381376673
      ],
      [
        "ll",
        -8.895724177241284
      ],
      [
        "▁both",
        -8.903349889683911
      ],
      [
        "▁process",
        -8.905318211740052
      ],
      [
        "▁United",
        -8.906198937953587
      ],
      [
        "▁которых",
        -8.906941546425077
      ],
      [
        "▁стран",
        -8.910510185790626
      ],
      [
        "▁ли",
        -8.910592940170083
      ],
      [
        "▁business",
        -8.910941072511815
      ],
      [
        "▁small",
        -8.913726290065883
      ],
      [
        "образом",
        -8.913995698224706
      ],
      [
        "ное",
        -8.914183660257054
      ],
      [
        "▁один",
        -8.914934637573163
      ],
      [
        "▁does",
        -8.916765392305248
      ],
      [
        "▁case",
        -8.919038012255745
      ],
      [
        "▁name",
        -8.920561144488392
      ],
      [
        "▁можете",
        -8.92193074235088
      ],
      [
        "▁important",
        -8.922785462931882
      ],
      [
        "▁find",
        -8.927242174985187
      ],
      [
        "X",
        -8.929776089774764
      ],
      [
        "▁children",
        -8.930290285329583
      ],
      [
        "▁России",
        -8.935057035616277
      ],
      [
        "▁H",
        -8.937361908836188
      ],
      [
        "▁человека",
        -8.939699366820847
      ],
      [
        "the",
        -8.947134156924243
      ],
      [
        "тся",
        -8.94840632182557
      ],
      [
        "▁Да",
        -8.95081219773891
      ],
      [
        "▁three",
        -8.953848913847335
      ],
      [
        "▁area",
        -8.953978109917651
      ],
      [
        "▁provide",
        -8.957274650619
      ],
      [
        "▁main",
        -8.964164605421605
      ],
      [
        "▁human",
        -8.964852676297056
      ],
      [
        "▁Т",
        -8.965811803417449
      ],
      [
        "▁water",
        -8.967601112010847
      ],
      [
        "▁President",
        -8.970372162089463
      ],
      [
        "▁project",
        -8.9715586643613
      ],
      [
        "_",
        -8.972613403576782
      ],
      [
        "▁имеет",
        -8.975448607771982
      ],
      [
        "▁ни",
        -8.976855629478349
      ],
      [
        "▁level",
        -8.978181873989195
      ],
      [
        "They",
        -8.979332904573656
      ],
      [
        "▁несколько",
        -8.980498889229999
      ],
      [
        "▁best",
        -8.980918991036004
      ],
      [
        "▁много",
        -8.981744751262884
      ],
      [
        "▁don",
        -8.981795972328667
      ],
      [
        "▁When",
        -8.983088378304977
      ],
      [
        "▁International",
        -8.98552908753404
      ],
      [
        "▁другие",
        -8.986982781242773
      ],
      [
        "людей",
        -8.98713768389195
      ],
      [
        "▁back",
        -8.988904645197882
      ],
      [
        "▁law",
        -8.990605176734345
      ],
      [
        "либо",
        -8.99074593683922
      ],
      [
        "based",
        -8.997128497223734
      ],
      [
        "▁деятельности",
        -8.997369064799638
      ],
      [
        "▁Все",
        -9.000734782102295
      ],
      [
        "▁come",
        -9.00105341017843
      ],
      [
        "▁much",
        -9.001196726312191
      ],
      [
        "▁products",
        -9.002916636521718
      ],
      [
        "▁человек",
        -9.005706178962257
      ],
      [
        "р",
        -9.00744700149864
      ],
      [
        "же",
        -9.007746467041638
      ],
      [
        "▁become",
        -9.012041341796778
      ],
      [
        "▁день",
        -9.01676781692354
      ],
      [
        "▁обеспечения",
        -9.017787986579892
      ],
      [
        "ки",
        -9.018410213727977
      ],
      [
        "лось",
        -9.02326482504482
      ],
      [
        "этих",
        -9.024787090832799
      ],
      [
        "▁нет",
        -9.027306644215463
      ],
      [
        "▁while",
        -9.02731030040026
      ],
      [
        "▁Ukraine",
        -9.028146012806888
      ],
      [
        "▁здесь",
        -9.028991398903434
      ],
      [
        "▁per",
        -9.031416228629586
      ],
      [
        "ness",
        -9.032163866909244
      ],
      [
        "▁безопасности",
        -9.035104147911023
      ],
      [
        "▁control",
        -9.03703033453469
      ],
      [
        "▁city",
        -9.038721758298403
      ],
      [
        "▁своей",
        -9.039114011992659
      ],
      [
        "w",
        -9.039480930234042
      ],
      [
        "▁управления",
        -9.039760549835155
      ],
      [
        "▁времени",
        -9.04061006271665
      ],
      [
        "▁market",
        -9.040994589518764
      ],
      [
        "▁view",
        -9.042580100320864
      ],
      [
        "▁U",
        -9.043142250528609
      ],
      [
        "B",
        -9.044118953300158
      ],
      [
        "п",
        -9.044284510501582
      ],
      [
        "▁last",
        -9.045010274242923
      ],
      [
        "▁Телефон",
        -9.046484589652296
      ],
      [
        "▁report",
        -9.047152954930514
      ],
      [
        "▁national",
        -9.048625227451828
      ],
      [
        "▁П",
        -9.052386884048339
      ],
      [
        "▁At",
        -9.053069101952588
      ],
      [
        "▁За",
        -9.05396003863141
      ],
      [
        "▁security",
        -9.054322522016971
      ],
      [
        "▁Что",
        -9.055451737031666
      ],
      [
        "▁possible",
        -9.059089629742159
      ],
      [
        "свою",
        -9.059456702423928
      ],
      [
        "▁использовать",
        -9.063754933028656
      ],
      [
        "▁необходимо",
        -9.06602817153468
      ],
      [
        "k",
        -9.069169202401854
      ],
      [
        "amp",
        -9.073618239426253
      ],
      [
        "▁production",
        -9.0771659364462
      ],
      [
        "▁State",
        -9.080337788572322
      ],
      [
        "▁man",
        -9.081200539273025
      ],
      [
        "▁local",
        -9.081680170032342
      ],
      [
        "▁set",
        -9.082309423531182
      ],
      [
        "▁возможность",
        -9.083476384628305
      ],
      [
        "▁М",
        -9.08815405784711
      ],
      [
        "en",
        -9.089931076299377
      ],
      [
        "▁economic",
        -9.090146055527594
      ],
      [
        "less",
        -9.090434262002972
      ],
      [
        "▁access",
        -9.091857367528156
      ],
      [
        "месяцев",
        -9.092094553555896
      ],
      [
        "▁region",
        -9.093559077529287
      ],
      [
        "▁страны",
        -9.094289935106284
      ],
      [
        "▁Phone",
        -9.094347744306537
      ],
      [
        "▁свои",
        -9.095543098487942
      ],
      [
        "▁So",
        -9.102094479992639
      ],
      [
        "▁New",
        -9.103477712035577
      ],
      [
        "▁end",
        -9.10574724284131
      ],
      [
        "▁think",
        -9.107012361036896
      ],
      [
        "▁experience",
        -9.110486020524647
      ],
      [
        "M",
        -9.118314110390086
      ],
      [
        "▁look",
        -9.118657006420298
      ],
      [
        "В",
        -9.11871230659619
      ],
      [
        "▁application",
        -9.120434751232256
      ],
      [
        "▁show",
        -9.121004060189994
      ],
      [
        "▁group",
        -9.121404468774594
      ],
      [
        "▁США",
        -9.123878448570993
      ],
      [
        "us",
        -9.1241841676242
      ],
      [
        "▁Ты",
        -9.126517618608556
      ],
      [
        "▁say",
        -9.127608628504039
      ],
      [
        "ve",
        -9.128397941720307
      ],
      [
        "▁информации",
        -9.130624960515851
      ],
      [
        "▁нам",
        -9.134146056537137
      ],
      [
        "▁room",
        -9.134350640069517
      ],
      [
        "▁meeting",
        -9.137477206671507
      ],
      [
        "P",
        -9.143119732974874
      ],
      [
        "and",
        -9.146198226496711
      ],
      [
        "▁down",
        -9.146411689011316
      ],
      [
        "▁quality",
        -9.146748395604385
      ],
      [
        "▁нужно",
        -9.147888821073932
      ],
      [
        "▁change",
        -9.151114995838377
      ],
      [
        "held",
        -9.152883269612962
      ],
      [
        "ему",
        -9.15341957562279
      ],
      [
        "▁She",
        -9.154832438193806
      ],
      [
        "▁activities",
        -9.155730983522476
      ],
      [
        "ями",
        -9.156090805057513
      ],
      [
        "•",
        -9.15764402723957
      ],
      [
        "▁still",
        -9.159420688592636
      ],
      [
        "▁government",
        -9.159982047561986
      ],
      [
        "▁conditions",
        -9.160749076749857
      ],
      [
        "сть",
        -9.16623846424126
      ],
      [
        "не",
        -9.170379870112063
      ],
      [
        "ых",
        -9.1721176235276
      ],
      [
        "▁стать",
        -9.173070236721346
      ],
      [
        "▁large",
        -9.174202532111906
      ],
      [
        "▁European",
        -9.174787444700142
      ],
      [
        "T",
        -9.175495153380156
      ],
      [
        "▁своих",
        -9.176651866081539
      ],
      [
        "▁social",
        -9.177213659908428
      ],
      [
        "going",
        -9.178333497248424
      ],
      [
        "▁Kazakhstan",
        -9.180644779847935
      ],
      [
        "▁связи",
        -9.184096880238057
      ],
      [
        "▁Они",
        -9.18576112969799
      ],
      [
        "А",
        -9.18791432716129
      ],
      [
        "▁special",
        -9.189340609179238
      ],
      [
        "▁File",
        -9.19130470458318
      ],
      [
        "▁type",
        -9.193019013697997
      ],
      [
        "▁States",
        -9.195691754057616
      ],
      [
        "▁another",
        -9.196001788125463
      ],
      [
        "С",
        -9.196063676327826
      ],
      [
        "▁Your",
        -9.196309063878838
      ],
      [
        "ation",
        -9.200109533763932
      ],
      [
        "▁account",
        -9.201213415974998
      ],
      [
        "ic",
        -9.202148493218914
      ],
      [
        "▁мира",
        -9.203471683812557
      ],
      [
        "▁являются",
        -9.204713866187278
      ],
      [
        "▁должен",
        -9.207688824066791
      ],
      [
        "течение",
        -9.209188245091154
      ],
      [
        "▁два",
        -9.210430577106377
      ],
      [
        "▁Porn",
        -9.211327191761875
      ],
      [
        "▁management",
        -9.214706496227219
      ],
      [
        "▁программы",
        -9.215762158388028
      ],
      [
        "example",
        -9.227243023235918
      ],
      [
        "▁design",
        -9.229006726893145
      ],
      [
        "▁full",
        -9.229975409801247
      ],
      [
        "▁political",
        -9.23195849911313
      ],
      [
        "з",
        -9.23200253571943
      ],
      [
        "▁рамках",
        -9.232275311781088
      ],
      [
        "▁period",
        -9.234534122113047
      ],
      [
        "▁rights",
        -9.235319110043115
      ],
      [
        "▁course",
        -9.236626604936962
      ],
      [
        "▁место",
        -9.237570274386085
      ],
      [
        "▁качестве",
        -9.238607350487777
      ],
      [
        "▁получить",
        -9.239243113744365
      ],
      [
        "▁помощью",
        -9.240629456002456
      ],
      [
        "▁am",
        -9.242083059759802
      ],
      [
        "▁That",
        -9.242792572368673
      ],
      [
        "The",
        -9.243374356812783
      ],
      [
        "▁Украин",
        -9.24504784319652
      ],
      [
        "XXX",
        -9.245426276035861
      ],
      [
        "▁дня",
        -9.247855541870289
      ],
      [
        "▁J",
        -9.252552807441912
      ],
      [
        "▁тех",
        -9.252964845383254
      ],
      [
        "E",
        -9.253619628286879
      ],
      [
        "according",
        -9.255179777110804
      ],
      [
        "▁shemale",
        -9.25529156368143
      ],
      [
        "▁give",
        -9.255529038731286
      ],
      [
        "H",
        -9.258480550810864
      ],
      [
        "▁energy",
        -9.258666514337719
      ],
      [
        "▁among",
        -9.258689235770788
      ],
      [
        "▁которое",
        -9.260939497735317
      ],
      [
        "▁вопрос",
        -9.261079970531048
      ],
      [
        "one",
        -9.263472936667512
      ],
      [
        "▁person",
        -9.26456806957518
      ],
      [
        "▁ShemaleZ",
        -9.264582611634761
      ],
      [
        "▁always",
        -9.265218876160263
      ],
      [
        "▁участие",
        -9.265498490993725
      ],
      [
        "▁necessary",
        -9.267065918766342
      ],
      [
        "▁Do",
        -9.26718922568909
      ],
      [
        "▁которой",
        -9.267229219195288
      ],
      [
        "▁address",
        -9.26764423560093
      ],
      [
        "▁result",
        -9.26795811839084
      ],
      [
        "▁TV",
        -9.268610369710267
      ],
      [
        "▁personal",
        -9.269440535555734
      ],
      [
        "до",
        -9.271620239242608
      ],
      [
        "▁China",
        -9.272440421099809
      ],
      [
        "already",
        -9.273597701586429
      ],
      [
        "▁свой",
        -9.274053602682399
      ],
      [
        "▁With",
        -9.274055096991717
      ],
      [
        "▁online",
        -9.275262487571919
      ],
      [
        "self",
        -9.27648195434911
      ],
      [
        "▁list",
        -9.278567731438688
      ],
      [
        "йте",
        -9.278903918410764
      ],
      [
        "б",
        -9.280283887064488
      ],
      [
        "▁second",
        -9.281304301236625
      ],
      [
        "▁working",
        -9.287275713340048
      ],
      [
        "▁found",
        -9.288902472658972
      ],
      [
        "▁non",
        -9.29048180647037
      ],
      [
        "▁re",
        -9.291511207547114
      ],
      [
        "▁всегда",
        -9.291883697334725
      ],
      [
        "▁перед",
        -9.292073162066663
      ],
      [
        "created",
        -9.29530770227708
      ],
      [
        "▁против",
        -9.297822681440747
      ],
      [
        "▁present",
        -9.300577102415199
      ],
      [
        "ным",
        -9.301613876531817
      ],
      [
        "ло",
        -9.303390657286057
      ],
      [
        "▁create",
        -9.303569520607656
      ],
      [
        "▁various",
        -9.304744874040368
      ],
      [
        "ни",
        -9.305161188687526
      ],
      [
        "around",
        -9.305750517324151
      ],
      [
        "▁extension",
        -9.305930296555738
      ],
      [
        "▁offer",
        -9.306066064432052
      ],
      [
        "этому",
        -9.308242000545233
      ],
      [
        "L",
        -9.308681538688155
      ],
      [
        "▁site",
        -9.30932043214593
      ],
      [
        "▁situation",
        -9.309574257166291
      ],
      [
        "▁соответствии",
        -9.309882618857204
      ],
      [
        "▁Moscow",
        -9.310754136807054
      ],
      [
        "▁body",
        -9.313957308024792
      ],
      [
        "▁house",
        -9.314306965137128
      ],
      [
        "▁since",
        -9.315332800310244
      ],
      [
        "upon",
        -9.316908405287545
      ],
      [
        "потому",
        -9.316949481099714
      ],
      [
        "▁всё",
        -9.317982368463717
      ],
      [
        "mm",
        -9.3195056738247
      ],
      [
        "дней",
        -9.321630385465069
      ],
      [
        "ensure",
        -9.32343770598584
      ],
      [
        "открыть",
        -9.32413008089707
      ],
      [
        "▁results",
        -9.327378758780263
      ],
      [
        "▁Council",
        -9.32840505202486
      ],
      [
        "V",
        -9.329000220035244
      ],
      [
        "▁form",
        -9.32915669226586
      ],
      [
        "большой",
        -9.3314639494033
      ],
      [
        "ский",
        -9.332871120850688
      ],
      [
        "▁игры",
        -9.334131642053233
      ],
      [
        "▁всем",
        -9.334919098856748
      ],
      [
        "▁general",
        -9.33559958011151
      ],
      [
        "▁Е",
        -9.336538392100083
      ],
      [
        "таких",
        -9.340959171797707
      ],
      [
        "▁One",
        -9.342016512281623
      ],
      [
        "▁air",
        -9.343420851638552
      ],
      [
        "▁Когда",
        -9.343529439850395
      ],
      [
        "▁Casino",
        -9.34473845833041
      ],
      [
        "▁request",
        -9.3474265497159
      ],
      [
        "▁women",
        -9.347598912130556
      ],
      [
        "▁fact",
        -9.348173715605512
      ],
      [
        "▁National",
        -9.348314011305595
      ],
      [
        "words",
        -9.348933864150213
      ],
      [
        "▁believe",
        -9.349147051130826
      ],
      [
        "▁financial",
        -9.35150798883638
      ],
      [
        "Hub",
        -9.352060816667738
      ],
      [
        "▁города",
        -9.352846911428292
      ],
      [
        "▁находится",
        -9.354601215609275
      ],
      [
        "▁прав",
        -9.354939950185893
      ],
      [
        "▁start",
        -9.355372066947503
      ],
      [
        "▁May",
        -9.358422066273125
      ],
      [
        "▁сделать",
        -9.358854135246839
      ],
      [
        "▁над",
        -9.359980296476595
      ],
      [
        "▁организации",
        -9.363481548793613
      ],
      [
        "▁стороны",
        -9.368630866778652
      ],
      [
        "▁home",
        -9.373589348445194
      ],
      [
        "These",
        -9.373740569967195
      ],
      [
        "G",
        -9.375214722248494
      ],
      [
        "ary",
        -9.37573525580846
      ],
      [
        "▁Live",
        -9.375890936018202
      ],
      [
        "▁тебя",
        -9.376120317572596
      ],
      [
        "▁Committee",
        -9.378490220772473
      ],
      [
        "вести",
        -9.380193554978112
      ],
      [
        "▁University",
        -9.380423502095644
      ],
      [
        "▁Однако",
        -9.382980467333713
      ],
      [
        "away",
        -9.38327598469897
      ],
      [
        "▁contain",
        -9.384131475292227
      ],
      [
        "▁contact",
        -9.385298788111893
      ],
      [
        "up",
        -9.386348508399522
      ],
      [
        "▁детей",
        -9.387767504895391
      ],
      [
        "provided",
        -9.388182101091079
      ],
      [
        "▁real",
        -9.39051925975994
      ],
      [
        "▁future",
        -9.39087117571535
      ],
      [
        "means",
        -9.391799755788709
      ],
      [
        "▁период",
        -9.394199081265766
      ],
      [
        "▁building",
        -9.396684102731427
      ],
      [
        "▁ряд",
        -9.397310096015449
      ],
      [
        "▁My",
        -9.39831285425801
      ],
      [
        "▁После",
        -9.398698835545513
      ],
      [
        "жизнь",
        -9.398770270197948
      ],
      [
        "▁Mr",
        -9.398784226999087
      ],
      [
        "le",
        -9.399283330108599
      ],
      [
        "▁natural",
        -9.399906700970167
      ],
      [
        "it",
        -9.401305943285655
      ],
      [
        "он",
        -9.406194439802388
      ],
      [
        "▁health",
        -9.406324537486782
      ],
      [
        "▁Республики",
        -9.406630693050088
      ],
      [
        "сейчас",
        -9.406692338996306
      ],
      [
        "R",
        -9.407644163278922
      ],
      [
        "▁этим",
        -9.410259565863221
      ],
      [
        "▁equipment",
        -9.41033019835806
      ],
      [
        "▁минут",
        -9.410418406361872
      ],
      [
        "known",
        -9.410482659688634
      ],
      [
        "лишь",
        -9.411704294796648
      ],
      [
        "▁говорит",
        -9.41344004261814
      ],
      [
        "▁Г",
        -9.413487252531187
      ],
      [
        "located",
        -9.413832652630886
      ],
      [
        "▁near",
        -9.414235632545939
      ],
      [
        "▁решения",
        -9.41491512876507
      ],
      [
        "▁двух",
        -9.417842377599207
      ],
      [
        "ская",
        -9.419434818194556
      ],
      [
        "▁certain",
        -9.4207038616256
      ],
      [
        "▁members",
        -9.421080358196932
      ],
      [
        "▁foreign",
        -9.42149814953184
      ],
      [
        "▁systems",
        -9.423202854764053
      ],
      [
        "▁котором",
        -9.425850004763427
      ],
      [
        "по",
        -9.425855590451464
      ],
      [
        "few",
        -9.426050048860109
      ],
      [
        "several",
        -9.42609441212361
      ],
      [
        "▁World",
        -9.426625796778318
      ],
      [
        "▁again",
        -9.428804341742985
      ],
      [
        "▁companies",
        -9.430140396136713
      ],
      [
        "▁never",
        -9.430380899114015
      ],
      [
        "▁внимание",
        -9.43077955200013
      ],
      [
        "▁член",
        -9.432018188049465
      ],
      [
        "собой",
        -9.435305977218642
      ],
      [
        "▁research",
        -9.437019281080252
      ],
      [
        "▁love",
        -9.438148093063285
      ],
      [
        "▁Group",
        -9.439051183540359
      ],
      [
        "man",
        -9.440672668656019
      ],
      [
        "▁million",
        -9.440933232953203
      ],
      [
        "▁network",
        -9.440954997658814
      ],
      [
        "▁light",
        -9.441697266277375
      ],
      [
        "▁point",
        -9.442784275565655
      ],
      [
        "▁Our",
        -9.443762430425153
      ],
      [
        "▁своего",
        -9.444511938555168
      ],
      [
        "▁General",
        -9.447734499684058
      ],
      [
        "▁better",
        -9.44850704138355
      ],
      [
        "▁computer",
        -9.449523495112308
      ],
      [
        "▁право",
        -9.450893955311946
      ],
      [
        "cannot",
        -9.45167518743116
      ],
      [
        "▁себе",
        -9.452373362078761
      ],
      [
        "▁website",
        -9.454748901443107
      ],
      [
        "▁problems",
        -9.455044608634452
      ],
      [
        "Кроме",
        -9.456281193265562
      ],
      [
        "▁issues",
        -9.456562230335567
      ],
      [
        "▁Иисус",
        -9.458484962260698
      ],
      [
        "everything",
        -9.458727682068117
      ],
      [
        "люди",
        -9.459025473584497
      ],
      [
        "▁права",
        -9.459365479111014
      ],
      [
        "▁друг",
        -9.459466644716032
      ],
      [
        "▁hand",
        -9.460097437604151
      ],
      [
        "ч",
        -9.460773687919772
      ],
      [
        "▁model",
        -9.462797995681099
      ],
      [
        "▁visit",
        -9.463315950811733
      ],
      [
        "▁field",
        -9.464031426773454
      ],
      [
        "▁Его",
        -9.464556978830915
      ],
      [
        "▁page",
        -9.464988414746399
      ],
      [
        "▁current",
        -9.466401524262032
      ],
      [
        "analysis",
        -9.466539758290795
      ],
      [
        "следует",
        -9.46662304029251
      ],
      [
        "▁там",
        -9.466905086980178
      ],
      [
        "▁wh",
        -9.469305552972367
      ],
      [
        "▁включая",
        -9.469349970396683
      ],
      [
        "▁слова",
        -9.469588878474376
      ],
      [
        "next",
        -9.469641346810167
      ],
      [
        "▁способ",
        -9.47101471730928
      ],
      [
        "▁имеют",
        -9.472306495508123
      ],
      [
        "▁oil",
        -9.473659687805192
      ],
      [
        "▁follow",
        -9.474871028343212
      ],
      [
        "▁Home",
        -9.475681909801727
      ],
      [
        "одной",
        -9.475731971482483
      ],
      [
        "▁After",
        -9.47594133931829
      ],
      [
        "ally",
        -9.475957182052193
      ],
      [
        "▁недели",
        -9.476442837685434
      ],
      [
        "▁effect",
        -9.476683686139497
      ],
      [
        "▁team",
        -9.477577404123911
      ],
      [
        "▁месяца",
        -9.478790308879507
      ],
      [
        "▁family",
        -9.479752919248368
      ],
      [
        "▁программно",
        -9.480098789742696
      ],
      [
        "▁проекта",
        -9.48018630942912
      ],
      [
        "▁услуг",
        -9.480807574343906
      ],
      [
        "▁использования",
        -9.48081328251401
      ],
      [
        "защиты",
        -9.48123772597146
      ],
      [
        "▁return",
        -9.482675033934974
      ],
      [
        "менее",
        -9.482773698997175
      ],
      [
        "▁Организаци",
        -9.485061313882241
      ],
      [
        "▁Manager",
        -9.486253998293773
      ],
      [
        "something",
        -9.486913646630088
      ],
      [
        "▁Jesus",
        -9.48692255551535
      ],
      [
        "такие",
        -9.487810508881385
      ],
      [
        "▁различных",
        -9.48868511678494
      ],
      [
        "▁Europe",
        -9.49079038704565
      ],
      [
        "took",
        -9.492741399648128
      ],
      [
        "▁de",
        -9.492801040067302
      ],
      [
        "▁reason",
        -9.492957804813498
      ],
      [
        "▁specific",
        -9.493837557678601
      ],
      [
        "▁cooperation",
        -9.49386197481624
      ],
      [
        "▁места",
        -9.494371590411783
      ],
      [
        "▁legal",
        -9.49466282856615
      ],
      [
        "▁further",
        -9.495833826915558
      ],
      [
        "▁value",
        -9.496569737519634
      ],
      [
        "▁training",
        -9.496615761016265
      ],
      [
        "▁together",
        -9.497124015527246
      ],
      [
        "▁hotel",
        -9.498367688668688
      ],
      [
        "▁policy",
        -9.49865751971709
      ],
      [
        "▁old",
        -9.501739879737974
      ],
      [
        "новых",
        -9.50257454927312
      ],
      [
        "▁отношении",
        -9.504039162733493
      ],
      [
        "▁данные",
        -9.506197865549796
      ],
      [
        "▁позволяет",
        -9.506440377583546
      ],
      [
        "Nations",
        -9.50693866461222
      ],
      [
        "▁Она",
        -9.507603492212489
      ],
      [
        "things",
        -9.50990472533432
      ],
      [
        "▁имя",
        -9.511295294030681
      ],
      [
        "www",
        -9.511336617586402
      ],
      [
        "ской",
        -9.512059585523934
      ],
      [
        "▁группы",
        -9.513216174546072
      ],
      [
        "▁concern",
        -9.515038303367293
      ],
      [
        "▁price",
        -9.515062641337787
      ],
      [
        "ment",
        -9.515202943544828
      ],
      [
        "▁женщин",
        -9.515240668046621
      ],
      [
        "F",
        -9.517496623615166
      ],
      [
        "▁call",
        -9.519207614493402
      ],
      [
        "▁product",
        -9.519382418338516
      ],
      [
        "▁education",
        -9.520049838345358
      ],
      [
        "▁increase",
        -9.520753737337394
      ],
      [
        "▁средств",
        -9.521615635126357
      ],
      [
        "вашего",
        -9.521798546302929
      ],
      [
        "▁might",
        -9.522698249497791
      ],
      [
        "According",
        -9.523426548523242
      ],
      [
        "▁too",
        -9.524608949255779
      ],
      [
        "N",
        -9.524799645287906
      ],
      [
        "▁protection",
        -9.525188776366091
      ],
      [
        "▁total",
        -9.526080464306844
      ],
      [
        "▁http",
        -9.526107406349505
      ],
      [
        "▁доступ",
        -9.527261713176754
      ],
      [
        "ен",
        -9.527842829563696
      ],
      [
        "▁talk",
        -9.529960917897746
      ],
      [
        "▁мир",
        -9.531212140583206
      ],
      [
        "▁close",
        -9.535284147397714
      ],
      [
        "▁него",
        -9.537578142034716
      ],
      [
        "▁Some",
        -9.5383367338676
      ],
      [
        "▁include",
        -9.539681211376843
      ],
      [
        "▁amount",
        -9.540759824624297
      ],
      [
        "▁нашей",
        -9.543732559382264
      ],
      [
        "расширение",
        -9.543897691589068
      ],
      [
        "▁наших",
        -9.544365952096163
      ],
      [
        "▁off",
        -9.545673804838176
      ],
      [
        "ce",
        -9.545827625162406
      ],
      [
        "▁трансы",
        -9.546013534987003
      ],
      [
        "▁today",
        -9.547691636497117
      ],
      [
        "given",
        -9.54806619095478
      ],
      [
        "▁веб",
        -9.548230247846126
      ],
      [
        "▁issue",
        -9.549458616673293
      ],
      [
        "▁числе",
        -9.550207897162407
      ],
      [
        "▁лиц",
        -9.550610219720301
      ],
      [
        "K",
        -9.551409980653899
      ],
      [
        "или",
        -9.55184149740546
      ],
      [
        "▁money",
        -9.552856513405832
      ],
      [
        "ж",
        -9.553319747076351
      ],
      [
        "▁часть",
        -9.553586231326777
      ],
      [
        "▁государства",
        -9.554507345224161
      ],
      [
        "мире",
        -9.55498098072722
      ],
      [
        "ского",
        -9.55507530084183
      ],
      [
        "М",
        -9.555267536520809
      ],
      [
        "Этот",
        -9.55760576751241
      ],
      [
        "▁remain",
        -9.56210810251108
      ],
      [
        "▁HD",
        -9.564485609630388
      ],
      [
        "▁called",
        -9.566056272633451
      ],
      [
        "▁media",
        -9.5660906664776
      ],
      [
        "те",
        -9.56614333301071
      ],
      [
        "▁server",
        -9.567534403395992
      ],
      [
        "Чтобы",
        -9.568758204062245
      ],
      [
        "▁event",
        -9.569456139952841
      ],
      [
        "ясь",
        -9.570527610176672
      ],
      [
        "taken",
        -9.570973901811554
      ],
      [
        "▁game",
        -9.57301505661859
      ],
      [
        "▁cause",
        -9.573048043943304
      ],
      [
        "ными",
        -9.57327180698404
      ],
      [
        "▁лучше",
        -9.573525846135412
      ],
      [
        "▁modern",
        -9.573527497429847
      ],
      [
        "▁сегодня",
        -9.573748068182033
      ],
      [
        "▁tits",
        -9.5738559259631
      ],
      [
        "▁third",
        -9.57405869345012
      ],
      [
        "article",
        -9.57475471542048
      ],
      [
        "▁части",
        -9.577496820784356
      ],
      [
        "ability",
        -9.579701883959048
      ],
      [
        "▁возможности",
        -9.580366358682138
      ],
      [
        "until",
        -9.581232642671463
      ],
      [
        "▁decision",
        -9.581260258729179
      ],
      [
        "▁St",
        -9.582954192027277
      ],
      [
        "полностью",
        -9.583042267077555
      ],
      [
        "July",
        -9.583392377505142
      ],
      [
        "большие",
        -9.583669891767705
      ],
      [
        "▁уровне",
        -9.585379518883542
      ],
      [
        "▁km",
        -9.585502608478306
      ],
      [
        "▁проблемы",
        -9.586096825036124
      ],
      [
        "▁Open",
        -9.588050860721191
      ],
      [
        "▁помощи",
        -9.588247464958926
      ],
      [
        "основе",
        -9.591034375078419
      ],
      [
        "▁purpose",
        -9.592410923437452
      ],
      [
        "▁click",
        -9.592629424652761
      ],
      [
        "▁install",
        -9.592703106546919
      ],
      [
        "▁Во",
        -9.593814711327823
      ],
      [
        "эту",
        -9.594248155298136
      ],
      [
        "▁head",
        -9.595652480537902
      ],
      [
        "▁Minister",
        -9.596559387033036
      ],
      [
        "▁пока",
        -9.597339805951144
      ],
      [
        "▁try",
        -9.598719482499703
      ],
      [
        "▁implementation",
        -9.600296776595357
      ],
      [
        "▁Наци",
        -9.600741253084323
      ],
      [
        "▁put",
        -9.600777988382166
      ],
      [
        "▁тот",
        -9.601042488399813
      ],
      [
        "▁Объединенны",
        -9.602028624747431
      ],
      [
        "▁times",
        -9.602425975109444
      ],
      [
        "below",
        -9.60348503682802
      ],
      [
        "ry",
        -9.603569466428292
      ],
      [
        "▁которого",
        -9.604908793810289
      ],
      [
        "▁вопросам",
        -9.605059219926037
      ],
      [
        "▁construction",
        -9.605121960437739
      ],
      [
        "▁Internet",
        -9.606571981275357
      ],
      [
        "▁living",
        -9.607428392759454
      ],
      [
        "▁display",
        -9.607602940806116
      ],
      [
        "▁среди",
        -9.608828908366924
      ],
      [
        "▁момент",
        -9.609159106413317
      ],
      [
        "▁её",
        -9.609662482901896
      ],
      [
        "▁material",
        -9.60972287443245
      ],
      [
        "▁особенно",
        -9.610392041972878
      ],
      [
        "ном",
        -9.61063480836111
      ],
      [
        "age",
        -9.613691014281196
      ],
      [
        "И",
        -9.613950652268915
      ],
      [
        "related",
        -9.615620990390305
      ],
      [
        "▁often",
        -9.615910761415954
      ],
      [
        "О",
        -9.618939694730468
      ],
      [
        "▁came",
        -9.619090653983681
      ],
      [
        "▁young",
        -9.619286052294417
      ],
      [
        "▁due",
        -9.621757147648086
      ],
      [
        "▁organizations",
        -9.622375899735312
      ],
      [
        "▁user",
        -9.623244383080525
      ],
      [
        "другой",
        -9.623469330550469
      ],
      [
        "▁property",
        -9.624343674109738
      ],
      [
        "▁role",
        -9.624511565188257
      ],
      [
        "▁Hotel",
        -9.62467645818748
      ],
      [
        "▁От",
        -9.624878896171436
      ],
      [
        "▁должно",
        -9.624887633780707
      ],
      [
        "▁car",
        -9.625236620444658
      ],
      [
        "▁individual",
        -9.627554226067167
      ],
      [
        "▁activity",
        -9.628248638971696
      ],
      [
        "▁работу",
        -9.628720862315362
      ],
      [
        "▁анализ",
        -9.630071331201773
      ],
      [
        "▁An",
        -9.630760564400425
      ],
      [
        "▁heart",
        -9.631363601679912
      ],
      [
        "▁member",
        -9.631809036611983
      ],
      [
        "▁Z",
        -9.634607012639323
      ],
      [
        "▁effort",
        -9.635536646576377
      ],
      [
        "either",
        -9.636115256865263
      ],
      [
        "▁little",
        -9.636805463560991
      ],
      [
        "▁решение",
        -9.63710505078246
      ],
      [
        "ите",
        -9.638017478785233
      ],
      [
        "▁проблем",
        -9.638395295354282
      ],
      [
        "▁strong",
        -9.639452572190727
      ],
      [
        "▁три",
        -9.63960533271843
      ],
      [
        "December",
        -9.64049049348488
      ],
      [
        "▁возможно",
        -9.64086027150198
      ],
      [
        "agreement",
        -9.642412852438596
      ],
      [
        "▁resources",
        -9.643179256509715
      ],
      [
        "▁Center",
        -9.64368840813833
      ],
      [
        "▁school",
        -9.645061767808057
      ],
      [
        "▁Алиева",
        -9.645846986312451
      ],
      [
        "▁онлайн",
        -9.64629659535785
      ],
      [
        "▁center",
        -9.647772567385534
      ],
      [
        "▁процесс",
        -9.648490970453242
      ],
      [
        "▁вместе",
        -9.648537120237586
      ],
      [
        "▁particular",
        -9.649111470234894
      ],
      [
        "▁проект",
        -9.649243994815185
      ],
      [
        "▁Foundation",
        -9.649909572544312
      ],
      [
        "▁kind",
        -9.651228177436657
      ],
      [
        "▁срок",
        -9.652533838956453
      ],
      [
        "Fi",
        -9.65274730130066
      ],
      [
        "▁уровня",
        -9.65334428404104
      ],
      [
        "AShemaleTube",
        -9.655356592218983
      ],
      [
        "▁private",
        -9.65541086669849
      ],
      [
        "▁Server",
        -9.655644809360028
      ],
      [
        "▁live",
        -9.656221782806767
      ],
      [
        "▁действия",
        -9.656622236216476
      ],
      [
        "▁space",
        -9.65663844533276
      ],
      [
        "▁problem",
        -9.65692279526296
      ],
      [
        "▁быстро",
        -9.65722776033705
      ],
      [
        "▁wide",
        -9.657844806268626
      ],
      [
        "offers",
        -9.658103523744634
      ],
      [
        "▁район",
        -9.658126404077997
      ],
      [
        "ку",
        -9.658942979888756
      ],
      [
        "огда",
        -9.661948690236544
      ],
      [
        "▁Re",
        -9.662148990865571
      ],
      [
        "тебе",
        -9.662672853467946
      ],
      [
        "▁Now",
        -9.663082245829996
      ],
      [
        "▁improve",
        -9.66392162577328
      ],
      [
        "▁одного",
        -9.665574130779474
      ],
      [
        "▁именно",
        -9.666763684484483
      ],
      [
        "та",
        -9.667395440512431
      ],
      [
        "▁sea",
        -9.667529348162995
      ],
      [
        "▁средства",
        -9.669046399359848
      ],
      [
        "▁professional",
        -9.67040316476773
      ],
      [
        "▁play",
        -9.670884858145023
      ],
      [
        "поэтому",
        -9.670891159407104
      ],
      [
        "▁required",
        -9.67130734531644
      ],
      [
        "▁whole",
        -9.672417602375111
      ],
      [
        "Я",
        -9.675170500709125
      ],
      [
        "▁position",
        -9.675276837668624
      ],
      [
        "должна",
        -9.676594105822593
      ],
      [
        "▁select",
        -9.676631285659044
      ],
      [
        "▁keep",
        -9.676727270399331
      ],
      [
        "▁addition",
        -9.677334805796447
      ],
      [
        "▁events",
        -9.677759482307106
      ],
      [
        "вашем",
        -9.678145448966696
      ],
      [
        "▁materials",
        -9.678586198819318
      ],
      [
        "▁phone",
        -9.678769012855014
      ],
      [
        "▁types",
        -9.67883572858961
      ],
      [
        "▁производства",
        -9.679244275723496
      ],
      [
        "▁Д",
        -9.679492408439556
      ],
      [
        "ism",
        -9.680072489286767
      ],
      [
        "▁количество",
        -9.680260075143796
      ],
      [
        "▁key",
        -9.681350645947404
      ],
      [
        "ешь",
        -9.681577928290285
      ],
      [
        "▁mind",
        -9.682197340572802
      ],
      [
        "▁range",
        -9.682408974970746
      ],
      [
        "▁check",
        -9.682988957499115
      ],
      [
        "▁industry",
        -9.684999686154805
      ],
      [
        "▁хорошо",
        -9.68502678806502
      ],
      [
        "▁turn",
        -9.686788606725138
      ],
      [
        "▁вопросы",
        -9.686797591268983
      ],
      [
        "▁exact",
        -9.686854892489094
      ],
      [
        "▁left",
        -9.68854215726504
      ],
      [
        "▁technology",
        -9.68955674063571
      ],
      [
        "▁action",
        -9.690120920377106
      ],
      [
        "К",
        -9.690330668904785
      ],
      [
        "▁сиськи",
        -9.690773895855083
      ],
      [
        "by",
        -9.69077827565665
      ],
      [
        "▁please",
        -9.691234548327719
      ],
      [
        "Ministry",
        -9.691656995132126
      ],
      [
        "наиболее",
        -9.692218987964894
      ],
      [
        "▁изменения",
        -9.693079510176274
      ],
      [
        "▁His",
        -9.693305055697332
      ],
      [
        "▁Government",
        -9.693565543398194
      ],
      [
        "etc",
        -9.694007588689455
      ],
      [
        "▁men",
        -9.69411072752315
      ],
      [
        "▁компания",
        -9.694943693097478
      ],
      [
        "каждый",
        -9.696463977639736
      ],
      [
        "чего",
        -9.697977298158259
      ],
      [
        "можем",
        -9.698151955529536
      ],
      [
        "такой",
        -9.698438219168118
      ],
      [
        "▁выбор",
        -9.698887571177183
      ],
      [
        "▁таким",
        -9.69903074518553
      ],
      [
        "▁сети",
        -9.699299820581137
      ],
      [
        "▁treatment",
        -9.70120257939188
      ],
      [
        "ях",
        -9.701313522117202
      ],
      [
        "▁около",
        -9.701503101778433
      ],
      [
        "▁thought",
        -9.702241390652732
      ],
      [
        "▁continue",
        -9.702290653584397
      ],
      [
        "growth",
        -9.702668244587397
      ],
      [
        "новые",
        -9.703181495625163
      ],
      [
        "▁система",
        -9.703610843654081
      ],
      [
        "▁risk",
        -9.703753154843136
      ],
      [
        "▁pay",
        -9.703757110751239
      ],
      [
        "▁measures",
        -9.705185034813526
      ],
      [
        "▁своем",
        -9.706507937200008
      ],
      [
        "▁interest",
        -9.706639168927211
      ],
      [
        "W",
        -9.707599503203085
      ],
      [
        "really",
        -9.70764392339868
      ],
      [
        "▁food",
        -9.70781946063715
      ],
      [
        "▁Department",
        -9.708828097198346
      ],
      [
        "▁материал",
        -9.708837276156123
      ],
      [
        "▁стали",
        -9.709184525541271
      ],
      [
        "▁knowledge",
        -9.711024665711411
      ],
      [
        "ц",
        -9.712101031747768
      ],
      [
        "▁программ",
        -9.7127359649063
      ],
      [
        "▁global",
        -9.713523299649415
      ],
      [
        "um",
        -9.714061933877797
      ],
      [
        "▁happen",
        -9.714451269734637
      ],
      [
        "▁дома",
        -9.715638245687941
      ],
      [
        "▁care",
        -9.715668950159658
      ],
      [
        "▁facilities",
        -9.716429683498035
      ],
      [
        "▁компьютер",
        -9.716512930301953
      ],
      [
        "▁затем",
        -9.717684159891911
      ],
      [
        "▁территории",
        -9.72007927283058
      ],
      [
        "▁gas",
        -9.720164158883604
      ],
      [
        "▁low",
        -9.720745409828085
      ],
      [
        "▁files",
        -9.721117795333944
      ],
      [
        "▁common",
        -9.721177928303755
      ],
      [
        "▁works",
        -9.721191508262356
      ],
      [
        "▁политики",
        -9.72162501679336
      ],
      [
        "▁above",
        -9.722703888537973
      ],
      [
        "▁changes",
        -9.722836665521067
      ],
      [
        "directly",
        -9.723189994565217
      ],
      [
        "features",
        -9.723356513882305
      ],
      [
        "▁technical",
        -9.724145195238776
      ],
      [
        "history",
        -9.72575147331759
      ],
      [
        "▁tell",
        -9.726000412079923
      ],
      [
        "September",
        -9.726094093332971
      ],
      [
        "▁Пере",
        -9.726127540415396
      ],
      [
        "▁size",
        -9.726235568626626
      ],
      [
        "▁pre",
        -9.726946905311232
      ],
      [
        "▁land",
        -9.727017294898758
      ],
      [
        "▁целью",
        -9.727352893633705
      ],
      [
        "▁Эти",
        -9.727724496240924
      ],
      [
        "▁others",
        -9.727750878706114
      ],
      [
        "ian",
        -9.727894917393927
      ],
      [
        "▁hard",
        -9.728272767337454
      ],
      [
        "▁orgasm",
        -9.728309600626329
      ],
      [
        "▁cock",
        -9.728577909723674
      ],
      [
        "некоторые",
        -9.729172968085113
      ],
      [
        "▁важно",
        -9.729688095397574
      ],
      [
        "▁question",
        -9.731330232918866
      ],
      [
        "least",
        -9.731888389877199
      ],
      [
        "▁plan",
        -9.73289396738021
      ],
      [
        "▁terms",
        -9.733006165158159
      ],
      [
        "June",
        -9.734039658259283
      ],
      [
        "▁far",
        -9.734439376416923
      ],
      [
        "z",
        -9.735530448992135
      ],
      [
        "▁short",
        -9.735957087878809
      ],
      [
        "никогда",
        -9.736279974055213
      ],
      [
        "▁свое",
        -9.736570238874087
      ],
      [
        "areas",
        -9.736668125491718
      ],
      [
        "▁игра",
        -9.737121505182524
      ],
      [
        "▁regional",
        -9.7377145625772
      ],
      [
        "▁double",
        -9.73783092971303
      ],
      [
        "▁ниже",
        -9.738722607685906
      ],
      [
        "▁теперь",
        -9.739293366976481
      ],
      [
        "▁оргазм",
        -9.73958481491766
      ],
      [
        "▁understand",
        -9.740760442783905
      ],
      [
        "▁км",
        -9.742575649894297
      ],
      [
        "▁bring",
        -9.744849949405504
      ],
      [
        "▁higher",
        -9.745758886322864
      ],
      [
        "▁students",
        -9.745800368344959
      ],
      [
        "▁PC",
        -9.746100396264103
      ],
      [
        "▁difficult",
        -9.746322689746986
      ],
      [
        "O",
        -9.746711347582067
      ],
      [
        "▁начала",
        -9.746855651687351
      ],
      [
        "status",
        -9.746920108085735
      ],
      [
        "once",
        -9.747320387041722
      ],
      [
        "ще",
        -9.74942450844837
      ],
      [
        "▁прямо",
        -9.75211739842521
      ],
      [
        "▁four",
        -9.752613859268846
      ],
      [
        "▁опыт",
        -9.754702023272971
      ],
      [
        "ью",
        -9.75563326967088
      ],
      [
        "▁Development",
        -9.75576092399582
      ],
      [
        "▁approach",
        -9.756771634046205
      ],
      [
        "▁performance",
        -9.75682560864543
      ],
      [
        "▁fast",
        -9.756889100580072
      ],
      [
        "▁war",
        -9.757011392513299
      ],
      [
        "де",
        -9.75731371728281
      ],
      [
        "▁Commission",
        -9.757421958744787
      ],
      [
        "▁environment",
        -9.757885069328909
      ],
      [
        "▁basi",
        -9.75855614895972
      ],
      [
        "Е",
        -9.759011924520335
      ],
      [
        "▁military",
        -9.759160729295386
      ],
      [
        "▁March",
        -9.760635930542863
      ],
      [
        "entire",
        -9.760871316425435
      ],
      [
        "▁receive",
        -9.76093024556482
      ],
      [
        "▁users",
        -9.760988108147181
      ],
      [
        "▁объем",
        -9.761018002407232
      ],
      [
        "▁значение",
        -9.762182220652186
      ],
      [
        "ходе",
        -9.762249334756008
      ],
      [
        "developed",
        -9.762321469450546
      ],
      [
        "чи",
        -9.762909598637679
      ],
      [
        "одним",
        -9.7632614565283
      ],
      [
        "▁High",
        -9.763504226645102
      ],
      [
        "istrict",
        -9.765388467526858
      ],
      [
        "▁wrong",
        -9.765780846088361
      ],
      [
        "▁additional",
        -9.766019408875243
      ],
      [
        "▁Б",
        -9.767347328966459
      ],
      [
        "▁многих",
        -9.768150330085234
      ],
      [
        "область",
        -9.769157316403387
      ],
      [
        "какой",
        -9.769324943115059
      ],
      [
        "▁language",
        -9.769826608201885
      ],
      [
        "▁найти",
        -9.770209325011281
      ],
      [
        "society",
        -9.770632961107623
      ],
      [
        "▁single",
        -9.771231983783286
      ],
      [
        "▁Office",
        -9.77198809915806
      ],
      [
        "▁качества",
        -9.772646452972635
      ],
      [
        "▁office",
        -9.772713349125167
      ],
      [
        "taking",
        -9.773476721636056
      ],
      [
        "▁subject",
        -9.773684231248676
      ],
      [
        "▁update",
        -9.774570271404952
      ],
      [
        "▁apartment",
        -9.774574065053326
      ],
      [
        "▁By",
        -9.77489990257296
      ],
      [
        "▁thing",
        -9.776276218601602
      ],
      [
        "▁сервер",
        -9.77642119896818
      ],
      [
        "▁метод",
        -9.776827418701561
      ],
      [
        "большая",
        -9.777216028676476
      ],
      [
        "currently",
        -9.77823240589956
      ],
      [
        "▁уровень",
        -9.77859240348214
      ],
      [
        "projects",
        -9.778646744173454
      ],
      [
        "▁которую",
        -9.77903670090286
      ],
      [
        "▁organization",
        -9.779409240654847
      ],
      [
        "▁легко",
        -9.77972217589478
      ],
      [
        "▁official",
        -9.779754348684786
      ],
      [
        "▁Union",
        -9.779968670196894
      ],
      [
        "▁эта",
        -9.780736841342078
      ],
      [
        "▁floor",
        -9.781015746163245
      ],
      [
        "▁seem",
        -9.781241899860815
      ],
      [
        "▁власти",
        -9.781511742637564
      ],
      [
        "done",
        -9.784104721431486
      ],
      [
        "▁sex",
        -9.784848463025426
      ],
      [
        "October",
        -9.78489361958995
      ],
      [
        "▁established",
        -9.784915128934323
      ],
      [
        "▁достаточно",
        -9.785568481535078
      ],
      [
        "yet",
        -9.786145660674087
      ],
      [
        "▁complex",
        -9.786271523954687
      ],
      [
        "▁целя",
        -9.786518073089987
      ],
      [
        "▁mean",
        -9.787237031421965
      ],
      [
        "▁feel",
        -9.787590464194867
      ],
      [
        "▁party",
        -9.788330960929326
      ],
      [
        "▁Configuration",
        -9.788967247145381
      ],
      [
        "day",
        -9.78994889926408
      ],
      [
        "йти",
        -9.790113413367937
      ],
      [
        "▁результате",
        -9.790711036367597
      ],
      [
        "▁Эта",
        -9.790720282285186
      ],
      [
        "▁Microsoft",
        -9.791791286706982
      ],
      [
        "▁программа",
        -9.791870656112179
      ],
      [
        "▁requirements",
        -9.792105248892604
      ],
      [
        "▁let",
        -9.79245448830421
      ],
      [
        "coming",
        -9.793092645911434
      ],
      [
        "▁final",
        -9.793535100267091
      ],
      [
        "▁создания",
        -9.793783375705269
      ],
      [
        "ра",
        -9.793801738958752
      ],
      [
        "▁странах",
        -9.793814680931094
      ],
      [
        "▁Federation",
        -9.793865375466012
      ],
      [
        "▁часто",
        -9.794584410308143
      ],
      [
        "whether",
        -9.795164998514087
      ],
      [
        "▁stay",
        -9.795817337076398
      ],
      [
        "▁видео",
        -9.796697097969709
      ],
      [
        "▁thousand",
        -9.7970729000564
      ],
      [
        "▁тип",
        -9.797472964556798
      ],
      [
        "▁recent",
        -9.797786354286655
      ],
      [
        "▁effective",
        -9.798157631635162
      ],
      [
        "▁groups",
        -9.798306856819629
      ],
      [
        "triptease",
        -9.798678797627922
      ],
      [
        "▁side",
        -9.799139026337246
      ],
      [
        "ru",
        -9.799230179507898
      ],
      [
        "▁wish",
        -9.799484490856795
      ],
      [
        "▁received",
        -9.800444660003981
      ],
      [
        "ш",
        -9.800830193891697
      ],
      [
        "самых",
        -9.801030471325019
      ],
      [
        "▁Wi",
        -9.801178901340213
      ],
      [
        "▁Bank",
        -9.801346701289425
      ],
      [
        "▁lot",
        -9.80155375055595
      ],
      [
        "▁top",
        -9.80182027006807
      ],
      [
        "▁самом",
        -9.80320126057271
      ],
      [
        "resolution",
        -9.803522352810724
      ],
      [
        "▁learn",
        -9.80422044591761
      ],
      [
        "▁Aliyev",
        -9.805196693141815
      ],
      [
        "▁Economic",
        -9.806011448921474
      ],
      [
        "▁Ф",
        -9.806861158411795
      ],
      [
        "▁услуги",
        -9.80899601761047
      ],
      [
        "▁safety",
        -9.809217123869745
      ],
      [
        "▁clear",
        -9.809362387237572
      ],
      [
        "ities",
        -9.809399286119138
      ],
      [
        "▁trade",
        -9.81191960478248
      ],
      [
        "▁perform",
        -9.812410628110166
      ],
      [
        "▁sure",
        -9.815190694209036
      ],
      [
        "воды",
        -9.816439336424938
      ],
      [
        "▁review",
        -9.817606850329932
      ],
      [
        "▁share",
        -9.817969331571229
      ],
      [
        "November",
        -9.818909487102946
      ],
      [
        "емся",
        -9.819202803527416
      ],
      [
        "▁produce",
        -9.819861191134693
      ],
      [
        "▁директор",
        -9.819942495385947
      ],
      [
        "▁поскольку",
        -9.820855293182127
      ],
      [
        "▁April",
        -9.821200251685987
      ],
      [
        "▁meet",
        -9.821352529342487
      ],
      [
        "▁хотя",
        -9.822706482875816
      ],
      [
        "▁почти",
        -9.823565101676442
      ],
      [
        "parties",
        -9.824677439896476
      ],
      [
        "▁nature",
        -9.82515335383136
      ],
      [
        "▁книг",
        -9.826033800972356
      ],
      [
        "▁расположен",
        -9.826909027841538
      ],
      [
        "ты",
        -9.827746420010614
      ],
      [
        "▁regard",
        -9.8283253524718
      ],
      [
        "овых",
        -9.828369406102393
      ],
      [
        "▁дом",
        -9.829026622049044
      ],
      [
        "дать",
        -9.829289709219031
      ],
      [
        "January",
        -9.830509142546449
      ],
      [
        "▁First",
        -9.831445786169171
      ],
      [
        "▁тогда",
        -9.832129389580542
      ],
      [
        "▁образования",
        -9.832922093343035
      ],
      [
        "▁оно",
        -9.833219198556433
      ],
      [
        "▁version",
        -9.833281547915883
      ],
      [
        "▁отеле",
        -9.83365237872302
      ],
      [
        "simply",
        -9.834024346969846
      ],
      [
        "▁court",
        -9.834436390487376
      ],
      [
        "▁Here",
        -9.835086436456832
      ],
      [
        "▁potential",
        -9.836257433499105
      ],
      [
        "▁мой",
        -9.837771061634664
      ],
      [
        "capacity",
        -9.837847695662456
      ],
      [
        "▁Хот",
        -9.837857905554122
      ],
      [
        "▁major",
        -9.837916173139599
      ],
      [
        "▁постоянно",
        -9.838322886533726
      ],
      [
        "▁одно",
        -9.839034842328783
      ],
      [
        "▁making",
        -9.839068852012531
      ],
      [
        "▁cost",
        -9.840544742483171
      ],
      [
        "▁наши",
        -9.840935432330099
      ],
      [
        "могли",
        -9.841490382081707
      ],
      [
        "▁систем",
        -9.842592529417088
      ],
      [
        "▁новый",
        -9.842613502941731
      ],
      [
        "▁Стриптиз",
        -9.843489183202461
      ],
      [
        "▁hours",
        -9.844074571320766
      ],
      [
        "▁осуществлени",
        -9.844721644911843
      ],
      [
        "▁content",
        -9.844813056135697
      ],
      [
        "▁Lord",
        -9.844851175893137
      ],
      [
        "▁authorities",
        -9.844899789917996
      ],
      [
        "▁community",
        -9.84517931288701
      ],
      [
        "▁rooms",
        -9.845522065845916
      ],
      [
        "▁enjoy",
        -9.847020803537312
      ],
      [
        "be",
        -9.847564190540139
      ],
      [
        "▁своим",
        -9.848072545776358
      ],
      [
        "▁анализа",
        -9.848768204334446
      ],
      [
        "▁More",
        -9.849180436725657
      ],
      [
        "▁Azerbaijan",
        -9.850036548055824
      ],
      [
        "▁Q",
        -9.850401069807772
      ],
      [
        "▁ним",
        -9.851689826118752
      ],
      [
        "▁бизнес",
        -9.851850187232976
      ],
      [
        "▁населения",
        -9.852918937659245
      ],
      [
        "иметь",
        -9.853261799334339
      ],
      [
        "▁IP",
        -9.855872029510694
      ],
      [
        "almost",
        -9.856455574382299
      ],
      [
        "▁operation",
        -9.85710491164913
      ],
      [
        "▁работе",
        -9.857127584027456
      ],
      [
        "▁клиентов",
        -9.858493164895165
      ],
      [
        "▁child",
        -9.859246010294958
      ],
      [
        "▁face",
        -9.860868764411746
      ],
      [
        "▁состоит",
        -9.86100916197939
      ],
      [
        "▁обычно",
        -9.862278910973687
      ],
      [
        "▁session",
        -9.862444735748255
      ],
      [
        "▁begin",
        -9.862863989104333
      ],
      [
        "▁многие",
        -9.863337323546622
      ],
      [
        "▁стране",
        -9.863813039498242
      ],
      [
        "▁пор",
        -9.865587795659561
      ],
      [
        "▁Нет",
        -9.866095891024178
      ],
      [
        "at",
        -9.867731811777086
      ],
      [
        "▁past",
        -9.867830149739335
      ],
      [
        "ance",
        -9.86788157478712
      ],
      [
        "having",
        -9.868742700638862
      ],
      [
        "▁later",
        -9.868963031970766
      ],
      [
        "▁Service",
        -9.871311872899822
      ],
      [
        "▁City",
        -9.87205460756967
      ],
      [
        "тому",
        -9.87307181235711
      ],
      [
        "▁Then",
        -9.873369375698449
      ],
      [
        "ant",
        -9.873400843156455
      ],
      [
        "ничего",
        -9.874269244124209
      ],
      [
        "true",
        -9.874872389655957
      ],
      [
        "▁UN",
        -9.875434739080225
      ],
      [
        "▁complete",
        -9.875786102357702
      ],
      [
        "▁мая",
        -9.876047684171219
      ],
      [
        "▁Latvia",
        -9.876405550254626
      ],
      [
        "way",
        -9.876579521115014
      ],
      [
        "▁Day",
        -9.877014426555105
      ],
      [
        "Article",
        -9.87701633624732
      ],
      [
        "▁video",
        -9.877608762375344
      ],
      [
        "▁Convention",
        -9.877667829429537
      ],
      [
        "▁Вам",
        -9.880067923389467
      ],
      [
        "сказать",
        -9.88039180974675
      ],
      [
        "▁capital",
        -9.880427614676412
      ],
      [
        "▁speed",
        -9.88044916001207
      ],
      [
        "▁express",
        -9.881420996312807
      ],
      [
        "▁US",
        -9.882595362493188
      ],
      [
        "▁номер",
        -9.883714440716595
      ],
      [
        "▁discuss",
        -9.884705265324701
      ],
      [
        "▁attention",
        -9.885316094346141
      ],
      [
        "▁Al",
        -9.885337525731174
      ],
      [
        "ach",
        -9.885724095977006
      ],
      [
        "▁стал",
        -9.886128156892852
      ],
      [
        "▁date",
        -9.886266401124576
      ],
      [
        "ov",
        -9.886845575545706
      ],
      [
        "▁especially",
        -9.887501564809023
      ],
      [
        "▁art",
        -9.887693937124531
      ],
      [
        "▁те",
        -9.887712005172716
      ],
      [
        "▁five",
        -9.887858611766344
      ],
      [
        "▁persons",
        -9.889565287810674
      ],
      [
        "▁sector",
        -9.890238353480989
      ],
      [
        "▁leave",
        -9.890408978707196
      ],
      [
        "Y",
        -9.890720369741247
      ],
      [
        "land",
        -9.892175726732551
      ],
      [
        "provides",
        -9.892394205504164
      ],
      [
        "ым",
        -9.892694051027917
      ],
      [
        "▁июн",
        -9.893155296889852
      ],
      [
        "▁Yes",
        -9.893345480819994
      ],
      [
        "любой",
        -9.893390389851223
      ],
      [
        "▁ПК",
        -9.894174938637956
      ],
      [
        "▁easy",
        -9.894605986510772
      ],
      [
        "▁однако",
        -9.89496176768281
      ],
      [
        "▁System",
        -9.895054720904437
      ],
      [
        "▁less",
        -9.895168570465069
      ],
      [
        "▁Central",
        -9.895586974107767
      ],
      [
        "▁test",
        -9.895886801857811
      ],
      [
        "▁client",
        -9.896657233950656
      ],
      [
        "▁отношения",
        -9.897199797436047
      ],
      [
        "▁общества",
        -9.897927502597309
      ],
      [
        "▁До",
        -9.898594440198021
      ],
      [
        "▁line",
        -9.899021815315535
      ],
      [
        "▁conference",
        -9.899267915191315
      ],
      [
        "became",
        -9.899311102103532
      ],
      [
        "went",
        -9.899581192183998
      ],
      [
        "▁Security",
        -9.899829196417247
      ],
      [
        "▁population",
        -9.901645827320396
      ],
      [
        "▁read",
        -9.901858918573675
      ],
      [
        "▁allow",
        -9.901896161853589
      ],
      [
        "▁Israel",
        -9.90222115211355
      ],
      [
        "▁Show",
        -9.902235982071534
      ],
      [
        "▁cover",
        -9.904465552513368
      ],
      [
        "ности",
        -9.90571871151224
      ],
      [
        "▁интернет",
        -9.905990663749078
      ],
      [
        "▁Be",
        -9.905997198158373
      ],
      [
        "▁prevent",
        -9.906098590773706
      ],
      [
        "от",
        -9.906414689359842
      ],
      [
        "▁force",
        -9.907369727085225
      ],
      [
        "▁From",
        -9.907476467606914
      ],
      [
        "▁Pro",
        -9.907563073906596
      ],
      [
        "▁unique",
        -9.908034006311736
      ],
      [
        "▁развитие",
        -9.908497617568266
      ],
      [
        "▁дел",
        -9.908534677043887
      ],
      [
        "▁группа",
        -9.909375807481725
      ],
      [
        "ния",
        -9.91017271862501
      ],
      [
        "▁см",
        -9.910546429052749
      ],
      [
        "over",
        -9.910969197229226
      ],
      [
        "▁одна",
        -9.910994025181488
      ],
      [
        "▁minutes",
        -9.911293635364723
      ],
      [
        "▁allows",
        -9.91182981409512
      ],
      [
        "настоящее",
        -9.912584405702466
      ],
      [
        "▁Из",
        -9.91311123363028
      ],
      [
        "told",
        -9.913474929264844
      ],
      [
        "▁благодаря",
        -9.91530285999173
      ],
      [
        "▁Free",
        -9.91558277289136
      ],
      [
        "▁study",
        -9.915671040469007
      ],
      [
        "▁мере",
        -9.91616760060056
      ],
      [
        "ец",
        -9.916196605966103
      ],
      [
        "▁частност",
        -9.916744878830386
      ],
      [
        "▁bank",
        -9.917340022379495
      ],
      [
        "ors",
        -9.918392850361185
      ],
      [
        "along",
        -9.91985721304141
      ],
      [
        "▁ask",
        -9.919865502073396
      ],
      [
        "▁представляет",
        -9.920651891597092
      ],
      [
        "▁счет",
        -9.920753375104773
      ],
      [
        "▁physical",
        -9.921276742682402
      ],
      [
        "▁закон",
        -9.921413210623719
      ],
      [
        "economy",
        -9.922148720392029
      ],
      [
        "▁Region",
        -9.922892181932813
      ],
      [
        "▁модель",
        -9.922949641606074
      ],
      [
        "ship",
        -9.925920246862356
      ],
      [
        "▁staff",
        -9.926214969488447
      ],
      [
        "▁необходим",
        -9.927595255226654
      ],
      [
        "no",
        -9.92880747582549
      ],
      [
        "▁ass",
        -9.929397443393153
      ],
      [
        "j",
        -9.929555980667244
      ],
      [
        "During",
        -9.93026336961168
      ],
      [
        "ous",
        -9.931035251979782
      ],
      [
        "ar",
        -9.931219756977624
      ],
      [
        "▁book",
        -9.931235312168768
      ],
      [
        "considered",
        -9.931304469555307
      ],
      [
        "меры",
        -9.932282573775643
      ],
      [
        "▁moment",
        -9.932691079044508
      ],
      [
        "▁делать",
        -9.932795348579704
      ],
      [
        "▁death",
        -9.93319303017141
      ],
      [
        "▁имени",
        -9.933392334961388
      ],
      [
        "▁run",
        -9.933494223880412
      ],
      [
        "▁matter",
        -9.93403360675976
      ],
      [
        "зависимости",
        -9.93474858146075
      ],
      [
        "▁exhibition",
        -9.934846180794231
      ],
      [
        "▁develop",
        -9.934987186552188
      ],
      [
        "ходят",
        -9.935365733357319
      ],
      [
        "▁центра",
        -9.935825514188926
      ],
      [
        "▁popular",
        -9.935886542347447
      ],
      [
        "▁themselves",
        -9.935910688206027
      ],
      [
        "▁previous",
        -9.93629489681277
      ],
      [
        "неделю",
        -9.936517837306253
      ],
      [
        "▁documents",
        -9.938603237863099
      ],
      [
        "ность",
        -9.939239255329525
      ],
      [
        "▁beautiful",
        -9.940255349754407
      ],
      [
        "▁Тепер",
        -9.940272835767393
      ],
      [
        "▁Совета",
        -9.940394196682021
      ],
      [
        "Г",
        -9.941467480358964
      ],
      [
        "▁investment",
        -9.941584315481107
      ],
      [
        "▁peace",
        -9.941636385008627
      ],
      [
        "▁занима",
        -9.941761676021398
      ],
      [
        "▁проведения",
        -9.94197654383747
      ],
      [
        "▁participants",
        -9.942142993949856
      ],
      [
        "▁includes",
        -9.942225031442332
      ],
      [
        "▁rate",
        -9.942374406976997
      ],
      [
        "ting",
        -9.942522393566344
      ],
      [
        "nothing",
        -9.943787277840444
      ],
      [
        "▁Ю",
        -9.943939213525868
      ],
      [
        "▁пользователя",
        -9.94614243345077
      ],
      [
        "▁tax",
        -9.946519290913974
      ],
      [
        "▁сотрудничества",
        -9.94662153445246
      ],
      [
        "▁телефон",
        -9.947032665051147
      ],
      [
        "▁состав",
        -9.94708222138831
      ],
      [
        "▁demand",
        -9.947227256988462
      ],
      [
        "▁English",
        -9.948422827720417
      ],
      [
        "▁предприятия",
        -9.948504210956678
      ],
      [
        "out",
        -9.949875956511013
      ],
      [
        "ive",
        -9.950975621251786
      ],
      [
        "early",
        -9.951237150209282
      ],
      [
        "Д",
        -9.951337002490149
      ],
      [
        "itself",
        -9.951457175558367
      ],
      [
        "▁работает",
        -9.95169995132502
      ],
      [
        "▁American",
        -9.952249645311793
      ],
      [
        "▁Of",
        -9.952548386678778
      ],
      [
        "ф",
        -9.95288875896251
      ],
      [
        "▁America",
        -9.953285806108502
      ],
      [
        "▁device",
        -9.953498268849208
      ],
      [
        "▁Director",
        -9.954002090404375
      ],
      [
        "▁декабр",
        -9.956043749713253
      ],
      [
        "▁got",
        -9.95612483837402
      ],
      [
        "▁задач",
        -9.956210197224287
      ],
      [
        "▁расширения",
        -9.956417566515498
      ],
      [
        "▁card",
        -9.956511171006756
      ],
      [
        "▁Грузи",
        -9.957215036683367
      ],
      [
        "▁anal",
        -9.957864854544551
      ],
      [
        "ны",
        -9.958179774477532
      ],
      [
        "П",
        -9.958370558643713
      ],
      [
        "▁предлагает",
        -9.958693448137131
      ],
      [
        "▁лица",
        -9.958987825250135
      ],
      [
        "▁месяц",
        -9.95904622818221
      ],
      [
        "▁центр",
        -9.959763148883688
      ],
      [
        "юсь",
        -9.960036613320327
      ],
      [
        "первый",
        -9.9602694327103
      ],
      [
        "▁Бог",
        -9.960445322848091
      ],
      [
        "▁ваши",
        -9.962123339128446
      ],
      [
        "▁attack",
        -9.96252874817826
      ],
      [
        "▁Air",
        -9.962658965973613
      ],
      [
        "▁информация",
        -9.96392314825958
      ],
      [
        "▁choose",
        -9.964279614270644
      ],
      [
        "▁точно",
        -9.96516475635102
      ],
      [
        "▁каждого",
        -9.965595473479265
      ],
      [
        "▁нажмите",
        -9.966668017289177
      ],
      [
        "time",
        -9.96687021131246
      ],
      [
        "▁Н",
        -9.967567448848154
      ],
      [
        "Why",
        -9.968700533804254
      ],
      [
        "▁деятельность",
        -9.968857344269171
      ],
      [
        "▁жопа",
        -9.969019642868762
      ],
      [
        "▁built",
        -9.969083880549837
      ],
      [
        "▁Moldova",
        -9.969388296628853
      ],
      [
        "▁пункт",
        -9.969514685466791
      ],
      [
        "▁мест",
        -9.969785586067031
      ],
      [
        "▁Well",
        -9.96990781072793
      ],
      [
        "▁amateur",
        -9.969910090239116
      ],
      [
        "▁пути",
        -9.970490599063888
      ],
      [
        "▁ко",
        -9.97071013167566
      ],
      [
        "▁respect",
        -9.971803343909958
      ],
      [
        "▁transport",
        -9.97198195275808
      ],
      [
        "всю",
        -9.972362651432528
      ],
      [
        "▁Please",
        -9.972429772016717
      ],
      [
        "▁communication",
        -9.972606884271963
      ],
      [
        "▁opportunity",
        -9.97321114121988
      ],
      [
        "▁scientific",
        -9.973754225163372
      ],
      [
        "▁Christ",
        -9.974940273374004
      ],
      [
        "▁размер",
        -9.975335474890958
      ],
      [
        "▁вид",
        -9.975582466229923
      ],
      [
        "▁night",
        -9.976650762988237
      ],
      [
        "▁ответ",
        -9.976733074187951
      ],
      [
        "▁действительно",
        -9.978004795516748
      ],
      [
        "▁text",
        -9.97830834805022
      ],
      [
        "▁условия",
        -9.978334502635164
      ],
      [
        "▁structure",
        -9.97839473956587
      ],
      [
        "says",
        -9.980439469503205
      ],
      [
        "▁connection",
        -9.980829323692468
      ],
      [
        "условиях",
        -9.98099476706768
      ],
      [
        "▁Президент",
        -9.981098839403456
      ],
      [
        "▁апрел",
        -9.981183197888736
      ],
      [
        "▁ноябр",
        -9.982196597283858
      ],
      [
        "cases",
        -9.98227684037427
      ],
      [
        "doesn",
        -9.9823511479559
      ],
      [
        "▁idea",
        -9.982851876142986
      ],
      [
        "▁нами",
        -9.984580108094347
      ],
      [
        "▁Oil",
        -9.984633007516551
      ],
      [
        "знать",
        -9.984886497794921
      ],
      [
        "▁provision",
        -9.985867334579888
      ],
      [
        "▁press",
        -9.986008155421715
      ],
      [
        "ООН",
        -9.986132526243601
      ],
      [
        "▁customers",
        -9.986478588684484
      ],
      [
        "▁culture",
        -9.987661178611999
      ],
      [
        "▁роль",
        -9.98806522645235
      ],
      [
        "▁Гейдар",
        -9.988535697859374
      ],
      [
        "казать",
        -9.988588154741555
      ],
      [
        "▁заявил",
        -9.988799386276163
      ],
      [
        "▁Law",
        -9.989124627390298
      ],
      [
        "дает",
        -9.989189624580048
      ],
      [
        "institutions",
        -9.989814130517756
      ],
      [
        "рынка",
        -9.990203951571997
      ],
      [
        "▁Главная",
        -9.990477187467604
      ],
      [
        "▁которым",
        -9.990496405944347
      ],
      [
        "▁section",
        -9.991169643464563
      ],
      [
        "▁сфере",
        -9.992208683155424
      ],
      [
        "▁нескольких",
        -9.993500931056369
      ],
      [
        "▁выберите",
        -9.993712109546417
      ],
      [
        "Heydar",
        -9.993762661445876
      ],
      [
        "▁represent",
        -9.993946800081016
      ],
      [
        "▁appear",
        -9.994515254362001
      ],
      [
        "▁Google",
        -9.994569378290052
      ],
      [
        "▁Про",
        -9.99457428596868
      ],
      [
        "▁hope",
        -9.995018202655535
      ],
      [
        "▁standard",
        -9.995336460305186
      ],
      [
        "included",
        -9.995623317179117
      ],
      [
        "▁международных",
        -9.995759444950151
      ],
      [
        "▁Живо",
        -9.996728673708349
      ],
      [
        "▁хотел",
        -9.997072290061459
      ],
      [
        "▁цвет",
        -9.997077243349894
      ],
      [
        "▁discover",
        -9.997183775701721
      ],
      [
        "вая",
        -9.99819647448622
      ],
      [
        "developing",
        -9.998232258171015
      ],
      [
        "▁Таки",
        -9.998508247222455
      ],
      [
        "▁Co",
        -9.998718425599167
      ],
      [
        "accordance",
        -9.998986337340558
      ],
      [
        "▁поддержки",
        -9.99945120213847
      ],
      [
        "▁бесплатно",
        -10.000885784041172
      ],
      [
        "▁июл",
        -10.001543979645756
      ],
      [
        "▁relations",
        -10.00160747823283
      ],
      [
        "▁вариант",
        -10.001891214118745
      ],
      [
        "▁word",
        -10.001924222069453
      ],
      [
        "▁деле",
        -10.001944456381917
      ],
      [
        "▁maintain",
        -10.002572847464249
      ],
      [
        "▁Danc",
        -10.002716680556855
      ],
      [
        "путем",
        -10.006106417589326
      ],
      [
        "▁пыта",
        -10.00626294617459
      ],
      [
        "▁доступа",
        -10.007367911501861
      ],
      [
        "точки",
        -10.007743557725078
      ],
      [
        "▁игрок",
        -10.007870969747206
      ],
      [
        "Б",
        -10.008424934912943
      ],
      [
        "хотите",
        -10.00869473518102
      ],
      [
        "некоторых",
        -10.008860695404536
      ],
      [
        "▁известны",
        -10.009737370879227
      ],
      [
        "▁организаций",
        -10.010094379777318
      ],
      [
        "реализации",
        -10.01129262021507
      ],
      [
        "▁нашего",
        -10.011385343731813
      ],
      [
        "▁трех",
        -10.012790844435143
      ],
      [
        "designed",
        -10.012825295528302
      ],
      [
        "variet",
        -10.013677756001579
      ],
      [
        "▁выше",
        -10.014829115622526
      ],
      [
        "operating",
        -10.014964386096642
      ],
      [
        "▁государств",
        -10.01590252387902
      ],
      [
        "representatives",
        -10.016171240906672
      ],
      [
        "▁анал",
        -10.016779736124157
      ],
      [
        "▁fully",
        -10.016940588341354
      ],
      [
        "highly",
        -10.017009805334146
      ],
      [
        "действий",
        -10.017269859087413
      ],
      [
        "▁Board",
        -10.018369415055536
      ],
      [
        "▁отметил",
        -10.018956363391602
      ],
      [
        "▁De",
        -10.020502682575195
      ],
      [
        "▁hotels",
        -10.02052777040877
      ],
      [
        "▁sent",
        -10.021560952276118
      ],
      [
        "▁stage",
        -10.021663281897931
      ],
      [
        "▁нового",
        -10.022026805724634
      ],
      [
        "Serbia",
        -10.022398354993184
      ],
      [
        "▁simple",
        -10.022739858776163
      ],
      [
        "▁August",
        -10.023539944965808
      ],
      [
        "▁civil",
        -10.023621279103187
      ],
      [
        "▁correct",
        -10.023921059768597
      ],
      [
        "экономики",
        -10.024464880313685
      ],
      [
        "▁box",
        -10.024918901954821
      ],
      [
        "▁makes",
        -10.025277204551914
      ],
      [
        "▁code",
        -10.025317442818654
      ],
      [
        "▁Management",
        -10.025451691879697
      ],
      [
        "▁message",
        -10.02545854235904
      ],
      [
        "regarding",
        -10.025469498698943
      ],
      [
        "▁buy",
        -10.02605060261852
      ],
      [
        "▁Company",
        -10.026488893384926
      ],
      [
        "▁сам",
        -10.026885149696128
      ],
      [
        "▁процесса",
        -10.026891238013421
      ],
      [
        "▁оборудования",
        -10.026895748148515
      ],
      [
        "▁save",
        -10.027626211281586
      ],
      [
        "▁significant",
        -10.028563879867724
      ],
      [
        "Extension",
        -10.02888616216254
      ],
      [
        "▁South",
        -10.028986734747567
      ],
      [
        "▁components",
        -10.029117824763453
      ],
      [
        "▁сайта",
        -10.02971107392492
      ],
      [
        "▁годы",
        -10.02973589213873
      ],
      [
        "▁deal",
        -10.030287047102417
      ],
      [
        "▁send",
        -10.030609925915353
      ],
      [
        "▁дела",
        -10.031026228314962
      ],
      [
        "▁истории",
        -10.032164387475381
      ],
      [
        "ских",
        -10.033504460906698
      ],
      [
        "enough",
        -10.03394877538834
      ],
      [
        "needs",
        -10.034300980767588
      ],
      [
        "▁Некоторы",
        -10.03528738340948
      ],
      [
        "▁machine",
        -10.035393654582204
      ],
      [
        "У",
        -10.03585775791054
      ],
      [
        "increased",
        -10.036408785368197
      ],
      [
        "▁register",
        -10.036547239420232
      ],
      [
        "hile",
        -10.036592317378375
      ],
      [
        "Ukrainian",
        -10.037568669008607
      ],
      [
        "▁pool",
        -10.037618206872697
      ],
      [
        "settings",
        -10.037633947795808
      ],
      [
        "associated",
        -10.037755280858148
      ],
      [
        "млн",
        -10.038052431294597
      ],
      [
        "▁conflict",
        -10.03842214906877
      ],
      [
        "▁Room",
        -10.03860867955171
      ],
      [
        "получения",
        -10.039155872689577
      ],
      [
        "▁practice",
        -10.039393436949222
      ],
      [
        "▁могу",
        -10.039537142519649
      ],
      [
        "mail",
        -10.039928144265572
      ],
      [
        "▁самым",
        -10.040052517626652
      ],
      [
        "▁часов",
        -10.040454429538322
      ],
      [
        "▁продукции",
        -10.040931570971829
      ],
      [
        "▁Федераци",
        -10.040931589588014
      ],
      [
        "▁воздух",
        -10.041301784820746
      ],
      [
        "el",
        -10.041768706620664
      ],
      [
        "leading",
        -10.042001751761083
      ],
      [
        "men",
        -10.042375265645546
      ],
      [
        "▁ресурсов",
        -10.043575340553915
      ],
      [
        "▁качество",
        -10.045450690358154
      ],
      [
        "▁games",
        -10.045586329411973
      ],
      [
        "▁Other",
        -10.045849039479458
      ],
      [
        "▁цен",
        -10.046905838156384
      ],
      [
        "вашей",
        -10.046976244232109
      ],
      [
        "▁association",
        -10.047695065044023
      ],
      [
        "▁treat",
        -10.047879458840573
      ],
      [
        "▁bathroom",
        -10.04910273841097
      ],
      [
        "▁adopt",
        -10.049681457737774
      ],
      [
        "▁город",
        -10.049756730485624
      ],
      [
        "следующие",
        -10.049758590492875
      ],
      [
        "▁работа",
        -10.051181873337729
      ],
      [
        "из",
        -10.052135023768601
      ],
      [
        "▁download",
        -10.052473684291574
      ],
      [
        "▁methods",
        -10.05336042293568
      ],
      [
        "quite",
        -10.053455165665056
      ],
      [
        "▁district",
        -10.053917153667793
      ],
      [
        "▁номера",
        -10.05408773797078
      ],
      [
        "▁составляет",
        -10.054707725182253
      ],
      [
        "начать",
        -10.054715641799177
      ],
      [
        "ory",
        -10.05628008007283
      ],
      [
        "▁music",
        -10.056435667028603
      ],
      [
        "▁Интернет",
        -10.056552841846974
      ],
      [
        "сюда",
        -10.056700829553888
      ],
      [
        "▁citizens",
        -10.05688825172867
      ],
      [
        "▁случая",
        -10.058092456395794
      ],
      [
        "▁won",
        -10.05818935677182
      ],
      [
        "‘",
        -10.058860507322697
      ],
      [
        "изменить",
        -10.05993569703221
      ],
      [
        "▁location",
        -10.061209860149381
      ],
      [
        "▁помощь",
        -10.061508151716085
      ],
      [
        "да",
        -10.062114936513948
      ],
      [
        "freedom",
        -10.062468383519525
      ],
      [
        "▁stop",
        -10.062754268045564
      ],
      [
        "▁Генерально",
        -10.062879952703517
      ],
      [
        "▁обеспечить",
        -10.063298533270139
      ],
      [
        "▁supply",
        -10.063345333649057
      ],
      [
        "▁credit",
        -10.06340681940658
      ],
      [
        "of",
        -10.063644586856942
      ],
      [
        "словам",
        -10.064300488082818
      ],
      [
        "▁exchange",
        -10.064419947274267
      ],
      [
        "▁II",
        -10.064675593032305
      ],
      [
        "term",
        -10.06475993531817
      ],
      [
        "▁image",
        -10.06530611864561
      ],
      [
        "▁centre",
        -10.065614903111397
      ],
      [
        "▁Роле",
        -10.06679930436281
      ],
      [
        "▁format",
        -10.066975863081803
      ],
      [
        "▁serious",
        -10.067201291232008
      ],
      [
        "▁answer",
        -10.067269989984755
      ],
      [
        "▁компаний",
        -10.068080305749769
      ],
      [
        "likely",
        -10.068374117197505
      ],
      [
        "▁январ",
        -10.068421986119393
      ],
      [
        "проектов",
        -10.068865765632701
      ],
      [
        "▁similar",
        -10.069640430789784
      ],
      [
        "▁collection",
        -10.069908169428734
      ],
      [
        "▁создать",
        -10.070079388043196
      ],
      [
        "▁domain",
        -10.070708735411808
      ],
      [
        "▁Sea",
        -10.070777758295275
      ],
      [
        "▁сентября",
        -10.071283563177252
      ],
      [
        "▁solution",
        -10.071597313054463
      ],
      [
        "▁море",
        -10.071848843229883
      ],
      [
        "▁recommend",
        -10.072660819992457
      ],
      [
        "started",
        -10.073275882795615
      ],
      [
        "rather",
        -10.073288015635843
      ],
      [
        "▁Сним",
        -10.073565064766347
      ],
      [
        "почему",
        -10.074470637699834
      ],
      [
        "▁наш",
        -10.074640235420791
      ],
      [
        "такое",
        -10.074848469011553
      ],
      [
        "▁launch",
        -10.075057981709625
      ],
      [
        "February",
        -10.075371949834247
      ],
      [
        "▁доступны",
        -10.075458629613578
      ],
      [
        "▁пожалуйста",
        -10.075575529993152
      ],
      [
        "▁active",
        -10.075614945206434
      ],
      [
        "службы",
        -10.075735235768947
      ],
      [
        "began",
        -10.076738592387342
      ],
      [
        "▁via",
        -10.076772633405872
      ],
      [
        "ready",
        -10.077007325930293
      ],
      [
        "▁Information",
        -10.077713516446359
      ],
      [
        "▁прежде",
        -10.077911752524194
      ],
      [
        "▁lead",
        -10.08016178926373
      ],
      [
        "ch",
        -10.080477206018536
      ],
      [
        "▁происходит",
        -10.080630291661674
      ],
      [
        "▁число",
        -10.08074352787662
      ],
      [
        "▁последние",
        -10.081585146819611
      ],
      [
        "▁Germany",
        -10.081794085501995
      ],
      [
        "файлы",
        -10.082202392069211
      ],
      [
        "▁знаю",
        -10.083219397342617
      ],
      [
        "АО",
        -10.083466861643616
      ],
      [
        "▁separate",
        -10.08370796180724
      ],
      [
        "▁месте",
        -10.083715865720643
      ],
      [
        "▁использование",
        -10.084473657245868
      ],
      [
        "▁Россия",
        -10.085281041708253
      ],
      [
        "units",
        -10.085447556939945
      ],
      [
        "ka",
        -10.085753308107092
      ],
      [
        "поддержку",
        -10.086075661057883
      ],
      [
        "технологий",
        -10.086148009566317
      ],
      [
        "oleplay",
        -10.086562634189224
      ],
      [
        "▁граждан",
        -10.086813535176637
      ],
      [
        "▁работать",
        -10.087603835878765
      ],
      [
        "тесь",
        -10.089171219439756
      ],
      [
        "▁document",
        -10.089192472539773
      ],
      [
        "▁борьб",
        -10.089487363435463
      ],
      [
        "▁вот",
        -10.089547715646058
      ],
      [
        "▁walk",
        -10.089901025041085
      ],
      [
        "▁anti",
        -10.090067229292629
      ],
      [
        "▁travel",
        -10.090951290793845
      ],
      [
        "▁inside",
        -10.090971029391104
      ],
      [
        "▁цели",
        -10.091240999558657
      ],
      [
        "▁post",
        -10.092101639138907
      ],
      [
        "э",
        -10.092740766937075
      ],
      [
        "▁рынке",
        -10.093481960716208
      ],
      [
        "▁тысяч",
        -10.09483024994764
      ],
      [
        "▁beginning",
        -10.095092770785032
      ],
      [
        "looking",
        -10.095465363657581
      ],
      [
        "▁Un",
        -10.095594415688117
      ],
      [
        "▁German",
        -10.095602734361078
      ],
      [
        "▁Совет",
        -10.096283252865891
      ],
      [
        "▁basic",
        -10.09630006968394
      ],
      [
        "▁Let",
        -10.09669485972091
      ],
      [
        "longer",
        -10.097553069335678
      ],
      [
        "другими",
        -10.09757916501829
      ],
      [
        "▁EU",
        -10.098030040682476
      ],
      [
        "▁half",
        -10.098532844154747
      ],
      [
        "▁Use",
        -10.09863712371508
      ],
      [
        "▁sale",
        -10.09935770397542
      ],
      [
        "seen",
        -10.100180335560378
      ],
      [
        "▁enable",
        -10.100867416697193
      ],
      [
        "▁San",
        -10.102304390519107
      ],
      [
        "▁технологии",
        -10.103831297204772
      ],
      [
        "▁move",
        -10.103914002744963
      ],
      [
        "assistance",
        -10.103956988183512
      ],
      [
        "▁дело",
        -10.10411482861667
      ],
      [
        "принять",
        -10.104446978944837
      ],
      [
        "▁Ну",
        -10.105112594738314
      ],
      [
        "▁direct",
        -10.105352292025833
      ],
      [
        "relevant",
        -10.10562422369649
      ],
      [
        "▁command",
        -10.105945797949111
      ],
      [
        "▁относительно",
        -10.105961362063866
      ],
      [
        "▁drive",
        -10.10599537136531
      ],
      [
        "▁скорость",
        -10.106283620073702
      ],
      [
        "▁choice",
        -10.1068946267288
      ],
      [
        "▁язык",
        -10.107033370243132
      ],
      [
        "anything",
        -10.10734847868686
      ],
      [
        "▁доклад",
        -10.107377890842875
      ],
      [
        "означает",
        -10.107450880419178
      ],
      [
        "▁отеля",
        -10.107558888784887
      ],
      [
        "▁rules",
        -10.107683729429011
      ],
      [
        "▁points",
        -10.108058494930397
      ],
      [
        "▁volume",
        -10.108082260177786
      ],
      [
        "▁manufacturer",
        -10.108403367954852
      ],
      [
        "▁Party",
        -10.108703736001072
      ],
      [
        "Snapshot",
        -10.10905653363035
      ],
      [
        "ете",
        -10.110756032974642
      ],
      [
        "useful",
        -10.111795969187623
      ],
      [
        "series",
        -10.112183176277812
      ],
      [
        "▁safe",
        -10.112555701975756
      ],
      [
        "▁поставщик",
        -10.112719605967351
      ],
      [
        "▁Y",
        -10.113290837152821
      ],
      [
        "existing",
        -10.113403285011433
      ],
      [
        "▁add",
        -10.114906499157817
      ],
      [
        "центре",
        -10.115102730897176
      ],
      [
        "▁applications",
        -10.115120490888843
      ],
      [
        "▁социально",
        -10.115686692223539
      ],
      [
        "▁две",
        -10.115837013855455
      ],
      [
        "▁table",
        -10.116889478042484
      ],
      [
        "▁cultural",
        -10.117089812452587
      ],
      [
        "▁делает",
        -10.117193035625238
      ],
      [
        "связанные",
        -10.117196558149088
      ],
      [
        "гг",
        -10.117528516321336
      ],
      [
        "▁практически",
        -10.117917643516813
      ],
      [
        "▁городе",
        -10.11802815920135
      ],
      [
        "▁lower",
        -10.118056635848312
      ],
      [
        "▁option",
        -10.118170631863524
      ],
      [
        "новой",
        -10.118263839693576
      ],
      [
        "▁War",
        -10.118408320110717
      ],
      [
        "▁spiritual",
        -10.121250300324228
      ],
      [
        "▁black",
        -10.121621308993172
      ],
      [
        "▁blood",
        -10.12200956321651
      ],
      [
        "▁мои",
        -10.122511548437078
      ],
      [
        "▁Android",
        -10.12302777751237
      ],
      [
        "▁obtain",
        -10.123036172133723
      ],
      [
        "конец",
        -10.12329549818636
      ],
      [
        "▁тоже",
        -10.12342350714419
      ],
      [
        "▁исследования",
        -10.123834287753384
      ],
      [
        "▁Institute",
        -10.124609033820784
      ],
      [
        "▁Вот",
        -10.124704587713472
      ],
      [
        "стью",
        -10.125981057707646
      ],
      [
        "ко",
        -10.126147385124295
      ],
      [
        "используется",
        -10.12665941288441
      ],
      [
        "▁Conference",
        -10.127066740779526
      ],
      [
        "▁подход",
        -10.127301988529732
      ],
      [
        "▁мужчин",
        -10.127599302080577
      ],
      [
        "▁Российско",
        -10.128242695152913
      ],
      [
        "инг",
        -10.129551263285288
      ],
      [
        "▁другим",
        -10.129881725270893
      ],
      [
        "▁presented",
        -10.130479459095097
      ],
      [
        "▁mature",
        -10.130546228821341
      ],
      [
        "sky",
        -10.130653745471056
      ],
      [
        "▁групп",
        -10.131794806267242
      ],
      [
        "▁consider",
        -10.131913573994634
      ],
      [
        "▁joint",
        -10.13234009111149
      ],
      [
        "ние",
        -10.132650489804629
      ],
      [
        "▁значительно",
        -10.134159982938655
      ],
      [
        "мочь",
        -10.135734414368518
      ],
      [
        "слишком",
        -10.136668614320529
      ],
      [
        "▁export",
        -10.137030319205532
      ],
      [
        "▁снова",
        -10.137257568808666
      ],
      [
        "▁этап",
        -10.138036026759238
      ],
      [
        "▁виде",
        -10.138337998638256
      ],
      [
        "▁Бога",
        -10.138851015248235
      ],
      [
        "mobile",
        -10.139023366442412
      ],
      [
        "марта",
        -10.140089555408537
      ],
      [
        "результаты",
        -10.14317960520368
      ],
      [
        "carried",
        -10.143324872889691
      ],
      [
        "▁implement",
        -10.143771551656515
      ],
      [
        "line",
        -10.143833940389554
      ],
      [
        "▁Asia",
        -10.144243306444915
      ],
      [
        "▁providing",
        -10.144567217850229
      ],
      [
        "▁типа",
        -10.144857426453559
      ],
      [
        "▁любительское",
        -10.1461397990864
      ],
      [
        "▁различные",
        -10.146322058011675
      ],
      [
        "▁source",
        -10.146459077184998
      ],
      [
        "▁Close",
        -10.147368833087048
      ],
      [
        "▁customer",
        -10.14739576514686
      ],
      [
        "Secretary",
        -10.147623260752503
      ],
      [
        "весьма",
        -10.147744658313218
      ],
      [
        "▁наук",
        -10.147766917466155
      ],
      [
        "▁base",
        -10.148107465036052
      ],
      [
        "▁пресс",
        -10.148219422118263
      ],
      [
        "▁гостей",
        -10.148416355789712
      ],
      [
        "▁рас",
        -10.148455946795108
      ],
      [
        "▁Oh",
        -10.14865109660426
      ],
      [
        "▁культуры",
        -10.148925781219587
      ],
      [
        "▁Dr",
        -10.14906112980566
      ],
      [
        "▁appropriate",
        -10.149067510864056
      ],
      [
        "▁payment",
        -10.149087506586826
      ],
      [
        "▁продуктов",
        -10.149257165370459
      ],
      [
        "▁medical",
        -10.149512606120165
      ],
      [
        "▁father",
        -10.149548006529765
      ],
      [
        "▁пользователей",
        -10.150860424638422
      ],
      [
        "▁Мне",
        -10.152263329748903
      ],
      [
        "▁co",
        -10.15275449866263
      ],
      [
        "▁function",
        -10.153109409905618
      ],
      [
        "▁содержит",
        -10.153309911121234
      ],
      [
        "▁Р",
        -10.15332146775698
      ],
      [
        "▁стоит",
        -10.154389806549283
      ],
      [
        "▁иностранных",
        -10.15450084923866
      ],
      [
        "▁линии",
        -10.155085277790382
      ],
      [
        "▁village",
        -10.155748581105843
      ],
      [
        "овой",
        -10.159548258487968
      ],
      [
        "▁систему",
        -10.159718699067906
      ],
      [
        "▁секс",
        -10.159783577240452
      ],
      [
        "▁план",
        -10.16009144396155
      ],
      [
        "▁technologies",
        -10.160211253757915
      ],
      [
        "▁Assembly",
        -10.160339184153722
      ],
      [
        "where",
        -10.161132873225437
      ],
      [
        "▁международного",
        -10.161181241130437
      ],
      [
        "▁обеспечивает",
        -10.161615155306725
      ],
      [
        "▁запрос",
        -10.161690544830769
      ],
      [
        "im",
        -10.162351372988557
      ],
      [
        "необходимости",
        -10.162742637251487
      ],
      [
        "▁площадь",
        -10.163060012829051
      ],
      [
        "▁приложение",
        -10.163707174653126
      ],
      [
        "▁казино",
        -10.165932393642032
      ],
      [
        "рд",
        -10.16609659047348
      ],
      [
        "▁совместно",
        -10.166379933783809
      ],
      [
        "▁материалов",
        -10.16643014445431
      ],
      [
        "▁window",
        -10.166896543841828
      ],
      [
        "▁king",
        -10.16695503674507
      ],
      [
        "soon",
        -10.16699109298103
      ],
      [
        "Т",
        -10.167028148720627
      ],
      [
        "▁progress",
        -10.167277058942137
      ],
      [
        "▁focus",
        -10.168270363186647
      ],
      [
        "▁силу",
        -10.168398514533475
      ],
      [
        "▁Л",
        -10.16892793209839
      ],
      [
        "▁пред",
        -10.16898796270851
      ],
      [
        "▁six",
        -10.169021094965444
      ],
      [
        "октября",
        -10.169057820627613
      ],
      [
        "▁installation",
        -10.169114587195734
      ],
      [
        "▁Code",
        -10.171603429975875
      ],
      [
        "зрения",
        -10.171699884113359
      ],
      [
        "▁clients",
        -10.17187906678423
      ],
      [
        "▁согласно",
        -10.172500482135762
      ],
      [
        "ful",
        -10.172628985167316
      ],
      [
        "▁budget",
        -10.173170354812203
      ],
      [
        "@",
        -10.173567086581672
      ],
      [
        "▁любы",
        -10.173852227440044
      ],
      [
        "▁правительства",
        -10.174595943384142
      ],
      [
        "▁fall",
        -10.175161172764625
      ],
      [
        "▁Since",
        -10.175379622624916
      ],
      [
        "▁список",
        -10.175398334853549
      ],
      [
        "роста",
        -10.175654871452869
      ],
      [
        "▁Court",
        -10.176169630750925
      ],
      [
        "▁task",
        -10.176663002766823
      ],
      [
        "усилия",
        -10.177070688656878
      ],
      [
        "everyone",
        -10.17716524111767
      ],
      [
        "▁социальны",
        -10.177423875255899
      ],
      [
        "index",
        -10.177457723385022
      ],
      [
        "across",
        -10.178289983558182
      ],
      [
        "▁расширени",
        -10.17894199453405
      ],
      [
        "▁truth",
        -10.179146889358858
      ],
      [
        "▁Special",
        -10.179158308276715
      ],
      [
        "disease",
        -10.179435602243746
      ],
      [
        "▁protect",
        -10.179757945151787
      ],
      [
        "details",
        -10.179912161752592
      ],
      [
        "ну",
        -10.180049415217136
      ],
      [
        "▁энергии",
        -10.180279131986644
      ],
      [
        "▁search",
        -10.180640028803346
      ],
      [
        "▁меньше",
        -10.181008899947344
      ],
      [
        "установки",
        -10.182813875154059
      ],
      [
        "▁step",
        -10.182817945829227
      ],
      [
        "▁procedure",
        -10.182819988388607
      ],
      [
        "▁причин",
        -10.182986606158103
      ],
      [
        "▁Park",
        -10.183571560123704
      ],
      [
        "behind",
        -10.184893323203857
      ],
      [
        "▁Georgia",
        -10.185730797518051
      ],
      [
        "▁seek",
        -10.185841514255857
      ],
      [
        "▁ЕС",
        -10.185898765560408
      ],
      [
        "▁экран",
        -10.186155083339095
      ],
      [
        "bodies",
        -10.186255061897546
      ],
      [
        "▁independent",
        -10.186325782037994
      ],
      [
        "▁программе",
        -10.186722421140596
      ],
      [
        "▁Analysis",
        -10.186926122608476
      ],
      [
        "▁Church",
        -10.187682189735153
      ],
      [
        "▁states",
        -10.187689328813322
      ],
      [
        "▁обеспечение",
        -10.18769116623103
      ],
      [
        "▁сведения",
        -10.18817271703657
      ],
      [
        "added",
        -10.188249325802838
      ],
      [
        "▁House",
        -10.188368173298302
      ],
      [
        "▁plant",
        -10.188872491904492
      ],
      [
        "▁существует",
        -10.189152072678926
      ],
      [
        "▁статус",
        -10.189155701534965
      ],
      [
        "former",
        -10.18921845589414
      ],
      [
        "ё",
        -10.189716934743748
      ],
      [
        "▁Сегодня",
        -10.190377076949927
      ],
      [
        "org",
        -10.190522706447474
      ],
      [
        "▁конце",
        -10.191007602766861
      ],
      [
        "for",
        -10.191123254567136
      ],
      [
        "основных",
        -10.191514765876857
      ],
      [
        "▁Казахстан",
        -10.19173521186918
      ],
      [
        "▁enter",
        -10.191774777437816
      ],
      [
        "ate",
        -10.192050254273152
      ],
      [
        "▁century",
        -10.192335466132652
      ],
      [
        "▁само",
        -10.192392158987595
      ],
      [
        "▁self",
        -10.193878127116166
      ],
      [
        "▁модели",
        -10.193940653620528
      ],
      [
        "▁среды",
        -10.194836219064346
      ],
      [
        "силы",
        -10.195043063413916
      ],
      [
        "elections",
        -10.1951175026474
      ],
      [
        "▁применения",
        -10.195805009054697
      ],
      [
        "▁Go",
        -10.196314736152681
      ],
      [
        "dom",
        -10.196604185280638
      ],
      [
        "therefore",
        -10.196658841137225
      ],
      [
        "questions",
        -10.196661391308007
      ],
      [
        "▁использует",
        -10.196807767565156
      ],
      [
        "▁контроля",
        -10.196894249564954
      ],
      [
        "▁факт",
        -10.198063882502977
      ],
      [
        "▁Компания",
        -10.198317454990377
      ],
      [
        "religious",
        -10.19911952160631
      ],
      [
        "▁opinion",
        -10.199680212640844
      ],
      [
        "▁минет",
        -10.200192674464477
      ],
      [
        "▁station",
        -10.200469422840452
      ],
      [
        "нибудь",
        -10.200494442846601
      ],
      [
        "▁Европы",
        -10.200761815694257
      ],
      [
        "▁pressure",
        -10.201326650962931
      ],
      [
        "▁мало",
        -10.202004239167996
      ],
      [
        "▁стратеги",
        -10.202069845745148
      ],
      [
        "▁да",
        -10.202908967360365
      ],
      [
        "деньги",
        -10.203053393691157
      ],
      [
        "actions",
        -10.20315780505026
      ],
      [
        "▁целом",
        -10.203528171192009
      ],
      [
        "reports",
        -10.204175355309777
      ],
      [
        "▁carry",
        -10.204647021081017
      ],
      [
        "▁wife",
        -10.204979966523721
      ],
      [
        "▁оборудование",
        -10.207268877678894
      ],
      [
        "▁traditional",
        -10.208454367185434
      ],
      [
        "Today",
        -10.208945470047778
      ],
      [
        "▁fire",
        -10.208956536533275
      ],
      [
        "▁impact",
        -10.20940478560545
      ],
      [
        "▁Finger",
        -10.209467801064443
      ],
      [
        "▁operations",
        -10.209486659744453
      ],
      [
        "▁Part",
        -10.209728746755099
      ],
      [
        "▁сами",
        -10.210681147415592
      ],
      [
        "▁пол",
        -10.210705898465713
      ],
      [
        "▁Not",
        -10.214033705386099
      ],
      [
        "standards",
        -10.214170955923125
      ],
      [
        "participation",
        -10.214391084382601
      ],
      [
        "▁reduce",
        -10.215447272388246
      ],
      [
        "▁Can",
        -10.215870391501378
      ],
      [
        "вер",
        -10.215979461714797
      ],
      [
        "aware",
        -10.216024083921974
      ],
      [
        "▁бизнеса",
        -10.216159450961303
      ],
      [
        "▁son",
        -10.21629553057305
      ],
      [
        "▁lines",
        -10.216398886625658
      ],
      [
        "овые",
        -10.216583513526972
      ],
      [
        "▁ними",
        -10.216617839337857
      ],
      [
        "▁правительство",
        -10.216847204956359
      ],
      [
        "initiative",
        -10.217819200314514
      ],
      [
        "▁creation",
        -10.218449502484688
      ],
      [
        "ization",
        -10.21869818729459
      ],
      [
        "go",
        -10.21919161838111
      ],
      [
        "▁tourist",
        -10.21943074917012
      ],
      [
        "▁Year",
        -10.220129391506067
      ],
      [
        "▁мог",
        -10.220692538489555
      ],
      [
        "▁French",
        -10.221077890659176
      ],
      [
        "▁age",
        -10.221081717664909
      ],
      [
        "▁drug",
        -10.221350079558801
      ],
      [
        "какие",
        -10.221372279187468
      ],
      [
        "ша",
        -10.221698585855881
      ],
      [
        "J",
        -10.22192394988616
      ],
      [
        "играть",
        -10.222975317047707
      ],
      [
        "▁mother",
        -10.223368046710844
      ],
      [
        "могут",
        -10.223374659152386
      ],
      [
        "▁регистрации",
        -10.223627179237194
      ],
      [
        "▁специально",
        -10.22365188351452
      ],
      [
        "сообщения",
        -10.223960713156359
      ],
      [
        "side",
        -10.224269538103131
      ],
      [
        "▁секунд",
        -10.22480457796167
      ],
      [
        "ские",
        -10.224861654249963
      ],
      [
        "brough",
        -10.224918198913844
      ],
      [
        "▁Фонд",
        -10.225016329645799
      ],
      [
        "▁положения",
        -10.22542987414524
      ],
      [
        "▁устройства",
        -10.225434905694405
      ],
      [
        "▁deep",
        -10.22632558781349
      ],
      [
        "▁surface",
        -10.227800194792989
      ],
      [
        "\n",
        -10.228136421885774
      ],
      [
        "хочу",
        -10.22852857257465
      ],
      [
        "▁outside",
        -10.228590482170125
      ],
      [
        "▁пляж",
        -10.228820217236917
      ],
      [
        "comes",
        -10.229079483588484
      ],
      [
        "▁сил",
        -10.229110720707881
      ],
      [
        "▁Web",
        -10.229353163112156
      ],
      [
        "▁blowjob",
        -10.22938248590516
      ],
      [
        "▁costs",
        -10.229729549040128
      ],
      [
        "▁нашу",
        -10.230187455581353
      ],
      [
        "настройки",
        -10.230476740231907
      ],
      [
        "▁note",
        -10.230803595941204
      ],
      [
        "▁мнени",
        -10.230804107069787
      ],
      [
        "▁Services",
        -10.230876104083874
      ],
      [
        "▁Э",
        -10.2318116230095
      ],
      [
        "▁создание",
        -10.232780226449147
      ],
      [
        "friends",
        -10.23298319615886
      ],
      [
        "▁draft",
        -10.233114803909665
      ],
      [
        "asked",
        -10.234359906257266
      ],
      [
        "▁election",
        -10.234992326275291
      ],
      [
        "▁reach",
        -10.235130024855255
      ],
      [
        "▁girl",
        -10.235194074252421
      ],
      [
        "deed",
        -10.236133189499737
      ],
      [
        "▁deposit",
        -10.237365102626457
      ],
      [
        "▁saw",
        -10.237414386015724
      ],
      [
        "при",
        -10.237456794215085
      ],
      [
        "▁решений",
        -10.23842119654031
      ],
      [
        "▁transfer",
        -10.238897625617103
      ],
      [
        "нять",
        -10.238938710455287
      ],
      [
        "▁kitchen",
        -10.239012777168204
      ],
      [
        "▁exist",
        -10.23950498751698
      ],
      [
        "▁bar",
        -10.239614690553113
      ],
      [
        "▁method",
        -10.239738083964022
      ],
      [
        "ков",
        -10.240632977571895
      ],
      [
        "▁claim",
        -10.240747922938072
      ],
      [
        "ст",
        -10.242514721681662
      ],
      [
        "▁percent",
        -10.24316609852492
      ],
      [
        "▁сравнени",
        -10.24356913633062
      ],
      [
        "разных",
        -10.243681528706063
      ],
      [
        "▁framework",
        -10.243684417940745
      ],
      [
        "damage",
        -10.243781840378134
      ],
      [
        "▁Серби",
        -10.244561650827956
      ],
      [
        "▁служб",
        -10.245119354730772
      ],
      [
        "▁www",
        -10.245454680835039
      ],
      [
        "ton",
        -10.245593057249891
      ],
      [
        "General",
        -10.24589527721984
      ],
      [
        "▁целе",
        -10.247797597060744
      ],
      [
        "▁comment",
        -10.24800587460943
      ],
      [
        "▁establish",
        -10.248108843731039
      ],
      [
        "▁Украине",
        -10.248363220018936
      ],
      [
        "co",
        -10.248567145441124
      ],
      [
        "▁университет",
        -10.249875989759865
      ],
      [
        "levels",
        -10.251260679226982
      ],
      [
        "▁сайте",
        -10.251481659527322
      ],
      [
        "▁труда",
        -10.251773724268176
      ],
      [
        "▁educational",
        -10.251792926254398
      ],
      [
        "▁direction",
        -10.252965116207179
      ],
      [
        "▁То",
        -10.253000679564181
      ],
      [
        "▁Any",
        -10.253322079286974
      ],
      [
        "▁развитию",
        -10.253618204366067
      ],
      [
        "▁Museum",
        -10.253860922785364
      ],
      [
        "▁practical",
        -10.253927650771134
      ],
      [
        "processes",
        -10.254636320877356
      ],
      [
        "находятся",
        -10.254783061473148
      ],
      [
        "refore",
        -10.255365103563541
      ],
      [
        "▁ground",
        -10.255380511377105
      ],
      [
        "▁членов",
        -10.255522551801047
      ],
      [
        "▁войны",
        -10.255662949097266
      ],
      [
        "▁Centre",
        -10.255836526112711
      ],
      [
        "▁VPN",
        -10.256166227877946
      ],
      [
        "▁множество",
        -10.256484209542894
      ],
      [
        "▁резолюци",
        -10.25681411454955
      ],
      [
        "▁сообщил",
        -10.257122772479672
      ],
      [
        "▁central",
        -10.257261654321796
      ],
      [
        "▁feature",
        -10.257575188397894
      ],
      [
        "▁sense",
        -10.257607890267792
      ],
      [
        "▁color",
        -10.257956891167757
      ],
      [
        "▁concept",
        -10.258058843427454
      ],
      [
        "▁внутри",
        -10.258993378863241
      ],
      [
        "▁package",
        -10.259081566014665
      ],
      [
        "▁build",
        -10.259433780917337
      ],
      [
        "путь",
        -10.259941123927495
      ],
      [
        "▁Software",
        -10.260259523736256
      ],
      [
        "experts",
        -10.26038154377234
      ],
      [
        "▁mention",
        -10.260430600727503
      ],
      [
        "▁научно",
        -10.260944248840415
      ],
      [
        "▁неверно",
        -10.261229760078724
      ],
      [
        "cities",
        -10.262282646215182
      ],
      [
        "▁последни",
        -10.262323084501936
      ],
      [
        "▁positive",
        -10.262815132247793
      ],
      [
        "▁bed",
        -10.263388159137904
      ],
      [
        "▁Ни",
        -10.263731838151138
      ],
      [
        "yourself",
        -10.26383622273029
      ],
      [
        "▁success",
        -10.265393592561724
      ],
      [
        "▁earth",
        -10.265509174548443
      ],
      [
        "▁original",
        -10.26569110527046
      ],
      [
        "▁rest",
        -10.26607190268966
      ],
      [
        "ле",
        -10.266614902176755
      ],
      [
        "▁goal",
        -10.266884559876901
      ],
      [
        "▁продукта",
        -10.2672451186113
      ],
      [
        "prices",
        -10.267547755110867
      ],
      [
        "tan",
        -10.267740772891763
      ],
      [
        "Здесь",
        -10.26798821057374
      ],
      [
        "▁East",
        -10.268301269640938
      ],
      [
        "▁Poker",
        -10.268762786759684
      ],
      [
        "▁processing",
        -10.269242388258347
      ],
      [
        "▁Zoom",
        -10.269723929666231
      ],
      [
        "▁speak",
        -10.269782341102855
      ],
      [
        "▁отдыха",
        -10.27002371177618
      ],
      [
        "▁masturbation",
        -10.271409269021452
      ],
      [
        "▁Post",
        -10.271467347122051
      ],
      [
        "cy",
        -10.27163230289073
      ],
      [
        "▁рост",
        -10.271834233273157
      ],
      [
        "▁кнопку",
        -10.27431841280504
      ],
      [
        "▁discussion",
        -10.274548268816062
      ],
      [
        "▁spirit",
        -10.275639822112774
      ],
      [
        "completely",
        -10.276121701625314
      ],
      [
        "овая",
        -10.276279095605696
      ],
      [
        "▁Business",
        -10.27633559676765
      ],
      [
        "territory",
        -10.276376755113503
      ],
      [
        "▁конечно",
        -10.276441614395452
      ],
      [
        "▁механизм",
        -10.277176147421631
      ],
      [
        "▁campaign",
        -10.277331589057825
      ],
      [
        "▁продолжа",
        -10.277466249472157
      ],
      [
        "▁Human",
        -10.278396656893314
      ],
      [
        "ба",
        -10.27862256568068
      ],
      [
        "ещё",
        -10.279015009978243
      ],
      [
        "towards",
        -10.279017106401094
      ],
      [
        "Х",
        -10.279249427831727
      ],
      [
        "▁Господь",
        -10.279609774944273
      ],
      [
        "ized",
        -10.28011917818389
      ],
      [
        "▁police",
        -10.280217075071079
      ],
      [
        "▁органов",
        -10.28047767666461
      ],
      [
        "▁Additional",
        -10.281379071569964
      ],
      [
        "▁любо",
        -10.281911044063392
      ],
      [
        "▁town",
        -10.282085844882118
      ],
      [
        "▁мастурбация",
        -10.282871513107649
      ],
      [
        "▁режим",
        -10.283356768661879
      ],
      [
        "▁Father",
        -10.2839740597056
      ],
      [
        "▁USB",
        -10.28424038149802
      ],
      [
        "▁участников",
        -10.284503766642889
      ],
      [
        "тер",
        -10.285671937873087
      ],
      [
        "▁раза",
        -10.285741140512908
      ],
      [
        "▁avoid",
        -10.285825520857959
      ],
      [
        "▁industrial",
        -10.286020058246564
      ],
      [
        "▁Games",
        -10.286119825872335
      ],
      [
        "▁goods",
        -10.286542414810118
      ],
      [
        "▁Thu",
        -10.286663190652927
      ],
      [
        "gave",
        -10.286692668034664
      ],
      [
        "ры",
        -10.28703227084858
      ],
      [
        "expected",
        -10.287366469771449
      ],
      [
        "▁easi",
        -10.288063072191058
      ],
      [
        "▁Со",
        -10.288291721992756
      ],
      [
        "▁ибо",
        -10.289202025841854
      ],
      [
        "▁though",
        -10.28924538632036
      ],
      [
        "Почему",
        -10.28954087302288
      ],
      [
        "▁certificate",
        -10.289929671914747
      ],
      [
        "▁rule",
        -10.290067768245148
      ],
      [
        "▁ресторан",
        -10.290708584970208
      ],
      [
        "▁предложения",
        -10.290915377916512
      ],
      [
        "▁Mobile",
        -10.291569484119613
      ],
      [
        "▁совершенно",
        -10.291693812535426
      ],
      [
        "written",
        -10.291776398613639
      ],
      [
        "▁larges",
        -10.291894570312355
      ],
      [
        "ком",
        -10.292152846008461
      ],
      [
        "formats",
        -10.29304579790153
      ],
      [
        "▁act",
        -10.293497611125407
      ],
      [
        "▁leader",
        -10.29354038915652
      ],
      [
        "▁Is",
        -10.29377085833169
      ],
      [
        "сь",
        -10.29382744333763
      ],
      [
        "▁правила",
        -10.294230379146633
      ],
      [
        "▁published",
        -10.294995814784931
      ],
      [
        "▁работ",
        -10.29630227901732
      ],
      [
        "▁народ",
        -10.296612502353923
      ],
      [
        "ways",
        -10.297597580395712
      ],
      [
        "▁становится",
        -10.297740888213479
      ],
      [
        "▁attend",
        -10.298029081543943
      ],
      [
        "unto",
        -10.298409923270732
      ],
      [
        "paid",
        -10.298540704953828
      ],
      [
        "▁competition",
        -10.298841607223096
      ],
      [
        "▁steel",
        -10.299309730906078
      ],
      [
        "▁North",
        -10.300398439096615
      ],
      [
        "ер",
        -10.301205656840338
      ],
      [
        "▁mechanism",
        -10.302180857337873
      ],
      [
        "▁apply",
        -10.302347746752517
      ],
      [
        "▁большинство",
        -10.30274134183469
      ],
      [
        "▁август",
        -10.303427035015389
      ],
      [
        "▁мероприятия",
        -10.304280958874797
      ],
      [
        "▁front",
        -10.304511753313188
      ],
      [
        "▁interests",
        -10.30592675170577
      ],
      [
        "экономического",
        -10.30601156956226
      ],
      [
        "ейчас",
        -10.306322618881115
      ],
      [
        "▁переговор",
        -10.30771466194736
      ],
      [
        "ситуации",
        -10.307941626205945
      ],
      [
        "▁master",
        -10.308527902541028
      ],
      [
        "▁perfect",
        -10.309003236996752
      ],
      [
        "Н",
        -10.309363735992525
      ],
      [
        "▁системе",
        -10.309400098168396
      ],
      [
        "бо",
        -10.309662008797458
      ],
      [
        "▁приложения",
        -10.309675046966856
      ],
      [
        "▁евро",
        -10.309789089086086
      ],
      [
        "am",
        -10.3099801244106
      ],
      [
        "записи",
        -10.310098501283242
      ],
      [
        "▁крайне",
        -10.310446423609712
      ],
      [
        "▁hold",
        -10.310799450129021
      ],
      [
        "▁People",
        -10.31130616302492
      ],
      [
        "▁включает",
        -10.312007897124332
      ],
      [
        "▁Х",
        -10.31203104727522
      ],
      [
        "▁mass",
        -10.31220157525524
      ],
      [
        "▁reform",
        -10.312257135253292
      ],
      [
        "▁path",
        -10.312431211505336
      ],
      [
        "Ф",
        -10.312760690399125
      ],
      [
        "limited",
        -10.312765543977712
      ],
      [
        "▁guarantee",
        -10.313104395889725
      ],
      [
        "▁собира",
        -10.313136661980606
      ],
      [
        "players",
        -10.313177986983321
      ],
      [
        "▁выбрать",
        -10.313767312096886
      ],
      [
        "▁мое",
        -10.314337166265062
      ],
      [
        "▁internal",
        -10.314343006567709
      ],
      [
        "year",
        -10.315034460616815
      ],
      [
        "▁grant",
        -10.315415420222594
      ],
      [
        "attempt",
        -10.315725817536771
      ],
      [
        "би",
        -10.316777247650302
      ],
      [
        "▁Китай",
        -10.317213924843019
      ],
      [
        "lost",
        -10.318363439695593
      ],
      [
        "particularly",
        -10.319038328590533
      ],
      [
        "doing",
        -10.319251098789652
      ],
      [
        "▁join",
        -10.319732290355601
      ],
      [
        "▁комната",
        -10.319955678931382
      ],
      [
        "▁стол",
        -10.319974123964066
      ],
      [
        "▁достижения",
        -10.320432009286215
      ],
      [
        "▁сделал",
        -10.320470916798751
      ],
      [
        "▁Христ",
        -10.320500492372743
      ],
      [
        "quickly",
        -10.320730467474377
      ],
      [
        "▁касается",
        -10.320822852369758
      ],
      [
        "▁limit",
        -10.321145635424257
      ],
      [
        "▁fear",
        -10.321803707408112
      ],
      [
        "бесплатный",
        -10.322240579287243
      ],
      [
        "▁текст",
        -10.322571953952403
      ],
      [
        "▁white",
        -10.323613659292608
      ],
      [
        "▁multi",
        -10.323698954121012
      ],
      [
        "▁object",
        -10.323892966385172
      ],
      [
        "ling",
        -10.3243749415017
      ],
      [
        "▁paper",
        -10.324538135358763
      ],
      [
        "▁мер",
        -10.325738365103097
      ],
      [
        "▁Foreign",
        -10.32577885099732
      ],
      [
        "difference",
        -10.326432435399441
      ],
      [
        "decided",
        -10.327023279672442
      ],
      [
        "equipped",
        -10.327119389577756
      ],
      [
        "▁fail",
        -10.327423338323959
      ],
      [
        "▁Or",
        -10.327867103539909
      ],
      [
        "▁photo",
        -10.328458877009059
      ],
      [
        "▁станет",
        -10.328754482584062
      ],
      [
        "▁Even",
        -10.328840743133949
      ],
      [
        "regulation",
        -10.329098320421526
      ],
      [
        "un",
        -10.329161497878356
      ],
      [
        "guests",
        -10.329376812433392
      ],
      [
        "оценки",
        -10.32951963386099
      ],
      [
        "события",
        -10.329557425358578
      ],
      [
        "▁promote",
        -10.330068338220583
      ],
      [
        "▁предприятий",
        -10.330827101440791
      ],
      [
        "▁Association",
        -10.33093918018879
      ],
      [
        "▁активно",
        -10.331233942635818
      ],
      [
        "ющихся",
        -10.331983778107439
      ],
      [
        "форматы",
        -10.33287846997966
      ],
      [
        "▁influence",
        -10.333872071096465
      ],
      [
        "funds",
        -10.334769339973734
      ],
      [
        "очередь",
        -10.334799993757935
      ],
      [
        "▁Black",
        -10.334846729977528
      ],
      [
        "responsible",
        -10.334948997805668
      ],
      [
        "▁job",
        -10.334989326237302
      ],
      [
        "▁зрелые",
        -10.335359653002186
      ],
      [
        "второй",
        -10.335449762385423
      ],
      [
        "▁mode",
        -10.33605091106144
      ],
      [
        "ющих",
        -10.337710252384735
      ],
      [
        "частью",
        -10.33794833524162
      ],
      [
        "▁президент",
        -10.338112957749724
      ],
      [
        "importance",
        -10.338481245149298
      ],
      [
        "▁Power",
        -10.3387816872581
      ],
      [
        "▁repair",
        -10.33894388595028
      ],
      [
        "▁стало",
        -10.339629165595202
      ],
      [
        "▁character",
        -10.339915132863664
      ],
      [
        "▁Every",
        -10.340393432172203
      ],
      [
        "▁вероятно",
        -10.340998143295476
      ],
      [
        "Tube",
        -10.341238183899776
      ],
      [
        "рабочих",
        -10.341324719744074
      ],
      [
        "порядке",
        -10.341814314302443
      ],
      [
        "▁нашем",
        -10.34192159072249
      ],
      [
        "▁skin",
        -10.341978296278636
      ],
      [
        "▁непосредственно",
        -10.342089678821473
      ],
      [
        "▁стоимость",
        -10.342456660954612
      ],
      [
        "▁низки",
        -10.343080827022451
      ],
      [
        "▁eyes",
        -10.343337632519331
      ],
      [
        "▁soul",
        -10.344037459595066
      ],
      [
        "функции",
        -10.345181257480213
      ],
      [
        "▁PM",
        -10.345509826156384
      ],
      [
        "▁сбор",
        -10.345510683163138
      ],
      [
        "elements",
        -10.346539772119247
      ],
      [
        "▁Mac",
        -10.34679995615345
      ],
      [
        "▁stand",
        -10.346921724381259
      ],
      [
        "throughout",
        -10.34692931129165
      ],
      [
        "▁известно",
        -10.346945939277811
      ],
      [
        "▁nuclear",
        -10.347081348112907
      ],
      [
        "▁Anal",
        -10.3474314587657
      ],
      [
        "Есть",
        -10.348017983175813
      ],
      [
        "▁Rights",
        -10.348912375801456
      ],
      [
        "▁forward",
        -10.349746224271945
      ],
      [
        "▁organized",
        -10.349949244904684
      ],
      [
        "usually",
        -10.350190180542706
      ],
      [
        "▁contract",
        -10.350244727157465
      ],
      [
        "▁France",
        -10.350626812258284
      ],
      [
        "мимо",
        -10.350772093997536
      ],
      [
        "▁Art",
        -10.350960783871166
      ],
      [
        "▁response",
        -10.351328403260007
      ],
      [
        "данной",
        -10.35162167668054
      ],
      [
        "▁Фонда",
        -10.35171796597897
      ],
      [
        "кого",
        -10.351969338730395
      ],
      [
        "▁Key",
        -10.352047097914351
      ],
      [
        "▁исследований",
        -10.352399394883415
      ],
      [
        "▁unit",
        -10.352687245814408
      ],
      [
        "▁domestic",
        -10.353325343769955
      ],
      [
        "▁Отель",
        -10.353509590657866
      ],
      [
        "электронной",
        -10.353718346560507
      ],
      [
        "вопросов",
        -10.355208219483472
      ],
      [
        "▁конференции",
        -10.35576484834296
      ],
      [
        "▁met",
        -10.356036313913096
      ],
      [
        "involved",
        -10.357120300736103
      ],
      [
        "monitoring",
        -10.35715793186253
      ],
      [
        "▁народа",
        -10.357413231539299
      ],
      [
        "▁Тем",
        -10.357686922072231
      ],
      [
        "▁AM",
        -10.358437028570924
      ],
      [
        "▁Масло",
        -10.358442978966027
      ],
      [
        "▁бассейн",
        -10.358490606911039
      ],
      [
        "▁inter",
        -10.35853907507784
      ],
      [
        "▁weight",
        -10.35929847881479
      ],
      [
        "отношений",
        -10.359406928836913
      ],
      [
        "▁защит",
        -10.359478525775662
      ],
      [
        "▁З",
        -10.36029261334602
      ],
      [
        "ду",
        -10.360340541349647
      ],
      [
        "▁someone",
        -10.360419315341318
      ],
      [
        "цены",
        -10.36076899817663
      ],
      [
        "▁рабоче",
        -10.360772991046801
      ],
      [
        "▁nor",
        -10.361215798862922
      ],
      [
        "▁суд",
        -10.361642844200867
      ],
      [
        "йтесь",
        -10.36242418238267
      ],
      [
        "▁web",
        -10.363188086887101
      ],
      [
        "▁sub",
        -10.363637910378479
      ],
      [
        "▁Are",
        -10.363721196612799
      ],
      [
        "easily",
        -10.364577306194406
      ],
      [
        "crisis",
        -10.364670550578372
      ],
      [
        "devices",
        -10.365833408745758
      ],
      [
        "выполнения",
        -10.365992808804918
      ],
      [
        "▁partners",
        -10.366272581583791
      ],
      [
        "▁Head",
        -10.36678696717033
      ],
      [
        "\\",
        -10.367582307279168
      ],
      [
        "▁сумм",
        -10.367587494421931
      ],
      [
        "мер",
        -10.368010197512497
      ],
      [
        "▁надо",
        -10.368115291580892
      ],
      [
        "legislation",
        -10.368224851730572
      ],
      [
        "policies",
        -10.368867890849575
      ],
      [
        "▁Don",
        -10.368966183475113
      ],
      [
        "▁programme",
        -10.371001643174614
      ],
      [
        "▁документ",
        -10.371070651201709
      ],
      [
        "▁фото",
        -10.371219078718193
      ],
      [
        "▁engine",
        -10.371223796164852
      ],
      [
        "▁remove",
        -10.371289950422522
      ],
      [
        "solutions",
        -10.371728115435868
      ],
      [
        "▁require",
        -10.372830730189628
      ],
      [
        "▁solo",
        -10.37314580058306
      ],
      [
        "▁нему",
        -10.373160482372397
      ],
      [
        "▁обучения",
        -10.373238950285876
      ],
      [
        "heard",
        -10.373241000579297
      ],
      [
        "▁hair",
        -10.3733165403067
      ],
      [
        "▁movement",
        -10.37351555106975
      ],
      [
        "born",
        -10.37452350188338
      ],
      [
        "▁license",
        -10.37473864796997
      ],
      [
        "ge",
        -10.37507685460266
      ],
      [
        "▁автоматически",
        -10.375423132749495
      ],
      [
        "immediately",
        -10.375554963719235
      ],
      [
        "▁показан",
        -10.37557494459601
      ],
      [
        "▁Model",
        -10.375674747120327
      ],
      [
        "▁весь",
        -10.37578837713259
      ],
      [
        "▁Organization",
        -10.37607873299684
      ],
      [
        "▁equal",
        -10.376320340010391
      ],
      [
        "▁производство",
        -10.376551194282035
      ],
      [
        "▁явля",
        -10.37657964008118
      ],
      [
        "▁successful",
        -10.376581535405721
      ],
      [
        "▁lives",
        -10.376979328911318
      ],
      [
        "red",
        -10.377328970519988
      ],
      [
        "▁break",
        -10.377477279370687
      ],
      [
        "▁woman",
        -10.377540213211809
      ],
      [
        "ваших",
        -10.378039739143082
      ],
      [
        "▁Комитет",
        -10.378724121967718
      ],
      [
        "▁Китая",
        -10.378994159174809
      ],
      [
        "жить",
        -10.379005987974608
      ],
      [
        "parts",
        -10.379075668880168
      ],
      [
        "состоянии",
        -10.379080431891209
      ],
      [
        "▁питания",
        -10.379129878739109
      ],
      [
        "▁Chinese",
        -10.3802495401999
      ],
      [
        "body",
        -10.380277387743359
      ],
      [
        "▁distribution",
        -10.380294786382274
      ],
      [
        "▁сектор",
        -10.380351690804563
      ],
      [
        "forces",
        -10.380718094889337
      ],
      [
        "века",
        -10.381331546899336
      ],
      [
        "▁сайт",
        -10.381774578294134
      ],
      [
        "▁Вас",
        -10.382217211211943
      ],
      [
        "каждом",
        -10.382559269468059
      ],
      [
        "▁class",
        -10.382754305700256
      ],
      [
        "▁tool",
        -10.382782085775649
      ],
      [
        "▁управление",
        -10.382798751653823
      ],
      [
        "соответствующим",
        -10.383509455221207
      ],
      [
        "efficiency",
        -10.383521941604352
      ],
      [
        "ова",
        -10.384205149269595
      ],
      [
        "▁фотографии",
        -10.38486250083778
      ],
      [
        "▁особо",
        -10.384895973956413
      ],
      [
        "specified",
        -10.384914249505231
      ],
      [
        "нести",
        -10.385075040021404
      ],
      [
        "▁Great",
        -10.385078508253963
      ],
      [
        "тащите",
        -10.385308768410296
      ],
      [
        "ля",
        -10.385439515514038
      ],
      [
        "▁sales",
        -10.385733893359738
      ],
      [
        "▁Армени",
        -10.385756658388647
      ],
      [
        "▁соло",
        -10.38582730578253
      ],
      [
        "▁achieve",
        -10.38648738072871
      ],
      [
        "▁Add",
        -10.386623476534666
      ],
      [
        "▁требования",
        -10.386987202799675
      ],
      [
        "выборов",
        -10.388723224532162
      ],
      [
        "prepared",
        -10.390138368029248
      ],
      [
        "▁statement",
        -10.390143399762767
      ],
      [
        "▁начал",
        -10.390768794989329
      ],
      [
        "▁тела",
        -10.391141666322397
      ],
      [
        "degree",
        -10.391568199688539
      ],
      [
        "▁Many",
        -10.391789549412513
      ],
      [
        "▁employees",
        -10.391825515333126
      ],
      [
        "ут",
        -10.392173112604052
      ],
      [
        "условий",
        -10.392954939385747
      ],
      [
        "▁remember",
        -10.392990114985984
      ],
      [
        "▁Just",
        -10.393025131206146
      ],
      [
        "ющиеся",
        -10.393033900511803
      ],
      [
        "▁Дил",
        -10.393573470804458
      ],
      [
        "▁Spirit",
        -10.39363359977251
      ],
      [
        "▁заказ",
        -10.393934117799988
      ],
      [
        "meters",
        -10.394757082821629
      ],
      [
        "близи",
        -10.39483828619639
      ],
      [
        "▁aspect",
        -10.394900573235232
      ],
      [
        "▁maintenance",
        -10.394934243785631
      ],
      [
        "▁университета",
        -10.396857588005847
      ],
      [
        "▁государственно",
        -10.39690860143435
      ],
      [
        "▁See",
        -10.397771692190126
      ],
      [
        "етесь",
        -10.398161486606833
      ],
      [
        "ions",
        -10.398164742391907
      ],
      [
        "storage",
        -10.398407092591244
      ],
      [
        "saying",
        -10.398434624681203
      ],
      [
        "▁феврал",
        -10.398553245272398
      ],
      [
        "▁успешно",
        -10.398692112936212
      ],
      [
        "reported",
        -10.399083843555575
      ],
      [
        "▁ошибк",
        -10.399160237584624
      ],
      [
        "▁selected",
        -10.399377463401342
      ],
      [
        "▁weather",
        -10.399975598941015
      ],
      [
        "степени",
        -10.400132936244864
      ],
      [
        "▁West",
        -10.40044143794009
      ],
      [
        "▁стала",
        -10.40091613975953
      ],
      [
        "JSC",
        -10.40141399880883
      ],
      [
        "начале",
        -10.401947192931283
      ],
      [
        "чень",
        -10.402608018122674
      ],
      [
        "daily",
        -10.402878224820768
      ],
      [
        "всему",
        -10.403056882635074
      ],
      [
        "▁Ваш",
        -10.403191418514663
      ],
      [
        "▁адрес",
        -10.403575476503706
      ],
      [
        "▁road",
        -10.403639410314444
      ],
      [
        "▁DVD",
        -10.403709042910577
      ],
      [
        "▁science",
        -10.403734922683544
      ],
      [
        "▁import",
        -10.404451416236306
      ],
      [
        "▁сфер",
        -10.40487901782249
      ],
      [
        "▁встреча",
        -10.405383036813486
      ],
      [
        "ъ",
        -10.405679045488393
      ],
      [
        "▁environmental",
        -10.406652044215907
      ],
      [
        "▁condition",
        -10.40675172525451
      ],
      [
        "running",
        -10.406932940209819
      ],
      [
        "▁ней",
        -10.40721701361436
      ],
      [
        "▁responsibility",
        -10.407225433767497
      ],
      [
        "▁Сан",
        -10.407878593525275
      ],
      [
        "▁Final",
        -10.40788340647421
      ],
      [
        "▁хочет",
        -10.40796502930153
      ],
      [
        "browser",
        -10.4083628412253
      ],
      [
        "ному",
        -10.408488094349128
      ],
      [
        "†",
        -10.408815434451297
      ],
      [
        "▁Казахстана",
        -10.408907720108107
      ],
      [
        "▁Bar",
        -10.409285878339258
      ],
      [
        "всей",
        -10.409366860285646
      ],
      [
        "будем",
        -10.410186901474212
      ],
      [
        "▁button",
        -10.410289196341456
      ],
      [
        "ющие",
        -10.41031189925995
      ],
      [
        "else",
        -10.410411422206128
      ],
      [
        "окружающей",
        -10.410724359626785
      ],
      [
        "items",
        -10.410997203844301
      ],
      [
        "maximum",
        -10.41173959384872
      ],
      [
        "каждой",
        -10.411742418613926
      ],
      [
        "plans",
        -10.412124403065462
      ],
      [
        "Q",
        -10.412262636563266
      ],
      [
        "DP",
        -10.412395008901035
      ],
      [
        "требуется",
        -10.412906839823322
      ],
      [
        "thus",
        -10.413334982143631
      ],
      [
        "Dildo",
        -10.413571623022355
      ],
      [
        "▁famous",
        -10.413833640677362
      ],
      [
        "▁региона",
        -10.413858542651026
      ],
      [
        "▁Where",
        -10.413976332342214
      ],
      [
        "▁welcome",
        -10.414275677808229
      ],
      [
        "interested",
        -10.414382323399542
      ],
      [
        "▁delivery",
        -10.41496231150876
      ],
      [
        "▁film",
        -10.415108320230523
      ],
      [
        "первой",
        -10.415890516256185
      ],
      [
        "skills",
        -10.416433215775458
      ],
      [
        "ре",
        -10.41646632817044
      ],
      [
        "▁destroy",
        -10.416637751735292
      ],
      [
        "▁chance",
        -10.417260503064036
      ],
      [
        "▁round",
        -10.417492112593534
      ],
      [
        "▁sports",
        -10.418386693389552
      ],
      [
        "▁essential",
        -10.418758788147082
      ],
      [
        "▁church",
        -10.418939319307345
      ],
      [
        "▁проблема",
        -10.419017277157565
      ],
      [
        "▁friend",
        -10.41907275530024
      ],
      [
        "▁Media",
        -10.419379242033214
      ],
      [
        "▁объектов",
        -10.41979828887752
      ],
      [
        "▁couple",
        -10.420261834888079
      ],
      [
        "▁shows",
        -10.420309743386936
      ],
      [
        "▁deliver",
        -10.420310939968504
      ],
      [
        "▁транс",
        -10.420718990789874
      ],
      [
        "▁буду",
        -10.421238073468858
      ],
      [
        "▁lack",
        -10.42125456979823
      ],
      [
        "▁глаза",
        -10.421302072590459
      ],
      [
        "▁Computer",
        -10.421379309933565
      ],
      [
        "▁News",
        -10.421452345987374
      ],
      [
        "▁summer",
        -10.421500925719988
      ],
      [
        "▁news",
        -10.421696701844084
      ],
      [
        "Porn",
        -10.421979009181687
      ],
      [
        "▁самого",
        -10.42227168679914
      ],
      [
        "needed",
        -10.422572669749085
      ],
      [
        "We",
        -10.422616673806976
      ],
      [
        "constant",
        -10.422658792092301
      ],
      [
        "▁commercial",
        -10.422782051319434
      ],
      [
        "▁моря",
        -10.422859395102487
      ],
      [
        "▁annual",
        -10.422910189042451
      ],
      [
        "жа",
        -10.423904907881624
      ],
      [
        "про",
        -10.424091706713252
      ],
      [
        "▁внешне",
        -10.424654998963003
      ],
      [
        "▁организация",
        -10.425013652526879
      ],
      [
        "▁charge",
        -10.425113068451163
      ],
      [
        "▁вклад",
        -10.42545118556069
      ],
      [
        "мероприятий",
        -10.425593335505816
      ],
      [
        "▁border",
        -10.425976471391607
      ],
      [
        "▁сотрудничеств",
        -10.42604928145586
      ],
      [
        "▁ответственность",
        -10.426799278326644
      ],
      [
        "▁Soviet",
        -10.426835698886983
      ],
      [
        "actually",
        -10.427579431508818
      ],
      [
        "▁документов",
        -10.427801994427243
      ],
      [
        "сразу",
        -10.428094630396991
      ],
      [
        "▁store",
        -10.428248850392224
      ],
      [
        "▁сотрудников",
        -10.4282856802365
      ],
      [
        "Более",
        -10.42836525487071
      ],
      [
        "▁Weather",
        -10.428722007644927
      ],
      [
        "▁reality",
        -10.42878687376179
      ],
      [
        "▁РФ",
        -10.429222981119386
      ],
      [
        "ecause",
        -10.429277543846283
      ],
      [
        "▁своими",
        -10.429414115472024
      ],
      [
        "▁extreme",
        -10.430382566444573
      ],
      [
        "▁dis",
        -10.430580702803333
      ],
      [
        "alone",
        -10.430584613675826
      ],
      [
        "▁accept",
        -10.431178646799266
      ],
      [
        "▁fight",
        -10.431205191108281
      ],
      [
        "▁Комисси",
        -10.431778510598535
      ],
      [
        "▁де",
        -10.431793521416507
      ],
      [
        "ник",
        -10.432142191750163
      ],
      [
        "creating",
        -10.43369641584422
      ],
      [
        "▁email",
        -10.433854376013999
      ],
      [
        "торговли",
        -10.43387589077413
      ],
      [
        "▁infrastructure",
        -10.434200923494691
      ],
      [
        "options",
        -10.434244663958744
      ],
      [
        "presence",
        -10.434825814027604
      ],
      [
        "▁normal",
        -10.434953982158293
      ],
      [
        "▁отчет",
        -10.435583163409909
      ],
      [
        "▁release",
        -10.43589352692316
      ],
      [
        "▁depend",
        -10.435974746296218
      ],
      [
        "столько",
        -10.436204212934825
      ],
      [
        "workers",
        -10.436298733553278
      ],
      [
        "▁кв",
        -10.436416402868472
      ],
      [
        "▁John",
        -10.436934639071822
      ],
      [
        "▁average",
        -10.437202077984603
      ],
      [
        "▁разделе",
        -10.43749223539642
      ],
      [
        "▁поле",
        -10.438145632650826
      ],
      [
        "▁характер",
        -10.438931492349756
      ],
      [
        "▁brother",
        -10.439198935445267
      ],
      [
        "crime",
        -10.439233877339282
      ],
      [
        "сколько",
        -10.439610304152525
      ],
      [
        "▁обслуживания",
        -10.439812150076808
      ],
      [
        "interesting",
        -10.440026976554615
      ],
      [
        "▁understanding",
        -10.440074026227018
      ],
      [
        "сервера",
        -10.44033703120265
      ],
      [
        "▁выход",
        -10.440593035840603
      ],
      [
        "▁профессионально",
        -10.440795624862208
      ],
      [
        "▁registration",
        -10.442369394938224
      ],
      [
        "версии",
        -10.442980678271631
      ],
      [
        "▁видов",
        -10.443112839941357
      ],
      [
        "▁expect",
        -10.443706218310794
      ],
      [
        "▁Под",
        -10.444153767682083
      ],
      [
        "▁одном",
        -10.44471314301836
      ],
      [
        "▁hear",
        -10.445537431700005
      ],
      [
        "▁Belarus",
        -10.446004927576675
      ],
      [
        "первого",
        -10.446083679952325
      ],
      [
        "▁hands",
        -10.446312961123878
      ],
      [
        "planning",
        -10.44659493469846
      ],
      [
        "сессии",
        -10.446911940280339
      ],
      [
        "▁готовы",
        -10.446925266543209
      ],
      [
        "▁player",
        -10.447074929794331
      ],
      [
        "▁Putin",
        -10.447282444178251
      ],
      [
        "данного",
        -10.447627130773917
      ],
      [
        "▁administration",
        -10.448054122174582
      ],
      [
        "▁здоровья",
        -10.44818033119186
      ],
      [
        "▁Most",
        -10.448246402324639
      ],
      [
        "▁языка",
        -10.44859918770739
      ],
      [
        "▁свет",
        -10.448707862910817
      ],
      [
        "database",
        -10.449048871956537
      ],
      [
        "click",
        -10.449248334014364
      ],
      [
        "▁bedroom",
        -10.44929574678182
      ],
      [
        "regions",
        -10.449348987794973
      ],
      [
        "principles",
        -10.44982117317414
      ],
      [
        "▁семьи",
        -10.450068704651436
      ],
      [
        "ового",
        -10.450622903265574
      ],
      [
        "той",
        -10.451191724599338
      ],
      [
        "▁результатов",
        -10.451223468002816
      ],
      [
        "▁billion",
        -10.451347917824842
      ],
      [
        "▁journalist",
        -10.451636852902476
      ],
      [
        "▁Georgian",
        -10.452036508573629
      ],
      [
        "▁sign",
        -10.452210784096579
      ],
      [
        "продукты",
        -10.452636192607196
      ],
      [
        "ман",
        -10.452787453441118
      ],
      [
        "ча",
        -10.453796347650242
      ],
      [
        "▁participate",
        -10.45473628455822
      ],
      [
        "▁EUR",
        -10.454954723476966
      ],
      [
        "▁sound",
        -10.455384455877333
      ],
      [
        "▁завод",
        -10.456005320631952
      ],
      [
        "ющая",
        -10.45607407027198
      ],
      [
        "▁president",
        -10.456536496273463
      ],
      [
        "▁Armenia",
        -10.456768149859224
      ],
      [
        "efficient",
        -10.45686194786105
      ],
      [
        "▁машин",
        -10.457110968824647
      ],
      [
        "программу",
        -10.457193173217773
      ],
      [
        "▁цель",
        -10.45781388622837
      ],
      [
        "▁paragraph",
        -10.458034348485638
      ],
      [
        "ри",
        -10.458854338754282
      ],
      [
        "другом",
        -10.460369952589215
      ],
      [
        "Airport",
        -10.460780519950237
      ],
      [
        "▁target",
        -10.460861502079268
      ],
      [
        "▁OF",
        -10.460947157878032
      ],
      [
        "▁пакет",
        -10.461228516860784
      ],
      [
        "▁говорил",
        -10.461825204040696
      ],
      [
        "▁Up",
        -10.46218076396722
      ],
      [
        "▁Европе",
        -10.462396047303713
      ],
      [
        "▁Мо",
        -10.462487620341767
      ],
      [
        "consciousness",
        -10.462516742044924
      ],
      [
        "steps",
        -10.463503940535336
      ],
      [
        "▁сторон",
        -10.463606911916042
      ],
      [
        "▁мл",
        -10.463690523851243
      ],
      [
        "▁doctor",
        -10.463913326195446
      ],
      [
        "feeling",
        -10.465601891454158
      ],
      [
        "▁просмотра",
        -10.466193652871205
      ],
      [
        "кажется",
        -10.466782510853584
      ],
      [
        "▁международной",
        -10.466849044516945
      ],
      [
        "▁mouth",
        -10.467118448291014
      ],
      [
        "▁Vladimir",
        -10.467871539931918
      ],
      [
        "free",
        -10.467927519288754
      ],
      [
        "opportunities",
        -10.467954603661523
      ],
      [
        "▁Штат",
        -10.468097587598535
      ],
      [
        "net",
        -10.468111042019386
      ],
      [
        "правило",
        -10.468149848303153
      ],
      [
        "▁обновления",
        -10.468579728685738
      ],
      [
        "ул",
        -10.46922799083302
      ],
      [
        "▁error",
        -10.469420397675432
      ],
      [
        "▁Ваше",
        -10.469739625244957
      ],
      [
        "▁hundred",
        -10.469892589633895
      ],
      [
        "▁Name",
        -10.469985827461622
      ],
      [
        "партии",
        -10.470503296327186
      ],
      [
        "одну",
        -10.471123448609065
      ],
      [
        "самое",
        -10.47156803465119
      ],
      [
        "▁определенны",
        -10.471685213095668
      ],
      [
        "▁island",
        -10.471701949832195
      ],
      [
        "ятся",
        -10.471778955826935
      ],
      [
        "▁Самы",
        -10.471908760012612
      ],
      [
        "tools",
        -10.47206719809734
      ],
      [
        "U",
        -10.472348989052222
      ],
      [
        "▁клиента",
        -10.473259512708877
      ],
      [
        "▁Анальн",
        -10.47330851058509
      ],
      [
        "▁использованием",
        -10.473421465251798
      ],
      [
        "▁style",
        -10.473469175920329
      ],
      [
        "▁fair",
        -10.474047093044348
      ],
      [
        "▁relative",
        -10.474105568056315
      ],
      [
        "▁Благодаря",
        -10.475047793506807
      ],
      [
        "▁нашим",
        -10.475240126735534
      ],
      [
        "ском",
        -10.475275860853165
      ],
      [
        "airport",
        -10.476213717140661
      ],
      [
        "▁обработки",
        -10.476883447224306
      ],
      [
        "indicator",
        -10.476928736947137
      ],
      [
        "▁holiday",
        -10.47703085332795
      ],
      [
        "▁Отдых",
        -10.477212626741764
      ],
      [
        "миру",
        -10.478150263775516
      ],
      [
        "▁думаю",
        -10.478419583746447
      ],
      [
        "▁максимально",
        -10.478692972438365
      ],
      [
        "▁record",
        -10.479287219892385
      ],
      [
        "Латвии",
        -10.479730652966303
      ],
      [
        "▁Good",
        -10.479742894405009
      ],
      [
        "▁договор",
        -10.479812701499235
      ],
      [
        "▁ране",
        -10.479991592521442
      ],
      [
        "▁beach",
        -10.480013425048142
      ],
      [
        "zone",
        -10.480601397775413
      ],
      [
        "участия",
        -10.481039621833249
      ],
      [
        "quality",
        -10.481076666444935
      ],
      [
        "▁Ази",
        -10.48119076165664
      ],
      [
        "▁домен",
        -10.481257805545468
      ],
      [
        "основном",
        -10.481417083964242
      ],
      [
        "▁рынк",
        -10.481544967590725
      ],
      [
        "вокруг",
        -10.48157232101083
      ],
      [
        "▁signed",
        -10.481619115437294
      ],
      [
        "▁Погод",
        -10.481683635558518
      ],
      [
        "▁компьютера",
        -10.482075184857418
      ],
      [
        "ил",
        -10.482098046450062
      ],
      [
        "▁loss",
        -10.482962205620863
      ],
      [
        "▁Public",
        -10.483996046038541
      ],
      [
        "скую",
        -10.484533348806078
      ],
      [
        "▁любом",
        -10.484568291387303
      ],
      [
        "▁Social",
        -10.484587534240008
      ],
      [
        "▁convert",
        -10.484900434839936
      ],
      [
        "что",
        -10.484928033720418
      ],
      [
        "▁представителей",
        -10.4856590907642
      ],
      [
        "данный",
        -10.485931067524614
      ],
      [
        "▁suggest",
        -10.485959384314919
      ],
      [
        "▁промышленности",
        -10.487121304765473
      ],
      [
        "▁Western",
        -10.4871862880255
      ],
      [
        "виду",
        -10.4875582526676
      ],
      [
        "improvement",
        -10.488712651598789
      ],
      [
        "▁seven",
        -10.488945157396197
      ],
      [
        "il",
        -10.489716106927245
      ],
      [
        "окне",
        -10.489977709634166
      ],
      [
        "▁threat",
        -10.490096085847586
      ],
      [
        "▁purchase",
        -10.490479261722164
      ],
      [
        "▁commission",
        -10.49128999388112
      ],
      [
        "latest",
        -10.49179397018871
      ],
      [
        "▁использовании",
        -10.491966349802079
      ],
      [
        "▁немного",
        -10.492315486256183
      ],
      [
        "vote",
        -10.492342008764533
      ],
      [
        "▁exercise",
        -10.492948176296744
      ],
      [
        "▁начина",
        -10.492979828849228
      ],
      [
        "первых",
        -10.493728911194593
      ],
      [
        "ver",
        -10.493967979962491
      ],
      [
        "leaders",
        -10.493988921332646
      ],
      [
        "▁ситуаци",
        -10.494033105814076
      ],
      [
        "conducted",
        -10.495624075235105
      ],
      [
        "changed",
        -10.4960415011312
      ],
      [
        "▁друго",
        -10.496136198913142
      ],
      [
        "смогли",
        -10.496347756838265
      ],
      [
        "PVC",
        -10.496393615085065
      ],
      [
        "▁четыре",
        -10.496602213369306
      ],
      [
        "сможете",
        -10.497011380246766
      ],
      [
        "▁част",
        -10.497097751852657
      ],
      [
        "▁всеми",
        -10.497472320230703
      ],
      [
        "turned",
        -10.497941967662264
      ],
      [
        "iolence",
        -10.498132880975108
      ],
      [
        "▁Who",
        -10.498675055590834
      ],
      [
        "▁schedule",
        -10.49885300510609
      ],
      [
        "excellent",
        -10.49902278008228
      ],
      [
        "▁одновременно",
        -10.499470153266552
      ],
      [
        "Dan",
        -10.499577907995416
      ],
      [
        "▁conduct",
        -10.499853913353224
      ],
      [
        "▁external",
        -10.499873780084348
      ],
      [
        "следующих",
        -10.499972183112636
      ],
      [
        "▁данным",
        -10.500054711592089
      ],
      [
        "▁notice",
        -10.500545210698235
      ],
      [
        "▁gift",
        -10.500717479850387
      ],
      [
        "ства",
        -10.500722866342693
      ],
      [
        "▁watch",
        -10.501616098556084
      ],
      [
        "▁дизайн",
        -10.501802494964732
      ],
      [
        "▁необходимость",
        -10.50198699554373
      ],
      [
        "▁производитель",
        -10.502077432558718
      ],
      [
        "▁registr",
        -10.50223348623322
      ],
      [
        "▁Titan",
        -10.503171089950753
      ],
      [
        "▁повышения",
        -10.50376751479587
      ],
      [
        "rates",
        -10.503963676835301
      ],
      [
        "общей",
        -10.503967381683562
      ],
      [
        "▁Product",
        -10.504171135615556
      ],
      [
        "▁listen",
        -10.505413915910728
      ],
      [
        "людьми",
        -10.505568434038631
      ],
      [
        "▁Конвенции",
        -10.506018172844493
      ],
      [
        "▁representative",
        -10.506387236162688
      ],
      [
        "forms",
        -10.506467060610726
      ],
      [
        "per",
        -10.506503703980373
      ],
      [
        "▁Network",
        -10.506743022692167
      ],
      [
        "▁Аллах",
        -10.507045649482055
      ],
      [
        "▁кроме",
        -10.507187997748897
      ],
      [
        "▁fish",
        -10.507206583132525
      ],
      [
        "▁symbol",
        -10.507258593550091
      ],
      [
        "named",
        -10.507297267239183
      ],
      [
        "▁девушка",
        -10.507793636289124
      ],
      [
        "▁Владимир",
        -10.507903815300493
      ],
      [
        "continued",
        -10.508146308958304
      ],
      [
        "▁markets",
        -10.508381918160858
      ],
      [
        "▁THE",
        -10.508435661159654
      ],
      [
        "reached",
        -10.508698912651973
      ],
      [
        "Affairs",
        -10.508790046110901
      ],
      [
        "▁topic",
        -10.508907256847392
      ],
      [
        "данном",
        -10.508948057033393
      ],
      [
        "Shaft",
        -10.50919407655608
      ],
      [
        "▁продукт",
        -10.509215904411066
      ],
      [
        "процессе",
        -10.509830309065647
      ],
      [
        "▁сын",
        -10.509984532775109
      ],
      [
        "Кажды",
        -10.510108803993303
      ],
      [
        "▁compar",
        -10.510163033381435
      ],
      [
        "▁extend",
        -10.510226550166744
      ],
      [
        "happy",
        -10.510270287873425
      ],
      [
        "Chairman",
        -10.51101971285869
      ],
      [
        "▁serve",
        -10.51105689944154
      ],
      [
        "влияние",
        -10.511273868288562
      ],
      [
        "▁равно",
        -10.511845954747876
      ],
      [
        "allowed",
        -10.512307570708796
      ],
      [
        "▁cumshot",
        -10.512549653032579
      ],
      [
        "рынок",
        -10.512697375021778
      ],
      [
        "ство",
        -10.512773833621639
      ],
      [
        "искусства",
        -10.512783016296892
      ],
      [
        "▁submitt",
        -10.513052303456705
      ],
      [
        "strategy",
        -10.513101846957714
      ],
      [
        "▁успех",
        -10.513267636235284
      ],
      [
        "▁green",
        -10.513343433194448
      ],
      [
        "▁общего",
        -10.513654486945834
      ],
      [
        "▁secret",
        -10.513725576067564
      ],
      [
        "▁Германии",
        -10.513950896809101
      ],
      [
        "ль",
        -10.51504663255505
      ],
      [
        "▁benefit",
        -10.515521246317194
      ],
      [
        "▁Ре",
        -10.515596425272621
      ],
      [
        "▁generation",
        -10.515786606148449
      ],
      [
        "▁faith",
        -10.516006691331448
      ],
      [
        "▁ideal",
        -10.516609832280785
      ],
      [
        "▁arriv",
        -10.51673050649223
      ],
      [
        "▁determine",
        -10.516923772309688
      ],
      [
        "Jerusalem",
        -10.517025547698504
      ],
      [
        "▁закона",
        -10.517344984507922
      ],
      [
        "▁voice",
        -10.517468620271284
      ],
      [
        "▁движения",
        -10.517845046341543
      ],
      [
        "▁усили",
        -10.518468152872645
      ],
      [
        "смотря",
        -10.518917302687328
      ],
      [
        "▁считает",
        -10.519207201274796
      ],
      [
        "учетом",
        -10.519209291057066
      ],
      [
        "▁эффективно",
        -10.51924439490295
      ],
      [
        "kg",
        -10.519753676587879
      ],
      [
        "▁форме",
        -10.519983243456853
      ],
      [
        "▁increasing",
        -10.520136235361742
      ],
      [
        "▁restaurant",
        -10.520483675382849
      ],
      [
        "▁слово",
        -10.520811266236059
      ],
      [
        "▁affect",
        -10.520824560374775
      ],
      [
        "▁term",
        -10.521106326937755
      ],
      [
        "sphere",
        -10.521657391753019
      ],
      [
        "Meeting",
        -10.5218539452686
      ],
      [
        "формы",
        -10.521868315554856
      ],
      [
        "▁интерес",
        -10.522008407295614
      ],
      [
        "▁РК",
        -10.52206261130541
      ],
      [
        "▁узна",
        -10.522360663740585
      ],
      [
        "▁оста",
        -10.52247888081489
      ],
      [
        "do",
        -10.523341817257073
      ],
      [
        "possibility",
        -10.523474949070275
      ],
      [
        "▁properties",
        -10.524257861052487
      ],
      [
        "▁Fund",
        -10.524295922404507
      ],
      [
        "вновь",
        -10.524751653505504
      ],
      [
        "▁Vibrat",
        -10.525231065271377
      ],
      [
        "знаете",
        -10.525552200465674
      ],
      [
        "▁bad",
        -10.525573966830194
      ],
      [
        "enterprises",
        -10.525870188447257
      ],
      [
        "▁возможностей",
        -10.52589351174375
      ],
      [
        "▁маленьки",
        -10.526576398360344
      ],
      [
        "▁Africa",
        -10.527475968204811
      ],
      [
        "подготовки",
        -10.52764915148555
      ],
      [
        "самые",
        -10.528047322578557
      ],
      [
        "▁независимо",
        -10.528067633807936
      ],
      [
        "▁говорить",
        -10.528445021727062
      ],
      [
        "▁ремонт",
        -10.5292835641117
      ],
      [
        "greater",
        -10.529316863206265
      ],
      [
        "увидеть",
        -10.530567024644299
      ],
      [
        "основные",
        -10.53087199625249
      ],
      [
        "▁Man",
        -10.531315878494908
      ],
      [
        "▁банка",
        -10.531582584369685
      ],
      [
        "▁La",
        -10.531954485227063
      ],
      [
        "aimed",
        -10.532044788527552
      ],
      [
        "memory",
        -10.53212571200387
      ],
      [
        "▁secure",
        -10.53311636572036
      ],
      [
        "высокой",
        -10.533223783062553
      ],
      [
        "▁host",
        -10.53373391793252
      ],
      [
        "▁Online",
        -10.533776500446596
      ],
      [
        "▁compilation",
        -10.534062773766495
      ],
      [
        "связанных",
        -10.534205157517789
      ],
      [
        "идет",
        -10.535320015075655
      ],
      [
        "▁victim",
        -10.535358492031465
      ],
      [
        "▁президента",
        -10.535637783735472
      ],
      [
        "connected",
        -10.535813769798397
      ],
      [
[...]
