{
  "version": "1.0",
  "truncation": null,
  "padding": null,
  "added_tokens": [
    {
      "id": 0,
      "content": "<pad>",
      "single_word": false,
      "lstrip": false,
      "rstrip": false,
      "normalized": false,
      "special": true
    },
    {
      "id": 1,
      "content": "<s>",
      "single_word": false,
      "lstrip": false,
      "rstrip": false,
      "normalized": false,
      "special": true
    },
    {
      "id": 2,
      "content": "</s>",
      "single_word": false,
      "lstrip": false,
      "rstrip": false,
      "normalized": false,
      "special": true
    },
    {
      "id": 3,
      "content": "<unk>",
      "single_word": false,
      "lstrip": false,
      "rstrip": false,
      "normalized": false,
      "special": true
    }
  ],
  "normalizer": {
    "type": "NFKC"
  },
  "pre_tokenizer": {
    "type": "Sequence",
    "pretokenizers": [
      {
        "type": "Metaspace",
        "replacement": "▁",
        "prepend_scheme": "always",
        "split": true
      },
      {
        "type": "Punctuation",
        "behavior": "Isolated"
      },
      {
        "type": "Digits",
        "individual_digits": true
      }
    ]
  },
  "post_processor": {
    "type": "TemplateProcessing",
    "single": [
      {
        "SpecialToken": {
          "id": "<s>",
          "type_id": 0
        }
      },
      {
        "Sequence": {
          "id": "A",
          "type_id": 0
        }
      },
      {
        "SpecialToken": {
          "id": "</s>",
          "type_id": 0
        }
      }
    ],
    "pair": [
      {
        "Sequence": {
          "id": "A",
          "type_id": 0
        }
      },
      {
        "Sequence": {
          "id": "B",
          "type_id": 1
        }
      }
    ],
    "special_tokens": {
      "</s>": {
        "id": "</s>",
        "ids": [
          2
        ],
        "tokens": [
          "</s>"
        ]
      },
      "<s>": {
        "id": "<s>",
        "ids": [
          1
        ],
        "tokens": [
          "<s>"
        ]
      }
    }
  },
  "decoder": {
    "type": "Metaspace",
    "replacement": "▁",
    "prepend_scheme": "always",
    "split": true
  },
  "model": {
    "type": "Unigram",
    "unk_id": 3,
    "vocab": [
      [
        "<pad>",
        0.0
      ],
      [
        "<s>",
        0.0
      ],
      [
        "</s>",
        0.0
      ],
      [
        "<unk>",
        0.0
      ],
      [
        "▁",
        -2.658663362707678
      ],
      [
        ",",
        -3.0450119863484097
      ],
      [
        ".",
        -3.0771226878573756
      ],
      [
        "и",
        -3.211707864554624
      ],
      [
        "е",
        -3.8396636691806343
      ],
      [
        "▁в",
        -4.152685656589892
      ],
      [
        "а",
        -4.262958872055226
      ],
      [
        "й",
        -4.270617844754296
      ],
      [
        "0",
        -4.363129214276238
      ],
      [
        "я",
        -4.414074210335221
      ],
      [
        "х",
        -4.506336479790027
      ],
      [
        "1",
        -4.564125734253713
      ],
      [
        "2",
        -4.650844874239285
      ],
      [
        "м",
        -4.681406610610225
      ],
      [
        "у",
        -4.724395143178503
      ],
      [
        "-",
        -4.734776642809322
      ],
      [
        "ы",
        -4.836672285945275
      ],
      [
        "о",
        -4.902407976377894
      ],
      [
        "▁не",
        -4.909830138969328
      ],
      [
        "▁на",
        -4.957375183027985
      ],
      [
        "?",
        -5.03271920281928
      ],
      [
        "▁с",
        -5.057890460409428
      ],
      [
        ":",
        -5.1341820308165484
      ],
      [
        "▁что",
        -5.157030816556436
      ],
      [
        "▁по",
        -5.229386390248884
      ],
      [
        "ся",
        -5.373478649488883
      ],
      [
        "ю",
        -5.396049769322186
      ],
      [
        "го",
        -5.396338640240982
      ],
      [
        ")",
        -5.420129934232918
      ],
      [
        "3",
        -5.458116738583234
      ],
      [
        "5",
        -5.497677439484159
      ],
      [
        "/",
        -5.503407725780745
      ],
      [
        "(",
        -5.554456805588609
      ],
      [
        "9",
        -5.578958413056265
      ],
      [
        "4",
        -5.606100292353712
      ],
      [
        "ов",
        -5.609807048487728
      ],
      [
        "ь",
        -5.689419951419463
      ],
      [
        "т",
        -5.706463738020766
      ],
      [
        "▁Я",
        -5.722898235449039
      ],
      [
        "6",
        -5.7513715387002975
      ],
      [
        "!",
        -5.786570608674763
      ],
      [
        "7",
        -5.868510436652416
      ],
      [
        "8",
        -5.906283977471164
      ],
      [
        "▁для",
        -5.916593032842698
      ],
      [
        "▁это",
        -5.918522509003813
      ],
      [
        "ом",
        -5.954111541086277
      ],
      [
        "\"",
        -5.984300240626851
      ],
      [
        "▁В",
        -6.011054617334361
      ],
      [
        "▁за",
        -6.0980111684499025
      ],
      [
        "▁к",
        -6.112180156654144
      ],
      [
        "▁как",
        -6.112207423667206
      ],
      [
        "с",
        -6.124209754587049
      ],
      [
        "в",
        -6.136901772246501
      ],
      [
        "▁от",
        -6.193543789448551
      ],
      [
        "к",
        -6.213731350998991
      ],
      [
        "▁ты",
        -6.217671725965827
      ],
      [
        "▁из",
        -6.290132275383396
      ],
      [
        "ой",
        -6.397071005375238
      ],
      [
        "ая",
        -6.455650006700921
      ],
      [
        "▁его",
        -6.473561988950578
      ],
      [
        "▁года",
        -6.485566213456131
      ],
      [
        "▁Это",
        -6.498017767635394
      ],
      [
        "▁вы",
        -6.512780922008256
      ],
      [
        "ть",
        -6.5335647803720995
      ],
      [
        "ей",
        -6.542970934784394
      ],
      [
        ";",
        -6.5477690575678675
      ],
      [
        "▁И",
        -6.588617699818659
      ],
      [
        "▁или",
        -6.621417080729016
      ],
      [
        "▁он",
        -6.64260543133069
      ],
      [
        "▁С",
        -6.65420816342986
      ],
      [
        "то",
        -6.655908963283251
      ],
      [
        "▁Ты",
        -6.669882387794333
      ],
      [
        "▁чтобы",
        -6.68856463024513
      ],
      [
        "▁так",
        -6.697161715538799
      ],
      [
        "▁меня",
        -6.710058891840335
      ],
      [
        "▁мы",
        -6.741481651277162
      ],
      [
        "н",
        -6.767522265721102
      ],
      [
        "»",
        -6.7764987606021165
      ],
      [
        "▁бы",
        -6.785061922409811
      ],
      [
        "«",
        -6.787105055110496
      ],
      [
        "—",
        -6.807932097722375
      ],
      [
        "▁их",
        -6.817510558670547
      ],
      [
        "▁А",
        -6.8205062128637195
      ],
      [
        "▁также",
        -6.82130936867928
      ],
      [
        "ую",
        -6.835211731218983
      ],
      [
        "*",
        -6.862990585663198
      ],
      [
        "▁все",
        -6.872495166357279
      ],
      [
        "сь",
        -6.918318510793911
      ],
      [
        "▁мне",
        -6.927272405547534
      ],
      [
        "▁Он",
        -6.940354219068826
      ],
      [
        "л",
        -6.971726461706098
      ],
      [
        "▁до",
        -6.984115299965147
      ],
      [
        "▁Не",
        -6.990929978072012
      ],
      [
        "▁Мы",
        -6.991738010094817
      ],
      [
        "▁то",
        -6.994070568990246
      ],
      [
        "▁Да",
        -6.997644818173473
      ],
      [
        "▁но",
        -7.010301858930259
      ],
      [
        "▁О",
        -7.029027314357037
      ],
      [
        "▁при",
        -7.031371427179154
      ],
      [
        "те",
        -7.0421658130064415
      ],
      [
        "▁был",
        -7.046975497296135
      ],
      [
        "▁будет",
        -7.049853863679591
      ],
      [
        "▁же",
        -7.081920189086388
      ],
      [
        "▁тебя",
        -7.088405461797361
      ],
      [
        "▁У",
        -7.102855655293229
      ],
      [
        "▁было",
        -7.112623757563792
      ],
      [
        "▁Что",
        -7.1207926473953265
      ],
      [
        "▁они",
        -7.126845441906475
      ],
      [
        "▁которые",
        -7.1295415171664
      ],
      [
        "▁может",
        -7.152902166371037
      ],
      [
        "ами",
        -7.159373735724012
      ],
      [
        "д",
        -7.181549420083057
      ],
      [
        "▁Вы",
        -7.194053340350546
      ],
      [
        "▁об",
        -7.216807159544169
      ],
      [
        "▁том",
        -7.220769558988879
      ],
      [
        "▁быть",
        -7.222609536174586
      ],
      [
        "▁Наций",
        -7.238899112871287
      ],
      [
        "▁Но",
        -7.241129387742479
      ],
      [
        "▁По",
        -7.242818169071532
      ],
      [
        "▁На",
        -7.251835990006288
      ],
      [
        "▁если",
        -7.254277144308844
      ],
      [
        "▁Объединенных",
        -7.2611546318780515
      ],
      [
        "▁того",
        -7.273953234285813
      ],
      [
        "г",
        -7.280857006588295
      ],
      [
        "▁Организации",
        -7.288809686754886
      ],
      [
        "▁когда",
        -7.302199460082976
      ],
      [
        "на",
        -7.310881393102907
      ],
      [
        "▁Как",
        -7.341831499048627
      ],
      [
        "▁со",
        -7.344000906267233
      ],
      [
        "▁только",
        -7.355642505849817
      ],
      [
        "▁время",
        -7.369097134078814
      ],
      [
        "▁К",
        -7.372124458929029
      ],
      [
        "▁она",
        -7.37870226912022
      ],
      [
        "ка",
        -7.408646063857427
      ],
      [
        "тебе",
        -7.409803384087175
      ],
      [
        "▁под",
        -7.42336029916793
      ],
      [
        "▁раз",
        -7.425354270064357
      ],
      [
        "▁этом",
        -7.429180760108844
      ],
      [
        "▁есть",
        -7.431783287104732
      ],
      [
        "▁этого",
        -7.4449145647844865
      ],
      [
        "ли",
        -7.4490420029518685
      ],
      [
        "му",
        -7.453038979455693
      ],
      [
        "▁нет",
        -7.480215259711235
      ],
      [
        "▁Нет",
        -7.4825333257195314
      ],
      [
        "ться",
        -7.499013404555381
      ],
      [
        "–",
        -7.500692153330062
      ],
      [
        "▁эти",
        -7.50800931749397
      ],
      [
        "з",
        -7.511862334256925
      ],
      [
        "ных",
        -7.525377186840084
      ],
      [
        "▁вас",
        -7.560804965948815
      ],
      [
        "s",
        -7.581799249898049
      ],
      [
        "▁просто",
        -7.586479763255507
      ],
      [
        "▁были",
        -7.592243352074174
      ],
      [
        "▁г",
        -7.595638591093833
      ],
      [
        "▁здес",
        -7.5968281641960935
      ],
      [
        "▁нас",
        -7.60057867789409
      ],
      [
        "ной",
        -7.606154397006703
      ],
      [
        "▁тем",
        -7.615179776914049
      ],
      [
        "#",
        -7.620007485615577
      ],
      [
        "▁была",
        -7.6213884710745905
      ],
      [
        "▁Если",
        -7.621898315905547
      ],
      [
        "▁более",
        -7.626344561641368
      ],
      [
        "'",
        -7.630943885555048
      ],
      [
        "лись",
        -7.6423550853368525
      ],
      [
        "ешь",
        -7.647494829157003
      ],
      [
        "ла",
        -7.663068138149788
      ],
      [
        "▁человека",
        -7.671488280756325
      ],
      [
        "▁всех",
        -7.671943338081663
      ],
      [
        "▁Так",
        -7.674537640011808
      ],
      [
        "▁всё",
        -7.679774111001347
      ],
      [
        "ная",
        -7.690929504103867
      ],
      [
        "▁области",
        -7.692337295545121
      ],
      [
        "▁году",
        -7.695559862669485
      ],
      [
        "▁чем",
        -7.703557373133412
      ],
      [
        "▁кто",
        -7.70454757536681
      ],
      [
        "▁вам",
        -7.705146602637965
      ],
      [
        "но",
        -7.7083329266001925
      ],
      [
        "▁уже",
        -7.709915961183322
      ],
      [
        "ного",
        -7.717491964740857
      ],
      [
        "▁этой",
        -7.720420429375839
      ],
      [
        "▁Ну",
        -7.726302364650355
      ],
      [
        "▁про",
        -7.7331295005559735
      ],
      [
        "ется",
        -7.7498683756451605
      ],
      [
        "▁во",
        -7.750256131249769
      ],
      [
        "ные",
        -7.760128401819086
      ],
      [
        "a",
        -7.771578235160826
      ],
      [
        "▁информаци",
        -7.772065372287255
      ],
      [
        "▁Она",
        -7.780824859827588
      ],
      [
        "▁прав",
        -7.799233726927669
      ],
      [
        "▁должны",
        -7.802921962754162
      ],
      [
        "▁Генерально",
        -7.803270462101549
      ],
      [
        "▁который",
        -7.806563201529828
      ],
      [
        "п",
        -7.8084481068546445
      ],
      [
        "▁развития",
        -7.81915660343215
      ],
      [
        "▁является",
        -7.830818639992778
      ],
      [
        "▁еще",
        -7.836476955236513
      ],
      [
        "+",
        -7.843908082699048
      ],
      [
        "▁между",
        -7.844333244808796
      ],
      [
        "▁знаю",
        -7.850929209415925
      ],
      [
        "▁очень",
        -7.855647515670507
      ],
      [
        "▁ли",
        -7.863099160144895
      ],
      [
        "р",
        -7.866135589416505
      ],
      [
        "та",
        -7.872814224519681
      ],
      [
        "▁лет",
        -7.873236797582079
      ],
      [
        "ный",
        -7.873922021318021
      ],
      [
        "]",
        -7.874537350459272
      ],
      [
        "за",
        -7.879648797420307
      ],
      [
        "▁резолюци",
        -7.883280537129034
      ],
      [
        "▁её",
        -7.886843885859143
      ],
      [
        "[",
        -7.893510462826777
      ],
      [
        "▁женщин",
        -7.9061438189096
      ],
      [
        "ж",
        -7.911371638895549
      ],
      [
        "ого",
        -7.914886376391815
      ],
      [
        "▁стран",
        -7.919344228187883
      ],
      [
        "%",
        -7.941306314641064
      ],
      [
        "▁Мне",
        -7.95213405441042
      ],
      [
        "▁больше",
        -7.954258637871966
      ],
      [
        "=",
        -7.961891703078981
      ],
      [
        "▁организаци",
        -7.9630665015251765
      ],
      [
        "ок",
        -7.967086006930076
      ],
      [
        "▁отношении",
        -7.974266543061386
      ],
      [
        "ни",
        -7.975815461659844
      ],
      [
        "▁после",
        -7.976296007482521
      ],
      [
        "где",
        -7.982195111905732
      ],
      [
        "▁хотел",
        -7.985951102619659
      ],
      [
        "▁доклад",
        -7.986355704961197
      ],
      [
        "▁Они",
        -7.9990616266417
      ],
      [
        "▁вопросам",
        -8.00239225900108
      ],
      [
        "▁сказал",
        -8.002467462540517
      ],
      [
        "ную",
        -8.012427599950023
      ],
      [
        "▁связи",
        -8.012898619174115
      ],
      [
        "лась",
        -8.024282812681406
      ],
      [
        "ему",
        -8.025188864409271
      ],
      [
        "▁деятельности",
        -8.029771242112808
      ],
      [
        "▁себя",
        -8.033742693391941
      ],
      [
        "▁нужно",
        -8.037687375319996
      ],
      [
        "▁вопрос",
        -8.038094988402174
      ],
      [
        "▁пункт",
        -8.045732894674057
      ],
      [
        "▁им",
        -8.054138798594627
      ],
      [
        "▁без",
        -8.054569512866674
      ],
      [
        "лось",
        -8.061606212514729
      ],
      [
        "▁могу",
        -8.070962900718213
      ],
      [
        "▁могут",
        -8.077446654392864
      ],
      [
        "▁этот",
        -8.079224749056426
      ],
      [
        "▁да",
        -8.081422611464562
      ],
      [
        "он",
        -8.083158070503899
      ],
      [
        "▁них",
        -8.087193667175734
      ],
      [
        "▁проект",
        -8.088786970602227
      ],
      [
        "▁будут",
        -8.095507800165134
      ],
      [
        "▁Все",
        -8.095857332099962
      ],
      [
        "▁соответствии",
        -8.098657488184859
      ],
      [
        "▁ни",
        -8.101601884307199
      ],
      [
        "▁Г",
        -8.11257524839524
      ],
      [
        "▁таки",
        -8.119527265238446
      ],
      [
        "▁должен",
        -8.121438490504055
      ],
      [
        "▁ним",
        -8.128585815510863
      ],
      [
        "ч",
        -8.129524866092368
      ],
      [
        "хочу",
        -8.131325243183632
      ],
      [
        "▁других",
        -8.133425059000531
      ],
      [
        "▁своей",
        -8.140174820581741
      ],
      [
        "▁работы",
        -8.141664324968863
      ],
      [
        "▁можно",
        -8.14249624563915
      ],
      [
        "▁государств",
        -8.14406301910032
      ],
      [
        "▁дня",
        -8.163663544008598
      ],
      [
        "▁рамках",
        -8.165969302514528
      ],
      [
        "ен",
        -8.173841709755283
      ],
      [
        "▁М",
        -8.188724953824496
      ],
      [
        "б",
        -8.19357958397554
      ],
      [
        "▁там",
        -8.197943970488529
      ],
      [
        "▁пере",
        -8.19883904599166
      ],
      [
        "▁За",
        -8.199686488776676
      ],
      [
        "▁осуществлени",
        -8.199994389304406
      ],
      [
        "▁безопасности",
        -8.205170404693458
      ],
      [
        "▁Совета",
        -8.216270479727877
      ],
      [
        "▁права",
        -8.219127948348644
      ],
      [
        "▁сейчас",
        -8.219714273998216
      ],
      [
        "С",
        -8.220553066647943
      ],
      [
        "не",
        -8.22666734012697
      ],
      [
        "▁нам",
        -8.227058352298174
      ],
      [
        "ейчас",
        -8.232389939697121
      ],
      [
        "▁случае",
        -8.233085941560839
      ],
      [
        "▁свою",
        -8.237920380680274
      ],
      [
        "▁программ",
        -8.23912951009526
      ],
      [
        "▁сессии",
        -8.242352632183607
      ],
      [
        "▁человек",
        -8.250713207604843
      ],
      [
        "d",
        -8.256811444469234
      ],
      [
        "▁которых",
        -8.266494738682756
      ],
      [
        "▁хорошо",
        -8.26697413002864
      ],
      [
        "▁год",
        -8.268358888405242
      ],
      [
        "e",
        -8.268923959821059
      ],
      [
        "▁Вот",
        -8.276735715278212
      ],
      [
        "▁Комитет",
        -8.28295334732981
      ],
      [
        "▁всего",
        -8.2841226624567
      ],
      [
        "лся",
        -8.293895658191005
      ],
      [
        "▁даже",
        -8.29398660350875
      ],
      [
        "_",
        -8.29631505349949
      ],
      [
        "▁защит",
        -8.297354517680672
      ],
      [
        "▁A",
        -8.299945732394798
      ],
      [
        "▁один",
        -8.3050365775399
      ],
      [
        "▁против",
        -8.31263205061067
      ],
      [
        ">",
        -8.313205971906237
      ],
      [
        "L",
        -8.314405009514633
      ],
      [
        "▁США",
        -8.315879086936315
      ],
      [
        "▁которая",
        -8.317186394237138
      ],
      [
        "шь",
        -8.317759513647244
      ],
      [
        "▁Республик",
        -8.32875357928991
      ],
      [
        "▁работ",
        -8.330138494557636
      ],
      [
        "▁стать",
        -8.33135932205422
      ],
      [
        "▁No",
        -8.331641831892787
      ],
      [
        "тся",
        -8.334768656129912
      ],
      [
        "▁мой",
        -8.339108920700474
      ],
      [
        "ются",
        -8.339513253247626
      ],
      [
        "ло",
        -8.3396200790232
      ],
      [
        "К",
        -8.341098977458635
      ],
      [
        "▁день",
        -8.34333243077553
      ],
      [
        "▁этим",
        -8.344768291784987
      ],
      [
        "▁включая",
        -8.345889284392683
      ],
      [
        "▁http",
        -8.346583877384253
      ],
      [
        "▁свои",
        -8.348081021442733
      ],
      [
        "▁системы",
        -8.350215627719708
      ],
      [
        "▁страны",
        -8.351797932833922
      ],
      [
        "▁тво",
        -8.362544365546093
      ],
      [
        "▁тех",
        -8.363146539671874
      ],
      [
        "▁помощ",
        -8.36420737973847
      ],
      [
        "нибудь",
        -8.367397255220236
      ],
      [
        "▁государства",
        -8.367553718190479
      ],
      [
        "▁жизн",
        -8.367652242123702
      ],
      [
        "▁детей",
        -8.369133365660243
      ],
      [
        "▁мира",
        -8.370452078254067
      ],
      [
        "юда",
        -8.37269729980044
      ],
      [
        "▁качестве",
        -8.373113835220202
      ],
      [
        "тесь",
        -8.378047372878275
      ],
      [
        "▁целя",
        -8.37822296500999
      ],
      [
        "▁ещё",
        -8.381245191738538
      ],
      [
        "▁него",
        -8.382180332728032
      ],
      [
        "▁образом",
        -8.383505848101743
      ],
      [
        "▁через",
        -8.40649768445143
      ],
      [
        "▁людей",
        -8.407629311803095
      ],
      [
        "▁мая",
        -8.409104331582887
      ],
      [
        "▁ничего",
        -8.409468650007861
      ],
      [
        "A",
        -8.41299996852305
      ],
      [
        "▁Хорош",
        -8.414281885694448
      ],
      [
        "y",
        -8.416709322628957
      ],
      [
        "▁период",
        -8.418430387233087
      ],
      [
        "▁потому",
        -8.424920886880413
      ],
      [
        "▁лиц",
        -8.43245272433998
      ],
      [
        "же",
        -8.436660362559895
      ],
      [
        "▁много",
        -8.439520422015182
      ],
      [
        "▁своих",
        -8.442320901996776
      ],
      [
        "▁сделать",
        -8.443590285604166
      ],
      [
        "▁борьб",
        -8.443913226436639
      ],
      [
        "ё",
        -8.448162703964908
      ],
      [
        "ц",
        -8.45344725957941
      ],
      [
        "▁лучше",
        -8.457205987765352
      ],
      [
        "▁порядк",
        -8.457564690424155
      ],
      [
        "▁Привет",
        -8.463637429541265
      ],
      [
        "сти",
        -8.469242965776411
      ],
      [
        "▁Эй",
        -8.471580153230663
      ],
      [
        "▁обеспечения",
        -8.47261511515658
      ],
      [
        "В",
        -8.476429783171774
      ],
      [
        "C",
        -8.477968355330386
      ],
      [
        "ста",
        -8.479151093392872
      ],
      [
        "▁При",
        -8.479692799913371
      ],
      [
        "ш",
        -8.479768056411215
      ],
      [
        "ку",
        -8.486910202529751
      ],
      [
        "▁Телефон",
        -8.487168574583297
      ],
      [
        "▁частност",
        -8.487810118120022
      ],
      [
        "▁никогд",
        -8.49217685661511
      ],
      [
        "А",
        -8.503339253138575
      ],
      [
        "▁всем",
        -8.50699816141927
      ],
      [
        "▁пока",
        -8.511912782128993
      ],
      [
        "▁Когд",
        -8.512731008278312
      ],
      [
        "ра",
        -8.515185081794172
      ],
      [
        "▁результат",
        -8.51627067755337
      ],
      [
        "▁следует",
        -8.518935153820548
      ],
      [
        "▁думаю",
        -8.519879808561505
      ],
      [
        "▁данны",
        -8.522720444330652
      ],
      [
        "этому",
        -8.522902538960595
      ],
      [
        "▁S",
        -8.524776749467055
      ],
      [
        "▁декабря",
        -8.52855545009179
      ],
      [
        "▁должна",
        -8.52881328390485
      ],
      [
        "▁поддержк",
        -8.53240896255525
      ],
      [
        "▁соответствующи",
        -8.5374353822802
      ],
      [
        "▁секретаря",
        -8.543601986853641
      ],
      [
        "▁говорит",
        -8.544355162573217
      ],
      [
        "▁сегодня",
        -8.545755544348143
      ],
      [
        "▁тоже",
        -8.546413651578147
      ],
      [
        "ным",
        -8.547983078763187
      ],
      [
        "▁Дл",
        -8.54891237858939
      ],
      [
        "ное",
        -8.553448151306942
      ],
      [
        "▁Давай",
        -8.561780915085572
      ],
      [
        "▁Конвенции",
        -8.56402267452494
      ],
      [
        "Б",
        -8.571158707712106
      ],
      [
        "▁имеет",
        -8.571480475851335
      ],
      [
        "▁основе",
        -8.576255035060248
      ],
      [
        "▁уровне",
        -8.576518178420677
      ],
      [
        "▁решения",
        -8.578214974869024
      ],
      [
        "меры",
        -8.579020138465776
      ],
      [
        "▁перед",
        -8.579220596991483
      ],
      [
        "▁Совет",
        -8.580776913451604
      ],
      [
        "▁сказать",
        -8.585295366583061
      ],
      [
        "c",
        -8.586183128357046
      ],
      [
        "▁жизнь",
        -8.587441273070956
      ],
      [
        "▁мер",
        -8.589176513436774
      ],
      [
        "▁Аллах",
        -8.591833010655005
      ],
      [
        "▁стороны",
        -8.592016650134612
      ],
      [
        "▁групп",
        -8.596085354068647
      ],
      [
        "▁теперь",
        -8.596212979598858
      ],
      [
        "▁Почем",
        -8.59640723751949
      ],
      [
        "по",
        -8.59670273795515
      ],
      [
        "▁Его",
        -8.597044161880811
      ],
      [
        "▁цель",
        -8.59923202425901
      ],
      [
        "▁всегда",
        -8.600914192466805
      ],
      [
        "▁знаешь",
        -8.601401326167618
      ],
      [
        "▁группы",
        -8.60368341661575
      ],
      [
        "▁над",
        -8.605099411712823
      ],
      [
        "b",
        -8.606029109174932
      ],
      [
        "▁программы",
        -8.606483443263695
      ],
      [
        "▁Безопасности",
        -8.606957232765152
      ],
      [
        "▁вмест",
        -8.607169634675788
      ],
      [
        "▁такой",
        -8.619429462050821
      ],
      [
        "пример",
        -8.620745731394098
      ],
      [
        "▁документ",
        -8.622839457123444
      ],
      [
        "▁июн",
        -8.622884799728313
      ],
      [
        "▁П",
        -8.623285636034153
      ],
      [
        "▁От",
        -8.63122986261447
      ],
      [
        "▁лишь",
        -8.633480030629654
      ],
      [
        "▁тот",
        -8.639412366401684
      ],
      [
        "ями",
        -8.641796149297196
      ],
      [
        "▁место",
        -8.64565258811038
      ],
      [
        "▁два",
        -8.647410977280533
      ],
      [
        "▁необходимо",
        -8.647524437697324
      ],
      [
        "▁должно",
        -8.656160965860867
      ],
      [
        "ко",
        -8.656167329456357
      ],
      [
        "▁ряд",
        -8.65704153462242
      ],
      [
        "▁другие",
        -8.657309244533133
      ],
      [
        "▁процесс",
        -8.659362772497715
      ],
      [
        "▁услуг",
        -8.66756171263553
      ],
      [
        "▁средств",
        -8.669239100883102
      ],
      [
        "▁ваш",
        -8.670750157945207
      ],
      [
        "▁говорил",
        -8.673176263543981
      ],
      [
        "▁которой",
        -8.673184865741241
      ],
      [
        "▁Может",
        -8.676381929302385
      ],
      [
        "▁решение",
        -8.677394245332035
      ],
      [
        "▁Кроме",
        -8.677938545420364
      ],
      [
        "▁некоторы",
        -8.67869322166078
      ],
      [
        "О",
        -8.683131499102188
      ],
      [
        "▁надо",
        -8.686583709884765
      ],
      [
        "▁дело",
        -8.690435683154046
      ],
      [
        "▁почему",
        -8.692204179253746
      ],
      [
        "com",
        -8.696105636981477
      ],
      [
        "<",
        -8.69941186331834
      ],
      [
        "▁мое",
        -8.700212582634318
      ],
      [
        "да",
        -8.704317535166576
      ],
      [
        "▁эту",
        -8.705244237610522
      ],
      [
        "▁внимание",
        -8.70721359743315
      ],
      [
        "▁усилия",
        -8.707336966798488
      ],
      [
        "времени",
        -8.711155218142475
      ],
      [
        "▁ходе",
        -8.713226506259831
      ],
      [
        "чи",
        -8.718017910418993
      ],
      [
        "▁действий",
        -8.718219117822462
      ],
      [
        "▁вот",
        -8.718615748399264
      ],
      [
        "▁право",
        -8.718984576736956
      ],
      [
        "▁себе",
        -8.72082319282523
      ],
      [
        "▁тобой",
        -8.722754055118346
      ],
      [
        "▁проблем",
        -8.725535981573532
      ],
      [
        "S",
        -8.7307922755676
      ],
      [
        "▁участие",
        -8.731560268306707
      ],
      [
        "▁дел",
        -8.731642299311943
      ],
      [
        "▁каса",
        -8.731798256919246
      ],
      [
        "▁доступ",
        -8.731990089776493
      ],
      [
        "▁которое",
        -8.736322109749565
      ],
      [
        "°C",
        -8.74515047628115
      ],
      [
        "▁оценк",
        -8.749448761953358
      ],
      [
        "вер",
        -8.749525079912129
      ],
      [
        "▁деле",
        -8.752081418565751
      ],
      [
        "E",
        -8.755936039033253
      ],
      [
        "n",
        -8.761083477268887
      ],
      [
        "▁ваше",
        -8.761811655074325
      ],
      [
        "▁буду",
        -8.763117275986586
      ],
      [
        "▁июл",
        -8.764528058219309
      ],
      [
        "либо",
        -8.766886568801521
      ],
      [
        "▁знал",
        -8.767843431674324
      ],
      [
        "▁являются",
        -8.769128664659528
      ],
      [
        "▁повестк",
        -8.769455601365024
      ],
      [
        "ец",
        -8.775330639934841
      ],
      [
        "хочешь",
        -8.776928786353777
      ],
      [
        "мной",
        -8.778747211828087
      ],
      [
        "Г",
        -8.778808973098553
      ],
      [
        "ными",
        -8.786609431094337
      ],
      [
        "ном",
        -8.787506238302646
      ],
      [
        "▁дела",
        -8.788950801669358
      ],
      [
        "▁делать",
        -8.792492454118312
      ],
      [
        "▁своего",
        -8.793046379103696
      ],
      [
        "Т",
        -8.794421954359875
      ],
      [
        "М",
        -8.795545503974806
      ],
      [
        "▁процедур",
        -8.799206966477268
      ],
      [
        "▁друг",
        -8.800074586425001
      ],
      [
        "▁международного",
        -8.801204539268472
      ],
      [
        "юсь",
        -8.801364825595876
      ],
      [
        "▁различны",
        -8.802530488025523
      ],
      [
        "▁правам",
        -8.803292052123167
      ],
      [
        "ской",
        -8.806456488513124
      ],
      [
        "жен",
        -8.806556478690748
      ],
      [
        "▁сотрудничества",
        -8.810426821646505
      ],
      [
        "▁населения",
        -8.813243010702541
      ],
      [
        "▁несколько",
        -8.813755034748276
      ],
      [
        "▁социально",
        -8.817199056888999
      ],
      [
        "▁возможность",
        -8.817530745345803
      ],
      [
        "▁числе",
        -8.81863852715796
      ],
      [
        "от",
        -8.819215945998799
      ],
      [
        "▁собо",
        -8.822849253120815
      ],
      [
        "▁особенно",
        -8.823633383365529
      ],
      [
        "▁Господ",
        -8.824129907776825
      ],
      [
        "▁ноябр",
        -8.824869768530437
      ],
      [
        "▁котором",
        -8.825400981695537
      ],
      [
        "▁наши",
        -8.827254460979777
      ],
      [
        "▁следующи",
        -8.827457148906689
      ],
      [
        "▁часть",
        -8.829590126527629
      ],
      [
        "▁возможно",
        -8.8310711750187
      ],
      [
        "жа",
        -8.832644882171262
      ],
      [
        "▁комитет",
        -8.833075576411364
      ],
      [
        "вести",
        -8.833607068253777
      ],
      [
        "▁систем",
        -8.835541870087049
      ],
      [
        "▁Просто",
        -8.83781451359225
      ],
      [
        "▁C",
        -8.83990005107983
      ],
      [
        "▁важно",
        -8.842841626012413
      ],
      [
        "▁сделал",
        -8.852170108633889
      ],
      [
        "ты",
        -8.852970043045048
      ],
      [
        "или",
        -8.856544739638743
      ],
      [
        "▁помощь",
        -8.85665045459574
      ],
      [
        "▁течение",
        -8.856826166674672
      ],
      [
        "▁заседани",
        -8.856882838531352
      ],
      [
        "▁принцип",
        -8.859921654790439
      ],
      [
        "▁проблемы",
        -8.860116969016989
      ],
      [
        "▁управления",
        -8.861894617083287
      ],
      [
        "сколько",
        -8.863167222975843
      ],
      [
        "▁люди",
        -8.8636529794071
      ],
      [
        "ru",
        -8.864020439947305
      ],
      [
        "▁мир",
        -8.867174734162795
      ],
      [
        "▁вопросы",
        -8.867355343803833
      ],
      [
        "▁ресурсов",
        -8.867745787432689
      ],
      [
        "И",
        -8.871770903685654
      ],
      [
        "▁чего",
        -8.872008069070937
      ],
      [
        "▁положения",
        -8.875190786901118
      ],
      [
        "▁Ассамблеи",
        -8.88117735895627
      ],
      [
        "ля",
        -8.881719223991432
      ],
      [
        "ишь",
        -8.8835142571805
      ],
      [
        "▁своем",
        -8.88379814336982
      ],
      [
        "▁национальны",
        -8.884751378776993
      ],
      [
        "моя",
        -8.88842847816748
      ],
      [
        "▁свой",
        -8.889371296092872
      ],
      [
        "ны",
        -8.890754553013267
      ],
      [
        "▁прямо",
        -8.893977503893687
      ],
      [
        "стр",
        -8.894480570938919
      ],
      [
        "▁таким",
        -8.901937044705537
      ],
      [
        "www",
        -8.9077719117577
      ],
      [
        "▁сентября",
        -8.908457110856446
      ],
      [
        "▁октябр",
        -8.908551954235644
      ],
      [
        "▁условия",
        -8.909890708924735
      ],
      [
        "де",
        -8.910643240314279
      ],
      [
        "▁Спасибо",
        -8.915651934378403
      ],
      [
        "Ф",
        -8.916656876241081
      ],
      [
        "▁могл",
        -8.916765213557337
      ],
      [
        "▁три",
        -8.920715367477857
      ],
      [
        "▁деятельность",
        -8.92281999755641
      ],
      [
        "▁работе",
        -8.922873705584106
      ],
      [
        "▁Т",
        -8.924061819436474
      ],
      [
        "▁назад",
        -8.924271818222262
      ],
      [
        "▁тут",
        -8.924373891537932
      ],
      [
        "▁апрел",
        -8.925906868954051
      ],
      [
        "Н",
        -8.92594147616369
      ],
      [
        "ский",
        -8.926570934647492
      ],
      [
        "ского",
        -8.926832193324879
      ],
      [
        "▁проекта",
        -8.929540420724688
      ],
      [
        "▁положени",
        -8.929576789098617
      ],
      [
        "▁март",
        -8.932379885631171
      ],
      [
        "▁международных",
        -8.932513101744926
      ],
      [
        "участник",
        -8.937427944188993
      ],
      [
        "▁двух",
        -8.940483033115058
      ],
      [
        "▁мог",
        -8.9414313489339
      ],
      [
        "▁може",
        -8.943901811464325
      ],
      [
        "▁приняти",
        -8.944067308616013
      ],
      [
        "▁такое",
        -8.94454769777199
      ],
      [
        "B",
        -8.946089402314303
      ],
      [
        "▁уверен",
        -8.959646554564502
      ],
      [
        "▁тогда",
        -8.960132625266114
      ],
      [
        "▁Теб",
        -8.96270749413651
      ],
      [
        "ф",
        -8.96667796636289
      ],
      [
        "▁места",
        -8.966868900137918
      ],
      [
        "▁знает",
        -8.967878144279723
      ],
      [
        "▁правительство",
        -8.970265456325812
      ],
      [
        "▁Комитета",
        -8.970507188750421
      ],
      [
        "▁Гд",
        -8.971120962195322
      ],
      [
        "▁торговл",
        -8.971979472571075
      ],
      [
        "ed",
        -8.979205452312128
      ],
      [
        "▁политики",
        -8.9796540982966
      ],
      [
        "▁август",
        -8.980328821017098
      ],
      [
        "▁странах",
        -8.980474637939075
      ],
      [
        "▁До",
        -8.98412465588735
      ],
      [
        "f",
        -8.984560491543544
      ],
      [
        "▁слишком",
        -8.9868683652669
      ],
      [
        "▁рас",
        -8.987348603187138
      ],
      [
        "▁Комиссии",
        -8.98839247231561
      ],
      [
        "▁машин",
        -8.989758423872683
      ],
      [
        "сть",
        -8.990320132039441
      ],
      [
        "▁I",
        -8.992043500893018
      ],
      [
        "▁территори",
        -8.99554800385565
      ],
      [
        "▁минут",
        -8.996170218548942
      ],
      [
        "▁кого",
        -8.99703988205322
      ],
      [
        "▁Ладн",
        -8.997986541301424
      ],
      [
        "g",
        -8.99892706715743
      ],
      [
        "▁Ответ",
        -8.999295779589206
      ],
      [
        "▁рук",
        -9.00048704675667
      ],
      [
        "▁которого",
        -9.000929230198608
      ],
      [
        "▁план",
        -9.001857991353742
      ],
      [
        "работать",
        -9.005381498937158
      ],
      [
        "Д",
        -9.00871650702543
      ],
      [
        "ле",
        -9.011178021709352
      ],
      [
        "▁группа",
        -9.011614683925746
      ],
      [
        "▁среди",
        -9.014843723751921
      ],
      [
        "▁служб",
        -9.01728074831998
      ],
      [
        "▁мои",
        -9.019303941092726
      ],
      [
        "йти",
        -9.021514739970403
      ],
      [
        "ну",
        -9.02172835890581
      ],
      [
        "▁обеспечить",
        -9.02177823440448
      ],
      [
        "▁одного",
        -9.022530293458658
      ],
      [
        "▁B",
        -9.023529229811917
      ],
      [
        "▁технологи",
        -9.024554903942011
      ],
      [
        "▁ведь",
        -9.02465129608641
      ],
      [
        "▁пор",
        -9.025579806284707
      ],
      [
        "▁принять",
        -9.028557202489473
      ],
      [
        "ская",
        -9.031077222798832
      ],
      [
        "▁операци",
        -9.032958387508575
      ],
      [
        "▁эта",
        -9.033095921581136
      ],
      [
        "▁можеш",
        -9.0388111862598
      ],
      [
        "▁целе",
        -9.039664140306403
      ],
      [
        "▁Д",
        -9.040376386272595
      ],
      [
        "▁настоящее",
        -9.040772296362668
      ],
      [
        "▁b",
        -9.042182780742987
      ],
      [
        "x",
        -9.042746432512374
      ],
      [
        "▁использовать",
        -9.044584844362749
      ],
      [
        "ющихся",
        -9.04504731094007
      ],
      [
        "@",
        -9.045167580093421
      ],
      [
        "ба",
        -9.045329952881794
      ],
      [
        "▁Е",
        -9.045969771320227
      ],
      [
        "▁государствам",
        -9.046759554092699
      ],
      [
        "днако",
        -9.04678982857013
      ],
      [
        "▁выполнени",
        -9.04731663539484
      ],
      [
        "▁После",
        -9.047785525309369
      ],
      [
        "▁ответ",
        -9.047964246780694
      ],
      [
        "ри",
        -9.050481676439084
      ],
      [
        "▁школ",
        -9.051786807341205
      ],
      [
        "▁свобод",
        -9.052291015638158
      ],
      [
        "▁немного",
        -9.052652968250912
      ],
      [
        "▁дома",
        -9.052696050405055
      ],
      [
        "сё",
        -9.053457932070454
      ],
      [
        "▁вопросу",
        -9.05412853024838
      ],
      [
        "▁поскольку",
        -9.054391813517281
      ],
      [
        "▁одна",
        -9.055319699615517
      ],
      [
        "▁одной",
        -9.059069966814118
      ],
      [
        "▁Тепер",
        -9.0598113040671
      ],
      [
        "▁выбор",
        -9.064410377881643
      ],
      [
        "▁найти",
        -9.065538983092644
      ],
      [
        "▁членов",
        -9.06729505269063
      ],
      [
        "▁роль",
        -9.067642269119904
      ],
      [
        "▁ну",
        -9.06942727247232
      ],
      [
        "▁долл",
        -9.075010050183353
      ],
      [
        "▁подготовк",
        -9.077236770441322
      ],
      [
        "▁январ",
        -9.078194855908782
      ],
      [
        "▁механизм",
        -9.078436794498366
      ],
      [
        "m",
        -9.080039484663931
      ],
      [
        "i",
        -9.080200133169685
      ],
      [
        "▁думал",
        -9.081589792597065
      ],
      [
        "▁имеют",
        -9.084518022709803
      ],
      [
        "▁потом",
        -9.087945158484267
      ],
      [
        "▁Во",
        -9.0884585787975
      ],
      [
        "▁ситуаци",
        -9.091733578797026
      ],
      [
        "▁район",
        -9.095383182669595
      ],
      [
        "▁оста",
        -9.099736319289317
      ],
      [
        "▁Потому",
        -9.102420715315128
      ],
      [
        "П",
        -9.103060541424437
      ],
      [
        "▁органов",
        -9.10605973127641
      ],
      [
        "▁хочет",
        -9.106314562991322
      ],
      [
        "▁касается",
        -9.106934838125975
      ],
      [
        "▁средства",
        -9.108731261199747
      ],
      [
        "▁сказала",
        -9.110681667698863
      ],
      [
        "▁которую",
        -9.110870873214983
      ],
      [
        "▁правительства",
        -9.111726492819995
      ],
      [
        "▁Был",
        -9.115152741853361
      ],
      [
        "▁действительно",
        -9.116191409634306
      ],
      [
        "▁случи",
        -9.116649696336314
      ],
      [
        "▁стратеги",
        -9.116665154601177
      ],
      [
        "▁сфер",
        -9.118159241301493
      ],
      [
        "▁имя",
        -9.119548620544464
      ],
      [
        "▁помоч",
        -9.121929096937503
      ],
      [
        "t",
        -9.122834043890716
      ],
      [
        "▁проведения",
        -9.123609054410352
      ],
      [
        "▁полици",
        -9.126656322275561
      ],
      [
        "▁использования",
        -9.126704061937112
      ],
      [
        "▁оружия",
        -9.127719207638343
      ],
      [
        "v",
        -9.128195744789087
      ],
      [
        "▁самом",
        -9.131245277305762
      ],
      [
        "▁язык",
        -9.132744770382542
      ],
      [
        "Р",
        -9.133396542679584
      ],
      [
        "▁правда",
        -9.133602564669104
      ],
      [
        "▁именно",
        -9.137173233287019
      ],
      [
        "p",
        -9.137289511226255
      ],
      [
        "▁возможности",
        -9.138095316686709
      ],
      [
        "▁работа",
        -9.13891294248905
      ],
      [
        "▁содействи",
        -9.139553384525424
      ],
      [
        "▁срок",
        -9.139615380177416
      ],
      [
        "▁образования",
        -9.142990010686123
      ],
      [
        "▁другой",
        -9.143867284858207
      ],
      [
        "▁первы",
        -9.144700489542327
      ],
      [
        "▁части",
        -9.144764515226035
      ],
      [
        "▁случая",
        -9.146170648251069
      ],
      [
        "ру",
        -9.14631988546177
      ],
      [
        "▁Аллаха",
        -9.147492035393771
      ],
      [
        "▁действия",
        -9.147975558513608
      ],
      [
        "▁мере",
        -9.148627088038753
      ],
      [
        "ось",
        -9.150721317497256
      ],
      [
        "▁Зна",
        -9.152509703229715
      ],
      [
        "до",
        -9.153102198987915
      ],
      [
        "тер",
        -9.153164662707631
      ],
      [
        "▁пути",
        -9.15532073700697
      ],
      [
        "ясь",
        -9.158551457821371
      ],
      [
        "▁комитета",
        -9.159814528211182
      ],
      [
        "▁ночь",
        -9.160535132572392
      ],
      [
        "ро",
        -9.160560586114538
      ],
      [
        "▁сам",
        -9.160642210352698
      ],
      [
        "ор",
        -9.161193911137357
      ],
      [
        "▁доклада",
        -9.163620251410356
      ],
      [
        "ния",
        -9.163979699396275
      ],
      [
        "▁F",
        -9.164422430965953
      ],
      [
        "▁уровня",
        -9.164919549530891
      ],
      [
        "емся",
        -9.165538040233109
      ],
      [
        "▁значение",
        -9.168300661785427
      ],
      [
        "▁момент",
        -9.172193125727803
      ],
      [
        "▁Тогда",
        -9.174795640006296
      ],
      [
        "▁снова",
        -9.175295405251257
      ],
      [
        "▁пункта",
        -9.178828634710248
      ],
      [
        "э",
        -9.178843353841579
      ],
      [
        "▁конференци",
        -9.179090885820852
      ],
      [
        "▁процесса",
        -9.181393246553274
      ],
      [
        "▁задач",
        -9.182677939131025
      ],
      [
        "▁договор",
        -9.182889381167715
      ],
      [
        "▁реализаци",
        -9.183236471303736
      ],
      [
        "▁Программ",
        -9.184613346680617
      ],
      [
        "▁долларов",
        -9.185137960736832
      ],
      [
        "ер",
        -9.185731964247308
      ],
      [
        "P",
        -9.186301404810955
      ],
      [
        "▁суд",
        -9.190392904425984
      ],
      [
        "Л",
        -9.192060690755657
      ],
      [
        "▁менее",
        -9.192505299726651
      ],
      [
        "▁делает",
        -9.192573570163166
      ],
      [
        "▁развитию",
        -9.193468211517306
      ],
      [
        "ает",
        -9.195260083815716
      ],
      [
        "ков",
        -9.195740316825272
      ],
      [
        "▁Комисси",
        -9.197390366336506
      ],
      [
        "▁развитие",
        -9.197932886023128
      ],
      [
        "че",
        -9.199395239477756
      ],
      [
        "▁P",
        -9.203024202432815
      ],
      [
        "▁Эти",
        -9.204715118797932
      ],
      [
        "▁стоит",
        -9.206913355193299
      ],
      [
        "▁мисси",
        -9.20871672763789
      ],
      [
        "▁дом",
        -9.209173040235772
      ],
      [
        "▁То",
        -9.210109677299378
      ],
      [
        "▁значит",
        -9.21117980432103
      ],
      [
        "▁нашей",
        -9.211372345897214
      ],
      [
        "▁мире",
        -9.212708586300863
      ],
      [
        "▁встреча",
        -9.21288674748153
      ],
      [
        "▁регион",
        -9.213157196929638
      ],
      [
        "▁Эта",
        -9.215873115239564
      ],
      [
        "▁необходимы",
        -9.216145366024673
      ],
      [
        "▁процент",
        -9.217670813610704
      ],
      [
        "▁обеспечени",
        -9.21788221117367
      ],
      [
        "▁пожалуйс",
        -9.218036525108584
      ],
      [
        "▁практик",
        -9.219659346940162
      ],
      [
        "что",
        -9.224488794331823
      ],
      [
        "▁компании",
        -9.224867258211976
      ],
      [
        "▁новых",
        -9.225720909065775
      ],
      [
        "▁хотя",
        -9.226083080612053
      ],
      [
        "D",
        -9.227089093780707
      ],
      [
        "\n",
        -9.228530164705253
      ],
      [
        "▁видел",
        -9.229726109285863
      ],
      [
        "▁консультаци",
        -9.231170091118946
      ],
      [
        "▁происходит",
        -9.231294227125215
      ],
      [
        "▁оно",
        -9.233337289125995
      ],
      [
        "▁услови",
        -9.234627249415137
      ],
      [
        "▁мистер",
        -9.235432300808784
      ],
      [
        "па",
        -9.236025660553171
      ],
      [
        "▁путе",
        -9.236183760670201
      ],
      [
        "▁поддержки",
        -9.236315381794391
      ],
      [
        "▁представлен",
        -9.236324465754208
      ],
      [
        "▁прогресс",
        -9.236423798618372
      ],
      [
        "▁решений",
        -9.237393354497428
      ],
      [
        "▁относительно",
        -9.237776641273662
      ],
      [
        "▁Вам",
        -9.237891591137242
      ],
      [
        "ние",
        -9.241103454079344
      ],
      [
        "▁деньг",
        -9.241685204811375
      ],
      [
        "▁Конференци",
        -9.243117422898976
      ],
      [
        "ник",
        -9.24476990869739
      ],
      [
        "▁Из",
        -9.245264465741405
      ],
      [
        "лен",
        -9.246502988704528
      ],
      [
        "новь",
        -9.247184868922826
      ],
      [
        "ще",
        -9.247507266733884
      ],
      [
        "▁призывает",
        -9.249636271262709
      ],
      [
        "▁годы",
        -9.249815419972732
      ],
      [
        "▁сэр",
        -9.252888249641414
      ],
      [
        "▁Нам",
        -9.25361132189141
      ],
      [
        "об",
        -9.25446815544426
      ],
      [
        "▁цели",
        -9.255222067106418
      ],
      [
        "▁млн",
        -9.255756214221307
      ],
      [
        "▁знать",
        -9.260293917476055
      ],
      [
        "o",
        -9.261287857788172
      ],
      [
        "▁необходимость",
        -9.262569729096565
      ],
      [
        "▁равно",
        -9.263120405535185
      ],
      [
        "r",
        -9.264038607791546
      ],
      [
        "▁Ни",
        -9.265955313873366
      ],
      [
        "▁Только",
        -9.267360978984543
      ],
      [
        "говорить",
        -9.26801167930672
      ],
      [
        "en",
        -9.272110086540728
      ],
      [
        "▁получить",
        -9.27318107922244
      ],
      [
        "▁представить",
        -9.274690628523384
      ],
      [
        "▁ваши",
        -9.277811084792514
      ],
      [
        "У",
        -9.27965206550634
      ],
      [
        "▁другими",
        -9.280335522291143
      ],
      [
        "▁потребност",
        -9.281539447482139
      ],
      [
        "тель",
        -9.284165982470967
      ],
      [
        "l",
        -9.28609780795119
      ],
      [
        "▁инициатив",
        -9.28751669722234
      ],
      [
        "▁сотрудников",
        -9.288597778214715
      ],
      [
        "▁состав",
        -9.288934344353873
      ],
      [
        "▁Председателя",
        -9.290124196593553
      ],
      [
        "▁феврал",
        -9.294802967254707
      ],
      [
        "Е",
        -9.296395477861111
      ],
      [
        "▁учето",
        -9.296792309606337
      ],
      [
        "▁имени",
        -9.297942626153377
      ],
      [
        "http",
        -9.300479971764103
      ],
      [
        "▁города",
        -9.300818198075483
      ],
      [
        "▁выше",
        -9.301299995721713
      ],
      [
        "▁E",
        -9.302203213816071
      ],
      [
        "▁насили",
        -9.303652172554491
      ],
      [
        "▁своим",
        -9.304225579161496
      ],
      [
        "▁такого",
        -9.304673906017301
      ],
      [
        "▁способ",
        -9.304893211449375
      ],
      [
        "er",
        -9.305150457292047
      ],
      [
        "▁Ф",
        -9.306751947297528
      ],
      [
        "▁M",
        -9.308505183765003
      ],
      [
        "▁наш",
        -9.30866179496407
      ],
      [
        "жу",
        -9.309237655584655
      ],
      [
        "▁Про",
        -9.309276940032824
      ],
      [
        "ду",
        -9.309683645662776
      ],
      [
        "ре",
        -9.310497871433764
      ],
      [
        "дней",
        -9.312426129761558
      ],
      [
        "▁файл",
        -9.314394154050465
      ],
      [
        "▁сын",
        -9.315375790763776
      ],
      [
        "правительственны",
        -9.316022846872137
      ],
      [
        "▁статье",
        -9.316445635390014
      ],
      [
        "Я",
        -9.316893478085053
      ],
      [
        "▁потенциала",
        -9.319134695999725
      ],
      [
        "нет",
        -9.319146286040247
      ],
      [
        "▁Пожалуй",
        -9.319918927241979
      ],
      [
        "▁сотрудничеств",
        -9.321550053049705
      ],
      [
        "будем",
        -9.32235934914436
      ],
      [
        "▁постоянно",
        -9.322802121287802
      ],
      [
        "бо",
        -9.323587724083298
      ],
      [
        "in",
        -9.32399723646219
      ],
      [
        "чень",
        -9.324494150736207
      ],
      [
        "ман",
        -9.325194897484216
      ],
      [
        "ющиеся",
        -9.326656655913963
      ],
      [
        "▁которым",
        -9.328294392743159
      ],
      [
        "▁отношения",
        -9.32915971798533
      ],
      [
        "▁ко",
        -9.329391218825826
      ],
      [
        "▁годов",
        -9.332655622126659
      ],
      [
        "▁терроризм",
        -9.332961921874784
      ],
      [
        "▁счет",
        -9.33300431695196
      ],
      [
        "▁Председатель",
        -9.333234021735116
      ],
      [
        "ши",
        -9.333512561175034
      ],
      [
        "▁культур",
        -9.333540427874544
      ],
      [
        "▁должност",
        -9.33472284155902
      ],
      [
        "ль",
        -9.334797291738326
      ],
      [
        "▁приняты",
        -9.335273793629714
      ],
      [
        "▁полностью",
        -9.337538611653123
      ],
      [
        "▁подход",
        -9.338386651029847
      ],
      [
        "▁лица",
        -9.339168164099657
      ],
      [
        "▁закон",
        -9.33990577336614
      ],
      [
        "вед",
        -9.341080016736264
      ],
      [
        "▁достаточно",
        -9.34145037044157
      ],
      [
        "▁ООН",
        -9.341540630177942
      ],
      [
        "▁достижения",
        -9.341643532793103
      ],
      [
        "▁свое",
        -9.341750562317458
      ],
      [
        "▁орган",
        -9.342961489008545
      ],
      [
        "про",
        -9.343141315320743
      ],
      [
        "туда",
        -9.347974779298063
      ],
      [
        "▁начал",
        -9.34855488295332
      ],
      [
        "ча",
        -9.351586581027206
      ],
      [
        "▁представляет",
        -9.35212227818073
      ],
      [
        "▁особо",
        -9.354167536096952
      ],
      [
        "поэтому",
        -9.354243507400305
      ],
      [
        "▁организациям",
        -9.354352057415792
      ],
      [
        "▁общества",
        -9.356266406070667
      ],
      [
        "▁Республика",
        -9.356488832455803
      ],
      [
        "▁каждый",
        -9.357243330423922
      ],
      [
        "▁одно",
        -9.359105195774799
      ],
      [
        "▁разработк",
        -9.359595225829802
      ],
      [
        "ООН",
        -9.362810978880376
      ],
      [
        "▁член",
        -9.363091884927695
      ],
      [
        "▁Б",
        -9.36481741531522
      ],
      [
        "прежнему",
        -9.365907150280677
      ],
      [
        "думаешь",
        -9.3671678559378
      ],
      [
        "▁силу",
        -9.368573881591503
      ],
      [
        "▁мужчин",
        -9.368983604007589
      ],
      [
        "▁Сторон",
        -9.369800538637495
      ],
      [
        "H",
        -9.369802032933563
      ],
      [
        "▁д",
        -9.369905429477912
      ],
      [
        "▁категори",
        -9.370408474170137
      ],
      [
        "▁финансировани",
        -9.370419781393185
      ],
      [
        "▁утра",
        -9.371975231577714
      ],
      [
        "▁конечно",
        -9.372748708873713
      ],
      [
        "Х",
        -9.373068113498324
      ],
      [
        "ность",
        -9.373070747399796
      ],
      [
        "▁учреждени",
        -9.373447015293163
      ],
      [
        "▁опыт",
        -9.373585683095275
      ],
      [
        "▁ра",
        -9.37417255384999
      ],
      [
        "▁находитс",
        -9.37517616869566
      ],
      [
        "▁нравитс",
        -9.375612760623444
      ],
      [
        "вал",
        -9.376255534032705
      ],
      [
        "▁создания",
        -9.378031050832021
      ],
      [
        "домой",
        -9.378184442214486
      ],
      [
        "▁согласно",
        -9.379191949801267
      ],
      [
        "▁осуществление",
        -9.379332893076938
      ],
      [
        "▁считает",
        -9.379863169398643
      ],
      [
        "▁Боже",
        -9.380464140912407
      ],
      [
        "T",
        -9.381358320235822
      ],
      [
        "▁подготовки",
        -9.3821979348023
      ],
      [
        "▁основных",
        -9.382259563190022
      ],
      [
        "▁понимаю",
        -9.382262786890037
      ],
      [
        "▁международной",
        -9.383049160943283
      ],
      [
        "дер",
        -9.386624704447733
      ],
      [
        "▁Штат",
        -9.387412006302437
      ],
      [
        "▁применения",
        -9.3874629963908
      ],
      [
        "чём",
        -9.387744430405608
      ],
      [
        "▁точно",
        -9.387887660633533
      ],
      [
        "▁представителе",
        -9.390159047412887
      ],
      [
        "▁Ник",
        -9.390791992706657
      ],
      [
        "▁Со",
        -9.391642046804463
      ],
      [
        "▁продолжать",
        -9.393402532004703
      ],
      [
        "▁международным",
        -9.394586436333729
      ],
      [
        "▁полно",
        -9.398685847718287
      ],
      [
        "▁норм",
        -9.399883958131149
      ],
      [
        "ских",
        -9.40053644030636
      ],
      [
        "мер",
        -9.400760058394368
      ],
      [
        "▁говорить",
        -9.401858636080656
      ],
      [
        "▁поддержани",
        -9.403991353120656
      ],
      [
        "▁♪",
        -9.40400519441647
      ],
      [
        "ар",
        -9.404026479099628
      ],
      [
        "html",
        -9.404270005080253
      ],
      [
        "▁рекомендации",
        -9.405944299674463
      ],
      [
        "▁изменения",
        -9.407012553035205
      ],
      [
        "хотите",
        -9.407072132150132
      ],
      [
        "▁окружающей",
        -9.407110164267415
      ],
      [
        "люблю",
        -9.407945082676807
      ],
      [
        "▁народ",
        -9.40825742293768
      ],
      [
        "▁контроля",
        -9.413008938351853
      ],
      [
        "▁функци",
        -9.41305163034492
      ],
      [
        "смотря",
        -9.415316150080667
      ],
      [
        "▁объем",
        -9.415609525597741
      ],
      [
        "▁экспертов",
        -9.415961306186794
      ],
      [
        "▁стране",
        -9.417177795627858
      ],
      [
        "▁телефон",
        -9.417554391338113
      ],
      [
        "▁Э",
        -9.41906557581534
      ],
      [
        "▁данные",
        -9.41974630151179
      ],
      [
        "▁метод",
        -9.419876207721671
      ],
      [
        "▁отчет",
        -9.423819479382617
      ],
      [
        "отец",
        -9.424555073771458
      ],
      [
        "▁число",
        -9.425224158707643
      ],
      [
        "▁Или",
        -9.42605875575316
      ],
      [
        "▁система",
        -9.42634922387289
      ],
      [
        "▁быстро",
        -9.426544658566657
      ],
      [
        "▁Нью",
        -9.428331005513918
      ],
      [
        "▁почти",
        -9.428463482724206
      ],
      [
        "делаешь",
        -9.428516007436912
      ],
      [
        "овсем",
        -9.429454285609658
      ],
      [
        "▁Конечно",
        -9.430271749293784
      ],
      [
        "▁номер",
        -9.43131300763406
      ],
      [
        "▁кое",
        -9.432313841466259
      ],
      [
        "▁помощью",
        -9.432706955175803
      ],
      [
        "▁государство",
        -9.434107643858042
      ],
      [
        "▁начала",
        -9.435845026211034
      ],
      [
        "▁переговор",
        -9.436951887822708
      ],
      [
        "ком",
        -9.436955013248564
      ],
      [
        "▁связан",
        -9.438898658575983
      ],
      [
        "мен",
        -9.440119932805462
      ],
      [
        "▁дискриминации",
        -9.44133561086203
      ],
      [
        "▁стал",
        -9.44633220944947
      ],
      [
        "▁многих",
        -9.447173291059665
      ],
      [
        "▁форм",
        -9.44966667517393
      ],
      [
        "▁иностранных",
        -9.450984588949119
      ],
      [
        "▁слова",
        -9.451744777316266
      ],
      [
        "▁сектор",
        -9.451907488901442
      ],
      [
        "▁всю",
        -9.452803522747693
      ],
      [
        "▁вайп",
        -9.453105312911017
      ],
      [
        "▁Пункт",
        -9.453311674263931
      ],
      [
        "▁рекомендаци",
        -9.453935852533562
      ],
      [
        "▁парень",
        -9.455057544454942
      ],
      [
        "▁связанны",
        -9.456242429127675
      ],
      [
        "▁факт",
        -9.459521070653746
      ],
      [
        "▁Скажи",
        -9.46276238063683
      ],
      [
        "M",
        -9.462981981704216
      ],
      [
        "▁необходимост",
        -9.463225050073618
      ],
      [
        "▁понял",
        -9.463419190874292
      ],
      [
        "ша",
        -9.463436236088233
      ],
      [
        "▁отс",
        -9.463961841008683
      ],
      [
        "ыми",
        -9.464958200809374
      ],
      [
        "ские",
        -9.465844336648102
      ],
      [
        "▁G",
        -9.46595359812937
      ],
      [
        "▁власти",
        -9.466771311457233
      ],
      [
        "▁Ничего",
        -9.467338675722308
      ],
      [
        "▁комисси",
        -9.467460571679954
      ],
      [
        "дать",
        -9.46796912074899
      ],
      [
        "▁усили",
        -9.468212072366516
      ],
      [
        "▁Там",
        -9.468943190395837
      ],
      [
        "al",
        -9.469001146413465
      ],
      [
        "▁встреч",
        -9.471548390302795
      ],
      [
        "▁числа",
        -9.471574725554271
      ],
      [
        "▁прежде",
        -9.472178655704944
      ],
      [
        "йте",
        -9.473650632975353
      ],
      [
        "▁иметь",
        -9.47417184349498
      ],
      [
        "▁министр",
        -9.47473267151053
      ],
      [
        "▁мероприяти",
        -9.475136684089822
      ],
      [
        "▁город",
        -9.476810758995791
      ],
      [
        "▁плохо",
        -9.476883951465908
      ],
      [
        "▁правительств",
        -9.480313687144907
      ],
      [
        "▁сил",
        -9.480699156512028
      ],
      [
        "▁Секретариат",
        -9.481069446801023
      ],
      [
        "▁крайне",
        -9.481231074285887
      ],
      [
        "▁общего",
        -9.481976069415651
      ],
      [
        "▁развивающихся",
        -9.482389543281727
      ],
      [
        "▁Ассамблее",
        -9.482508690597927
      ],
      [
        "▁учреждения",
        -9.483964234848905
      ],
      [
        "▁международном",
        -9.484685829393587
      ],
      [
        "▁виду",
        -9.485011082059204
      ],
      [
        "F",
        -9.485904450912063
      ],
      [
        "▁последни",
        -9.487632024666679
      ],
      [
        "ась",
        -9.487830107296727
      ],
      [
        "▁Рабоч",
        -9.489008034362609
      ],
      [
        "▁возможност",
        -9.48916282605119
      ],
      [
        "▁Групп",
        -9.489826498531095
      ],
      [
        "▁предлагает",
        -9.490501932544392
      ],
      [
        "▁Меня",
        -9.490562865240811
      ],
      [
        "ладно",
        -9.490634192415907
      ],
      [
        "▁отмечает",
        -9.491300121671179
      ],
      [
        "▁народов",
        -9.491700014122152
      ],
      [
        "▁странам",
        -9.49257984631214
      ],
      [
        "▁контекст",
        -9.493018783153907
      ],
      [
        "▁одним",
        -9.495564087205551
      ],
      [
        "▁месте",
        -9.495577280263127
      ],
      [
        "org",
        -9.495918119213368
      ],
      [
        "▁спасиб",
        -9.495922417965282
      ],
      [
        "▁социальны",
        -9.497482480761425
      ],
      [
        "▁России",
        -9.498167132951266
      ],
      [
        "▁кажетс",
        -9.49843656142075
      ],
      [
        "▁D",
        -9.499140587990862
      ],
      [
        "▁второй",
        -9.499887092528121
      ],
      [
        "▁друго",
        -9.501108014500083
      ],
      [
        "▁месяце",
        -9.50179422929871
      ],
      [
        "I",
        -9.503338101586532
      ],
      [
        "▁часов",
        -9.503446927640516
      ],
      [
        "ообще",
        -9.50364578432038
      ],
      [
        "овых",
        -9.504533076400667
      ],
      [
        "▁документа",
        -9.50469439804709
      ],
      [
        "▁Зде",
        -9.505286047165193
      ],
      [
        "▁Пока",
        -9.505409802266588
      ],
      [
        "▁оружие",
        -9.507670319535965
      ],
      [
        "k",
        -9.507871369493714
      ],
      [
        "ры",
        -9.507998280169627
      ],
      [
        "▁Возможно",
        -9.508294420930408
      ],
      [
        "▁ядерно",
        -9.511048521759456
      ],
      [
        "▁сумм",
        -9.5120849097097
      ],
      [
        "▁Хотя",
        -9.515321700355686
      ],
      [
        "▁Опубликован",
        -9.51598228400846
      ],
      [
        "▁рассмотрения",
        -9.516225507072752
      ],
      [
        "▁региона",
        -9.516528752952063
      ],
      [
        "▁участия",
        -9.516614473075862
      ],
      [
        "▁пред",
        -9.516871523991723
      ],
      [
        "▁расходов",
        -9.51696899083564
      ],
      [
        "▁около",
        -9.518161248629497
      ],
      [
        "▁пол",
        -9.51918702039059
      ],
      [
        "▁твое",
        -9.520123061779916
      ],
      [
        "▁положение",
        -9.521375734357829
      ],
      [
        "куда",
        -9.523414436924696
      ],
      [
        "▁те",
        -9.52393852942824
      ],
      [
        "▁информация",
        -9.524156362217003
      ],
      [
        "▁сторон",
        -9.525140105980945
      ],
      [
        "▁Мой",
        -9.52531064986946
      ],
      [
        "▁Ест",
        -9.525419385385892
      ],
      [
        "▁самы",
        -9.525733742627388
      ],
      [
        "▁Думаю",
        -9.526508466979788
      ],
      [
        "моего",
        -9.527172769141448
      ],
      [
        "▁среды",
        -9.52786919990892
      ],
      [
        "ают",
        -9.527970827502202
      ],
      [
        "ран",
        -9.528312058683142
      ],
      [
        "ель",
        -9.529839956780798
      ],
      [
        "▁компани",
        -9.529859397530473
      ],
      [
        "▁предложения",
        -9.530522489420367
      ],
      [
        "▁вернуть",
        -9.53178458960981
      ],
      [
        "ировать",
        -9.532082233281415
      ],
      [
        "ение",
        -9.533238111666588
      ],
      [
        "▁обеспечение",
        -9.53368961484368
      ],
      [
        "▁две",
        -9.533728928007775
      ],
      [
        "▁AM",
        -9.536056915318648
      ],
      [
        "чь",
        -9.536649161758834
      ],
      [
        "из",
        -9.536676206906236
      ],
      [
        "▁проблема",
        -9.53699901461792
      ],
      [
        "us",
        -9.537134315420005
      ],
      [
        "ньше",
        -9.53915257345744
      ],
      [
        "re",
        -9.53930644817334
      ],
      [
        "▁семьи",
        -9.539593627455844
      ],
      [
        "▁статус",
        -9.539625330797751
      ],
      [
        "▁лицо",
        -9.541529272810386
      ],
      [
        "▁ответственность",
        -9.541812282002802
      ],
      [
        "▁специально",
        -9.542375695540557
      ],
      [
        "▁женщины",
        -9.542416495957406
      ],
      [
        "ющих",
        -9.543468205966567
      ],
      [
        "▁совет",
        -9.543469149828796
      ],
      [
        "▁соответствующим",
        -9.543782395064163
      ],
      [
        "▁нищет",
        -9.544406595846384
      ],
      [
        "▁Ли",
        -9.545337838787393
      ],
      [
        "▁однако",
        -9.545560177977968
      ],
      [
        "▁баз",
        -9.54770327602105
      ],
      [
        "ности",
        -9.547906500215007
      ],
      [
        "▁Президент",
        -9.547952977867535
      ],
      [
        "▁создание",
        -9.548543319754156
      ],
      [
        "▁нами",
        -9.549344955604088
      ],
      [
        "▁обычно",
        -9.551493005436289
      ],
      [
        "▁Ещ",
        -9.551680564150082
      ],
      [
        "▁вклад",
        -9.552636270195187
      ],
      [
        "▁рабочи",
        -9.552702619465546
      ],
      [
        "▁повод",
        -9.552864095090655
      ],
      [
        "on",
        -9.553378818377158
      ],
      [
        "овой",
        -9.553445781722191
      ],
      [
        "пол",
        -9.555213869842307
      ],
      [
        "▁причин",
        -9.556329620927645
      ],
      [
        "▁предоставлени",
        -9.556661551251079
      ],
      [
        "$",
        -9.557131737376192
      ],
      [
        "▁государственны",
        -9.557740953758888
      ],
      [
        "▁персонала",
        -9.557747516727026
      ],
      [
        "конец",
        -9.560033999319666
      ],
      [
        "▁Ирак",
        -9.561820980989541
      ],
      [
        "тор",
        -9.564009057530606
      ],
      [
        "▁обзор",
        -9.566067294423519
      ],
      [
        "▁характер",
        -9.56643744230017
      ],
      [
        "ость",
        -9.56643865427597
      ],
      [
        "▁сообщил",
        -9.566664920313766
      ],
      [
        "▁курс",
        -9.571698382633738
      ],
      [
        "▁Европейско",
        -9.572715375202153
      ],
      [
        "▁Соединенны",
        -9.573682207651514
      ],
      [
        "le",
        -9.575271182549791
      ],
      [
        "▁никто",
        -9.57602077932323
      ],
      [
        "▁шесть",
        -9.576664962553025
      ],
      [
        "▁актив",
        -9.576747401953748
      ],
      [
        "Add",
        -9.577737287011033
      ],
      [
        "▁ниже",
        -9.579348466042966
      ],
      [
        "вин",
        -9.581010708661127
      ],
      [
        "ing",
        -9.581455665306933
      ],
      [
        "▁предложение",
        -9.581818023243011
      ],
      [
        "▁Итак",
        -9.58277793517156
      ],
      [
        "▁новый",
        -9.583465876246407
      ],
      [
        "un",
        -9.583558342309331
      ],
      [
        "▁направленны",
        -9.5838204276363
      ],
      [
        "▁секретар",
        -9.584019922062955
      ],
      [
        "▁пыта",
        -9.584722599493581
      ],
      [
        "▁мест",
        -9.584771408928615
      ],
      [
        "▁техническо",
        -9.584802128441904
      ],
      [
        "▁Специально",
        -9.585164708440198
      ],
      [
        "▁Об",
        -9.586962750369437
      ],
      [
        "▁перво",
        -9.587168715557343
      ],
      [
        "▁интереса",
        -9.587554342836205
      ],
      [
        "▁новые",
        -9.587576835147999
      ],
      [
        "▁Слушай",
        -9.588323241370173
      ],
      [
        "▁работает",
        -9.588478532619373
      ],
      [
        "▁района",
        -9.588583013873784
      ],
      [
        "цы",
        -9.588894295284987
      ],
      [
        "▁K",
        -9.5890873163892
      ],
      [
        "▁экономик",
        -9.590610602272497
      ],
      [
        "▁рекомендует",
        -9.591191230238197
      ],
      [
        "▁центр",
        -9.59230606747678
      ],
      [
        "▁произошл",
        -9.592645959749339
      ],
      [
        "али",
        -9.593550540277814
      ],
      [
        "▁Ассамблея",
        -9.595608982069354
      ],
      [
        "▁друга",
        -9.595649335980607
      ],
      [
        "▁совещания",
        -9.59625406220491
      ],
      [
        "▁охран",
        -9.597896886125174
      ],
      [
        "прав",
        -9.598051702859884
      ],
      [
        "при",
        -9.598174297369905
      ],
      [
        "V",
        -9.598659405277491
      ],
      [
        "▁мою",
        -9.59877187837974
      ],
      [
        "▁здоровь",
        -9.59991482434545
      ],
      [
        "▁конвенци",
        -9.60021734268669
      ],
      [
        "▁другим",
        -9.60303126865653
      ],
      [
        "&",
        -9.604516692836128
      ],
      [
        "ения",
        -9.605757211527148
      ],
      [
        "будешь",
        -9.605867758901457
      ],
      [
        "W",
        -9.606664313073138
      ],
      [
        "▁Прости",
        -9.607432175298282
      ],
      [
        "говорю",
        -9.608095891006187
      ],
      [
        "▁рассмотрение",
        -9.608751496549521
      ],
      [
        "▁жертв",
        -9.608763367662807
      ],
      [
        "▁Пере",
        -9.60914442184001
      ],
      [
        "▁сотрудничество",
        -9.610614690938599
      ],
      [
        "▁твои",
        -9.611671308149909
      ],
      [
        "▁текст",
        -9.6124380718788
      ],
      [
        "▁ликвидаци",
        -9.612762618043536
      ],
      [
        "▁Тво",
        -9.61355429195515
      ],
      [
        "▁правил",
        -9.614727382876413
      ],
      [
        "▁последние",
        -9.614748555380936
      ],
      [
        "▁силы",
        -9.616634843012248
      ],
      [
        "▁Под",
        -9.617899875257761
      ],
      [
        "▁T",
        -9.618176876333095
      ],
      [
        "▁нужна",
        -9.619963278720126
      ],
      [
        "фи",
        -9.6200739512728
      ],
      [
        "▁ребенка",
        -9.620129477375894
      ],
      [
        "▁II",
        -9.62065465184268
      ],
      [
        "▁уровень",
        -9.621152784403847
      ],
      [
        "▁воздух",
        -9.621837316239004
      ],
      [
        "▁либо",
        -9.62201046734565
      ],
      [
        "K",
        -9.623453702178182
      ],
      [
        "▁Хоч",
        -9.623916773697117
      ],
      [
        "▁сессия",
        -9.62441620808426
      ],
      [
        "▁вид",
        -9.625139309642636
      ],
      [
        "▁новост",
        -9.627006768488311
      ],
      [
        "▁слышал",
        -9.627344399550623
      ],
      [
        "▁труда",
        -9.627456910419994
      ],
      [
        "▁хороши",
        -9.62886073593111
      ],
      [
        "▁Америки",
        -9.628874833132704
      ],
      [
        "▁Иди",
        -9.629549891796342
      ],
      [
        "бер",
        -9.63038951699427
      ],
      [
        "▁обязательств",
        -9.631412730649796
      ],
      [
        "▁затем",
        -9.63206472419463
      ],
      [
        "▁заседания",
        -9.632229172817226
      ],
      [
        "▁заявление",
        -9.632308245412123
      ],
      [
        "▁приложение",
        -9.633164918670822
      ],
      [
        "лин",
        -9.634349975779537
      ],
      [
        "▁Федераци",
        -9.634833559784902
      ],
      [
        "▁Разве",
        -9.63737783806099
      ],
      [
        "▁анализ",
        -9.638358858559096
      ],
      [
        "стер",
        -9.639567514221294
      ],
      [
        "▁специальны",
        -9.640502515965824
      ],
      [
        "▁взнос",
        -9.641020417124
      ],
      [
        "сон",
        -9.641549760737183
      ],
      [
        "▁Бог",
        -9.641588381472111
      ],
      [
        "▁видеть",
        -9.641813646172743
      ],
      [
        "▁мама",
        -9.642458886003
      ],
      [
        "w",
        -9.643823003062021
      ],
      [
        "it",
        -9.644457533263214
      ],
      [
        "▁наибол",
        -9.64455701962723
      ],
      [
        "тон",
        -9.646420339161686
      ],
      [
        "▁здравоохранения",
        -9.64651778417262
      ],
      [
        "h",
        -9.646886917592498
      ],
      [
        "▁высоко",
        -9.648682615044345
      ],
      [
        "▁идт",
        -9.64888971473556
      ],
      [
        "▁Всемирно",
        -9.649329075396363
      ],
      [
        "▁производства",
        -9.649910342352108
      ],
      [
        "▁Сегодня",
        -9.650007380054369
      ],
      [
        "▁получил",
        -9.65050811280494
      ],
      [
        "зрения",
        -9.651018836442493
      ],
      [
        "▁Группа",
        -9.651616702212648
      ],
      [
        "▁совместно",
        -9.652575886292844
      ],
      [
        "▁делам",
        -9.652983819580193
      ],
      [
        "ИЧ",
        -9.654412484487704
      ],
      [
        "вших",
        -9.654518353965685
      ],
      [
        "▁получени",
        -9.655534938588023
      ],
      [
        "▁коренны",
        -9.655826145907579
      ],
      [
        "▁h",
        -9.655867756950949
      ],
      [
        "▁перв",
        -9.65660110227557
      ],
      [
        "▁сообщение",
        -9.65731607760722
      ],
      [
        "an",
        -9.657888871646419
      ],
      [
        "▁раздел",
        -9.658356493217667
      ],
      [
        "▁правосуди",
        -9.658981496324657
      ],
      [
        "▁согласи",
        -9.659666828197137
      ],
      [
        "▁осуществлении",
        -9.65991264274994
      ],
      [
        "▁могла",
        -9.661024496605705
      ],
      [
        "▁фактор",
        -9.661517469021431
      ],
      [
        "▁просьб",
        -9.662971311993775
      ],
      [
        "▁состоит",
        -9.663762787659419
      ],
      [
        "▁часто",
        -9.663781118992837
      ],
      [
        "раз",
        -9.664698889945694
      ],
      [
        "▁суда",
        -9.665515793433794
      ],
      [
        "десят",
        -9.665531314308748
      ],
      [
        "ости",
        -9.665809280264611
      ],
      [
        "▁верну",
        -9.666121953692109
      ],
      [
        "ному",
        -9.667653819236097
      ],
      [
        "▁узна",
        -9.667790597591996
      ],
      [
        "▁целом",
        -9.669253015118354
      ],
      [
        "▁любы",
        -9.669784058237324
      ],
      [
        "▁PM",
        -9.669943811587714
      ],
      [
        "▁своё",
        -9.670080339910044
      ],
      [
        "▁брат",
        -9.670139555294744
      ],
      [
        "▁H",
        -9.670964298444401
      ],
      [
        "▁Казахстан",
        -9.673618526928582
      ],
      [
        "▁Ваш",
        -9.673734652187086
      ],
      [
        "u",
        -9.673757251127707
      ],
      [
        "▁Генеральн",
        -9.67410097463084
      ],
      [
        "▁национально",
        -9.674154746498846
      ],
      [
        "▁слово",
        -9.674249652704027
      ],
      [
        "▁кроме",
        -9.674923112075113
      ],
      [
        "лет",
        -9.675253993922073
      ],
      [
        "▁мероприятия",
        -9.675500056161477
      ],
      [
        "▁дети",
        -9.675856442328561
      ],
      [
        "▁первой",
        -9.675994383799333
      ],
      [
        "▁дене",
        -9.679560697014598
      ],
      [
        "ём",
        -9.679881979934748
      ],
      [
        "▁количество",
        -9.680084299851263
      ],
      [
        "▁содержит",
        -9.681419644859464
      ],
      [
        "▁обслуживани",
        -9.682006767580052
      ],
      [
        "путь",
        -9.682320697243988
      ],
      [
        "▁эффективност",
        -9.682680525885402
      ],
      [
        "людь",
        -9.68273350903332
      ],
      [
        "▁официально",
        -9.682845972939312
      ],
      [
        "лон",
        -9.683251116749226
      ],
      [
        "▁отметил",
        -9.684346167383044
      ],
      [
        "▁куда",
        -9.68546189896305
      ],
      [
        "▁реформ",
        -9.685766020493926
      ],
      [
        "▁of",
        -9.68593282327912
      ],
      [
        "▁разработки",
        -9.686081976766642
      ],
      [
        "▁Р",
        -9.68711608125043
      ],
      [
        "▁Раз",
        -9.687716925294259
      ],
      [
        "▁увидеть",
        -9.688580680595935
      ],
      [
        "▁бюджет",
        -9.68965464421783
      ],
      [
        "▁координации",
        -9.689902506881776
      ],
      [
        "З",
        -9.690103577228395
      ],
      [
        "▁принял",
        -9.692113084412881
      ],
      [
        "▁Значит",
        -9.69241229301067
      ],
      [
        "▁ответственност",
        -9.69256822810571
      ],
      [
        "▁принимать",
        -9.693002404963753
      ],
      [
        "▁документов",
        -9.694474042052727
      ],
      [
        "▁де",
        -9.69464156783947
      ],
      [
        "▁Департамент",
        -9.695171652816251
      ],
      [
        "es",
        -9.69517443957542
      ],
      [
        "▁цен",
        -9.69626006046819
      ],
      [
        "▁активно",
        -9.69632287605635
      ],
      [
        "▁Международно",
        -9.698200550738267
      ],
      [
        "▁вопроса",
        -9.69856414593308
      ],
      [
        "▁час",
        -9.698823180545267
      ],
      [
        "▁Ла",
        -9.700132104382678
      ],
      [
        "▁провел",
        -9.700438647226708
      ],
      [
        "▁Мо",
        -9.7005935487176
      ],
      [
        "▁Мобильный",
        -9.701671728395636
      ],
      [
        "вор",
        -9.703677933594964
      ],
      [
        "▁органам",
        -9.704967092747223
      ],
      [
        "одну",
        -9.705355723686722
      ],
      [
        "▁любой",
        -9.705648792443164
      ],
      [
        "▁секретариат",
        -9.706446905236758
      ],
      [
        "▁ту",
        -9.707025205448694
      ],
      [
        "Э",
        -9.708274233490126
      ],
      [
        "ист",
        -9.708530596527893
      ],
      [
        "▁лучши",
        -9.70914477583148
      ],
      [
        "▁ж",
        -9.709365151528843
      ],
      [
        "▁Н",
        -9.709865636077415
      ],
      [
        "▁многие",
        -9.710748636577932
      ],
      [
        "▁всей",
        -9.711423250073441
      ],
      [
        "▁сектора",
        -9.711745465986866
      ],
      [
        "▁проведение",
        -9.712461980163742
      ],
      [
        "▁вывод",
        -9.713074217989291
      ],
      [
        "▁программа",
        -9.713259949457761
      ],
      [
        "пер",
        -9.714364906330053
      ],
      [
        "▁степени",
        -9.71490950777362
      ],
      [
        "▁этап",
        -9.717155350765427
      ],
      [
        "▁пять",
        -9.717447866864696
      ],
      [
        "▁обязательства",
        -9.717508733887882
      ],
      [
        "альше",
        -9.717633855876713
      ],
      [
        "▁пре",
        -9.718053067133225
      ],
      [
        "▁внимани",
        -9.718491811835971
      ],
      [
        "овые",
        -9.71868225896553
      ],
      [
        "кой",
        -9.71874657211529
      ],
      [
        "▁просит",
        -9.71893477999983
      ],
      [
        "▁книг",
        -9.719256600000058
      ],
      [
        "•",
        -9.719922930012888
      ],
      [
        "▁V",
        -9.721685866849011
      ],
      [
        "▁сможе",
        -9.723061619005898
      ],
      [
        "▁вещи",
        -9.72361031551113
      ],
      [
        "▁Л",
        -9.723847887375062
      ],
      [
        "▁Специальны",
        -9.724230504383176
      ],
      [
        "▁Деклараци",
        -9.72445062079296
      ],
      [
        "▁другом",
        -9.724761268178124
      ],
      [
        "▁инструмент",
        -9.725543221431767
      ],
      [
        "▁нельзя",
        -9.725995968916717
      ],
      [
        "▁сервер",
        -9.726659868012062
      ],
      [
        "воды",
        -9.72713673460237
      ],
      [
        "▁Poste",
        -9.728795011418299
      ],
      [
        "▁расход",
        -9.72888950350363
      ],
      [
        "▁виде",
        -9.729080884763587
      ],
      [
        "▁граждан",
        -9.729172269711125
      ],
      [
        "▁международно",
        -9.729549053051187
      ],
      [
        "▁Международного",
        -9.733288733067385
      ],
      [
        "at",
        -9.733704710694795
      ],
      [
        "▁Закон",
        -9.733914975319134
      ],
      [
        "▁сама",
        -9.734884952603474
      ],
      [
        "▁границ",
        -9.735744825326062
      ],
      [
        "▁помн",
        -9.735861491765268
      ],
      [
        "▁готов",
        -9.736108278793283
      ],
      [
        "▁конце",
        -9.736385526500804
      ],
      [
        "▁Фонд",
        -9.736401842789249
      ],
      [
        "▁соответствующе",
        -9.738166439449625
      ],
      [
        "▁лично",
        -9.739001474415481
      ],
      [
        "▁областя",
        -9.73938210484125
      ],
      [
        "▁наук",
        -9.73979404282797
      ],
      [
        "▁финансовых",
        -9.740291886901025
      ],
      [
        "▁директор",
        -9.740358212163354
      ],
      [
        "▁трех",
        -9.742118873377825
      ],
      [
        "▁наше",
        -9.742856468440463
      ],
      [
        "▁повышения",
        -9.74405123060416
      ],
      [
        "▁стали",
        -9.745079796896059
      ],
      [
        "▁Ш",
        -9.745096535029035
      ],
      [
        "▁Доклад",
        -9.745319482824673
      ],
      [
        "▁объект",
        -9.745476251940246
      ],
      [
        "▁черт",
        -9.746296047970795
      ],
      [
        "думать",
        -9.747772804823025
      ],
      [
        "▁кем",
        -9.748276231555476
      ],
      [
        "▁рассмотрени",
        -9.748573229052106
      ],
      [
        "▁благодаря",
        -9.749189460772087
      ],
      [
        "ство",
        -9.74953673420104
      ],
      [
        "▁широко",
        -9.7502376767911
      ],
      [
        "▁O",
        -9.750851186407733
      ],
      [
        "мать",
        -9.75100667014005
      ],
      [
        "▁ре",
        -9.752081434300145
      ],
      [
        "▁самое",
        -9.752980903047042
      ],
      [
        "▁каждого",
        -9.753512491120746
      ],
      [
        "▁c",
        -9.753754775773292
      ],
      [
        "тра",
        -9.755462973199352
      ],
      [
        "▁меньше",
        -9.755551171422677
      ],
      [
        "▁означает",
        -9.755747659751794
      ],
      [
        "▁соглашения",
        -9.755793128055629
      ],
      [
        "▁Ар",
        -9.757202076152659
      ],
      [
        "▁основ",
        -9.758448259146533
      ],
      [
        "▁тысяч",
        -9.758745670166407
      ],
      [
        "▁Наш",
        -9.759829189873514
      ],
      [
        "Моя",
        -9.759978367395489
      ],
      [
        "▁настоятельно",
        -9.760120114377989
      ],
      [
        "▁плана",
        -9.761183934315337
      ],
      [
        "▁весь",
        -9.761341873873324
      ],
      [
        "бор",
        -9.761672798117308
      ],
      [
        "▁найден",
        -9.762823200605894
      ],
      [
        "▁игры",
        -9.763363321879996
      ],
      [
        "▁Посмотри",
        -9.766669515020723
      ],
      [
        "▁совещани",
        -9.766744405028621
      ],
      [
        "▁принимает",
        -9.766886783947985
      ],
      [
        "бы",
        -9.76758968212831
      ],
      [
        "▁укрепления",
        -9.767965520800601
      ],
      [
        "▁составляет",
        -9.768130791791577
      ],
      [
        "▁четыре",
        -9.76862942528902
      ],
      [
        "▁рабоче",
        -9.768799764096856
      ],
      [
        "▁клиент",
        -9.76911580251026
      ],
      [
        "▁явля",
        -9.769581312529123
      ],
      [
        "▁секунд",
        -9.76974085085097
      ],
      [
        "пл",
        -9.770011654740987
      ],
      [
        "▁оказани",
        -9.770379878522224
      ],
      [
        "жаль",
        -9.770438336041451
      ],
      [
        "▁каждо",
        -9.770578043825275
      ],
      [
        "▁позици",
        -9.77083134668747
      ],
      [
        "▁ясно",
        -9.77089226643085
      ],
      [
        "▁вод",
        -9.770937500139057
      ],
      [
        "▁размере",
        -9.771162786677813
      ],
      [
        "▁включен",
        -9.771290514417249
      ],
      [
        "▁Re",
        -9.771355169706066
      ],
      [
        "ше",
        -9.771357440130807
      ],
      [
        "▁обо",
        -9.772162482525635
      ],
      [
        "▁комнат",
        -9.773192547782841
      ],
      [
        "▁большо",
        -9.774490220880327
      ],
      [
        "▁долго",
        -9.774866084542237
      ],
      [
        "нимаешь",
        -9.775284831123944
      ],
      [
        "▁Ха",
        -9.775964269765458
      ],
      [
        "говорят",
        -9.776422942478973
      ],
      [
        "ён",
        -9.777478264887662
      ],
      [
        "▁одном",
        -9.777866980195638
      ],
      [
        "▁последствия",
        -9.779130532536698
      ],
      [
        "овать",
        -9.780059858358268
      ],
      [
        "▁Организация",
        -9.780362503411798
      ],
      [
        "▁сможет",
        -9.78183239240629
      ],
      [
        "▁Пол",
        -9.782020858573729
      ],
      [
        "▁како",
        -9.782081876372423
      ],
      [
        "ёт",
        -9.783647201832427
      ],
      [
        "▁организация",
        -9.78443511623533
      ],
      [
        "▁сердце",
        -9.784462841861519
      ],
      [
        "▁уголовно",
        -9.785457691507872
      ],
      [
        "▁изменени",
        -9.785606349525287
      ],
      [
        "род",
        -9.78572229610798
      ],
      [
        "▁практически",
        -9.786013598707875
      ],
      [
        "▁доктор",
        -9.786108212957316
      ],
      [
        "▁бюджета",
        -9.786836196157008
      ],
      [
        "▁Ази",
        -9.787031994929453
      ],
      [
        "знаем",
        -9.787820062356218
      ],
      [
        "▁самым",
        -9.788481164692747
      ],
      [
        "▁имею",
        -9.78855338141442
      ],
      [
        "▁убил",
        -9.789023668450113
      ],
      [
        "▁серьезно",
        -9.78980650000545
      ],
      [
        "▁представителя",
        -9.790705815533263
      ],
      [
        "G",
        -9.790828276023102
      ],
      [
        "▁экономическо",
        -9.790920163225312
      ],
      [
        "▁внутри",
        -9.791882217976497
      ],
      [
        "ятся",
        -9.792036169686988
      ],
      [
        "▁сильно",
        -9.792130895973626
      ],
      [
        "▁масштаб",
        -9.792174519743995
      ],
      [
        "▁сказали",
        -9.792453348252167
      ],
      [
        "▁соблюдени",
        -9.792531730220535
      ],
      [
        "▁принято",
        -9.793141760911404
      ],
      [
        "is",
        -9.793343491726667
      ],
      [
        "▁войны",
        -9.79472755314724
      ],
      [
        "▁нашли",
        -9.79500368567561
      ],
      [
        "▁поощрени",
        -9.797594409201935
      ],
      [
        "▁верно",
        -9.797916160349855
      ],
      [
        "▁внутренни",
        -9.797990150856288
      ],
      [
        "▁нового",
        -9.798782865326917
      ],
      [
        "▁режим",
        -9.799230889585075
      ],
      [
        "▁R",
        -9.800880460726706
      ],
      [
        "▁достижени",
        -9.801097049030405
      ],
      [
        "▁Отлично",
        -9.801537739404065
      ],
      [
        "▁Простите",
        -9.801562712874265
      ],
      [
        "▁Заче",
        -9.801602904841186
      ],
      [
        "▁ущерб",
        -9.801957562446827
      ],
      [
        "ском",
        -9.802426296886875
      ],
      [
        "ющий",
        -9.802511273117734
      ],
      [
        "▁Мистер",
        -9.802881271494293
      ],
      [
        "говорит",
        -9.802923095974803
      ],
      [
        "▁направлен",
        -9.803089818709621
      ],
      [
        "▁качества",
        -9.803091160242385
      ],
      [
        "▁завтра",
        -9.803804600612262
      ],
      [
        "▁руководство",
        -9.804339598685129
      ],
      [
        "▁общей",
        -9.80462033215236
      ],
      [
        "вод",
        -9.804933826847392
      ],
      [
        "▁использование",
        -9.805745862451131
      ],
      [
        "▁зову",
        -9.806089568128876
      ],
      [
        "▁фонд",
        -9.808982882569117
      ],
      [
        "▁Тем",
        -9.810783949219978
      ],
      [
        "▁результатов",
        -9.81171508896376
      ],
      [
        "▁представитель",
        -9.811941987972261
      ],
      [
        "▁большой",
        -9.812017294249404
      ],
      [
        "▁осуществлять",
        -9.81202045943031
      ],
      [
        "▁Вас",
        -9.812901399082808
      ],
      [
        "▁вариант",
        -9.813752554063008
      ],
      [
        "▁жить",
        -9.813882260428382
      ],
      [
        "▁странами",
        -9.815005149545318
      ],
      [
        "▁Подожди",
        -9.817092447840915
      ],
      [
        "ad",
        -9.817660289974278
      ],
      [
        "жды",
        -9.81826689355464
      ],
      [
        "▁Организаци",
        -9.81855527754162
      ],
      [
        "▁плане",
        -9.81912707633731
      ],
      [
        "▁сообщество",
        -9.819871881231649
      ],
      [
        "▁Управление",
        -9.820638407559393
      ],
      [
        "▁региональных",
        -9.822452178625596
      ],
      [
        "она",
        -9.822865177089337
      ],
      [
        "▁преступления",
        -9.823728173670638
      ],
      [
        "▁Сан",
        -9.825805769068687
      ],
      [
        "▁правила",
        -9.826009660753938
      ],
      [
        "ходят",
        -9.826024668475036
      ],
      [
        "▁рассмотре",
        -9.82650677782053
      ],
      [
        "▁Чтоб",
        -9.826709972895088
      ],
      [
        "эн",
        -9.82723537882536
      ],
      [
        "▁N",
        -9.827764609673865
      ],
      [
        "▁никаких",
        -9.828111776553897
      ],
      [
        "▁d",
        -9.828225613509321
      ],
      [
        "▁правах",
        -9.828339543623978
      ],
      [
        "ца",
        -9.831105272793444
      ],
      [
        "▁роли",
        -9.831194102073471
      ],
      [
        "▁судебно",
        -9.83138102394199
      ],
      [
        "ел",
        -9.832012860010316
      ],
      [
        "мимо",
        -9.832133880581011
      ],
      [
        "знаете",
        -9.833227083074792
      ],
      [
        "нов",
        -9.833500082012048
      ],
      [
        "▁следующе",
        -9.834110657888273
      ],
      [
        "▁смогу",
        -9.834202791387739
      ],
      [
        "▁карт",
        -9.834404837523808
      ],
      [
        "▁указан",
        -9.837713066305483
      ],
      [
        "▁Можн",
        -9.839879969637629
      ],
      [
        "▁существует",
        -9.83998139203272
      ],
      [
        "▁сообщества",
        -9.841013561726552
      ],
      [
        "la",
        -9.84235915113899
      ],
      [
        "▁угроз",
        -9.842782301132612
      ],
      [
        "▁шанс",
        -9.842827832147815
      ],
      [
        "▁Те",
        -9.843461130112988
      ],
      [
        "▁свет",
        -9.84382105883882
      ],
      [
        "▁давай",
        -9.844465690206066
      ],
      [
        "or",
        -9.844814774665792
      ],
      [
        "▁будт",
        -9.84499082862289
      ],
      [
        "▁процента",
        -9.846251948051185
      ],
      [
        "▁управление",
        -9.846458250255115
      ],
      [
        "ставить",
        -9.84668917160199
      ],
      [
        "▁экономического",
        -9.846783029287447
      ],
      [
        "▁данно",
        -9.84713650679042
      ],
      [
        "ден",
        -9.847155868453786
      ],
      [
        "▁доход",
        -9.84785049718634
      ],
      [
        "▁Канад",
        -9.849292950222646
      ],
      [
        "▁наде",
        -9.849351974004936
      ],
      [
        "▁размер",
        -9.849683351574402
      ],
      [
        "▁сделали",
        -9.85085563236672
      ],
      [
        "▁земле",
        -9.850876947830738
      ],
      [
        "▁общин",
        -9.85181229723728
      ],
      [
        "ска",
        -9.852208174883113
      ],
      [
        "▁проводить",
        -9.85244903680281
      ],
      [
        "счет",
        -9.852465412533494
      ],
      [
        "▁веб",
        -9.852983754157627
      ],
      [
        "▁исследования",
        -9.854357677588188
      ],
      [
        "▁уж",
        -9.855899172473263
      ],
      [
        "▁партнер",
        -9.856834484325905
      ],
      [
        "▁проведен",
        -9.858538505500295
      ],
      [
        "▁представления",
        -9.858682052096087
      ],
      [
        "▁Рабоче",
        -9.858691631508956
      ],
      [
        "▁Похож",
        -9.861891027250184
      ],
      [
        "ёр",
        -9.862762417723072
      ],
      [
        "X",
        -9.8628539734349
      ],
      [
        "ar",
        -9.862937864883882
      ],
      [
        "▁рост",
        -9.864609911645601
      ],
      [
        "▁народа",
        -9.865932009771349
      ],
      [
        "▁ради",
        -9.866569793076408
      ],
      [
        "▁гражданского",
        -9.86683532476377
      ],
      [
        "R",
        -9.867325571766415
      ],
      [
        "ночи",
        -9.867504828419456
      ],
      [
        "▁легко",
        -9.868923414655393
      ],
      [
        "de",
        -9.869000109357312
      ],
      [
        "▁компьютер",
        -9.86976694434647
      ],
      [
        "бу",
        -9.871645147146044
      ],
      [
        "▁вижу",
        -9.871825625879222
      ],
      [
        "мин",
        -9.872983528310305
      ],
      [
        "▁информационно",
        -9.87338671858205
      ],
      [
        "членов",
        -9.874403680804555
      ],
      [
        "▁подумал",
        -9.874737993891923
      ],
      [
        "▁играть",
        -9.87488527985808
      ],
      [
        "▁материал",
        -9.876380969634909
      ],
      [
        "▁мандат",
        -9.876542524352466
      ],
      [
        "▁уровнях",
        -9.877561280846159
      ],
      [
        "▁ребята",
        -9.878276115409324
      ],
      [
        "▁Проект",
        -9.878911972274114
      ],
      [
        "▁продукци",
        -9.879214305769075
      ],
      [
        "▁конфликта",
        -9.880613232214518
      ],
      [
        "▁Правд",
        -9.881103254537297
      ],
      [
        "оказания",
        -9.88225597153152
      ],
      [
        "▁беженце",
        -9.882592381482736
      ],
      [
        "▁никако",
        -9.884518359704119
      ],
      [
        "▁ЮН",
        -9.884585483563116
      ],
      [
        "▁воз",
        -9.88494705132101
      ],
      [
        "“",
        -9.885378707710577
      ],
      [
        "▁союз",
        -9.88551920959748
      ],
      [
        "▁отношени",
        -9.886025911032206
      ],
      [
        "▁посредством",
        -9.88611349090778
      ],
      [
        "ющие",
        -9.887310343912922
      ],
      [
        "▁правово",
        -9.888048950997597
      ],
      [
        "ref",
        -9.888256399295
      ],
      [
        "▁программам",
        -9.888383792268892
      ],
      [
        "▁правильно",
        -9.88878971919123
      ],
      [
        "ведению",
        -9.889253907106724
      ],
      [
        "▁предусматривает",
        -9.889611904491632
      ],
      [
        "▁значительно",
        -9.889821916742548
      ],
      [
        "▁национальной",
        -9.890374108891985
      ],
      [
        "▁политических",
        -9.890833282311927
      ],
      [
        "▁отца",
        -9.891289877995867
      ],
      [
        "▁сравнени",
        -9.8913333811183
      ],
      [
        "▁дух",
        -9.891467322077483
      ],
      [
        "▁известно",
        -9.89149374041483
      ],
      [
        "▁обмен",
        -9.89162882594269
      ],
      [
        "▁национальном",
        -9.891858603128618
      ],
      [
        "▁устойчивого",
        -9.891899434792368
      ],
      [
        "▁Извините",
        -9.892185509446286
      ],
      [
        "ски",
        -9.892555937580028
      ],
      [
        "▁нормально",
        -9.894995384904501
      ],
      [
        "N",
        -9.89520521208366
      ],
      [
        "▁честь",
        -9.89640782095694
      ],
      [
        "▁вечером",
        -9.89651933767367
      ],
      [
        "j",
        -9.897089113095547
      ],
      [
        "дел",
        -9.897801023731384
      ],
      [
        "▁скоро",
        -9.898178604393099
      ],
      [
        "▁женщинам",
        -9.898231691900392
      ],
      [
        "▁пятьдесят",
        -9.898394673599299
      ],
      [
        "▁передач",
        -9.898902326995998
      ],
      [
        "▁станет",
        -9.898992776391253
      ],
      [
        "▁Вмест",
        -9.899473361136042
      ],
      [
        "▁видов",
        -9.899633319918289
      ],
      [
        "▁дале",
        -9.899965394600603
      ],
      [
        "менно",
        -9.900358331130352
      ],
      [
        "▁твоего",
        -9.900495131875992
      ],
      [
        "▁Африки",
        -9.900742197796728
      ],
      [
        "▁Согласн",
        -9.901114280768795
      ],
      [
        "бил",
        -9.901280713570738
      ],
      [
        "говоришь",
        -9.9020038077221
      ],
      [
        "▁придет",
        -9.902181743979185
      ],
      [
        "▁рынк",
        -9.903541346249913
      ],
      [
        "▁Один",
        -9.904429960824114
      ],
      [
        "▁мало",
        -9.904433473616368
      ],
      [
        "▁ресурсы",
        -9.90443989649136
      ],
      [
        "▁распространени",
        -9.904568544899377
      ],
      [
        "чик",
        -9.904620438235533
      ],
      [
        "▁кому",
        -9.904985592361783
      ],
      [
        "член",
        -9.905467740461262
      ],
      [
        "▁Добро",
        -9.905471494891778
      ],
      [
        "бра",
        -9.905790659403252
      ],
      [
        "▁создать",
        -9.906470122799178
      ],
      [
        "▁языка",
        -9.906501483163211
      ],
      [
        "▁эксплуатаци",
        -9.907575041585886
      ],
      [
        "▁линии",
        -9.908678453461551
      ],
      [
        "▁UR",
        -9.909514211575669
      ],
      [
        "▁моим",
        -9.911667711721222
      ],
      [
        "вали",
        -9.911777037973824
      ],
      [
        "▁массово",
        -9.91272856261251
      ],
      [
        "шего",
        -9.912941211386634
      ],
      [
        "▁кон",
        -9.913763530932615
      ],
      [
        "▁э",
        -9.914097244563337
      ],
      [
        "ового",
        -9.914168350841159
      ],
      [
        "▁имеющих",
        -9.914663082317492
      ],
      [
        "▁работал",
        -9.916334891333722
      ],
      [
        "оистин",
        -9.91685888866041
      ],
      [
        "▁незаконно",
        -9.917029108689722
      ],
      [
        "сети",
        -9.917509820223078
      ],
      [
        "▁независимо",
        -9.917618693488754
      ],
      [
        "▁урегулировани",
        -9.917941661094872
      ],
      [
        "▁возьми",
        -9.918548962496901
      ],
      [
        "▁Без",
        -9.918975914870757
      ],
      [
        "▁полной",
        -9.919475377804826
      ],
      [
        "▁Windows",
        -9.919617507847827
      ],
      [
        "▁глав",
        -9.92049237891091
      ],
      [
        "▁пар",
        -9.9206104777209
      ],
      [
        "▁Европы",
        -9.920895268879534
      ],
      [
        "▁каким",
        -9.920999352932112
      ],
      [
        "ща",
        -9.922295311551604
      ],
      [
        "смерти",
        -9.92271579650383
      ],
      [
        "▁находят",
        -9.922758491012544
      ],
      [
        "▁ошибк",
        -9.922973110934151
      ],
      [
        "▁пару",
        -9.92320068200569
      ],
      [
        "▁структур",
        -9.923306311548394
      ],
      [
        "▁З",
        -9.92363811001118
      ],
      [
        "▁стало",
        -9.924185457534742
      ],
      [
        "CN",
        -9.924626409189457
      ],
      [
        "▁институт",
        -9.925157575862318
      ],
      [
        "▁фотографи",
        -9.92542594902569
      ],
      [
        "”",
        -9.9257270920783
      ],
      [
        "▁лицам",
        -9.926541881742956
      ],
      [
        "▁специалист",
        -9.926760953252822
      ],
      [
        "вар",
        -9.926978226478546
      ],
      [
        "ra",
        -9.92728918734008
      ],
      [
        "▁Статья",
        -9.928116211207676
      ],
      [
        "бл",
        -9.928224084303858
      ],
      [
        "▁центра",
        -9.92879669052681
      ],
      [
        "▁весьма",
        -9.929004117786187
      ],
      [
        "овая",
        -9.930225323162853
      ],
      [
        "▁Ко",
        -9.930924673897731
      ],
      [
        "▁докладчик",
        -9.9310969238382
      ],
      [
        "▁Ре",
        -9.93121524951042
      ],
      [
        "▁Бо",
        -9.932100222018072
      ],
      [
        "▁протокол",
        -9.932197228372331
      ],
      [
        "▁учреждениям",
        -9.932198062911759
      ],
      [
        "▁связанные",
        -9.933283602437385
      ],
      [
        "шел",
        -9.93388006462953
      ],
      [
        "▁предмет",
        -9.935037733686292
      ],
      [
        "z",
        -9.935076696272919
      ],
      [
        "▁Управлени",
        -9.936386008065362
      ],
      [
        "▁Джон",
        -9.93645543810158
      ],
      [
        "▁ране",
        -9.936683439157779
      ],
      [
        "▁материалов",
        -9.93792731164275
      ],
      [
        "▁шаг",
        -9.937940117019467
      ],
      [
        "▁идет",
        -9.938200314130771
      ],
      [
        "ван",
        -9.938502327994273
      ],
      [
        "▁обсуждения",
        -9.938809740251617
      ],
      [
        "бежать",
        -9.940265951382006
      ],
      [
        "▁очередь",
        -9.940328170668899
      ],
      [
        "▁Африке",
        -9.940620568402345
      ],
      [
        "▁Армении",
        -9.941019501293768
      ],
      [
        "▁тысячелетия",
        -9.941853577591466
      ],
      [
        "il",
        -9.942581010465457
      ],
      [
        "бе",
        -9.94266450598398
      ],
      [
        "нём",
        -9.942942847560914
      ],
      [
        "цев",
        -9.943335476532361
      ],
      [
        "php",
        -9.943401310929561
      ],
      [
        "▁которыми",
        -9.943537590705962
      ],
      [
        "тан",
        -9.944061337532585
      ],
      [
        "▁женщина",
        -9.944191497170156
      ],
      [
        "скую",
        -9.945681439090123
      ],
      [
        "▁союза",
        -9.945761280209428
      ],
      [
        "▁представители",
        -9.946028957720962
      ],
      [
        "▁своими",
        -9.946316674848646
      ],
      [
        "▁состоянии",
        -9.946607504044188
      ],
      [
        "▁основани",
        -9.946967091287679
      ],
      [
        "▁руководящи",
        -9.947593914169424
      ],
      [
        "▁периода",
        -9.948151635625017
      ],
      [
        "ъ",
        -9.948506296915477
      ],
      [
        "▁преступности",
        -9.948666974842107
      ],
      [
        "▁Кар",
        -9.94868856416819
      ],
      [
        "▁учебны",
        -9.949457880407602
      ],
      [
        "▁самых",
        -9.949932292503394
      ],
      [
        "▁законодательств",
        -9.949986027321629
      ],
      [
        "вид",
        -9.950100317866884
      ],
      [
        "▁обратно",
        -9.950816317055999
      ],
      [
        "▁начать",
        -9.951240369506058
      ],
      [
        "▁предотвращени",
        -9.951335918502334
      ],
      [
        "▁нужны",
        -9.952133199402937
      ],
      [
        "▁тюрьм",
        -9.952384861228387
      ],
      [
        "▁нему",
        -9.952782037445276
      ],
      [
        "▁проверк",
        -9.953035306972787
      ],
      [
        "гл",
        -9.953101032515928
      ],
      [
        "▁сбор",
        -9.953330092143322
      ],
      [
        "U",
        -9.95338046795668
      ],
      [
        "зд",
        -9.953565685425982
      ],
      [
        "▁взять",
        -9.953681286744452
      ],
      [
        "▁участнико",
        -9.954884849024868
      ],
      [
        "▁рад",
        -9.9566640355312
      ],
      [
        "▁типа",
        -9.956908898987184
      ],
      [
        "▁последстви",
        -9.957405347433454
      ],
      [
        "▁сделала",
        -9.958198252136484
      ],
      [
        "▁убить",
        -9.958499757754758
      ],
      [
        "▁всеми",
        -9.95856926667764
      ],
      [
        "▁L",
        -9.958673393170928
      ],
      [
        "▁роста",
        -9.958740472922063
      ],
      [
        "▁закона",
        -9.959010188123465
      ],
      [
        "▁дверь",
        -9.960019720137982
      ],
      [
        "▁данном",
        -9.960317601543078
      ],
      [
        "▁Некоторы",
        -9.960347322195359
      ],
      [
        "▁скоре",
        -9.960687293810372
      ],
      [
        "se",
        -9.960891196670449
      ],
      [
        "▁Доктор",
        -9.961367113827805
      ],
      [
        "нер",
        -9.961600127849565
      ],
      [
        "▁словам",
        -9.96167059946633
      ],
      [
        "▁правд",
        -9.961824574031025
      ],
      [
        "▁существующи",
        -9.961904163786304
      ],
      [
        "▁систему",
        -9.964272286218645
      ],
      [
        "▁президент",
        -9.966360556037799
      ],
      [
        "▁подчеркнул",
        -9.966699209711376
      ],
      [
        "▁Таким",
        -9.9671722104524
      ],
      [
        "th",
        -9.9673972535922
      ],
      [
        "▁узнал",
        -9.969167059542327
      ],
      [
        "▁Де",
        -9.96928278212411
      ],
      [
        "фе",
        -9.969369910608687
      ],
      [
        "▁заявил",
        -9.969409390358287
      ],
      [
        "▁создан",
        -9.969548741315895
      ],
      [
        "▁обучени",
        -9.970000141987601
      ],
      [
        "▁городе",
        -9.970047154947292
      ],
      [
        "▁девушк",
        -9.970124291493022
      ],
      [
        "лов",
        -9.970454641965357
      ],
      [
        "воз",
        -9.97046377190026
      ],
      [
        "▁видео",
        -9.97131290370261
      ],
      [
        "▁само",
        -9.971436042411213
      ],
      [
        "ехать",
        -9.97162269728572
      ],
      [
        "▁Верховно",
        -9.972077695589856
      ],
      [
        "▁нескольки",
        -9.972541725060768
      ],
      [
        "▁направлени",
        -9.972793508302143
      ],
      [
        "Ц",
        -9.972949139413098
      ],
      [
        "▁Здравствуй",
        -9.974234224384912
      ],
      [
        "сен",
        -9.974321067225395
      ],
      [
        "▁ситуация",
        -9.975642972680749
      ],
      [
        "ест",
        -9.975933447347064
      ],
      [
        "▁совершенно",
        -9.975952063869792
      ],
      [
        "▁граждански",
        -9.976057154642909
      ],
      [
        "▁расположен",
        -9.976327878137088
      ],
      [
        "▁пришло",
        -9.976410963915363
      ],
      [
        "▁установлен",
        -9.97647431836139
      ],
      [
        "▁отсутствие",
        -9.976648236205751
      ],
      [
        "пять",
        -9.977420592769562
      ],
      [
        "WP",
        -9.977478133433838
      ],
      [
        "▁работник",
        -9.978563815856758
      ],
      [
        "▁энергии",
        -9.979494425440965
      ],
      [
        "▁моё",
        -9.979862883559864
      ],
      [
        "ства",
        -9.979872342262599
      ],
      [
        "гр",
        -9.980301305828002
      ],
      [
        "лом",
        -9.980695257083717
      ],
      [
        "▁The",
        -9.98100412431699
      ],
      [
        "▁понять",
        -9.981071382681904
      ],
      [
        "▁позволяет",
        -9.98194847318299
      ],
      [
        "▁пора",
        -9.983042759838781
      ],
      [
        "▁интеграци",
        -9.983839453303645
      ],
      [
        "▁запис",
        -9.985252301036157
      ],
      [
        "▁мнение",
        -9.986413202888315
      ],
      [
        "▁дал",
        -9.991324447225825
      ],
      [
        "▁Страниц",
        -9.991989659969967
      ],
      [
        "▁сотрудник",
        -9.992697222991257
      ],
      [
        "▁большинство",
        -9.99516154889756
      ],
      [
        "▁конкретных",
        -9.995412667976534
      ],
      [
        "▁экономических",
        -9.995527050290548
      ],
      [
        "▁торговле",
        -9.99634363490729
      ],
      [
        "▁the",
        -9.996980000600544
      ],
      [
        "▁органа",
        -9.997116613627917
      ],
      [
        "▁мониторинг",
        -9.997189463382304
      ],
      [
        "аль",
        -9.998239388463066
      ],
      [
        "▁оказывать",
        -9.998371579499677
      ],
      [
        "СПИД",
        -9.999137922491201
      ],
      [
        "▁банк",
        -9.999840846063023
      ],
      [
        "лю",
        -9.999915263598794
      ],
      [
        "списо",
        -9.999977613924047
      ],
      [
        "▁См",
        -10.001738338815535
      ],
      [
        "▁изменить",
        -10.00181823759394
      ],
      [
        "▁применение",
        -10.002709953481904
      ],
      [
        "▁Скольк",
        -10.002742071007912
      ],
      [
        "▁пуст",
        -10.002838011453399
      ],
      [
        "el",
        -10.00431839662763
      ],
      [
        "▁конфликтов",
        -10.005817684134733
      ],
      [
        "▁выброс",
        -10.006192684800675
      ],
      [
        "▁Ди",
        -10.006783281396535
      ],
      [
        "▁Итали",
        -10.008009199163764
      ],
      [
        "▁Ц",
        -10.008079924142905
      ],
      [
        "▁внутренне",
        -10.008501363986575
      ],
      [
        "▁сами",
        -10.009775802410065
      ],
      [
        "▁and",
        -10.010470485626625
      ],
      [
        "чу",
        -10.01101903057953
      ],
      [
        "▁содействова",
        -10.011157397360437
      ],
      [
        "▁элемент",
        -10.0113183458902
      ],
      [
        "▁данным",
        -10.011761970125857
      ],
      [
        "▁Мак",
        -10.011802828527506
      ],
      [
        "▁компания",
        -10.012993952908598
      ],
      [
        "▁идея",
        -10.013206578311252
      ],
      [
        "▁пресс",
        -10.013669259836172
      ],
      [
        "▁Генеральны",
        -10.01367550015047
      ],
      [
        "▁исследований",
        -10.014178293658754
      ],
      [
        "▁цвет",
        -10.014384501336313
      ],
      [
        "▁правило",
        -10.014449760770708
      ],
      [
        "▁приветствует",
        -10.015597436111506
      ],
      [
        "▁соглашени",
        -10.015950284412517
      ],
      [
        "▁делегация",
        -10.015969128598147
      ],
      [
        "Ч",
        -10.016239652452406
      ],
      [
        "▁доклады",
        -10.0166980308522
      ],
      [
        "▁экспорт",
        -10.016787144046992
      ],
      [
        "▁приходит",
        -10.016824614644715
      ],
      [
        "▁открыто",
        -10.01691627011078
      ],
      [
        "▁дополнительно",
        -10.017252151407487
      ],
      [
        "▁мнению",
        -10.017346774165091
      ],
      [
        "▁истории",
        -10.018181289398733
      ],
      [
        "▁использует",
        -10.018693235377528
      ],
      [
        "Йорк",
        -10.019348284053436
      ],
      [
        "ант",
        -10.019366211177566
      ],
      [
        "▁семей",
        -10.019657004226957
      ],
      [
        "▁дальнейше",
        -10.020165594393122
      ],
      [
        "▁автор",
        -10.021094562847829
      ],
      [
        "▁акци",
        -10.02122418230713
      ],
      [
        "вшие",
        -10.022423981883263
      ],
      [
        "▁удовлетворение",
        -10.0232789151414
      ],
      [
        "am",
        -10.023304968553148
      ],
      [
        "▁пост",
        -10.023309682784326
      ],
      [
        "▁п",
        -10.02372219505752
      ],
      [
        "нный",
        -10.024284912932494
      ],
      [
        "▁пользу",
        -10.02455627731775
      ],
      [
        "▁общи",
        -10.026120655240632
      ],
      [
        "▁вооруженны",
        -10.026374682474657
      ],
      [
        "▁Ж",
        -10.026655139667149
      ],
      [
        "▁бар",
        -10.027234491353331
      ],
      [
        "▁выступил",
        -10.027805603876313
      ],
      [
        "▁Джо",
        -10.02792275782863
      ],
      [
        "▁эффективно",
        -10.028907058768288
      ],
      [
        "▁рассказал",
        -10.028923600454682
      ],
      [
        "▁делегации",
        -10.030492250261016
      ],
      [
        "▁электронно",
        -10.031104255693776
      ],
      [
        "▁утро",
        -10.03115904616586
      ],
      [
        "▁примерно",
        -10.033046499759791
      ],
      [
        "▁самого",
        -10.033255623398869
      ],
      [
        "▁W",
        -10.033786855346163
      ],
      [
        "▁Ем",
        -10.03410410465315
      ],
      [
        "▁административны",
        -10.034250983847926
      ],
      [
        "▁новой",
        -10.03444883283537
      ],
      [
        "▁определения",
        -10.03498640582098
      ],
      [
        "▁Конго",
        -10.035089211309499
      ],
      [
        "▁возрасте",
        -10.035281125841149
      ],
      [
        "▁приложени",
        -10.03646275251931
      ],
      [
        "мент",
        -10.036484646212
      ],
      [
        "▁государственно",
        -10.038592248918821
      ],
      [
        "▁официальны",
        -10.038636626295066
      ],
      [
        "ров",
        -10.039023154649692
      ],
      [
        "▁обязан",
        -10.039500814079755
      ],
      [
        "▁собираю",
        -10.040677424583206
      ],
      [
        "▁труд",
        -10.041873897648799
      ],
      [
        "▁важны",
        -10.04268386793873
      ],
      [
        "▁ЕС",
        -10.043692093299544
      ],
      [
        "▁удар",
        -10.044593325300152
      ],
      [
        "▁сраз",
        -10.044940943532856
      ],
      [
        "▁бес",
        -10.045366489798502
      ],
      [
        "▁ссыла",
        -10.04644929127775
      ],
      [
        "▁предусмотрен",
        -10.047273753825118
      ],
      [
        "▁семье",
        -10.047366488416838
      ],
      [
        "емых",
        -10.047781797216231
      ],
      [
        "вен",
        -10.047853672915293
      ],
      [
        "▁стала",
        -10.047965737502818
      ],
      [
        "▁контакт",
        -10.048040465063485
      ],
      [
        "▁характера",
        -10.049670001437768
      ],
      [
        "▁готовы",
        -10.050780993644608
      ],
      [
        "▁Пр",
        -10.052519751490298
      ],
      [
        "нул",
        -10.05349474043105
      ],
      [
        "▁Украин",
        -10.053967341086105
      ],
      [
        "▁ПР",
        -10.054172105360113
      ],
      [
        "▁будущем",
        -10.054524777026332
      ],
      [
        "▁тип",
        -10.05460878650384
      ],
      [
        "сер",
        -10.05495989332999
      ],
      [
        "▁жалоб",
        -10.055302072205968
      ],
      [
        "▁Афганистан",
        -10.05639513855315
      ],
      [
        "▁планировани",
        -10.056592025916542
      ],
      [
        "▁содержани",
        -10.057154055056213
      ],
      [
        "▁оставил",
        -10.057714534737634
      ],
      [
        "округ",
        -10.057987601650243
      ],
      [
        "▁регистраци",
        -10.058085037865624
      ],
      [
        "щ",
        -10.058806994556416
      ],
      [
        "▁Ка",
        -10.059029468736442
      ],
      [
        "пад",
        -10.059334787442875
      ],
      [
        "▁прошлом",
        -10.05963317139414
      ],
      [
        "▁образование",
        -10.060311889641923
      ],
      [
        "▁обязательно",
        -10.060372335344143
      ],
      [
        "▁конкретны",
        -10.061859285365024
      ],
      [
        "▁сообщения",
        -10.062434953072675
      ],
      [
        "▁приоритет",
        -10.062856943975916
      ],
      [
        "▁нарушения",
        -10.064747803945298
      ],
      [
        "▁климата",
        -10.064831420886641
      ],
      [
        "▁проблемам",
        -10.065469769723514
      ],
      [
        "▁начина",
        -10.065623124616971
      ],
      [
        "▁позволил",
        -10.065670298158132
      ],
      [
        "▁персонал",
        -10.065709138523726
      ],
      [
        "▁скажу",
        -10.0658201015096
      ],
      [
        "зже",
        -10.065851972347366
      ],
      [
        "▁любовь",
        -10.066035256388812
      ],
      [
        "▁пяти",
        -10.066050850067082
      ],
      [
        "▁серьезны",
        -10.06643492593345
      ],
      [
        "O",
        -10.066912259209545
      ],
      [
        "ro",
        -10.067169042372733
      ],
      [
        "ас",
        -10.067475770352207
      ],
      [
        "▁предварительно",
        -10.067614711301758
      ],
      [
        "▁дополнительны",
        -10.067900716475544
      ],
      [
        "▁сторонам",
        -10.06816280285219
      ],
      [
        "▁Устав",
        -10.069569607757916
      ],
      [
        "▁сексуально",
        -10.070071389202912
      ],
      [
        "▁Ло",
        -10.070538455217466
      ],
      [
        "▁довольно",
        -10.070579527756369
      ],
      [
        "▁смогл",
        -10.071078339493953
      ],
      [
        "▁рассматривать",
        -10.071088066556865
      ],
      [
        "▁истори",
        -10.071126837754054
      ],
      [
        "лог",
        -10.071143465761008
      ],
      [
        "нос",
        -10.071148917493632
      ],
      [
        "▁файла",
        -10.0712819013653
      ],
      [
        "▁Южно",
        -10.071582161063205
      ],
      [
        "▁возможны",
        -10.071617194918243
      ],
      [
        "▁расширения",
        -10.072121050936742
      ],
      [
        "▁способствова",
        -10.073213129083848
      ],
      [
        "▁чувствую",
        -10.074874442130941
      ],
      [
        "▁месяц",
        -10.075724433006155
      ],
      [
        "▁занимает",
        -10.075880480802468
      ],
      [
        "▁интерес",
        -10.076262043845691
      ],
      [
        "▁часа",
        -10.076991201046138
      ],
      [
        "▁запрос",
        -10.077751882771393
      ],
      [
        "▁равенств",
        -10.078022091392388
      ],
      [
        "▁непосредственно",
        -10.07817106040933
      ],
      [
        "▁профессионально",
        -10.078289850714217
      ],
      [
        "▁Кор",
        -10.07861293975203
      ],
      [
        "▁конфликт",
        -10.079212056548446
      ],
      [
        "▁медицинско",
        -10.079215815628416
      ],
      [
        "▁открыть",
        -10.080107763960498
      ],
      [
        "▁совета",
        -10.080807744061687
      ],
      [
        "▁стен",
        -10.080961921258467
      ],
      [
        "▁следующим",
        -10.081373595310517
      ],
      [
        "▁благо",
        -10.083029580602199
      ],
      [
        "▁деть",
        -10.083464834699509
      ],
      [
        "▁Иисус",
        -10.083746371831639
      ],
      [
        "▁успешно",
        -10.083747964733416
      ],
      [
        "▁принятие",
        -10.083997578690067
      ],
      [
        "▁продолжает",
        -10.084892301877982
      ],
      [
        "щи",
        -10.08493849528109
      ],
      [
        "▁Суд",
        -10.084977627296233
      ],
      [
        "▁осуществляет",
        -10.08522216382808
      ],
      [
        "▁Интернет",
        -10.086160989390011
      ],
      [
        "▁включает",
        -10.086161594001483
      ],
      [
        "▁настоящего",
        -10.086168726445045
      ],
      [
        "▁бизнес",
        -10.08677063524157
      ],
      [
        "гла",
        -10.087915090112345
      ],
      [
        "мат",
        -10.088310900509047
      ],
      [
        "▁Министерство",
        -10.088811793267018
      ],
      [
        "ост",
        -10.08934382162106
      ],
      [
        "▁большинств",
        -10.089590848936506
      ],
      [
        "Ш",
        -10.089711856346803
      ],
      [
        "▁вечер",
        -10.08983880078194
      ],
      [
        "net",
        -10.090113147236206
      ],
      [
        "▁предложени",
        -10.090384969344663
      ],
      [
        "щен",
        -10.090445056572062
      ],
      [
        "▁недел",
        -10.091667563700753
      ],
      [
        "et",
        -10.092624731386115
      ],
      [
        "▁важность",
        -10.093893882592944
      ],
      [
        "▁настоящи",
        -10.095947591094593
      ],
      [
        "истин",
        -10.096015749519704
      ],
      [
        "▁ими",
        -10.096560334243437
      ],
      [
        "▁гор",
        -10.09694711534584
      ],
      [
        "▁будь",
        -10.097518619651211
      ],
      [
        "▁отметить",
        -10.098323925147568
      ],
      [
        "ует",
        -10.09973011292121
      ],
      [
        "▁заключает",
        -10.09985441194165
      ],
      [
        "▁гендерно",
        -10.100561512317823
      ],
      [
        "пу",
        -10.101274107066015
      ],
      [
        "▁кампани",
        -10.10199393831153
      ],
      [
        "ющего",
        -10.102728291909692
      ],
      [
        "▁Женев",
        -10.103382146333537
      ],
      [
        "▁on",
        -10.103507321243992
      ],
      [
        "▁разве",
        -10.10358150995324
      ],
      [
        "▁похоже",
        -10.103900775448512
      ],
      [
        "▁прекрасно",
        -10.104033106421628
      ],
      [
        "шёл",
        -10.10445747844675
      ],
      [
        "▁Китай",
        -10.10491230668911
      ],
      [
        "▁Мисси",
        -10.105602681114721
      ],
      [
        "▁Join",
        -10.10578634717795
      ],
      [
        "▁добро",
        -10.10602013550426
      ],
      [
        "▁любом",
        -10.106030091679948
      ],
      [
        "▁содействие",
        -10.106870346213075
      ],
      [
        "фа",
        -10.10727517818308
      ],
      [
        "▁требует",
        -10.108388694621588
      ],
      [
        "верить",
        -10.108938201955944
      ],
      [
        "▁контроль",
        -10.1091962944121
      ],
      [
        "▁успех",
        -10.109293173744394
      ],
      [
        "▁выход",
        -10.11033658678109
      ],
      [
        "▁веществ",
        -10.110421616609328
      ],
      [
        "ch",
        -10.110870021753609
      ],
      [
        "просить",
        -10.111342477678523
      ],
      [
        "▁отдельны",
        -10.111969858802148
      ],
      [
        "▁Смотри",
        -10.11217926620657
      ],
      [
        "▁людям",
        -10.112319733832766
      ],
      [
        "▁проводит",
        -10.11279927130613
      ],
      [
        "▁жена",
        -10.112801306396904
      ],
      [
        "овый",
        -10.11311690271828
      ],
      [
        "▁представленны",
        -10.113470578236146
      ],
      [
        "▁предложил",
        -10.11459322302192
      ],
      [
        "точки",
        -10.114960991637723
      ],
      [
        "ели",
        -10.11631431853576
      ],
      [
        "▁политик",
        -10.116350857420649
      ],
      [
        "▁глаза",
        -10.11679111882161
      ],
      [
        "▁наверно",
        -10.117085323158715
      ],
      [
        "▁больши",
        -10.11867513782821
      ],
      [
        "лан",
        -10.118750883904575
      ],
      [
        "▁тело",
        -10.119071919545993
      ],
      [
        "▁Турци",
        -10.119177950046078
      ],
      [
        "▁оборудовани",
        -10.119443492349436
      ],
      [
        "льная",
        -10.119668326506803
      ],
      [
        "▁скорость",
        -10.120068752706214
      ],
      [
        "▁давно",
        -10.120190062127506
      ],
      [
        "▁преступлени",
        -10.12053998689233
      ],
      [
        "▁видела",
        -10.123030058731334
      ],
      [
        "▁Одна",
        -10.123495063062197
      ],
      [
        "▁замечания",
        -10.12379317459078
      ],
      [
        "▁Германи",
        -10.12480864726551
      ],
      [
        "счёт",
        -10.126201779948723
      ],
      [
        "ключ",
        -10.126478473203111
      ],
      [
        "▁сокращения",
        -10.126514688035105
      ],
      [
        "▁парня",
        -10.126676820076344
      ],
      [
        "кан",
        -10.12695572098339
      ],
      [
        "▁доме",
        -10.127793439675965
      ],
      [
        "вать",
        -10.12787104497868
      ],
      [
        "▁нашу",
        -10.127946202620802
      ],
      [
        "▁Ага",
        -10.128967207892913
      ],
      [
        "▁говоря",
        -10.129697999140571
      ],
      [
        "▁работаю",
        -10.129750107061675
      ],
      [
        "уже",
        -10.13038229368999
      ],
      [
        "▁Кон",
        -10.130519516529512
      ],
      [
        "ация",
        -10.131076899615366
      ],
      [
        "▁высоки",
        -10.13153813148893
      ],
      [
        "▁развиты",
        -10.13158135317747
      ],
      [
        "дал",
        -10.131679799995755
      ],
      [
        "нести",
        -10.13196937499087
      ],
      [
        "ред",
        -10.132915270807256
      ],
      [
        "▁каждом",
        -10.133072517318222
      ],
      [
        "▁Ч",
        -10.133562852692357
      ],
      [
        "утром",
        -10.133571255104723
      ],
      [
        "чин",
        -10.133894545829655
      ],
      [
        "▁потер",
        -10.134162297523694
      ],
      [
        "инг",
        -10.13423341011655
      ],
      [
        "▁заседание",
        -10.134319955905298
      ],
      [
        "▁Прош",
        -10.134662224865158
      ],
      [
        "ган",
        -10.136434553465271
      ],
      [
        "енных",
        -10.136488959903463
      ],
      [
        "▁призыв",
        -10.13655931869167
      ],
      [
        "▁безопасность",
        -10.137757548055818
      ],
      [
        "▁пришли",
        -10.138295586004578
      ],
      [
        "▁мин",
        -10.138469272236595
      ],
      [
        "рован",
        -10.139989357529533
      ],
      [
        "▁Ле",
        -10.140050922626125
      ],
      [
        "▁требования",
        -10.140167353592144
      ],
      [
        "▁Послушай",
        -10.140740643187662
      ],
      [
        "стью",
        -10.141895682532612
      ],
      [
        "твоя",
        -10.143007142171161
      ],
      [
        "▁положениям",
        -10.143477588062048
      ],
      [
        "▁J",
        -10.143528600805272
      ],
      [
        "шен",
        -10.143562065936816
      ],
      [
        "▁миллионов",
        -10.144024840285713
      ],
      [
        "▁дорога",
        -10.144080710730579
      ],
      [
        "▁Мар",
        -10.144601418795585
      ],
      [
        "▁наличи",
        -10.145051623695798
      ],
      [
        "▁матери",
        -10.14571215452443
      ],
      [
        "▁местных",
        -10.145765665897017
      ],
      [
        "▁определенны",
        -10.146884913145367
      ],
      [
        "сме",
        -10.147541424292978
      ],
      [
        "▁техник",
        -10.14909070400541
      ],
      [
        "▁эффективны",
        -10.149345800718702
      ],
      [
        "▁Экономическо",
        -10.149411338389116
      ],
      [
        "▁собственно",
        -10.149622341961594
      ],
      [
        "▁товаров",
        -10.149708792168546
      ],
      [
        "▁риск",
        -10.150302155685331
      ],
      [
        "▁Ох",
        -10.150587052352545
      ],
      [
        "▁ресурсам",
        -10.150940322130678
      ],
      [
        "▁Хо",
        -10.151152839744881
      ],
      [
        "▁эффективного",
        -10.151181990961767
      ],
      [
        "game",
        -10.15192018396543
      ],
      [
        "▁сделан",
        -10.152822868162062
      ],
      [
        "▁Правительство",
        -10.153145211005487
      ],
      [
        "▁посмотри",
        -10.153346618318492
      ],
      [
        "ским",
        -10.154097129069473
      ],
      [
        "ногда",
        -10.154844320937649
      ],
      [
        "кин",
        -10.154926331607086
      ],
      [
        "▁видели",
        -10.156017337170493
      ],
      [
        "▁конец",
        -10.156449475391696
      ],
      [
        "хоть",
        -10.156539177221418
      ],
      [
        "рен",
        -10.15720337014914
      ],
      [
        "▁финансово",
        -10.157455530961208
      ],
      [
        "нию",
        -10.15749210600115
      ],
      [
        "▁Израиль",
        -10.158519064864327
      ],
      [
        "нут",
        -10.15885357947348
      ],
      [
        "▁конкретно",
        -10.15891811865545
      ],
      [
        "▁остров",
        -10.159027277719748
      ],
      [
        "▁любо",
        -10.159028468796642
      ],
      [
        "▁уход",
        -10.16001449841333
      ],
      [
        "▁поддерживает",
        -10.16014031916076
      ],
      [
        "рат",
        -10.16024365211332
      ],
      [
        "▁Мама",
        -10.160521142808388
      ],
      [
        "▁умер",
        -10.160571330202432
      ],
      [
        "▁Конституци",
        -10.161177043327818
      ],
      [
        "▁недавно",
        -10.161368367772983
      ],
      [
        "▁созданию",
        -10.161663524103066
      ],
      [
        "▁половин",
        -10.162270942803024
      ],
      [
        "id",
        -10.162499098354631
      ],
      [
        "▁источников",
        -10.16263156363583
      ],
      [
        "▁наркотик",
        -10.162660579958764
      ],
      [
        "▁настояще",
        -10.16337788814983
      ],
      [
        "▁форум",
        -10.16360992468192
      ],
      [
        "▁международные",
        -10.16386451148832
      ],
      [
        "▁компенсаци",
        -10.16403934646278
      ],
      [
        "▁Благодар",
        -10.164068561492758
      ],
      [
        "бит",
        -10.164277263079951
      ],
      [
        "▁Вопрос",
        -10.164339773916737
      ],
      [
        "ним",
        -10.164365973548279
      ],
      [
        "данного",
        -10.164388062147047
      ],
      [
        "▁семинар",
        -10.164787098114118
      ],
      [
        "ter",
        -10.16532200295758
      ],
      [
        "др",
        -10.166328508929773
      ],
      [
        "под",
        -10.166520714162626
      ],
      [
        "▁защиту",
        -10.166619165450445
      ],
      [
        "▁Приложение",
        -10.167046154007664
      ],
      [
        "▁проведении",
        -10.167720502978407
      ],
      [
        "▁недели",
        -10.16777067150322
      ],
      [
        "▁выражает",
        -10.167965833732364
      ],
      [
        "▁перевозк",
        -10.167970187843565
      ],
      [
        "▁Российско",
        -10.168437170930014
      ],
      [
        "▁вес",
        -10.168511238287564
      ],
      [
        "▁ожидает",
        -10.168685912013412
      ],
      [
        "▁речь",
        -10.169461585200745
      ],
      [
        "▁Бога",
        -10.170845208686755
      ],
      [
        "▁важным",
        -10.170921289306229
      ],
      [
        "цен",
        -10.170987624071834
      ],
      [
        "▁повышени",
        -10.171774152208688
      ],
      [
        "▁Пуст",
        -10.171915753217565
      ],
      [
        "▁позволит",
        -10.172458726198492
      ],
      [
        "▁фильм",
        -10.17267505347477
      ],
      [
        "рос",
        -10.172810832286558
      ],
      [
        "▁судебны",
        -10.172899530863958
      ],
      [
        "▁наша",
        -10.172983787051226
      ],
      [
        "▁форме",
        -10.17340778534815
      ],
      [
        "кор",
        -10.173989681896575
      ],
      [
        "▁офис",
        -10.174051971123216
      ],
      [
        "▁Джек",
        -10.17461053453567
      ],
      [
        "▁надзор",
        -10.175529468614574
      ],
      [
        "▁трудно",
        -10.175694550580133
      ],
      [
        "▁протяжен",
        -10.175865870498175
      ],
      [
        "хотят",
        -10.1768365628519
      ],
      [
        "▁Извини",
        -10.177379431484638
      ],
      [
        "▁адрес",
        -10.177493619206878
      ],
      [
        "▁появи",
        -10.177742963853975
      ],
      [
        "▁обязанности",
        -10.178439204122379
      ],
      [
        "▁фонда",
        -10.178791693600457
      ],
      [
        "▁последующи",
        -10.178860325635496
      ],
      [
        "▁предприяти",
        -10.179826985589543
      ],
      [
        "английски",
        -10.180904305801679
      ],
      [
        "▁Та",
        -10.18126086223431
      ],
      [
        "▁главным",
        -10.18127827115655
      ],
      [
        "na",
        -10.181322371370404
      ],
      [
        "▁обеспечивать",
        -10.18212377956754
      ],
      [
        "▁научно",
        -10.182173628340509
      ],
      [
        "▁Черт",
        -10.182263168068332
      ],
      [
        "▁анализа",
        -10.182501807635196
      ],
      [
        "▁адвокат",
        -10.182538734877209
      ],
      [
        "чит",
        -10.18274759279747
      ],
      [
        "▁вернул",
        -10.18297652998853
      ],
      [
        "▁наказания",
        -10.182993259532484
      ],
      [
        "▁пришел",
        -10.18359312036085
      ],
      [
        "▁пример",
        -10.183721284448499
      ],
      [
        "▁полицейски",
        -10.18425029385433
      ],
      [
        "ское",
        -10.185172567552565
      ],
      [
        "▁семь",
        -10.185832045440275
      ],
      [
        "лер",
        -10.185840609368377
      ],
      [
        "▁основном",
        -10.185840740187922
      ],
      [
        "▁заявления",
        -10.185961002846728
      ],
      [
        "▁протокола",
        -10.186144459432604
      ],
      [
        "▁рынка",
        -10.186358964595144
      ],
      [
        "мол",
        -10.187120417547277
      ],
      [
        "▁университет",
        -10.187398937319012
      ],
      [
        "ПА",
        -10.18809488260817
      ],
      [
        "▁прошло",
        -10.188530043776126
      ],
      [
        "сел",
        -10.189244849761284
      ],
      [
        "▁начало",
        -10.189247937720832
      ],
      [
        "вший",
        -10.18967271089253
      ],
      [
        "▁момента",
        -10.189777016457429
      ],
      [
        "▁учета",
        -10.190358132089287
      ],
      [
        "▁состояни",
        -10.190494909633248
      ],
      [
        "▁Затем",
        -10.190577942074764
      ],
      [
        "▁четко",
        -10.190732828659218
      ],
      [
        "▁Постоянно",
        -10.190956691670658
      ],
      [
        "▁приняли",
        -10.191070054429222
      ],
      [
        "▁подобно",
        -10.191719182464528
      ],
      [
        "▁точк",
        -10.191743723898542
      ],
      [
        "ol",
        -10.191899315510714
      ],
      [
        "когда",
        -10.192167907560963
      ],
      [
        "▁Том",
        -10.192484780662326
      ],
      [
        "рон",
        -10.193535678821746
      ],
      [
        "▁та",
        -10.193843657180322
      ],
      [
        "▁запас",
        -10.194238041581281
      ],
      [
        "▁высокого",
        -10.194355233886478
      ],
      [
        "▁Куда",
        -10.194782763277964
      ],
      [
        "▁обзора",
        -10.195762729705734
      ],
      [
        "дра",
        -10.196582720389099
      ],
      [
        "▁события",
        -10.197590267446493
      ],
      [
        "тик",
        -10.197929417303447
      ],
      [
        "▁взял",
        -10.198728617098784
      ],
      [
        "ic",
        -10.19891824402315
      ],
      [
        "▁отлично",
        -10.200089599736536
      ],
      [
        "▁Ра",
        -10.200326278068406
      ],
      [
        "▁основные",
        -10.20061530816848
      ],
      [
        "▁вашем",
        -10.200711380776475
      ],
      [
        "Ж",
        -10.20097231961843
      ],
      [
        "▁Ваше",
        -10.201914574877406
      ],
      [
        "▁Надо",
        -10.202008993117177
      ],
      [
        "▁Им",
        -10.203018134427005
      ],
      [
        "пре",
        -10.2033244714364
      ],
      [
        "атор",
        -10.203539527549403
      ],
      [
        "▁разоружения",
        -10.204881943222993
      ],
      [
        "▁Ма",
        -10.205258430862628
      ],
      [
        "чен",
        -10.205327740179877
      ],
      [
        "▁завершени",
        -10.205534844567806
      ],
      [
        "▁транспортны",
        -10.205583893375799
      ],
      [
        "▁вчера",
        -10.205604748578018
      ],
      [
        "▁нашем",
        -10.205656368396788
      ],
      [
        "ниц",
        -10.207518366378373
      ],
      [
        "▁Беларусь",
        -10.20788302659926
      ],
      [
        "▁центре",
        -10.207931633507236
      ],
      [
        "▁квартир",
        -10.209026781455655
      ],
      [
        "▁муж",
        -10.209820574376375
      ],
      [
        "▁зон",
        -10.210056325905974
      ],
      [
        "▁укреплению",
        -10.210087692865905
      ],
      [
        "▁экологически",
        -10.210507925978055
      ],
      [
        "▁расширение",
        -10.210752681422484
      ],
      [
        "▁сообщени",
        -10.210883161889264
      ],
      [
        "▁становится",
        -10.210920425037472
      ],
      [
        "▁требовани",
        -10.211609082007133
      ],
      [
        "жмите",
        -10.212213520702617
      ],
      [
        "▁наказание",
        -10.212279187063587
      ],
      [
        "▁Дата",
        -10.212561424612549
      ],
      [
        "пал",
        -10.213310372174004
      ],
      [
        "▁Азербайджан",
        -10.213404580788726
      ],
      [
        "▁надлежаще",
        -10.213491148281499
      ],
      [
        "▁регулировани",
        -10.213654359199985
      ],
      [
        "▁фактически",
        -10.213775096720621
      ],
      [
        "▁надежд",
        -10.213818700556585
      ],
      [
        "st",
        -10.214345846218448
      ],
      [
        "ации",
        -10.214418071179804
      ],
      [
        "▁Люд",
        -10.21463087178698
      ],
      [
        "▁интернет",
        -10.214984525038453
      ],
      [
        "▁улучшения",
        -10.215565127047213
      ],
      [
        "▁решил",
        -10.216702764076846
      ],
      [
        "▁Судан",
        -10.216978151240466
      ],
      [
        "жив",
        -10.217196400078347
      ],
      [
        "▁Более",
        -10.217859805600693
      ],
      [
        "▁Нас",
        -10.218220206937197
      ],
      [
        "▁Па",
        -10.218399201731344
      ],
      [
        "▁море",
        -10.218551013358825
      ],
      [
        "▁фото",
        -10.219080688885418
      ],
      [
        "ала",
        -10.219663242987924
      ],
      [
        "▁приложения",
        -10.2204445427289
      ],
      [
        "▁придёт",
        -10.220468974735814
      ],
      [
        "▁любит",
        -10.220606807066368
      ],
      [
        "▁движения",
        -10.221323010404902
      ],
      [
        "▁глубоко",
        -10.221493036701848
      ],
      [
        "▁потенциал",
        -10.221847090188415
      ],
      [
        "▁финансов",
        -10.222745391818528
      ],
      [
        "▁высшем",
        -10.222823982074747
      ],
      [
        "▁понимает",
        -10.22285841380048
      ],
      [
        "▁выбора",
        -10.223787648958593
      ],
      [
        "▁религи",
        -10.226003509416508
      ],
      [
        "Y",
        -10.226311061298398
      ],
      [
        "▁чисто",
        -10.226408590956465
      ],
      [
        "▁поезд",
        -10.22666712889001
      ],
      [
        "ур",
        -10.226748442264928
      ],
      [
        "▁месяца",
        -10.226880612668822
      ],
      [
        "▁пойду",
        -10.227272221180307
      ],
      [
        "▁смерть",
        -10.227279509872183
      ],
      [
        "▁спас",
        -10.227912045171859
      ],
      [
        "мар",
        -10.229255430100764
      ],
      [
        "▁достигнуты",
        -10.229458807138396
      ],
      [
        "▁формат",
        -10.229592437480601
      ],
      [
        "▁заинтересованны",
        -10.230336133659439
      ],
      [
        "▁X",
        -10.230627175960377
      ],
      [
        "▁ЕЭ",
        -10.231082610218445
      ],
      [
        "рок",
        -10.231565968274644
      ],
      [
        "▁принима",
        -10.232836058980109
      ],
      [
        "▁занятост",
        -10.232846807743355
      ],
      [
        "▁мальчик",
        -10.232954321830615
      ],
      [
        "▁моем",
        -10.233013304433754
      ],
      [
        "▁сайт",
        -10.23337363042605
      ],
      [
        "▁температур",
        -10.233494991237063
      ],
      [
        "гар",
        -10.233945209985034
      ],
      [
        "▁Европе",
        -10.234066734343308
      ],
      [
        "▁отмеча",
        -10.234421364721722
      ],
      [
        "▁вперед",
        -10.23478199380328
      ],
      [
        "▁Армени",
        -10.234816674747115
      ],
      [
        "▁связь",
        -10.234987604772908
      ],
      [
        "▁экономически",
        -10.235142914703346
      ],
      [
        "▁подобны",
        -10.235219418542362
      ],
      [
        "▁Три",
        -10.23522787822358
      ],
      [
        "▁кофе",
        -10.23576590473179
      ],
      [
        "▁слов",
        -10.236881665539721
      ],
      [
        "чер",
        -10.23791712880816
      ],
      [
        "▁создал",
        -10.238540988656109
      ],
      [
        "▁удалось",
        -10.23870108569963
      ],
      [
        "три",
        -10.239034745004641
      ],
      [
        "▁голосования",
        -10.240256557796037
      ],
      [
        "▁обеспечивает",
        -10.240637314117429
      ],
      [
        "▁связ",
        -10.240651044725626
      ],
      [
        "▁Дол",
        -10.240715617205144
      ],
      [
        "жал",
        -10.241040418904486
      ],
      [
        "ируют",
        -10.241123080950299
      ],
      [
        "▁Запрошенн",
        -10.241418413930536
      ],
      [
        "▁Нужн",
        -10.24160760541229
      ],
      [
        "▁поправк",
        -10.241699113595512
      ],
      [
        "вес",
        -10.242107623134913
      ],
      [
        "▁выполнять",
        -10.242389132313257
      ],
      [
        "тар",
        -10.24300887443164
      ],
      [
        "▁посмотреть",
        -10.243177078246605
      ],
      [
        "▁настоящем",
        -10.244332310286907
      ],
      [
        "▁голос",
        -10.244557617934063
      ],
      [
        "▁дополнительные",
        -10.244566975791326
      ],
      [
        "▁подхода",
        -10.245153972438075
      ],
      [
        "▁самой",
        -10.245198980669802
      ],
      [
        "▁создании",
        -10.245214991580657
      ],
      [
        "▁политической",
        -10.245257095798689
      ],
      [
        "▁сохранени",
        -10.245288320069859
      ],
      [
        "дан",
        -10.246573815934017
      ],
      [
        "▁перевод",
        -10.247007174726447
      ],
      [
        "▁Ирланди",
        -10.247080004995041
      ],
      [
        "▁млрд",
        -10.24708021917964
      ],
      [
        "▁пыто",
        -10.247359200767779
      ],
      [
        "▁истин",
        -10.24746151232884
      ],
      [
        "менить",
        -10.247489550080036
      ],
      [
        "▁друзья",
        -10.247812176732463
      ],
      [
        "усь",
        -10.248600683688384
      ],
      [
        "AC",
        -10.250078838861786
      ],
      [
        "думала",
        -10.250880221167527
      ],
      [
        "▁уверовал",
        -10.251742299182439
      ],
      [
        "▁круг",
        -10.252419697275236
      ],
      [
        "▁папа",
        -10.254330641775873
      ],
      [
        "▁День",
        -10.254598094559547
      ],
      [
        "▁используют",
        -10.255369237711934
      ],
      [
        "рис",
        -10.256098980614755
      ],
      [
        "▁демократи",
        -10.25848052695515
      ],
      [
        "▁кризис",
        -10.258530992446008
      ],
      [
        "государственного",
        -10.258677999581527
      ],
      [
        "▁использованием",
        -10.258828207850962
      ],
      [
        "▁расово",
        -10.2589577276168
      ],
      [
        "эр",
        -10.259146036419647
      ],
      [
        "▁Израиля",
        -10.259774096558171
      ],
      [
        "▁ресторан",
        -10.259937346714477
      ],
      [
        "рес",
        -10.260181536985069
      ],
      [
        "ly",
        -10.261485685659354
      ],
      [
        "▁военных",
        -10.261508010046683
      ],
      [
        "▁предоставляет",
        -10.261798340807967
      ],
      [
        "▁страниц",
        -10.262377534637402
      ],
      [
        "▁представление",
        -10.262436010663254
      ],
      [
        "▁Уже",
        -10.262777057311592
      ],
      [
        "▁рассказать",
        -10.262824676441875
      ],
      [
        "▁вызов",
        -10.263627047485775
      ],
      [
        "▁написал",
        -10.26414674484839
      ],
      [
        "ция",
        -10.264209206524495
      ],
      [
        "▁подчеркивает",
        -10.264448124992484
      ],
      [
        "▁конца",
        -10.264509590721532
      ],
      [
        "По",
        -10.264554185773187
      ],
      [
        "▁частны",
        -10.264899649891479
      ],
      [
        "▁регулярно",
        -10.265057058325946
      ],
      [
        "зов",
        -10.265135750119057
      ],
      [
        "▁зависимост",
        -10.26519443667111
      ],
      [
        "▁дочь",
        -10.266205352774108
      ],
      [
        "▁находи",
        -10.266432838886919
      ],
      [
        "представительств",
        -10.267138266098605
      ],
      [
        "▁сведения",
        -10.267537351058245
      ],
      [
        "▁поможет",
        -10.267880912095176
      ],
      [
        "▁Х",
        -10.268039454510342
      ],
      [
        "смысле",
        -10.268562559092917
      ],
      [
        "▁голову",
        -10.268771181424416
      ],
      [
        "▁письмо",
        -10.268827087552246
      ],
      [
        "▁Како",
        -10.26887752015993
      ],
      [
        "▁первом",
        -10.26897048217716
      ],
      [
        "▁скажи",
        -10.269073778642294
      ],
      [
        "чная",
        -10.269623039992695
      ],
      [
        "енные",
        -10.269799909028794
      ],
      [
        "▁пункту",
        -10.269839882862083
      ],
      [
        "овым",
        -10.27024812850167
      ],
      [
        "фр",
        -10.270331524866243
      ],
      [
        "▁смысл",
        -10.270965186737982
      ],
      [
        "▁Конвенци",
        -10.272022592523637
      ],
      [
        "▁Мор",
        -10.272142297753515
      ],
      [
        "овал",
        -10.272429958447816
      ],
      [
        "▁III",
        -10.272811120499918
      ],
      [
        "▁Надею",
        -10.273003264405366
      ],
      [
        "▁механизма",
        -10.27321668909045
      ],
      [
        "чет",
        -10.27324546647296
      ],
      [
        "иль",
        -10.273395428789637
      ],
      [
        "to",
        -10.273505986339739
      ],
      [
        "▁далеко",
        -10.273648790445321
      ],
      [
        "▁компонент",
        -10.273800279087123
      ],
      [
        "лег",
        -10.273987948566695
      ],
      [
        "▁маленьки",
        -10.274285272127251
      ],
      [
        "▁призвал",
        -10.274711993829037
      ],
      [
        "▁совещание",
        -10.275231741810474
      ],
      [
        "▁последнее",
        -10.27563179734564
      ],
      [
        "▁учитыва",
        -10.275986311098066
      ],
      [
        "▁бумаг",
        -10.27654337742058
      ],
      [
        "▁невозможно",
        -10.277203292775905
      ],
      [
        "рождения",
        -10.277378110981235
      ],
      [
        "▁финансовые",
        -10.277525963926257
      ],
      [
        "▁ума",
        -10.277574827854888
      ],
      [
        "▁УВК",
        -10.277723740092041
      ],
      [
        "▁Национальны",
        -10.278498928728556
      ],
      [
        "▁различным",
        -10.279629747961222
      ],
      [
        "▁молодеж",
        -10.28010968473962
      ],
      [
        "▁стр",
        -10.28074850690055
      ],
      [
        "▁показателе",
        -10.281205804966156
      ],
      [
        "▁делал",
        -10.28197324860973
      ],
      [
        "ила",
        -10.282347206505836
      ],
      [
        "▁сельскохозяйств",
        -10.282488325412185
      ],
      [
        "▁составил",
        -10.282703539230804
      ],
      [
        "▁Мари",
        -10.282936743992837
      ],
      [
        "▁договора",
        -10.283276299341475
      ],
      [
        "▁показать",
        -10.2834279088259
      ],
      [
        "▁первым",
        -10.283784929114017
      ],
      [
        "▁девушка",
        -10.283801978750521
      ],
      [
        "▁аспект",
        -10.284167057171036
      ],
      [
        "пункт",
        -10.2847857568376
      ],
      [
        "▁игра",
        -10.284994169130933
      ],
      [
        "▁стары",
        -10.285957934063665
      ],
      [
        "тур",
        -10.286842225349833
      ],
      [
        "▁просил",
        -10.287386995115234
      ],
      [
        "▁Бен",
        -10.287500042619294
      ],
      [
        "te",
        -10.287988256757279
      ],
      [
        "▁увеличение",
        -10.288010887762212
      ],
      [
        "▁состава",
        -10.288243744003953
      ],
      [
        "изм",
        -10.288893502635378
      ],
      [
        "▁Вообще",
        -10.290090105960527
      ],
      [
        "▁требованиям",
        -10.290900047775907
      ],
      [
        "емые",
        -10.29096207346862
      ],
      [
        "ников",
        -10.290995149485171
      ],
      [
        "ющая",
        -10.291023265473578
      ],
      [
        "сек",
        -10.29108808036839
      ],
      [
        "▁брак",
        -10.291220664533268
      ],
      [
        "▁связанно",
        -10.291274303086812
      ],
      [
        "▁Кр",
        -10.291299929571158
      ],
      [
        "▁Могу",
        -10.291440186416569
      ],
      [
        "ница",
        -10.292216322231578
      ],
      [
        "▁старше",
        -10.292292063657037
      ],
      [
        "▁публикаци",
        -10.292443373408894
      ],
      [
        "▁Первы",
        -10.292774706462229
      ],
      [
        "▁распространение",
        -10.293091969630375
      ],
      [
        "me",
        -10.293187478417382
      ],
      [
        "▁транспортно",
        -10.293544378027029
      ],
      [
        "▁таком",
        -10.293568257976272
      ],
      [
        "▁инвестиций",
        -10.293805858379898
      ],
      [
        "▁Мир",
        -10.294308842634154
      ],
      [
        "▁АО",
        -10.294435825156814
      ],
      [
        "дин",
        -10.294621223248
      ],
      [
        "▁понедельник",
        -10.294839474282128
      ],
      [
        "▁исключением",
        -10.295254601354072
      ],
      [
        "▁обращения",
        -10.295444007053629
      ],
      [
        "хотим",
        -10.296127710741038
      ],
      [
        "▁чувак",
        -10.296544621318844
      ],
      [
        "▁i",
        -10.296671510449716
      ],
      [
        "▁номера",
        -10.29672245544835
      ],
      [
        "▁посланник",
        -10.296806209369125
      ],
      [
        "▁признак",
        -10.297072881984686
      ],
      [
        "▁погод",
        -10.297267617404106
      ],
      [
        "▁Ша",
        -10.297699105283144
      ],
      [
        "▁времен",
        -10.297866762529416
      ],
      [
        "▁двадцать",
        -10.298037147279135
      ],
      [
        "▁Северной",
        -10.298068111126636
      ],
      [
        "▁Каж",
        -10.298204511959591
      ],
      [
        "▁показател",
        -10.298377902689914
      ],
      [
        "нные",
        -10.2986600276019
      ],
      [
        "▁транспорт",
        -10.298728630216047
      ],
      [
        "as",
        -10.300056987524561
      ],
      [
        "▁отдел",
        -10.30047872592848
      ],
      [
        "▁определен",
        -10.301355994647583
      ],
      [
        "▁гер",
        -10.301527958954214
      ],
      [
        "▁сделаю",
        -10.301906551012676
      ],
      [
        "▁оперативно",
        -10.30226296946722
      ],
      [
        "▁получили",
        -10.302746882368703
      ],
      [
        "▁будуще",
        -10.303013055677884
      ],
      [
        "▁новым",
        -10.304235013660882
      ],
      [
        "▁решении",
        -10.304591245894319
      ],
      [
        "▁сожалени",
        -10.304651505950726
      ],
      [
        "▁Центр",
        -10.304729566249115
      ],
      [
        "законодательства",
        -10.305407583209458
      ],
      [
        "бр",
        -10.305710106529975
      ],
      [
        "▁постановил",
        -10.307043816494804
      ],
      [
        "▁остановить",
        -10.307350091653458
      ],
      [
        "man",
        -10.307652738932873
      ],
      [
        "порт",
        -10.307909921063846
      ],
      [
        "ri",
        -10.308226789024964
      ],
      [
        "▁мандата",
        -10.308565358130403
      ],
      [
        "ведения",
        -10.30902069324606
      ],
      [
        "▁Международн",
        -10.309253022322316
      ],
      [
        "▁частно",
        -10.310009161067454
      ],
      [
        "▁общество",
        -10.310074911739651
      ],
      [
        "▁собственност",
        -10.31046482266843
      ],
      [
        "▁код",
        -10.310537066365875
      ],
      [
        "▁космическо",
        -10.310710943598265
      ],
      [
        "▁сред",
        -10.3111506350852
      ],
      [
        "ками",
        -10.311166306880619
      ],
      [
        "▁отсутстви",
        -10.311220831395596
      ],
      [
        "▁предусмотренны",
        -10.311461179277083
      ],
      [
        "▁смог",
        -10.311560107781617
      ],
      [
        "▁двухгодичны",
        -10.311571192909089
      ],
      [
        "▁действие",
        -10.312085672940675
      ],
      [
        "▁стол",
        -10.312960441208602
      ],
      [
        "▁Кажды",
        -10.31317565088797
      ],
      [
        "▁гуманитарно",
        -10.313718743071444
      ],
      [
        "▁повышение",
        -10.313727419026293
      ],
      [
        "▁агент",
        -10.313983418871345
      ],
      [
        "▁хозяйства",
        -10.314063969696175
      ],
      [
        "▁земли",
        -10.314603928040718
      ],
      [
        "▁перспектив",
        -10.314702417369865
      ],
      [
        "▁опасности",
        -10.31474800689573
      ],
      [
        "▁диалог",
        -10.31521552667621
      ],
      [
        "▁Ах",
        -10.315395264688846
      ],
      [
        "▁Грузи",
        -10.316146130961751
      ],
      [
        "▁мера",
        -10.316652749972437
      ],
      [
        "▁двумя",
        -10.317073555379531
      ],
      [
        "▁Папа",
        -10.317277465580627
      ],
      [
        "▁ЮНИСЕ",
        -10.317340384283888
      ],
      [
        "▁получает",
        -10.317807462545785
      ],
      [
        "▁президента",
        -10.317994766582618
      ],
      [
        "спать",
        -10.318846597235162
      ],
      [
        "▁полномочи",
        -10.319116892777721
      ],
      [
        "▁секс",
        -10.319296361183817
      ],
      [
        "▁Други",
        -10.31948011891345
      ],
      [
        "комиссара",
        -10.319480338392871
      ],
      [
        "▁партии",
        -10.319526395317784
      ],
      [
        "▁глава",
        -10.319611959184622
      ],
      [
        "скольку",
        -10.319906499568656
      ],
      [
        "▁Врем",
        -10.320453066198727
      ],
      [
        "▁кровь",
        -10.320482122825899
      ],
      [
        "▁нарушени",
        -10.32066396060296
      ],
      [
        "▁кнопк",
        -10.320697005646455
      ],
      [
        "▁оборон",
        -10.320783920659107
      ],
      [
        "▁наркотикам",
        -10.32081222701261
      ],
      [
        "J",
        -10.320960506260166
      ],
      [
        "li",
        -10.3221154715164
      ],
      [
        "нуть",
        -10.322208746399657
      ],
      [
        "землю",
        -10.322232146427357
      ],
      [
        "▁Дай",
        -10.32253788332731
      ],
      [
        "ющее",
        -10.322546313586276
      ],
      [
        "▁файлов",
        -10.322839067136357
      ],
      [
        "тр",
        -10.322917920725432
      ],
      [
        "▁особенност",
        -10.323497931585061
      ],
      [
        "На",
        -10.32355606625771
      ],
      [
        "▁четверто",
        -10.323936001756291
      ],
      [
        "▁жив",
        -10.326034448426558
      ],
      [
        "▁страна",
        -10.326189733822847
      ],
      [
        "ойти",
        -10.32671886236217
      ],
      [
        "▁прекращени",
        -10.326984964684524
      ],
      [
        "▁признательность",
        -10.327125745699107
      ],
      [
        "пр",
        -10.327132284374644
      ],
      [
        "▁сотруднича",
        -10.327643738686426
      ],
      [
        "ника",
        -10.327919950431426
      ],
      [
        "вроде",
        -10.328166057487522
      ],
      [
        "▁Джордж",
        -10.32836576645186
      ],
      [
        "▁сына",
        -10.32851731551094
      ],
      [
        "▁мисс",
        -10.32961518828334
      ],
      [
        "▁оплат",
        -10.329620190836152
      ],
      [
        "▁общем",
        -10.330140132945328
      ],
      [
        "▁побед",
        -10.330879357054219
      ],
      [
        "▁Швейцари",
        -10.331256219818435
      ],
      [
        "▁уважени",
        -10.331527323991418
      ],
      [
        "стан",
        -10.332227655784562
      ],
      [
        "▁национальным",
        -10.332586149938697
      ],
      [
        "▁укрепление",
        -10.332824228838184
      ],
      [
        "суд",
        -10.332864454427394
      ],
      [
        "▁озабоченность",
        -10.333262427985627
      ],
      [
        "▁Сэм",
        -10.333674905752115
      ],
      [
        "▁привел",
        -10.334017409892345
      ],
      [
        "▁вниз",
        -10.334491112258807
      ],
      [
        "▁занимать",
        -10.334784903356848
      ],
      [
        "▁евро",
        -10.335575144109132
      ],
      [
        "лек",
        -10.335608502452
      ],
      [
        "▁происхождения",
        -10.335693472861323
      ],
      [
        "▁банка",
        -10.33615066430654
      ],
      [
        "▁недостаточно",
        -10.336267955839276
      ],
      [
        "▁игрок",
        -10.336419132150844
      ],
      [
        "енная",
        -10.336491784960224
      ],
      [
        "▁Марк",
        -10.336926999536974
      ],
      [
        "▁Господи",
        -10.337287639748698
      ],
      [
        "ma",
        -10.337577935731083
      ],
      [
        "▁Ведь",
        -10.337650422225142
      ],
      [
        "▁случай",
        -10.337958737257718
      ],
      [
        "▁членами",
        -10.338242667965035
      ],
      [
        "▁разговор",
        -10.338512176919695
      ],
      [
        "▁назначения",
        -10.338797854902172
      ],
      [
        "енной",
        -10.338813911705788
      ],
      [
        "пис",
        -10.33939057736687
      ],
      [
        "▁образ",
        -10.339514965863923
      ],
      [
        "▁ассоциаци",
        -10.339904287669539
      ],
      [
        "▁Социально",
        -10.339950946207015
      ],
      [
        "▁диалога",
        -10.340131663917823
      ],
      [
        "▁продукт",
        -10.340416365538822
      ],
      [
        "▁обработк",
        -10.340763505139297
      ],
      [
        "лез",
        -10.34128121416091
      ],
      [
        "▁дискусси",
        -10.342432872206501
      ],
      [
        "тро",
        -10.342959426907514
      ],
      [
        "▁декларации",
        -10.34338067917555
      ],
      [
        "▁целы",
        -10.343670913002457
      ],
      [
        "▁списк",
        -10.343718348088757
      ],
      [
        "▁нарушение",
        -10.344162356536101
      ],
      [
        "▁чрезвычайно",
        -10.344400771944503
      ],
      [
        "▁отношение",
        -10.345429835437784
      ],
      [
        "▁общественност",
        -10.345530268431396
      ],
      [
        "▁сельски",
        -10.345684860625209
      ],
      [
        "▁ежегодно",
        -10.345981860432222
      ],
      [
        "▁рода",
        -10.34612272669312
      ],
      [
        "▁Може",
        -10.346209727842012
      ],
      [
        "▁правовы",
        -10.346631345190879
      ],
      [
        "▁включать",
        -10.34701963703731
      ],
      [
        "▁урок",
        -10.347785557449747
      ],
      [
        "▁медицински",
        -10.347972429836457
      ],
      [
        "▁стандарт",
        -10.349227734377116
      ],
      [
        "ирует",
        -10.349265790535712
      ],
      [
        "▁улучшени",
        -10.35003875159472
      ],
      [
        "▁продаж",
        -10.350523788467317
      ],
      [
        "▁оборудование",
        -10.350969555236848
      ],
      [
        "▁родител",
        -10.35387056089063
      ],
      [
        "▁установк",
        -10.354892193003455
      ],
      [
        "▁полном",
        -10.355243098288375
      ],
      [
        "▁магазин",
        -10.355352526169057
      ],
      [
        "▁здорово",
        -10.35610902284795
      ],
      [
        "▁кредит",
        -10.3562882690673
      ],
      [
        "▁подтверждает",
        -10.356429823598699
      ],
      [
        "▁исключительно",
        -10.356835502605463
      ],
      [
        "▁чёрт",
        -10.35725690775795
      ],
      [
        "▁сестр",
        -10.357296354658974
      ],
      [
        "▁разны",
        -10.358272086254715
      ],
      [
        "▁Соединенно",
        -10.3589312208276
      ],
      [
        "▁слыш",
        -10.359160227772833
      ],
      [
        "инд",
        -10.359248443560261
      ],
      [
        "ТАД",
        -10.35977908981478
      ],
      [
        "▁семья",
        -10.360005665318543
      ],
      [
        "кажешь",
        -10.360474081730068
      ],
      [
        "▁парне",
        -10.360732982312832
      ],
      [
        "след",
        -10.36246707222412
      ],
      [
        "▁средствам",
        -10.362897431421223
      ],
      [
        "▁новую",
        -10.36310033437935
      ],
      [
        "▁сталкива",
        -10.364388311139914
      ],
      [
        "▁больш",
        -10.36456302684709
      ],
      [
        "▁утверждения",
        -10.364683980182608
      ],
      [
        "ужел",
        -10.36484769600656
      ],
      [
        "▁справедливо",
        -10.364958453740192
      ],
      [
        "▁нашим",
        -10.365294824601584
      ],
      [
        "▁Китая",
        -10.366575957418144
      ],
      [
        "▁поле",
        -10.367252855204281
      ],
      [
        "▁предоставлен",
        -10.367553885877792
      ],
      [
        "▁обмена",
        -10.368112147770237
      ],
      [
        "▁юридически",
        -10.368310169039137
      ],
      [
        "co",
        -10.368439294240357
      ],
      [
        "▁гораздо",
        -10.36926202171939
      ],
      [
        "▁пап",
        -10.369294223976887
      ],
      [
        "▁заявлени",
        -10.369577690902627
      ],
      [
        "мор",
        -10.369582491423632
      ],
      [
        "▁предоставить",
        -10.369651682700667
      ],
      [
        "нал",
        -10.370277078370613
      ],
      [
        "▁трудност",
        -10.37030637282953
      ],
      [
        "▁стандартов",
        -10.371372682282043
      ],
      [
        "▁выглядит",
        -10.3715151761533
      ],
      [
        "ходить",
        -10.371889929687288
      ],
      [
        "▁представлять",
        -10.372145492939959
      ],
      [
        "▁указанны",
        -10.372222794137105
      ],
      [
        "▁Александр",
        -10.372437201676695
      ],
      [
        "▁ряда",
        -10.372693548862308
      ],
      [
        "▁учет",
        -10.372757978478964
      ],
      [
        "▁класс",
        -10.372984646411396
      ],
      [
        "▁Оно",
        -10.373233469798746
      ],
      [
        "▁Иран",
        -10.373236584410517
      ],
      [
        "▁поддерживать",
        -10.37404497660219
      ],
      [
        "▁одновременно",
        -10.374055465164368
      ],
      [
        "ген",
        -10.374174255011972
      ],
      [
        "▁штат",
        -10.37532631209697
      ],
      [
        "▁третьей",
        -10.375458259410484
      ],
      [
        "▁сторону",
        -10.375526272470278
      ],
      [
        "▁Нидерланд",
        -10.37569704635549
      ],
      [
        "▁определенно",
        -10.375994780355065
      ],
      [
        "▁заче",
        -10.3760698251313
      ],
      [
        "Не",
        -10.376125962641254
      ],
      [
        "▁впервы",
        -10.376132863293616
      ],
      [
        "▁привест",
        -10.376564396939052
      ],
      [
        "▁полны",
        -10.376597252337781
      ],
      [
        "▁специализирован",
        -10.377271104343535
      ],
      [
        "▁рейс",
        -10.377415872274796
      ],
      [
        "▁установить",
        -10.377486583566249
      ],
      [
        "▁ЮНК",
        -10.377907331098283
      ],
      [
        "▁больниц",
        -10.378253896706282
      ],
      [
        "▁крови",
        -10.37850094770226
      ],
      [
        "▁Дума",
        -10.3790103557962
      ],
      [
        "▁правительствам",
        -10.37901677826038
      ],
      [
        "АО",
        -10.379273658077807
      ],
      [
        "▁нефт",
        -10.380486866323594
      ],
      [
        "▁сообщит",
        -10.38080202062976
      ],
      [
        "▁ужасно",
        -10.381488014063173
      ],
      [
        "ники",
        -10.381598547972175
      ],
      [
        "ирование",
        -10.38186681913134
      ],
      [
        "▁поиск",
        -10.381892474755613
      ],
      [
        "▁включить",
        -10.382094509666924
      ],
      [
        "lo",
        -10.382445715725606
      ],
      [
        "▁временно",
        -10.382758219706453
      ],
      [
        "▁Мои",
        -10.382780250221977
      ],
      [
        "▁политика",
        -10.382996022438238
      ],
      [
        "▁законодательны",
        -10.383294500050198
      ],
      [
        "▁будущи",
        -10.383753570469155
      ],
      [
        "▁соглашение",
        -10.384017440235041
      ],
      [
        "ck",
        -10.384663640367652
      ],
      [
        "▁шести",
        -10.384700658901087
      ],
      [
        "▁общественно",
        -10.384805576316825
      ],
      [
        "рин",
        -10.384842106638395
      ],
      [
        "ющим",
        -10.38502144479802
      ],
      [
        "▁Мер",
        -10.385300350104936
      ],
      [
        "▁детя",
        -10.385482250071021
      ],
      [
        "▁решени",
        -10.385789084824935
      ],
      [
        "▁промышленност",
        -10.385912737841092
      ],
      [
        "▁Аль",
        -10.386378635484908
      ],
      [
        "▁известны",
        -10.386391425695969
      ],
      [
        "▁Восток",
        -10.387021285844929
      ],
      [
        "▁отмечен",
        -10.387025284881924
      ],
      [
        "▁имел",
        -10.38745479690309
      ],
      [
        "▁Франции",
        -10.387455245230035
      ],
      [
        "▁приняла",
        -10.388186095221958
      ],
      [
        "▁добить",
        -10.388399788589536
      ],
      [
        "▁широки",
        -10.388718513829964
      ],
      [
        "▁получит",
        -10.388812441367909
      ],
      [
        "▁стратегически",
        -10.390270633452337
      ],
      [
        "▁Наверно",
        -10.390322890936826
      ],
      [
        "▁думает",
        -10.391176480723294
      ],
      [
        "▁Тот",
        -10.391224187115093
      ],
      [
        "▁возраста",
        -10.391934404219047
      ],
      [
        "▁оба",
        -10.39231236642117
      ],
      [
        "▁региональном",
        -10.392476138770615
      ],
      [
        "▁делают",
        -10.392811935109796
      ],
      [
        "▁должность",
        -10.393241846511136
      ],
      [
        "▁исполнение",
        -10.39360243388796
      ],
      [
        "▁максимально",
        -10.393933990628106
      ],
      [
        "▁внешне",
        -10.394397671667342
      ],
      [
        "▁мор",
        -10.394594765568648
      ],
      [
        "▁вне",
        -10.394784005216625
      ],
      [
        "▁Совету",
        -10.395678841956599
      ],
      [
        "▁основной",
        -10.397816569597472
      ],
      [
        "рик",
        -10.397963244510365
      ],
      [
        "ток",
        -10.398043764683216
      ],
      [
        "▁врач",
        -10.398547276994464
      ],
      [
        "НК",
        -10.398780704943071
      ],
      [
        "ющей",
        -10.399790832138525
      ],
      [
        "ительно",
        -10.400487754044928
      ],
      [
        "▁Отдел",
        -10.400853952946845
      ],
      [
        "▁оказал",
        -10.40090734085072
      ],
      [
        "▁предприятия",
        -10.40102567109791
      ],
      [
        "льный",
        -10.401765826398002
      ],
      [
        "▁Джа",
        -10.402042150385245
      ],
      [
        "▁Центральной",
        -10.403197430111597
      ],
      [
        "▁студент",
        -10.403208867260659
      ],
      [
        "ывает",
        -10.404041478734335
      ],
      [
        "▁свободно",
        -10.404099594793518
      ],
      [
        "▁консенсус",
        -10.405141754623877
      ],
      [
        "um",
        -10.405647485192624
      ],
      [
        "▁совершени",
        -10.405741067044191
      ],
      [
        "▁Казахстана",
        -10.40630573565193
      ],
      [
        "совершенствовани",
        -10.406361286515141
      ],
      [
        "▁единственны",
        -10.406362233566957
      ],
      [
        "▁странно",
        -10.406485664079685
      ],
      [
        "▁поездк",
        -10.40654029180708
      ],
      [
        "▁бесплатно",
        -10.407663483551538
      ],
      [
        "▁объема",
        -10.407675175198548
      ],
      [
        "мир",
        -10.40814693840027
      ],
      [
        "▁требуется",
        -10.408421186591962
      ],
      [
        "▁стоимость",
        -10.408481820523075
      ],
      [
        "▁санкци",
        -10.408787094437187
      ],
      [
        "▁вопросах",
        -10.409371632425621
      ],
      [
        "▁твоё",
        -10.409676300545623
      ],
      [
        "▁применени",
        -10.409708656912098
      ],
      [
        "НПО",
        -10.410118649626593
      ],
      [
        "ia",
        -10.410128070471774
      ],
      [
        "▁важн",
        -10.410435279531663
      ],
      [
        "ждать",
        -10.411173150551505
      ],
      [
        "▁предоставление",
        -10.411526806696031
      ],
      [
        "▁мнения",
        -10.411766160192741
      ],
      [
        "ложить",
        -10.413245332207833
      ],
      [
        "▁немедленно",
        -10.413489054589967
      ],
      [
        "▁приехал",
        -10.413498706066502
      ],
      [
        "▁главно",
        -10.414116245676844
      ],
      [
        "ировал",
        -10.414815806188503
      ],
      [
        "▁прощени",
        -10.414942553739259
      ],
      [
        "▁предложен",
        -10.415146326276219
      ],
      [
        "ско",
        -10.41589909224226
      ],
      [
        "▁заключение",
        -10.416447075074382
      ],
      [
        "▁Ново",
        -10.416616766309886
      ],
      [
        "▁ибо",
        -10.416694279886482
      ],
      [
        "▁вина",
        -10.417410703078449
      ],
      [
        "▁воздействия",
        -10.417807774366686
      ],
      [
        "▁Пред",
        -10.417945120396304
      ],
      [
        "▁выполнение",
        -10.417993693076076
      ],
      [
        "столько",
        -10.41831402054044
      ],
      [
        "рек",
        -10.418837911135041
      ],
      [
        "▁общих",
        -10.418996780402043
      ],
      [
        "рад",
        -10.42040579384241
      ],
      [
        "▁Майкл",
        -10.420435554503683
      ],
      [
        "ющейся",
        -10.420556821418051
      ],
      [
        "▁предупреждения",
        -10.420580346240687
      ],
      [
        "▁услугам",
        -10.420655823906433
      ],
      [
        "▁местно",
        -10.421035681550638
      ],
      [
        "▁кандидат",
        -10.421685892632368
      ],
      [
        "РА",
        -10.421860271807532
      ],
      [
        "▁статистик",
        -10.421906760477043
      ],
      [
        "▁комментари",
        -10.42190693729863
      ],
      [
        "▁стабильност",
        -10.421936362516234
      ],
      [
        "▁признает",
        -10.42222600045991
      ],
      [
        "ne",
        -10.422234275695327
      ],
      [
        "▁руководства",
        -10.422403350550649
      ],
      [
        "▁функционировани",
        -10.422460365295443
      ],
      [
        "▁Ан",
        -10.422507214849183
      ],
      [
        "чка",
        -10.422582363614316
      ],
      [
        "▁расследования",
        -10.422645849750975
      ],
      [
        "чем",
        -10.422963706935054
      ],
      [
        "▁произ",
        -10.423374017712241
      ],
      [
        "▁принципа",
        -10.423605046926749
      ],
      [
        "▁столько",
        -10.42367096513177
      ],
      [
        "Z",
        -10.424125007114245
      ],
      [
        "▁основан",
        -10.424154245071744
      ],
      [
        "▁обстоятельства",
        -10.424165361692797
      ],
      [
        "▁кажд",
        -10.4245758095443
      ],
      [
        "Ю",
        -10.424707149521494
      ],
      [
        "▁пойт",
        -10.425520280165554
      ],
      [
        "▁интересно",
        -10.42647485389464
      ],
      [
        "▁Великобритании",
        -10.426919376866902
      ],
      [
        "▁четверг",
        -10.426991366693654
      ],
      [
        "▁Добавлен",
        -10.426991393107027
      ],
      [
        "▁обсуждени",
        -10.42744834005318
      ],
      [
        "▁вероятно",
        -10.42747914139839
      ],
      [
        "ству",
        -10.428234585631827
      ],
      [
        "▁сердца",
        -10.428531793976536
      ],
      [
        "▁Документ",
        -10.4286921600176
      ],
      [
        "дар",
        -10.42902973165066
      ],
      [
        "▁влияние",
        -10.429393587875222
      ],
      [
        "▁разработан",
        -10.429738898746066
      ],
      [
        "▁молоды",
        -10.429751104245028
      ],
      [
        "▁сигнал",
        -10.43009629686939
      ],
      [
        "▁угодно",
        -10.430397790253348
      ],
      [
        "▁Международный",
        -10.430412332644227
      ],
      [
        "▁представил",
        -10.430542452857946
      ],
      [
        "▁делегаци",
        -10.43054350170301
      ],
      [
        "▁полученны",
        -10.431351457775207
      ],
      [
        "ват",
        -10.432294812919352
      ],
      [
        "▁прошу",
        -10.432365500408794
      ],
      [
        "ent",
        -10.43311949658463
      ],
      [
        "▁Цен",
        -10.43371943593701
      ],
      [
        "▁Неизвестна",
        -10.433811783846643
      ],
      [
        "▁считают",
        -10.433982966638066
      ],
      [
        "▁Би",
        -10.434184557035138
      ],
      [
        "▁выбрать",
        -10.434687274806121
      ],
      [
        "▁девочк",
        -10.435115117002209
      ],
      [
        "вол",
        -10.43537844926778
      ],
      [
        "▁включают",
        -10.435526592345493
      ],
      [
        "сад",
        -10.435567743167187
      ],
      [
        "▁участвова",
        -10.435723186233478
      ],
      [
        "▁качество",
        -10.436675110911397
      ],
      [
        "▁указывает",
        -10.43760808647841
      ],
      [
        "▁итогам",
        -10.43761668658253
      ],
      [
        "▁Бер",
        -10.437856903679322
      ],
      [
        "▁вторник",
        -10.438495978628314
      ],
      [
        "▁пришла",
        -10.438979420934935
      ],
      [
        "▁насилие",
        -10.439002515166754
      ],
      [
        "▁воздействие",
        -10.440248880502912
      ],
      [
        "▁хватит",
        -10.440813999418145
      ],
      [
        "▁глаз",
        -10.441911025688192
      ],
      [
        "▁Пакистан",
        -10.44205782204704
      ],
      [
        "▁Co",
        -10.442361303795732
      ],
      [
        "▁инфраструктуры",
        -10.442660184143826
      ],
      [
        "▁Глава",
        -10.44271654585977
      ],
      [
        "▁обеспокоенность",
        -10.443261645281808
      ],
      [
        "▁f",
        -10.44344923762564
      ],
      [
        "кер",
        -10.443703765575801
      ],
      [
        "тельно",
        -10.44399270010064
      ],
      [
        "▁значения",
        -10.444049569562974
      ],
      [
        "▁онлайн",
        -10.44442131426302
      ],
      [
        "▁восстановления",
        -10.444608611624375
      ],
      [
        "ie",
        -10.446031530804104
      ],
      [
        "▁политику",
        -10.446072065542651
      ],
      [
        "▁следующем",
        -10.446262691374956
      ],
      [
        "▁Польш",
        -10.446372676559601
      ],
      [
        "UR",
        -10.44673232376276
      ],
      [
        "▁среда",
        -10.447705163858325
      ],
      [
        "▁говори",
        -10.448228900046178
      ],
      [
        "▁решить",
        -10.448378978937217
      ],
      [
        "цио",
        -10.448484274431518
      ],
      [
        "▁пытал",
        -10.448683815376548
      ],
      [
        "писать",
        -10.448736746134907
      ],
      [
        "▁достижение",
        -10.448813646494582
      ],
      [
        "▁Россия",
        -10.448937655969102
      ],
      [
        "▁полу",
        -10.450253731077009
      ],
      [
        "▁определить",
        -10.450378399585626
      ],
      [
        "▁Таджикистан",
        -10.451068181510959
      ],
      [
        "бира",
        -10.451147695087968
      ],
      [
        "▁премьер",
        -10.451151205181183
      ],
      [
        "эй",
        -10.451636838394993
      ],
      [
        "▁необходим",
        -10.451791758028325
      ],
      [
        "▁Ру",
        -10.451912004350195
      ],
      [
        "▁Ин",
        -10.451978703656183
      ],
      [
        "▁Южн",
        -10.45202193911036
      ],
      [
        "ur",
        -10.452182411109387
      ],
      [
        "▁билет",
        -10.45285439988329
      ],
      [
        "▁совместны",
        -10.452902577872555
      ],
      [
        "▁визит",
        -10.453332596026268
      ],
      [
        "▁контракт",
        -10.453406497245055
      ],
      [
        "▁Закона",
        -10.453528058895692
      ],
      [
        "▁зале",
        -10.45371313807005
      ],
      [
        "▁срока",
        -10.453929298342283
      ],
      [
        "▁считать",
        -10.454287905045641
      ],
      [
        "▁представителям",
        -10.454616626960153
      ],
      [
        "▁Ю",
        -10.454647159613476
      ],
      [
        "▁Беларус",
        -10.454658552298119
      ],
      [
        "выше",
        -10.454938726161352
      ],
      [
        "▁равны",
        -10.455418484347442
      ],
      [
        "▁показывает",
        -10.455684591321615
      ],
      [
        "▁вашим",
        -10.455748009626447
      ],
      [
        "▁лидер",
        -10.455865869308266
      ],
      [
        "▁рекомендовал",
        -10.456809791740252
      ],
      [
        "▁предупреждени",
        -10.457119092590116
      ],
      [
        "▁Пре",
        -10.457734695850892
      ],
      [
        "▁вооружени",
        -10.457825744750153
      ],
      [
        "▁отеле",
        -10.457839256032234
      ],
      [
        "ex",
        -10.45784650506403
      ],
      [
        "▁Пошли",
        -10.458086761369184
      ],
      [
        "▁этими",
        -10.45851914166268
      ],
      [
        "▁ведет",
        -10.458652838458825
      ],
      [
        "▁Кол",
        -10.458979624544732
      ],
      [
        "▁история",
        -10.459709508130246
      ],
      [
        "▁свете",
        -10.459861232359465
      ],
      [
        "▁поздно",
        -10.45987544181144
      ],
      [
        "▁вести",
        -10.459889242927698
      ],
      [
        "▁согласованны",
        -10.460139262314527
      ],
      [
        "▁надлежащи",
        -10.460244032739983
      ],
      [
        "▁убийства",
        -10.460301149977209
      ],
      [
        "▁отказа",
        -10.46045998435212
      ],
      [
        "▁класса",
        -10.460514400973654
      ],
      [
        "▁выплат",
        -10.46053564871261
      ],
      [
        "▁особы",
        -10.460877302709289
      ],
      [
        "▁торговы",
        -10.461033194608921
      ],
      [
        "▁недель",
        -10.461187512323587
      ],
      [
        "▁представляют",
        -10.461323052750462
      ],
      [
        "▁Цель",
        -10.461330149698869
      ],
      [
        "казать",
        -10.461363351379672
      ],
      [
        "▁Знает",
        -10.461495343835065
      ],
      [
        "▁смотреть",
        -10.461812807252725
      ],
      [
        "▁след",
        -10.461948365695804
      ],
      [
        "▁Ба",
        -10.461992276583091
      ],
      [
        "be",
        -10.462218536688031
      ],
      [
        "▁обязанност",
        -10.462552900655961
      ],
      [
        "▁Ро",
        -10.46278952805011
      ],
      [
        "ряд",
        -10.463209877201207
      ],
      [
        "▁очевидно",
        -10.463327529363827
      ],
      [
        "джи",
        -10.463862039373208
      ],
      [
        "▁ограничения",
        -10.464587981741715
      ],
      [
        "шл",
        -10.464640171584684
      ],
      [
        "▁Новы",
        -10.464644563107882
      ],
      [
        "▁Дело",
        -10.464923377659758
      ],
      [
        "▁взгляд",
        -10.46512265661162
      ],
      [
        "▁Японии",
        -10.465351602624175
      ],
      [
        "▁зло",
        -10.465816958439358
      ],
      [
        "▁U",
        -10.466588053798398
      ],
      [
        "▁Швеци",
        -10.466637679850365
      ],
      [
        "▁имущества",
        -10.466695263811662
      ],
      [
        "▁региональны",
        -10.466840720362935
      ],
      [
        "▁дам",
        -10.467067312340657
      ],
      [
        "▁морско",
        -10.467515779899912
      ],
      [
        "▁человеческо",
        -10.468214906572282
      ],
      [
        "mo",
        -10.468661801540405
      ],
      [
        "сан",
        -10.468974238380637
      ],
      [
        "гре",
        -10.469173283136577
      ],
      [
        "▁охват",
        -10.470138288739925
      ],
      [
        "▁Буду",
        -10.47084601430398
      ],
      [
        "▁клуб",
        -10.470876161975411
      ],
      [
        "▁власть",
        -10.471079256382417
      ],
      [
        "▁Ман",
        -10.471107068098886
      ],
      [
        "▁опасны",
        -10.471597963739368
      ],
      [
        "▁Лу",
        -10.471640988300326
      ],
      [
        "▁использу",
        -10.472049197183946
      ],
      [
        "▁физическо",
        -10.47222307714027
      ],
      [
        "▁связанным",
        -10.472816228772757
      ],
      [
        "шка",
        -10.474143109161515
      ],
      [
        "▁планирует",
        -10.474167861255966
      ],
      [
        "▁верси",
        -10.474525017602764
      ],
      [
        "▁комплекс",
        -10.474580648006961
      ],
      [
        "▁среде",
        -10.47458168294246
      ],
      [
        "▁направления",
        -10.474811523947482
      ],
      [
        "▁претензи",
        -10.474919908543743
      ],
      [
        "рет",
        -10.474988748740515
      ],
      [
        "виду",
        -10.475266262718783
      ],
      [
        "▁дорого",
        -10.475596810577049
      ],
      [
        "иначе",
        -10.47574802336989
      ],
      [
        "▁авто",
        -10.476740078956372
      ],
      [
        "▁финансирование",
        -10.476768570587124
      ],
      [
        "рас",
        -10.477024256353497
      ],
      [
        "▁расширени",
        -10.477315518435212
      ],
      [
        "кал",
        -10.477430852865808
      ],
      [
        "▁камер",
        -10.477683981650955
      ],
      [
        "▁нужда",
        -10.478051369449734
      ],
      [
        "▁машина",
        -10.478529994310232
      ],
      [
        "▁общественны",
        -10.478665099145822
      ],
      [
        "▁деяния",
        -10.478706500434026
      ],
      [
        "▁выгод",
        -10.478962087973652
      ],
      [
        "▁рассмотрел",
        -10.479078013524035
      ],
      [
        "▁Post",
        -10.479283401566896
      ],
      [
        "▁заключения",
        -10.479368833766305
      ],
      [
        "▁едино",
        -10.479531492343854
      ],
      [
        "ion",
        -10.47989776133327
      ],
      [
        "▁будущее",
        -10.48005254177995
      ],
      [
        "▁Чем",
        -10.480184111514564
      ],
      [
        "▁большим",
        -10.4804803780985
      ],
      [
        "▁животны",
        -10.480764235276673
      ],
      [
        "▁развитии",
        -10.481109030120683
      ],
      [
        "▁эксперт",
        -10.481174848181206
      ],
      [
        "▁сокращение",
        -10.481266437260274
      ],
      [
        "▁Союз",
        -10.481360932353354
      ],
      [
        "▁никог",
        -10.481582299262698
      ],
      [
        "▁применять",
        -10.481688791662922
      ],
      [
        "▁транспорта",
        -10.48242357817282
      ],
      [
        "index",
        -10.482922663117481
      ],
      [
        "▁абсолютно",
        -10.483050795799862
      ],
      [
        "▁население",
        -10.48306514646156
      ],
      [
        "▁термин",
        -10.483476328398837
      ],
      [
        "▁позволить",
        -10.483968686609813
      ],
      [
        "▁письма",
        -10.484059314244348
      ],
      [
        "▁должностны",
        -10.484244449706559
      ],
      [
        "▁приказ",
        -10.484322211323567
      ],
      [
        "▁друз",
        -10.484782355429129
      ],
      [
        "▁администраци",
        -10.48544806784838
      ],
      [
        "▁законов",
        -10.485623140990391
      ],
      [
        "▁Королевство",
        -10.485911605765494
      ],
      [
        "▁зарегистрирован",
        -10.487072946742098
      ],
      [
        "зер",
        -10.488495867869945
      ],
      [
        "▁наимен",
        -10.488712112861073
      ],
      [
        "▁интересов",
        -10.488750394488095
      ],
      [
        "▁документаци",
        -10.489088682406262
      ],
[...]
