{
  "version": "1.0",
  "truncation": null,
  "padding": null,
  "added_tokens": [
    {
      "id": 0,
      "content": "<pad>",
      "single_word": false,
      "lstrip": false,
      "rstrip": false,
      "normalized": false,
      "special": true
    },
    {
      "id": 1,
      "content": "<s>",
      "single_word": false,
      "lstrip": false,
      "rstrip": false,
      "normalized": false,
      "special": true
    },
    {
      "id": 2,
      "content": "</s>",
      "single_word": false,
      "lstrip": false,
      "rstrip": false,
      "normalized": false,
      "special": true
    },
    {
      "id": 3,
      "content": "<unk>",
      "single_word": false,
      "lstrip": false,
      "rstrip": false,
      "normalized": false,
      "special": true
    }
  ],
  "normalizer": {
    "type": "NFKC"
  },
  "pre_tokenizer": {
    "type": "Sequence",
    "pretokenizers": [
      {
        "type": "Metaspace",
        "replacement": "▁",
        "prepend_scheme": "always",
        "split": true
      },
      {
        "type": "Punctuation",
        "behavior": "Isolated"
      },
      {
        "type": "Digits",
        "individual_digits": true
      }
    ]
  },
  "post_processor": {
    "type": "TemplateProcessing",
    "single": [
      {
        "SpecialToken": {
          "id": "<s>",
          "type_id": 0
        }
      },
      {
        "Sequence": {
          "id": "A",
          "type_id": 0
        }
      },
      {
        "SpecialToken": {
          "id": "</s>",
          "type_id": 0
        }
      }
    ],
    "pair": [
      {
        "Sequence": {
          "id": "A",
          "type_id": 0
        }
      },
      {
        "Sequence": {
          "id": "B",
          "type_id": 1
        }
      }
    ],
    "special_tokens": {
      "</s>": {
        "id": "</s>",
        "ids": [
          2
        ],
        "tokens": [
          "</s>"
        ]
      },
      "<s>": {
        "id": "<s>",
        "ids": [
          1
        ],
        "tokens": [
          "<s>"
        ]
      }
    }
  },
  "decoder": {
    "type": "Metaspace",
    "replacement": "▁",
    "prepend_scheme": "always",
    "split": true
  },
  "model": {
    "type": "Unigram",
    "unk_id": 3,
    "vocab": [
      [
        "<pad>",
        0.0
      ],
      [
        "<s>",
        0.0
      ],
      [
        "</s>",
        0.0
      ],
      [
        "<unk>",
        0.0
      ],
      [
        "▁",
        -2.9512826004919184
      ],
      [
        ".",
        -2.994278816394953
      ],
      [
        ",",
        -3.2606466790668236
      ],
      [
        "s",
        -3.2890859326856727
      ],
      [
        "▁the",
        -3.354386075113757
      ],
      [
        "▁of",
        -3.8903800489230935
      ],
      [
        "▁to",
        -4.084701735109988
      ],
      [
        "▁and",
        -4.172219842289817
      ],
      [
        "0",
        -4.29057863439683
      ],
      [
        "'",
        -4.315450054635793
      ],
      [
        "a",
        -4.337278225157673
      ],
      [
        "1",
        -4.507847024995764
      ],
      [
        "▁I",
        -4.567420406334438
      ],
      [
        "▁in",
        -4.580532346147724
      ],
      [
        "2",
        -4.592826624527152
      ],
      [
        "ed",
        -4.720570758470897
      ],
      [
        "ing",
        -4.760978150779893
      ],
      [
        "▁you",
        -4.7814868328882145
      ],
      [
        "-",
        -4.851982960175885
      ],
      [
        "d",
        -4.920466681161413
      ],
      [
        "?",
        -4.964482074342255
      ],
      [
        "y",
        -4.977918082315188
      ],
      [
        "on",
        -4.985638068484999
      ],
      [
        "▁is",
        -5.094325371715913
      ],
      [
        ":",
        -5.09882837249277
      ],
      [
        "▁for",
        -5.108300649868653
      ],
      [
        "▁that",
        -5.125244296274351
      ],
      [
        "t",
        -5.145377966422579
      ],
      [
        "3",
        -5.400643410651579
      ],
      [
        ")",
        -5.406258161705759
      ],
      [
        "▁The",
        -5.406495198981796
      ],
      [
        "▁it",
        -5.41458743605777
      ],
      [
        "/",
        -5.420265153838887
      ],
      [
        "(",
        -5.436940542371101
      ],
      [
        "5",
        -5.438664139451543
      ],
      [
        "e",
        -5.449851254800446
      ],
      [
        "9",
        -5.520875305626673
      ],
      [
        "4",
        -5.545702541762191
      ],
      [
        "▁be",
        -5.57179637017637
      ],
      [
        "▁with",
        -5.616238813787138
      ],
      [
        "6",
        -5.691364875738824
      ],
      [
        "ly",
        -5.6997166207320245
      ],
      [
        "▁are",
        -5.764365718759198
      ],
      [
        "!",
        -5.786599701625384
      ],
      [
        "7",
        -5.803102974744801
      ],
      [
        "▁was",
        -5.826631551881576
      ],
      [
        "8",
        -5.841197826205903
      ],
      [
        "▁not",
        -5.841653689007604
      ],
      [
        "m",
        -5.857190621431581
      ],
      [
        "▁have",
        -5.8853030064145155
      ],
      [
        "▁as",
        -5.937165226848727
      ],
      [
        "▁this",
        -5.957652708895809
      ],
      [
        "▁by",
        -5.972167762183171
      ],
      [
        "n",
        -6.006778538930053
      ],
      [
        "\"",
        -6.080165061925463
      ],
      [
        "▁me",
        -6.119703218921689
      ],
      [
        "▁You",
        -6.145980517904626
      ],
      [
        "▁will",
        -6.152454228235673
      ],
      [
        "▁from",
        -6.154626685376124
      ],
      [
        "▁at",
        -6.159510031181783
      ],
      [
        "▁your",
        -6.214032674197284
      ],
      [
        "o",
        -6.279134334938151
      ],
      [
        "▁we",
        -6.31150431419316
      ],
      [
        "▁It",
        -6.352857423504746
      ],
      [
        "▁all",
        -6.357885635436006
      ],
      [
        ";",
        -6.41512656878443
      ],
      [
        "▁or",
        -6.415767924260949
      ],
      [
        "▁my",
        -6.418580075380895
      ],
      [
        "▁can",
        -6.452313606568888
      ],
      [
        "re",
        -6.473514575001646
      ],
      [
        "▁an",
        -6.4931723714805525
      ],
      [
        "▁he",
        -6.511882282451133
      ],
      [
        "▁do",
        -6.5540026212704685
      ],
      [
        "▁know",
        -6.561930653439589
      ],
      [
        "▁We",
        -6.598013603520116
      ],
      [
        "i",
        -6.600803866713383
      ],
      [
        "er",
        -6.603052283702256
      ],
      [
        "▁has",
        -6.619297798294783
      ],
      [
        "▁what",
        -6.644866009155233
      ],
      [
        "▁And",
        -6.678128552142477
      ],
      [
        "▁about",
        -6.69605302410557
      ],
      [
        "▁their",
        -6.70792568444452
      ],
      [
        "▁its",
        -6.762698570650404
      ],
      [
        "▁He",
        -6.771005230027347
      ],
      [
        "▁which",
        -6.788639732960235
      ],
      [
        "▁A",
        -6.797145704953904
      ],
      [
        "▁out",
        -6.797589583562891
      ],
      [
        "▁one",
        -6.798803715022187
      ],
      [
        "▁were",
        -6.803155647061084
      ],
      [
        "▁up",
        -6.804393948596083
      ],
      [
        "▁What",
        -6.809496046214896
      ],
      [
        "▁but",
        -6.811112494497586
      ],
      [
        "▁In",
        -6.820508077674058
      ],
      [
        "*",
        -6.824188670386356
      ],
      [
        "▁him",
        -6.824664994905795
      ],
      [
        "ies",
        -6.825982537472372
      ],
      [
        "l",
        -6.848275395661863
      ],
      [
        "▁who",
        -6.855448940624511
      ],
      [
        "▁like",
        -6.858190185984492
      ],
      [
        "▁been",
        -6.886302064000203
      ],
      [
        "▁any",
        -6.887809304324719
      ],
      [
        "▁just",
        -6.897893367767704
      ],
      [
        "▁don",
        -6.901837205562389
      ],
      [
        "▁there",
        -6.905086467246086
      ],
      [
        "▁No",
        -6.909424917885387
      ],
      [
        "▁time",
        -6.912067433890604
      ],
      [
        "▁they",
        -6.923077914441805
      ],
      [
        "▁want",
        -6.925731163727885
      ],
      [
        "▁his",
        -6.929130890949775
      ],
      [
        "▁would",
        -6.941578727628688
      ],
      [
        "▁so",
        -6.943663453024229
      ],
      [
        "▁United",
        -6.948887618719484
      ],
      [
        "▁no",
        -6.949277797571522
      ],
      [
        "▁here",
        -6.9552562501431705
      ],
      [
        "▁her",
        -6.961545242386238
      ],
      [
        "▁right",
        -6.9711907835874865
      ],
      [
        "▁them",
        -6.984573389946881
      ],
      [
        "ll",
        -6.985073498717028
      ],
      [
        "▁go",
        -6.98639621498935
      ],
      [
        "▁other",
        -6.9891587868656035
      ],
      [
        "▁had",
        -6.997557170805745
      ],
      [
        "▁get",
        -7.045743994910911
      ],
      [
        "▁need",
        -7.063533099371934
      ],
      [
        "▁if",
        -7.077371853024591
      ],
      [
        "▁also",
        -7.099233163401333
      ],
      [
        "r",
        -7.115115151380941
      ],
      [
        "ce",
        -7.11801688576845
      ],
      [
        "▁should",
        -7.128499540709907
      ],
      [
        "▁This",
        -7.134691329692911
      ],
      [
        "h",
        -7.166383620786149
      ],
      [
        "▁Nations",
        -7.167058436894873
      ],
      [
        "▁That",
        -7.1788923216881795
      ],
      [
        "c",
        -7.194806024658071
      ],
      [
        "▁work",
        -7.195390901081959
      ],
      [
        "▁more",
        -7.200597290742865
      ],
      [
        "▁now",
        -7.232242296509581
      ],
      [
        "▁us",
        -7.235647582901203
      ],
      [
        "▁people",
        -7.238019180837554
      ],
      [
        "▁our",
        -7.24435779603534
      ],
      [
        "▁But",
        -7.248029530989655
      ],
      [
        "▁think",
        -7.25621862892468
      ],
      [
        "ve",
        -7.264433416255208
      ],
      [
        "▁report",
        -7.29266642774253
      ],
      [
        "▁she",
        -7.3117777806747775
      ],
      [
        "▁Committee",
        -7.331749357025487
      ],
      [
        "▁see",
        -7.334365581245313
      ],
      [
        "thing",
        -7.354197596151723
      ],
      [
        "▁when",
        -7.355616438697087
      ],
      [
        "▁could",
        -7.360457395069368
      ],
      [
        "▁international",
        -7.362062753413889
      ],
      [
        "▁Oh",
        -7.375101057516371
      ],
      [
        "▁only",
        -7.377827619433976
      ],
      [
        "▁into",
        -7.3940559302316675
      ],
      [
        "▁take",
        -7.397751886319787
      ],
      [
        "▁every",
        -7.401116487947963
      ],
      [
        "▁such",
        -7.411920967384557
      ],
      [
        "▁going",
        -7.413870122987392
      ],
      [
        "▁some",
        -7.421379082667698
      ],
      [
        "▁did",
        -7.43458090816811
      ],
      [
        "▁So",
        -7.434915079161591
      ],
      [
        "#",
        -7.441372166605065
      ],
      [
        "▁States",
        -7.4784681597231
      ],
      [
        "▁How",
        -7.4943360228669675
      ],
      [
        "▁Well",
        -7.496236999624406
      ],
      [
        "▁those",
        -7.5066995497742575
      ],
      [
        "▁how",
        -7.512312714454005
      ],
      [
        "▁under",
        -7.51363647317611
      ],
      [
        "▁said",
        -7.5220233772734915
      ],
      [
        "I",
        -7.529274864149043
      ],
      [
        "▁well",
        -7.543361718208905
      ],
      [
        "▁development",
        -7.550446314553131
      ],
      [
        "▁Yes",
        -7.551189526605594
      ],
      [
        "▁countries",
        -7.551887340367783
      ],
      [
        "▁say",
        -7.566309810321821
      ],
      [
        "▁new",
        -7.567079489785154
      ],
      [
        "b",
        -7.568718700844652
      ],
      [
        "▁Council",
        -7.583271936450775
      ],
      [
        "▁good",
        -7.586596538624711
      ],
      [
        "▁over",
        -7.595282445552806
      ],
      [
        "▁If",
        -7.598381940773278
      ],
      [
        "▁She",
        -7.607009902502574
      ],
      [
        "▁these",
        -7.608732314089444
      ],
      [
        "▁two",
        -7.615552570515305
      ],
      [
        "▁Mr",
        -7.630199788223887
      ],
      [
        "▁than",
        -7.631526147626959
      ],
      [
        "▁back",
        -7.631706599411373
      ],
      [
        "le",
        -7.640118092526206
      ],
      [
        "al",
        -7.651856481808091
      ],
      [
        "▁information",
        -7.658630716231141
      ],
      [
        "▁made",
        -7.664777573584187
      ],
      [
        "▁must",
        -7.6680929499211885
      ],
      [
        "in",
        -7.673029904529214
      ],
      [
        "▁come",
        -7.673277174593828
      ],
      [
        "A",
        -7.6745174137859316
      ],
      [
        "▁first",
        -7.6835227112129765
      ],
      [
        "▁meeting",
        -7.68397360180685
      ],
      [
        "▁system",
        -7.69585444933945
      ],
      [
        "▁resolution",
        -7.698032886977945
      ],
      [
        "p",
        -7.707537008000333
      ],
      [
        "▁may",
        -7.708083205656301
      ],
      [
        "▁make",
        -7.710213424374308
      ],
      [
        "▁Do",
        -7.713150969984335
      ],
      [
        "▁where",
        -7.720652875348527
      ],
      [
        "▁look",
        -7.7240441735072825
      ],
      [
        "▁am",
        -7.72655146263185
      ],
      [
        "▁issue",
        -7.737993123849806
      ],
      [
        "▁way",
        -7.738026708753116
      ],
      [
        "▁support",
        -7.739217076938083
      ],
      [
        "▁al",
        -7.747102360544517
      ],
      [
        "able",
        -7.7472135227407595
      ],
      [
        "f",
        -7.756775111085254
      ],
      [
        "▁years",
        -7.7637139915641225
      ],
      [
        "▁human",
        -7.763797201709261
      ],
      [
        "▁very",
        -7.766205543216003
      ],
      [
        "▁B",
        -7.766421570653357
      ],
      [
        "g",
        -7.76653970744279
      ],
      [
        "▁rights",
        -7.775446747061455
      ],
      [
        "=",
        -7.776749462322371
      ],
      [
        "“",
        -7.780971577084037
      ],
      [
        "—",
        -7.782511322045137
      ],
      [
        "u",
        -7.784051847141702
      ],
      [
        "+",
        -7.805633739433473
      ],
      [
        "▁follow",
        -7.812062910170818
      ],
      [
        "▁through",
        -7.820158876484376
      ],
      [
        "▁between",
        -7.826843648675636
      ],
      [
        "▁including",
        -7.828988636977764
      ],
      [
        "self",
        -7.830005576814704
      ],
      [
        "▁help",
        -7.835020086442199
      ],
      [
        "▁There",
        -7.846233190237442
      ],
      [
        "”",
        -7.856861328562513
      ],
      [
        "▁tell",
        -7.8588184008628446
      ],
      [
        "one",
        -7.868743907527588
      ],
      [
        "▁down",
        -7.870765248245
      ],
      [
        "▁thing",
        -7.876715405866953
      ],
      [
        "▁case",
        -7.877958457104052
      ],
      [
        "▁place",
        -7.878381276469407
      ],
      [
        "▁provide",
        -7.8798026887902
      ],
      [
        "▁national",
        -7.881319794654779
      ],
      [
        "▁S",
        -7.884002245267975
      ],
      [
        "▁women",
        -7.884847184403176
      ],
      [
        "▁talk",
        -7.886771211556654
      ],
      [
        "▁All",
        -7.887327032047091
      ],
      [
        "▁even",
        -7.889529222372179
      ],
      [
        "–",
        -7.896793270375499
      ],
      [
        "ever",
        -7.898948638014707
      ],
      [
        "ity",
        -7.90165607821346
      ],
      [
        "▁because",
        -7.906013293420692
      ],
      [
        "▁against",
        -7.906647212991155
      ],
      [
        "▁before",
        -7.90893788387659
      ],
      [
        "th",
        -7.913520228449455
      ],
      [
        "▁use",
        -7.916029829252478
      ],
      [
        "▁didn",
        -7.917618487036803
      ],
      [
        "▁something",
        -7.921182903678176
      ],
      [
        "]",
        -7.922603976983504
      ],
      [
        "▁number",
        -7.926535675107482
      ],
      [
        "▁session",
        -7.931037378597196
      ],
      [
        "%",
        -7.932550614790285
      ],
      [
        "▁got",
        -7.944500010536801
      ],
      [
        "[",
        -7.944558263731631
      ],
      [
        "▁General",
        -7.945804617071488
      ],
      [
        "▁man",
        -7.946876829401427
      ],
      [
        "an",
        -7.94777357607974
      ],
      [
        "▁person",
        -7.950150710769066
      ],
      [
        "▁M",
        -7.95216460225801
      ],
      [
        "▁For",
        -7.954304988504052
      ],
      [
        "▁after",
        -7.954616230235104
      ],
      [
        "▁Republic",
        -7.957573219503406
      ],
      [
        "▁shall",
        -7.9755444088524055
      ],
      [
        "▁life",
        -7.979258999163701
      ],
      [
        "▁love",
        -7.983544126496675
      ],
      [
        "▁May",
        -7.989390026879443
      ],
      [
        "ation",
        -7.990797864316649
      ],
      [
        "▁part",
        -7.993740618244788
      ],
      [
        "▁concern",
        -7.994520304919272
      ],
      [
        "▁State",
        -7.999490692374156
      ],
      [
        "▁world",
        -8.00273760062775
      ],
      [
        "▁never",
        -8.009095137403419
      ],
      [
        "▁most",
        -8.011941715411723
      ],
      [
        "▁Convention",
        -8.018774605861456
      ],
      [
        "▁country",
        -8.020279342316615
      ],
      [
        "▁day",
        -8.024239974875194
      ],
      [
        "▁God",
        -8.029222742913559
      ],
      [
        "▁Assembly",
        -8.029348320497148
      ],
      [
        "▁C",
        -8.031664554443541
      ],
      [
        "▁International",
        -8.03203548288971
      ],
      [
        "▁really",
        -8.046673247328634
      ],
      [
        "▁many",
        -8.05299471971522
      ],
      [
        "▁On",
        -8.054108175509684
      ],
      [
        "▁Government",
        -8.059850514164623
      ],
      [
        "S",
        -8.071760987249075
      ],
      [
        "▁My",
        -8.072619930953238
      ],
      [
        "▁measure",
        -8.076402492708677
      ],
      [
        "▁find",
        -8.076916489006353
      ],
      [
        "▁Let",
        -8.081851099525647
      ],
      [
        "▁still",
        -8.091151355122802
      ],
      [
        "▁children",
        -8.095947079852301
      ],
      [
        "▁implementation",
        -8.098341651914978
      ],
      [
        "is",
        -8.100185120772961
      ],
      [
        "▁law",
        -8.101234955081418
      ],
      [
        "General",
        -8.102712406612804
      ],
      [
        "▁To",
        -8.102804590397728
      ],
      [
        "▁Are",
        -8.10508653521305
      ],
      [
        "C",
        -8.110162476777548
      ],
      [
        "▁much",
        -8.110935591840631
      ],
      [
        "▁activities",
        -8.112832033767608
      ],
      [
        "us",
        -8.112960664926668
      ],
      [
        "▁particular",
        -8.116940802302336
      ],
      [
        "▁order",
        -8.121012798701587
      ],
      [
        "▁Hey",
        -8.136695834143543
      ],
      [
        "▁decision",
        -8.138709023125797
      ],
      [
        "▁let",
        -8.142224801359172
      ],
      [
        "▁level",
        -8.145256464918175
      ],
      [
        "▁request",
        -8.145397292208482
      ],
      [
        "▁Why",
        -8.148635818323623
      ],
      [
        "▁regard",
        -8.152882994639079
      ],
      [
        "▁Secretary",
        -8.159171528440606
      ],
      [
        "▁name",
        -8.162703725441318
      ],
      [
        "▁same",
        -8.164411737427569
      ],
      [
        "▁year",
        -8.165003228462608
      ],
      [
        "▁programme",
        -8.168841721039424
      ],
      [
        "▁group",
        -8.175999277388371
      ],
      [
        "▁guy",
        -8.176539805177491
      ],
      [
        "▁does",
        -8.181089898009832
      ],
      [
        "ary",
        -8.18390405476539
      ],
      [
        "▁Allah",
        -8.185314787650162
      ],
      [
        "▁give",
        -8.18600308497542
      ],
      [
        "▁Commission",
        -8.188728152428773
      ],
      [
        "▁found",
        -8.192303483279147
      ],
      [
        "▁little",
        -8.192580993842268
      ],
      [
        "▁paragraph",
        -8.192785998031736
      ],
      [
        "▁include",
        -8.198631117837817
      ],
      [
        "▁long",
        -8.199667707991605
      ],
      [
        "_",
        -8.200217986496245
      ],
      [
        "▁Don",
        -8.218316717412856
      ],
      [
        "▁process",
        -8.222249917779159
      ],
      [
        "▁last",
        -8.222859725290016
      ],
      [
        "▁establish",
        -8.222997146735848
      ],
      [
        "▁why",
        -8.225689042511167
      ],
      [
        "▁result",
        -8.225877362408415
      ],
      [
        "▁being",
        -8.22733765941378
      ],
      [
        ">",
        -8.232315838483267
      ],
      [
        "or",
        -8.234063414837587
      ],
      [
        "▁problem",
        -8.23472914386654
      ],
      [
        "▁high",
        -8.239766124294908
      ],
      [
        "▁F",
        -8.240628835635075
      ],
      [
        "▁believe",
        -8.245331207962124
      ],
      [
        "▁Okay",
        -8.245587126403585
      ],
      [
        "▁mean",
        -8.246647720084221
      ],
      [
        "▁own",
        -8.250570355219724
      ],
      [
        "▁great",
        -8.255379050063778
      ],
      [
        "ready",
        -8.255975044540913
      ],
      [
        "$",
        -8.257806614998739
      ],
      [
        "▁start",
        -8.259214557429145
      ],
      [
        "k",
        -8.259551513498398
      ],
      [
        "▁without",
        -8.261324783311702
      ],
      [
        "▁effort",
        -8.261328547232285
      ],
      [
        "▁both",
        -8.265258332222324
      ],
      [
        "’",
        -8.26797900909399
      ],
      [
        "▁three",
        -8.268498849805594
      ],
      [
        "▁project",
        -8.269678827006269
      ],
      [
        "▁security",
        -8.269811938802773
      ],
      [
        "▁http",
        -8.270164489758193
      ],
      [
        "▁off",
        -8.275951860931922
      ],
      [
        "▁end",
        -8.28426053827352
      ],
      [
        "▁At",
        -8.285432394562205
      ],
      [
        "▁E",
        -8.286358231238877
      ],
      [
        "▁P",
        -8.28884026082925
      ],
      [
        "▁Come",
        -8.289008091681117
      ],
      [
        "away",
        -8.290981678727093
      ],
      [
        "▁Security",
        -8.29588004915487
      ],
      [
        "▁Decemb",
        -8.30065576801706
      ],
      [
        "▁used",
        -8.300709577191697
      ],
      [
        "▁AM",
        -8.301107745654623
      ],
      [
        "▁cooperati",
        -8.301376566830939
      ],
      [
        "▁within",
        -8.303429589336782
      ],
      [
        "▁call",
        -8.303923633760016
      ],
      [
        "▁present",
        -8.304902318528665
      ],
      [
        "▁again",
        -8.306266738333381
      ],
      [
        "w",
        -8.307267700643676
      ],
      [
        "ness",
        -8.307513077999308
      ],
      [
        "▁draft",
        -8.314334822824542
      ],
      [
        "▁kill",
        -8.315107862266542
      ],
      [
        "▁President",
        -8.316145274554591
      ],
      [
        "▁important",
        -8.321809106176476
      ],
      [
        "▁during",
        -8.324936393651829
      ],
      [
        "▁PM",
        -8.325020587066042
      ],
      [
        "▁resource",
        -8.333650326125644
      ],
      [
        "▁Who",
        -8.334327386130209
      ],
      [
        "▁As",
        -8.334330152098675
      ],
      [
        "▁public",
        -8.33484418567782
      ],
      [
        "▁thought",
        -8.339920250038407
      ],
      [
        "▁question",
        -8.34286722790175
      ],
      [
        "v",
        -8.343676822350258
      ],
      [
        "▁situation",
        -8.346744523263443
      ],
      [
        "each",
        -8.35441442523145
      ],
      [
        "▁organizations",
        -8.35518382628914
      ],
      [
        "▁document",
        -8.363963488882831
      ],
      [
        "▁state",
        -8.36411501702171
      ],
      [
        "▁home",
        -8.36480723353473
      ],
      [
        "▁better",
        -8.366481124364624
      ],
      [
        "▁happen",
        -8.370693837973329
      ],
      [
        "▁doing",
        -8.383714193070546
      ],
      [
        "▁Group",
        -8.392427861542822
      ],
      [
        "held",
        -8.392439145430249
      ],
      [
        "▁plan",
        -8.397505716648297
      ],
      [
        "▁action",
        -8.398170771157199
      ],
      [
        "▁Now",
        -8.402623614067583
      ],
      [
        "▁address",
        -8.402754812202529
      ],
      [
        "▁Conference",
        -8.404234100542192
      ],
      [
        "▁When",
        -8.411086433072345
      ],
      [
        "▁matter",
        -8.411602743068048
      ],
      [
        "▁course",
        -8.413656185855551
      ],
      [
        "▁okay",
        -8.413739254688936
      ],
      [
        "▁economic",
        -8.414382471638984
      ],
      [
        "▁Jun",
        -8.415304059801592
      ],
      [
        "▁view",
        -8.421421053934823
      ],
      [
        "▁ensure",
        -8.423384283512133
      ],
      [
        "▁Development",
        -8.424913782800939
      ],
      [
        "▁continue",
        -8.429146915577741
      ],
      [
        "ber",
        -8.429560855805715
      ],
      [
        "▁Just",
        -8.429577152234112
      ],
      [
        "▁second",
        -8.429674880407543
      ],
      [
        "▁per",
        -8.434605892786566
      ],
      [
        "▁among",
        -8.439181482483717
      ],
      [
        "▁change",
        -8.439772124436983
      ],
      [
        "▁G",
        -8.442161265496873
      ],
      [
        "▁Nov",
        -8.443216183460523
      ],
      [
        "▁non",
        -8.445342978357575
      ],
      [
        "▁point",
        -8.448027037287147
      ],
      [
        "▁girl",
        -8.450835007566065
      ],
      [
        "▁Where",
        -8.450894539209727
      ],
      [
        "▁Phone",
        -8.453450245407643
      ],
      [
        "▁set",
        -8.45349661702264
      ],
      [
        "▁while",
        -8.454388504112762
      ],
      [
        "▁article",
        -8.455448361908397
      ],
      [
        "▁social",
        -8.4560580092419
      ],
      [
        "▁UN",
        -8.457471798730575
      ],
      [
        "alway",
        -8.462770922407676
      ],
      [
        "▁account",
        -8.46931860533324
      ],
      [
        "▁region",
        -8.472735701441085
      ],
      [
        "▁put",
        -8.473755975992713
      ],
      [
        "▁adopt",
        -8.476020926443871
      ],
      [
        "▁services",
        -8.481084793750595
      ],
      [
        "▁working",
        -8.48171961628448
      ],
      [
        "▁further",
        -8.482831535371158
      ],
      [
        "▁night",
        -8.483734558790504
      ],
      [
        "▁Did",
        -8.485693951742405
      ],
      [
        "▁sure",
        -8.485803724483686
      ],
      [
        "▁special",
        -8.486998047374977
      ],
      [
        "▁understand",
        -8.492622866765569
      ],
      [
        "▁provision",
        -8.495263659238136
      ],
      [
        "com",
        -8.497471707307296
      ],
      [
        "▁Look",
        -8.499921607768284
      ],
      [
        "▁family",
        -8.500058886586164
      ],
      [
        "▁play",
        -8.501162324045412
      ],
      [
        "▁best",
        -8.501990167680637
      ],
      [
        "▁show",
        -8.507937968243512
      ],
      [
        "▁members",
        -8.510265721658257
      ],
      [
        "▁another",
        -8.511852582783101
      ],
      [
        "ember",
        -8.514423085423326
      ],
      [
        "nna",
        -8.518105561355434
      ],
      [
        "▁regional",
        -8.519094006883007
      ],
      [
        "▁won",
        -8.519284817278036
      ],
      [
        "▁sorry",
        -8.524134831832637
      ],
      [
        "▁financial",
        -8.525964258915856
      ],
      [
        "▁representative",
        -8.528093101547643
      ],
      [
        "▁party",
        -8.528358417174006
      ],
      [
        "▁possible",
        -8.532059834475398
      ],
      [
        "▁Yeah",
        -8.535204595547334
      ],
      [
        "▁Rights",
        -8.535814682646087
      ],
      [
        "▁Post",
        -8.537404450462512
      ],
      [
        "▁leave",
        -8.537630625049754
      ],
      [
        "▁might",
        -8.538588815416787
      ],
      [
        "▁health",
        -8.539864336845982
      ],
      [
        "▁period",
        -8.544801615766648
      ],
      [
        "▁clear",
        -8.544993716457524
      ],
      [
        "▁develop",
        -8.551805841869474
      ],
      [
        "▁since",
        -8.552667764550112
      ],
      [
        "▁peace",
        -8.552795866465834
      ],
      [
        "▁un",
        -8.556604256037343
      ],
      [
        "▁Your",
        -8.559603265383009
      ],
      [
        "▁Not",
        -8.561322580029811
      ],
      [
        "▁Russian",
        -8.562296546254698
      ],
      [
        "around",
        -8.562403726182488
      ],
      [
        "▁New",
        -8.562579997633014
      ],
      [
        "▁legal",
        -8.563117046057398
      ],
      [
        "▁keep",
        -8.565801783068112
      ],
      [
        "▁review",
        -8.565889295167379
      ],
      [
        "est",
        -8.567292023592872
      ],
      [
        "▁full",
        -8.56868518247789
      ],
      [
        "▁O",
        -8.572801779163536
      ],
      [
        "▁old",
        -8.573611893695908
      ],
      [
        "▁Septemb",
        -8.576449914142872
      ],
      [
        "▁million",
        -8.581384775615206
      ],
      [
        "▁turn",
        -8.581475016242884
      ],
      [
        "▁July",
        -8.582748007904359
      ],
      [
        "▁Go",
        -8.584999351283068
      ],
      [
        "▁become",
        -8.591038697991419
      ],
      [
        "▁left",
        -8.5937093258371
      ],
      [
        "▁done",
        -8.595615363898126
      ],
      [
        "Hello",
        -8.603655244409037
      ],
      [
        "<",
        -8.60553686172636
      ],
      [
        "ment",
        -8.606492427180111
      ],
      [
        "▁Human",
        -8.608321906191085
      ],
      [
        "▁effective",
        -8.609840101812066
      ],
      [
        "relevant",
        -8.61081463426683
      ],
      [
        "▁please",
        -8.614817540034814
      ],
      [
        "▁necessary",
        -8.616010486357618
      ],
      [
        "ance",
        -8.616542710156011
      ],
      [
        "▁wait",
        -8.618264990279116
      ],
      [
        "▁political",
        -8.620842745341989
      ],
      [
        "▁money",
        -8.62172317018918
      ],
      [
        "www",
        -8.622049188304302
      ],
      [
        "▁care",
        -8.624121722171571
      ],
      [
        "▁D",
        -8.62447592515989
      ],
      [
        "▁open",
        -8.625040055534924
      ],
      [
        "▁date",
        -8.62522785096631
      ],
      [
        "▁Work",
        -8.625855854709393
      ],
      [
        "▁Lord",
        -8.628718051189818
      ],
      [
        "▁month",
        -8.630098463650594
      ],
      [
        "▁European",
        -8.630495657368302
      ],
      [
        "▁data",
        -8.636107942890895
      ],
      [
        "▁together",
        -8.639475836907392
      ],
      [
        "to",
        -8.640330284345135
      ],
      [
        "▁Octo",
        -8.641934969728439
      ],
      [
        "▁live",
        -8.645861489423995
      ],
      [
        "▁nothing",
        -8.64676675526851
      ],
      [
        "▁school",
        -8.64738545426608
      ],
      [
        "▁water",
        -8.647486529925366
      ],
      [
        "▁His",
        -8.6499635394496
      ],
      [
        "▁car",
        -8.651108143818604
      ],
      [
        "▁Special",
        -8.651492178614683
      ],
      [
        "the",
        -8.654953081871735
      ],
      [
        "▁contain",
        -8.657513106778506
      ],
      [
        "▁today",
        -8.6621339278995
      ],
      [
        "▁cannot",
        -8.66345666295857
      ],
      [
        "°C",
        -8.667071082365977
      ],
      [
        "um",
        -8.668891404146368
      ],
      [
        "▁developing",
        -8.669201059645646
      ],
      [
        "▁currently",
        -8.669760367596501
      ],
      [
        "▁took",
        -8.67092046017415
      ],
      [
        "▁business",
        -8.672473770321433
      ],
      [
        "ous",
        -8.676870113402932
      ],
      [
        "▁World",
        -8.677414721693474
      ],
      [
        "▁house",
        -8.679238021624121
      ],
      [
        "▁access",
        -8.68456333782201
      ],
      [
        "▁accordan",
        -8.684586588811554
      ],
      [
        "▁Office",
        -8.686938491937395
      ],
      [
        "▁next",
        -8.689380462643545
      ],
      [
        "▁assistan",
        -8.690877558797286
      ],
      [
        "▁program",
        -8.690956899903796
      ],
      [
        "▁kind",
        -8.692048499348932
      ],
      [
        "▁areas",
        -8.692579382173628
      ],
      [
        "▁fund",
        -8.692755403719264
      ],
      [
        "▁Every",
        -8.692831417827007
      ],
      [
        "▁T",
        -8.694960726962782
      ],
      [
        "▁protection",
        -8.695193464121992
      ],
      [
        "▁feel",
        -8.696970721864897
      ],
      [
        "▁someone",
        -8.701735893739647
      ],
      [
        "▁condition",
        -8.702468744101553
      ],
      [
        "▁Then",
        -8.703918430715277
      ],
      [
        "▁room",
        -8.704707614129704
      ],
      [
        "▁called",
        -8.705638372933363
      ],
      [
        "x",
        -8.706384820718586
      ],
      [
        "▁means",
        -8.707689530917165
      ],
      [
        "▁came",
        -8.710487786797852
      ],
      [
        "▁different",
        -8.71062362357752
      ],
      [
        "▁complete",
        -8.710812650315084
      ],
      [
        "taken",
        -8.714070568801885
      ],
      [
        "▁free",
        -8.71666826469087
      ],
      [
        "E",
        -8.717498477550802
      ],
      [
        "▁role",
        -8.723019501627055
      ],
      [
        "▁note",
        -8.723351843757996
      ],
      [
        "▁field",
        -8.729195868506217
      ],
      [
        "▁Good",
        -8.729991340966123
      ],
      [
        "▁March",
        -8.731704794997206
      ],
      [
        "▁until",
        -8.731721181723936
      ],
      [
        "▁control",
        -8.735793485737828
      ],
      [
        "▁community",
        -8.736600838122898
      ],
      [
        "▁general",
        -8.739088139434614
      ],
      [
        "▁form",
        -8.739107081445615
      ],
      [
        "▁management",
        -8.741521658631608
      ],
      [
        "▁One",
        -8.742603139100313
      ],
      [
        "▁father",
        -8.743972709606977
      ],
      [
        "▁Article",
        -8.744267325561102
      ],
      [
        "B",
        -8.745702062324028
      ],
      [
        "▁meet",
        -8.74684062507204
      ],
      [
        "L",
        -8.74690103976067
      ],
      [
        "▁strengthen",
        -8.750995982220868
      ],
      [
        "▁National",
        -8.753638688172323
      ],
      [
        "▁Some",
        -8.757068728731742
      ],
      [
        "▁return",
        -8.758160374270508
      ],
      [
        "▁allow",
        -8.760722392355062
      ],
      [
        "▁example",
        -8.761836317948823
      ],
      [
        "▁power",
        -8.762027733282318
      ],
      [
        "▁minute",
        -8.766265916516062
      ],
      [
        "▁respect",
        -8.767336131743978
      ],
      [
        "▁bring",
        -8.769853399859475
      ],
      [
        "▁stay",
        -8.771685634273231
      ],
      [
        "▁child",
        -8.775314446370313
      ],
      [
        "▁act",
        -8.77570298573785
      ],
      [
        "▁policy",
        -8.776724802558103
      ],
      [
        "▁operation",
        -8.780044548669593
      ],
      [
        "▁close",
        -8.78423058818406
      ],
      [
        "▁yet",
        -8.785493061660718
      ],
      [
        "▁agreement",
        -8.78582385636994
      ],
      [
        "▁staff",
        -8.786171018531768
      ],
      [
        "▁education",
        -8.791587820655224
      ],
      [
        "O",
        -8.792957432427261
      ],
      [
        "▁office",
        -8.794259149696853
      ],
      [
        "▁Please",
        -8.796174398788981
      ],
      [
        "▁procedure",
        -8.797408184614474
      ],
      [
        "H",
        -8.801232266059014
      ],
      [
        "▁small",
        -8.80172092696623
      ],
      [
        "▁partie",
        -8.803047561575912
      ],
      [
        "▁Organization",
        -8.803763966612157
      ],
      [
        "▁idea",
        -8.805156537401125
      ],
      [
        "▁leas",
        -8.806627422570765
      ],
      [
        "▁training",
        -8.808232518841534
      ],
      [
        "▁head",
        -8.808421765449054
      ],
      [
        "▁August",
        -8.810110947665933
      ],
      [
        "▁file",
        -8.810640325915958
      ],
      [
        "▁service",
        -8.811375294769284
      ],
      [
        "▁Al",
        -8.812349735390306
      ],
      [
        "▁sector",
        -8.812523434575882
      ],
      [
        "▁safe",
        -8.813156709250439
      ],
      [
        "▁future",
        -8.813840723579716
      ],
      [
        "up",
        -8.815451805017048
      ],
      [
        "▁government",
        -8.815907849898899
      ],
      [
        "▁Thank",
        -8.8171958968231
      ],
      [
        "▁doesn",
        -8.817300857169412
      ],
      [
        "▁Here",
        -8.818657624436298
      ],
      [
        "▁offer",
        -8.81876272516833
      ],
      [
        "▁list",
        -8.821047940327883
      ],
      [
        "▁practice",
        -8.822077388395595
      ],
      [
        "▁local",
        -8.82236047064403
      ],
      [
        "▁specific",
        -8.823792725484441
      ],
      [
        "▁large",
        -8.823871761009997
      ],
      [
        "▁stop",
        -8.824852700671913
      ],
      [
        "▁institution",
        -8.826904411780855
      ],
      [
        "F",
        -8.827131965617685
      ],
      [
        "▁police",
        -8.827301609957054
      ],
      [
        "it",
        -8.83081166582723
      ],
      [
        "▁receive",
        -8.83090439208965
      ],
      [
        "▁position",
        -8.831975674388366
      ],
      [
        "▁ask",
        -8.83390669186294
      ],
      [
        "R",
        -8.837811339652463
      ],
      [
        "▁hope",
        -8.83861729948609
      ],
      [
        "▁else",
        -8.843824004214452
      ],
      [
        "▁based",
        -8.845069799548993
      ],
      [
        "▁implement",
        -8.8454227416244
      ],
      [
        "▁week",
        -8.845564309701038
      ],
      [
        "▁ever",
        -8.846109944430886
      ],
      [
        "ar",
        -8.84742536260064
      ],
      [
        "▁related",
        -8.847502305627364
      ],
      [
        "land",
        -8.852745911731642
      ],
      [
        "▁interest",
        -8.852804399587143
      ],
      [
        "▁Janu",
        -8.852914936415862
      ],
      [
        "▁Can",
        -8.855294644905761
      ],
      [
        "ecause",
        -8.856198938557348
      ],
      [
        "▁fine",
        -8.857466664169099
      ],
      [
        "▁wrong",
        -8.859671525092729
      ],
      [
        "▁move",
        -8.86099345223731
      ],
      [
        "▁conduct",
        -8.862794597854617
      ],
      [
        "less",
        -8.863367025868303
      ],
      [
        "▁light",
        -8.864715727016831
      ],
      [
        "▁force",
        -8.867699769997088
      ],
      [
        "▁Maybe",
        -8.868432012280893
      ],
      [
        "▁hear",
        -8.87179333441098
      ],
      [
        "▁days",
        -8.874327927604696
      ],
      [
        "▁agenda",
        -8.874336185282722
      ],
      [
        "▁delegation",
        -8.875106431898494
      ],
      [
        "capacity",
        -8.875106690271647
      ],
      [
        "▁area",
        -8.877006457700315
      ],
      [
        "▁These",
        -8.877402836328187
      ],
      [
        "▁mind",
        -8.880411219491787
      ],
      [
        "▁die",
        -8.88112487397845
      ],
      [
        "▁real",
        -8.88265013022311
      ],
      [
        "▁serious",
        -8.883166638808916
      ],
      [
        "▁current",
        -8.883962542995882
      ],
      [
        "ru",
        -8.88466817589703
      ],
      [
        "▁standard",
        -8.890889769076875
      ],
      [
        "man",
        -8.894715019472876
      ],
      [
        "▁lot",
        -8.897190715414792
      ],
      [
        "▁consider",
        -8.8973159927492
      ],
      [
        "▁expert",
        -8.899469118971584
      ],
      [
        "▁company",
        -8.90009945125859
      ],
      [
        "▁remain",
        -8.90116729668921
      ],
      [
        "▁mother",
        -8.901291712637324
      ],
      [
        "ive",
        -8.901789686937981
      ],
      [
        "▁technolog",
        -8.902622091809944
      ],
      [
        "▁taking",
        -8.904322880379393
      ],
      [
        "▁With",
        -8.904872036777366
      ],
      [
        "▁Parties",
        -8.905464008858617
      ],
      [
        "▁given",
        -8.907676554499396
      ],
      [
        "▁principle",
        -8.90820399524359
      ],
      [
        "▁Economic",
        -8.910132212576453
      ],
      [
        "▁remember",
        -8.911176707942317
      ],
      [
        "▁progress",
        -8.91186653442927
      ],
      [
        "▁recommend",
        -8.918201264988195
      ],
      [
        "▁technical",
        -8.918744441999074
      ],
      [
        "▁trade",
        -8.919381915940992
      ],
      [
        "▁men",
        -8.91971710907138
      ],
      [
        "▁appropriate",
        -8.920065829485571
      ],
      [
        "▁few",
        -8.920141632979785
      ],
      [
        "quality",
        -8.92203824617188
      ],
      [
        "D",
        -8.923421369530027
      ],
      [
        "▁city",
        -8.924407325941264
      ],
      [
        "▁hard",
        -8.924609240893766
      ],
      [
        "T",
        -8.925790655485986
      ],
      [
        "▁population",
        -8.927322273607023
      ],
      [
        "▁Reply",
        -8.927901822437622
      ],
      [
        "▁reason",
        -8.928822369648316
      ],
      [
        "▁whole",
        -8.928841412115588
      ],
      [
        "▁various",
        -8.928999048719023
      ],
      [
        "▁direct",
        -8.929701780045892
      ],
      [
        "▁private",
        -8.929726115773905
      ],
      [
        "▁Programme",
        -8.93008910789926
      ],
      [
        "▁cover",
        -8.933767597138704
      ],
      [
        "▁require",
        -8.935368697710343
      ],
      [
        "▁wish",
        -8.935888192783814
      ],
      [
        "▁Africa",
        -8.937572132170231
      ],
      [
        "▁considered",
        -8.938158754252566
      ],
      [
        "▁application",
        -8.938339111596475
      ],
      [
        "▁protect",
        -8.94001637739646
      ],
      [
        "▁hand",
        -8.944250879092031
      ],
      [
        "▁Minister",
        -8.945128094572414
      ],
      [
        "▁main",
        -8.945589446949711
      ],
      [
        "▁age",
        -8.947956680730531
      ],
      [
        "▁treat",
        -8.949856148463772
      ],
      [
        "▁budget",
        -8.951996729833928
      ],
      [
        "▁event",
        -8.952732981219967
      ],
      [
        "refore",
        -8.954493003430722
      ],
      [
        "▁Get",
        -8.954772469043109
      ],
      [
        "▁requirement",
        -8.954975618163477
      ],
      [
        "▁global",
        -8.955036377080695
      ],
      [
        "▁enough",
        -8.95522120216349
      ],
      [
        "▁increase",
        -8.955710979195729
      ],
      [
        "▁basi",
        -8.958052720689118
      ],
      [
        "▁market",
        -8.95880547860282
      ],
      [
        "▁pay",
        -8.960561404217321
      ],
      [
        "▁N",
        -8.964606631423761
      ],
      [
        "▁experience",
        -8.966149813428444
      ],
      [
        "▁item",
        -8.967064286297042
      ],
      [
        "▁certain",
        -8.96770318146088
      ],
      [
        "▁provid",
        -8.971684431211882
      ],
      [
        "▁went",
        -8.974718093272301
      ],
      [
        "▁recent",
        -8.978286325318898
      ],
      [
        "▁individual",
        -8.978477167646563
      ],
      [
        "where",
        -8.979841868855953
      ],
      [
        "▁face",
        -8.979876637416284
      ],
      [
        "▁Kazakhstan",
        -8.98339668948569
      ],
      [
        "▁ago",
        -8.98758118994947
      ],
      [
        "▁bad",
        -8.988805433547537
      ],
      [
        "▁recommendations",
        -8.991441846726232
      ],
      [
        "▁saw",
        -8.997435672991763
      ],
      [
        "▁coming",
        -8.999543028017222
      ],
      [
        "▁five",
        -9.00039910040875
      ],
      [
        "▁friend",
        -9.005935472229524
      ],
      [
        "ebruar",
        -9.007191828200995
      ],
      [
        "▁H",
        -9.00817653571469
      ],
      [
        "▁total",
        -9.01037703488378
      ],
      [
        "▁Member",
        -9.01389286040105
      ],
      [
        "▁fact",
        -9.01389606481385
      ],
      [
        "▁Union",
        -9.015389553604123
      ],
      [
        "▁See",
        -9.016620166401854
      ],
      [
        "ally",
        -9.019875694477161
      ],
      [
        "▁body",
        -9.02054226036848
      ],
      [
        "▁subject",
        -9.020644287940199
      ],
      [
        "▁Ministry",
        -9.022050316882213
      ],
      [
        "▁trying",
        -9.022137245744164
      ],
      [
        "▁visit",
        -9.023669311971293
      ],
      [
        "▁air",
        -9.026092040855076
      ],
      [
        "▁woman",
        -9.028971618300424
      ],
      [
        "▁rate",
        -9.0290692051977
      ],
      [
        "▁Russia",
        -9.029453565575281
      ],
      [
        "▁weapon",
        -9.030912466177645
      ],
      [
        "▁dead",
        -9.031219532329462
      ],
      [
        "▁job",
        -9.031562712669466
      ],
      [
        "▁amount",
        -9.033225021430686
      ],
      [
        "▁hell",
        -9.033517321167443
      ],
      [
        "having",
        -9.033859508584412
      ],
      [
        "▁L",
        -9.034396766217503
      ],
      [
        "▁purpose",
        -9.03507282557784
      ],
      [
        "▁material",
        -9.036132384502721
      ],
      [
        "▁due",
        -9.037029728802523
      ],
      [
        "▁try",
        -9.037067118130883
      ],
      [
        "▁team",
        -9.041308722477245
      ],
      [
        "body",
        -9.04175226207942
      ],
      [
        "▁crime",
        -9.04756649469898
      ],
      [
        "ic",
        -9.048156042517613
      ],
      [
        "▁above",
        -9.048622759371133
      ],
      [
        "▁attention",
        -9.049988780774619
      ],
      [
        "▁far",
        -9.050193002135659
      ],
      [
        "▁consideration",
        -9.05175353169949
      ],
      [
        "▁monitor",
        -9.052557965458515
      ],
      [
        "▁death",
        -9.057834641533606
      ],
      [
        "▁record",
        -9.05856281810605
      ],
      [
        "▁seem",
        -9.0607836038675
      ],
      [
        "▁member",
        -9.061672813657989
      ],
      [
        "▁speak",
        -9.063018072423993
      ],
      [
        "▁risk",
        -9.064951753287033
      ],
      [
        "M",
        -9.065953836114963
      ],
      [
        "▁Our",
        -9.06707668504067
      ],
      [
        "▁heard",
        -9.072139912032458
      ],
      [
        "▁mission",
        -9.07218974438437
      ],
      [
        "@",
        -9.073057826278868
      ],
      [
        "▁conflict",
        -9.073239224152992
      ],
      [
        "bodies",
        -9.075023606879892
      ],
      [
        "▁Apri",
        -9.075072888025925
      ],
      [
        "▁mechanism",
        -9.076330457843135
      ],
      [
        "▁Re",
        -9.078316120153712
      ],
      [
        "▁son",
        -9.079125110770796
      ],
      [
        "▁alone",
        -9.07951734347696
      ],
      [
        "▁toward",
        -9.080042205044347
      ],
      [
        "▁Social",
        -9.080711166312287
      ],
      [
        "▁final",
        -9.081069502787232
      ],
      [
        "▁proposal",
        -9.081101800766941
      ],
      [
        "▁building",
        -9.08246474313737
      ],
      [
        "▁four",
        -9.083604227274277
      ],
      [
        "▁near",
        -9.085084819126259
      ],
      [
        "▁morning",
        -9.085267524547227
      ],
      [
        "▁official",
        -9.085571493642032
      ],
      [
        "▁strong",
        -9.088300085217398
      ],
      [
        "▁Wait",
        -9.090418789736823
      ],
      [
        "▁young",
        -9.092784623822908
      ],
      [
        "▁victim",
        -9.094215668569259
      ],
      [
        "▁addition",
        -9.096669116882953
      ],
      [
        "▁violence",
        -9.098082252238708
      ],
      [
        "▁design",
        -9.098569965688917
      ],
      [
        "The",
        -9.099550648402499
      ],
      [
        "▁military",
        -9.100409154931125
      ],
      [
        "▁true",
        -9.100764480788285
      ],
      [
        "▁whether",
        -9.101524537791779
      ],
      [
        "▁Court",
        -9.10285862689226
      ],
      [
        "P",
        -9.103722739605782
      ],
      [
        "▁Law",
        -9.104250808018604
      ],
      [
        "ability",
        -9.105273485945897
      ],
      [
        "▁Board",
        -9.110148360912536
      ],
      [
        "▁reach",
        -9.111772129883386
      ],
      [
        "▁war",
        -9.112187076896323
      ],
      [
        "▁sent",
        -9.113898635125992
      ],
      [
        "▁thank",
        -9.115006545030447
      ],
      [
        "▁framework",
        -9.116952750073889
      ],
      [
        "▁later",
        -9.11695442562176
      ],
      [
        "▁once",
        -9.117648398672575
      ],
      [
        "▁deal",
        -9.117756180797182
      ],
      [
        "▁inter",
        -9.119179890292155
      ],
      [
        "▁living",
        -9.121859255779517
      ],
      [
        "▁sir",
        -9.122375882464722
      ],
      [
        "▁Or",
        -9.123707346800655
      ],
      [
        "▁African",
        -9.124693662595023
      ],
      [
        "▁contribution",
        -9.124812595354438
      ],
      [
        "▁claim",
        -9.125526251303413
      ],
      [
        "▁soon",
        -9.128270160450537
      ],
      [
        "▁past",
        -9.12878871616374
      ],
      [
        "and",
        -9.129222437822552
      ],
      [
        "▁Department",
        -9.129278724575865
      ],
      [
        "▁land",
        -9.131590359763695
      ],
      [
        "▁nuclear",
        -9.133705245091301
      ],
      [
        "z",
        -9.135006860417977
      ],
      [
        "▁wipe",
        -9.135084319556825
      ],
      [
        "by",
        -9.13536666650548
      ],
      [
        "▁test",
        -9.13736390403674
      ],
      [
        "▁welcome",
        -9.137451368548488
      ],
      [
        "▁cent",
        -9.138473831281404
      ],
      [
        "▁benefit",
        -9.140196356921809
      ],
      [
        "▁Service",
        -9.140397122746045
      ],
      [
        "▁approach",
        -9.140468055477386
      ],
      [
        "▁authorities",
        -9.141293013358933
      ],
      [
        "▁difficult",
        -9.145821028848193
      ],
      [
        "▁line",
        -9.146141279654561
      ],
      [
        "▁organization",
        -9.14776963503136
      ],
      [
        "▁After",
        -9.148016105973063
      ],
      [
        "▁limit",
        -9.148195449189197
      ],
      [
        "▁South",
        -9.148278593854727
      ],
      [
        "▁food",
        -9.148417699183009
      ],
      [
        "▁express",
        -9.148849245323543
      ],
      [
        "▁society",
        -9.14942171887309
      ],
      [
        "▁additional",
        -9.150153153285558
      ],
      [
        "▁read",
        -9.150380104150841
      ],
      [
        "▁brother",
        -9.151619985567935
      ],
      [
        "ry",
        -9.152080297006068
      ],
      [
        "▁agenc",
        -9.152309692510343
      ],
      [
        "▁discuss",
        -9.153545473802332
      ],
      [
        "more",
        -9.155044121629608
      ],
      [
        "governmental",
        -9.155185496904803
      ],
      [
        "▁value",
        -9.156668577379417
      ],
      [
        "▁major",
        -9.159855443041984
      ],
      [
        "▁♪",
        -9.159917653505769
      ],
      [
        "most",
        -9.160329954633646
      ],
      [
        "▁discussion",
        -9.161182857400906
      ],
      [
        "▁miss",
        -9.161206315648709
      ],
      [
        "▁sign",
        -9.163645550191628
      ],
      [
        "▁function",
        -9.164460933597223
      ],
      [
        "▁Affair",
        -9.166757805094438
      ],
      [
        "▁phone",
        -9.167994963094252
      ],
      [
        "▁production",
        -9.16923158930504
      ],
      [
        "▁Of",
        -9.169317340944307
      ],
      [
        "▁R",
        -9.16967172570054
      ],
      [
        "▁cause",
        -9.176520075795302
      ],
      [
        "▁check",
        -9.177333432782506
      ],
      [
        "▁side",
        -9.178030605255454
      ],
      [
        "▁participation",
        -9.179720685967341
      ],
      [
        "▁Fund",
        -9.180164358917482
      ],
      [
        "▁key",
        -9.180643096115073
      ],
      [
        "▁initiative",
        -9.181111510398733
      ],
      [
        "▁availab",
        -9.184474581020215
      ],
      [
        "▁propose",
        -9.187073612373613
      ],
      [
        "▁equal",
        -9.188686163397541
      ],
      [
        "▁decided",
        -9.189085997323485
      ],
      [
        "▁focus",
        -9.190758523579412
      ],
      [
        "▁Europe",
        -9.19140289185203
      ],
      [
        "▁mandate",
        -9.191858551126579
      ],
      [
        "▁exact",
        -9.191880414189097
      ],
      [
        "▁Have",
        -9.192026105566455
      ],
      [
        "▁walk",
        -9.192150864284644
      ],
      [
        "▁rules",
        -9.192353925916262
      ],
      [
        "▁goal",
        -9.19427407430808
      ],
      [
        "▁K",
        -9.194960215703272
      ],
      [
        "▁Israel",
        -9.196154330267706
      ],
      [
        "▁commitment",
        -9.200352403190298
      ],
      [
        "&",
        -9.201368661388054
      ],
      [
        "▁agreed",
        -9.201491243933514
      ],
      [
        "▁run",
        -9.201954600441693
      ],
      [
        "▁prevent",
        -9.203417282486202
      ],
      [
        "▁hours",
        -9.204816936954945
      ],
      [
        "▁big",
        -9.204975546802698
      ],
      [
        "\n",
        -9.204998752471163
      ],
      [
        "▁asked",
        -9.205194195514576
      ],
      [
        "▁wife",
        -9.205347992716275
      ],
      [
        "▁answer",
        -9.205453050519935
      ],
      [
        "▁knew",
        -9.206691249172781
      ],
      [
        "▁promote",
        -9.206718751588156
      ],
      [
        "▁several",
        -9.207250097658392
      ],
      [
        "▁An",
        -9.210525845066215
      ],
      [
        "▁heart",
        -9.21076401339058
      ],
      [
        "▁Report",
        -9.211755209993115
      ],
      [
        "▁lost",
        -9.211932646056855
      ],
      [
        "▁actually",
        -9.212444714237648
      ],
      [
        "▁ready",
        -9.212623511605631
      ],
      [
        "▁According",
        -9.215398592236038
      ],
      [
        "▁times",
        -9.216936439843028
      ],
      [
        "low",
        -9.218404165035764
      ],
      [
        "▁High",
        -9.220149050612712
      ],
      [
        "▁America",
        -9.22432119896488
      ],
      [
        "▁Bank",
        -9.2248991925904
      ],
      [
        "▁lead",
        -9.22542126963818
      ],
      [
        "▁inform",
        -9.22581500651915
      ],
      [
        "▁improve",
        -9.227258704908703
      ],
      [
        "▁yes",
        -9.227858325619717
      ],
      [
        "▁drink",
        -9.228817295430304
      ],
      [
        "▁effect",
        -9.22882967104972
      ],
      [
        "▁moment",
        -9.23156219770091
      ],
      [
        "http",
        -9.231829367736598
      ],
      [
        "▁text",
        -9.23211801006865
      ],
      [
        "▁common",
        -9.232304621364484
      ],
      [
        "▁impact",
        -9.232714275019617
      ],
      [
        "▁send",
        -9.235322261665907
      ],
      [
        "▁watch",
        -9.235698089666338
      ],
      [
        "▁detail",
        -9.23683938347483
      ],
      [
        "▁truth",
        -9.237295036948488
      ],
      [
        "▁China",
        -9.237685963487593
      ],
      [
        "▁policies",
        -9.240346244685746
      ],
      [
        "▁source",
        -9.241058463568937
      ],
      [
        "▁gender",
        -9.24266632882891
      ],
      [
        "▁third",
        -9.244918199822713
      ],
      [
        "seen",
        -9.248023678583083
      ],
      [
        "▁gave",
        -9.248921818583803
      ],
      [
        "▁especially",
        -9.25132968040484
      ],
      [
        "▁energy",
        -9.255771422550342
      ],
      [
        "▁vote",
        -9.258392659240632
      ],
      [
        "▁friends",
        -9.25897380066147
      ],
      [
        "▁affect",
        -9.259271987883459
      ],
      [
        "▁entire",
        -9.263773120564139
      ],
      [
        "▁Take",
        -9.26722619145309
      ],
      [
        "▁importan",
        -9.268928052162543
      ],
      [
        "▁space",
        -9.271038069405886
      ],
      [
        "▁brought",
        -9.272848927593941
      ],
      [
        "▁listen",
        -9.273348547112217
      ],
      [
        "▁status",
        -9.275702542630736
      ],
      [
        "▁People",
        -9.276630925556432
      ],
      [
        "▁assist",
        -9.277381432739503
      ],
      [
        "▁statement",
        -9.277777297430454
      ],
      [
        "▁making",
        -9.278034875820794
      ],
      [
        "▁Right",
        -9.278219311036624
      ],
      [
        "▁late",
        -9.27861603794856
      ],
      [
        "▁fight",
        -9.279324513876922
      ],
      [
        "▁fully",
        -9.280998296384062
      ],
      [
        "▁according",
        -9.281407671093877
      ],
      [
        "▁hold",
        -9.28242835641053
      ],
      [
        "night",
        -9.284093646448975
      ],
      [
        "▁priorit",
        -9.288756756861723
      ],
      [
        "▁Protocol",
        -9.288786788761673
      ],
      [
        "▁letter",
        -9.28890402967065
      ],
      [
        "age",
        -9.29318588935449
      ],
      [
        "▁objective",
        -9.29709049037194
      ],
      [
        "▁game",
        -9.298510494221581
      ],
      [
        "▁First",
        -9.300301608922828
      ],
      [
        "▁conference",
        -9.305188260162742
      ],
      [
        "▁context",
        -9.307054170972211
      ],
      [
        "▁Be",
        -9.3074070937081
      ],
      [
        "▁significant",
        -9.310088497804522
      ],
      [
        "▁Secretariat",
        -9.311138232460522
      ],
      [
        "▁accept",
        -9.311142917099705
      ],
      [
        "▁six",
        -9.311612837273625
      ],
      [
        "▁kid",
        -9.313649592770666
      ],
      [
        "▁bit",
        -9.314633211060052
      ],
      [
        "▁environmental",
        -9.314681254751573
      ],
      [
        "▁Act",
        -9.314960797622891
      ],
      [
        "▁Party",
        -9.316170109339067
      ],
      [
        "▁saying",
        -9.317020740877698
      ],
      [
        "▁W",
        -9.318610778338968
      ],
      [
        "▁More",
        -9.318832815293398
      ],
      [
        "▁invite",
        -9.321323257121206
      ],
      [
        "▁save",
        -9.321608584602581
      ],
      [
        "▁word",
        -9.321866241000116
      ],
      [
        "▁challenge",
        -9.322111850240026
      ],
      [
        "▁equipment",
        -9.324305573080716
      ],
      [
        "▁criminal",
        -9.324820587717642
      ],
      [
        "▁transport",
        -9.325115742847903
      ],
      [
        "▁poverty",
        -9.32615270583739
      ],
      [
        "▁exchange",
        -9.328679146089101
      ],
      [
        "▁annex",
        -9.329277873983653
      ],
      [
        "▁Other",
        -9.332117272011615
      ],
      [
        "▁section",
        -9.332743588630265
      ],
      [
        "▁words",
        -9.333282144386366
      ],
      [
        "▁Sorr",
        -9.333856472155164
      ],
      [
        "▁American",
        -9.334172356886818
      ],
      [
        "org",
        -9.334910877735071
      ],
      [
        "▁consultation",
        -9.334954182417885
      ],
      [
        "▁humanitarian",
        -9.33578044468206
      ],
      [
        "ten",
        -9.336013055956686
      ],
      [
        "▁wouldn",
        -9.337189920985802
      ],
      [
        "▁V",
        -9.33826159150536
      ],
      [
        "▁prepared",
        -9.339382483495122
      ],
      [
        "▁environment",
        -9.340622110784464
      ],
      [
        "▁instrument",
        -9.340760760385342
      ],
      [
        "▁previous",
        -9.3410938912198
      ],
      [
        "»",
        -9.341250002168886
      ],
      [
        "though",
        -9.341755687397274
      ],
      [
        "▁Women",
        -9.34464121176848
      ],
      [
        "▁investment",
        -9.346217039028868
      ],
      [
        "▁civil",
        -9.347622676010445
      ],
      [
        "early",
        -9.348435471373001
      ],
      [
        "▁Action",
        -9.348751394059716
      ],
      [
        "html",
        -9.349376991321272
      ],
      [
        "▁less",
        -9.35008045938704
      ],
      [
        "▁recognize",
        -9.351503368332743
      ],
      [
        "▁foreign",
        -9.352006090939609
      ],
      [
        "gan",
        -9.352216650444795
      ],
      [
        "▁rule",
        -9.353065540961232
      ],
      [
        "▁language",
        -9.353612577992951
      ],
      [
        "▁terms",
        -9.359264992829575
      ],
      [
        "▁Foreign",
        -9.364624233889558
      ],
      [
        "▁reform",
        -9.365441698203124
      ],
      [
        "▁pass",
        -9.365459928543451
      ],
      [
        "▁Dr",
        -9.367801175084882
      ],
      [
        "▁often",
        -9.368255740379539
      ],
      [
        "▁half",
        -9.369093350765198
      ],
      [
        "▁natural",
        -9.369506990244059
      ],
      [
        "▁York",
        -9.371611803122505
      ],
      [
        "▁happ",
        -9.371853032129433
      ],
      [
        "▁Dur",
        -9.372080516306879
      ],
      [
        "▁freedom",
        -9.372952664076237
      ],
      [
        "▁Day",
        -9.373779305047293
      ],
      [
        "▁maybe",
        -9.37456655171323
      ],
      [
        "▁either",
        -9.374828472009277
      ],
      [
        "▁Hi",
        -9.374885693968224
      ],
      [
        "▁nice",
        -9.37504169476935
      ],
      [
        "▁U",
        -9.375828312397534
      ],
      [
        "▁blood",
        -9.3766683028281
      ],
      [
        "▁Representative",
        -9.378115187546356
      ],
      [
        "▁grant",
        -9.37846101161006
      ],
      [
        "see",
        -9.380408589432227
      ],
      [
        "▁encourage",
        -9.38045851230159
      ],
      [
        "▁study",
        -9.3805583212833
      ],
      [
        "▁created",
        -9.381717894999998
      ],
      [
        "▁responsibility",
        -9.388096794759791
      ],
      [
        "▁explain",
        -9.38975508536261
      ],
      [
        "▁Listen",
        -9.390076711120052
      ],
      [
        "▁contact",
        -9.391307422725006
      ],
      [
        "▁active",
        -9.392030604101164
      ],
      [
        "▁fuck",
        -9.392421292812465
      ],
      [
        "W",
        -9.392817896681734
      ],
      [
        "▁Great",
        -9.393435433139576
      ],
      [
        "▁election",
        -9.396944530368389
      ],
      [
        "▁Federation",
        -9.397132286165604
      ],
      [
        "▁promise",
        -9.399097973184016
      ],
      [
        "▁Central",
        -9.399115753301054
      ],
      [
        "▁Director",
        -9.399207796010984
      ],
      [
        "▁create",
        -9.399320530926463
      ],
      [
        "DP",
        -9.400066926569371
      ],
      [
        "▁charge",
        -9.40073522585326
      ],
      [
        "▁Armenia",
        -9.402630853926818
      ],
      [
        "▁research",
        -9.402863267999617
      ],
      [
        "▁page",
        -9.403850074085444
      ],
      [
        "▁joint",
        -9.404130733455432
      ],
      [
        "▁method",
        -9.404967721359139
      ],
      [
        "▁assessment",
        -9.406155404332344
      ],
      [
        "property",
        -9.406909105279738
      ],
      [
        "▁establishment",
        -9.407538746297003
      ],
      [
        "▁site",
        -9.407550843405318
      ],
      [
        "▁response",
        -9.407635107015977
      ],
      [
        "▁existing",
        -9.40784704158034
      ],
      [
        "▁needed",
        -9.409973561758752
      ],
      [
        "▁appear",
        -9.41056176880151
      ],
      [
        "▁court",
        -9.411593969638403
      ],
      [
        "▁cost",
        -9.411830172729665
      ],
      [
        "▁share",
        -9.412431847757082
      ],
      [
        "▁From",
        -9.414089466638458
      ],
      [
        "▁parent",
        -9.415622759258472
      ],
      [
        "▁baby",
        -9.415730467370961
      ],
      [
        "▁beautiful",
        -9.41619160461402
      ],
      [
        "▁Declaration",
        -9.417834701843201
      ],
      [
        "▁eat",
        -9.418893245212605
      ],
      [
        "orrow",
        -9.419731852748331
      ],
      [
        "▁fire",
        -9.420207217739915
      ],
      [
        "▁violation",
        -9.42063084604464
      ],
      [
        "▁Chairman",
        -9.423748380475274
      ],
      [
        "▁treatment",
        -9.42457802700437
      ],
      [
        "▁J",
        -9.424902560033251
      ],
      [
        "ion",
        -9.425877443145158
      ],
      [
        "▁trust",
        -9.42594128881559
      ],
      [
        "ch",
        -9.42631938930749
      ],
      [
        "▁door",
        -9.426722736891982
      ],
      [
        "▁knowledge",
        -9.426819975289295
      ],
      [
        "▁single",
        -9.428005450264529
      ],
      [
        "men",
        -9.428585103990756
      ],
      [
        "▁short",
        -9.433074892931632
      ],
      [
        "▁carrie",
        -9.43307718977027
      ],
      [
        "▁connection",
        -9.433264934741533
      ],
      [
        "▁personal",
        -9.434646461074578
      ],
      [
        "▁themselves",
        -9.435919571116813
      ],
      [
        "▁East",
        -9.436239928572842
      ],
      [
        "▁products",
        -9.436582956694163
      ],
      [
        "▁fall",
        -9.43883247554445
      ],
      [
        "▁b",
        -9.439241787991687
      ],
      [
        "armament",
        -9.441494245429855
      ],
      [
        "▁participate",
        -9.44464246052482
      ],
      [
        "▁regular",
        -9.445364701492672
      ],
      [
        "ory",
        -9.445411338395877
      ],
      [
        "▁task",
        -9.446712779380386
      ],
      [
        "▁haven",
        -9.446956779670948
      ],
      [
        "N",
        -9.447705658544649
      ],
      [
        "▁comprehensive",
        -9.44824411524295
      ],
      [
        "▁rest",
        -9.448682642380039
      ],
      [
        "▁along",
        -9.448854587223277
      ],
      [
        "▁English",
        -9.451092595907637
      ],
      [
        "▁mention",
        -9.451579122860654
      ],
      [
        "▁legislation",
        -9.452430541814154
      ],
      [
        "term",
        -9.453108330608128
      ],
      [
        "G",
        -9.454111117238075
      ],
      [
        "▁wide",
        -9.454764599384422
      ],
      [
        "K",
        -9.455326095225963
      ],
      [
        "▁solution",
        -9.456435576064464
      ],
      [
        "▁center",
        -9.456908898267688
      ],
      [
        "▁vehicle",
        -9.457749577966567
      ],
      [
        "▁Palestinian",
        -9.462108217070856
      ],
      [
        "▁unit",
        -9.463943194277455
      ],
      [
        "▁officer",
        -9.464025107168268
      ],
      [
        "▁type",
        -9.464113351401117
      ],
      [
        "▁post",
        -9.466256566607909
      ],
      [
        "▁involv",
        -9.468918873770052
      ],
      [
        "▁speed",
        -9.469380770764591
      ],
      [
        "ization",
        -9.471086587295138
      ],
      [
        "▁message",
        -9.471796320712198
      ],
      [
        "▁factor",
        -9.471937751659219
      ],
      [
        "head",
        -9.472218972799524
      ],
      [
        "▁longer",
        -9.472815752811115
      ],
      [
        "Add",
        -9.47542003018367
      ],
      [
        "▁reflect",
        -9.47616734059189
      ],
      [
        "▁break",
        -9.476432922241045
      ],
      [
        "▁increased",
        -9.477605696091068
      ],
      [
        "▁secretariat",
        -9.47764320698935
      ],
      [
        "▁reported",
        -9.478432744554919
      ],
      [
        "▁known",
        -9.478961468852397
      ],
      [
        "▁network",
        -9.479215078727401
      ],
      [
        "▁probably",
        -9.4804240035471
      ],
      [
        "▁Executive",
        -9.480445932348939
      ],
      [
        "▁avail",
        -9.481735682889319
      ],
      [
        "▁structure",
        -9.483293732073857
      ],
      [
        "building",
        -9.48331538758293
      ],
      [
        "▁chance",
        -9.484739915977219
      ],
      [
        "▁states",
        -9.485620291630685
      ],
      [
        "▁justice",
        -9.485702211435534
      ],
      [
        "▁domestic",
        -9.487289921579173
      ],
      [
        "▁Inde",
        -9.490882215298052
      ],
      [
        "▁immediate",
        -9.49272665616759
      ],
      [
        "▁boy",
        -9.495201484397136
      ],
      [
        "▁met",
        -9.496597269121754
      ],
      [
        "▁growth",
        -9.496938037666244
      ],
      [
        "▁whom",
        -9.498374251886137
      ],
      [
        "▁model",
        -9.49957835917142
      ],
      [
        "▁Mobile",
        -9.501514204704268
      ],
      [
        "▁facilit",
        -9.501891442800721
      ],
      [
        "▁Tell",
        -9.502678019390192
      ],
      [
        "▁achieve",
        -9.506818456307588
      ],
      [
        "▁indigen",
        -9.507939257185791
      ],
      [
        "▁station",
        -9.508162016514223
      ],
      [
        "▁participant",
        -9.508626478595666
      ],
      [
        "▁Mission",
        -9.509038802566245
      ],
      [
        "expected",
        -9.51002925195241
      ],
      [
        "▁Him",
        -9.512309433119293
      ],
      [
        "▁By",
        -9.512785872527136
      ],
      [
        "▁sustainabl",
        -9.513419231430152
      ],
      [
        "▁serve",
        -9.513906016019632
      ],
      [
        "▁outside",
        -9.515205662109633
      ],
      [
        "▁low",
        -9.515353144065593
      ],
      [
        "▁responsibl",
        -9.516354593164516
      ],
      [
        "▁evidence",
        -9.517981234438246
      ],
      [
        "▁lack",
        -9.51803093052467
      ],
      [
        "▁sex",
        -9.518817093367609
      ],
      [
        "▁worry",
        -9.52352301774553
      ],
      [
        "un",
        -9.524650981486454
      ],
      [
        "▁Belarus",
        -9.524652345787043
      ],
      [
        "▁paper",
        -9.527514173327923
      ],
      [
        "▁couple",
        -9.527665353047418
      ],
      [
        "came",
        -9.530233573490104
      ],
      [
        "▁figure",
        -9.530451540622206
      ],
      [
        "▁gone",
        -9.530849648855119
      ],
      [
        "▁Since",
        -9.530968864255408
      ],
      [
        "ish",
        -9.531095999185858
      ],
      [
        "▁forward",
        -9.532075161756374
      ],
      [
        "▁Rapporteur",
        -9.532427526106563
      ],
      [
        "▁hands",
        -9.532530200988411
      ],
      [
        "▁Mom",
        -9.532832641280692
      ],
      [
        "▁Information",
        -9.535690053566707
      ],
      [
        "▁hotel",
        -9.536512778132403
      ],
      [
        "▁behind",
        -9.53678456281327
      ],
      [
        "▁table",
        -9.537341914138917
      ],
      [
        "▁represent",
        -9.537388046602372
      ],
      [
        "out",
        -9.53823019828803
      ],
      [
        "▁discrimination",
        -9.538983655530359
      ],
      [
        "▁Stop",
        -9.539201143288262
      ],
      [
        "▁Iraq",
        -9.540605252484124
      ],
      [
        "▁opportunit",
        -9.540664987038824
      ],
      [
        "▁press",
        -9.541477346830142
      ],
      [
        "▁quick",
        -9.541756555805689
      ],
      [
        "▁website",
        -9.544233763314779
      ],
      [
        "▁US",
        -9.544398378862684
      ],
      [
        "▁indicate",
        -9.545145578507796
      ],
      [
        "▁performance",
        -9.547162830697966
      ],
      [
        "▁eyes",
        -9.54844807850117
      ],
      [
        "▁dis",
        -9.549778648659021
      ],
      [
        "▁Ukraine",
        -9.55126674421966
      ],
      [
        "▁daughter",
        -9.552499615990824
      ],
      [
        "▁join",
        -9.5527016523077
      ],
      [
        "▁carry",
        -9.552761549959225
      ],
      [
        "▁nature",
        -9.553241342630592
      ],
      [
        "▁Will",
        -9.553251238139538
      ],
      [
        "▁continued",
        -9.553345887213055
      ],
      [
        "▁thousand",
        -9.556827715877501
      ],
      [
        "▁enter",
        -9.557444635426226
      ],
      [
        "▁inside",
        -9.557638668624355
      ],
      [
        "▁stage",
        -9.557695135347387
      ],
      [
        "▁Arab",
        -9.559067540015805
      ],
      [
        "▁target",
        -9.55912704044921
      ],
      [
        "▁guess",
        -9.56006139718319
      ],
      [
        "▁intend",
        -9.5602001709854
      ],
      [
        "ECE",
        -9.56235766152288
      ],
      [
        "▁costs",
        -9.562524061498706
      ],
      [
        "▁cultural",
        -9.567291584282707
      ],
      [
        "old",
        -9.568307076287415
      ],
      [
        "rather",
        -9.569296276316496
      ],
      [
        "▁Germany",
        -9.571358089082857
      ],
      [
        "quite",
        -9.571442678123645
      ],
      [
        "▁companies",
        -9.572282379095405
      ],
      [
        "▁earth",
        -9.57243281914889
      ],
      [
        "▁perform",
        -9.573668441024278
      ],
      [
        "▁entitle",
        -9.574025854243303
      ],
      [
        "▁fear",
        -9.574772097038505
      ],
      [
        "▁dollar",
        -9.576501605093164
      ],
      [
        "▁transfer",
        -9.576784450232445
      ],
      [
        "▁approve",
        -9.578859073236043
      ],
      [
        "▁attack",
        -9.581103223269643
      ],
      [
        "▁locate",
        -9.58168795888077
      ],
      [
        "▁armed",
        -9.581830089352184
      ],
      [
        "▁husband",
        -9.582209616050795
      ],
      [
        "▁aimed",
        -9.583468555495005
      ],
      [
        "▁French",
        -9.586199927093254
      ],
      [
        "▁book",
        -9.586336714387865
      ],
      [
        "▁medical",
        -9.587535996959058
      ],
      [
        "▁provides",
        -9.588120219719453
      ],
      [
        "deed",
        -9.589395657528332
      ],
      [
        "of",
        -9.591630842267023
      ],
      [
        "▁terroris",
        -9.592686647714372
      ],
      [
        "▁combat",
        -9.593165414197209
      ],
      [
        "ship",
        -9.593702231419377
      ],
      [
        "▁price",
        -9.595083175766508
      ],
      [
        "▁Dad",
        -9.595107343045452
      ],
      [
        "▁apartment",
        -9.595564193181808
      ],
      [
        "▁analysis",
        -9.597234840745504
      ],
      [
        "▁hurt",
        -9.598025132232394
      ],
      [
        "over",
        -9.598409065200173
      ],
      [
        "▁categor",
        -9.598882787520106
      ],
      [
        "▁others",
        -9.599198884051312
      ],
      [
        "▁Meeting",
        -9.601054896077745
      ],
      [
        "half",
        -9.60135643699091
      ],
      [
        "▁obligations",
        -9.601384851360706
      ],
      [
        "▁easy",
        -9.60353390454274
      ],
      [
        "▁Any",
        -9.603664065168921
      ],
      [
        "▁buy",
        -9.603842918884407
      ],
      [
        "▁feeling",
        -9.604103027975903
      ],
      [
        "▁range",
        -9.604827912283415
      ],
      [
        "▁student",
        -9.604951999607135
      ],
      [
        "▁committ",
        -9.605695459461998
      ],
      [
        "▁partners",
        -9.605754943780003
      ],
      [
        "▁oil",
        -9.607705968116953
      ],
      [
        "▁punishment",
        -9.609979004639378
      ],
      [
        "IDS",
        -9.61110974262542
      ],
      [
        "«",
        -9.611487708864885
      ],
      [
        "▁km",
        -9.61159540256918
      ],
      [
        "▁relat",
        -9.61219974047331
      ],
      [
        "▁threat",
        -9.612857916933507
      ],
      [
        "▁floor",
        -9.613024053099032
      ],
      [
        "▁clean",
        -9.614329633147662
      ],
      [
        "▁former",
        -9.616022321385287
      ],
      [
        "▁learn",
        -9.61771699232268
      ],
      [
        "▁contribute",
        -9.61795826618611
      ],
      [
        "year",
        -9.617987097604964
      ],
      [
        "▁annual",
        -9.619415086708116
      ],
      [
        "▁makes",
        -9.621804472432927
      ],
      [
        "▁govern",
        -9.623655768610352
      ],
      [
        "▁Annex",
        -9.623993189302222
      ],
      [
        "▁story",
        -9.624273273117273
      ],
      [
        "▁deliver",
        -9.624426014883937
      ],
      [
        "▁Kingdom",
        -9.628423617142367
      ],
      [
        "ur",
        -9.628451902214543
      ],
      [
        "▁step",
        -9.628813601659308
      ],
      [
        "▁murder",
        -9.629114776908027
      ],
      [
        "▁search",
        -9.630655621580555
      ],
      [
        "▁travel",
        -9.631160569022013
      ],
      [
        "for",
        -9.633304679357014
      ],
      [
        "frai",
        -9.633752984162161
      ],
      [
        "▁adoption",
        -9.634417517748226
      ],
      [
        "▁Me",
        -9.6393102659014
      ],
      [
        "▁thinking",
        -9.63980750666486
      ],
      [
        "▁aspect",
        -9.639877451879086
      ],
      [
        "▁opinion",
        -9.640698711303092
      ],
      [
        "▁gas",
        -9.640735048543776
      ],
      [
        "▁activit",
        -9.641790225104456
      ],
      [
        "▁poor",
        -9.644080298015
      ],
      [
        "▁server",
        -9.645491837775388
      ],
      [
        "▁sound",
        -9.647294997211112
      ],
      [
        "▁finish",
        -9.647480635936862
      ],
      [
        "▁fast",
        -9.648752472380732
      ],
      [
        "▁hit",
        -9.650740738230649
      ],
      [
        "▁France",
        -9.651460025320695
      ],
      [
        "▁arms",
        -9.651607785301499
      ],
      [
        "▁sexual",
        -9.65202552628616
      ],
      [
        "▁arrest",
        -9.652293700453335
      ],
      [
        "▁forces",
        -9.652951700396375
      ],
      [
        "▁potential",
        -9.654279067484012
      ],
      [
        "▁path",
        -9.655721070897023
      ],
      [
        "▁border",
        -9.658021118771956
      ],
      [
        "▁percent",
        -9.6580920423061
      ],
      [
        "based",
        -9.658486411736067
      ],
      [
        "▁internal",
        -9.659746038195244
      ],
      [
        "▁doctor",
        -9.661596421124049
      ],
      [
        "▁construction",
        -9.661913766032207
      ],
      [
        "▁option",
        -9.665952246675445
      ],
      [
        "▁town",
        -9.667388228637343
      ],
      [
        "▁payment",
        -9.670023214671216
      ],
      [
        "▁HIV",
        -9.671902310754163
      ],
      [
        "▁media",
        -9.672297131875162
      ],
      [
        "▁sleep",
        -9.672892830263574
      ],
      [
        "▁involve",
        -9.673273459460002
      ],
      [
        "▁apply",
        -9.674758543202284
      ],
      [
        "▁Like",
        -9.675151699754736
      ],
      [
        "▁luck",
        -9.675273820239383
      ],
      [
        "▁select",
        -9.675851634017802
      ],
      [
        "▁preparation",
        -9.67946019017413
      ],
      [
        "▁temperature",
        -9.680900372250704
      ],
      [
        "▁Universit",
        -9.681276653205998
      ],
      [
        "▁Even",
        -9.682086434808177
      ],
      [
        "▁professional",
        -9.683195491706268
      ],
      [
        "▁expect",
        -9.684343792706299
      ],
      [
        "▁deep",
        -9.684829693310544
      ],
      [
        "▁sea",
        -9.686442917480322
      ],
      [
        "▁front",
        -9.686735415029197
      ],
      [
        "▁secret",
        -9.688261205410047
      ],
      [
        "▁changes",
        -9.688372741218252
      ],
      [
        "▁Thu",
        -9.68885504175774
      ],
      [
        "▁strategy",
        -9.69049803028879
      ],
      [
        "▁road",
        -9.690757991161359
      ],
      [
        "▁Code",
        -9.691563086496341
      ],
      [
        "▁destroy",
        -9.692230378639362
      ],
      [
        "▁mine",
        -9.693099545999644
      ],
      [
        "▁Mosco",
        -9.695253239922689
      ],
      [
        "▁Trade",
        -9.695568223811222
      ],
      [
        "▁authorit",
        -9.695579097557813
      ],
      [
        "▁reduction",
        -9.69853851431385
      ],
      [
        "▁contract",
        -9.698903995818107
      ],
      [
        "▁crazy",
        -9.700063358748306
      ],
      [
        "▁Damn",
        -9.702827716312909
      ],
      [
        "▁lives",
        -9.703277399243978
      ],
      [
        "▁avoid",
        -9.703593757508589
      ],
      [
        "▁capital",
        -9.704514649062464
      ],
      [
        "▁dialogue",
        -9.706198573704823
      ],
      [
        "▁Whil",
        -9.706320433402897
      ],
      [
        "▁publish",
        -9.70918958203028
      ],
      [
        "▁Asia",
        -9.709416148881814
      ],
      [
        "▁negotiation",
        -9.709770744158348
      ],
      [
        "▁stand",
        -9.709970007583273
      ],
      [
        "▁device",
        -9.711212351166736
      ],
      [
        "▁Agreement",
        -9.71221188355301
      ],
      [
        "▁personne",
        -9.712564712983152
      ],
      [
        "▁begin",
        -9.713306180635392
      ],
      [
        "▁manage",
        -9.715064400593926
      ],
      [
        "▁coordinati",
        -9.715755299907318
      ],
      [
        "▁Two",
        -9.716326108835823
      ],
      [
        "▁para",
        -9.717567884387096
      ],
      [
        "▁ensur",
        -9.71818150897161
      ],
      [
        "▁paid",
        -9.718325733182622
      ],
      [
        "▁investigation",
        -9.719043438037483
      ],
      [
        "j",
        -9.719661318403258
      ],
      [
        "▁applie",
        -9.72036906011997
      ],
      [
        "▁Centre",
        -9.72189002607452
      ],
      [
        "▁size",
        -9.72292935827226
      ],
      [
        "▁exist",
        -9.72330500496747
      ],
      [
        "▁facilitate",
        -9.723374912375391
      ],
      [
        "▁marrie",
        -9.723966869706931
      ],
      [
        "▁guid",
        -9.725819849342347
      ],
      [
        "▁version",
        -9.725915768551873
      ],
      [
        "▁remains",
        -9.727368725370983
      ],
      [
        "▁enjoy",
        -9.729137144697468
      ],
      [
        "▁organized",
        -9.729517100584134
      ],
      [
        "▁agree",
        -9.729830499794542
      ],
      [
        "▁conclusion",
        -9.731122089086465
      ],
      [
        "▁regulation",
        -9.731174360446724
      ],
      [
        "▁partnership",
        -9.732092605038403
      ],
      [
        "▁nor",
        -9.73233386026083
      ],
      [
        "▁communication",
        -9.732403957685761
      ],
      [
        "▁refugee",
        -9.732970713231595
      ],
      [
        "▁outcome",
        -9.733845888811466
      ],
      [
        "wise",
        -9.733935915365429
      ],
      [
        "▁successful",
        -9.734502495548874
      ],
      [
        "▁lie",
        -9.73453324376704
      ],
      [
        "▁positive",
        -9.735749065833332
      ],
      [
        "▁asset",
        -9.735790705200667
      ],
      [
        "▁comment",
        -9.736865531327261
      ],
      [
        "▁greater",
        -9.737088800676297
      ],
      [
        "time",
        -9.742920762618944
      ],
      [
        "▁understanding",
        -9.74300362225079
      ],
      [
        "▁Japan",
        -9.7442779300839
      ],
      [
        "▁essential",
        -9.74585403479422
      ],
      [
        "▁independent",
        -9.746057755493798
      ],
      [
        "be",
        -9.746421480992073
      ],
      [
        "▁user",
        -9.747754390758807
      ],
      [
        "▁exercise",
        -9.747762431268523
      ],
      [
        "▁reference",
        -9.748430060930183
      ],
      [
        "▁fun",
        -9.749278674146282
      ],
      [
        "aught",
        -9.749674924919665
      ],
      [
        "▁Force",
        -9.750274471057091
      ],
      [
        "▁income",
        -9.750551986021147
      ],
      [
        "▁Unknow",
        -9.751157280817125
      ],
      [
        "▁sense",
        -9.752380679443373
      ],
      [
        "▁news",
        -9.752845683293982
      ],
      [
        "▁realize",
        -9.752913585944071
      ],
      [
        "▁similar",
        -9.75396037478474
      ],
      [
        "▁term",
        -9.75408388905494
      ],
      [
        "▁maintain",
        -9.754376178068565
      ],
      [
        "ref",
        -9.755286903508985
      ],
      [
        "▁Nothing",
        -9.7557933443235
      ],
      [
        "▁bar",
        -9.756469135402673
      ],
      [
        "net",
        -9.756803751418152
      ],
      [
        "▁prison",
        -9.758100847384204
      ],
      [
        "▁shot",
        -9.758511296019625
      ],
      [
        "▁John",
        -9.758725088445459
      ],
      [
        "▁Commissioner",
        -9.759525604515975
      ],
      [
        "▁submitte",
        -9.760285441146388
      ],
      [
        "▁sister",
        -9.760625116062428
      ],
      [
        "▁econom",
        -9.762239693945206
      ],
      [
        "▁hate",
        -9.76252573947019
      ],
      [
        "▁choice",
        -9.762995916238049
      ],
      [
        "▁damn",
        -9.763653851937015
      ],
      [
        "▁Further",
        -9.764023055923584
      ],
      [
        "▁beginning",
        -9.765993861381634
      ],
      [
        "me",
        -9.766263749237691
      ],
      [
        "▁aim",
        -9.766516559806266
      ],
      [
        "▁steps",
        -9.766584379758804
      ],
      [
        "▁administrative",
        -9.767446347383727
      ],
      [
        "▁touch",
        -9.767560254274805
      ],
      [
        "J",
        -9.767631992279547
      ],
      [
        "▁spend",
        -9.769117865588381
      ],
      [
        "▁opportunities",
        -9.7692054282907
      ],
      [
        "▁co",
        -9.769585207656556
      ],
      [
        "▁client",
        -9.769988571951947
      ],
      [
        "▁Does",
        -9.771907777599203
      ],
      [
        "▁submitt",
        -9.773298028503053
      ],
      [
        "industry",
        -9.77346586804287
      ],
      [
        "▁prett",
        -9.773697243148778
      ],
      [
        "espite",
        -9.774376078492233
      ],
      [
        "▁host",
        -9.776432148918305
      ],
      [
        "▁enhance",
        -9.77675447728875
      ],
      [
        "▁fundamental",
        -9.777084729305614
      ],
      [
        "▁correct",
        -9.777104269659786
      ],
      [
        "▁broke",
        -9.777265138838967
      ],
      [
        "▁zone",
        -9.777929370683069
      ],
      [
        "▁terrorist",
        -9.778907230147343
      ],
      [
        "▁mom",
        -9.780008143057387
      ],
      [
        "▁demand",
        -9.780675239719155
      ],
      [
        "▁promotion",
        -9.781440152979922
      ],
      [
        "▁Mar",
        -9.781513649169822
      ],
      [
        "▁hospital",
        -9.782770038822402
      ],
      [
        "▁obtain",
        -9.782913215073233
      ],
      [
        "▁top",
        -9.783023566195698
      ],
      [
        "am",
        -9.7835689205065
      ],
      [
        "▁St",
        -9.784324552621555
      ],
      [
        "▁settlement",
        -9.784988605755405
      ],
      [
        "▁improv",
        -9.786156858219982
      ],
      [
        "▁submit",
        -9.78642797178065
      ],
      [
        "▁ground",
        -9.78675598339214
      ],
      [
        "▁Ah",
        -9.787419299617248
      ],
      [
        "▁forget",
        -9.7876424170613
      ],
      [
        "▁separate",
        -9.787921774009867
      ],
      [
        "▁urge",
        -9.789768996964922
      ],
      [
        "▁extend",
        -9.7907580460705
      ],
      [
        "▁relations",
        -9.79157484993213
      ],
      [
        "▁civilian",
        -9.79162048644939
      ],
      [
        "▁plannin",
        -9.792117854234217
      ],
      [
        "▁citizens",
        -9.792200365319209
      ],
      [
        "▁Give",
        -9.792372666259485
      ],
      [
        "▁Institute",
        -9.792462161524377
      ],
      [
        "▁plant",
        -9.793759914159374
      ],
      [
        "▁basic",
        -9.794026888327814
      ],
      [
        "▁peacekeep",
        -9.795904922950632
      ],
      [
        "▁histor",
        -9.796745796234445
      ],
      [
        "▁statements",
        -9.79743582134036
      ],
      [
        "▁trouble",
        -9.799024799669139
      ],
      [
        "▁flight",
        -9.799039252015728
      ],
      [
        "▁billion",
        -9.800052907157648
      ],
      [
        "▁URL",
        -9.800170443494721
      ],
      [
        "▁leav",
        -9.801543146624745
      ],
      [
        "▁schedule",
        -9.80199273716866
      ],
      [
        "▁video",
        -9.802411065060502
      ],
      [
        "Y",
        -9.803822833763753
      ],
      [
        "▁relationship",
        -9.80535888519278
      ],
      [
        "▁Permanent",
        -9.80576312745648
      ],
      [
        "▁promot",
        -9.805812484913769
      ],
      [
        "▁debt",
        -9.806683620430924
      ],
      [
        "▁though",
        -9.80701592139041
      ],
      [
        "▁Democratic",
        -9.807330403428335
      ],
      [
        "▁preventi",
        -9.808269522350054
      ],
      [
        "▁cut",
        -9.808515573123827
      ],
      [
        "▁Forum",
        -9.81282147980161
      ],
      [
        "▁higher",
        -9.81347236570544
      ],
      [
        "▁Her",
        -9.815201965123876
      ],
      [
        "▁Friday",
        -9.81537174433678
      ],
      [
        "▁supposed",
        -9.815473908772788
      ],
      [
        "▁receiv",
        -9.817293395624374
      ],
      [
        "ial",
        -9.819268640917237
      ],
      [
        "▁Y",
        -9.821177600147507
      ],
      [
        "▁reduce",
        -9.822800988480878
      ],
      [
        "▁Genev",
        -9.823068460252795
      ],
      [
        "▁worth",
        -9.823861644099129
      ],
      [
        "▁cross",
        -9.824107691510987
      ],
      [
        "▁territory",
        -9.825576007189778
      ],
      [
        "▁wear",
        -9.826263460296085
      ],
      [
        "▁Such",
        -9.826710031496912
      ],
      [
        "▁computer",
        -9.826762093141276
      ],
      [
        "▁drug",
        -9.827774967402991
      ],
      [
        "•",
        -9.828552199617828
      ],
      [
        "▁patient",
        -9.829624908630251
      ],
      [
        "▁enable",
        -9.829720536640123
      ],
      [
        "▁West",
        -9.830246674888333
      ],
      [
        "▁attend",
        -9.830693528502128
      ],
      [
        "▁referr",
        -9.83267893960734
      ],
      [
        "▁Windows",
        -9.83414971914034
      ],
      [
        "▁practical",
        -9.835881999797905
      ],
      [
        "▁link",
        -9.83627558786581
      ],
      [
        "▁Most",
        -9.836508291508213
      ],
      [
        "▁lose",
        -9.837286645994983
      ],
      [
        "V",
        -9.837676989089962
      ],
      [
        "▁balance",
        -9.838125521265574
      ],
      [
        "▁operat",
        -9.838445473201652
      ],
      [
        "▁Advisor",
        -9.838537401084828
      ],
      [
        "▁hour",
        -9.839508546484144
      ],
      [
        "go",
        -9.839988300199714
      ],
      [
        "▁Peter",
        -9.841110122990157
      ],
      [
        "▁suggest",
        -9.84123336892219
      ],
      [
        "▁Monday",
        -9.841576976537432
      ],
      [
        "familie",
        -9.841607363656273
      ],
      [
        "▁Miss",
        -9.841986128303997
      ],
      [
        "▁register",
        -9.842008532414113
      ],
      [
        "▁Criminal",
        -9.842024372766875
      ],
      [
        "▁simply",
        -9.842559945843469
      ],
      [
        "▁physical",
        -9.843193300015328
      ],
      [
        "▁update",
        -9.844132115505683
      ],
      [
        "▁except",
        -9.844478342590051
      ],
      [
        "▁train",
        -9.844603076760063
      ],
      [
        "▁component",
        -9.846227734062216
      ],
      [
        "▁across",
        -9.847678770354364
      ],
      [
        "▁crisis",
        -9.848914830942535
      ],
      [
        "▁processe",
        -9.849027671094252
      ],
      [
        "▁self",
        -9.849327369826668
      ],
      [
        "▁War",
        -9.851019123461462
      ],
      [
        "▁ten",
        -9.851859648074802
      ],
      [
        "▁guarantee",
        -9.852229922792276
      ],
      [
        "▁employment",
        -9.852646470729185
      ],
      [
        "▁wind",
        -9.852684448108018
      ],
      [
        "▁Canad",
        -9.852739443091
      ],
      [
        "▁identify",
        -9.854723981023996
      ],
      [
        "▁decide",
        -9.857065710048278
      ],
      [
        "▁Hotel",
        -9.85844953517524
      ],
      [
        "▁bank",
        -9.85955902402414
      ],
      [
        "▁confirm",
        -9.8596608603006
      ],
      [
        "▁notice",
        -9.860010048582133
      ],
      [
        "▁Health",
        -9.860538978248087
      ],
      [
        "▁Say",
        -9.860585751447417
      ],
      [
        "▁fair",
        -9.861172826097278
      ],
      [
        "CN",
        -9.861239750863836
      ],
      [
        "▁culture",
        -9.86262714356511
      ],
      [
        "▁yea",
        -9.863082983069436
      ],
      [
        "▁movement",
        -9.863416237690906
      ],
      [
        "▁traffick",
        -9.864317306395186
      ],
      [
        "▁guest",
        -9.865987672041019
      ],
      [
        "▁disease",
        -9.866006015408615
      ],
      [
        "▁Israeli",
        -9.866106822268804
      ],
      [
        "pp",
        -9.866549378299743
      ],
      [
        "php",
        -9.86704096510552
      ],
      [
        "▁calls",
        -9.867150468165281
      ],
      [
        "▁dad",
        -9.867688074179407
      ],
      [
        "▁workshop",
        -9.868168883311451
      ],
      [
        "▁seat",
        -9.87149334427138
      ],
      [
        "▁Management",
        -9.87310214152995
      ],
      [
        "▁City",
        -9.873654008123033
      ],
      [
        "level",
        -9.873878105899843
      ],
      [
        "▁arrive",
        -9.87429556566181
      ],
      [
        "▁Second",
        -9.874304598907145
      ],
      [
        "▁sometime",
        -9.876017896601748
      ],
      [
        "▁Plan",
        -9.876104111443377
      ],
      [
        "▁respective",
        -9.876938513244117
      ],
      [
        "▁implemented",
        -9.878222346524044
      ],
      [
        "▁command",
        -9.87958938164466
      ],
      [
        "▁soul",
        -9.879884125640896
      ],
      [
        "▁manner",
        -9.880799200036773
      ],
      [
        "▁average",
        -9.882393425827495
      ],
      [
        "▁Call",
        -9.882843113805912
      ],
      [
        "illennium",
        -9.883545755503821
      ],
      [
        "▁increasing",
        -9.88367966769518
      ],
      [
        "▁nation",
        -9.88472441246411
      ],
      [
        "▁Global",
        -9.884851740269234
      ],
      [
        "▁assess",
        -9.884958222047537
      ],
      [
        "▁posts",
        -9.885063921312586
      ],
      [
        "▁Excuse",
        -9.886407659501558
      ],
      [
        "▁achieved",
        -9.888276035995327
      ],
      [
        "▁Congo",
        -9.888862902131041
      ],
      [
        "▁complex",
        -9.889171457680966
      ],
      [
        "▁pre",
        -9.889646548490699
      ],
      [
        "▁add",
        -9.891306535522425
      ],
      [
        "▁series",
        -9.891817440566024
      ],
      [
        "▁Under",
        -9.892028847611279
      ],
      [
        "▁street",
        -9.89215186308243
      ],
      [
        "▁laws",
        -9.894876786385723
      ],
      [
        "▁creation",
        -9.895379200906895
      ],
      [
        "▁produce",
        -9.895922203935434
      ],
      [
        "▁Internet",
        -9.898570487854453
      ],
      [
        "▁strategi",
        -9.89880680684701
      ],
      [
        "▁expand",
        -9.900305223400592
      ],
      [
        "▁strategic",
        -9.900596280136554
      ],
      [
        "ver",
        -9.901278941751709
      ],
      [
        "▁department",
        -9.902361266839751
      ],
      [
        "▁export",
        -9.90243235978635
      ],
      [
        "▁administration",
        -9.903217644106252
      ],
      [
        "▁count",
        -9.903300255009274
      ],
      [
        "▁signed",
        -9.903913020743605
      ],
      [
        "▁faith",
        -9.90420388010948
      ],
      [
        "▁online",
        -9.905283148438002
      ],
      [
        "▁wonder",
        -9.905919691941428
      ],
      [
        "ley",
        -9.906252917341398
      ],
      [
        "▁usual",
        -9.906713426654175
      ],
      [
        "▁piece",
        -9.908986666639418
      ],
      [
        "▁write",
        -9.909214109862095
      ],
      [
        "▁dear",
        -9.909318360617046
      ],
      [
        "▁indicator",
        -9.909338010332682
      ],
      [
        "▁Add",
        -9.909397619105771
      ],
      [
        "▁product",
        -9.911039728023857
      ],
      [
        "▁code",
        -9.911179390212432
      ],
      [
        "▁thus",
        -9.912576022078792
      ],
      [
        "▁difference",
        -9.913733476764957
      ],
      [
        "ov",
        -9.914376753856802
      ],
      [
        "ility",
        -9.914584129884052
      ],
      [
        "▁consequence",
        -9.914615637332966
      ],
      [
        "▁color",
        -9.914687667304488
      ],
      [
        "▁wrot",
        -9.914744050691594
      ],
      [
        "▁infrastructure",
        -9.914998188809875
      ],
      [
        "▁Sir",
        -9.915864121395515
      ],
      [
        "Today",
        -9.916116113048266
      ],
      [
        "▁Thursday",
        -9.916147660622675
      ],
      [
        "▁Children",
        -9.916687963578106
      ],
      [
        "▁sit",
        -9.916804006680405
      ],
      [
        "▁launch",
        -9.917513190674391
      ],
      [
        "▁evening",
        -9.917864935629428
      ],
      [
        "▁led",
        -9.918385157527082
      ],
      [
        "▁Jesus",
        -9.919160286528196
      ],
      [
        "▁goes",
        -9.920107459881006
      ],
      [
        "▁content",
        -9.920923445857266
      ],
      [
        "▁pick",
        -9.921104039071528
      ],
      [
        "▁modern",
        -9.921560424156922
      ],
      [
        "▁success",
        -9.922857685575885
      ],
      [
        "▁park",
        -9.92439796309936
      ],
      [
        "▁supply",
        -9.92440901436095
      ],
      [
        "AD",
        -9.924510645177188
      ],
      [
        "▁favor",
        -9.924895364235457
      ],
      [
        "▁North",
        -9.925673995938936
      ],
      [
        "▁competition",
        -9.927656315135597
      ],
      [
        "▁circumstance",
        -9.927706032315688
      ],
      [
        "▁loss",
        -9.928275288921547
      ],
      [
        "▁build",
        -9.929015145610169
      ],
      [
        "▁India",
        -9.929792013790806
      ],
      [
        "▁commission",
        -9.932073065531682
      ],
      [
        "▁doubt",
        -9.932092906950313
      ],
      [
        "▁flow",
        -9.932255982605763
      ],
      [
        "▁film",
        -9.934263638300546
      ],
      [
        "▁pressure",
        -9.934474214713031
      ],
      [
        "▁seek",
        -9.934669741646974
      ],
      [
        "▁choose",
        -9.936170089812894
      ],
      [
        "▁Treaty",
        -9.936237433201647
      ],
      [
        "▁recover",
        -9.93652390252399
      ],
      [
        "▁leading",
        -9.93724930621048
      ],
      [
        "den",
        -9.937519062919517
      ],
      [
        "huh",
        -9.937659167649365
      ],
      [
        "▁Tribunal",
        -9.938726735592901
      ],
      [
        "▁studie",
        -9.942563545779478
      ],
      [
        "▁introduce",
        -9.942608153883405
      ],
      [
        "▁Public",
        -9.942661629682398
      ],
      [
        "▁Tom",
        -9.943544849566585
      ],
      [
        "▁publication",
        -9.943836111532041
      ],
      [
        "▁trial",
        -9.944558625759623
      ],
      [
        "▁campaign",
        -9.945404248790284
      ],
      [
        "▁Man",
        -9.945809884648458
      ],
      [
        "▁associate",
        -9.946156520716919
      ],
      [
        "▁central",
        -9.947170628834511
      ],
      [
        "▁encounter",
        -9.947640099089472
      ],
      [
        "▁Agenda",
        -9.949065386875425
      ],
      [
        "▁climate",
        -9.949276549554632
      ],
      [
        "▁anti",
        -9.949531300578842
      ],
      [
        "▁financing",
        -9.94963045858875
      ],
      [
        "▁guideline",
        -9.950063934829695
      ],
      [
        "▁fish",
        -9.950558282029807
      ],
      [
        "▁communit",
        -9.950951642772289
      ],
      [
        "▁Summit",
        -9.951003353374382
      ],
      [
        "▁map",
        -9.951258241415914
      ],
      [
        "▁Uh",
        -9.954131360121451
      ],
      [
        "▁seven",
        -9.95455323487554
      ],
      [
        "▁careful",
        -9.954721713263625
      ],
      [
        "▁torture",
        -9.955796683255148
      ],
      [
        "▁achievement",
        -9.955800114026898
      ],
      [
        "▁software",
        -9.955868069800939
      ],
      [
        "▁enterprise",
        -9.956407580975888
      ],
      [
        "giving",
        -9.95668179024794
      ],
      [
        "aid",
        -9.956912382753828
      ],
      [
        "▁transition",
        -9.957201512746202
      ],
      [
        "▁Would",
        -9.95955090372485
      ],
      [
        "▁El",
        -9.960077528706861
      ],
      [
        "▁Last",
        -9.960150553492056
      ],
      [
        "▁Actual",
        -9.960918439970492
      ],
      [
        "▁dream",
        -9.961284223793715
      ],
      [
        "ent",
        -9.96320153530101
      ],
      [
        "▁interests",
        -9.964189188033494
      ],
      [
        "▁Wow",
        -9.96460922168141
      ],
      [
        "▁System",
        -9.964837978398384
      ],
      [
        "▁eight",
        -9.96531221153414
      ],
      [
        "▁Wednesday",
        -9.965709476379807
      ],
      [
        "▁games",
        -9.966259219584531
      ],
      [
        "▁Unit",
        -9.967304701249798
      ],
      [
        "▁respond",
        -9.968652094159523
      ],
      [
        "▁Justice",
        -9.969194006710062
      ],
      [
        "▁location",
        -9.970706164165069
      ],
      [
        "▁fift",
        -9.970842090242932
      ],
      [
        "▁depend",
        -9.971831215413816
      ],
      [
        "▁proper",
        -9.97189059747329
      ],
      [
        "▁appeal",
        -9.971944790613282
      ],
      [
        "▁female",
        -9.97271998085052
      ],
      [
        "▁Charter",
        -9.974873099627985
      ],
      [
        "▁writ",
        -9.97716701886253
      ],
      [
        "▁throughout",
        -9.977793965415318
      ],
      [
        "▁credit",
        -9.977979943390816
      ],
      [
        "▁perfect",
        -9.979264586448284
      ],
      [
        "▁looks",
        -9.98023030334223
      ],
      [
        "▁Division",
        -9.981793511527208
      ],
      [
        "▁operational",
        -9.982716030647063
      ],
      [
        "▁initial",
        -9.982976640045209
      ],
      [
        "▁Protection",
        -9.983041195406667
      ],
      [
        "▁entit",
        -9.983798027010401
      ],
      [
        "▁Regulation",
        -9.986074464006077
      ],
      [
        "▁gun",
        -9.986780950918856
      ],
      [
        "▁appoint",
        -9.98684131439001
      ],
      [
        "▁possibilit",
        -9.987600221083841
      ],
      [
        "▁shit",
        -9.987697546430592
      ],
      [
        "▁attempt",
        -9.988146769611252
      ],
      [
        "▁music",
        -9.991217896732973
      ],
      [
        "▁Time",
        -9.993937668653746
      ],
      [
        "▁EU",
        -9.994143270006887
      ],
      [
        "▁heaven",
        -9.994694706584923
      ],
      [
        "▁relative",
        -9.994812346822666
      ],
      [
        "▁simple",
        -9.995787768730548
      ],
      [
        "▁running",
        -9.995792410467242
      ],
      [
        "▁regime",
        -9.996947489401506
      ],
      [
        "▁biennium",
        -9.996962016389732
      ],
      [
        "▁drive",
        -9.997076392259206
      ],
      [
        "▁items",
        -9.998880081927613
      ],
      [
        "▁sell",
        -9.999252029913757
      ],
      [
        "▁buil",
        -9.999486706165202
      ],
      [
        "▁traditional",
        -10.000446727966024
      ],
      [
        "▁proceeding",
        -10.000707649923386
      ],
      [
        "▁Panel",
        -10.00168396998918
      ],
      [
        "▁mass",
        -10.001755276495977
      ],
      [
        "ka",
        -10.001916441314382
      ],
      [
        "▁waste",
        -10.002100541236372
      ],
      [
        "▁elements",
        -10.002582528567707
      ],
      [
        "▁evaluation",
        -10.002888911289222
      ],
      [
        "▁holding",
        -10.003956138578728
      ],
      [
        "AC",
        -10.00440249488185
      ],
      [
        "▁glad",
        -10.004614013563886
      ],
      [
        "▁debate",
        -10.00527462901556
      ],
      [
        "▁German",
        -10.006382282984411
      ],
      [
        "Next",
        -10.00642713459051
      ],
      [
        "▁continu",
        -10.006728964816606
      ],
      [
        "▁cool",
        -10.009029964560241
      ],
      [
        "▁object",
        -10.0120674521302
      ],
      [
        "▁hair",
        -10.012214758462758
      ],
      [
        "▁etc",
        -10.012905914684012
      ],
      [
        "▁normal",
        -10.013127542862279
      ],
      [
        "▁Peace",
        -10.013471263111535
      ],
      [
        "▁black",
        -10.01432603621107
      ],
      [
        "▁Center",
        -10.01477107245155
      ],
      [
        "▁Review",
        -10.014824920511105
      ],
      [
        "▁collection",
        -10.015424770332533
      ],
      [
        "▁emphasize",
        -10.016338276732242
      ],
      [
        "▁officials",
        -10.01706603415588
      ],
      [
        "▁stress",
        -10.017077459373425
      ],
      [
        "felt",
        -10.018572366077265
      ],
      [
        "▁lower",
        -10.019567368131174
      ],
      [
        "▁Agenc",
        -10.020213824187802
      ],
      [
        "▁overall",
        -10.021181469056646
      ],
      [
        "▁Cooperati",
        -10.021835408758589
      ],
      [
        "▁handle",
        -10.021954897764065
      ],
      [
        "▁Never",
        -10.023093471495507
      ],
      [
        "▁class",
        -10.023360980397676
      ],
      [
        "▁approval",
        -10.02439403468813
      ],
      [
        "▁prepare",
        -10.024489981070493
      ],
      [
        "▁describe",
        -10.024828693810356
      ],
      [
        "▁sentence",
        -10.024971803064846
      ],
      [
        "▁mistake",
        -10.025542102504577
      ],
      [
        "▁adequate",
        -10.02595530812719
      ],
      [
        "▁topic",
        -10.026260395930521
      ],
      [
        "▁recommendation",
        -10.027553023074823
      ],
      [
        "▁twent",
        -10.027811815043934
      ],
      [
        "▁trie",
        -10.027909299159116
      ],
      [
        "▁awareness",
        -10.028224850751567
      ],
      [
        "▁race",
        -10.030022624194242
      ],
      [
        "ca",
        -10.030424486724026
      ],
      [
        "▁skill",
        -10.03187392119191
      ],
      [
        "U",
        -10.031889149990018
      ],
      [
        "▁religious",
        -10.032206502409768
      ],
      [
        "▁prior",
        -10.03307541819131
      ],
      [
        "▁TV",
        -10.033597397855104
      ],
      [
        "▁release",
        -10.033974858135366
      ],
      [
        "▁ongoing",
        -10.035369431755669
      ],
      [
        "ge",
        -10.035372409575636
      ],
      [
        "▁Constitution",
        -10.036097871610252
      ],
      [
        "▁emergency",
        -10.037083408413078
      ],
      [
        "▁extreme",
        -10.03717666813221
      ],
      [
        "▁direction",
        -10.037617051259245
      ],
      [
        "▁round",
        -10.037863008336295
      ],
      [
        "▁types",
        -10.038190950656016
      ],
      [
        "▁evil",
        -10.039983780146038
      ],
      [
        "▁firm",
        -10.040070233935998
      ],
      [
        "▁Covenant",
        -10.04021199537959
      ],
      [
        "▁Als",
        -10.040459227635061
      ],
      [
        "▁prove",
        -10.040998798923585
      ],
      [
        "▁surprise",
        -10.041881508433171
      ],
      [
        "▁sub",
        -10.042061634266721
      ],
      [
        "pril",
        -10.042587457197818
      ],
      [
        "▁employee",
        -10.042690106692556
      ],
      [
        "▁Page",
        -10.043994228124738
      ],
      [
        "▁participat",
        -10.04426087955056
      ],
      [
        "▁complian",
        -10.045771517916364
      ],
      [
        "▁guide",
        -10.046203450422823
      ],
      [
        "▁Crime",
        -10.046458540565402
      ],
      [
        "▁deed",
        -10.046804919987114
      ],
      [
        "▁thanks",
        -10.047449744124485
      ],
      [
        "▁leaders",
        -10.048237665289019
      ],
      [
        "▁secure",
        -10.048884146618715
      ],
      [
        "▁Open",
        -10.049089346727598
      ],
      [
        "▁Saturday",
        -10.050082525419892
      ],
      [
        "▁delay",
        -10.05010544195835
      ],
      [
        "▁concept",
        -10.050865550578404
      ],
      [
        "making",
        -10.051255473655218
      ],
      [
        "WP",
        -10.051279076110085
      ],
      [
        "▁Sam",
        -10.051551013162879
      ],
      [
        "▁warm",
        -10.05230025857343
      ],
      [
        "▁sufficient",
        -10.052706762874763
      ],
      [
        "▁enem",
        -10.052784184862304
      ],
      [
        "either",
        -10.05322062888525
      ],
      [
        "▁earlie",
        -10.0556480233123
      ],
      [
        "▁household",
        -10.056287781884446
      ],
      [
        "▁pursuan",
        -10.05779776326687
      ],
      [
        "▁dinner",
        -10.058800101428261
      ],
      [
        "▁Korea",
        -10.058856986593216
      ],
      [
        "▁forest",
        -10.059570577631627
      ],
      [
        "▁dog",
        -10.059637309786034
      ],
      [
        "▁achiev",
        -10.060104424596187
      ],
      [
        "▁image",
        -10.060253023021478
      ],
      [
        "▁base",
        -10.06041238047692
      ],
      [
        "▁Follow",
        -10.061389368157434
      ],
      [
        "ate",
        -10.061950861799511
      ],
      [
        "▁desire",
        -10.062683298946405
      ],
      [
        "▁Iran",
        -10.063719014231218
      ],
      [
        "▁Afghanistan",
        -10.064752355698541
      ],
      [
        "▁author",
        -10.0649525238356
      ],
      [
        "▁Very",
        -10.066312523801523
      ],
      [
        "▁Azerbaijan",
        -10.066372513806286
      ],
      [
        "▁lawyer",
        -10.066401763885473
      ],
      [
        "▁Tuesday",
        -10.067594347582041
      ],
      [
        "▁win",
        -10.068447548154829
      ],
      [
        "é",
        -10.068541032384703
      ],
      [
        "▁Implementation",
        -10.068628080999671
      ],
      [
        "▁Turkey",
        -10.069657626315053
      ],
      [
        "▁useful",
        -10.070808048050104
      ],
      [
        "▁goods",
        -10.071058742227946
      ],
      [
        "▁San",
        -10.071703954041507
      ],
      [
        "▁double",
        -10.071747846990448
      ],
      [
        "▁primar",
        -10.07179009031924
      ],
      [
        "▁award",
        -10.07285560780592
      ],
      [
        "▁store",
        -10.073085243801476
      ],
      [
        "▁feature",
        -10.073375271611617
      ],
      [
        "▁Compan",
        -10.074040085976078
      ],
      [
        "▁Could",
        -10.074256807484364
      ],
      [
        "▁reservation",
        -10.074740430032477
      ],
      [
        "▁track",
        -10.074857247189732
      ],
      [
        "▁convention",
        -10.07511866780672
      ],
      [
        "▁dangerous",
        -10.075318763042675
      ],
      [
        "ification",
        -10.075331895100264
      ],
      [
        "▁recall",
        -10.077853141832609
      ],
      [
        "▁Home",
        -10.078496747337223
      ],
      [
        "▁Over",
        -10.080161673308853
      ],
      [
        "▁disaster",
        -10.080184876301828
      ],
      [
        "▁throw",
        -10.080948025510484
      ],
      [
        "▁define",
        -10.081456213494583
      ],
      [
        "▁Section",
        -10.082588202113229
      ],
      [
        "▁blow",
        -10.083654541998065
      ],
      [
        "▁scientific",
        -10.084159470887835
      ],
      [
        "▁peaceful",
        -10.085487434222493
      ],
      [
        "▁Association",
        -10.085807511087094
      ],
      [
        "▁educational",
        -10.08774996342359
      ],
      [
        "▁card",
        -10.0884365504259
      ],
      [
        "▁fill",
        -10.08854801711755
      ],
      [
        "ki",
        -10.088584936852657
      ],
      [
        "▁hot",
        -10.089448114096875
      ],
      [
        "▁Non",
        -10.089626892246539
      ],
      [
        "▁stability",
        -10.090466337369044
      ],
      [
        "▁Co",
        -10.090818301863752
      ],
      [
        "day",
        -10.091181097834905
      ],
      [
        "▁moving",
        -10.091198395465135
      ],
      [
        "▁fuel",
        -10.09132241649916
      ],
      [
        "if",
        -10.091426588967302
      ],
      [
        "stead",
        -10.0918696020743
      ],
      [
        "▁opened",
        -10.092740267216604
      ],
      [
        "▁constitute",
        -10.092889772086604
      ],
      [
        "▁belong",
        -10.093275850446085
      ],
      [
        "▁partner",
        -10.093898585214124
      ],
      [
        "▁illegal",
        -10.093975760324687
      ],
      [
        "▁integration",
        -10.094136467587223
      ],
      [
        "▁undertaken",
        -10.094157530682164
      ],
      [
        "▁advantage",
        -10.094449744022688
      ],
      [
        "▁Final",
        -10.09490984585658
      ],
      [
        "erhaps",
        -10.095724611327599
      ],
      [
        "▁Mexico",
        -10.095825866594264
      ],
      [
        "▁damage",
        -10.096608813654338
      ],
      [
        "▁Jack",
        -10.096817597832189
      ],
      [
        "▁Ma",
        -10.097040735193541
      ],
      [
        "▁News",
        -10.098100585958322
      ],
      [
        "▁Education",
        -10.098947202443664
      ],
      [
        "▁import",
        -10.099620792542051
      ],
      [
        "▁provisional",
        -10.101812095778545
      ],
      [
        "▁informal",
        -10.102109027979786
      ],
      [
        "ha",
        -10.102509246760047
      ],
      [
        "▁white",
        -10.103138685814653
      ],
      [
        "▁judge",
        -10.103224356628864
      ],
      [
        "▁coffee",
        -10.103564390623227
      ],
      [
        "▁teacher",
        -10.10365343311129
      ],
      [
        "▁planne",
        -10.104443689083912
      ],
      [
        "▁asking",
        -10.10448604750971
      ],
      [
        "▁electronic",
        -10.105919626106028
      ],
      [
        "▁player",
        -10.107092432830395
      ],
      [
        "▁stupid",
        -10.10811217421015
      ],
      [
        "▁Welcome",
        -10.108387186396499
      ],
      [
        "▁Expert",
        -10.108474400882322
      ],
      [
        "▁mutual",
        -10.110126276284369
      ],
      [
        "▁rural",
        -10.111448592649914
      ],
      [
        "he",
        -10.112736441225936
      ],
      [
        "▁critical",
        -10.113098190038748
      ],
      [
        "▁association",
        -10.113156797155964
      ],
      [
        "ng",
        -10.11333518995751
      ],
      [
        "▁OK",
        -10.113401644774093
      ],
      [
        "▁terribl",
        -10.115413017781709
      ],
      [
        "▁Environment",
        -10.115413739044593
      ],
      [
        "▁sick",
        -10.115794859728327
      ],
      [
        "▁song",
        -10.116405560349904
      ],
      [
        "▁board",
        -10.116669784564028
      ],
      [
        "▁presence",
        -10.116732441630809
      ],
      [
        "▁consist",
        -10.117347516177233
      ],
      [
        "▁servant",
        -10.118057401438929
      ],
      [
        "▁works",
        -10.118240752170756
      ],
      [
        "workers",
        -10.118466901694521
      ],
      [
        "▁Chief",
        -10.11913619386459
      ],
      [
        "▁suspect",
        -10.119385416680547
      ],
      [
        "▁Which",
        -10.120156138306683
      ],
      [
        "▁catch",
        -10.120319340658842
      ],
      [
        "▁elect",
        -10.121356207503407
      ],
      [
        "▁fulfill",
        -10.121458997743499
      ],
      [
        "duty",
        -10.122114113058398
      ],
      [
        "▁amend",
        -10.122488946915933
      ],
      [
        "▁improvement",
        -10.122508722320829
      ],
      [
        "▁Earth",
        -10.122882395717848
      ],
      [
        "▁multilateral",
        -10.124366202548988
      ],
      [
        "▁Thanks",
        -10.125017263768342
      ],
      [
        "▁art",
        -10.125323992238634
      ],
      [
        "▁stuff",
        -10.126056188528498
      ],
      [
        "▁X",
        -10.126138107770121
      ],
      [
        "▁rooms",
        -10.126401197374467
      ],
      [
        "▁reveal",
        -10.12739150242337
      ],
      [
        "▁likely",
        -10.128527364389496
      ],
      [
        "▁Spain",
        -10.129606814007191
      ],
      [
        "▁Support",
        -10.130174630991338
      ],
      [
        "▁island",
        -10.130659879379055
      ],
      [
        "▁error",
        -10.130800700425326
      ],
      [
        "▁customer",
        -10.13245157693676
      ],
      [
        "▁district",
        -10.135264673952346
      ],
      [
        "▁counter",
        -10.135910183811204
      ],
      [
        "▁village",
        -10.135999895666425
      ],
      [
        "▁House",
        -10.137377908483703
      ],
      [
        "▁marriage",
        -10.137520972669481
      ],
      [
        "▁calling",
        -10.137653953385996
      ],
      [
        "▁honor",
        -10.138135286954949
      ],
      [
        "▁raised",
        -10.139424137409044
      ],
      [
        "▁wonderful",
        -10.139661387601468
      ],
      [
        "game",
        -10.140311843769062
      ],
      [
        "▁Sea",
        -10.140512323829055
      ],
      [
        "▁commercial",
        -10.140519880356766
      ],
      [
        "▁ethnic",
        -10.14228662134812
      ],
      [
        "▁Location",
        -10.143596905642191
      ],
      [
        "▁candidate",
        -10.144958823813635
      ],
      [
        "line",
        -10.14615805080519
      ],
      [
        "▁born",
        -10.147424476389602
      ],
      [
        "▁announce",
        -10.147617666146516
      ],
      [
        "▁alternative",
        -10.148487567691433
      ],
      [
        "▁Na",
        -10.152551008563652
      ],
      [
        "▁advance",
        -10.15382349207631
      ],
      [
        "ill",
        -10.154400047577383
      ],
      [
        "▁spoke",
        -10.154780073552184
      ],
      [
        "▁quiet",
        -10.154805258019714
      ],
      [
        "▁photo",
        -10.15570263985952
      ],
      [
        "related",
        -10.155926036802896
      ],
      [
        "▁forgive",
        -10.158108627482347
      ],
      [
        "▁Armenian",
        -10.159496234970156
      ],
      [
        "▁voice",
        -10.160022194000089
      ],
      [
        "▁funny",
        -10.160094656474238
      ],
      [
        "▁emission",
        -10.160097730667534
      ],
      [
        "▁About",
        -10.160169172578144
      ],
      [
        "▁forth",
        -10.161408043861858
      ],
      [
        "▁religion",
        -10.161454050608086
      ],
      [
        "▁tree",
        -10.16150645348279
      ],
      [
        "▁Dis",
        -10.162419913180273
      ],
      [
        "▁aware",
        -10.163043903867464
      ],
      [
        "▁efficienc",
        -10.163327997238325
      ],
      [
        "ok",
        -10.16339821858908
      ],
      [
        "ities",
        -10.163623301008883
      ],
      [
        "▁collect",
        -10.163807361315154
      ],
      [
        "▁applicab",
        -10.163954850568956
      ],
      [
        "▁requir",
        -10.16576670188201
      ],
      [
        "▁sort",
        -10.166802879213897
      ],
      [
        "▁Sunday",
        -10.167055824620846
      ],
      [
        "▁prices",
        -10.167653421135366
      ],
      [
        "▁III",
        -10.167673759052843
      ],
      [
        "▁Deputy",
        -10.16793424949212
      ],
      [
        "▁Ra",
        -10.168129812904262
      ],
      [
        "▁volume",
        -10.168514206696209
      ],
      [
        "▁Regional",
        -10.169500779446217
      ],
      [
        "▁window",
        -10.169969013136258
      ],
      [
        "▁sustain",
        -10.170877037222503
      ],
      [
        "We",
        -10.170917805530362
      ],
      [
        "▁negative",
        -10.171193751101793
      ],
      [
        "▁permanent",
        -10.172919408941445
      ],
      [
        "▁setting",
        -10.173048367878822
      ],
      [
        "▁Chinese",
        -10.174731504509491
      ],
      [
        "▁arrangements",
        -10.175138977950127
      ],
      [
        "▁Room",
        -10.175413927510544
      ],
      [
        "▁Australia",
        -10.17584382951913
      ],
      [
        "▁gift",
        -10.176862730178646
      ],
      [
        "▁judicial",
        -10.178298282872191
      ],
      [
        "▁Inter",
        -10.179478547084422
      ],
      [
        "▁movie",
        -10.179666353973618
      ],
      [
        "▁committee",
        -10.179843362233182
      ],
      [
        "▁shown",
        -10.180052807697063
      ],
      [
        "▁Federal",
        -10.180610982506696
      ],
      [
        "▁Prime",
        -10.181073143685268
      ],
      [
        "▁detention",
        -10.182494705280888
      ],
      [
        "▁consistent",
        -10.18392855280727
      ],
      [
        "▁Request",
        -10.186724473694861
      ],
      [
        "kept",
        -10.186735666217874
      ],
      [
        "▁Head",
        -10.186816079247787
      ],
      [
        "▁format",
        -10.187530776418438
      ],
      [
        "▁spirit",
        -10.188739798731344
      ],
      [
        "▁specifie",
        -10.189177376837666
      ],
      [
        "▁speaker",
        -10.18951096620593
      ],
      [
        "▁Was",
        -10.18997901158506
      ],
      [
        "▁effectively",
        -10.190206373566761
      ],
      [
        "▁exhibition",
        -10.19025359871743
      ],
      [
        "▁engage",
        -10.191292571712431
      ],
      [
        "▁club",
        -10.19135687723337
      ],
      [
        "▁distribution",
        -10.19244899889565
      ],
      [
        "▁forum",
        -10.192644781530442
      ],
      [
        "gen",
        -10.19269477255677
      ],
      [
        "▁disabilit",
        -10.19383431612816
      ],
      [
        "▁airport",
        -10.193900709754061
      ],
      [
        "▁accident",
        -10.19406379769499
      ],
      [
        "▁Irelan",
        -10.194690992221332
      ],
      [
        "▁agent",
        -10.195851682787781
      ],
      [
        "▁cold",
        -10.19660348993483
      ],
      [
        "▁suffer",
        -10.196765474854626
      ],
      [
        "▁rich",
        -10.197072578514957
      ],
      [
        "▁definition",
        -10.197075611267262
      ],
      [
        "▁ways",
        -10.198091564354169
      ],
      [
        "▁Middle",
        -10.198156048696244
      ],
      [
        "▁destruction",
        -10.198830702318954
      ],
      [
        "▁Father",
        -10.199072859546188
      ],
      [
        "▁Sudan",
        -10.19944741342578
      ],
      [
        "▁determine",
        -10.199614597651667
      ],
      [
        "▁reward",
        -10.19962128412331
      ],
      [
        "▁gain",
        -10.200361333853223
      ],
      [
        "▁interesting",
        -10.202340201480219
      ],
      [
        "▁growing",
        -10.203637735468213
      ],
      [
        "▁Ha",
        -10.205071502509597
      ],
      [
        "Netherland",
        -10.205370451823722
      ],
      [
        "▁fault",
        -10.206821166635123
      ],
      [
        "▁determined",
        -10.20762363157564
      ],
      [
        "▁church",
        -10.207820048042073
      ],
      [
        "▁ship",
        -10.208094062912828
      ],
      [
        "▁Paris",
        -10.209053500828148
      ],
      [
        "ought",
        -10.209496480707699
      ],
      [
        "▁Current",
        -10.209754388115243
      ],
      [
        "▁straight",
        -10.211034028866827
      ],
      [
        "▁Communit",
        -10.211440470324407
      ],
      [
        "▁scope",
        -10.212233255942312
      ],
      [
        "▁abuse",
        -10.212949787288528
      ],
      [
        "▁phase",
        -10.213870695296542
      ],
      [
        "▁hundred",
        -10.214038545324819
      ],
      [
        "▁tax",
        -10.214300705128593
      ],
      [
        "▁La",
        -10.214338313445676
      ],
      [
        "▁cop",
        -10.21562492591175
      ],
      [
        "witzer",
        -10.216516006281323
      ],
      [
        "▁JSC",
        -10.217038097713473
      ],
      [
        "▁fell",
        -10.21725656566052
      ],
      [
        "▁trul",
        -10.217588407685014
      ],
      [
        "▁De",
        -10.217868689814836
      ],
      [
        "▁submission",
        -10.218202115613359
      ],
      [
        "▁animal",
        -10.219340388238052
      ],
      [
        "▁Spanish",
        -10.219836399472744
      ],
      [
        "▁block",
        -10.220939948886475
      ],
      [
        "▁Doctor",
        -10.221269920588393
      ],
      [
        "▁degree",
        -10.22127326004763
      ],
      [
        "▁minorit",
        -10.221324901318987
      ],
      [
        "▁criteri",
        -10.221957240876602
      ],
      [
        "▁complaint",
        -10.222102400717079
      ],
      [
        "▁urgent",
        -10.222924454775054
      ],
      [
        "▁remove",
        -10.22340445301811
      ],
      [
        "▁extension",
        -10.223593296418905
      ],
      [
        "▁David",
        -10.224083912176077
      ],
      [
        "▁Official",
        -10.224628490219938
      ],
      [
        "▁leadership",
        -10.225935022241854
      ],
      [
        "▁original",
        -10.226821566061185
      ],
      [
        "▁restaurant",
        -10.227036688955451
      ],
      [
        "▁Michael",
        -10.227333237163748
      ],
      [
        "▁Recalling",
        -10.227547851384287
      ],
      [
        "▁alia",
        -10.227580484304946
      ],
      [
        "▁Document",
        -10.228261449367675
      ],
      [
        "▁eye",
        -10.230076776720672
      ],
      [
        "▁database",
        -10.230315788221223
      ],
      [
        "▁slow",
        -10.231198347634166
      ],
      [
        "enance",
        -10.231221989947024
      ],
      [
        "▁industrial",
        -10.231417482453594
      ],
      [
        "▁universal",
        -10.233138231923576
      ],
      [
        "▁spen",
        -10.233339167453323
      ],
      [
        "▁Year",
        -10.234290212573136
      ],
      [
        "▁advice",
        -10.234762693206932
      ],
      [
        "▁Many",
        -10.234886731480731
      ],
      [
        "▁requires",
        -10.234955744939136
      ],
      [
        "▁subsequent",
        -10.235051471312252
      ],
      [
        "▁raise",
        -10.235454761435173
      ],
      [
        "▁Date",
        -10.236917863904171
      ],
      [
        "▁worse",
        -10.236969243337501
      ],
      [
        "▁Note",
        -10.238161040766663
      ],
      [
        "▁released",
        -10.238505878237401
      ],
      [
        "▁lesson",
        -10.239363637575433
      ],
      [
        "▁appreciate",
        -10.240091350204942
      ],
      [
        "▁Brazil",
        -10.240325877557051
      ],
      [
        "▁button",
        -10.240492174653028
      ],
      [
        "▁excellent",
        -10.240746253761646
      ],
      [
        "▁discover",
        -10.241019136680848
      ],
      [
        "▁racial",
        -10.24110115104634
      ],
      [
        "▁finance",
        -10.241360485477397
      ],
      [
        "▁witness",
        -10.241582387851437
      ],
      [
        "▁external",
        -10.244623472986575
      ],
      [
        "▁character",
        -10.245238408279455
      ],
      [
        "▁unique",
        -10.245301698053378
      ],
      [
        "▁harm",
        -10.245712303064817
      ],
      [
        "▁century",
        -10.245920456692524
      ],
      [
        "▁Administrative",
        -10.246130812808886
      ],
      [
        "▁Table",
        -10.247444669916083
      ],
      [
        "▁expresse",
        -10.248219846338749
      ],
      [
        "▁integrate",
        -10.24850485716282
      ],
      [
        "▁Ital",
        -10.248701342566255
      ],
      [
        "▁bilateral",
        -10.248986018811888
      ],
      [
        "▁Georgia",
        -10.249087030450728
      ],
      [
        "▁red",
        -10.249496943003887
      ],
      [
        "▁chose",
        -10.249819665092367
      ],
      [
        "▁Political",
        -10.249835779922188
      ],
      [
        "▁calm",
        -10.249836607655089
      ],
      [
        "▁print",
        -10.250248181126704
      ],
      [
        "▁opening",
        -10.252480512673781
      ],
      [
        "▁Civil",
        -10.25275402356504
      ],
      [
        "▁trip",
        -10.252836829467016
      ],
      [
        "▁length",
        -10.2535226535236
      ],
      [
        "▁troop",
        -10.254014511036708
      ],
      [
        "▁jurisdiction",
        -10.254341625619297
      ],
      [
        "▁di",
        -10.255736411774546
      ],
      [
        "▁sky",
        -10.256581896140714
      ],
      [
        "▁Use",
        -10.257602798451632
      ],
      [
        "▁Egypt",
        -10.258124913292114
      ],
      [
        "▁Joint",
        -10.258499434667005
      ],
      [
        "▁Nice",
        -10.25930948819162
      ],
      [
        "▁approximate",
        -10.260114279822739
      ],
      [
        "▁stock",
        -10.261963627118448
      ],
      [
        "▁identifie",
        -10.262516529702786
      ],
      [
        "▁refer",
        -10.26261835007557
      ],
      [
        "▁obligation",
        -10.263087264137432
      ],
      [
        "▁NGO",
        -10.263139371103328
      ],
      [
        "▁Science",
        -10.264484222703786
      ],
      [
        "▁conclud",
        -10.26460666780594
      ],
      [
        "▁ticket",
        -10.264998411886548
      ],
      [
        "▁housing",
        -10.266588925072249
      ],
      [
        "▁institutional",
        -10.266645052327078
      ],
      [
        "▁Ben",
        -10.266715313182106
      ],
      [
        "▁gather",
        -10.267242358402303
      ],
      [
        "▁Keep",
        -10.267309156504378
      ],
      [
        "▁chemical",
        -10.267993096294292
      ],
      [
        "▁kiss",
        -10.268215569622448
      ],
      [
        "ring",
        -10.269211897519263
      ],
      [
        "▁expenditure",
        -10.270772755692976
      ],
      [
        "▁king",
        -10.271085106189082
      ],
      [
        "▁machine",
        -10.271220286272278
      ],
      [
        "UN",
        -10.273436964583642
      ],
      [
        "▁extent",
        -10.274312374608261
      ],
      [
        "▁honest",
        -10.274313299182376
      ],
      [
        "▁offence",
        -10.274523482785852
      ],
      [
        "▁ex",
        -10.274775994188385
      ],
      [
        "▁multi",
        -10.275168446974984
      ],
      [
        "▁legislati",
        -10.275874144561584
      ],
      [
        "way",
        -10.276646650692417
      ],
      [
        "ountries",
        -10.276715479227802
      ],
      [
        "side",
        -10.276735032175615
      ],
      [
        "▁seminar",
        -10.277420103500493
      ],
      [
        "▁happening",
        -10.2790561548336
      ],
      [
        "▁meant",
        -10.279206014187231
      ],
      [
        "Energy",
        -10.279823810103416
      ],
      [
        "▁engine",
        -10.280132643692482
      ],
      [
        "▁Paul",
        -10.28037169031041
      ],
      [
        "▁cash",
        -10.280527607824812
      ],
      [
        "▁definite",
        -10.280537621154297
      ],
      [
        "▁fruit",
        -10.281640840138193
      ],
      [
        "▁pain",
        -10.282303329378866
      ],
      [
        "▁sale",
        -10.282811807742366
      ],
      [
        "▁shoot",
        -10.283714723401575
      ],
      [
        "▁bear",
        -10.28399554192217
      ],
      [
        "▁formal",
        -10.284730344636127
      ],
      [
        "▁UNICE",
        -10.28557992297657
      ],
      [
        "▁enforce",
        -10.286630904685815
      ],
      [
        "▁mountain",
        -10.286806132863907
      ],
      [
        "▁Red",
        -10.287135213909252
      ],
      [
        "▁manager",
        -10.287324271965648
      ],
      [
        "▁affair",
        -10.288556043537135
      ],
      [
        "ide",
        -10.28859203213308
      ],
      [
        "▁generation",
        -10.28887551982194
      ],
      [
        "▁spread",
        -10.288923586072926
      ],
      [
        "▁swear",
        -10.288966013714088
      ],
      [
        "▁foot",
        -10.288978479328158
      ],
      [
        "▁strange",
        -10.290712917887262
      ],
      [
        "ized",
        -10.291169834138909
      ],
      [
        "▁perspective",
        -10.291526382244717
      ],
      [
        "▁weather",
        -10.291565190454804
      ],
      [
        "▁meter",
        -10.292019218066546
      ],
      [
        "▁install",
        -10.293543723480198
      ],
      [
        "▁presentation",
        -10.294003260668928
      ],
      [
        "▁bitch",
        -10.295844995951608
      ],
      [
        "▁science",
        -10.297422338486722
      ],
      [
        "▁Item",
        -10.297442904860464
      ],
      [
        "▁substance",
        -10.297860590736832
      ],
      [
        "▁demonstrate",
        -10.29822107992339
      ],
      [
        "▁finding",
        -10.298904105542492
      ],
      [
        "▁Their",
        -10.299598778466398
      ],
      [
        "▁Tho",
        -10.29978368746514
      ],
      [
        "▁remind",
        -10.299970676746195
      ],
      [
        "coming",
        -10.300550489532771
      ],
      [
        "▁Western",
        -10.301698563545852
      ],
      [
        "▁driver",
        -10.302149760604713
      ],
      [
        "▁Show",
        -10.30235732656665
      ],
      [
        "▁compensation",
        -10.302639742339283
      ],
      [
        "▁owner",
        -10.303949204988061
      ],
      [
        "▁origin",
        -10.304161505802195
      ],
      [
        "▁introduc",
        -10.305031802501095
      ],
      [
        "▁rise",
        -10.3057473217157
      ],
      [
        "▁interview",
        -10.305923565589609
      ],
      [
        "▁creat",
        -10.30603683472417
      ],
      [
        "▁Three",
        -10.306134107256472
      ],
      [
        "▁Sun",
        -10.307434016153968
      ],
      [
        "▁languages",
        -10.30813066252669
      ],
      [
        "oodbye",
        -10.308210113170759
      ],
      [
        "▁conclude",
        -10.308350457948915
      ],
      [
        "▁Part",
        -10.308783439337853
      ],
      [
        "▁dress",
        -10.309724982481477
      ],
      [
        "▁youth",
        -10.310638326030938
      ],
      [
        "▁obvious",
        -10.31065046701915
      ],
      [
        "▁wedding",
        -10.310676335356101
      ],
      [
        "Another",
        -10.310979965696148
      ],
      [
        "revised",
        -10.311143739058283
      ],
      [
        "▁Ambassador",
        -10.311227875444022
      ],
      [
        "‐",
        -10.312260772963874
      ],
      [
        "▁UNCT",
        -10.31317951249994
      ],
      [
        "▁strength",
        -10.31318726810417
      ],
      [
        "▁Help",
        -10.313289322238107
      ],
      [
        "▁coordinate",
        -10.313317346562393
      ],
      [
        "▁picture",
        -10.313554127910782
      ],
      [
        "▁suit",
        -10.313603301793286
      ],
      [
        "▁Policy",
        -10.314230267621017
      ],
      [
        "mail",
        -10.314536352584103
      ],
      [
        "▁none",
        -10.31459404011267
      ],
      [
        "▁entry",
        -10.314602800296239
      ],
      [
        "▁George",
        -10.314616419472603
      ],
      [
        "▁London",
        -10.314976325748237
      ],
      [
        "▁reject",
        -10.315398799354742
      ],
      [
        "▁appreciation",
        -10.315493755025948
      ],
      [
        "▁communications",
        -10.316051672970259
      ],
      [
        "▁Police",
        -10.316073630848758
      ],
      [
        "▁Power",
        -10.316160225821406
      ],
      [
        "▁drop",
        -10.316956947876994
      ],
      [
        "▁grow",
        -10.317104516051764
      ],
      [
        "▁shut",
        -10.317818394538365
      ],
      [
        "▁King",
        -10.318069298079465
      ],
      [
        "back",
        -10.318366486228918
      ],
      [
        "▁Sustainab",
        -10.31840315741854
      ],
      [
        "▁Finland",
        -10.318760536462593
      ],
      [
        "▁registration",
        -10.319853465055107
      ],
      [
        "▁substantive",
        -10.321024047531598
      ],
      [
        "▁Book",
        -10.321441172721261
      ],
      [
        "▁mess",
        -10.322736434641381
      ],
      [
        "▁Z",
        -10.323246382027289
      ],
      [
        "▁bathroom",
        -10.323616161262288
      ],
      [
        "▁collaboration",
        -10.32361725135613
      ],
      [
        "▁Project",
        -10.323641053785215
      ],
      [
        "▁director",
        -10.325062008005592
      ],
      [
        "▁Research",
        -10.325250937257756
      ],
      [
        "▁constant",
        -10.325913384752162
      ],
      [
        "▁labor",
        -10.326926684772623
      ],
      [
        "▁boss",
        -10.327061300935691
      ],
      [
        "▁box",
        -10.327306857087637
      ],
      [
        "▁core",
        -10.327403211094815
      ],
      [
        "▁birth",
        -10.328198086547392
      ],
      [
        "sixth",
        -10.32862462938673
      ],
      [
        "▁punish",
        -10.328700385888606
      ],
      [
        "▁fly",
        -10.329407192394214
      ],
      [
        "▁Air",
        -10.329837634149762
      ],
      [
        "▁periodic",
        -10.33015802254411
      ],
      [
        "▁observation",
        -10.330255337828795
      ],
      [
        "▁Czech",
        -10.330530325461556
      ],
      [
        "ful",
        -10.330764973368193
      ],
      [
        "▁drugs",
        -10.330863006012784
      ],
      [
        "▁boys",
        -10.331223355106511
      ],
      [
        "▁Islamic",
        -10.331803408965396
      ],
      [
        "▁highlight",
        -10.331902427147439
      ],
      [
        "▁Read",
        -10.332493492171384
      ],
      [
        "▁maximum",
        -10.332554106932296
      ],
      [
        "▁anyway",
        -10.334636213580737
      ],
      [
        "▁dance",
        -10.334784961960267
      ],
      [
        "▁Hold",
        -10.334865598432287
      ],
      [
        "▁Make",
        -10.335185234390304
      ],
      [
        "first",
        -10.335667673228059
      ],
      [
        "▁audit",
        -10.335815321465613
      ],
      [
        "▁Un",
        -10.33677199825556
      ],
      [
        "▁weight",
        -10.33679912488951
      ],
      [
        "▁proceed",
        -10.338092999846513
      ],
      [
        "ak",
        -10.338758277788322
      ],
      [
        "▁survey",
        -10.339338299817786
      ],
      [
        "▁president",
        -10.341260992389426
      ],
      [
        "▁convince",
        -10.341698717155856
      ],
      [
        "▁insurance",
        -10.342213165614831
      ],
      [
        "▁reaffirm",
        -10.345023728759935
      ],
      [
        "▁statistic",
        -10.346942694829677
      ],
      [
        "▁Start",
        -10.347222512137247
      ],
      [
        "▁€",
        -10.347603118399697
      ],
      [
        "index",
        -10.34778213053978
      ],
      [
        "▁master",
        -10.348212879144473
      ],
      [
        "▁amazing",
        -10.348362079805103
      ],
      [
        "ical",
        -10.34928080456097
      ],
      [
        "▁resident",
        -10.349572008635707
      ],
      [
        "efore",
        -10.35031379424116
      ],
      [
        "▁dark",
        -10.351474206768195
      ],
      [
        "▁guilt",
        -10.352045713323395
      ],
      [
        "▁Chapter",
        -10.352114107540086
      ],
      [
        "▁takes",
        -10.35211839993427
      ],
      [
        "▁impose",
        -10.353085179005657
      ],
      [
        "▁Cuba",
        -10.353204974785728
      ],
      [
        "▁absence",
        -10.353384990838954
      ],
      [
        "▁Third",
        -10.35470491861795
      ],
      [
        "▁imagine",
        -10.355069695805428
      ],
      [
        "▁Draft",
        -10.356138315446625
      ],
      [
        "▁match",
        -10.356449257874544
      ],
      [
        "▁Transport",
        -10.356633056307427
      ],
      [
        "▁Bureau",
        -10.356751127669579
      ],
      [
        "▁reserve",
        -10.357273714823261
      ],
      [
        "▁relation",
        -10.358390137112664
      ],
      [
        "▁chapter",
        -10.358669095709068
      ],
      [
        "▁pm",
        -10.358860088072888
      ],
      [
        "▁refuse",
        -10.359388000392563
      ],
      [
        "▁assume",
        -10.360516149996652
      ],
      [
        "▁chair",
        -10.360529520175911
      ],
      [
        "▁cooperate",
        -10.361009949326387
      ],
      [
        "▁Moldova",
        -10.361156720757332
      ],
      [
        "▁closed",
        -10.36288965290402
      ],
      [
        "▁Hu",
        -10.363084430671833
      ],
      [
        "▁Saint",
        -10.363643458927395
      ],
      [
        "▁Polan",
        -10.364629276255826
      ],
      [
        "▁dealing",
        -10.366152562248532
      ],
      [
        "▁shouldn",
        -10.366497519500422
      ],
      [
        "▁incident",
        -10.36650164808764
      ],
      [
        "▁older",
        -10.366733518129935
      ],
      [
        "ner",
        -10.366804039089537
      ],
      [
        "▁Park",
        -10.3677060822076
      ],
      [
        "▁Parliament",
        -10.368267485493451
      ],
      [
        "▁failure",
        -10.368622771228965
      ],
      [
        "▁examine",
        -10.369280038077674
      ],
      [
        "▁Develop",
        -10.369420524402578
      ],
      [
        "▁electric",
        -10.369426734560271
      ],
      [
        "▁majorit",
        -10.371950328871105
      ],
      [
        "▁Kosov",
        -10.372039436942185
      ],
      [
        "▁summer",
        -10.373772856747628
      ],
      [
        "▁ratio",
        -10.374291385893047
      ],
      [
        "▁male",
        -10.37622676492123
      ],
      [
        "▁Bill",
        -10.376448625825173
      ],
      [
        "▁scale",
        -10.376889242465705
      ],
      [
        "▁minimum",
        -10.376926028494145
      ],
      [
        "after",
        -10.377450641128142
      ],
      [
        "▁Captain",
        -10.377792575516
      ],
      [
        "▁Previous",
        -10.378898832585982
      ],
      [
        "▁deserve",
        -10.380218067098141
      ],
      [
        "▁vulnerab",
        -10.380670903616974
      ],
      [
        "▁scared",
        -10.380828164320679
      ],
      [
        "▁Administration",
        -10.381240007066488
      ],
      [
        "standing",
        -10.381851959899029
      ],
      [
        "▁responsibilit",
        -10.3823680772935
      ],
      [
        "▁worship",
        -10.382822750506165
      ],
      [
        "▁amendments",
        -10.383229777151206
      ],
      [
        "▁lady",
        -10.383464873796992
      ],
      [
        "▁Church",
        -10.384071818298535
      ],
      [
        "▁perhaps",
        -10.384109205868013
      ],
      [
        "▁Am",
        -10.384503801218973
      ],
      [
        "▁middle",
        -10.385275440242122
      ],
      [
        "▁Christ",
        -10.385811198313734
      ],
      [
        "▁Timor",
        -10.386162769818778
      ],
      [
        "▁Guinea",
        -10.386912013084768
      ],
      [
        "▁estimate",
        -10.387156355466082
      ],
      [
        "▁Vienn",
        -10.387430262763276
      ],
      [
        "▁sanction",
        -10.387566054217285
      ],
      [
        "▁burn",
        -10.387783156556786
      ],
      [
        "▁influence",
        -10.388560797630221
      ],
      [
        "added",
        -10.389157636144102
      ],
      [
        "▁scene",
        -10.389291782099711
      ],
      [
        "daily",
        -10.389323132340184
      ],
      [
        "lin",
        -10.39020074286195
      ],
      [
        "▁maint",
        -10.391539235701147
      ],
      [
        "▁enhanc",
        -10.391615715667726
      ],
      [
        "▁leader",
        -10.392108369959
      ],
      [
        "▁democratic",
        -10.393483576568613
      ],
      [
        "▁Sweden",
        -10.393763273480797
      ],
      [
        "▁plenar",
        -10.394521958506866
      ],
      [
        "▁comfortabl",
        -10.394882289091848
      ],
      [
        "▁Additional",
        -10.395598917958482
      ],
      [
        "▁merc",
        -10.396249866533001
      ],
      [
        "▁Person",
        -10.396393470749471
      ],
      [
        "▁killing",
        -10.396683000338458
      ],
      [
        "▁sun",
        -10.397821379063469
      ],
      [
        "▁danger",
        -10.397857021996693
      ],
      [
        "▁Put",
        -10.39805185606047
      ],
      [
        "ke",
        -10.398123190976808
      ],
      [
        "▁organ",
        -10.39877107181577
      ],
      [
        "▁title",
        -10.399124570890972
      ],
      [
        "▁prohibit",
        -10.400389851014232
      ],
      [
        "▁Lebanon",
        -10.400598350066081
      ],
      [
        "▁purchase",
        -10.40092845474393
      ],
      [
        "▁camera",
        -10.401616650658617
      ],
      [
        "▁Legal",
        -10.401950283930141
      ],
      [
        "▁star",
        -10.401962013916446
      ],
      [
        "▁approache",
        -10.40213419730286
      ],
      [
        "▁declaration",
        -10.402181725450212
      ],
      [
        "▁tools",
        -10.403552858823371
      ],
      [
        "▁ball",
        -10.404517377081012
      ],
      [
        "army",
        -10.404598877947016
      ],
      [
        "inth",
        -10.40617688061755
      ],
      [
        "▁broad",
        -10.406374466529872
      ],
      [
        "▁Free",
        -10.406387760757854
      ],
      [
        "impossibl",
        -10.406846155598002
      ],
      [
        "▁attacks",
        -10.407040561661463
      ],
      [
        "han",
        -10.40790374881545
      ],
      [
        "▁huge",
        -10.408016135103448
      ],
      [
        "▁Latin",
        -10.408161615021672
      ],
      [
        "▁Discrimination",
        -10.408263775945159
      ],
      [
        "▁stole",
        -10.40862733954933
      ],
      [
        "▁economies",
        -10.41069859048855
      ],
      [
        "▁fix",
        -10.410929387210828
      ],
      [
        "cities",
        -10.410937209962128
      ],
      [
        "▁popular",
        -10.41107477224089
      ],
      [
        "▁wall",
        -10.411907667140355
      ],
      [
        "▁smell",
        -10.412180830828246
      ],
      [
        "▁happens",
        -10.41243963501324
      ],
      [
        "▁custom",
        -10.41267930946372
      ],
      [
        "▁cry",
        -10.41370728950532
      ],
      [
        "▁forever",
        -10.413965830652813
      ],
      [
        "▁Asian",
        -10.414183596942305
      ],
      [
        "▁markets",
        -10.414454447008215
      ],
      [
        "▁wine",
        -10.414537070011068
      ],
      [
        "▁prisoner",
        -10.414794513392316
      ],
      [
        "▁fourth",
        -10.415974187041027
      ],
      [
        "▁Shut",
        -10.416373853945174
      ],
      [
        "▁memor",
        -10.418899831203095
      ],
      [
        "▁extra",
        -10.419569716896389
      ],
      [
        "aribbean",
        -10.421119180765313
      ],
      [
        "▁independence",
        -10.4219858962662
      ],
      [
        "▁nine",
        -10.42251401847426
      ],
      [
        "▁loan",
        -10.422959109781472
      ],
      [
        "▁pull",
        -10.423272557742655
      ],
      [
        "▁pool",
        -10.423598367892161
      ],
      [
        "▁Hell",
        -10.4241978596602
      ],
      [
        "▁displace",
        -10.424562762412757
      ],
      [
        "▁transaction",
        -10.424726694985996
      ],
      [
        "▁files",
        -10.424785470074786
      ],
      [
        "▁expense",
        -10.424992269626646
      ],
      [
        "▁gentle",
        -10.425875428916815
      ],
      [
        "▁supporting",
        -10.425983389220608
      ],
      [
        "▁Car",
        -10.427805053686978
      ],
      [
        "▁sweet",
        -10.427918227292118
      ],
      [
        "▁escape",
        -10.42836778475846
      ],
      [
        "▁Vice",
        -10.428929998973452
      ],
      [
        "▁writing",
        -10.4292144418007
      ],
      [
        "▁wound",
        -10.430148120543738
      ],
      [
        "▁conflicts",
        -10.430804517039244
      ],
      [
        "▁pleasure",
        -10.431097267347333
      ],
      [
        "▁draw",
        -10.431148594054928
      ],
      [
        "ended",
        -10.431278123548685
      ],
      [
        "▁Technical",
        -10.431596047463799
      ],
      [
        "▁Holy",
        -10.432037189904209
      ],
      [
        "▁Price",
        -10.432226355672544
      ],
      [
        "▁click",
        -10.43323471531512
      ],
      [
        "▁resolve",
        -10.433550429385111
      ],
      [
        "▁Jan",
        -10.433614908071121
      ],
      [
        "▁Financial",
        -10.43381816977446
      ],
      [
        "▁Tajikistan",
        -10.434531299763371
      ],
      [
        "▁temporar",
        -10.43462916721577
      ],
      [
        "▁Child",
        -10.434933737784831
      ],
      [
        "▁courts",
        -10.435977522246901
      ],
      [
        "▁Mary",
        -10.436139711440486
      ],
      [
        "▁decrease",
        -10.437423927321424
      ],
      [
        "▁sports",
        -10.437512792056456
      ],
      [
        "▁feet",
        -10.438523184837898
      ],
      [
        "▁garden",
        -10.43925356077844
      ],
      [
        "▁norm",
        -10.439830177348075
      ],
      [
        "▁Strateg",
        -10.440424190759984
      ],
      [
        "▁surface",
        -10.441526835402456
      ],
      [
        "▁radio",
        -10.4428422738188
      ],
      [
        "esterday",
        -10.442882714466652
      ],
      [
        "▁weird",
        -10.442918916026969
      ],
      [
        "▁budd",
        -10.442925905514564
      ],
      [
        "▁labour",
        -10.442929324574294
      ],
      [
        "▁migrant",
        -10.44438852354158
      ],
      [
        "▁Preventi",
        -10.444551148021073
      ],
      [
        "▁killer",
        -10.445172054610694
      ],
      [
        "▁deposit",
        -10.445517685760446
      ],
      [
        "▁Session",
        -10.445924668423093
      ],
      [
        "▁Us",
        -10.447753898963178
      ],
      [
        "▁Regard",
        -10.448445933160052
      ],
      [
        "▁consensus",
        -10.448451951324609
      ],
      [
        "▁Somali",
        -10.448474917124328
      ],
      [
        "▁rid",
        -10.44876992569817
      ],
      [
        "▁protocol",
        -10.450291707361309
      ],
      [
        "▁Encounter",
        -10.450291707842432
      ],
      [
        "▁decade",
        -10.450295311735367
      ],
      [
        "▁Sometime",
        -10.450612017816736
      ],
      [
        "▁declare",
        -10.451189235738541
      ],
      [
        "▁kidd",
        -10.452419329265485
      ],
      [
        "▁agricultural",
        -10.452509228012264
      ],
      [
        "ham",
        -10.453354342036121
      ],
      [
        "▁gold",
        -10.453740804251886
      ],
      [
        "▁fit",
        -10.454165703798392
      ],
      [
        "▁busy",
        -10.455031926840276
      ],
      [
        "▁stone",
        -10.45536869320949
      ],
      [
        "▁speech",
        -10.455857591338209
      ],
      [
        "▁shared",
        -10.45592616510295
      ],
      [
        "▁efficient",
        -10.456027559884696
      ],
      [
        "ritish",
        -10.456343457527371
      ],
      [
        "▁urban",
        -10.456581248122742
      ],
      [
        "▁fool",
        -10.45764699453068
      ],
      [
        "▁hide",
        -10.459338166994243
      ],
      [
        "▁instruction",
        -10.459649190912451
      ],
      [
        "▁bedroom",
        -10.46013301190932
      ],
      [
        "eyond",
        -10.460157727996286
      ],
      [
        "▁Bosnia",
        -10.460770855665587
      ],
      [
        "▁confidence",
        -10.462318529849446
      ],
      [
        "▁Street",
        -10.462539120913213
      ],
      [
        "ter",
        -10.462734357975664
      ],
      [
        "▁fresh",
        -10.46329475913079
      ],
      [
        "▁Sierra",
        -10.463328310894667
      ],
      [
        "▁estimated",
        -10.464171508704819
      ],
      [
        "No",
        -10.464517962873238
      ],
      [
        "learned",
        -10.464573451584538
      ],
      [
        "za",
        -10.46485737995841
      ],
      [
        "erevan",
        -10.465471317152033
      ],
      [
        "▁angr",
        -10.46569943014591
      ],
      [
        "▁Stay",
        -10.466950244658008
      ],
      [
        "latest",
        -10.467369573919033
      ],
      [
        "▁mouth",
        -10.46791490017813
      ],
      [
        "▁intention",
        -10.468054221520678
      ],
      [
        "we",
        -10.468337413347069
      ],
      [
        "▁Norwa",
        -10.468508008029701
      ],
      [
        "▁consent",
        -10.468967493512874
      ],
      [
        "▁Should",
        -10.468970574555918
      ],
      [
        "▁display",
        -10.470086403076207
      ],
      [
        "▁assign",
        -10.470425083335968
      ],
      [
        "▁operate",
        -10.470574562799854
      ],
      [
        "▁hearing",
        -10.471861363481677
      ],
      [
        "forum",
        -10.472153423603636
      ],
      [
        "▁Black",
        -10.473370310586974
      ],
      [
        "▁voluntar",
        -10.473377593180421
      ],
      [
        "▁blue",
        -10.474057654897063
      ],
      [
        "▁ma",
        -10.474712404929168
      ],
      [
        "▁THE",
        -10.476063987538476
      ],
      [
        "▁Region",
        -10.47619746614409
      ],
      [
        "▁senior",
        -10.476535004204745
      ],
      [
        "tic",
        -10.477765463534835
      ],
      [
        "▁Pacific",
        -10.478937635990553
      ],
      [
        "▁Croatia",
        -10.479421807865467
      ],
      [
        "▁Joe",
        -10.47975795372595
      ],
      [
        "▁Joine",
        -10.480320579513903
      ],
      [
        "▁Ad",
        -10.480387663636709
      ],
      [
        "▁Um",
        -10.480396030877724
      ],
      [
        "▁traffic",
        -10.481374317863569
      ],
      [
        "▁Mon",
        -10.481700150831262
      ],
      [
        "▁foundation",
        -10.481781769216145
      ],
      [
        "per",
        -10.483053494884988
      ],
      [
        "▁eliminate",
        -10.48343511269821
      ],
      [
        "third",
        -10.483593915153538
      ],
      [
        "▁acting",
        -10.483892352030098
      ],
      [
        "▁idiot",
        -10.484071245608604
      ],
      [
        "▁signal",
        -10.485376002462921
      ],
      [
        "▁via",
        -10.485725672565383
      ],
      [
        "ence",
        -10.48591081017236
      ],
      [
        "▁package",
        -10.48631056787589
      ],
      [
        "▁combine",
        -10.487229504151525
      ],
      [
        "▁Question",
        -10.49015724487553
      ],
      [
        "▁appointment",
        -10.490224153100243
      ],
      [
        "▁smart",
        -10.490318978109652
      ],
      [
        "▁rapid",
        -10.490491512003507
      ],
      [
        "Z",
        -10.49097864058275
      ],
      [
        "▁Pakistan",
        -10.491410104406018
      ],
      [
        "▁blame",
        -10.491426914318188
      ],
      [
        "▁concrete",
        -10.49184630332612
      ],
      [
        "▁quarter",
        -10.491972962173078
      ],
      [
        "▁Fire",
        -10.492139287935474
      ],
      [
        "▁tri",
        -10.492712877233469
      ],
      [
        "kg",
        -10.493142067434613
      ],
      [
        "▁Bo",
        -10.49366291777609
      ],
      [
        "▁recognition",
        -10.493786840300828
      ],
      [
        "▁ruin",
        -10.493917658680495
      ],
      [
        "▁prepar",
        -10.494638264799953
      ],
      [
        "▁Officer",
        -10.494878038838255
      ],
      [
        "▁Goals",
        -10.495446944796544
      ],
      [
        "▁stoppe",
        -10.495951593804923
      ],
      [
        "▁occurr",
        -10.496141105851281
      ],
      [
        "▁bag",
        -10.496620796423587
      ],
      [
        "▁prayer",
        -10.496794550729106
      ],
      [
        "▁Leave",
        -10.497163771260173
      ],
      [
        "▁Check",
        -10.4976233841571
      ],
      [
        "▁photos",
        -10.49806824882526
      ],
      [
        "▁actors",
        -10.498146524341447
      ],
      [
        "▁governments",
        -10.498763574489454
      ],
      [
        "▁primari",
        -10.499405757276673
      ],
      [
        "▁disappear",
        -10.499407963653436
      ],
      [
        "▁injur",
        -10.499565464035118
      ],
      [
        "▁actual",
        -10.500132733907797
      ],
      [
        "▁bastard",
        -10.501536305591554
      ],
      [
        "▁Zealand",
        -10.501537091441392
      ],
      [
        "▁sixty",
        -10.501668737180674
      ],
      [
        "▁judges",
        -10.501700580853745
      ],
      [
        "▁medium",
        -10.501894616650128
      ],
      [
        "▁Leone",
        -10.50271685753312
      ],
      [
        "▁Model",
        -10.503578494617145
      ],
      [
        "▁Christmas",
        -10.504833605018085
      ],
      [
        "▁substantial",
        -10.50543992203054
      ],
      [
        "▁copy",
        -10.505990534577494
      ],
      [
        "United",
        -10.506041379399957
      ],
      [
        "▁believer",
        -10.506119703530448
      ],
      [
        "mobile",
        -10.506568229872421
      ],
      [
        "▁exceed",
        -10.506658588637563
      ],
      [
        "▁cell",
        -10.507045868342548
      ],
      [
        "▁tool",
        -10.508573594291086
      ],
      [
        "▁variet",
        -10.510834399671152
      ],
      [
        "▁Mike",
        -10.511764163709449
      ],
      [
        "▁expression",
        -10.511764280892164
      ],
      [
        "hose",
        -10.51207442843048
      ],
      [
        "▁worrie",
        -10.512549805594682
      ],
      [
        "▁grounds",
        -10.51259815920551
      ],
      [
        "▁fighting",
        -10.513265675547867
      ],
      [
        "▁sovereign",
        -10.513289613488643
      ],
      [
        "use",
        -10.515174941594092
      ],
      [
        "▁saving",
        -10.516408359018115
      ],
      [
        "▁observer",
        -10.516610340172114
      ],
      [
        "▁description",
        -10.517409000347591
      ],
      [
        "X",
        -10.517598603351875
      ],
      [
        "▁democracy",
        -10.518094227070367
      ],
      [
        "authorized",
        -10.518598868621574
      ],
      [
        "▁ran",
        -10.520220383024093
      ],
      [
        "▁Frank",
        -10.52024898044223
      ],
      [
        "ou",
        -10.520421232735298
      ],
      [
        "▁liabilit",
        -10.521308395302842
      ],
      [
        "▁reading",
        -10.521368816583475
      ],
      [
        "▁element",
        -10.521715285295041
      ],
      [
        "▁channel",
        -10.52212024139654
      ],
      [
        "free",
        -10.523054577771358
      ],
      [
        "▁bus",
        -10.523248388174775
      ],
      [
        "▁observe",
        -10.523545204425865
      ],
      [
        "▁involvement",
        -10.5236630954033
      ],
      [
        "▁plane",
        -10.524693655774291
      ],
      [
        "view",
        -10.524945823387863
      ],
      [
        "▁kitchen",
        -10.525169924568251
      ],
      [
        "▁conversation",
        -10.525182713194932
      ],
      [
        "▁Resource",
        -10.525347994201752
      ],
      [
        "▁Chairperson",
        -10.525388812010608
      ],
      [
        "care",
        -10.526574852311343
      ],
      [
        "▁Paragraph",
        -10.527180449569746
      ],
      [
        "▁ride",
        -10.52845860821025
      ],
      [
        "▁honey",
        -10.529183053491
      ],
      [
        "▁shop",
        -10.529633284483767
      ],
      [
        "▁Northern",
        -10.53118916285619
      ],
      [
        "▁strict",
        -10.53119031266731
      ],
      [
        "▁heads",
        -10.532061770407442
      ],
      [
        "▁causes",
        -10.532114693820857
      ],
      [
        "▁Out",
        -10.532454452698113
      ],
      [
        "nforcement",
        -10.532537744288199
      ],
      [
        "▁bill",
        -10.532748151278097
      ],
      [
        "▁square",
        -10.533124860151482
      ],
      [
        "▁grateful",
        -10.53510367383729
      ],
      [
        "▁delivered",
        -10.53720733876349
      ],
      [
        "▁standing",
        -10.537216367302031
      ],
      [
        "▁messenger",
        -10.537219029415587
      ],
      [
        "▁driving",
        -10.53721950235202
      ],
      [
        "asily",
        -10.537566278650303
      ],
      [
        "▁vessel",
        -10.539239787595758
      ],
      [
        "▁Societ",
        -10.540193054197244
      ],
      [
        "You",
        -10.540530859706866
      ],
      [
        "▁girlfriend",
        -10.540753391555146
      ],
      [
        "uk",
        -10.54121376723235
      ],
      [
        "▁Congress",
        -10.541315097719554
      ],
      [
        "▁Eastern",
        -10.54163080471165
      ],
      [
        "▁Eliminati",
        -10.541793643702974
      ],
      [
        "▁Alexander",
        -10.543348751217033
      ],
      [
        "ler",
        -10.543439926977562
      ],
      [
        "▁documentation",
        -10.54426401538003
      ],
      [
        "▁Mm",
        -10.544511646172303
      ],
      [
        "▁Press",
        -10.544822113261905
      ],
      [
        "work",
        -10.545820980836428
      ],
      [
        "▁wors",
        -10.545963097681955
      ],
      [
        "▁Send",
        -10.54604854302923
      ],
      [
        "▁Comment",
        -10.546358224243408
      ],
      [
        "▁tired",
        -10.54684896157126
      ],
      [
        "▁Standard",
        -10.546857028308867
      ],
      [
        "▁meaning",
        -10.547254906373336
      ],
      [
        "▁burden",
        -10.547361554904853
      ],
      [
        "▁Hmm",
        -10.547401708571854
      ],
      [
        "▁skin",
        -10.547923674657914
      ],
      [
        "▁north",
        -10.54827670996361
      ],
      [
        "▁Indonesia",
        -10.548758656544653
      ],
      [
        "▁push",
        -10.549052014508366
      ],
      [
        "▁stakeholder",
        -10.54986770283331
      ],
      [
        "lan",
        -10.550120718358958
      ],
      [
        "bid",
        -10.551121841984957
      ],
      [
        "▁collective",
        -10.551647620004072
      ],
      [
        "▁grave",
        -10.551958756804694
      ],
      [
        "▁theme",
        -10.552314250773165
      ],
      [
        "▁wishe",
        -10.552388823846968
      ],
      [
        "▁Chamber",
        -10.552627012597979
      ],
      [
        "▁Water",
        -10.552852335500841
      ],
      [
        "▁sounds",
        -10.553617033629397
      ],
      [
        "▁Mark",
        -10.553730723381724
      ],
      [
        "▁adult",
        -10.554014528992482
      ],
      [
        "▁currenc",
        -10.554215177580362
      ],
      [
        "▁email",
        -10.555260995783538
      ],
      [
        "▁James",
        -10.555568132347702
      ],
      [
        "ja",
        -10.555742949435698
      ],
      [
        "▁defense",
        -10.556114072443778
      ],
      [
        "▁settle",
        -10.556659634751899
      ],
      [
        "▁realit",
        -10.556914172543806
      ],
      [
        "▁vision",
        -10.55797473940399
      ],
      [
        "▁Construction",
        -10.558689046791915
      ],
      [
        "▁bigge",
        -10.559110375692814
      ],
      [
        "▁port",
        -10.559597236223357
      ],
      [
        "▁Internal",
        -10.559679264229148
      ],
      [
        "▁Ri",
        -10.559731021147828
      ],
      [
        "▁Records",
        -10.560230519963293
      ],
      [
        "▁sessions",
        -10.561686513575028
      ],
      [
        "▁holiday",
        -10.561734995226555
      ],
      [
        "▁Argentina",
        -10.562104623768278
      ],
      [
        "▁Coordinati",
        -10.56312516488775
      ],
      [
        "▁profit",
        -10.56321945869996
      ],
      [
        "wood",
        -10.564090500111408
      ],
      [
        "▁powerful",
        -10.564128973254238
      ],
      [
        "▁banks",
        -10.56428974595439
      ],
      [
        "▁Rome",
        -10.564826287509366
      ],
      [
        "▁nonsens",
        -10.565117096661545
      ],
      [
        "▁Budget",
        -10.565882026111417
      ],
      [
        "▁afternoon",
        -10.565908192476911
      ],
      [
        "▁Real",
        -10.567489513333495
      ],
      [
        "▁wanna",
        -10.567961005594313
      ],
      [
        "▁numero",
        -10.567969120090106
      ],
      [
        "▁bought",
        -10.568112105451178
      ],
      [
        "ez",
        -10.568140449323751
      ],
      [
        "off",
        -10.568447140210251
      ],
      [
        "▁occur",
        -10.569550533175644
      ],
      [
        "▁forecast",
        -10.570053071051305
      ],
      [
        "▁famous",
        -10.570746353153792
      ],
      [
        "▁career",
        -10.571340347023781
      ],
      [
        "▁obstacle",
        -10.572130092955849
      ],
      [
        "▁Messenger",
        -10.572130098390097
      ],
      [
        "▁birthday",
        -10.572190919692165
      ],
      [
        "▁angel",
        -10.57240897339879
      ],
      [
        "▁brain",
        -10.572763697591434
      ],
      [
        "▁specialize",
        -10.572844124243783
      ],
      [
        "▁solve",
        -10.572927397577862
      ],
      [
        "▁instance",
        -10.574241774971945
      ],
      [
        "▁Thai",
        -10.575135220113156
      ],
      [
        "▁suffering",
        -10.575254909751322
      ],
      [
        "▁lift",
        -10.575636504161139
      ],
      [
        "▁Space",
        -10.577322480113391
      ],
      [
        "▁planet",
        -10.577638837022173
      ],
      [
        "▁occupied",
        -10.577886275989123
      ],
      [
        "▁Remember",
        -10.577948711269293
      ],
      [
        "▁Resolution",
        -10.577998463190523
      ],
      [
        "▁corrupti",
        -10.578023238435758
      ],
      [
        "▁competent",
        -10.578435272611149
      ],
      [
        "▁beat",
        -10.57969231751672
      ],
      [
        "▁absolutely",
        -10.580131144550265
      ],
      [
        "▁soldiers",
        -10.580780203660206
      ],
      [
        "▁Syrian",
        -10.580917442738993
      ],
      [
        "ture",
        -10.582188954148418
      ],
      [
        "▁Number",
        -10.582445152607754
      ],
      [
        "▁clothes",
        -10.582663170033218
      ],
      [
        "▁dedicated",
        -10.582911254241502
      ],
      [
        "▁existen",
        -10.583188443199763
      ],
      [
        "board",
        -10.583192167892136
      ],
      [
        "▁taste",
        -10.583280820047786
      ],
      [
        "▁reduced",
        -10.583419068541746
      ],
      [
        "▁camp",
        -10.58436108560269
      ],
      [
        "our",
        -10.584823860353819
      ],
      [
        "▁failed",
        -10.585614606552696
      ],
      [
        "▁Log",
        -10.58561520458294
      ],
      [
        "q",
        -10.585666884725422
      ],
      [
        "min",
        -10.586462767626024
      ],
      [
        "chi",
        -10.58774536744972
      ],
      [
        "▁Supplement",
        -10.588096696071824
      ],
      [
        "▁lunch",
        -10.58899040483988
      ],
      [
        "▁procurement",
        -10.588992160145791
      ],
      [
        "iv",
        -10.589869019626907
      ],
      [
        "▁Bar",
        -10.589955754034847
      ],
      [
        "erritories",
        -10.59094393831541
      ],
      [
        "▁illicit",
        -10.591137526695846
      ],
      [
        "▁Herz",
        -10.591716247658066
      ],
      [
        "▁Romania",
        -10.59223196492104
      ],
      [
        "▁Turk",
        -10.592803458876634
      ],
      [
        "▁lies",
        -10.59300047139731
      ],
      [
        "Rev",
        -10.593600910929922
      ],
      [
        "▁rehabilitati",
        -10.594089573347405
      ],
      [
        "▁summar",
        -10.594431488254456
      ],
      [
        "▁visitor",
        -10.594514064043505
      ],
      [
        "What",
        -10.594521503436491
      ],
      [
        "▁occupation",
        -10.594532241133898
      ],
      [
        "▁Ukrainian",
        -10.594825947325198
      ],
      [
        "egovin",
        -10.595389433920293
      ],
      [
        "▁Land",
        -10.596503066251074
      ],
      [
        "▁Dec",
        -10.596643270328148
      ],
      [
        "▁permit",
        -10.598138429540388
      ],
      [
        "▁web",
        -10.598350683558518
      ],
      [
        "ware",
        -10.59838602798337
      ],
      [
        "▁worker",
        -10.59843253125157
      ],
      [
        "▁warn",
        -10.598463310106503
      ],
      [
        "▁compare",
        -10.599102786293304
      ],
      [
        "▁relax",
        -10.599680125816445
      ],
      [
        "▁sitting",
        -10.600029816190732
      ],
      [
        "▁Greece",
        -10.60019308278956
      ],
      [
        "▁sad",
        -10.600332644287814
      ],
      [
        "▁Technology",
        -10.600564089129115
      ],
      [
        "▁weak",
        -10.600830044991163
      ],
      [
        "▁Sub",
        -10.601025378265321
      ],
      [
        "▁forgot",
        -10.60151799387507
      ],
      [
        "▁exploitati",
        -10.601551686188655
      ],
      [
        "▁anniversar",
        -10.601891803661985
      ],
      [
        "▁tea",
        -10.602265382681155
      ],
      [
        "▁Turn",
        -10.603089030564922
      ],
      [
        "relief",
        -10.603117456561186
      ],
      [
        "▁arm",
        -10.606107209045621
      ],
      [
        "pregnant",
        -10.606140175905342
      ],
      [
        "▁sake",
        -10.606181864639627
      ],
      [
        "ach",
        -10.607271451310643
      ],
      [
        "▁proud",
        -10.608307426029128
      ],
      [
        "▁mad",
        -10.608492981069464
      ],
      [
        "▁emerg",
        -10.608989001616408
      ],
      [
        "▁platform",
        -10.609919531135255
      ],
      [
        "▁transferr",
        -10.611473066628406
      ],
      [
        "▁penalt",
        -10.612408134810064
      ],
      [
        "▁steal",
        -10.612648309950156
      ],
      [
        "▁rent",
        -10.613703060393824
      ],
      [
        "▁battle",
        -10.614809295975052
      ],
      [
        "▁Headquarter",
        -10.614830839961202
      ],
      [
        "▁Serious",
        -10.614831562005223
      ],
      [
        "▁style",
        -10.61507606429484
      ],
      [
        "▁lines",
        -10.615511716432877
      ],
      [
        "▁license",
        -10.615965706859665
      ],
      [
        "▁Japanese",
        -10.616196632912796
      ],
      [
        "▁band",
        -10.616911444999296
      ],
      [
        "▁south",
        -10.619057798930527
      ],
      [
        "▁aircraft",
        -10.619315386032039
      ],
      [
        "significantly",
        -10.61947445432832
      ],
      [
        "▁mid",
        -10.61996151872709
      ],
      [
        "▁implications",
        -10.62068793341292
      ],
      [
        "all",
        -10.620889549964527
      ],
      [
        "▁wake",
        -10.621466317118724
      ],
      [
        "▁seeking",
        -10.621723141619892
      ],
      [
        "▁minister",
        -10.621738957718215
      ],
      [
        "▁hang",
        -10.621890509158145
      ],
      [
        "▁commit",
        -10.621925868083196
      ],
      [
        "▁spot",
        -10.622871626201299
      ],
      [
        "▁gives",
        -10.622879155927325
      ],
      [
        "▁Italian",
        -10.62329108968856
      ],
      [
        "▁Cultural",
        -10.62358857238447
      ],
      [
        "▁route",
        -10.6237472120008
      ],
      [
        "▁showed",
        -10.624348271973762
      ],
      [
        "▁neighbor",
        -10.62436213343653
      ],
      [
        "topic",
        -10.624377120843436
      ],
      [
        "art",
        -10.624675061931875
      ],
      [
        "▁min",
        -10.62610556497907
      ],
      [
        "▁minor",
        -10.626228499126412
      ],
      [
        "▁certificate",
        -10.62633955858556
      ],
      [
        "▁Austria",
        -10.626760403109246
      ],
      [
        "▁cook",
        -10.62702936418529
      ],
      [
        "▁equipp",
        -10.62714385997317
      ],
      [
        "▁Labou",
        -10.627340511941108
      ],
      [
        "▁transparenc",
        -10.62799852387621
      ],
      [
        "Charlie",
        -10.628088086187365
      ],
      [
        "▁regret",
        -10.628857428687503
      ],
      [
        "▁Astana",
        -10.629589585803394
      ],
      [
        "▁automatic",
        -10.629647823552617
      ],
      [
        "▁centre",
        -10.630114832540638
      ],
      [
        "▁corporate",
        -10.630116802693397
      ],
      [
        "▁gap",
        -10.630278944195272
      ],
      [
        "▁worldwide",
        -10.63054466360302
      ],
      [
        "▁twi",
        -10.630633875944547
      ],
      [
        "▁cycle",
        -10.630661546351465
      ],
      [
        "▁heavy",
        -10.631245502542555
      ],
      [
        "▁Le",
        -10.631353929816578
      ],
      [
        "how",
        -10.631392391522162
      ],
      [
        "▁sold",
        -10.631709735323318
      ],
      [
        "▁mix",
        -10.632229171940617
      ],
      [
        "▁Henry",
        -10.632441215398604
      ],
      [
        "▁subsidiar",
        -10.632520158348091
      ],
      [
        "▁Control",
        -10.632838586426873
      ],
      [
        "▁overview",
        -10.632991049411748
      ],
      [
        "▁glass",
        -10.633144119068499
      ],
      [
        "ourselve",
        -10.63431007300327
      ],
      [
        "▁satellite",
        -10.63457349653779
      ],
      [
        "▁Britain",
        -10.634651136438395
      ],
      [
        "hi",
        -10.634849539782124
      ],
      [
        "▁shift",
        -10.635310021704662
      ],
      [
        "wide",
        -10.6358592611739
      ],
      [
        "▁panel",
        -10.635923821381573
      ],
      [
        "▁metal",
        -10.636168771423272
      ],
      [
        "▁survive",
        -10.63626036717595
      ],
      [
        "▁School",
        -10.636308795043437
      ],
      [
        "▁Rules",
        -10.63655548720971
      ],
      [
        "ntroduction",
        -10.63719563108808
      ],
      [
        "▁beside",
        -10.638053276110984
      ],
      [
        "stair",
        -10.63836590708528
      ],
      [
        "▁album",
        -10.638665370702888
      ],
      [
        "▁characteristic",
        -10.639124456043504
      ],
      [
        "▁warning",
        -10.640356374303334
      ],
      [
        "▁statistical",
        -10.64079361876843
      ],
      [
        "▁decline",
        -10.641355973506446
      ],
      [
        "▁specialist",
        -10.641988412173756
      ],
      [
        "▁capabilit",
        -10.644421450469647
      ],
      [
        "▁hotels",
        -10.64461628399022
      ],
      [
        "▁indicat",
        -10.645159801630172
      ],
      [
        "New",
        -10.64558742525789
      ],
      [
        "▁White",
        -10.645727359401182
      ],
      [
        "▁permission",
        -10.645881807533105
      ],
      [
        "▁fee",
        -10.645934052010023
      ],
      [
        "▁fixed",
        -10.648042371374629
      ],
      [
        "▁download",
        -10.648422918865098
      ],
      [
        "▁jump",
        -10.649046644952346
      ],
      [
        "▁season",
        -10.650444219122699
      ],
      [
        "▁pro",
        -10.65140859060967
      ],
      [
        "▁Business",
        -10.651645170946779
      ],
      [
        "sburg",
        -10.652249675812467
      ],
      [
        "▁integrat",
        -10.652482370994777
      ],
      [
        "▁Trust",
        -10.652646109397546
      ],
      [
        "▁books",
        -10.653466190876497
      ],
      [
        "her",
        -10.65349823077708
      ],
      [
        "▁Islands",
        -10.653553056781622
      ],
      [
        "▁hire",
        -10.65388142041748
      ],
      [
        "▁Ta",
        -10.653893692169408
      ],
      [
        "▁upset",
        -10.654059226256283
      ],
      [
        "▁undertake",
        -10.654819063201689
      ],
      [
        "second",
        -10.654837171240743
      ],
      [
        "▁invitation",
        -10.654875865981648
      ],
      [
        "▁comply",
        -10.654913274946825
      ],
      [
        "economic",
        -10.655132723037681
      ],
      [
        "▁membership",
        -10.655375075313202
      ],
      [
        "▁names",
        -10.65629621889363
      ],
      [
        "▁concert",
        -10.65631735655344
      ],
      [
        "▁boat",
        -10.656819133974114
      ],
      [
        "▁advisor",
        -10.657034144825799
      ],
      [
        "▁mental",
        -10.657085289933693
      ],
      [
        "▁diplomatic",
        -10.657337517538451
      ],
      [
        "▁la",
        -10.657480830517468
      ],
      [
        "▁selection",
        -10.657781028509799
      ],
      [
        "▁consumption",
        -10.65942811491194
      ],
      [
        "▁Max",
        -10.660482210713745
      ],
      [
        "▁historical",
        -10.661249983007961
      ],
      [
        "▁kick",
        -10.661719739286255
      ],
      [
        "▁net",
        -10.661720365549133
      ],
      [
        "▁subregional",
        -10.66201185943768
      ],
      [
        "▁UNEP",
        -10.6624000856153
      ],
      [
        "▁reduc",
        -10.66270638748541
      ],
      [
        "▁severe",
        -10.663075194052634
      ],
      [
        "▁Art",
        -10.663770858392798
      ],
      [
        "▁calendar",
        -10.66391874864382
      ],
      [
        "ex",
        -10.665508687099443
      ],
      [
        "▁fan",
        -10.666355508600716
      ],
      [
        "▁pilot",
        -10.666464311393918
      ],
      [
        "▁Gar",
        -10.666886147469222
      ],
      [
        "▁USA",
        -10.667036912607362
      ],
      [
        "ble",
        -10.667356064646189
      ],
      [
        "▁capabl",
        -10.667669989979945
      ],
      [
        "▁integr",
        -10.667890711393524
      ],
      [
        "▁wealth",
        -10.667892961595811
      ],
      [
        "air",
        -10.66826446286546
      ],
      [
        "▁brief",
        -10.66922263500811
      ],
      [
        "▁Kuwait",
        -10.670125494993812
      ],
      [
        "▁beach",
        -10.670227094779829
      ],
      [
        "▁distance",
        -10.670276504326617
      ],
      [
        "▁suppose",
        -10.670401195386694
      ],
      [
        "▁attract",
        -10.670578607709299
      ],
      [
        "▁Prosecutor",
        -10.670894467885248
      ],
      [
        "▁passenger",
        -10.67089970889923
      ],
      [
        "▁sight",
        -10.671135372229106
      ],
      [
        "▁storage",
        -10.671167693047611
      ],
      [
        "▁tank",
        -10.671302614904373
      ],
      [
        "broad",
        -10.671958570895335
      ],
      [
        "▁Has",
        -10.67336682960681
      ],
      [
        "can",
        -10.673388718737083
      ],
      [
        "▁Q",
        -10.673571580327646
      ],
      [
        "ck",
        -10.67373426656826
      ],
      [
        "▁threaten",
        -10.673899172269916
      ],
      [
        "atisfaction",
        -10.674790968186528
      ],
      [
        "▁regulator",
        -10.674909797454909
      ],
      [
        "▁Lithuania",
        -10.675147937765592
      ],
      [
        "▁admit",
        -10.67547043415349
      ],
      [
        "▁thirt",
        -10.675498723298713
      ],
      [
        "▁Got",
        -10.675647973122498
      ],
      [
        "▁caus",
        -10.675792062217447
      ],
      [
        "▁compar",
        -10.676178754427118
      ],
      [
        "▁Food",
        -10.67646219050182
      ],
      [
        "▁alleged",
        -10.676608055123697
      ],
      [
        "▁Authority",
        -10.67799270034029
      ],
      [
        "▁Territor",
        -10.67907786214466
      ],
      [
        "▁transmitt",
        -10.679558787604211
      ],
      [
        "▁Weapons",
        -10.680321457561048
      ],
      [
        "▁output",
        -10.68048790903985
      ],
      [
        "▁green",
        -10.682384743967852
      ],
      [
        "▁easie",
        -10.682534235869301
      ],
      [
        "▁examination",
        -10.682559307443011
      ],
      [
        "mar",
        -10.684800239939904
      ],
      [
        "▁supplement",
        -10.684831969635887
      ],
      [
        "Palestine",
        -10.684831971069507
      ],
      [
        "▁marry",
        -10.684837838043993
      ],
      [
        "▁expansion",
        -10.684953099811267
      ],
      [
        "▁righteous",
        -10.684994236735237
      ],
      [
        "▁centres",
        -10.68500737664008
      ],
      [
        "set",
        -10.6853062222896
      ],
      [
        "▁strike",
        -10.68696368437292
      ],
      [
        "▁Task",
        -10.687186820940692
      ],
      [
        "pdf",
        -10.687235822978142
      ],
      [
        "▁cheap",
        -10.689036095987818
      ],
      [
        "▁Life",
        -10.689283973507884
      ],
      [
        "▁drunk",
        -10.689482321046377
      ],
      [
        "▁Issue",
        -10.690606203975598
      ],
      [
        "▁Mac",
        -10.691152843955074
      ],
      [
        "house",
        -10.69184497449906
      ],
      [
        "▁witnesse",
        -10.692944764315783
      ],
      [
        "▁Cypr",
        -10.693183868612497
      ],
      [
        "▁Main",
        -10.693613145106589
      ],
      [
        "▁blind",
        -10.69431851085941
      ],
      [
        "▁River",
        -10.69440048608292
      ],
      [
        "▁Framework",
        -10.696596805642239
      ],
      [
        "▁allocate",
        -10.697460146851684
      ],
      [
        "▁Fift",
        -10.698500162052376
      ],
      [
        "▁sales",
        -10.69861547791091
      ],
      [
        "▁Latvia",
        -10.698649287384836
      ],
      [
        "URL",
        -10.698918662454457
      ],
      [
        "▁ice",
        -10.699774053915196
      ],
      [
        "▁Guy",
        -10.699850220154156
      ],
      [
        "▁identit",
        -10.70163465187213
      ],
      [
        "▁roll",
        -10.701892966123268
      ],
      [
        "▁Safe",
        -10.70306867926939
      ],
      [
        "▁Mother",
        -10.703343589008714
      ],
      [
        "▁Bulgaria",
        -10.703388265793123
      ],
      [
        "▁rain",
        -10.703489057135311
      ],
      [
        "bank",
        -10.704510124927523
      ],
      [
        "▁Both",
        -10.704512359571428
      ],
      [
        "▁pursue",
        -10.704747000054144
      ],
      [
        "▁Monitor",
        -10.70497336129026
      ],
      [
        "▁proof",
        -10.70575478210025
      ],
      [
        "▁television",
        -10.706110042633112
      ],
      [
        "▁deny",
        -10.706875787107851
      ],
      [
        "▁rock",
        -10.707297750324951
      ],
      [
        "▁Communication",
        -10.707362968050644
      ],
      [
        "▁stick",
        -10.707566728905059
      ],
      [
        "▁honour",
        -10.707751530645558
      ],
      [
        "▁Soviet",
        -10.70787475604807
      ],
      [
        "▁college",
[...]
