{
  "version": "1.0",
  "truncation": null,
  "padding": null,
  "added_tokens": [
    {
      "id": 0,
      "content": "<pad>",
      "single_word": false,
      "lstrip": false,
      "rstrip": false,
      "normalized": false,
      "special": true
    },
    {
      "id": 1,
      "content": "<s>",
      "single_word": false,
      "lstrip": false,
      "rstrip": false,
      "normalized": false,
      "special": true
    },
    {
      "id": 2,
      "content": "</s>",
      "single_word": false,
      "lstrip": false,
      "rstrip": false,
      "normalized": false,
      "special": true
    },
    {
      "id": 3,
      "content": "<unk>",
      "single_word": false,
      "lstrip": false,
      "rstrip": false,
      "normalized": false,
      "special": true
    }
  ],
  "normalizer": {
    "type": "NFKC"
  },
  "pre_tokenizer": {
    "type": "Sequence",
    "pretokenizers": [
      {
        "type": "Metaspace",
        "replacement": "▁",
        "prepend_scheme": "always",
        "split": true
      },
      {
        "type": "Punctuation",
        "behavior": "Isolated"
      },
      {
        "type": "Digits",
        "individual_digits": true
      }
    ]
  },
  "post_processor": {
    "type": "TemplateProcessing",
    "single": [
      {
        "SpecialToken": {
          "id": "<s>",
          "type_id": 0
        }
      },
      {
        "Sequence": {
          "id": "A",
          "type_id": 0
        }
      },
      {
        "SpecialToken": {
          "id": "</s>",
          "type_id": 0
        }
      }
    ],
    "pair": [
      {
        "Sequence": {
          "id": "A",
          "type_id": 0
        }
      },
      {
        "Sequence": {
          "id": "B",
          "type_id": 1
        }
      }
    ],
    "special_tokens": {
      "</s>": {
        "id": "</s>",
        "ids": [
          2
        ],
        "tokens": [
          "</s>"
        ]
      },
      "<s>": {
        "id": "<s>",
        "ids": [
          1
        ],
        "tokens": [
          "<s>"
        ]
      }
    }
  },
  "decoder": {
    "type": "Metaspace",
    "replacement": "▁",
    "prepend_scheme": "always",
    "split": true
  },
  "model": {
    "type": "Unigram",
    "unk_id": 3,
    "vocab": [
      [
        "<pad>",
        0.0
      ],
      [
        "<s>",
        0.0
      ],
      [
        "</s>",
        0.0
      ],
      [
        "<unk>",
        0.0
      ],
      [
        "▁",
        -1.8931949549015528
      ],
      [
        ",",
        -3.0842394737434287
      ],
      [
        "и",
        -3.366286452940683
      ],
      [
        ".",
        -3.487060554643877
      ],
      [
        "е",
        -3.9542437244681015
      ],
      [
        "в",
        -3.9832728205640855
      ],
      [
        "а",
        -4.366289911073196
      ],
      [
        "й",
        -4.414752151590944
      ],
      [
        "0",
        -4.689765691875866
      ],
      [
        "с",
        -4.718151467321858
      ],
      [
        "м",
        -4.757737321655167
      ],
      [
        "х",
        -4.812140588593108
      ],
      [
        "-",
        -4.817395307367059
      ],
      [
        "1",
        -4.82243952316864
      ],
      [
        "▁на",
        -4.95061054277692
      ],
      [
        "ы",
        -4.9753997782061585
      ],
      [
        "2",
        -5.00178707509024
      ],
      [
        "у",
        -5.008145197420051
      ],
      [
        "я",
        -5.124226144926471
      ],
      [
        ":",
        -5.12452152292914
      ],
      [
        "о",
        -5.13336875468592
      ],
      [
        "▁не",
        -5.288346713046446
      ],
      [
        "к",
        -5.396233565130688
      ],
      [
        "▁по",
        -5.40916891096842
      ],
      [
        "го",
        -5.524530951425147
      ],
      [
        "▁что",
        -5.588892403103438
      ],
      [
        ")",
        -5.598916759441302
      ],
      [
        "▁для",
        -5.629135022781542
      ],
      [
        "3",
        -5.661100128676464
      ],
      [
        "(",
        -5.665376094863271
      ],
      [
        "5",
        -5.701405540510548
      ],
      [
        "ю",
        -5.738650522068131
      ],
      [
        "т",
        -5.748609139721449
      ],
      [
        "4",
        -5.821166775223174
      ],
      [
        "ов",
        -5.929942134255446
      ],
      [
        "▁В",
        -5.935888113015231
      ],
      [
        "ом",
        -5.936358864610584
      ],
      [
        "9",
        -5.949621100759758
      ],
      [
        "6",
        -6.034178291395776
      ],
      [
        "»",
        -6.048857454058814
      ],
      [
        "«",
        -6.069888565919751
      ],
      [
        "▁из",
        -6.113921054532648
      ],
      [
        "8",
        -6.124295021176321
      ],
      [
        "\"",
        -6.139590257497542
      ],
      [
        "7",
        -6.153838078833047
      ],
      [
        "▁от",
        -6.156231775490939
      ],
      [
        "ая",
        -6.1732926901725556
      ],
      [
        "▁как",
        -6.196751460645787
      ],
      [
        "ми",
        -6.222958719259546
      ],
      [
        "▁за",
        -6.254209796518728
      ],
      [
        "▁или",
        -6.280659172416261
      ],
      [
        "▁это",
        -6.378924797405562
      ],
      [
        "ь",
        -6.389415697831749
      ],
      [
        "ся",
        -6.396685234003813
      ],
      [
        "/",
        -6.402588862094097
      ],
      [
        ";",
        -6.415166815797523
      ],
      [
        "?",
        -6.428962305700081
      ],
      [
        "ой",
        -6.450439513981236
      ],
      [
        "▁вы",
        -6.454176040402007
      ],
      [
        "н",
        -6.530125853706551
      ],
      [
        "—",
        -6.569741993090579
      ],
      [
        "ть",
        -6.662951919777999
      ],
      [
        "г",
        -6.69675855015395
      ],
      [
        "ую",
        -6.722029723646791
      ],
      [
        "▁его",
        -6.757988251526697
      ],
      [
        "▁также",
        -6.760748139166358
      ],
      [
        "▁при",
        -6.762175134574388
      ],
      [
        "▁до",
        -6.818787296472424
      ],
      [
        "л",
        -6.829118626969796
      ],
      [
        "▁чтобы",
        -6.835308242563803
      ],
      [
        "–",
        -6.854516076245584
      ],
      [
        "▁все",
        -6.908279964761652
      ],
      [
        "▁года",
        -6.927378309570106
      ],
      [
        "ами",
        -6.955424765608257
      ],
      [
        "▁С",
        -6.956523400083045
      ],
      [
        "▁мы",
        -6.970653090758336
      ],
      [
        "ей",
        -6.98483427304196
      ],
      [
        "!",
        -6.993852621669879
      ],
      [
        "▁их",
        -7.0023738986704025
      ],
      [
        "▁назад",
        -7.047804778269754
      ],
      [
        "▁которые",
        -7.059627128976654
      ],
      [
        "▁он",
        -7.065014455848569
      ],
      [
        "то",
        -7.085246604687709
      ],
      [
        "ться",
        -7.094838701571472
      ],
      [
        "▁но",
        -7.10405036747801
      ],
      [
        "▁И",
        -7.124626866455284
      ],
      [
        "▁так",
        -7.145684951934623
      ],
      [
        "▁Я",
        -7.14716557128941
      ],
      [
        "▁будет",
        -7.169560193609865
      ],
      [
        "▁может",
        -7.174155715408016
      ],
      [
        "▁то",
        -7.186375522566754
      ],
      [
        "д",
        -7.188219815838655
      ],
      [
        "ных",
        -7.21448124729902
      ],
      [
        "▁время",
        -7.236650963186225
      ],
      [
        "ная",
        -7.277721066751576
      ],
      [
        "ли",
        -7.2789658267938435
      ],
      [
        "▁только",
        -7.300019130353316
      ],
      [
        "▁быть",
        -7.306754318866487
      ],
      [
        "▁более",
        -7.3079682690199625
      ],
      [
        "▁На",
        -7.317430377739662
      ],
      [
        "*",
        -7.319013673568772
      ],
      [
        "ные",
        -7.320733146814577
      ],
      [
        "но",
        -7.321086073259027
      ],
      [
        "▁они",
        -7.325384616504161
      ],
      [
        "на",
        -7.329547012603886
      ],
      [
        "▁Это",
        -7.334018042020359
      ],
      [
        "ной",
        -7.341713621669204
      ],
      [
        "▁же",
        -7.351497007068591
      ],
      [
        "▁со",
        -7.35688660419831
      ],
      [
        "▁во",
        -7.3611150453560565
      ],
      [
        "му",
        -7.366126705125499
      ],
      [
        "▁того",
        -7.3714700734572265
      ],
      [
        "▁По",
        -7.395897306176124
      ],
      [
        "ется",
        -7.397038731440745
      ],
      [
        "▁если",
        -7.418688686426984
      ],
      [
        "▁является",
        -7.425149107093453
      ],
      [
        "▁бы",
        -7.438510681649575
      ],
      [
        "▁А",
        -7.44847407078899
      ],
      [
        "▁можно",
        -7.454997912358673
      ],
      [
        "▁было",
        -7.4604194142330105
      ],
      [
        "▁был",
        -7.4610724419717105
      ],
      [
        "р",
        -7.469506463326438
      ],
      [
        "▁О",
        -7.479273900352638
      ],
      [
        "ного",
        -7.487309503946124
      ],
      [
        "▁Вы",
        -7.492369222680368
      ],
      [
        "▁об",
        -7.502611980871361
      ],
      [
        "%",
        -7.506472275991349
      ],
      [
        "▁Если",
        -7.507639545310131
      ],
      [
        "ка",
        -7.518451393934118
      ],
      [
        "▁под",
        -7.523788632177666
      ],
      [
        "▁когда",
        -7.543394433722453
      ],
      [
        "п",
        -7.543934337562204
      ],
      [
        "▁том",
        -7.545229530782999
      ],
      [
        "ный",
        -7.580755275417889
      ],
      [
        "з",
        -7.5918573153926
      ],
      [
        "▁Мы",
        -7.60233906883801
      ],
      [
        "▁К",
        -7.624578802544804
      ],
      [
        "▁который",
        -7.635284474326985
      ],
      [
        "▁вам",
        -7.659630731101286
      ],
      [
        "s",
        -7.667826406138271
      ],
      [
        "▁этом",
        -7.678235047938784
      ],
      [
        "▁есть",
        -7.67982576274891
      ],
      [
        "▁могут",
        -7.6843486710700315
      ],
      [
        "ются",
        -7.697746559601708
      ],
      [
        "▁году",
        -7.70655532695849
      ],
      [
        "▁этого",
        -7.714788321109172
      ],
      [
        "▁Он",
        -7.717048313991963
      ],
      [
        "▁Как",
        -7.722616190257341
      ],
      [
        "▁были",
        -7.725871879325988
      ],
      [
        "▁лет",
        -7.743257976219203
      ],
      [
        "▁чем",
        -7.747903392855871
      ],
      [
        "▁У",
        -7.749256369963575
      ],
      [
        "▁всех",
        -7.75170501987601
      ],
      [
        "за",
        -7.798499932455691
      ],
      [
        "лись",
        -7.800086328919081
      ],
      [
        "▁раз",
        -7.80560206274977
      ],
      [
        "ную",
        -7.806649153634988
      ],
      [
        "▁Но",
        -7.822756639572852
      ],
      [
        "▁файл",
        -7.83360043804633
      ],
      [
        "▁тем",
        -7.86017713767122
      ],
      [
        "▁после",
        -7.8617945599503365
      ],
      [
        "▁очень",
        -7.864433851045046
      ],
      [
        "б",
        -7.864612884767904
      ],
      [
        "▁Не",
        -7.870125839645713
      ],
      [
        "▁без",
        -7.871781351472201
      ],
      [
        "ого",
        -7.8785411964898895
      ],
      [
        "▁про",
        -7.892420247401805
      ],
      [
        "ла",
        -7.893234290693524
      ],
      [
        "ок",
        -7.901518101535856
      ],
      [
        "▁уже",
        -7.945721733637397
      ],
      [
        "▁ты",
        -7.957320408858884
      ],
      [
        "не",
        -7.9628179789922555
      ],
      [
        "▁между",
        -7.967183417269187
      ],
      [
        "▁была",
        -7.9790698624645415
      ],
      [
        "▁она",
        -7.986262425775831
      ],
      [
        "▁должны",
        -7.993173927178674
      ],
      [
        "▁вас",
        -7.999256817453055
      ],
      [
        "▁больше",
        -7.999558966852918
      ],
      [
        "▁еще",
        -8.008053439588318
      ],
      [
        "▁меня",
        -8.01175953950412
      ],
      [
        "▁области",
        -8.024524634940121
      ],
      [
        "▁пере",
        -8.031033321041814
      ],
      [
        "▁будут",
        -8.035133114312718
      ],
      [
        "▁случае",
        -8.049957996949834
      ],
      [
        "▁других",
        -8.076895412657006
      ],
      [
        "▁где",
        -8.07894766551414
      ],
      [
        "▁всего",
        -8.081757871929902
      ],
      [
        "▁Для",
        -8.084834964717373
      ],
      [
        "▁через",
        -8.085049309581969
      ],
      [
        "▁S",
        -8.089171148061427
      ],
      [
        "▁год",
        -8.091465473916696
      ],
      [
        "ж",
        -8.10604275699013
      ],
      [
        "ч",
        -8.106225299599114
      ],
      [
        "▁просто",
        -8.113251798928523
      ],
      [
        "ное",
        -8.113513980026218
      ],
      [
        "▁ваш",
        -8.125464027619083
      ],
      [
        "▁работы",
        -8.13073360105925
      ],
      [
        "▁себя",
        -8.136698996954735
      ],
      [
        "▁При",
        -8.137812977023582
      ],
      [
        "▁которая",
        -8.142329635649467
      ],
      [
        "лась",
        -8.14553842786423
      ],
      [
        "▁кто",
        -8.156955177931048
      ],
      [
        "▁этот",
        -8.17082926751402
      ],
      [
        "С",
        -8.179865920962426
      ],
      [
        "▁мне",
        -8.180395615510532
      ],
      [
        "▁развития",
        -8.195161169461345
      ],
      [
        "▁эти",
        -8.202851064507374
      ],
      [
        "▁данных",
        -8.202964871746383
      ],
      [
        "▁файла",
        -8.206009434732874
      ],
      [
        "лся",
        -8.207386353155988
      ],
      [
        "В",
        -8.207422660411801
      ],
      [
        "▁системы",
        -8.208718404331593
      ],
      [
        "▁Да",
        -8.209964996253818
      ],
      [
        "▁даже",
        -8.213081806556666
      ],
      [
        "ф",
        -8.227765711486374
      ],
      [
        "&",
        -8.229327906700558
      ],
      [
        "▁стран",
        -8.2306274866059
      ],
      [
        "▁жизни",
        -8.233201266911907
      ],
      [
        "тся",
        -8.234529062443226
      ],
      [
        "▁М",
        -8.235056302295561
      ],
      [
        "▁ни",
        -8.23640545189904
      ],
      [
        "▁файлов",
        -8.24071321034537
      ],
      [
        "сти",
        -8.240863927267453
      ],
      [
        "▁сказал",
        -8.244954078947659
      ],
      [
        "▁них",
        -8.247136355853925
      ],
      [
        "▁информацию",
        -8.250006055586068
      ],
      [
        "▁компании",
        -8.251815226958666
      ],
      [
        "▁ли",
        -8.25399382558993
      ],
      [
        "▁один",
        -8.261312318852674
      ],
      [
        "▁которых",
        -8.262630500915714
      ],
      [
        "▁образом",
        -8.270366729025694
      ],
      [
        "▁им",
        -8.285053772915004
      ],
      [
        "▁России",
        -8.292451640768645
      ],
      [
        "▁много",
        -8.295418190385034
      ],
      [
        "▁Все",
        -8.301567862064074
      ],
      [
        "▁человека",
        -8.30210123043366
      ],
      [
        "▁можете",
        -8.309137222975643
      ],
      [
        "▁человек",
        -8.321928713653293
      ],
      [
        "▁имеет",
        -8.322694992376407
      ],
      [
        "▁нас",
        -8.326111078206601
      ],
      [
        "▁несколько",
        -8.33650806470805
      ],
      [
        "либо",
        -8.341797873138828
      ],
      [
        "▁другие",
        -8.342574250269923
      ],
      [
        "▁людей",
        -8.346771096204252
      ],
      [
        "]",
        -8.349069237699181
      ],
      [
        "▁За",
        -8.352466122377582
      ],
      [
        "▁деятельности",
        -8.353144038989317
      ],
      [
        "▁день",
        -8.371673370664116
      ],
      [
        "▁обеспечения",
        -8.373462187355091
      ],
      [
        "А",
        -8.377381025653632
      ],
      [
        "[",
        -8.378055469759225
      ],
      [
        "▁здесь",
        -8.384069252628622
      ],
      [
        "▁безопасности",
        -8.39042105845039
      ],
      [
        "он",
        -8.390516264598016
      ],
      [
        "▁управления",
        -8.39552648538734
      ],
      [
        "по",
        -8.396275882504273
      ],
      [
        "ным",
        -8.396917537159313
      ],
      [
        "▁времени",
        -8.39733120661065
      ],
      [
        "▁своей",
        -8.39764219706214
      ],
      [
        "▁Телефон",
        -8.401092794192012
      ],
      [
        "▁Что",
        -8.410613340436882
      ],
      [
        "e",
        -8.411624816193658
      ],
      [
        "этих",
        -8.414692624923125
      ],
      [
        "▁свою",
        -8.415655676707235
      ],
      [
        "▁использовать",
        -8.41790396645005
      ],
      [
        "▁необходимо",
        -8.421509868077022
      ],
      [
        "этой",
        -8.422628218885347
      ],
      [
        "▁нет",
        -8.436260841479045
      ],
      [
        "ш",
        -8.43740213842412
      ],
      [
        "▁возможность",
        -8.438398872575032
      ],
      [
        "▁свои",
        -8.439216307055416
      ],
      [
        "месяцев",
        -8.450941175179246
      ],
      [
        "▁страны",
        -8.454603386724536
      ],
      [
        "лось",
        -8.461808535521467
      ],
      [
        "a",
        -8.471242876833868
      ],
      [
        "S",
        -8.47742138400776
      ],
      [
        "▁США",
        -8.479775963805078
      ],
      [
        "▁Ты",
        -8.482764012607658
      ],
      [
        "▁информации",
        -8.485802371887237
      ],
      [
        "▁M",
        -8.485965433965987
      ],
      [
        "▁Г",
        -8.492038350002353
      ],
      [
        "o",
        -8.493759024209876
      ],
      [
        "ский",
        -8.498184216214572
      ],
      [
        "▁нужно",
        -8.503236440288338
      ],
      [
        "▁П",
        -8.507273449049444
      ],
      [
        "▁T",
        -8.513897507916719
      ],
      [
        "▁Windows",
        -8.514008773704433
      ],
      [
        "ты",
        -8.532251882278302
      ],
      [
        "ему",
        -8.536883835884883
      ],
      [
        "▁своих",
        -8.537290254503661
      ],
      [
        "▁связи",
        -8.542034106564282
      ],
      [
        "от",
        -8.545034535933869
      ],
      [
        "М",
        -8.551171241556675
      ],
      [
        "ской",
        -8.556848413905554
      ],
      [
        "▁прав",
        -8.558629754443857
      ],
      [
        "▁являются",
        -8.561520256973553
      ],
      [
        "▁против",
        -8.561744848001345
      ],
      [
        "▁должен",
        -8.563115561828257
      ],
      [
        "▁мира",
        -8.564094586374818
      ],
      [
        "▁два",
        -8.565694488993824
      ],
      [
        "▁течение",
        -8.569430850793351
      ],
      [
        "▁программы",
        -8.571071058669812
      ],
      [
        "▁место",
        -8.574237733028278
      ],
      [
        "▁Они",
        -8.581536391405798
      ],
      [
        "▁рамках",
        -8.587351806054967
      ],
      [
        "▁качестве",
        -8.59106052338155
      ],
      [
        "▁перед",
        -8.594066699981745
      ],
      [
        "▁получить",
        -8.59465480257783
      ],
      [
        "▁Так",
        -8.594754290485128
      ],
      [
        "▁помощью",
        -8.596507008666453
      ],
      [
        "▁тех",
        -8.599232350435507
      ],
      [
        "▁дня",
        -8.600896682208534
      ],
      [
        "▁P",
        -8.60485388695659
      ],
      [
        "▁xHamster",
        -8.611792911914641
      ],
      [
        "c",
        -8.612765210795546
      ],
      [
        "ская",
        -8.613564530871184
      ],
      [
        "▁которое",
        -8.616484056580315
      ],
      [
        "▁Е",
        -8.617905253096742
      ],
      [
        "▁участие",
        -8.619538110853146
      ],
      [
        "▁которой",
        -8.62238758931608
      ],
      [
        "▁свой",
        -8.623239272278203
      ],
      [
        "ского",
        -8.624912294704604
      ],
      [
        "К",
        -8.625238458022656
      ],
      [
        "▁C",
        -8.62721441907915
      ],
      [
        "ном",
        -8.62964296421595
      ],
      [
        "#",
        -8.630701690843638
      ],
      [
        "ц",
        -8.643577555840015
      ],
      [
        "gt",
        -8.644984032829637
      ],
      [
        "▁всегда",
        -8.6481774082907
      ],
      [
        "э",
        -8.654066991364076
      ],
      [
        "i",
        -8.656977748979646
      ],
      [
        "▁соответствии",
        -8.66467508460216
      ],
      [
        "де",
        -8.669911203783927
      ],
      [
        "▁A",
        -8.67081693497322
      ],
      [
        "▁потому",
        -8.672144223728836
      ],
      [
        "▁всё",
        -8.672883296290108
      ],
      [
        "▁нам",
        -8.673183462049847
      ],
      [
        "большой",
        -8.673370205061008
      ],
      [
        "▁всем",
        -8.673864262821532
      ],
      [
        "открыть",
        -8.67957348503766
      ],
      [
        "▁города",
        -8.683520191136385
      ],
      [
        "О",
        -8.684945134977173
      ],
      [
        "из",
        -8.687054295683742
      ],
      [
        "▁игры",
        -8.695330515587472
      ],
      [
        "▁Когда",
        -8.699462195718533
      ],
      [
        "▁над",
        -8.70540665504838
      ],
      [
        "▁стать",
        -8.706183128052885
      ],
      [
        "▁таких",
        -8.707880340029314
      ],
      [
        "▁находится",
        -8.709957956843144
      ],
      [
        "▁период",
        -8.713012097542128
      ],
      [
        "▁сделать",
        -8.71419911423265
      ],
      [
        "▁двух",
        -8.714799256790487
      ],
      [
        "▁организации",
        -8.719414301603772
      ],
      [
        "▁стороны",
        -8.725507602104802
      ],
      [
        "'",
        -8.72595503736471
      ],
      [
        "▁тебя",
        -8.730970580649942
      ],
      [
        "И",
        -8.733091105805025
      ],
      [
        "▁ряд",
        -8.734988579332144
      ],
      [
        "▁Однако",
        -8.739130405220362
      ],
      [
        "▁детей",
        -8.743385886346859
      ],
      [
        "▁дней",
        -8.749000103360064
      ],
      [
        "▁права",
        -8.749240834579968
      ],
      [
        "ите",
        -8.749448197029276
      ],
      [
        "▁После",
        -8.750500841213103
      ],
      [
        "жизнь",
        -8.754090091775131
      ],
      [
        "или",
        -8.754216767308053
      ],
      [
        "▁право",
        -8.754294766869535
      ],
      [
        "D",
        -8.758639315660592
      ],
      [
        "йте",
        -8.76252611280157
      ],
      [
        "▁Республики",
        -8.76254420792439
      ],
      [
        "расширение",
        -8.76508521901587
      ],
      [
        "▁D",
        -8.765671890281974
      ],
      [
        "лишь",
        -8.767319413930096
      ],
      [
        "▁говорит",
        -8.768047292670664
      ],
      [
        "x",
        -8.769123199492942
      ],
      [
        "▁сейчас",
        -8.77035127513879
      ],
      [
        "▁решения",
        -8.771861384035574
      ],
      [
        "▁этим",
        -8.774657442519915
      ],
      [
        "y",
        -8.776537322730443
      ],
      [
        "▁котором",
        -8.781217279057765
      ],
      [
        "▁друг",
        -8.786215699333482
      ],
      [
        "▁внимание",
        -8.787778696972124
      ],
      [
        "ными",
        -8.789721555412713
      ],
      [
        "▁проекта",
        -8.790478345134357
      ],
      [
        "▁вопрос",
        -8.79145232452449
      ],
      [
        "▁Д",
        -8.793690780925115
      ],
      [
        "да",
        -8.798161802687133
      ],
      [
        "▁собой",
        -8.799223397552632
      ],
      [
        "▁своего",
        -8.80110631505891
      ],
      [
        "же",
        -8.804772875942769
      ],
      [
        "▁Его",
        -8.804939486017593
      ],
      [
        "ще",
        -8.804978308372375
      ],
      [
        "▁имеют",
        -8.810948175968056
      ],
      [
        "▁Кроме",
        -8.816379482931374
      ],
      [
        "▁мир",
        -8.817304569330094
      ],
      [
        "A",
        -8.818939170204768
      ],
      [
        "▁себе",
        -8.821483268461092
      ],
      [
        "▁услуг",
        -8.825453489239209
      ],
      [
        "▁включая",
        -8.825893018216549
      ],
      [
        "▁недели",
        -8.831198213877606
      ],
      [
        "▁там",
        -8.831329675692386
      ],
      [
        "▁лучше",
        -8.83292677941564
      ],
      [
        "▁люди",
        -8.833178286090487
      ],
      [
        "▁использования",
        -8.835265229650021
      ],
      [
        "▁Т",
        -8.835708533425084
      ],
      [
        "▁месяца",
        -8.835993679852294
      ],
      [
        "одной",
        -8.838491799231104
      ],
      [
        "▁Организаци",
        -8.838919421914841
      ],
      [
        "ны",
        -8.84066998241393
      ],
      [
        "▁различных",
        -8.84437793019527
      ],
      [
        "▁От",
        -8.845395210687258
      ],
      [
        "B",
        -8.846015903803593
      ],
      [
        "▁F",
        -8.848953361992823
      ],
      [
        "▁средств",
        -8.848963025922307
      ],
      [
        "защиты",
        -8.850785261892083
      ],
      [
        "новых",
        -8.855316985138323
      ],
      [
        "Д",
        -8.856143070676936
      ],
      [
        "▁программно",
        -8.856776796437952
      ],
      [
        "▁данные",
        -8.857836156809004
      ],
      [
        "▁лиц",
        -8.858112114664486
      ],
      [
        "“",
        -8.859372493188015
      ],
      [
        "▁отношении",
        -8.859520407019557
      ],
      [
        "▁позволяет",
        -8.861619090803075
      ],
      [
        "такие",
        -8.863306700975874
      ],
      [
        "▁следует",
        -8.864685841182792
      ],
      [
        "p",
        -8.866188721549328
      ],
      [
        "▁имя",
        -8.866815600462
      ],
      [
        "▁группы",
        -8.866884569770203
      ],
      [
        "▁женщин",
        -8.869332119522529
      ],
      [
        "▁способ",
        -8.871963076303121
      ],
      [
        "вашего",
        -8.880212490947759
      ],
      [
        "Б",
        -8.88234523419332
      ],
      [
        "com",
        -8.882735951750782
      ],
      [
        "▁доступ",
        -8.883616517846404
      ],
      [
        "ность",
        -8.88484899675507
      ],
      [
        "▁B",
        -8.885492943018432
      ],
      [
        "▁Она",
        -8.888051996434907
      ],
      [
        "▁веб",
        -8.890308267371504
      ],
      [
        "▁мире",
        -8.89223870475044
      ],
      [
        "▁трансы",
        -8.898205899395714
      ],
      [
        "▁процесс",
        -8.898734696921343
      ],
      [
        "сть",
        -8.899800958597453
      ],
      [
        "овых",
        -8.900581052574244
      ],
      [
        "▁числе",
        -8.900903937895114
      ],
      [
        "▁нашей",
        -8.901843588310982
      ],
      [
        "▁наших",
        -8.903434224444846
      ],
      [
        "▁части",
        -8.906678124071687
      ],
      [
        "▁проект",
        -8.908511216427693
      ],
      [
        "▁таким",
        -8.911349096853762
      ],
      [
        "▁ко",
        -8.91190172257048
      ],
      [
        "▁Б",
        -8.913995027112781
      ],
      [
        "d",
        -8.914148882594457
      ],
      [
        "▁часть",
        -8.915656636042195
      ],
      [
        "m",
        -8.916552110716387
      ],
      [
        "C",
        -8.918644975251556
      ],
      [
        "▁момент",
        -8.919479224220128
      ],
      [
        "▁Во",
        -8.922258333868871
      ],
      [
        "Чтобы",
        -8.924119330326727
      ],
      [
        "ясь",
        -8.924228474729793
      ],
      [
        "▁Этот",
        -8.924491967556056
      ],
      [
        "▁сегодня",
        -8.92460476059065
      ],
      [
        "▁менее",
        -8.925194994884507
      ],
      [
        "▁государства",
        -8.927877415609574
      ],
      [
        "▁уровне",
        -8.934787063172477
      ],
      [
        "▁возможности",
        -8.936081794591411
      ],
      [
        "▁пока",
        -8.938398826751003
      ],
      [
        "большие",
        -8.942870769492261
      ],
      [
        "▁помощи",
        -8.943803660497895
      ],
      [
        "▁член",
        -8.944203707687318
      ],
      [
        "▁проблемы",
        -8.944573543828971
      ],
      [
        "ями",
        -8.945837921512778
      ],
      [
        "▁полностью",
        -8.947030272139946
      ],
      [
        "▁анализ",
        -8.948345881355804
      ],
      [
        "▁прямо",
        -8.94991366247952
      ],
      [
        "эту",
        -8.950792704730016
      ],
      [
        "▁основе",
        -8.952136251533453
      ],
      [
        "▁решение",
        -8.954771569614364
      ],
      [
        "ра",
        -8.955787711079678
      ],
      [
        "▁Наци",
        -8.95640847293077
      ],
      [
        "▁должно",
        -8.956588362693214
      ],
      [
        "▁тот",
        -8.957608879749891
      ],
      [
        "▁вопросам",
        -8.959707611561752
      ],
      [
        "▁которого",
        -8.959940991495627
      ],
      [
        "▁слова",
        -8.964512086975304
      ],
      [
        "”",
        -8.964746694235519
      ],
      [
        "▁её",
        -8.965795892271139
      ],
      [
        "▁среди",
        -8.966930142299802
      ],
      [
        "ешь",
        -8.967058591179333
      ],
      [
        "▁действия",
        -8.967159272359469
      ],
      [
        "▁него",
        -8.96725899249156
      ],
      [
        "g",
        -8.967288096478898
      ],
      [
        "▁особенно",
        -8.967866060316716
      ],
      [
        "▁Про",
        -8.97068556135783
      ],
      [
        "▁другой",
        -8.972733769727608
      ],
      [
        "▁средства",
        -8.979763714401075
      ],
      [
        "▁срок",
        -8.982675781639847
      ],
      [
        "▁система",
        -8.984795760555
      ],
      [
        "▁работу",
        -8.986128217324094
      ],
      [
        "Объединенных",
        -8.988729893847037
      ],
      [
        "до",
        -8.989270625126945
      ],
      [
        "▁выбор",
        -8.992229625712115
      ],
      [
        "▁возможно",
        -8.995875278822849
      ],
      [
        "▁три",
        -8.999012107903456
      ],
      [
        "▁быстро",
        -8.999881545265692
      ],
      [
        "▁онлайн",
        -9.00102373757192
      ],
      [
        "▁вместе",
        -9.001838237745213
      ],
      [
        "▁Алиева",
        -9.001966025815571
      ],
      [
        "▁изменения",
        -9.004760341456297
      ],
      [
        "▁G",
        -9.010727605244291
      ],
      [
        "▁номер",
        -9.012925380583061
      ],
      [
        "ности",
        -9.01344350992557
      ],
      [
        "▁проблем",
        -9.016035752203845
      ],
      [
        "тебе",
        -9.018107386329755
      ],
      [
        "вер",
        -9.018994760948294
      ],
      [
        "▁E",
        -9.020210131801617
      ],
      [
        "▁именно",
        -9.020350844211578
      ],
      [
        "поэтому",
        -9.02129447217535
      ],
      [
        "▁одного",
        -9.023336794117395
      ],
      [
        "_",
        -9.023363274653997
      ],
      [
        "▁те",
        -9.02668904675614
      ],
      [
        "▁уровня",
        -9.029164575038598
      ],
      [
        "должна",
        -9.03199137244306
      ],
      [
        "▁программ",
        -9.034437259044584
      ],
      [
        "▁производства",
        -9.034614701507044
      ],
      [
        "▁одно",
        -9.035949835228333
      ],
      [
        "▁хорошо",
        -9.041213875697071
      ],
      [
        "G",
        -9.041378895077454
      ],
      [
        "er",
        -9.041914161496395
      ],
      [
        "▁игра",
        -9.042358455340516
      ],
      [
        "▁сиськи",
        -9.04531198553756
      ],
      [
        "▁вопросы",
        -9.045989187241963
      ],
      [
        "наиболее",
        -9.047794573816512
      ],
      [
        "▁количество",
        -9.048757453045583
      ],
      [
        "Г",
        -9.048942399250452
      ],
      [
        "▁район",
        -9.04913104296205
      ],
      [
        "▁сети",
        -9.051160411955568
      ],
      [
        "новые",
        -9.051663211370915
      ],
      [
        "можем",
        -9.05317791164054
      ],
      [
        "П",
        -9.054226952002667
      ],
      [
        "▁L",
        -9.055773298296556
      ],
      [
        "▁опыт",
        -9.058901754552117
      ],
      [
        "▁около",
        -9.059951211430588
      ],
      [
        "▁своем",
        -9.060295355013574
      ],
      [
        "каждый",
        -9.062345660468235
      ],
      [
        "▁компания",
        -9.068278941077432
      ],
      [
        "Я",
        -9.068728249507197
      ],
      [
        "▁тип",
        -9.068798876223939
      ],
      [
        "▁дома",
        -9.07263876384262
      ],
      [
        "▁свое",
        -9.072730257712493
      ],
      [
        "▁территории",
        -9.072938547193681
      ],
      [
        "▁затем",
        -9.073198477123547
      ],
      [
        "▁стали",
        -9.075527453833946
      ],
      [
        "▁политики",
        -9.078934522468602
      ],
      [
        "▁Эти",
        -9.082119083234083
      ],
      [
        "▁ниже",
        -9.08281312888057
      ],
      [
        "▁целью",
        -9.083503199804179
      ],
      [
        "такой",
        -9.084052404795356
      ],
      [
        "ью",
        -9.090633854265793
      ],
      [
        "никогда",
        -9.091734716692619
      ],
      [
        "▁важно",
        -9.091763875264723
      ],
      [
        "▁теперь",
        -9.093445234778333
      ],
      [
        "▁I",
        -9.093833433072751
      ],
      [
        "▁оргазм",
        -9.094130218328706
      ],
      [
        "▁некоторые",
        -9.09494026008313
      ],
      [
        "Р",
        -9.100899210332921
      ],
      [
        "Т",
        -9.10133254121253
      ],
      [
        "M",
        -9.102957542238954
      ],
      [
        "ских",
        -9.104741501258717
      ],
      [
        "t",
        -9.10544118377636
      ],
      [
        "▁начала",
        -9.10636457027985
      ],
      [
        "ков",
        -9.109077081725331
      ],
      [
        "▁компьютер",
        -9.111041972666463
      ],
      [
        "▁расположен",
        -9.114181121994687
      ],
      [
        "▁N",
        -9.115464592762663
      ],
      [
        "▁постоянно",
        -9.115602696263563
      ],
      [
        "чего",
        -9.117015780759548
      ],
      [
        "▁значение",
        -9.118634089750486
      ],
      [
        "одним",
        -9.118651952409074
      ],
      [
        "▁эта",
        -9.120291739367739
      ],
      [
        "▁например",
        -9.121179725494693
      ],
      [
        "▁многих",
        -9.123723609083239
      ],
      [
        "овые",
        -9.124436094147816
      ],
      [
        "▁область",
        -9.127167379021975
      ],
      [
        "▁качества",
        -9.127702611142949
      ],
      [
        "▁рас",
        -9.127835349128121
      ],
      [
        "большая",
        -9.128377213006484
      ],
      [
        "▁найти",
        -9.128702433750602
      ],
      [
        "▁которую",
        -9.129073581476336
      ],
      [
        "▁материал",
        -9.130419157389012
      ],
      [
        "ходе",
        -9.13154335037235
      ],
      [
        "▁Интернет",
        -9.132683598133731
      ],
      [
        "ду",
        -9.132947809816397
      ],
      [
        "▁видео",
        -9.133845279239454
      ],
      [
        "▁уровень",
        -9.134384601309788
      ],
      [
        "▁власти",
        -9.135028446934697
      ],
      [
        "▁места",
        -9.136330709476933
      ],
      [
        "b",
        -9.136827685352808
      ],
      [
        "▁часто",
        -9.140141033296812
      ],
      [
        "▁достаточно",
        -9.140548382390548
      ],
      [
        "f",
        -9.140796908852849
      ],
      [
        "▁программа",
        -9.141490554224404
      ],
      [
        "ля",
        -9.146344795752281
      ],
      [
        "▁создания",
        -9.148981876853588
      ],
      [
        "▁странах",
        -9.149774066417095
      ],
      [
        "▁легко",
        -9.150090440147839
      ],
      [
        "вашем",
        -9.150524950669837
      ],
      [
        "▁результате",
        -9.15058275670294
      ],
      [
        "дать",
        -9.150880034821457
      ],
      [
        "ль",
        -9.156001592342383
      ],
      [
        "самых",
        -9.156137996249008
      ],
      [
        "▁Р",
        -9.159727544890599
      ],
      [
        "▁задач",
        -9.15994959585988
      ],
      [
        "▁словам",
        -9.160326438365534
      ],
      [
        "▁H",
        -9.160900822160023
      ],
      [
        "▁самом",
        -9.162765557261885
      ],
      [
        "▁хотя",
        -9.164524356502405
      ],
      [
        "▁отеле",
        -9.165558751401344
      ],
      [
        "▁До",
        -9.16588852532952
      ],
      [
        "ские",
        -9.166662205836534
      ],
      [
        "йти",
        -9.167335982108638
      ],
      [
        "▁Из",
        -9.167448501375143
      ],
      [
        "вести",
        -9.171128655496299
      ],
      [
        "▁осуществлени",
        -9.173560805024499
      ],
      [
        "▁тогда",
        -9.175740742687484
      ],
      [
        "▁K",
        -9.176061431658846
      ],
      [
        "▁поскольку",
        -9.176586678483549
      ],
      [
        "▁Эта",
        -9.177559998247359
      ],
      [
        "ния",
        -9.178665163723608
      ],
      [
        "▁почти",
        -9.18033977363513
      ],
      [
        "▁пор",
        -9.182294519222998
      ],
      [
        "▁дел",
        -9.182680619806924
      ],
      [
        "▁систем",
        -9.182954975741037
      ],
      [
        "▁услуги",
        -9.184006485066634
      ],
      [
        "▁дом",
        -9.186503795093664
      ],
      [
        "▁образования",
        -9.190133760851339
      ],
      [
        "▁новый",
        -9.191518614032635
      ],
      [
        "▁вид",
        -9.191734295426043
      ],
      [
        "▁цен",
        -9.192026217962841
      ],
      [
        "▁наши",
        -9.192090830631214
      ],
      [
        "при",
        -9.193954479625646
      ],
      [
        "▁объем",
        -9.194005321054338
      ],
      [
        "могли",
        -9.194869926943852
      ],
      [
        "▁мой",
        -9.195094816434986
      ],
      [
        "▁W",
        -9.195502143095926
      ],
      [
        "Украины",
        -9.1955443903002
      ],
      [
        "▁своим",
        -9.196434259169301
      ],
      [
        "▁обычно",
        -9.196663165943308
      ],
      [
        "▁Стриптиз",
        -9.198034587211444
      ],
      [
        "▁бизнес",
        -9.198770035252826
      ],
      [
        "•",
        -9.200595496692696
      ],
      [
        "тер",
        -9.201528109925903
      ],
      [
        "n",
        -9.202261312333592
      ],
      [
        "▁Иисус",
        -9.202365917868645
      ],
      [
        "▁сервер",
        -9.204022448879117
      ],
      [
        "иметь",
        -9.204701909029454
      ],
      [
        "мер",
        -9.2064986841215
      ],
      [
        "▁населения",
        -9.208273221163585
      ],
      [
        "▁Ф",
        -9.208587874102891
      ],
      [
        "▁клиентов",
        -9.209906931712466
      ],
      [
        "ры",
        -9.210974192025693
      ],
      [
        "▁анализа",
        -9.212924065784803
      ],
      [
        "▁Н",
        -9.21444216277741
      ],
      [
        "▁отношения",
        -9.214803470182751
      ],
      [
        "▁состоит",
        -9.216208032467014
      ],
      [
        "▁многие",
        -9.216386650421905
      ],
      [
        "▁интернет",
        -9.219556503484771
      ],
      [
        "▁работе",
        -9.220292083663532
      ],
      [
        "▁минут",
        -9.220674930078887
      ],
      [
        "любой",
        -9.220856265309646
      ],
      [
        "▁ответ",
        -9.22105738084511
      ],
      [
        "▁ним",
        -9.223018989375994
      ],
      [
        "овой",
        -9.223348663953306
      ],
      [
        "▁счет",
        -9.22457529821188
      ],
      [
        "▁группа",
        -9.225083940473379
      ],
      [
        "▁Вам",
        -9.226252614898149
      ],
      [
        "▁см",
        -9.226507314988906
      ],
      [
        "▁развитие",
        -9.226625358419987
      ],
      [
        "какой",
        -9.229936450098432
      ],
      [
        "▁Нет",
        -9.230700916959094
      ],
      [
        "▁стал",
        -9.233697693308228
      ],
      [
        "▁ничего",
        -9.23430458873676
      ],
      [
        "▁Бог",
        -9.236330399687372
      ],
      [
        "L",
        -9.238549661048085
      ],
      [
        "▁пол",
        -9.239490580356977
      ],
      [
        "P",
        -9.240311543255093
      ],
      [
        "▁мая",
        -9.240499376437263
      ],
      [
        "▁оно",
        -9.241483031548519
      ],
      [
        "▁необходим",
        -9.242974841119603
      ],
      [
        "ё",
        -9.244471350647988
      ],
      [
        "ком",
        -9.244948395773408
      ],
      [
        "▁книг",
        -9.245495145319563
      ],
      [
        "ер",
        -9.246542982790059
      ],
      [
        "▁которым",
        -9.24668740690385
      ],
      [
        "▁цвет",
        -9.247513274804572
      ],
      [
        "▁июн",
        -9.247719920036733
      ],
      [
        "▁стране",
        -9.248779794343266
      ],
      [
        "▁однако",
        -9.250429014364359
      ],
      [
        "▁предприятия",
        -9.251155311977143
      ],
      [
        "▁телефон",
        -9.253016348732448
      ],
      [
        "▁общества",
        -9.253517640622487
      ],
      [
        "▁пред",
        -9.254051818626792
      ],
      [
        "Е",
        -9.254197911951122
      ],
      [
        "ец",
        -9.256977322383582
      ],
      [
        "сказать",
        -9.257811089077105
      ],
      [
        "▁закон",
        -9.25855475650228
      ],
      [
        "▁условия",
        -9.259711496155335
      ],
      [
        "▁рынка",
        -9.260646756909168
      ],
      [
        "▁Пере",
        -9.260817226434158
      ],
      [
        "▁Президент",
        -9.263213642072738
      ],
      [
        "▁известны",
        -9.265610895819353
      ],
      [
        "▁благодаря",
        -9.270728592162564
      ],
      [
        "▁частност",
        -9.271574665463532
      ],
      [
        "Ф",
        -9.272025051541233
      ],
      [
        "▁представляет",
        -9.27303725275113
      ],
      [
        "▁лица",
        -9.27669556710314
      ],
      [
        "▁январ",
        -9.277418787025885
      ],
      [
        "▁модель",
        -9.278287801586083
      ],
      [
        "▁свет",
        -9.282400705913314
      ],
      [
        "▁мере",
        -9.282858506142661
      ],
      [
        "Л",
        -9.283881328591733
      ],
      [
        "зависимости",
        -9.286677276041408
      ],
      [
        "целях",
        -9.28719191552234
      ],
      [
        "Также",
        -9.288482236472795
      ],
      [
        "всю",
        -9.288616877599582
      ],
      [
        "▁делать",
        -9.28940434472369
      ],
      [
        "▁пользователя",
        -9.289504388701115
      ],
      [
        "▁неделю",
        -9.292808751502498
      ],
      [
        "▁сам",
        -9.292902912550392
      ],
      [
        "▁граждан",
        -9.293972422767583
      ],
      [
        "XXX",
        -9.294369634541983
      ],
      [
        "▁имени",
        -9.294874973742532
      ],
      [
        "r",
        -9.295134062178668
      ],
      [
        "▁Тепер",
        -9.295890310874391
      ],
      [
        "настоящее",
        -9.295895199602517
      ],
      [
        "▁расширения",
        -9.296424099095937
      ],
      [
        "▁центра",
        -9.296992688522009
      ],
      [
        "▁проведения",
        -9.29742480266961
      ],
      [
        "▁точно",
        -9.297771171007868
      ],
      [
        "мен",
        -9.298488664698311
      ],
      [
        "рд",
        -9.299709866362546
      ],
      [
        "ба",
        -9.300121859617446
      ],
      [
        "H",
        -9.301638566375424
      ],
      [
        "▁Совета",
        -9.30165344103959
      ],
      [
        "T",
        -9.302382051597558
      ],
      [
        "▁предлагает",
        -9.305571326365888
      ],
      [
        "▁Грузи",
        -9.305684898993304
      ],
      [
        "▁сотрудничества",
        -9.306581477361151
      ],
      [
        "▁работает",
        -9.307586162626201
      ],
      [
        "hemaleZ",
        -9.307655594728299
      ],
      [
        "▁состав",
        -9.309470782136332
      ],
      [
        "инг",
        -9.309481603396861
      ],
      [
        "▁ваши",
        -9.309575127775211
      ],
      [
        "▁месяц",
        -9.309582752374002
      ],
      [
        "Н",
        -9.312717944654633
      ],
      [
        "▁деятельность",
        -9.313349210964681
      ],
      [
        "ча",
        -9.314432097208329
      ],
      [
        "юсь",
        -9.31446010491127
      ],
      [
        "▁центр",
        -9.315618056561037
      ],
      [
        "▁Porn",
        -9.316478207976447
      ],
      [
        "▁информация",
        -9.317656292253828
      ],
      [
        "У",
        -9.318088220087787
      ],
      [
        "▁каждого",
        -9.321344733818972
      ],
      [
        "▁трех",
        -9.32163262064686
      ],
      [
        "▁нажмите",
        -9.321636755248077
      ],
      [
        "▁пути",
        -9.322208190739484
      ],
      [
        "▁дела",
        -9.322233008249695
      ],
      [
        "▁жопа",
        -9.323444410411025
      ],
      [
        "Z",
        -9.325237950939018
      ],
      [
        "меры",
        -9.327684704772745
      ],
      [
        "▁само",
        -9.327984484307498
      ],
      [
        "in",
        -9.329690941827453
      ],
      [
        "▁действительно",
        -9.33219484525835
      ],
      [
        "дает",
        -9.332395606132408
      ],
      [
        "▁воды",
        -9.333859961106587
      ],
      [
        "Х",
        -9.33414626230442
      ],
      [
        "v",
        -9.33509205621484
      ],
      [
        "▁первый",
        -9.336196157422425
      ],
      [
        "▁ноябр",
        -9.33715317827504
      ],
      [
        "▁выше",
        -9.337579238536726
      ],
      [
        "▁ПК",
        -9.33849139443446
      ],
      [
        "ing",
        -9.341778800501825
      ],
      [
        "▁заявил",
        -9.343374489935472
      ],
      [
        "▁роль",
        -9.343802533649566
      ],
      [
        "▁Главная",
        -9.34539088049588
      ],
      [
        "ает",
        -9.34676886132294
      ],
      [
        "▁мест",
        -9.348156548996508
      ],
      [
        "▁выберите",
        -9.348484538302754
      ],
      [
        "▁нескольких",
        -9.348832559961938
      ],
      [
        "▁работа",
        -9.348947728570193
      ],
      [
        "▁государств",
        -9.349478984162438
      ],
      [
        "▁деле",
        -9.350618469680903
      ],
      [
        "▁международных",
        -9.35159989973998
      ],
      [
        "▁Живо",
        -9.352035632684263
      ],
      [
        "▁сфере",
        -9.352203055745239
      ],
      [
        "▁поддержки",
        -9.354314733571702
      ],
      [
        "овая",
        -9.355692401004509
      ],
      [
        "▁город",
        -9.356169952042778
      ],
      [
        "▁бесплатно",
        -9.356432616662033
      ],
      [
        "▁да",
        -9.356452216532034
      ],
      [
        "▁реализации",
        -9.356703112377762
      ],
      [
        "ша",
        -9.35834560259332
      ],
      [
        "▁качество",
        -9.361224706037143
      ],
      [
        "путем",
        -9.361424431970976
      ],
      [
        "▁часов",
        -9.362199635325869
      ],
      [
        "▁экономики",
        -9.362879092529942
      ],
      [
        "▁процесса",
        -9.363054072037027
      ],
      [
        "хотите",
        -9.363891706463685
      ],
      [
        "некоторых",
        -9.364140406727579
      ],
      [
        "▁делает",
        -9.364674900039418
      ],
      [
        "▁организаций",
        -9.365137017546033
      ],
      [
        "▁нашего",
        -9.368056713465082
      ],
      [
        "условиях",
        -9.36845004212311
      ],
      [
        "▁сайта",
        -9.371615628885149
      ],
      [
        "▁борьб",
        -9.37252270058432
      ],
      [
        "▁действий",
        -9.373517258670818
      ],
      [
        "▁наук",
        -9.374265239663337
      ],
      [
        "▁отметил",
        -9.374319060617893
      ],
      [
        "▁доступа",
        -9.37454920104084
      ],
      [
        "▁вашей",
        -9.374685604381765
      ],
      [
        "▁нового",
        -9.374869936065654
      ],
      [
        "▁воздух",
        -9.376291975001335
      ],
      [
        "▁Таки",
        -9.37650450632455
      ],
      [
        "декабря",
        -9.376788824884738
      ],
      [
        "▁анал",
        -9.379199841136998
      ],
      [
        "Гейдара",
        -9.380287902315354
      ],
      [
        "▁R",
        -9.381814885781223
      ],
      [
        "▁оборудования",
        -9.382716961722812
      ],
      [
        "▁другими",
        -9.383030420512675
      ],
      [
        "точки",
        -9.38532706416617
      ],
      [
        "▁размер",
        -9.387259691590355
      ],
      [
        "▁знаю",
        -9.387321721800555
      ],
      [
        "ман",
        -9.388950716743892
      ],
      [
        "следующие",
        -9.389056100347885
      ],
      [
        "▁Некоторы",
        -9.389802090479696
      ],
      [
        "▁номера",
        -9.390519631937845
      ],
      [
        "▁истории",
        -9.39189073507874
      ],
      [
        "ник",
        -9.393182224301018
      ],
      [
        "▁практически",
        -9.39379119745012
      ],
      [
        "ировать",
        -9.39574113979675
      ],
      [
        "▁одна",
        -9.396030800862468
      ],
      [
        "▁доступны",
        -9.39679114815569
      ],
      [
        "k",
        -9.39783199999554
      ],
      [
        "тому",
        -9.397873876367251
      ],
      [
        "▁годы",
        -9.398708314870209
      ],
      [
        "млн",
        -9.39878829116366
      ],
      [
        "▁ресурсов",
        -9.399054905573713
      ],
      [
        "▁продукции",
        -9.399347464218206
      ],
      [
        "получения",
        -9.399612050901233
      ],
      [
        "▁наш",
        -9.400265763167472
      ],
      [
        "▁язык",
        -9.400444695212295
      ],
      [
        "W",
        -9.401006633417884
      ],
      [
        "▁тысяч",
        -9.40116548702553
      ],
      [
        "▁составляет",
        -9.407979027934173
      ],
      [
        "V",
        -9.408327404812262
      ],
      [
        "▁могу",
        -9.408530404483406
      ],
      [
        "изменить",
        -9.408912594772202
      ],
      [
        "лен",
        -9.409313459511477
      ],
      [
        "▁социально",
        -9.410121511361153
      ],
      [
        "бо",
        -9.410342958619225
      ],
      [
        "▁случая",
        -9.41080562384822
      ],
      [
        "▁J",
        -9.411012851631384
      ],
      [
        "сюда",
        -9.411404095132614
      ],
      [
        "▁пункт",
        -9.411427345850738
      ],
      [
        "▁директор",
        -9.411999243405898
      ],
      [
        "начать",
        -9.413478311115338
      ],
      [
        "▁помощь",
        -9.415485617154825
      ],
      [
        "▁море",
        -9.41646733507513
      ],
      [
        "▁Под",
        -9.41685724080294
      ],
      [
        "▁Генерально",
        -9.4169633998367
      ],
      [
        "▁обеспечить",
        -9.418143784184238
      ],
      [
        "▁план",
        -9.419777982721092
      ],
      [
        "▁Совет",
        -9.420052982707428
      ],
      [
        "▁компаний",
        -9.420551238899497
      ],
      [
        "ро",
        -9.423002809210784
      ],
      [
        "on",
        -9.42506431177801
      ],
      [
        "▁Украин",
        -9.425101400150874
      ],
      [
        "▁создать",
        -9.42519692577017
      ],
      [
        "▁Сним",
        -9.425960776407143
      ],
      [
        "▁сентября",
        -9.426263108024843
      ],
      [
        "▁То",
        -9.426392915287463
      ],
      [
        "▁Поэтом",
        -9.427043727644351
      ],
      [
        "K",
        -9.428160692958128
      ],
      [
        "жа",
        -9.429300881067567
      ],
      [
        "▁хотел",
        -9.429615413316737
      ],
      [
        "▁пожалуйста",
        -9.430327469848555
      ],
      [
        "▁прежде",
        -9.433703322495575
      ],
      [
        "ъ",
        -9.433874754075795
      ],
      [
        "▁использование",
        -9.43447729162883
      ],
      [
        "такое",
        -9.435665069813918
      ],
      [
        "Hub",
        -9.436406292929256
      ],
      [
        "про",
        -9.436526881358642
      ],
      [
        "▁почему",
        -9.437811718315336
      ],
      [
        "▁число",
        -9.437901396107952
      ],
      [
        "вал",
        -9.438661707186887
      ],
      [
        "▁Ре",
        -9.43868602632352
      ],
      [
        "проектов",
        -9.438902686132913
      ],
      [
        "▁дело",
        -9.439271114101874
      ],
      [
        "пример",
        -9.439313484171144
      ],
      [
        "▁вариант",
        -9.439457900068891
      ],
      [
        "технологий",
        -9.441533309841411
      ],
      [
        "гг",
        -9.442539277436039
      ],
      [
        "▁рынке",
        -9.442636845980427
      ],
      [
        "▁Россия",
        -9.442997390248719
      ],
      [
        "службы",
        -9.443312314342577
      ],
      [
        "▁Л",
        -9.445138044046217
      ],
      [
        "▁V",
        -9.445321868678338
      ],
      [
        "al",
        -9.446456371250635
      ],
      [
        "▁поддержку",
        -9.44670634203446
      ],
      [
        "тесь",
        -9.446755161770623
      ],
      [
        "▁последние",
        -9.446855989864217
      ],
      [
        "▁работать",
        -9.447014328015772
      ],
      [
        "▁цели",
        -9.447423138014852
      ],
      [
        "▁значительно",
        -9.450086341577554
      ],
      [
        "▁месте",
        -9.450333548554038
      ],
      [
        "▁использует",
        -9.450650607081869
      ],
      [
        "▁Ну",
        -9.452191913647635
      ],
      [
        "▁технологии",
        -9.45402208799923
      ],
      [
        "▁отеля",
        -9.456520517060985
      ],
      [
        "▁вот",
        -9.459130357222772
      ],
      [
        "▁причин",
        -9.45969788989096
      ],
      [
        "▁доклад",
        -9.459963945948846
      ],
      [
        "▁Со",
        -9.460369152046033
      ],
      [
        "▁поставщик",
        -9.460861771977324
      ],
      [
        "▁скорость",
        -9.461049032930212
      ],
      [
        "▁относительно",
        -9.462033444215376
      ],
      [
        "▁виде",
        -9.464841170252408
      ],
      [
        "▁приложение",
        -9.46764400156635
      ],
      [
        "▁Бога",
        -9.468058892624196
      ],
      [
        "▁пресс",
        -9.468914936658035
      ],
      [
        "▁означает",
        -9.469759087922947
      ],
      [
        "▁пре",
        -9.472029855957908
      ],
      [
        "▁мужчин",
        -9.472443001276272
      ],
      [
        "▁правительства",
        -9.474480258046604
      ],
      [
        "▁исследования",
        -9.474783517442457
      ],
      [
        "▁две",
        -9.477118504162956
      ],
      [
        "▁тоже",
        -9.479034191346916
      ],
      [
        "▁нами",
        -9.480557376727546
      ],
      [
        "связанные",
        -9.481175438476416
      ],
      [
        "▁Российско",
        -9.481469890237962
      ],
      [
        "новой",
        -9.482276021990167
      ],
      [
        "▁X",
        -9.485124740272662
      ],
      [
        "▁используется",
        -9.485401101368797
      ],
      [
        "▁городе",
        -9.485681694365535
      ],
      [
        "▁совместно",
        -9.485929598932525
      ],
      [
        "емся",
        -9.48605227502803
      ],
      [
        "об",
        -9.487577576311711
      ],
      [
        "▁мои",
        -9.488994704484469
      ],
      [
        "▁подход",
        -9.489979170140838
      ],
      [
        "▁Вот",
        -9.492281064859773
      ],
      [
        "▁снова",
        -9.492541040710302
      ],
      [
        "слишком",
        -9.49268148457207
      ],
      [
        "июля",
        -9.492765015973365
      ],
      [
        "принять",
        -9.49286463519902
      ],
      [
        "▁социальны",
        -9.495683188792464
      ],
      [
        "▁суд",
        -9.496994788635453
      ],
      [
        "▁усилия",
        -9.499003132052191
      ],
      [
        "▁марта",
        -9.499164669771295
      ],
      [
        "▁силу",
        -9.49967730782615
      ],
      [
        "▁любительское",
        -9.500973526290775
      ],
      [
        "▁различные",
        -9.501867634196962
      ],
      [
        "▁гостей",
        -9.503430412998936
      ],
      [
        "▁пользователей",
        -9.503482085518359
      ],
      [
        "▁Мне",
        -9.504313996441992
      ],
      [
        "▁O",
        -9.504461420213481
      ],
      [
        "▁типа",
        -9.50515018017351
      ],
      [
        "▁культуры",
        -9.506220346506035
      ],
      [
        "помочь",
        -9.50652016766272
      ],
      [
        "▁центре",
        -9.506928328156517
      ],
      [
        "▁весьма",
        -9.507175957619562
      ],
      [
        "R",
        -9.507322476273268
      ],
      [
        "▁линии",
        -9.50742121605883
      ],
      [
        "▁защит",
        -9.507740074371064
      ],
      [
        "▁положения",
        -9.50841480866059
      ],
      [
        "▁обеспечивает",
        -9.508455942091086
      ],
      [
        "▁групп",
        -9.50856965238483
      ],
      [
        "▁содержит",
        -9.508989226128428
      ],
      [
        "▁секс",
        -9.509842285349922
      ],
      [
        "▁иностранных",
        -9.509995443253194
      ],
      [
        "кор",
        -9.510868721546935
      ],
      [
        "▁стоит",
        -9.510940819937625
      ],
      [
        "результаты",
        -9.512197745822604
      ],
      [
        "▁продуктов",
        -9.512979047442453
      ],
      [
        "▁происходит",
        -9.513525612321791
      ],
      [
        "▁Ко",
        -9.513607399856335
      ],
      [
        "▁обеспечение",
        -9.514362840547001
      ],
      [
        "ового",
        -9.515645437614987
      ],
      [
        "▁международного",
        -9.51706116936116
      ],
      [
        "▁пыта",
        -9.517196303173263
      ],
      [
        "▁площадь",
        -9.517437031643157
      ],
      [
        "этому",
        -9.517493548923476
      ],
      [
        "▁материалов",
        -9.519636070489584
      ],
      [
        "необходимости",
        -9.520371542419326
      ],
      [
        "▁систему",
        -9.520740864797661
      ],
      [
        "de",
        -9.521882751113235
      ],
      [
        "▁самым",
        -9.52351961554575
      ],
      [
        "октября",
        -9.52389044382608
      ],
      [
        "▁модели",
        -9.524664448841067
      ],
      [
        "▁казино",
        -9.524860623749712
      ],
      [
        "овый",
        -9.526411816347862
      ],
      [
        "▁согласно",
        -9.528107651789128
      ],
      [
        "апреля",
        -9.528979420552323
      ],
      [
        "▁список",
        -9.530590059561378
      ],
      [
        "▁мер",
        -9.531919703150331
      ],
      [
        "▁народ",
        -9.531935361220786
      ],
      [
        "▁Ла",
        -9.53288239518731
      ],
      [
        "зрения",
        -9.535020924474944
      ],
      [
        "▁специально",
        -9.538317562838643
      ],
      [
        "ние",
        -9.5391600076519
      ],
      [
        "ному",
        -9.539202988616708
      ],
      [
        "ул",
        -9.539909287110827
      ],
      [
        "▁меньше",
        -9.540176093074908
      ],
      [
        "▁Об",
        -9.540902200198357
      ],
      [
        "▁энергии",
        -9.541473802394426
      ],
      [
        "ском",
        -9.542898635767783
      ],
      [
        "деньги",
        -9.543940732898587
      ],
      [
        "▁Мо",
        -9.544008120135562
      ],
      [
        "▁существует",
        -9.544317738284699
      ],
      [
        "▁сведения",
        -9.544459871671828
      ],
      [
        "▁конце",
        -9.544855974488902
      ],
      [
        "основных",
        -9.547180102945482
      ],
      [
        "тор",
        -9.547579272856321
      ],
      [
        "▁ЕС",
        -9.547753555430813
      ],
      [
        "▁среды",
        -9.547969546712661
      ],
      [
        "▁установки",
        -9.548163809338686
      ],
      [
        "www",
        -9.548639827915492
      ],
      [
        "▁роста",
        -9.549078066773118
      ],
      [
        "▁Компания",
        -9.54925366604883
      ],
      [
        "▁применения",
        -9.550608351007876
      ],
      [
        "▁мог",
        -9.552384740264332
      ],
      [
        "▁контроля",
        -9.553235648352144
      ],
      [
        "▁устройства",
        -9.553757754661435
      ],
      [
        "▁целом",
        -9.553788651816182
      ],
      [
        "файлы",
        -9.553849601191322
      ],
      [
        "▁минет",
        -9.554882600731913
      ],
      [
        "▁сил",
        -9.554934591785006
      ],
      [
        "нибудь",
        -9.556120104723341
      ],
      [
        "▁Европы",
        -9.55669214477999
      ],
      [
        "огда",
        -9.556866086987542
      ],
      [
        "▁запрос",
        -9.557275334790486
      ],
      [
        "дер",
        -9.558376864852434
      ],
      [
        "ста",
        -9.559481235894598
      ],
      [
        "▁стратеги",
        -9.559576457401642
      ],
      [
        "▁рост",
        -9.559737181427845
      ],
      [
        "▁программе",
        -9.559768116357727
      ],
      [
        "▁оборудование",
        -9.560621046323659
      ],
      [
        "▁производитель",
        -9.561045451143194
      ],
      [
        "играть",
        -9.562162401112476
      ],
      [
        "E",
        -9.563604347083022
      ],
      [
        "▁Сегодня",
        -9.56414852113138
      ],
      [
        "▁университет",
        -9.564557917131912
      ],
      [
        "▁сообщения",
        -9.56568468657058
      ],
      [
        "лет",
        -9.567399645708331
      ],
      [
        "▁правительство",
        -9.56841148445731
      ],
      [
        "▁нашим",
        -9.568747905510556
      ],
      [
        "▁последни",
        -9.568883354496245
      ],
      [
        "▁статус",
        -9.570169747747316
      ],
      [
        "▁другим",
        -9.57032026352425
      ],
      [
        "ость",
        -9.57068726067814
      ],
      [
        "▁Казахстан",
        -9.57256688283146
      ],
      [
        "▁Фонд",
        -9.572688259205782
      ],
      [
        "▁научно",
        -9.57440350655961
      ],
      [
        "▁данным",
        -9.574480929335596
      ],
      [
        "силы",
        -9.574853739877407
      ],
      [
        "▁бизнеса",
        -9.575007471513096
      ],
      [
        "▁секунд",
        -9.575261020222639
      ],
      [
        "нет",
        -9.575579541663187
      ],
      [
        "▁продукта",
        -9.578430207708255
      ],
      [
        "ент",
        -9.579533011375196
      ],
      [
        "могут",
        -9.581563310741744
      ],
      [
        "▁конечно",
        -9.583059739497296
      ],
      [
        "▁регистрации",
        -9.583536734528334
      ],
      [
        "▁пляж",
        -9.583874871841811
      ],
      [
        "хочу",
        -9.583995656407854
      ],
      [
        "N",
        -9.586050725444952
      ],
      [
        "▁феврал",
        -9.586565880630097
      ],
      [
        "▁создание",
        -9.586714427149573
      ],
      [
        "Э",
        -9.587655676059667
      ],
      [
        "▁решений",
        -9.590074606732625
      ],
      [
        "▁нашу",
        -9.591093272963011
      ],
      [
        "ющих",
        -9.591549797773887
      ],
      [
        "кой",
        -9.591592177387035
      ],
      [
        "тон",
        -9.5930780931347
      ],
      [
        "▁внутри",
        -9.595294557725218
      ],
      [
        "ства",
        -9.597505282736783
      ],
      [
        "настройки",
        -9.597718914857195
      ],
      [
        "раз",
        -9.599805665626151
      ],
      [
        "стью",
        -9.601170631393567
      ],
      [
        "▁Украине",
        -9.601930532123072
      ],
      [
        "вод",
        -9.6037795065521
      ],
      [
        "▁ними",
        -9.605181523793561
      ],
      [
        "▁HD",
        -9.605940702998668
      ],
      [
        "разных",
        -9.606098059883404
      ],
      [
        "▁служб",
        -9.607318164620374
      ],
      [
        "▁развитию",
        -9.607759263947749
      ],
      [
        "▁сообщил",
        -9.60861938332331
      ],
      [
        "ши",
        -9.608858477639119
      ],
      [
        "ещё",
        -9.60885919463552
      ],
      [
        "находятся",
        -9.609861241934645
      ],
      [
        "такого",
        -9.60998060428602
      ],
      [
        "▁Э",
        -9.61068598706567
      ],
      [
        "▁факт",
        -9.610877095156198
      ],
      [
        "▁войны",
        -9.611264500396954
      ],
      [
        "▁труда",
        -9.611275009138255
      ],
      [
        "▁резолюци",
        -9.611426500521658
      ],
      [
        "▁множество",
        -9.613880345283762
      ],
      [
        "путь",
        -9.614086593978566
      ],
      [
        "она",
        -9.61613347383716
      ],
      [
        "▁приложения",
        -9.616260708742193
      ],
      [
        "▁членов",
        -9.616296734330605
      ],
      [
        "▁сравнени",
        -9.61635075842877
      ],
      [
        "▁неверно",
        -9.618176009351668
      ],
      [
        "F",
        -9.618270302991537
      ],
      [
        "▁сайте",
        -9.61879075846433
      ],
      [
        "h",
        -9.619594404766664
      ],
      [
        "▁ре",
        -9.622908950916548
      ],
      [
        "Здесь",
        -9.623168036459251
      ],
      [
        "мин",
        -9.623796825002888
      ],
      [
        "▁режим",
        -9.625255222931978
      ],
      [
        "ское",
        -9.62639296889527
      ],
      [
        "▁работ",
        -9.627413101769685
      ],
      [
        "любые",
        -9.627933829920364
      ],
      [
        "w",
        -9.629163044219021
      ],
      [
        "▁ООН",
        -9.631116145953033
      ],
      [
        "▁мнени",
        -9.631334289244274
      ],
      [
        "▁кнопку",
        -9.631581654298643
      ],
      [
        "▁говорил",
        -9.63365065295545
      ],
      [
        "▁Господь",
        -9.63466709067089
      ],
      [
        "l",
        -9.635570305074074
      ],
      [
        "▁органов",
        -9.637294997149283
      ],
      [
        "▁мастурбация",
        -9.637915978048454
      ],
      [
        "▁отдыха",
        -9.6398402723093
      ],
      [
        "▁участников",
        -9.641551286202743
      ],
      [
        "▁предложения",
        -9.64233041855779
      ],
      [
        "Почему",
        -9.643484049725325
      ],
      [
        "целей",
        -9.643507470579465
      ],
      [
        "X",
        -9.646396093885885
      ],
      [
        "ца",
        -9.646907386138697
      ],
      [
        "▁совершенно",
        -9.648018834343278
      ],
      [
        "▁структур",
        -9.648184362498414
      ],
      [
        "▁http",
        -9.648197524499146
      ],
      [
        "▁большинство",
        -9.64991454491073
      ],
      [
        "▁ибо",
        -9.649916125988346
      ],
      [
        "▁Ш",
        -9.650316403483002
      ],
      [
        "▁Роле",
        -9.650327045024532
      ],
      [
        "▁евро",
        -9.652956064548563
      ],
      [
        "▁становится",
        -9.653404844185111
      ],
      [
        "▁стол",
        -9.65447679703319
      ],
      [
        "АО",
        -9.65573119220704
      ],
      [
        "ру",
        -9.655733130807565
      ],
      [
        "▁включает",
        -9.660280159567904
      ],
      [
        "сон",
        -9.662110210362655
      ],
      [
        "экономического",
        -9.662541541434342
      ],
      [
        "▁активно",
        -9.662955913710524
      ],
      [
        "▁Тем",
        -9.664048653190198
      ],
      [
        "▁крайне",
        -9.664675111867135
      ],
      [
        "▁завод",
        -9.66560571243665
      ],
      [
        "Сейчас",
        -9.665728250812068
      ],
      [
        "Федерации",
        -9.666069268777143
      ],
      [
        "ходят",
        -9.667439058565316
      ],
      [
        "▁выбрать",
        -9.66769173263867
      ],
      [
        "▁Китай",
        -9.668512426634136
      ],
      [
        "▁характер",
        -9.670102031291078
      ],
      [
        "ство",
        -9.671787683554365
      ],
      [
        "▁комната",
        -9.673429347101138
      ],
      [
        "▁рабоче",
        -9.674053348179601
      ],
      [
        "▁достижения",
        -9.674894920782645
      ],
      [
        "▁ресторан",
        -9.675638646706426
      ],
      [
        "▁касается",
        -9.675974896062964
      ],
      [
        "▁региона",
        -9.6763257313451
      ],
      [
        "▁бесплатный",
        -9.67670147219766
      ],
      [
        "▁мероприятия",
        -9.677925502537365
      ],
      [
        "записи",
        -9.678860862559308
      ],
      [
        "▁события",
        -9.680015496265117
      ],
      [
        "▁известно",
        -9.681846631586756
      ],
      [
        "▁системе",
        -9.6825111825286
      ],
      [
        "▁поле",
        -9.683177606891128
      ],
      [
        "▁Х",
        -9.684305721744975
      ],
      [
        "Fi",
        -9.684530190247704
      ],
      [
        "▁Ка",
        -9.684631152646746
      ],
      [
        "учи",
        -9.685777094271886
      ],
      [
        "▁предприятий",
        -9.685961110906632
      ],
      [
        "▁метод",
        -9.68604364262742
      ],
      [
        "▁зрелые",
        -9.686343097538293
      ],
      [
        "▁август",
        -9.686985040722682
      ],
      [
        "▁станет",
        -9.688964230643075
      ],
      [
        "▁вопросов",
        -9.689229446046514
      ],
      [
        "▁очередь",
        -9.691382133924757
      ],
      [
        "▁раза",
        -9.69201168492706
      ],
      [
        "какие",
        -9.693307415801337
      ],
      [
        "▁фото",
        -9.69418194480107
      ],
      [
        "▁правила",
        -9.69528134252865
      ],
      [
        "▁бассейн",
        -9.695498831909195
      ],
      [
        "порядке",
        -9.696064925585503
      ],
      [
        "▁непосредственно",
        -9.696394907396792
      ],
      [
        "▁функции",
        -9.697506721034253
      ],
      [
        "▁стоимость",
        -9.698388248725285
      ],
      [
        "▁механизм",
        -9.69851825696241
      ],
      [
        "мимо",
        -9.699289573536712
      ],
      [
        "▁состоянии",
        -9.699831711264858
      ],
      [
        "▁вероятно",
        -9.7001236742311
      ],
      [
        "форматы",
        -9.700432159876968
      ],
      [
        "▁президент",
        -9.70071792171349
      ],
      [
        "▁стало",
        -9.70146049812163
      ],
      [
        "▁Сан",
        -9.701698552037666
      ],
      [
        "Ш",
        -9.70192506385536
      ],
      [
        "▁управление",
        -9.701936760349717
      ],
      [
        "▁статье",
        -9.702439582854458
      ],
      [
        "▁второй",
        -9.702931952693655
      ],
      [
        "▁сайт",
        -9.703806646593543
      ],
      [
        "Есть",
        -9.704273470544386
      ],
      [
        "пер",
        -9.704933622652186
      ],
      [
        "▁пример",
        -9.70521721524702
      ],
      [
        "чень",
        -9.705520101388943
      ],
      [
        "данной",
        -9.706440569415161
      ],
      [
        "et",
        -9.707846893312684
      ],
      [
        "рабочих",
        -9.708027974011271
      ],
      [
        "щ",
        -9.70840774124807
      ],
      [
        "▁исследований",
        -9.708550692590956
      ],
      [
        "▁народа",
        -9.709125513997561
      ],
      [
        "AShemaleTube",
        -9.709387295149272
      ],
      [
        "ись",
        -9.710029409523196
      ],
      [
        "▁Отель",
        -9.710108657638353
      ],
      [
        "▁документ",
        -9.710174002109124
      ],
      [
        "▁электронной",
        -9.710520323559953
      ],
      [
        "ист",
        -9.710698721777167
      ],
      [
        "▁Вас",
        -9.711088186093743
      ],
      [
        "▁государственно",
        -9.712241349959669
      ],
      [
        "▁Ин",
        -9.712337579927715
      ],
      [
        "▁Масло",
        -9.713000446452407
      ],
      [
        "▁ситуаци",
        -9.714585253380383
      ],
      [
        "▁Фонда",
        -9.714960611674211
      ],
      [
        "ed",
        -9.715832764156927
      ],
      [
        "▁соответствующим",
        -9.716274949265284
      ],
      [
        "▁конференции",
        -9.717494753764031
      ],
      [
        "конец",
        -9.718211968109902
      ],
      [
        "кого",
        -9.71845235839573
      ],
      [
        "скую",
        -9.718658885926528
      ],
      [
        "▁моря",
        -9.720216304201584
      ],
      [
        "вор",
        -9.721206407305678
      ],
      [
        "▁особо",
        -9.722032891543037
      ],
      [
        "другом",
        -9.723104138535094
      ],
      [
        "▁требования",
        -9.723388986917245
      ],
      [
        "ющие",
        -9.72366065394192
      ],
      [
        "▁Комитет",
        -9.724206265861126
      ],
      [
        "ель",
        -9.72500625893446
      ],
      [
        "▁производство",
        -9.72645911443134
      ],
      [
        "▁обучения",
        -9.72882046758339
      ],
      [
        "▁отношений",
        -9.729274869027488
      ],
      [
        "▁автоматически",
        -9.729408408885044
      ],
      [
        "кон",
        -9.729422602421623
      ],
      [
        "▁мл",
        -9.729620304125802
      ],
      [
        "центр",
        -9.730161601764431
      ],
      [
        "▁текст",
        -9.732589502614715
      ],
      [
        "▁весь",
        -9.732889360232894
      ],
      [
        "▁игр",
        -9.733721384626334
      ],
      [
        "▁высоко",
        -9.73402403675107
      ],
      [
        "▁Китая",
        -9.734053559883055
      ],
      [
        "▁питания",
        -9.73478621018742
      ],
      [
        "▁занима",
        -9.736591075798525
      ],
      [
        "фа",
        -9.736741322902477
      ],
      [
        "ющего",
        -9.736866648180081
      ],
      [
        "Хотя",
        -9.736993163941529
      ],
      [
        "▁успешно",
        -9.737644069969445
      ],
      [
        "каждом",
        -9.739892136685649
      ],
      [
        "близи",
        -9.740011390968824
      ],
      [
        "▁начал",
        -9.741916130344132
      ],
      [
        "▁адрес",
        -9.741942820116043
      ],
      [
        "▁соло",
        -9.742353873939685
      ],
      [
        "▁выполнения",
        -9.742378557379011
      ],
      [
        "▁сторон",
        -9.742464607064324
      ],
      [
        "▁фотографии",
        -9.743048099051052
      ],
      [
        "ости",
        -9.74388202372645
      ],
      [
        "▁бес",
        -9.745122172047765
      ],
      [
        "▁сектор",
        -9.745267242286149
      ],
      [
        "▁тела",
        -9.745908418418695
      ],
      [
        "▁комплекс",
        -9.747457196236184
      ],
      [
        "▁профессионально",
        -9.74961666010491
      ],
      [
        "лин",
        -9.750538379065654
      ],
      [
        "▁сильно",
        -9.752199301615885
      ],
      [
        "▁сами",
        -9.752488472787554
      ],
      [
        "▁университета",
        -9.752888522339024
      ],
      [
        "▁устройств",
        -9.753122071296348
      ],
      [
        "цены",
        -9.754425955307465
      ],
      [
        "▁мало",
        -9.756020502849337
      ],
      [
        "▁века",
        -9.756264047816
      ],
      [
        "▁маленьки",
        -9.756530713094202
      ],
      [
        "▁нему",
        -9.756628903712974
      ],
      [
        "что",
        -9.756763076417567
      ],
      [
        "З",
        -9.75750194221719
      ],
      [
        "▁Manager",
        -9.759714686188415
      ],
      [
        "▁равно",
        -9.760478283471372
      ],
      [
        "требуется",
        -9.760966724090155
      ],
      [
        "▁надо",
        -9.761063054540877
      ],
      [
        "пл",
        -9.761083976335877
      ],
      [
        "выборов",
        -9.762193307310879
      ],
      [
        "▁хочет",
        -9.763000946609994
      ],
      [
        "▁окружающей",
        -9.76402294736623
      ],
      [
        "будем",
        -9.764181216187223
      ],
      [
        "▁знания",
        -9.764421948259985
      ],
      [
        "условий",
        -9.76463596768447
      ],
      [
        "ете",
        -9.765885016515591
      ],
      [
        "▁вклад",
        -9.767082020234588
      ],
      [
        "▁встреча",
        -9.76745284887126
      ],
      [
        "▁стала",
        -9.767491622474587
      ],
      [
        "емых",
        -9.76934250808195
      ],
      [
        "▁сотрудничеств",
        -9.770118068345441
      ],
      [
        "▁договор",
        -9.771934852719292
      ],
      [
        "▁долго",
        -9.772375035281541
      ],
      [
        "▁Казахстана",
        -9.772525401516482
      ],
      [
        "▁начина",
        -9.772767985853703
      ],
      [
        "▁Ли",
        -9.773417899451589
      ],
      [
        "сколько",
        -9.775787080947103
      ],
      [
        "▁объектов",
        -9.776564409451668
      ],
      [
        "сь",
        -9.777083871534126
      ],
      [
        "ющихся",
        -9.777439731551983
      ],
      [
        "▁РФ",
        -9.777528634282126
      ],
      [
        "▁пакет",
        -9.777959398818247
      ],
      [
        "▁компьютера",
        -9.779205306970011
      ],
      [
        "en",
        -9.780079471764507
      ],
      [
        "▁языка",
        -9.780381975524184
      ],
      [
        "например",
        -9.781389290809056
      ],
      [
        "▁ответственность",
        -9.781925548166562
      ],
      [
        "▁самого",
        -9.78205302031721
      ],
      [
        "amp",
        -9.782887042483262
      ],
      [
        "ваших",
        -9.783355056719703
      ],
      [
        "сразу",
        -9.783707194502293
      ],
      [
        "▁сотрудников",
        -9.783765405061725
      ],
      [
        "▁принял",
        -9.783876922428119
      ],
      [
        "Более",
        -9.783938052219602
      ],
      [
        "▁документов",
        -9.784390364107649
      ],
      [
        "▁ране",
        -9.786781670149622
      ],
      [
        "▁мероприятий",
        -9.787134297025082
      ],
      [
        "▁организация",
        -9.788012047629035
      ],
      [
        "▁переговор",
        -9.788068527237332
      ],
      [
        "▁сделал",
        -9.789426832158105
      ],
      [
        "▁одном",
        -9.789768149322253
      ],
      [
        "бор",
        -9.790838283050439
      ],
      [
        "любого",
        -9.791458683338782
      ],
      [
        "каждой",
        -9.792078950325708
      ],
      [
        "ситуации",
        -9.792458764082081
      ],
      [
        "че",
        -9.793102188285362
      ],
      [
        "▁прогноз",
        -9.794265157005283
      ],
      [
        "▁программу",
        -9.796376395396935
      ],
      [
        "▁обслуживания",
        -9.796390385422692
      ],
      [
        "ru",
        -9.796756745129084
      ],
      [
        "данного",
        -9.798934069414223
      ],
      [
        "▁продукт",
        -9.800743137889802
      ],
      [
        "▁готовы",
        -9.800968697390571
      ],
      [
        "▁внешне",
        -9.802058694300062
      ],
      [
        "▁выход",
        -9.80227714332219
      ],
      [
        "торговли",
        -9.802928159850339
      ],
      [
        "▁разделе",
        -9.803842010079107
      ],
      [
        "▁видов",
        -9.80420404569377
      ],
      [
        "▁здоровья",
        -9.804719702234399
      ],
      [
        "us",
        -9.805236128799333
      ],
      [
        "йтесь",
        -9.80613682916178
      ],
      [
        "an",
        -9.80656100977995
      ],
      [
        "оценки",
        -9.80702521737545
      ],
      [
        "▁результатов",
        -9.807205121101488
      ],
      [
        "Дилдо",
        -9.807559223551225
      ],
      [
        "▁машин",
        -9.808508403185268
      ],
      [
        "первой",
        -9.809035220536488
      ],
      [
        "▁Ра",
        -9.809327106008796
      ],
      [
        "первого",
        -9.812506360070316
      ],
      [
        "▁цель",
        -9.813433020350299
      ],
      [
        "▁семьи",
        -9.813695978942759
      ],
      [
        "▁собира",
        -9.8138066261208
      ],
      [
        "ения",
        -9.814107287363962
      ],
      [
        "▁реформ",
        -9.814508583457174
      ],
      [
        "▁требованиям",
        -9.81469461041902
      ],
      [
        "▁Европе",
        -9.814870644151757
      ],
      [
        "начале",
        -9.815168522602967
      ],
      [
        "кажется",
        -9.815728905112978
      ],
      [
        "стер",
        -9.816193911556681
      ],
      [
        "▁Серби",
        -9.816244581217887
      ],
      [
        "▁клиента",
        -9.816290966150891
      ],
      [
        "▁Самы",
        -9.817260902213034
      ],
      [
        "сек",
        -9.817824928851088
      ],
      [
        "▁быстры",
        -9.818275302596906
      ],
      [
        "▁гор",
        -9.818945426053364
      ],
      [
        "▁думаю",
        -9.819575278496897
      ],
      [
        "▁Ази",
        -9.821243521322726
      ],
      [
        "▁обновления",
        -9.821491475568834
      ],
      [
        "Каждый",
        -9.821910591158309
      ],
      [
        "▁дизайн",
        -9.821932468375394
      ],
      [
        "▁Те",
        -9.822459076598612
      ],
      [
        "▁просмотра",
        -9.823269498574557
      ],
      [
        "▁своими",
        -9.823307038837164
      ],
      [
        "▁работник",
        -9.823713804920784
      ],
      [
        "одну",
        -9.82386409035684
      ],
      [
        "▁международной",
        -9.824073374214283
      ],
      [
        "Латвии",
        -9.824317821339239
      ],
      [
        "▁Штат",
        -9.825274213155087
      ],
      [
        "▁немного",
        -9.826845344159247
      ],
      [
        "▁Благодаря",
        -9.82709651907457
      ],
      [
        "▁Отдых",
        -9.828856510997502
      ],
      [
        "под",
        -9.828921464300164
      ],
      [
        "основном",
        -9.82918748905849
      ],
      [
        "сессии",
        -9.82924159954254
      ],
      [
        "▁офис",
        -9.832398993410502
      ],
      [
        "ьте",
        -9.832923320739933
      ],
      [
        "▁максимально",
        -9.833415878495746
      ],
      [
        "правило",
        -9.833467235214849
      ],
      [
        "следующих",
        -9.833612913597852
      ],
      [
        "I",
        -9.833642203881258
      ],
      [
        "▁интерес",
        -9.834298941078554
      ],
      [
        "▁обработки",
        -9.83430088507268
      ],
      [
        "▁явля",
        -9.834380086707291
      ],
      [
        "ia",
        -9.834712222476037
      ],
      [
        "▁Ю",
        -9.835755964700589
      ],
      [
        "▁транс",
        -9.836144361980267
      ],
      [
        "▁получил",
        -9.836366066046795
      ],
      [
        "▁использованием",
        -9.836686408073279
      ],
      [
        "▁Европейско",
        -9.836934694734362
      ],
      [
        "виду",
        -9.837554874898872
      ],
      [
        "▁влияние",
        -9.838272036852963
      ],
      [
        "O",
        -9.838370594678075
      ],
      [
        "▁вокруг",
        -9.838625833452504
      ],
      [
        "▁U",
        -9.839910052395183
      ],
      [
        "▁де",
        -9.840531772644292
      ],
      [
        "▁проблема",
        -9.841040204153083
      ],
      [
        "▁Wi",
        -9.841763033021653
      ],
      [
        "▁представителей",
        -9.841982813003819
      ],
      [
        "▁сбор",
        -9.842466478042107
      ],
      [
        "▁промышленности",
        -9.842579078967765
      ],
      [
        "▁определенны",
        -9.842856238635315
      ],
      [
        "▁участия",
        -9.843168012285062
      ],
      [
        "▁слово",
        -9.843514475399928
      ],
      [
        "Ч",
        -9.844010614321249
      ],
      [
        "окне",
        -9.844153240050032
      ],
      [
        "данный",
        -9.84448890710362
      ],
      [
        "▁сердце",
        -9.844787706235891
      ],
      [
        "▁курс",
        -9.847002092282784
      ],
      [
        "етесь",
        -9.847266531448616
      ],
      [
        "▁использовании",
        -9.847417269208044
      ],
      [
        "▁четыре",
        -9.847427394564983
      ],
      [
        "первых",
        -9.849779551307403
      ],
      [
        "▁вес",
        -9.850051789151093
      ],
      [
        "re",
        -9.85136515476216
      ],
      [
        "партии",
        -9.851888553824624
      ],
      [
        "▁Инди",
        -9.852691081354289
      ],
      [
        "тра",
        -9.85398643064335
      ],
      [
        "▁Casino",
        -9.854466704303698
      ],
      [
        "▁одновременно",
        -9.85467567964151
      ],
      [
        "Y",
        -9.855116932233349
      ],
      [
        "ска",
        -9.855380812632358
      ],
      [
        "степени",
        -9.855800471039709
      ],
      [
        "▁необходимость",
        -9.856320481003795
      ],
      [
        "данном",
        -9.856954130750195
      ],
      [
        "▁земле",
        -9.857462405955628
      ],
      [
        "продукты",
        -9.8589771214914
      ],
      [
        "сможете",
        -9.85960543092008
      ],
      [
        "рез",
        -9.860672706491348
      ],
      [
        "▁повышения",
        -9.860726180720247
      ],
      [
        "▁версии",
        -9.860829617894053
      ],
      [
        "▁усили",
        -9.861544824077393
      ],
      [
        "людьми",
        -9.861589710763596
      ],
      [
        "▁Аллах",
        -9.86199233006104
      ],
      [
        "▁движения",
        -9.862100243129037
      ],
      [
        "смогли",
        -9.862136014170142
      ],
      [
        "▁кроме",
        -9.863638770351015
      ],
      [
        "▁девушка",
        -9.863772552359118
      ],
      [
        "▁Ц",
        -9.863955243118227
      ],
      [
        "▁искусства",
        -9.864132423208561
      ],
      [
        "ющая",
        -9.864398523457421
      ],
      [
        "▁Ар",
        -9.865057891666552
      ],
      [
        "▁знать",
        -9.86507233148393
      ],
      [
        "▁Конвенции",
        -9.865092127113037
      ],
      [
        "▁считает",
        -9.865502130228572
      ],
      [
        "ющий",
        -9.865655771991127
      ],
      [
        "▁отчет",
        -9.865724862625859
      ],
      [
        "▁сын",
        -9.867287607268803
      ],
      [
        "рынок",
        -9.867924890697282
      ],
      [
        "▁успех",
        -9.868576265331033
      ],
      [
        "▁пара",
        -9.868923394078157
      ],
      [
        "▁информационно",
        -9.869216153770695
      ],
      [
        "пр",
        -9.870037642015168
      ],
      [
        "▁общего",
        -9.870490402727576
      ],
      [
        "▁Германии",
        -9.871802633107881
      ],
      [
        "▁частью",
        -9.871844787472114
      ],
      [
        "▁предмет",
        -9.872381152178738
      ],
      [
        "▁Погода",
        -9.87240660572312
      ],
      [
        "▁Пол",
        -9.87275990690983
      ],
      [
        "▁З",
        -9.874537593802868
      ],
      [
        "всему",
        -9.87531075056594
      ],
      [
        "▁ошибк",
        -9.876672066929348
      ],
      [
        "▁Ни",
        -9.878434378235381
      ],
      [
        "смотря",
        -9.878506880197147
      ],
      [
        "общей",
        -9.879552003175059
      ],
      [
        "вновь",
        -9.879611225154797
      ],
      [
        "▁РК",
        -9.880044156713668
      ],
      [
        "▁значит",
        -9.880461254675165
      ],
      [
        "учетом",
        -9.880528738946367
      ],
      [
        "смотреть",
        -9.88113016176708
      ],
      [
        "▁Размер",
        -9.881472331136731
      ],
      [
        "▁независимо",
        -9.881959283991431
      ],
      [
        "▁возможностей",
        -9.882398118964545
      ],
      [
        "самые",
        -9.882858957351619
      ],
      [
        "▁труд",
        -9.883532460395132
      ],
      [
        "ден",
        -9.884019693991549
      ],
      [
        "at",
        -9.88509282227918
      ],
      [
        "▁роли",
        -9.885268874438992
      ],
      [
        "▁форме",
        -9.885275587290904
      ],
      [
        "стр",
        -9.885524558240354
      ],
      [
        "▁президента",
        -9.886367738226744
      ],
      [
        "основные",
        -9.886525484926526
      ],
      [
        "ось",
        -9.886966936539165
      ],
      [
        "▁риск",
        -9.887071389236542
      ],
      [
        "овать",
        -9.888068272671678
      ],
      [
        "▁чат",
        -9.888510541436924
      ],
      [
        "▁показан",
        -9.888709627583196
      ],
      [
        "увидеть",
        -9.88910637515071
      ],
      [
        "▁набор",
        -9.890835143933515
      ],
      [
        "▁говорить",
        -9.891815501200933
      ],
      [
        "самый",
        -9.892031867253426
      ],
      [
        "ющиеся",
        -9.892355220254117
      ],
      [
        "формы",
        -9.892589022483914
      ],
      [
        "▁Ха",
        -9.892715167334545
      ],
      [
        "▁норм",
        -9.892879969800696
      ],
      [
        "заключается",
        -9.893003990625676
      ],
      [
        "ран",
        -9.893280259742946
      ],
      [
        "▁позволит",
        -9.893606000929205
      ],
      [
        "▁СМИ",
        -9.894052511302164
      ],
      [
        "▁канал",
        -9.895093746981436
      ],
      [
        "▁IP",
        -9.895119019675583
      ],
      [
        "Мастурбация",
        -9.895580880584262
      ],
      [
        "▁примерно",
        -9.89574891374827
      ],
      [
        "▁Александр",
        -9.89624516479482
      ],
      [
        "связанных",
        -9.896602760268559
      ],
      [
        "ar",
        -9.898373053979219
      ],
      [
        "▁комнат",
        -9.898791306242705
      ],
      [
        "▁представители",
        -9.89945298766677
      ],
      [
        "▁Был",
        -9.899527760399632
      ],
      [
        "Тогда",
        -9.899834487800383
      ],
      [
        "▁требует",
        -9.900503816664497
      ],
      [
        "▁сервера",
        -9.900830378658162
      ],
      [
        "▁протяжении",
        -9.901011138775301
      ],
      [
        "бер",
        -9.901453067701164
      ],
      [
        "передачи",
        -9.903743700921416
      ],
      [
        "▁дополнительно",
        -9.903999743032736
      ],
      [
        "▁провел",
        -9.904412443330964
      ],
      [
        "▁ассоциации",
        -9.904456022067787
      ],
      [
        "▁эффективно",
        -9.904700035509054
      ],
      [
        "Согласно",
        -9.905068328078974
      ],
      [
        "▁заказ",
        -9.905397911008924
      ],
      [
        "▁банка",
        -9.906219124839081
      ],
      [
        "▁Центр",
        -9.906220474962296
      ],
      [
        "миру",
        -9.90635062460309
      ],
      [
        "▁сообщени",
        -9.907080208060608
      ],
      [
        "ским",
        -9.908069431631432
      ],
      [
        "▁финансово",
        -9.908074918157615
      ],
      [
        "це",
        -9.909163758812346
      ],
      [
        "▁будущем",
        -9.909938563642903
      ],
      [
        "▁открыто",
        -9.91013539184242
      ],
      [
        "положение",
        -9.91019256511594
      ],
      [
        "▁прогресс",
        -9.910664300612119
      ],
      [
        "белы",
        -9.911124636435257
      ],
      [
        "▁идет",
        -9.911156581023494
      ],
      [
        "знает",
        -9.91297088873595
      ],
      [
        "уверены",
        -9.91333392235488
      ],
      [
        "лечения",
        -9.913435825561024
      ],
      [
        "▁первом",
        -9.913635023909858
      ],
      [
        "узнать",
        -9.91481146767076
      ],
      [
        "▁контроль",
        -9.915884848831507
      ],
      [
        "▁принимать",
        -9.916119725548054
      ],
      [
        "▁воз",
        -9.916481236226025
      ],
      [
        "▁пяти",
        -9.917243150906481
      ],
      [
        "▁широко",
        -9.918146532614346
      ],
      [
        "емые",
        -9.918926285978523
      ],
      [
        "ответственности",
        -9.9203880388327
      ],
      [
        "ирования",
        -9.921425800067135
      ],
      [
        "▁этаже",
        -9.921500161168423
      ],
      [
        "жен",
        -9.922078903594912
      ],
      [
        "ген",
        -9.922419474576252
      ],
      [
        "▁поддерживает",
        -9.922426155330285
      ],
      [
        "бы",
        -9.923654812974458
      ],
      [
        "▁эффективности",
        -9.92432671080694
      ],
      [
        "▁Уже",
        -9.925751395797047
      ],
      [
        "▁инициатив",
        -9.92575750613284
      ],
      [
        "далее",
        -9.926122242476488
      ],
      [
        "государственных",
        -9.927095484537652
      ],
      [
        "смерти",
        -9.92813224970524
      ],
      [
        "▁поиск",
        -9.928794884285534
      ],
      [
        "▁большим",
        -9.929525382946595
      ],
      [
        "изменений",
        -9.93002748770581
      ],
      [
        "▁жертв",
        -9.930142292922717
      ],
      [
        "▁районе",
        -9.930382144701248
      ],
      [
        "▁комиссии",
        -9.930439633429451
      ],
      [
        "▁здравоохранения",
        -9.930672562594598
      ],
      [
        "▁ситуация",
        -9.931938284180307
      ],
      [
        "▁обмен",
        -9.932161244841959
      ],
      [
        "вшись",
        -9.93226117636695
      ],
      [
        "остается",
        -9.93290122178659
      ],
      [
        "вар",
        -9.93302986743057
      ],
      [
        "▁минута",
        -9.93309373012276
      ],
      [
        "▁ведь",
        -9.933757538206315
      ],
      [
        "▁приходит",
        -9.935937485325516
      ],
      [
        "понять",
        -9.936119732226825
      ],
      [
        "▁погод",
        -9.936466425772034
      ],
      [
        "местных",
        -9.93649267480102
      ],
      [
        "▁друга",
        -9.93675540390408
      ],
      [
        "▁значения",
        -9.93700991006477
      ],
      [
        "▁буд",
        -9.93884298541845
      ],
      [
        "Иисуса",
        -9.938944809065585
      ],
      [
        "▁нельзя",
        -9.939942137384044
      ],
      [
        "▁нашем",
        -9.940142389781167
      ],
      [
        "▁всеми",
        -9.940432699628953
      ],
      [
        "зависит",
        -9.940462597911468
      ],
      [
        "формате",
        -9.940519321085992
      ],
      [
        "▁Configuration",
        -9.941469613250256
      ],
      [
        "▁цвета",
        -9.941471728729468
      ],
      [
        "▁сборник",
        -9.941518277827056
      ],
      [
        "▁сфер",
        -9.941615224700818
      ],
      [
        "▁категории",
        -9.942067994876766
      ],
      [
        "высокой",
        -9.943129207607596
      ],
      [
        "▁Мех",
        -9.94505317019144
      ],
      [
        "▁Microsoft",
        -9.945205102580672
      ],
      [
        "▁посредством",
        -9.94538658934948
      ],
      [
        "кро",
        -9.945599564466223
      ],
      [
        "открывается",
        -9.946216737394487
      ],
      [
        "Только",
        -9.946425527497524
      ],
      [
        "is",
        -9.946426452677462
      ],
      [
        "Пожалуйст",
        -9.947451665977859
      ],
      [
        "международным",
        -9.947660629533004
      ],
      [
        "лицо",
        -9.94814380859011
      ],
      [
        "▁правильно",
        -9.948168028469945
      ],
      [
        "▁церкв",
        -9.94832916293224
      ],
      [
        "▁Может",
        -9.948719764369338
      ],
      [
        "J",
        -9.949062660104133
      ],
      [
        "пре",
        -9.949364713447414
      ],
      [
        "ибратор",
        -9.950069952774408
      ],
      [
        "▁закона",
        -9.951110709133891
      ],
      [
        "большое",
        -9.951123405850039
      ],
      [
        "▁глаза",
        -9.951627661862414
      ],
      [
        "▁цветов",
        -9.951753656728833
      ],
      [
        "ают",
        -9.951942923372414
      ],
      [
        "▁строительства",
        -9.95194763275224
      ],
      [
        "потребуется",
        -9.953106529670409
      ],
      [
        "▁состояния",
        -9.9544051071828
      ],
      [
        "ше",
        -9.955028903486534
      ],
      [
        "Москве",
        -9.955524600753591
      ],
      [
        "▁установить",
        -9.955717640667652
      ],
      [
        "▁момента",
        -9.955990973948689
      ],
      [
        "тар",
        -9.957130969901565
      ],
      [
        "видом",
        -9.958281556617193
      ],
      [
        "▁компоненты",
        -9.958333789844325
      ],
      [
        "ение",
        -9.958563337614757
      ],
      [
        "it",
        -9.959101720355507
      ],
      [
        "ирование",
        -9.959688957092984
      ],
      [
        "▁предоставляет",
        -9.960866510892862
      ],
      [
        "самое",
        -9.961732713804519
      ],
      [
        "▁Танц",
        -9.963284923389617
      ],
      [
        "▁взгляд",
        -9.963593852875574
      ],
      [
        "▁Киев",
        -9.965110431384138
      ],
      [
        "▁никаки",
        -9.965649551729971
      ],
      [
        "▁земли",
        -9.966485995664748
      ],
      [
        "двумя",
        -9.966717898452705
      ],
      [
        "бар",
        -9.967029688717037
      ],
      [
        "услугам",
        -9.967360209013522
      ],
      [
        "▁министр",
        -9.967365126093059
      ],
      [
        "▁здания",
        -9.96739960879162
      ],
      [
        "▁Азербайджана",
        -9.96754828156608
      ],
      [
        "▁Други",
        -9.967617412743463
      ],
      [
        "▁остальны",
        -9.969655102943708
      ],
      [
        "▁продаж",
        -9.96997474255617
      ],
      [
        "▁Раз",
        -9.97042220723591
      ],
      [
        "▁сотрудничество",
        -9.970613930843005
      ],
      [
        "кар",
        -9.971560612679179
      ],
      [
        "▁Кор",
        -9.971861752123916
      ],
      [
        "▁анти",
        -9.971976512327826
      ],
      [
        "▁суда",
        -9.972055916377167
      ],
      [
        "▁отель",
        -9.972167561581031
      ],
      [
        "▁Многи",
        -9.972446380214022
      ],
      [
        "школы",
        -9.972543833899053
      ],
      [
        "▁товаров",
        -9.97292969064744
      ],
      [
        "▁событий",
        -9.974594219362242
      ],
      [
        "▁водо",
        -9.975198948330025
      ],
      [
        "ски",
        -9.975771132778622
      ],
      [
        "Ж",
        -9.976366995173933
      ],
      [
        "▁пост",
        -9.978119513539593
      ],
      [
        "▁шаг",
        -9.978606891229449
      ],
      [
        "▁стреми",
        -9.978720297278999
      ],
      [
        "▁довольно",
        -9.979875290950277
      ],
      [
        "ющей",
        -9.979991596508206
      ],
      [
        "ряд",
        -9.980744790422694
      ],
      [
        "регионе",
        -9.980993741007627
      ],
      [
        "▁видел",
        -9.981041441316128
      ],
      [
        "ЮНЕСКО",
        -9.982130007037467
      ],
      [
        "встречи",
        -9.982270659858262
      ],
      [
        "▁установлен",
        -9.982316800875813
      ],
      [
        "▁рыб",
        -9.982320901078579
      ],
      [
        "национальных",
        -9.983059131835116
      ],
      [
        "le",
        -9.983220773845083
      ],
      [
        "лад",
        -9.983412676572742
      ],
      [
        "базы",
        -9.98357285211683
      ],
      [
        "менить",
        -9.983764689882744
      ],
      [
        "▁Мож",
        -9.98437957754503
      ],
      [
        "▁перв",
        -9.984817880872619
      ],
      [
        "▁занимает",
        -9.98567437334516
      ],
      [
        "▁открывает",
        -9.985813825288666
      ],
      [
        "▁процентов",
        -9.986331888804369
      ],
      [
        "▁Порно",
        -9.986886678454917
      ],
      [
        "▁соответствующих",
        -9.986940910357953
      ],
      [
        "▁вне",
        -9.987314518629741
      ],
      [
        "▁поверхност",
        -9.987346284555805
      ],
      [
        "▁Затем",
        -9.988409090749023
      ],
      [
        "Tube",
        -9.988543630528357
      ],
      [
        "▁аэропорт",
        -9.988787068938334
      ],
      [
        "чер",
        -9.989114694622256
      ],
      [
        "ников",
        -9.989361240341106
      ],
      [
        "▁Путин",
        -9.98983151400764
      ],
      [
        "▁низки",
        -9.991028489376987
      ],
      [
        "сообщение",
        -9.992726288621247
      ],
      [
        "цы",
        -9.992739087773558
      ],
      [
        "▁обязательно",
        -9.992757687932777
      ],
      [
        "▁тыс",
        -9.992860532384404
      ],
      [
        "▁поддержке",
        -9.993388398235977
      ],
      [
        "сел",
        -9.993928906120674
      ],
      [
        "▁духовно",
        -9.994328539351399
      ],
      [
        "▁потом",
        -9.994463957606254
      ],
      [
        "▁принимает",
        -9.996002218546955
      ],
      [
        "▁каким",
        -9.996109932522112
      ],
      [
        "разработки",
        -9.99715041291588
      ],
      [
        "▁специалистов",
        -9.99744290569248
      ],
      [
        "▁подходит",
        -9.997627227963857
      ],
      [
        "u",
        -9.997808929550292
      ],
      [
        "▁политических",
        -9.99839441364099
      ],
      [
        "енных",
        -9.999126769364484
      ],
      [
        "предложение",
        -9.999476148454342
      ],
      [
        "ому",
        -9.99955525033699
      ],
      [
        "▁памяти",
        -10.000023246050704
      ],
      [
        "▁раздел",
        -10.000164831473338
      ],
      [
        "вин",
        -10.00055433558218
      ],
      [
        "▁реестр",
        -10.000827503019032
      ],
      [
        "подготовки",
        -10.000914261226992
      ],
      [
        "▁лучши",
        -10.001392409477644
      ],
      [
        "▁внимани",
        -10.001616653159639
      ],
      [
        "хранения",
        -10.002160329367454
      ],
      [
        "▁дене",
        -10.002910935472302
      ],
      [
        "▁последне",
        -10.00301887979111
      ],
      [
        "▁операции",
        -10.004173390005965
      ],
      [
        "состояние",
        -10.004230318651029
      ],
      [
        "отрасли",
        -10.004325438272218
      ],
      [
        "▁объект",
        -10.004634152990208
      ],
      [
        "▁вывод",
        -10.006035870556968
      ],
      [
        "▁остров",
        -10.006178873518987
      ],
      [
        "▁обеспечени",
        -10.006338854523733
      ],
      [
        "▁нужда",
        -10.00726074446824
      ],
      [
        "▁экономических",
        -10.007326710824355
      ],
      [
        "прежнему",
        -10.007787251478087
      ],
      [
        "es",
        -10.008581522294765
      ],
      [
        "▁этап",
        -10.00860445175706
      ],
      [
        "▁меню",
        -10.008822107827308
      ],
      [
        "▁Ваше",
        -10.009559604167496
      ],
      [
        "▁вещи",
        -10.01141697902625
      ],
      [
        "▁масс",
        -10.011667139570855
      ],
      [
        "▁принадлежности",
        -10.011874283176804
      ],
      [
        "▁совета",
        -10.01209979035981
      ],
      [
        "▁версия",
        -10.013458710751133
      ],
      [
        "финансовых",
        -10.01369037028566
      ],
      [
        "ставить",
        -10.014247990860847
      ],
      [
        "овым",
        -10.014718956209732
      ],
      [
        "внутрь",
        -10.015370726796691
      ],
      [
        "страницу",
        -10.016964788038234
      ],
      [
        "числа",
        -10.017247933555243
      ],
      [
        "чен",
        -10.01753187839992
      ],
      [
        "ребенка",
        -10.01786568794438
      ],
      [
        "гораздо",
        -10.017953218372579
      ],
      [
        "ятся",
        -10.018894274355112
      ],
      [
        "▁общество",
        -10.019214999991963
      ],
      [
        "Время",
        -10.019476149444003
      ],
      [
        "национальной",
        -10.019567411133837
      ],
      [
        "▁руководство",
        -10.020357480352084
      ],
      [
        "шел",
        -10.020374392733585
      ],
      [
        "программой",
        -10.020655173740899
      ],
      [
        "as",
        -10.021217234117108
      ],
      [
        "▁команды",
        -10.021357090071438
      ],
      [
        "▁разрешения",
        -10.022245546921692
      ],
      [
        "▁код",
        -10.022492209852043
      ],
      [
        "▁Га",
        -10.02263357764773
      ],
      [
        "ишь",
        -10.022958960699563
      ],
      [
        "принятия",
        -10.02358591206304
      ],
      [
        "видеть",
        -10.024271689305268
      ],
      [
        "По",
        -10.02514236084696
      ],
      [
        "▁экран",
        -10.025157454080611
      ],
      [
        "▁студентов",
        -10.025237588199362
      ],
      [
        "вших",
        -10.025242168943429
      ],
      [
        "▁применение",
        -10.02529283098339
      ],
      [
        "▁фонд",
        -10.026929451806447
      ],
      [
        "▁подготовк",
        -10.026984271524597
      ],
      [
        "государственной",
        -10.027322761944925
      ],
      [
        "мет",
        -10.02748728550245
      ],
      [
        "▁туризм",
        -10.027923096180146
      ],
      [
        "▁Файл",
        -10.028152742224892
      ],
      [
        "▁создан",
        -10.028202335731685
      ],
      [
        "▁пять",
        -10.028367830606403
      ],
      [
        "▁поиска",
        -10.029572019312848
      ],
      [
        "говорят",
        -10.029775011579583
      ],
      [
        "могла",
        -10.030799799796382
      ],
      [
        "прав",
        -10.031417709499994
      ],
      [
        "▁руки",
        -10.032222464901174
      ],
      [
        "▁физическо",
        -10.032288185512238
      ],
      [
        "▁совсе",
        -10.0325752320486
      ],
      [
        "▁совет",
        -10.03287567054301
      ],
      [
        "▁Соединенны",
        -10.033050882292443
      ],
      [
        "▁Владимир",
        -10.033110540803394
      ],
      [
        "ход",
        -10.03422087909969
      ],
      [
        "людям",
        -10.035941435014465
      ],
      [
        "▁дети",
        -10.035950793254957
      ],
      [
        "▁экономической",
        -10.036051306359765
      ],
      [
        "▁аэропорта",
        -10.036106594657491
      ],
      [
        "ган",
        -10.036211628069628
      ],
      [
        "свободы",
        -10.037359435680665
      ],
      [
        "род",
        -10.03852150669731
      ],
      [
        "получает",
        -10.039216203094801
      ],
      [
        "▁Цель",
        -10.039374024371641
      ],
      [
        "На",
        -10.039606893065617
      ],
      [
        "Несмотря",
        -10.039869652801514
      ],
      [
        "▁высоки",
        -10.039893638029678
      ],
      [
        "▁Турци",
        -10.040420020131235
      ],
      [
        "▁инвестиций",
        -10.040734703637288
      ],
      [
        "▁Нью",
        -10.041176850965648
      ],
      [
        "▁Ж",
        -10.04125959098514
      ],
      [
        "▁Pro",
        -10.041350173179167
      ],
      [
        "▁обслуживание",
        -10.041434490559228
      ],
      [
        "▁детали",
        -10.0414870617117
      ],
      [
        "иль",
        -10.042123359397463
      ],
      [
        "▁любом",
        -10.04308610660628
      ],
      [
        "▁миллионов",
        -10.043450887267134
      ],
      [
        "▁газа",
        -10.044208639267692
      ],
      [
        "▁женщины",
        -10.04431564400417
      ],
      [
        "▁количества",
        -10.044336900057845
      ],
      [
        "▁сумм",
        -10.04490769401628
      ],
      [
        "автомобилей",
        -10.045087735103758
      ],
      [
        "▁смысл",
        -10.048181262417055
      ],
      [
        "никто",
        -10.048480574678406
      ],
      [
        "▁источник",
        -10.048677963181206
      ],
      [
        "рат",
        -10.048968581326777
      ],
      [
        "▁Отчет",
        -10.049420135480421
      ],
      [
        "эн",
        -10.049423697628434
      ],
      [
        "▁подобно",
        -10.049497319798167
      ],
      [
        "▁представить",
        -10.049980297205629
      ],
      [
        "▁пункта",
        -10.050193219600596
      ],
      [
        "▁ваше",
        -10.050735525070568
      ],
      [
        "▁имел",
        -10.051290769060243
      ],
      [
        "▁частны",
        -10.052660399408138
      ],
      [
        "to",
        -10.052819105909812
      ],
      [
        "другого",
        -10.053235319436794
      ],
      [
        "порт",
        -10.053838989310236
      ],
      [
        "▁жена",
        -10.054250052629827
      ],
      [
        "▁соглашения",
        -10.054605069911533
      ],
      [
        "новую",
        -10.055122191196416
      ],
      [
        "▁эксплуатации",
        -10.055808836973757
      ],
      [
        "▁поддержка",
        -10.055953991269943
      ],
      [
        "▁Google",
        -10.05604559196782
      ],
      [
        "вместо",
        -10.0563200405975
      ],
      [
        "▁другое",
        -10.056350150421183
      ],
      [
        "воду",
        -10.057319224379784
      ],
      [
        "▁вечер",
        -10.057763136164892
      ],
      [
        "используются",
        -10.058158518599228
      ],
      [
        "▁расширени",
        -10.058212673565667
      ],
      [
        "▁тонн",
        -10.058903964470824
      ],
      [
        "различным",
        -10.058955177932267
      ],
      [
        "▁матери",
        -10.059290942412392
      ],
      [
        "ата",
        -10.059679039485752
      ],
      [
        "▁проверки",
        -10.05992613515081
      ],
      [
        "▁дни",
        -10.060498811627227
      ],
      [
        "предложить",
        -10.060544955218313
      ],
      [
        "▁Цвет",
        -10.061043092558247
      ],
      [
        "▁безопасность",
        -10.061892680612223
      ],
      [
        "свяжитесь",
        -10.062177362083983
      ],
      [
        "▁Хот",
        -10.062314597399714
      ],
      [
        "▁Именн",
        -10.06339928387623
      ],
      [
        "проведение",
        -10.064661925711626
      ],
      [
        "необходимые",
        -10.065012797272457
      ],
      [
        "▁метров",
        -10.065321132700692
      ],
      [
        "запись",
        -10.066326615305078
      ],
      [
        "▁наде",
        -10.066607249535037
      ],
      [
        "▁буду",
        -10.066788389800886
      ],
      [
        "▁едино",
        -10.066831258353252
      ],
      [
        "▁ПО",
        -10.068317379046782
      ],
      [
        "▁невозможно",
        -10.069226328196283
      ],
      [
        "документы",
        -10.069389747080185
      ],
      [
        "моей",
        -10.069642142984717
      ],
      [
        "▁исключительно",
        -10.069978826188645
      ],
      [
        "▁круг",
        -10.070233707846555
      ],
      [
        "▁иде",
        -10.070651405866744
      ],
      [
        "Новый",
        -10.07099893430841
      ],
      [
        "▁обрати",
        -10.071175342067995
      ],
      [
        "▁проводит",
        -10.071444290554528
      ],
      [
        "▁Па",
        -10.072962032938122
      ],
      [
        "процессе",
        -10.073046525460464
      ],
      [
        "ван",
        -10.073738441696467
      ],
      [
        "пол",
        -10.074061446627715
      ],
      [
        "▁власть",
        -10.074295890949985
      ],
      [
        "гр",
        -10.07473573067907
      ],
      [
        "комнаты",
        -10.074928502406264
      ],
      [
        "▁провести",
        -10.075976784896072
      ],
      [
        "▁восстановления",
        -10.076079566269927
      ],
      [
        "▁Просто",
        -10.076443486248834
      ],
      [
        "▁контекст",
        -10.076760228967256
      ],
      [
        "▁оружия",
        -10.076992843247938
      ],
      [
        "▁карты",
        -10.077365713620102
      ],
      [
        "рен",
        -10.078324257387095
      ],
      [
        "ника",
        -10.078632419805041
      ],
      [
        "▁побед",
        -10.07903890972769
      ],
      [
        "▁Кар",
        -10.07967949374007
      ],
      [
        "▁полны",
        -10.080291757510723
      ],
      [
        "ант",
        -10.080737620567238
      ],
      [
        "любое",
        -10.081452055810379
      ],
      [
        "новое",
        -10.082148669427575
      ],
      [
        "вообще",
        -10.082558986026704
      ],
      [
        "▁высокого",
        -10.083620410748363
      ],
      [
        "▁жить",
        -10.084793304851484
      ],
      [
        "▁кончил",
        -10.085265272800484
      ],
      [
        "▁позици",
        -10.085363494143587
      ],
      [
        "▁результат",
        -10.08575226066964
      ],
      [
        "▁Ваш",
        -10.086118456287524
      ],
      [
        "▁благо",
        -10.086938392312538
      ],
      [
        "Республика",
        -10.086999667746312
      ],
      [
        "определить",
        -10.088965101325673
      ],
      [
        "▁объекта",
        -10.089291610055536
      ],
      [
        "ирует",
        -10.08964393959471
      ],
      [
        "U",
        -10.089963018058281
      ],
      [
        "мировой",
        -10.090324329096736
      ],
      [
        "▁ВИЧ",
        -10.090607614246029
      ],
      [
        "▁Молдова",
        -10.091038431520554
      ],
      [
        "▁Наши",
        -10.091753923587795
      ],
      [
        "▁трудно",
        -10.092075452789619
      ],
      [
        "▁угроз",
        -10.09463458358213
      ],
      [
        "▁проходит",
        -10.095137983617414
      ],
      [
        "большую",
        -10.095199662059828
      ],
      [
        "нул",
        -10.095766379985607
      ],
      [
        "▁папк",
        -10.097562191983119
      ],
      [
        "привести",
        -10.097815932315124
      ],
      [
        "▁действие",
        -10.09781921625878
      ],
      [
        "акции",
        -10.098083200791516
      ],
      [
        "чь",
        -10.098451131784495
      ],
      [
        "ванная",
        -10.098631358878238
      ],
      [
        "▁душ",
        -10.098697897014802
      ],
      [
        "▁электро",
        -10.099283929709626
      ],
      [
        "▁телевизор",
        -10.099851611075044
      ],
      [
        "▁редактировани",
        -10.100463728532958
      ],
      [
        "▁Де",
        -10.10108987574794
      ],
      [
        "el",
        -10.101611743802113
      ],
      [
        "▁строительство",
        -10.102171034290118
      ],
      [
        "▁Азербайджан",
        -10.10278662374262
      ],
      [
        "▁Южно",
        -10.102827164760075
      ],
      [
        "нести",
        -10.10283210350234
      ],
      [
        "▁символ",
        -10.102853044072408
      ],
      [
        "▁рот",
        -10.10294344669957
      ],
      [
        "▁клиент",
        -10.103338587688206
      ],
      [
        "рибан",
        -10.103474039728685
      ],
      [
        "z",
        -10.103880943711129
      ],
      [
        "ходить",
        -10.104130991524363
      ],
      [
        "ками",
        -10.104390042179226
      ],
      [
        "Ключевые",
        -10.10446901896576
      ],
      [
        "▁животных",
        -10.104841231796021
      ],
      [
        "поможет",
        -10.10533432850896
      ],
      [
        "▁потенциал",
        -10.105424582523392
      ],
      [
        "дается",
        -10.105689630779038
      ],
      [
        "▁умолчанию",
        -10.10573891571254
      ],
      [
        "полной",
        -10.106919021615624
      ],
      [
        "воз",
        -10.107426050707739
      ],
      [
        "▁правил",
        -10.107530480175049
      ],
      [
        "▁недвижимости",
        -10.107820548920865
      ],
      [
        "стра",
        -10.108329892250605
      ],
      [
        "движение",
        -10.108525970203074
      ],
      [
        "чин",
        -10.10858040634247
      ],
      [
        "▁тело",
        -10.110600214474328
      ],
      [
        "речь",
        -10.112310872083508
      ],
      [
        "▁сектора",
        -10.112356738697754
      ],
      [
        "первые",
        -10.11251842396964
      ],
      [
        "▁класса",
        -10.112781190042897
      ],
      [
        "▁общественны",
        -10.113654238801791
      ],
      [
        "▁перво",
        -10.113845033850229
      ],
      [
        "▁серии",
        -10.114535121259333
      ],
      [
        "▁Господа",
        -10.114732193626542
      ],
      [
        "▁Китае",
        -10.11474059621735
      ],
      [
        "лучших",
        -10.115046360474278
      ],
      [
        "рек",
        -10.115511029520176
      ],
      [
        "др",
        -10.115576003621207
      ],
      [
        "▁милф",
        -10.115729394400928
      ],
      [
        "▁собственности",
        -10.115826560630923
      ],
      [
        "▁культур",
        -10.116381099029537
      ],
      [
        "сен",
        -10.116658915184988
      ],
      [
        "▁форм",
        -10.117447525133475
      ],
      [
        "or",
        -10.118326346341437
      ],
      [
        "▁устройство",
        -10.119031020155573
      ],
      [
        "▁плана",
        -10.119512427168928
      ],
      [
        "▁вида",
        -10.119865822064398
      ],
      [
        "▁скоре",
        -10.119916496403233
      ],
      [
        "прошлом",
        -10.120081725638133
      ],
      [
        "▁документа",
        -10.120893972820635
      ],
      [
        "▁лидер",
        -10.121300756690312
      ],
      [
        "ur",
        -10.121487817688823
      ],
      [
        "процедуры",
        -10.12222940441805
      ],
      [
        "экспертов",
        -10.122844888838548
      ],
      [
        "▁Потом",
        -10.12390049977029
      ],
      [
        "самой",
        -10.124050104739787
      ],
      [
        "▁температур",
        -10.12441098067097
      ],
      [
        "▁День",
        -10.124471667395346
      ],
      [
        "▁включен",
        -10.124585029193716
      ],
      [
        "ведет",
        -10.125069133155856
      ],
      [
        "▁материала",
        -10.125121647679057
      ],
      [
        "▁Ле",
        -10.125574836179236
      ],
      [
        "▁Ро",
        -10.125710641477218
      ],
      [
        "▁голос",
        -10.125738966543345
      ],
      [
        "чик",
        -10.126157090406387
      ],
      [
        "▁начало",
        -10.126541183061152
      ],
      [
        "▁конца",
        -10.12735347462724
      ],
      [
        "Ю",
        -10.127998457739467
      ],
      [
        "▁Санкт",
        -10.128011127926413
      ],
      [
        "▁электронны",
        -10.128781633578251
      ],
      [
        "лов",
        -10.128822009138185
      ],
      [
        "▁работают",
        -10.129114671962355
      ],
      [
        "способности",
        -10.129942014418592
      ],
      [
        "тан",
        -10.130007807576852
      ],
      [
        "▁строк",
        -10.13011549069996
      ],
      [
        "▁Server",
        -10.130430621360691
      ],
      [
        "▁ясно",
        -10.130467242936465
      ],
      [
        "▁идеально",
        -10.130504872063558
      ],
      [
        "новая",
        -10.13089715229414
      ],
      [
        "стоимости",
        -10.133073956385193
      ],
      [
        "▁учебны",
        -10.13337604753716
      ],
      [
        "сеть",
        -10.133450932541928
      ],
      [
        "Москва",
        -10.133711651256823
      ],
      [
        "Ц",
        -10.133876012412196
      ],
      [
        "▁комитет",
        -10.134117973236155
      ],
      [
        "▁товары",
        -10.13447421698254
      ],
      [
        "▁указанны",
        -10.134953383273267
      ],
      [
        "▁проекты",
        -10.13614167228637
      ],
      [
        "За",
        -10.136141898253097
      ],
      [
        "▁Ник",
        -10.136554752549394
      ],
      [
        "▁подчеркнул",
        -10.13741887198454
      ],
      [
        "▁российского",
        -10.137780407344769
      ],
      [
        "впервые",
        -10.138660070930621
      ],
      [
        "чат",
        -10.138951457687183
      ],
      [
        "столько",
        -10.139194562030326
      ],
      [
        "▁глубоко",
        -10.139339941670674
      ],
      [
        "▁изображения",
        -10.140126316596945
      ],
      [
        "▁игрок",
        -10.140327489119642
      ],
      [
        "▁дух",
        -10.140568055527998
      ],
      [
        "▁выставки",
        -10.140603358123487
      ],
      [
        "языке",
        -10.140607625141756
      ],
      [
        "▁площади",
        -10.140645586543137
      ],
      [
        "▁периода",
        -10.140736578503
      ],
      [
        "▁получили",
        -10.141507414818722
      ],
      [
        "▁пользу",
        -10.14184260995526
      ],
      [
        "социальной",
        -10.14221779850489
      ],
      [
        "▁журнал",
        -10.142392847158652
      ],
      [
        "режиме",
        -10.143512473176772
      ],
      [
        "три",
        -10.14373975387226
      ],
      [
        "▁дополнительные",
        -10.144972182472296
      ],
      [
        "дар",
        -10.14546955953751
      ],
      [
        "дают",
        -10.145715348099657
      ],
      [
        "▁клуб",
        -10.14670501339897
      ],
      [
        "▁странице",
        -10.147056530666337
      ],
      [
        "▁Кон",
        -10.147759757740326
      ],
      [
        "▁прием",
        -10.147853157834666
      ],
      [
        "первым",
        -10.149252001445731
      ],
      [
        "ic",
        -10.149378485664961
      ],
      [
        "▁часа",
        -10.149931420180055
      ],
      [
        "▁показал",
        -10.150121141544844
      ],
      [
        "новым",
        -10.150795967448042
      ],
      [
        "ad",
        -10.150959464590763
      ],
      [
        "▁сама",
        -10.152121109677699
      ],
      [
        "установлена",
        -10.152452584228927
      ],
      [
        "тен",
        -10.152458791815885
      ],
      [
        "▁государство",
        -10.152543241477243
      ],
      [
        "енная",
        -10.153303727732489
      ],
      [
        "ющее",
        -10.153311112194524
      ],
      [
        "каких",
        -10.153692185359517
      ],
      [
        "овое",
        -10.153707898223352
      ],
      [
        "звать",
        -10.153801857134013
      ],
      [
        "▁компанией",
        -10.154003200280139
      ],
      [
        "связь",
        -10.154231632628134
      ],
      [
        "▁Зна",
        -10.155345132675402
      ],
      [
        "▁содействи",
        -10.155566497647046
      ],
      [
        "вшей",
        -10.15568009741748
      ],
      [
        "▁лицензи",
        -10.155981971006803
      ],
      [
        "▁радио",
        -10.155995547947265
      ],
      [
        "▁рекомендуем",
        -10.156162384126086
      ],
      [
        "атор",
        -10.156495724556908
      ],
      [
        "стро",
        -10.156934505287197
      ],
      [
        "▁Су",
        -10.157238149140275
      ],
      [
        "▁Сторон",
        -10.15752569261402
      ],
      [
        "▁придет",
        -10.15837348320885
      ],
      [
        "▁свойства",
        -10.158400666836412
      ],
      [
        "▁готов",
        -10.15877765888751
      ],
      [
        "элементов",
        -10.158790982901605
      ],
      [
        "▁стиле",
        -10.1590370643161
      ],
      [
        "▁образование",
        -10.159225133253166
      ],
      [
        "раньш",
        -10.159364727515934
      ],
      [
        "ация",
        -10.159635225700228
      ],
      [
        "ванной",
        -10.15990764623604
      ],
      [
        "ники",
        -10.160434873525217
      ],
      [
        "▁народов",
        -10.160935313166274
      ],
      [
        "▁договора",
        -10.160971018905128
      ],
      [
        "▁Вмест",
        -10.161373941857217
      ],
      [
        "ско",
        -10.161380267315847
      ],
      [
        "▁процедур",
        -10.161634311128186
      ],
      [
        "любви",
        -10.161993795268907
      ],
      [
        "▁расходов",
        -10.162077868779328
      ],
      [
        "Христа",
        -10.162103531482936
      ],
      [
        "▁Хорош",
        -10.162653403631897
      ],
      [
        "обладает",
        -10.162689373029146
      ],
      [
        "▁кажд",
        -10.163209270117532
      ],
      [
        "▁Президента",
        -10.16402974207429
      ],
      [
        "▁объявления",
        -10.164048467895967
      ],
      [
        "▁гостиниц",
        -10.164100374842466
      ],
      [
        "▁возник",
        -10.164173312222205
      ],
      [
        "▁хозяйства",
        -10.164304278465472
      ],
      [
        "▁Android",
        -10.164401168992864
      ],
      [
        "▁Мар",
        -10.164863321389676
      ],
      [
        "▁половин",
        -10.16495040771451
      ],
      [
        "▁важны",
        -10.165833987565943
      ],
      [
        "▁параметры",
        -10.165852854661772
      ],
      [
        "вед",
        -10.16614659822716
      ],
      [
        "▁Ал",
        -10.166481676281443
      ],
      [
        "▁главным",
        -10.16669870924674
      ],
      [
        "▁политической",
        -10.166783489083205
      ],
      [
        "▁годов",
        -10.16683564530791
      ],
      [
        "▁позволяют",
        -10.167495361875245
      ],
      [
        "▁соответствующие",
        -10.16789669762496
      ],
      [
        "▁Мобильный",
        -10.167945383669375
      ],
      [
        "▁рейтинг",
        -10.168105934974882
      ],
      [
        "▁библиотек",
        -10.168142145253325
      ],
      [
        "моя",
        -10.168157853929799
      ],
      [
        "рет",
        -10.168406446515869
      ],
      [
        "▁обзор",
        -10.169100030097885
      ],
      [
        "▁грех",
        -10.169112962717461
      ],
      [
        "▁современно",
        -10.169649808131936
      ],
      [
        "предоставить",
        -10.169752000450185
      ],
      [
        "▁секретаря",
        -10.169918412197122
      ],
      [
        "▁абсолютно",
        -10.171095298453423
      ],
      [
        "▁потенциала",
        -10.171252341937901
      ],
      [
        "▁игрушки",
        -10.171477934989086
      ],
      [
        "▁политика",
        -10.171740394965923
      ],
      [
        "▁сельскохозяйств",
        -10.17179621613772
      ],
      [
        "теля",
        -10.172086460651883
      ],
      [
        "▁четырех",
        -10.172238560556108
      ],
      [
        "рон",
        -10.172500602700874
      ],
      [
        "основной",
        -10.172915817975518
      ],
      [
        "▁доби",
        -10.173364419639299
      ],
      [
        "знают",
        -10.174335867255833
      ],
      [
        "▁способность",
        -10.174442191700843
      ],
      [
        "▁Конечно",
        -10.174454146375103
      ],
      [
        "▁считают",
        -10.175048221681138
      ],
      [
        "знаний",
        -10.175158502129634
      ],
      [
        "▁Q",
        -10.175799950309422
      ],
      [
        "▁машины",
        -10.176067128222721
      ],
      [
        "▁II",
        -10.176213410821546
      ],
      [
        "▁республик",
        -10.176429770398169
      ],
      [
        "енные",
        -10.17780605719003
      ],
      [
        "▁рода",
        -10.177925592175237
      ],
      [
        "▁атмосфер",
        -10.177964811072282
      ],
      [
        "▁говоря",
        -10.178389663877164
      ],
      [
        "▁браузера",
        -10.179423247588884
      ],
      [
        "эр",
        -10.179534875313532
      ],
      [
        "▁степен",
        -10.179815364145709
      ],
      [
        "ней",
        -10.179986003668898
      ],
      [
        "▁глав",
        -10.179987888246655
      ],
      [
        "▁серьезны",
        -10.180069530958965
      ],
      [
        "▁союз",
        -10.180755832333492
      ],
      [
        "▁текуще",
        -10.18092549583431
      ],
      [
        "▁Тип",
        -10.180943558091581
      ],
      [
        "▁соответствующе",
        -10.181285918878247
      ],
      [
        "▁авто",
        -10.181726518275338
      ],
      [
        "▁обо",
        -10.182417834054585
      ],
      [
        "▁мобильны",
        -10.182989872000102
      ],
      [
        "аль",
        -10.183443805874385
      ],
      [
        "единицы",
        -10.18348964890578
      ],
      [
        "фер",
        -10.184133755578637
      ],
      [
        "▁сих",
        -10.184501875139345
      ],
      [
        "▁азартны",
        -10.185232232740956
      ],
      [
        "▁комитета",
        -10.185361253591735
      ],
      [
        "енко",
        -10.185971053050515
      ],
      [
        "▁теле",
        -10.186060077992902
      ],
      [
        "ред",
        -10.18669158003846
      ],
      [
        "▁та",
        -10.186951406324868
      ],
      [
        "российских",
        -10.187515414084867
      ],
      [
        "▁будете",
        -10.187588568113148
      ],
      [
        "▁выполнять",
        -10.18841417249107
      ],
      [
        "▁акций",
        -10.189698271184085
      ],
      [
        "местах",
        -10.189799267936712
      ],
      [
        "▁необходимы",
        -10.191005804896193
      ],
      [
        "следующий",
        -10.191376863576396
      ],
      [
        "▁медиа",
        -10.191670477776034
      ],
      [
        "исключением",
        -10.191681951501513
      ],
      [
        "борьбе",
        -10.192072125375843
      ],
      [
        "▁финансов",
        -10.192091971466512
      ],
      [
        "вшего",
        -10.193147937672816
      ],
      [
        "тели",
        -10.19331713659365
      ],
      [
        "▁вход",
        -10.193933400287666
      ],
      [
        "▁обратно",
        -10.194055581507174
      ],
      [
        "альная",
        -10.194109798603812
      ],
      [
        "▁блок",
        -10.194156281816191
      ],
      [
        "▁шанс",
        -10.194307564565314
      ],
      [
        "базе",
        -10.195019615264169
      ],
      [
        "цена",
        -10.195110460593575
      ],
      [
        "▁самостоятельно",
        -10.195544840632497
      ],
      [
        "▁ресурсы",
        -10.196068760188737
      ],
      [
        "▁внешни",
        -10.196179006881392
      ],
      [
        "▁бюджет",
        -10.197641786828
      ],
      [
        "and",
        -10.198006161563011
      ],
      [
        "▁мгновенно",
        -10.198013713084691
      ],
      [
        "▁Доступ",
        -10.198140352063998
      ],
      [
        "▁массаж",
        -10.19818792829109
      ],
      [
        "▁доме",
        -10.198349870517204
      ],
      [
        "той",
        -10.19851777789225
      ],
      [
        "▁эффективность",
        -10.198964817013294
      ],
      [
        "▁регион",
        -10.19930063366201
      ],
      [
        "ch",
        -10.20008980879711
      ],
      [
        "выше",
        -10.200537392622577
      ],
      [
        "▁приложений",
        -10.201564058101146
      ],
      [
        "обновить",
        -10.201875380414442
      ],
      [
        "▁создавать",
        -10.201947545384666
      ],
      [
        "знаете",
        -10.201995524227563
      ],
      [
        "▁метеоусловия",
        -10.202447251048376
      ],
      [
        "дел",
        -10.202516656826761
      ],
      [
        "▁доктор",
        -10.202579053580854
      ],
      [
        "цен",
        -10.202634394629555
      ],
      [
        "▁Бо",
        -10.202710829413652
      ],
      [
        "▁помогает",
        -10.204977705316173
      ],
      [
        "▁наше",
        -10.205082396502295
      ],
      [
        "▁высот",
        -10.205295472371636
      ],
      [
        "▁Наша",
        -10.205541925737064
      ],
      [
        "▁перевод",
        -10.205790993139951
      ],
      [
        "▁конкретно",
        -10.205802834548107
      ],
      [
        "▁предназначен",
        -10.206075679854434
      ],
      [
        "▁получать",
        -10.20692370239966
      ],
      [
        "▁учет",
        -10.207011920178084
      ],
      [
        "▁взял",
        -10.207246666997156
      ],
      [
        "▁призна",
        -10.207270363080703
      ],
      [
        "мат",
        -10.207278202744693
      ],
      [
        "имеется",
        -10.207635641513297
      ],
      [
        "▁эффект",
        -10.207741821367891
      ],
      [
        "▁предлагаем",
        -10.207805368602521
      ],
      [
        "следующим",
        -10.208040278342187
      ],
      [
        "осуществляется",
        -10.208653245380745
      ],
      [
        "Танцующи",
        -10.208690933490988
      ],
      [
        "▁наша",
        -10.208976173432896
      ],
      [
        "любовь",
        -10.209100482937707
      ],
      [
        "▁Проект",
        -10.209454031138348
      ],
      [
        "▁Иран",
        -10.209612677886412
      ],
      [
        "▁Отц",
        -10.210106761628278
      ],
      [
        "сможет",
        -10.210567241839586
      ],
      [
        "методы",
        -10.21056974324662
      ],
      [
        "нер",
        -10.210969006754594
      ],
      [
        "▁отдельных",
        -10.2109937044628
      ],
      [
        "▁депутат",
        -10.211356503342722
      ],
      [
        "типы",
        -10.211473232418456
      ],
      [
        "▁Восток",
        -10.212242743704909
      ],
      [
        "▁Польш",
        -10.212533953574654
      ],
      [
        "▁ст",
        -10.212793588709765
      ],
      [
        "вшие",
        -10.213224129158393
      ],
      [
        "▁создании",
        -10.213711221213895
      ],
      [
        "▁обучение",
        -10.214232120239114
      ],
      [
        "▁Один",
        -10.21467935705262
      ],
      [
        "жителей",
        -10.214898963032946
      ],
      [
        "▁бо",
        -10.215222659859409
      ],
      [
        "рин",
        -10.215410939571035
      ],
      [
        "▁Комитета",
        -10.216552237639672
      ],
      [
        "▁Та",
        -10.216820916277808
      ],
      [
        "элементы",
        -10.217182518376292
      ],
      [
        "▁распространения",
        -10.217917689166457
      ],
      [
        "▁кг",
        -10.217997679619986
      ],
      [
        "туда",
        -10.218144718999904
      ],
      [
        "тель",
        -10.218163319487418
      ],
      [
        "▁кожи",
        -10.21820491572361
      ],
      [
        "▁форум",
        -10.218784241207445
      ],
      [
        "▁назначения",
        -10.219032494424775
      ],
      [
        "▁Иерусалим",
        -10.219091600830259
      ],
      [
        "Франции",
        -10.219827053465133
      ],
      [
        "▁определения",
        -10.219930577356772
      ],
      [
        "Другие",
        -10.22001181598208
      ],
      [
        "▁кон",
        -10.220257948204203
      ],
      [
        "▁рождения",
        -10.220355981745024
      ],
      [
        "▁основании",
        -10.221043109828683
      ],
      [
        "исты",
        -10.221543050309482
      ],
      [
        "▁финансирования",
        -10.221849528230228
      ],
      [
        "▁сообщает",
        -10.222554080055248
      ],
      [
        "▁ядерно",
        -10.222746735144465
      ],
      [
        "вашим",
        -10.222887770741355
      ],
      [
        "ания",
        -10.224543150153742
      ],
      [
        "научных",
        -10.224571199962172
      ],
      [
        "▁недавно",
        -10.224860117548294
      ],
      [
        "▁Сам",
        -10.225077584197034
      ],
      [
        "▁Бар",
        -10.225092661666135
      ],
      [
        "▁обе",
        -10.225736307367836
      ],
      [
        "оплаты",
        -10.225767725923145
      ],
      [
        "вший",
        -10.226031009206318
      ],
      [
        "тро",
        -10.226364887274055
      ],
      [
        "ани",
        -10.226544618047829
      ],
      [
        "▁настоящи",
        -10.22665443298124
      ],
      [
        "▁представлены",
        -10.226801154448761
      ],
      [
        "▁удалось",
        -10.227691289513473
      ],
      [
        "▁Камел",
        -10.228358012709291
      ],
      [
        "▁культурно",
        -10.228421014707521
      ],
      [
        "казино",
        -10.228446412158842
      ],
      [
        "нефти",
        -10.228850630912893
      ],
      [
        "Не",
        -10.229410242379547
      ],
      [
        "▁странами",
        -10.229645917058642
      ],
      [
        "областя",
        -10.229934514950857
      ],
      [
        "▁рекомендации",
        -10.229995015344498
      ],
      [
        "рис",
        -10.2301129495887
      ],
      [
        "▁столь",
        -10.230120980630243
      ],
      [
        "▁повестк",
        -10.231179547047132
      ],
      [
        "▁НАТО",
        -10.231368671360123
      ],
      [
        "▁Ку",
        -10.231602380188683
      ],
      [
        "вшихся",
        -10.231848191827897
      ],
      [
        "▁района",
        -10.232090914121127
      ],
      [
        "давно",
        -10.232241696618871
      ],
      [
        "▁ущерб",
        -10.232330883499678
      ],
      [
        "▁вкус",
        -10.233212062161844
      ],
      [
        "Всего",
        -10.233326389505791
      ],
      [
        "▁Ирак",
        -10.23372647015436
      ],
      [
        "легкий",
        -10.233868341146437
      ],
      [
        "▁прекрасно",
        -10.234462229174465
      ],
      [
        "▁собственно",
        -10.235124136592388
      ],
      [
        "▁выбора",
        -10.235592123749084
      ],
      [
        "▁принцип",
        -10.235613627656596
      ],
      [
        "▁переводит",
        -10.236960590068373
      ],
      [
        "▁Курен",
        -10.23704934559701
      ],
      [
        "▁режима",
        -10.237444847019745
      ],
      [
        "▁расходы",
        -10.237467698548857
      ],
      [
        "виды",
        -10.237600596707535
      ],
      [
        "@",
        -10.237790574535813
      ],
      [
        "▁нрави",
        -10.237897959333822
      ],
      [
        "енной",
        -10.2381798894681
      ],
      [
        "операций",
        -10.238197245675092
      ],
      [
        "гер",
        -10.238526934225511
      ],
      [
        "▁минимум",
        -10.238588933412082
      ],
      [
        "▁настояще",
        -10.238630699582199
      ],
      [
        "▁используя",
        -10.23887167501296
      ],
      [
        "Porn",
        -10.239552457836838
      ],
      [
        "мар",
        -10.239677537238553
      ],
      [
        "▁ту",
        -10.2398467821989
      ],
      [
        "лек",
        -10.239968187571282
      ],
      [
        "▁тут",
        -10.240342023589868
      ],
      [
        "▁традиционны",
        -10.240647163114895
      ],
      [
        "Статья",
        -10.243187650378115
      ],
      [
        "▁техники",
        -10.24330780382651
      ],
      [
        "▁попытк",
        -10.244189607580847
      ],
      [
        "▁основным",
        -10.244715700643184
      ],
      [
        "▁шесть",
        -10.24601621473431
      ],
      [
        "сохранить",
        -10.246073937977636
      ],
      [
        "▁функция",
        -10.246149101073444
      ],
      [
        "▁Рас",
        -10.246350352683866
      ],
      [
        "▁меж",
        -10.24658098036406
      ],
      [
        "▁Ма",
        -10.246827736376313
      ],
      [
        "▁Безопасности",
        -10.24763470998919
      ],
      [
        "вид",
        -10.247840494244699
      ],
      [
        "отметить",
        -10.24794818064973
      ],
      [
        "▁процессов",
        -10.24829810748937
      ],
      [
        "узнаете",
        -10.248789223569753
      ],
      [
        "▁Запад",
        -10.24888561001787
      ],
      [
        "ro",
        -10.248982147919353
      ],
      [
        "мной",
        -10.249099430452903
      ],
      [
        "▁Че",
        -10.24943082999286
      ],
      [
        "Поскольку",
        -10.250184988877237
      ],
      [
        "▁законодательств",
        -10.250515551762426
      ],
      [
        "org",
        -10.250580699304436
      ],
      [
        "▁построен",
        -10.250821080337294
      ],
      [
        "▁вебкамера",
        -10.251006525129633
      ],
      [
        "▁курса",
        -10.252214074402568
      ],
      [
        "ma",
        -10.253199829037477
      ],
      [
        "продолжать",
        -10.25373310942897
      ],
      [
        "▁долларов",
        -10.254232610361242
      ],
      [
        "▁возможны",
        -10.255440500294446
      ],
      [
        "▁сердца",
        -10.255494847665508
      ],
      [
        "▁третье",
        -10.255835450370844
      ],
      [
        "▁арми",
        -10.256356460963069
      ],
      [
        "„",
        -10.256739133117497
      ],
      [
        "▁подобны",
        -10.2571188812796
      ],
      [
        "информацией",
        -10.257333434103591
      ],
      [
        "▁открыты",
        -10.25773099465242
      ],
      [
        "▁машина",
        -10.258204317375919
      ],
      [
        "▁гости",
        -10.258361571548418
      ],
      [
        "▁длин",
        -10.258436478358172
      ],
      [
        "▁мысли",
        -10.258508434312043
      ],
      [
        "▁представления",
        -10.258738550350499
      ],
      [
        "сайт",
        -10.258907816967053
      ],
      [
        "▁пищ",
        -10.259087632182547
      ],
      [
        "▁веществ",
        -10.259110044278403
      ],
      [
        "▁плохо",
        -10.259629690520674
      ],
      [
        "зоны",
        -10.259825549171314
      ],
      [
        "▁последствия",
        -10.259834058598392
      ],
      [
        "▁диск",
        -10.260366104733121
      ],
      [
        "ставки",
        -10.260714959481247
      ],
      [
        "ации",
        -10.261066057034466
      ],
      [
        "▁системой",
        -10.261159928030583
      ],
      [
        "лан",
        -10.26125256429364
      ],
      [
        "▁Международный",
        -10.261488765692615
      ],
      [
        "включают",
        -10.261846159448218
      ],
      [
        "▁переход",
        -10.262565288573263
      ],
      [
        "▁прикладн",
        -10.262676638173767
      ],
      [
        "которыми",
        -10.263323333904879
      ],
      [
        "следующую",
        -10.263563694315566
      ],
      [
        "игроков",
        -10.264238841644977
      ],
      [
        "лог",
        -10.264566867272098
      ],
      [
        "деть",
        -10.26495758375432
      ],
      [
        "▁наград",
        -10.265168320016851
      ],
      [
        "▁Америки",
        -10.265345967671998
      ],
      [
        "▁кризис",
        -10.265547282147486
      ],
      [
        "пар",
        -10.266056540801078
      ],
      [
        "▁решил",
        -10.266131522318126
      ],
      [
        "▁нужны",
        -10.266595192996492
      ],
      [
        "▁телефона",
        -10.266599673398966
      ],
      [
        "▁панели",
        -10.267688877917958
      ],
      [
        "▁городов",
        -10.268012570621421
      ],
      [
        "▁Описание",
        -10.268281581007006
      ],
      [
        "▁Ло",
        -10.26851146568432
      ],
      [
        "▁международном",
        -10.269744344489416
      ],
      [
        "описание",
        -10.270163415542616
      ],
      [
        "структуры",
        -10.270356050222201
      ],
      [
        "личности",
        -10.270505652154126
      ],
      [
        "▁конкурс",
        -10.27085529225615
      ],
      [
        "▁свободны",
        -10.27092997083748
      ],
      [
        "шла",
        -10.270965682555053
      ],
      [
        "▁свободно",
        -10.271294223622473
      ],
      [
        "▁представляют",
        -10.271819869942194
      ],
      [
        "дальше",
        -10.271872150530763
      ],
      [
        "na",
        -10.271913032274828
      ],
      [
        "▁отлича",
        -10.272384529561837
      ],
      [
        "▁рекомендует",
        -10.272497882199907
      ],
      [
        "ила",
        -10.272610757589957
      ],
      [
        "il",
        -10.272756470956258
      ],
      [
        "▁открытия",
        -10.27308149776209
      ],
      [
        "▁институт",
        -10.274084752802944
      ],
      [
        "▁фонда",
        -10.274178034925466
      ],
      [
        "знал",
        -10.27422023613679
      ],
      [
        "▁делают",
        -10.27473713960589
      ],
      [
        "▁премьер",
        -10.275361599401956
      ],
      [
        "дополнительных",
        -10.275588237469973
      ],
      [
        "▁фетиш",
        -10.275595962281294
      ],
      [
        "▁Ветер",
        -10.275950475175177
      ],
      [
        "\n",
        -10.275984678347466
      ],
      [
        "▁команда",
        -10.276301354836415
      ],
      [
        "▁выставка",
        -10.276511079958306
      ],
      [
        "Министерство",
        -10.276866671376553
      ],
      [
        "низу",
        -10.277424174116621
      ],
      [
        "▁вполн",
        -10.277656654869414
      ],
      [
        "▁фильм",
        -10.2780454147226
      ],
      [
        "▁Гарри",
        -10.278532126663778
      ],
      [
        "моего",
        -10.279575779457597
      ],
      [
        "крупных",
        -10.279969915509593
      ],
      [
        "▁отношение",
        -10.280725048091764
      ],
      [
        "чем",
        -10.281361908638319
      ],
      [
        "▁окна",
        -10.281368577754264
      ],
      [
        "▁отмечает",
        -10.281408975545173
      ],
      [
        "▁Дом",
        -10.281481464196265
      ],
      [
        "важным",
        -10.281761147110975
      ],
      [
        "▁функций",
        -10.282008265851802
      ],
      [
        "▁содержание",
        -10.2822518763441
      ],
      [
        "▁ограничения",
        -10.282580354211051
      ],
      [
        "▁религиозны",
        -10.283461731253485
      ],
      [
        "▁особы",
        -10.284266519891577
      ],
      [
        "ические",
        -10.28426856006407
      ],
      [
        "кан",
        -10.284866754048146
      ],
      [
        "▁сад",
        -10.284900002891167
      ],
      [
        "кин",
        -10.285032019368185
      ],
      [
        "▁размера",
        -10.285845703489333
      ],
      [
        "▁драйвер",
        -10.285853564591774
      ],
      [
        "▁поля",
        -10.285984999567882
      ],
      [
        "▁The",
        -10.286024436532918
      ],
      [
        "ПВХ",
        -10.28605884311204
      ],
      [
        "ует",
        -10.286187550048131
      ],
      [
        "▁рассказал",
        -10.287113698530973
      ],
      [
        "точную",
        -10.287213238981016
      ],
      [
        "▁Номер",
        -10.287288456624644
      ],
      [
        "▁увидел",
        -10.287309635878765
      ],
      [
        "▁зарегистрирован",
        -10.28747808194468
      ],
      [
        "▁показател",
        -10.287519996250133
      ],
      [
        "▁кандидат",
        -10.287762860851585
      ],
      [
        "рам",
        -10.288069152746395
      ],
      [
        "лом",
        -10.288261861172538
      ],
      [
        "▁огромно",
        -10.288805800514531
      ],
      [
        "можешь",
        -10.289346663746935
      ],
      [
        "больших",
        -10.289722773107579
      ],
      [
        "▁национального",
        -10.289837070964738
      ],
      [
        "вали",
        -10.289920665440423
      ],
      [
        "ющим",
        -10.29006153110257
      ],
      [
        "▁название",
        -10.290135237312079
      ],
      [
        "▁сообщества",
        -10.290971572382908
      ],
      [
        "бит",
        -10.29176515056401
      ],
      [
        "любых",
        -10.292079969704904
      ],
      [
        "▁представление",
        -10.292118548647766
      ],
      [
        "▁поток",
        -10.292348743351353
      ],
      [
        "рос",
        -10.292359643918353
      ],
      [
        "▁случи",
        -10.292777958057115
      ],
      [
        "▁Инструмент",
        -10.293385803493193
      ],
      [
        "лер",
        -10.293510175680478
      ],
      [
        "▁USB",
        -10.293732484621783
      ],
      [
        "▁магазин",
        -10.293930727580904
      ],
      [
        "un",
        -10.294417661492398
      ],
      [
        "современных",
        -10.294420568424671
      ],
      [
        "▁надежд",
        -10.294522957425585
      ],
      [
        "ставок",
        -10.294601403034783
      ],
      [
        "▁труб",
        -10.294657877401129
      ],
      [
        "▁кнопк",
        -10.294847336502746
      ],
      [
        "▁источников",
        -10.294892088079326
      ],
      [
        "куда",
        -10.295864709881213
      ],
      [
        "требований",
        -10.295956562913986
      ],
      [
        "▁Материал",
        -10.296376727158275
      ],
      [
        "▁заявления",
        -10.296624268290346
      ],
      [
        "▁купить",
        -10.296888363089188
      ],
      [
        "▁направлен",
        -10.29721245600108
      ],
      [
        "печати",
        -10.297398542040321
      ],
      [
        "входит",
        -10.297899678017062
      ],
      [
        "честь",
        -10.298272822867025
      ],
      [
        "▁Среди",
        -10.298483657891529
      ],
      [
        "▁персонала",
        -10.298664845358635
      ],
      [
        "оружие",
        -10.299253404131411
      ],
      [
        "▁низко",
        -10.29941586673054
      ],
      [
        "▁кухн",
        -10.299558128619152
      ],
      [
        "▁спорта",
        -10.299800513520672
      ],
      [
        "будущее",
        -10.30038791418553
      ],
      [
        "la",
        -10.30056024792683
      ],
      [
        "j",
        -10.300805544158102
      ],
      [
        "технического",
        -10.302042277092468
      ],
      [
        "▁отлично",
        -10.302197327121744
      ],
      [
        "думать",
        -10.302222850839481
      ],
      [
        "▁полу",
        -10.302226470710236
      ],
      [
        "▁Программа",
        -10.302589332940348
      ],
      [
        "▁преимущества",
        -10.30315095105177
      ],
      [
        "▁направлении",
        -10.30420560510829
      ],
      [
        "▁центрально",
        -10.304487553117374
      ],
      [
        "▁настоящего",
        -10.304512913601123
      ],
      [
        "▁используют",
        -10.304906684478025
      ],
      [
        "▁VPN",
        -10.305646213653649
      ],
      [
        "хотят",
        -10.305656348740172
      ],
      [
        "▁медицински",
        -10.30590804778693
      ],
      [
        "▁экологически",
        -10.306713274982275
      ],
      [
        "методов",
        -10.30679627844806
      ],
      [
        "▁Новости",
        -10.306805903290188
      ],
      [
        "▁Использование",
        -10.307275800685701
      ],
      [
        "▁сожалени",
        -10.307395068499194
      ],
      [
        "фор",
        -10.30747020934433
      ],
      [
        "▁парк",
        -10.307491361134835
      ],
      [
        "▁поддерживать",
        -10.307520889820974
      ],
      [
        "▁учреждений",
        -10.307648168080073
      ],
      [
        "▁др",
        -10.307654176755877
      ],
      [
        "▁конфликт",
        -10.307703261888328
      ],
      [
        "▁ключевы",
        -10.308255568479737
      ],
      [
        "Просмотре",
        -10.308286748292565
      ],
      [
        "произошло",
        -10.3082973559512
      ],
      [
        "▁инструментов",
        -10.308743405233713
      ],
      [
        "▁большинств",
        -10.308777883212862
      ],
      [
        "th",
        -10.308780926200146
      ],
      [
        "насколько",
        -10.308872092180422
      ],
      [
        "▁тенденци",
        -10.309529482812923
      ],
      [
        "кол",
        -10.310038344631973
      ],
      [
        "▁форма",
        -10.310274125492825
      ],
      [
        "▁Дух",
        -10.310304289368949
      ],
      [
        "▁полици",
        -10.31052500679346
      ],
      [
        "ter",
        -10.310771624507987
      ],
      [
        "▁Второ",
        -10.310791071346324
      ],
      [
        "▁Гу",
        -10.310986385329626
      ],
      [
        "знаешь",
        -10.311125384267797
      ],
      [
        "вперед",
        -10.311356225112627
      ],
      [
        "Анальны",
        -10.312146153909193
      ],
      [
        "▁твое",
        -10.312225792046155
      ],
      [
        "▁www",
        -10.313887568356183
      ],
      [
        "разработке",
        -10.313909344354025
      ],
      [
        "ари",
        -10.314154483501994
      ],
      [
        "▁слов",
        -10.314770117580377
      ],
      [
        "▁мышь",
        -10.314964374813275
      ],
      [
        "▁сила",
        -10.315978873577988
      ],
      [
        "▁сделан",
        -10.316263929782181
      ],
      [
        "▁направленны",
        -10.316459753347763
      ],
      [
        "▁проводить",
        -10.316619540481874
      ],
      [
        "▁огн",
        -10.31681280464423
      ],
      [
        "▁Без",
        -10.317070880896363
      ],
      [
        "▁домен",
        -10.317812119504927
      ],
      [
        "▁посетил",
        -10.317954496807516
      ],
      [
        "▁интересов",
        -10.318046867835067
      ],
      [
        "▁обязательств",
        -10.319166093059366
      ],
      [
        "ним",
        -10.319319586470959
      ],
      [
        "▁пространства",
        -10.319351331614053
      ],
      [
        "▁существенно",
        -10.319663036865446
      ],
      [
        "▁велико",
        -10.319711567475576
      ],
      [
        "высоким",
        -10.31977090364016
      ],
      [
        "▁Вес",
        -10.319990403703933
      ],
      [
        "▁сезон",
        -10.321396806302403
      ],
      [
        "ница",
        -10.321703864711647
      ],
      [
        "ночь",
        -10.321748953386201
      ],
      [
        "▁Го",
        -10.322422729792974
      ],
      [
        "▁зал",
        -10.322551684089898
      ],
      [
        "ём",
        -10.32267851656133
      ],
      [
        "▁направления",
        -10.32273544329665
      ],
      [
        "▁Название",
        -10.32280684175546
      ],
      [
        "Мы",
        -10.322831487021537
      ],
      [
        "▁продолжает",
        -10.323019753544953
      ],
      [
        "▁выпуск",
        -10.323931633853235
      ],
      [
        "ступ",
        -10.32397306848457
      ],
      [
        "▁члены",
        -10.32416752899262
      ],
      [
        "▁Мир",
        -10.324404776870988
      ],
      [
        "▁рубле",
        -10.324469888107863
      ],
      [
        "▁списка",
        -10.324808521542005
      ],
      [
        "▁час",
        -10.324856187719389
      ],
      [
        "▁Показат",
        -10.324964039300617
      ],
      [
        "▁Там",
        -10.324967115408247
      ],
      [
        "▁завтрак",
        -10.325463764396847
      ],
      [
        "тащите",
        -10.325549088947065
      ],
      [
        "нию",
        -10.325619325689852
      ],
      [
        "▁Центральной",
        -10.326467630510086
      ],
      [
        "▁Закон",
        -10.327143302512534
      ],
      [
        "▁чисто",
        -10.327292336851732
      ],
      [
        "▁Пре",
        -10.327599966886517
      ],
      [
        "▁острова",
        -10.32780765361024
      ],
      [
        "Группы",
        -10.328081121148676
      ],
      [
        "▁улучшения",
        -10.328138357066303
      ],
      [
        "▁спортивны",
        -10.32826398116497
      ],
      [
        "пат",
        -10.328285837951851
      ],
      [
        "▁избирательно",
        -10.328338724495715
      ],
      [
        "▁ледибой",
        -10.328612484564292
      ],
      [
        "▁Фингер",
        -10.328630238527623
      ],
      [
        "▁Возможно",
        -10.328680043906038
      ],
      [
        "▁отдых",
        -10.329683676432436
      ],
      [
        "▁транспорт",
        -10.329728323624948
      ],
      [
        "▁принято",
        -10.329729998370285
      ],
      [
        "▁школа",
        -10.330118837181598
      ],
      [
        "Услуги",
        -10.330139116473571
      ],
      [
        "проживания",
        -10.330442506331297
      ],
      [
        "▁Председатель",
        -10.330850871900033
      ],
      [
        "повышение",
        -10.330964665239415
      ],
      [
        "▁Re",
        -10.331137096728552
      ],
      [
        "▁Система",
        -10.331522377969494
      ],
      [
        "▁элемент",
        -10.331696360054256
      ],
      [
        "▁страница",
        -10.332066362673968
      ],
      [
        "▁дал",
        -10.332517512620887
      ],
      [
        "▁школ",
        -10.332974593671095
      ],
      [
        "давать",
        -10.333372041532195
      ],
      [
        "органы",
        -10.333523765285287
      ],
      [
        "▁улиц",
        -10.333574693598717
      ],
      [
        "Международного",
        -10.334291212436277
      ],
      [
        "▁зло",
        -10.335312377773048
      ],
      [
        "тур",
        -10.335832216283668
      ],
      [
        "каз",
        -10.33586795073654
      ],
      [
        "▁ежегодно",
        -10.336341943580221
      ],
      [
        "сад",
        -10.336517242749027
      ],
      [
        "▁автомобиля",
        -10.336652160313147
      ],
      [
        "▁безопасно",
        -10.336976023000275
      ],
      [
        "\\",
        -10.337421346193542
      ],
      [
        "ent",
        -10.337964598247504
      ],
      [
        "▁специализирован",
        -10.33807137630556
      ],
      [
        "▁предотвращени",
        -10.33865329805801
      ],
      [
        "▁использоваться",
        -10.33899292154195
      ],
      [
        "st",
        -10.339020665510459
      ],
      [
        "▁убеди",
        -10.339339729459402
      ],
      [
        "добавить",
        -10.339578804228054
      ],
      [
        "ly",
        -10.34003633582954
      ],
      [
        "ера",
        -10.340301398327558
      ],
      [
        "▁Республика",
        -10.340934763155795
      ],
      [
        "▁визит",
        -10.341196560449939
      ],
      [
        "▁тепло",
        -10.341219919116154
      ],
      [
        "▁турнир",
        -10.34124186662768
      ],
      [
        "▁форму",
        -10.342141041229352
      ],
      [
        "ri",
        -10.342573180730959
      ],
      [
        "▁далеко",
        -10.34327564002286
      ],
      [
        "▁образ",
        -10.343690105356114
      ],
      [
        "следующем",
        -10.3440899502663
      ],
      [
        "▁отсутствие",
        -10.344232426707936
      ],
      [
        "▁оценка",
        -10.34452742978426
      ],
      [
        "приняли",
        -10.344761410944002
      ],
      [
        "▁оценк",
        -10.345175155121971
      ],
      [
        "▁открыт",
        -10.345537304757425
      ],
      [
        "▁исторически",
        -10.345755372946492
      ],
      [
        "▁масло",
        -10.346111083577652
      ],
      [
        "▁Ча",
        -10.346165516134782
      ],
      [
        "▁дороги",
        -10.346573044422874
      ],
      [
        "▁согласи",
        -10.346968991231034
      ],
      [
        "▁орган",
        -10.347841913451658
      ],
      [
        "▁странам",
        -10.34789037461242
      ],
      [
        "▁хорош",
        -10.34827241417826
      ],
      [
        "▁Гд",
        -10.348622861799408
      ],
      [
        "▁проведен",
        -10.348746448943242
      ],
      [
        "▁покер",
        -10.348754584868482
      ],
      [
        "▁Таджикистан",
        -10.349591440937594
      ],
      [
        "▁протокол",
        -10.349726826898095
      ],
      [
        "общественного",
        -10.34979791480095
      ],
      [
        "производителей",
        -10.349806801930248
      ],
      [
        "▁границ",
        -10.350049461063197
      ],
      [
        "▁ассоциирует",
        -10.350536454559634
      ],
      [
        "▁увеличение",
        -10.350597142707096
      ],
      [
        "гар",
        -10.3506447664647
      ],
      [
        "▁Выберите",
        -10.350817780899801
      ],
      [
        "▁размещения",
        -10.351320129390823
      ],
      [
        "▁кондиционер",
        -10.351378060176078
      ],
      [
        "гре",
        -10.351563877647095
      ],
      [
        "кер",
        -10.352566535188117
      ],
      [
        "▁кажды",
        -10.35276120636841
      ],
      [
        "зже",
        -10.352922062581586
      ],
      [
        "лей",
        -10.352952135675555
      ],
      [
        "▁официально",
        -10.35321651661246
      ],
      [
        "енный",
        -10.353236792180812
      ],
      [
        "▁обязательства",
        -10.353798617386179
      ],
      [
        "ция",
        -10.354465092028766
      ],
      [
        "▁ради",
        -10.354509468312953
      ],
      [
        "▁семей",
        -10.354942741321475
      ],
      [
        "бл",
        -10.355151105609151
      ],
      [
        "ведения",
        -10.355327270932618
      ],
      [
        "ложен",
        -10.355664100267376
      ],
      [
        "▁партнер",
        -10.35625157726455
      ],
      [
        "▁ходьб",
        -10.356401732119433
      ],
      [
        "гла",
        -10.356491464200792
      ],
      [
        "ович",
        -10.357049488233937
      ],
      [
        "▁золото",
        -10.357408977750211
      ],
      [
        "▁Ч",
        -10.357678047905523
      ],
      [
        "очешь",
        -10.357725754374053
      ],
      [
        "▁музей",
        -10.357787190991965
      ],
      [
        "▁банк",
        -10.35872297225037
      ],
      [
        "топление",
        -10.358933007862523
      ],
      [
        "овский",
        -10.359147192243737
      ],
      [
        "▁ученик",
        -10.359211159379711
      ],
      [
        "избежать",
        -10.359290224830941
      ],
      [
        "▁па",
        -10.360507654320179
      ],
      [
        "требуют",
        -10.361102641111808
      ],
      [
        "выборах",
        -10.36116627315701
      ],
      [
        "ству",
        -10.361357831844776
      ],
      [
        "▁плане",
        -10.36139851235735
      ],
      [
        "использующие",
        -10.361595238193754
      ],
      [
        "▁сигнал",
        -10.362001980438956
      ],
      [
        "▁воспользоваться",
        -10.362066277837005
      ],
      [
        "▁Кол",
        -10.362288011903564
      ],
      [
        "особенности",
        -10.362705529601445
      ],
      [
        "▁рекомендаци",
        -10.363548750877886
      ],
      [
        "инфраструктуры",
        -10.3637365620822
      ],
      [
        "▁вода",
        -10.363790001232372
      ],
      [
        "▁Канад",
        -10.363886417236811
      ],
      [
        "▁представитель",
        -10.364342429410291
      ],
      [
        "▁группе",
        -10.364650193740085
      ],
      [
        "▁уход",
        -10.364720773166527
      ],
      [
        "окно",
        -10.364884173692237
      ],
      [
        "совершенствовани",
        -10.365591730093959
      ],
      [
        "страницы",
        -10.365734825680939
      ],
      [
        "▁серьезно",
        -10.365908323569998
      ],
      [
        "▁фактор",
        -10.365944486795922
      ],
      [
        "▁мебель",
        -10.366145169846423
      ],
      [
        "▁An",
        -10.36625815643808
      ],
      [
        "мент",
        -10.366747604469138
      ],
      [
        "▁брат",
        -10.366898576652039
      ],
      [
        "▁знак",
        -10.367122584208781
      ],
      [
        "лон",
        -10.367454180631823
      ],
      [
        "▁почты",
        -10.367692669709037
      ],
      [
        "▁снизи",
        -10.368145431735845
      ],
      [
        "мир",
        -10.36853360017196
      ],
      [
        "ответил",
        -10.369435231255077
      ],
      [
        "▁класс",
        -10.370545135568563
      ],
      [
        "▁Великобритании",
        -10.371662721079714
      ],
      [
        "▁знаем",
        -10.37169951621426
      ],
      [
        "▁вызов",
        -10.371815680859665
      ],
      [
        "насилия",
        -10.372395110213331
      ],
      [
        "пан",
        -10.372444099790332
      ],
      [
        "Спасибо",
        -10.372666686274732
      ],
      [
        "ra",
        -10.372937588506433
      ],
      [
        "наличие",
        -10.373288852371234
      ],
      [
        "лезную",
        -10.373318678835515
      ],
      [
        "▁формирования",
        -10.373563720110335
      ],
      [
        "▁отдел",
        -10.37402146553114
      ],
      [
        "▁сервис",
        -10.374361265360848
      ],
      [
        "▁Загрузк",
        -10.375060288910822
      ],
      [
        "охраны",
        -10.375187252434412
      ],
      [
        "йдите",
        -10.37553050709422
      ],
      [
        "▁стади",
        -10.375755719716187
      ],
      [
        "молодых",
        -10.37597759077392
      ],
      [
        "▁комплекса",
        -10.376760167625829
      ],
      [
        "▁куда",
        -10.377001454294279
      ],
      [
        "▁директора",
        -10.377360810853759
      ],
      [
        "часы",
        -10.377387507257568
      ],
      [
        "▁посетить",
        -10.377894453890665
      ],
      [
        "ических",
        -10.378438442442867
      ],
      [
        "сте",
        -10.378904502203167
      ],
      [
        "▁каждо",
        -10.379304667867405
      ],
      [
        "ический",
        -10.379586212513829
      ],
      [
        "▁мастер",
        -10.380244332793081
      ],
      [
        "▁напитк",
        -10.38034960944514
      ],
      [
        "▁храм",
        -10.38073139353522
      ],
      [
        "▁подключения",
        -10.38078404333967
      ],
      [
        "дель",
        -10.380975327632733
      ],
      [
        "▁чрезвычайно",
        -10.381532164170263
      ],
      [
        "▁предварительно",
        -10.382451343221721
      ],
      [
        "▁волос",
        -10.38255595365566
      ],
      [
        "▁выразил",
        -10.382731914207525
      ],
      [
        "▁времена",
        -10.383118349365484
      ],
      [
        "▁кино",
        -10.383529918992727
      ],
      [
        "▁Итак",
        -10.383613174913702
      ],
      [
        "заявление",
        -10.383759023607379
      ],
      [
        "пять",
        -10.383888930657278
      ],
      [
        "▁Свет",
        -10.384681300732618
      ],
      [
        "▁каталог",
        -10.385641763254892
      ],
      [
        "▁Модель",
        -10.385686936848206
      ],
      [
        "▁изделия",
        -10.385955373445656
      ],
      [
        "▁виз",
        -10.38630468744506
      ],
      [
        "▁Новы",
        -10.387195798256135
      ],
      [
        "форм",
        -10.387383357787085
      ],
      [
        "▁Татарстан",
        -10.387924826967142
      ],
      [
        "co",
        -10.388148213340868
      ],
      [
        "опытом",
        -10.388149704158218
      ],
      [
        "стан",
        -10.388721028656038
      ],
      [
        "бро",
        -10.38971841709781
      ],
      [
        "▁приоритет",
        -10.390211026168677
      ],
      [
        "сайтов",
        -10.390220846205668
      ],
      [
        "вопросу",
        -10.390247570661096
      ],
      [
        "Правительство",
        -10.390427302929186
      ],
      [
        "▁главно",
        -10.390608490774998
      ],
      [
        "▁Фа",
        -10.390795852301885
      ],
      [
        "▁отдельно",
        -10.390849856829888
      ],
      [
        "▁возраста",
        -10.390990453039135
      ],
      [
        "▁семинар",
        -10.391217114404274
      ],
      [
        "куп",
        -10.391373906033639
      ],
      [
        "▁заказа",
        -10.39164837564178
      ],
      [
        "законодательства",
        -10.392402721711127
      ],
      [
        "▁создает",
        -10.392532935511987
      ],
      [
        "▁расположены",
        -10.392634522256477
      ],
      [
        "▁домашни",
        -10.39298533320941
      ],
      [
        "▁Сын",
        -10.393330888124073
      ],
      [
        "▁целы",
        -10.393595679975027
      ],
      [
        "▁составил",
        -10.394372160979536
      ],
      [
        "бр",
        -10.394783659193934
      ],
      [
        "▁история",
        -10.39503232942226
      ],
      [
        "стве",
        -10.395105086144692
      ],
      [
        "▁взять",
        -10.395155645433288
      ],
      [
        "историю",
        -10.395619695292622
      ],
      [
        "сер",
        -10.396393582937948
      ],
      [
        "▁встрети",
        -10.397251541634889
      ],
      [
        "шь",
        -10.397455716325704
      ],
      [
        "▁показывает",
        -10.397467742564551
      ],
      [
        "▁сильны",
        -10.397749960396172
      ],
      [
        "правда",
        -10.39775027368713
      ],
      [
        "▁главны",
        -10.398019763602523
      ],
      [
        "▁органа",
        -10.398445892794507
      ],
      [
        "▁прошлого",
        -10.39860430116825
      ],
      [
        "▁скоро",
        -10.398610209011672
      ],
      [
        "▁техническо",
        -10.399620082205493
      ],
      [
        "▁выгод",
        -10.399709754498428
      ],
      [
        "▁рука",
        -10.399736806790028
      ],
      [
        "альный",
        -10.40009339678476
      ],
      [
        "▁карт",
        -10.400115057191103
      ],
      [
        "ряду",
        -10.400213734268776
      ],
      [
        "технических",
        -10.40028827843572
      ],
      [
        "▁обеспечивают",
        -10.40039723972036
      ],
      [
        "▁врач",
        -10.400465011012805
      ],
      [
        "▁капитала",
        -10.400496699795246
      ],
      [
        "РЕ",
        -10.400724440876752
      ],
      [
        "▁Нажмите",
        -10.400729399864627
      ],
      [
        "▁капитал",
        -10.401148653063668
      ],
      [
        "опыта",
        -10.402030019089176
      ],
      [
        "▁апартамент",
        -10.402839605163637
      ],
      [
        "▁обмена",
        -10.403130618945113
      ],
      [
        "▁реально",
        -10.403790615017787
      ],
      [
        "▁комплект",
        -10.403878140948553
      ],
      [
        "▁нарушения",
        -10.404663778762885
      ],
      [
        "▁имен",
        -10.404749086531789
      ],
      [
        "слов",
        -10.404918600191158
      ],
      [
        "▁Или",
        -10.405007939497565
      ],
      [
        "создателе",
        -10.405471689509033
      ],
      [
        "ющую",
        -10.405793263357378
      ],
      [
        "енного",
        -10.405883776484433
      ],
      [
        "▁заседания",
        -10.4061576656059
      ],
      [
        "▁интервью",
        -10.406499225276573
      ],
      [
        "▁компьютере",
        -10.406605230408843
      ],
      [
        "▁бумаг",
        -10.40662835420802
      ],
      [
        "▁Молдов",
        -10.406961928960282
      ],
      [
        "▁идея",
        -10.40712307581872
      ],
      [
        "▁Наш",
        -10.407386296724564
      ],
      [
        "альные",
        -10.407417701897849
      ],
      [
        "▁региональных",
        -10.407488403132769
      ],
      [
        "▁удобно",
        -10.408318346324382
      ],
      [
        "Июль",
        -10.408445693761086
      ],
      [
        "▁регулярно",
        -10.408817489774714
      ],
      [
        "▁масштаб",
        -10.40882398432609
      ],
      [
        "ление",
        -10.409722817126967
      ],
      [
        "правительственны",
        -10.410144629603968
      ],
      [
        "▁конфликта",
        -10.41015547629342
      ],
      [
        "▁учитыва",
        -10.41049112342615
      ],
      [
        "молодежи",
        -10.410674438278146
      ],
      [
        "▁пунктирн",
        -10.41069642373577
      ],
      [
        "▁фактически",
        -10.41103063050682
      ],
      [
        "▁экспорт",
        -10.41135049230241
      ],
      [
        "▁помещения",
        -10.411408381486739
      ],
      [
        "um",
        -10.41225098878976
      ],
      [
        "действовать",
        -10.4126375603621
      ],
      [
        "▁предлагают",
        -10.412853766821291
      ],
      [
        "▁приводит",
        -10.412948557311967
      ],
      [
        "понял",
        -10.413102708048653
      ],
      [
        "работать",
        -10.413127065975774
      ],
      [
        "▁диалог",
        -10.413624462503133
      ],
      [
        "Москвы",
        -10.413700127274332
      ],
      [
        "▁Автор",
        -10.413769741825778
      ],
      [
        "▁мо",
        -10.413983497069266
      ],
      [
        "ведущих",
        -10.414182830139412
      ],
      [
        "▁част",
        -10.414503517060645
      ],
      [
        "▁производственны",
        -10.41475578016731
      ],
      [
        "ции",
        -10.414793938354872
      ],
      [
        "туристов",
        -10.414919193460133
      ],
      [
        "итель",
        -10.414971653953186
      ],
      [
        "▁Co",
        -10.415091200596482
      ],
      [
        "чаще",
        -10.415131427038302
      ],
      [
        "▁Пу",
        -10.41585085975438
      ],
      [
        "идти",
        -10.415947940558794
      ],
      [
        "▁операционно",
        -10.41626811426856
      ],
      [
        "▁изменение",
        -10.416377527063963
      ],
      [
        "▁уверен",
        -10.416421782032373
      ],
      [
        "▁возвраща",
        -10.416557114000884
      ],
      [
        "▁квартиры",
        -10.41683876453507
      ],
      [
        "▁возрасте",
        -10.417366921000822
      ],
      [
        "Первый",
        -10.41749417484389
      ],
      [
        "пла",
        -10.417903200019051
      ],
      [
        "большого",
        -10.417974511986758
      ],
      [
        "▁зона",
        -10.418327000299456
      ],
      [
        "Увеличение",
        -10.418414162567544
      ],
      [
        "ехать",
        -10.418825006471668
      ],
      [
        "номеров",
        -10.418845242525071
      ],
      [
        "пор",
        -10.41897971774205
      ],
      [
        "бол",
        -10.41959144522944
      ],
      [
        "lt",
        -10.419642881604489
      ],
      [
        "ание",
        -10.419894295974458
      ],
      [
        "▁бонус",
        -10.420037298604726
      ],
      [
        "▁планет",
        -10.420179253167522
      ],
      [
        "мор",
        -10.420452699841377
      ],
      [
        "отношению",
        -10.420747705205715
      ],
      [
        "▁разрешение",
        -10.420798905406684
      ],
      [
        "▁параметров",
        -10.420831749702447
      ],
      [
        "▁повышени",
        -10.420939434872851
      ],
      [
        "защите",
        -10.421320483591614
      ],
      [
        "Петербург",
        -10.421898320676348
      ],
      [
        "▁развива",
        -10.422113812467758
      ],
      [
        "▁четко",
        -10.422153439256398
      ],
      [
        "▁Буд",
        -10.422168767570414
      ],
      [
        "▁широкий",
        -10.422676686952679
      ],
      [
        "▁Вопрос",
        -10.422681601886415
      ],
      [
        "йдет",
        -10.422708864470502
      ],
      [
        "▁предлага",
        -10.423317688037681
      ],
      [
        "сторону",
        -10.42350054526882
      ],
      [
        "▁Нам",
        -10.423749574643507
      ],
      [
        "бра",
        -10.4242191021152
      ],
      [
        "▁просты",
        -10.424536061568201
      ],
      [
        "▁азиатки",
        -10.424603203396178
      ],
      [
        "▁бюджета",
        -10.424697032467368
      ],
      [
        "▁конфиденциально",
        -10.426198750167721
      ],
      [
        "▁крови",
        -10.426220972653615
      ],
      [
        "▁контакт",
        -10.426572329513778
      ],
      [
        "внутренних",
        -10.427321818728128
      ],
      [
        "▁Ша",
        -10.427564861343992
      ],
      [
        "▁повод",
        -10.427654239480123
      ],
      [
        "цев",
        -10.427713967803621
      ],
      [
        "▁квартира",
        -10.42798205070643
      ],
      [
        "НК",
        -10.428791670783715
      ],
      [
        "▁масла",
        -10.428971241413203
      ],
      [
        "▁She",
        -10.429191494766993
      ],
      [
        "ТА",
        -10.429304744147323
      ],
      [
        "▁важн",
        -10.429339990231204
      ],
      [
        "экраном",
        -10.429501645647349
      ],
      [
        "▁Меня",
        -10.42955443871528
      ],
      [
        "▁Управление",
        -10.429709890125439
      ],
      [
        "относится",
        -10.430039836950561
      ],
      [
        "созданию",
        -10.430172984170914
      ],
      [
        "▁соглашение",
        -10.430488586426828
      ],
      [
        "▁архитектур",
        -10.431108439382182
      ],
      [
        "▁Видео",
        -10.431108668226019
      ],
      [
        "землю",
        -10.431849710983585
      ],
      [
        "▁стара",
        -10.432246544826944
      ],
      [
        "▁выполнение",
        -10.432477631744971
      ],
      [
        "держать",
        -10.432510214294558
      ],
      [
        "порядок",
        -10.432959977550603
      ],
      [
        "желание",
        -10.433267278266918
      ],
      [
        "▁черт",
        -10.43339994933347
      ],
      [
        "▁страна",
        -10.433571452697073
      ],
      [
        "▁пользователям",
        -10.433749890184103
      ],
      [
        "заседании",
        -10.434244256662012
      ],
      [
        "▁забот",
        -10.434824904743598
      ],
      [
        "ась",
        -10.43524545637231
      ],
      [
        "▁развитии",
        -10.435312592643973
      ],
      [
        "▁Министерства",
        -10.435381109359751
      ],
      [
        "▁of",
        -10.435674865222465
      ],
      [
        "▁гаранти",
        -10.436095575370322
      ],
      [
        "▁мини",
        -10.436245565220126
      ],
      [
        "▁инструмент",
        -10.436666154039509
      ],
      [
        "пад",
        -10.438356649299593
      ],
      [
        "▁мирово",
        -10.43839045265519
      ],
      [
        "▁обозначает",
        -10.439077560591011
      ],
      [
        "▁просьб",
        -10.439296468209285
      ],
      [
        "▁семье",
        -10.43974273068233
      ],
      [
        "▁Узбекистан",
        -10.440692989546053
      ],
      [
        "▁Ор",
        -10.440811814468121
      ],
      [
        "вать",
        -10.440891828561018
      ],
      [
        "▁двоично",
        -10.441130898800873
      ],
      [
        "▁разработан",
        -10.441275857961912
      ],
      [
        "▁учреждения",
        -10.441684783916557
      ],
      [
        "▁возраст",
        -10.44174972182454
      ],
      [
        "▁отказа",
        -10.441844792300692
      ],
      [
        "▁график",
        -10.441858360773118
      ],
      [
        "▁индивидуально",
        -10.44200049139649
      ],
      [
        "▁оста",
        -10.442119946886917
      ],
      [
        "природы",
        -10.442249969599429
      ],
      [
        "▁Перед",
        -10.442341539067593
      ],
      [
        "▁эффективны",
        -10.443666359404064
      ],
      [
        "крас",
        -10.444349723107457
      ],
      [
        "▁продажи",
        -10.44438912385511
      ],
      [
        "▁интеграции",
        -10.444579304539541
      ],
      [
        "▁транспорта",
        -10.444719488909167
      ],
      [
        "уль",
        -10.444878540875635
      ],
      [
        "▁домена",
        -10.444942280190155
      ],
      [
        "▁семь",
        -10.445091630089143
      ],
      [
        "жу",
        -10.445184459805215
      ],
      [
        "▁эпох",
        -10.445200556295392
      ],
      [
        "▁соответствует",
        -10.445281223951866
      ],
      [
        "▁Ваши",
        -10.445368865960512
      ],
      [
        "полн",
        -10.445585963223804
      ],
      [
        "▁Мак",
        -10.44573358611883
      ],
      [
        "Израиля",
        -10.44605096468484
      ],
      [
        "▁приняты",
        -10.44612608843333
      ],
      [
        "▁Гор",
        -10.446532923565563
      ],
      [
        "▁открыл",
        -10.447134887113103
      ],
      [
        "▁продолжа",
        -10.447151563624155
      ],
      [
        "пользоваться",
        -10.44764183073802
      ],
      [
        "онных",
        -10.447801729610246
      ],
      [
        "пространство",
        -10.447845046230382
      ],
      [
        "решить",
        -10.448195995197725
      ],
      [
        "итесь",
        -10.448745188236604
      ],
      [
        "▁пар",
        -10.448845098049494
      ],
      [
        "▁общем",
        -10.44900014561611
      ],
      [
        "▁туалет",
        -10.449502940996851
      ],
      [
        "маленький",
        -10.449596235704563
      ],
      [
        "▁естественно",
        -10.449701085074272
      ],
      [
        "▁привел",
        -10.44995154090366
      ],
      [
        "▁реальны",
        -10.45016508992871
      ],
      [
        "▁Афганистан",
        -10.450261976458142
      ],
      [
        "▁внутренни",
        -10.450316142014426
      ],
      [
        "вниз",
        -10.45121684687022
      ],
      [
        "▁тур",
        -10.451262226587886
      ],
      [
        "Сергей",
        -10.451379026916062
      ],
      [
        "▁существую",
        -10.451394528692845
      ],
      [
        "бин",
        -10.451455937398155
      ],
      [
        "▁судебно",
        -10.45149813215109
      ],
      [
        "▁человечески",
        -10.451586199463305
      ],
      [
        "▁природны",
        -10.451604114092445
      ],
      [
        "▁заявлени",
        -10.451753527284296
      ],
      [
        "▁команду",
        -10.451996693751472
      ],
      [
        "▁Эй",
        -10.452158661827632
      ],
      [
        "▁обраща",
        -10.452228275338356
      ],
      [
        "ta",
        -10.452249696342827
      ],
      [
        "▁крупны",
        -10.452420909958565
      ],
      [
        "▁параметр",
        -10.452532434105422
      ],
      [
        "▁пояс",
        -10.452588439056646
      ],
      [
        "▁культурны",
        -10.452944832008644
      ],
      [
        "Армении",
        -10.453431215788108
      ],
      [
        "▁Люб",
        -10.453474823808454
      ],
      [
        "▁шести",
        -10.453745070619439
      ],
      [
        "▁счета",
        -10.454017915538179
      ],
      [
        "▁работающи",
        -10.454317944799497
      ],
      [
        "▁политику",
        -10.454491131585439
      ],
      [
        "▁сторонне",
        -10.45498394426751
      ],
      [
        "▁среде",
        -10.455224318013027
      ],
      [
        "достич",
        -10.455372834146441
      ],
      [
        "▁участка",
        -10.455432914626735
      ],
      [
        "▁Группа",
        -10.45546338965164
      ],
      [
        "ируем",
        -10.45586029018572
      ],
      [
        "▁соответственно",
        -10.456082153612815
      ],
      [
        "▁пришел",
        -10.456214271341333
      ],
      [
        "▁женско",
        -10.45650314974663
      ],
      [
        "▁прибыль",
        -10.456789206277081
      ],
      [
        "▁формат",
        -10.45712273133654
      ],
      [
        "▁затрат",
        -10.457179135188875
      ],
      [
        "†",
        -10.457299132374663
      ],
      [
        "зданий",
        -10.457526507602394
      ],
      [
        "▁преступления",
        -10.458091671356906
      ],
      [
        "зер",
        -10.458514412758047
      ],
      [
        "тре",
        -10.458888148868684
      ],
      [
        "▁клиентам",
        -10.458986345745947
      ],
      [
        "рас",
        -10.459030816891547
      ],
      [
        "емый",
        -10.459062863188306
      ],
      [
        "▁мощност",
        -10.45945931342521
      ],
      [
        "дон",
        -10.459583577754621
      ],
      [
        "▁высококачествен",
        -10.459649757162449
      ],
      [
        "могло",
        -10.460386724475041
      ],
      [
        "образ",
        -10.460525396141007
      ],
      [
        "▁свобод",
        -10.461585891256728
      ],
      [
        "▁метра",
        -10.461702044068607
      ],
      [
        "лиз",
        -10.461879271530405
      ],
      [
        "Игры",
        -10.462121082925057
      ],
      [
        "te",
        -10.46223885503426
      ],
      [
        "▁последовательно",
        -10.462410497279409
      ],
      [
        "предоставления",
        -10.462703903008576
      ],
      [
        "▁размере",
        -10.462765176409807
      ],
      [
        "▁Перво",
        -10.462890666494134
      ],
      [
        "отличие",
        -10.46299377155837
      ],
      [
        "▁популярны",
        -10.46371773454871
      ],
      [
        "лечение",
        -10.463723631247003
      ],
      [
        "▁Лу",
        -10.463915271681582
      ],
      [
        "увеличить",
        -10.464482189693982
      ],
      [
        "ёр",
        -10.46466694780123
      ],
      [
        "▁каса",
        -10.464724673497322
      ],
      [
        "раб",
        -10.465090230643357
      ],
      [
        "▁детски",
        -10.465451269920644
      ],
      [
        "▁Большинство",
        -10.465822162274304
      ],
      [
        "следующей",
        -10.46582777225427
      ],
      [
        "▁коммуникаци",
        -10.465873602878089
      ],
      [
        "▁интерфейс",
        -10.466713303241756
      ],
      [
        "▁Количество",
        -10.466842130609976
      ],
      [
        "▁Игра",
        -10.46755781667782
      ],
      [
        "считается",
        -10.467975594557416
      ],
      [
        "▁Центра",
        -10.468016937629066
      ],
      [
        "▁способны",
        -10.468055204745372
      ],
      [
        "▁подробно",
        -10.468118988580235
      ],
      [
        "зем",
        -10.468145698366246
      ],
      [
        "чные",
        -10.468414453294928
      ],
      [
        "скачать",
        -10.468717739290241
      ],
      [
        "▁начали",
        -10.468954214423054
      ],
      [
        "разные",
        -10.468973742408991
      ],
      [
        "▁мониторинга",
        -10.469654553080007
      ],
      [
        "▁влияния",
        -10.47008712155348
      ],
      [
        "гражданского",
        -10.47020766240617
      ],
      [
        "тобой",
        -10.470459779392248
      ],
      [
        "▁пределах",
        -10.470635475607464
      ],
      [
        "▁станции",
        -10.470645078197624
      ],
      [
        "▁кофе",
        -10.470972442446337
      ],
      [
        "против",
        -10.471147156693638
      ],
      [
        "▁давления",
        -10.471358849958806
      ],
      [
        "пир",
        -10.471949945681482
      ],
      [
        "пут",
        -10.47224724317572
      ],
      [
        "тельно",
        -10.472543692604498
      ],
      [
        "▁Ба",
        -10.472564552164139
      ],
      [
        "▁DVD",
        -10.472689016627749
      ],
      [
        "▁голосов",
        -10.47310116678559
      ],
      [
        "▁активов",
        -10.47312540702421
      ],
      [
        "▁политическо",
        -10.473579950532145
      ],
      [
        "гор",
        -10.473649899108953
      ],
      [
        "информационных",
        -10.473656288626277
      ],
      [
        "▁наблюда",
        -10.47425192447184
      ],
      [
        "mo",
        -10.474422780972397
      ],
      [
        "клад",
        -10.474562792454396
      ],
      [
        "учить",
        -10.474664830732905
      ],
      [
        "пил",
        -10.474964387506377
      ],
      [
        "▁автобус",
        -10.475330001747409
      ],
      [
        "ления",
        -10.475804165189725
      ],
      [
        "граф",
        -10.476118284875522
      ],
      [
        "▁ежедневно",
        -10.47633201198027
      ],
      [
        "Йорк",
        -10.476486903779426
      ],
      [
        "бал",
        -10.476527579859292
      ],
      [
        "▁выпуска",
        -10.47673333371152
      ],
      [
        "▁зарубежны",
        -10.477221091867793
      ],
      [
        "ада",
        -10.477310190840607
      ],
      [
        "среду",
        -10.477340050778055
      ],
      [
        "▁технически",
        -10.477459042320234
      ],
      [
        "▁разум",
        -10.477535763236023
      ],
      [
        "друзей",
        -10.477718243861153
      ],
      [
        "▁товара",
        -10.47791621055814
      ],
      [
        "▁Дополнительные",
        -10.478481718150022
      ],
      [
        "третьи",
        -10.478756718135196
      ],
      [
        "▁признак",
        -10.478833107484803
      ],
      [
        "▁создавше",
        -10.478848274122639
      ],
      [
        "найдете",
[...]
