{
  "version": "1.0",
  "truncation": null,
  "padding": null,
  "added_tokens": [
    {
      "id": 0,
      "content": "<pad>",
      "single_word": false,
      "lstrip": false,
      "rstrip": false,
      "normalized": false,
      "special": true
    },
    {
      "id": 1,
      "content": "<s>",
      "single_word": false,
      "lstrip": false,
      "rstrip": false,
      "normalized": false,
      "special": true
    },
    {
      "id": 2,
      "content": "</s>",
      "single_word": false,
      "lstrip": false,
      "rstrip": false,
      "normalized": false,
      "special": true
    },
    {
      "id": 3,
      "content": "<unk>",
      "single_word": false,
      "lstrip": false,
      "rstrip": false,
      "normalized": false,
      "special": true
    }
  ],
  "normalizer": {
    "type": "NFKC"
  },
  "pre_tokenizer": {
    "type": "Sequence",
    "pretokenizers": [
      {
        "type": "Metaspace",
        "replacement": "▁",
        "prepend_scheme": "always",
        "split": true
      },
      {
        "type": "Punctuation",
        "behavior": "Isolated"
      },
      {
        "type": "Digits",
        "individual_digits": true
      }
    ]
  },
  "post_processor": {
    "type": "TemplateProcessing",
    "single": [
      {
        "SpecialToken": {
          "id": "<s>",
          "type_id": 0
        }
      },
      {
        "Sequence": {
          "id": "A",
          "type_id": 0
        }
      },
      {
        "SpecialToken": {
          "id": "</s>",
          "type_id": 0
        }
      }
    ],
    "pair": [
      {
        "Sequence": {
          "id": "A",
          "type_id": 0
        }
      },
      {
        "Sequence": {
          "id": "B",
          "type_id": 1
        }
      }
    ],
    "special_tokens": {
      "</s>": {
        "id": "</s>",
        "ids": [
          2
        ],
        "tokens": [
          "</s>"
        ]
      },
      "<s>": {
        "id": "<s>",
        "ids": [
          1
        ],
        "tokens": [
          "<s>"
        ]
      }
    }
  },
  "decoder": {
    "type": "Metaspace",
    "replacement": "▁",
    "prepend_scheme": "always",
    "split": true
  },
  "model": {
    "type": "Unigram",
    "unk_id": 3,
    "vocab": [
      [
        "<pad>",
        0.0
      ],
      [
        "<s>",
        0.0
      ],
      [
        "</s>",
        0.0
      ],
      [
        "<unk>",
        0.0
      ],
      [
        "▁",
        -2.9246189281196546
      ],
      [
        ",",
        -3.1568121213241565
      ],
      [
        "▁the",
        -3.2118086869078653
      ],
      [
        ".",
        -3.31681394768572
      ],
      [
        "s",
        -3.58641732803534
      ],
      [
        "▁of",
        -3.663102256447674
      ],
      [
        "▁and",
        -3.940514865562596
      ],
      [
        "a",
        -4.080304719721523
      ],
      [
        "▁to",
        -4.106349844724733
      ],
      [
        "▁in",
        -4.372116883380874
      ],
      [
        "0",
        -4.50393343561281
      ],
      [
        "1",
        -4.6454451838976105
      ],
      [
        "-",
        -4.771610260038267
      ],
      [
        "2",
        -4.823123587070686
      ],
      [
        "▁is",
        -4.860029180858843
      ],
      [
        ":",
        -4.997534023931214
      ],
      [
        "▁for",
        -5.008485407572056
      ],
      [
        "t",
        -5.123044413861226
      ],
      [
        "ed",
        -5.18675283873506
      ],
      [
        "▁that",
        -5.226332300590796
      ],
      [
        "ing",
        -5.2485553731722465
      ],
      [
        "▁The",
        -5.318519046341464
      ],
      [
        "'",
        -5.34677894990018
      ],
      [
        "▁with",
        -5.349218883812814
      ],
      [
        "▁you",
        -5.407000445622781
      ],
      [
        "▁on",
        -5.411757242079352
      ],
      [
        "d",
        -5.4189778291505455
      ],
      [
        "3",
        -5.488700940905613
      ],
      [
        ")",
        -5.489036561283935
      ],
      [
        "e",
        -5.507604250822828
      ],
      [
        "(",
        -5.527090002034905
      ],
      [
        "5",
        -5.529471070019962
      ],
      [
        "y",
        -5.571582769615823
      ],
      [
        "▁are",
        -5.584529568585516
      ],
      [
        "▁be",
        -5.597359635175202
      ],
      [
        "\"",
        -5.6081160334555875
      ],
      [
        "4",
        -5.639779169497885
      ],
      [
        "▁as",
        -5.675884921802675
      ],
      [
        "▁it",
        -5.709027016212586
      ],
      [
        "▁I",
        -5.724738105544104
      ],
      [
        "9",
        -5.770228217064876
      ],
      [
        "▁by",
        -5.786847071421917
      ],
      [
        "ly",
        -5.834438958781622
      ],
      [
        "6",
        -5.864886909588527
      ],
      [
        "▁from",
        -5.883152448857011
      ],
      [
        "o",
        -5.944322916070648
      ],
      [
        "▁or",
        -5.9449194964398675
      ],
      [
        "8",
        -5.948876390326658
      ],
      [
        "▁not",
        -5.949899167429095
      ],
      [
        "▁will",
        -5.975998118234964
      ],
      [
        "7",
        -5.977422495410066
      ],
      [
        "▁was",
        -6.007706511011323
      ],
      [
        "▁this",
        -6.037987163266523
      ],
      [
        "▁have",
        -6.053434924555541
      ],
      [
        "n",
        -6.071097183137146
      ],
      [
        ";",
        -6.072011128568208
      ],
      [
        "▁your",
        -6.117394681518702
      ],
      [
        "/",
        -6.197254450402625
      ],
      [
        "▁can",
        -6.201605543869826
      ],
      [
        "▁an",
        -6.23938754508012
      ],
      [
        "?",
        -6.2468071572799655
      ],
      [
        "i",
        -6.268573413343233
      ],
      [
        "▁all",
        -6.354574038644998
      ],
      [
        "▁which",
        -6.4027515157895625
      ],
      [
        "▁has",
        -6.413021443086606
      ],
      [
        "m",
        -6.472956732949761
      ],
      [
        "▁In",
        -6.496488661860882
      ],
      [
        "▁we",
        -6.518880274306467
      ],
      [
        "▁their",
        -6.533807633266537
      ],
      [
        "r",
        -6.622075239279422
      ],
      [
        "▁one",
        -6.666581756667284
      ],
      [
        "he",
        -6.697842357725751
      ],
      [
        "▁A",
        -6.719874612619369
      ],
      [
        "▁but",
        -6.747701863314836
      ],
      [
        "▁other",
        -6.755520305473585
      ],
      [
        "’",
        -6.762750539087552
      ],
      [
        "▁our",
        -6.779529183051659
      ],
      [
        "▁its",
        -6.78118291749837
      ],
      [
        "▁It",
        -6.794804368699172
      ],
      [
        "▁more",
        -6.810357982539516
      ],
      [
        "▁his",
        -6.816012382038519
      ],
      [
        "▁also",
        -6.829269822184026
      ],
      [
        "▁they",
        -6.857676163178963
      ],
      [
        "▁ago",
        -6.869285472560604
      ],
      [
        "▁were",
        -6.870232989618319
      ],
      [
        "▁about",
        -6.8799573046571005
      ],
      [
        "▁who",
        -6.887917679036974
      ],
      [
        "!",
        -6.90064653995948
      ],
      [
        "▁time",
        -6.921049202154489
      ],
      [
        "▁This",
        -6.959081994910084
      ],
      [
        "▁been",
        -6.9913051388615415
      ],
      [
        "▁do",
        -6.991843272283834
      ],
      [
        "▁there",
        -7.042718935172534
      ],
      [
        "▁new",
        -7.057967903343284
      ],
      [
        "g",
        -7.066276937138518
      ],
      [
        "▁only",
        -7.074918440575432
      ],
      [
        "▁We",
        -7.092456230774886
      ],
      [
        "▁You",
        -7.094817834633675
      ],
      [
        "▁file",
        -7.106733531022854
      ],
      [
        "▁any",
        -7.114979253307798
      ],
      [
        "▁them",
        -7.116321472126618
      ],
      [
        "▁up",
        -7.133328392681346
      ],
      [
        "▁people",
        -7.148745284989179
      ],
      [
        "*",
        -7.150317771097772
      ],
      [
        "▁into",
        -7.185142296640315
      ],
      [
        "“",
        -7.1863555711651514
      ],
      [
        "▁had",
        -7.19190803362587
      ],
      [
        "▁out",
        -7.198544547466907
      ],
      [
        "”",
        -7.2030307384626155
      ],
      [
        "▁years",
        -7.207765899132719
      ],
      [
        "▁use",
        -7.220849319041392
      ],
      [
        "h",
        -7.235962418573521
      ],
      [
        "▁when",
        -7.236336230201399
      ],
      [
        "▁if",
        -7.246646628263408
      ],
      [
        "▁no",
        -7.258780651292257
      ],
      [
        "▁information",
        -7.269947543745197
      ],
      [
        "▁what",
        -7.280371261638493
      ],
      [
        "▁my",
        -7.287839016042216
      ],
      [
        "▁such",
        -7.288449139134318
      ],
      [
        "–",
        -7.29188740838517
      ],
      [
        "▁than",
        -7.3002571560414555
      ],
      [
        "▁And",
        -7.311618046160387
      ],
      [
        "l",
        -7.31185127121894
      ],
      [
        "▁would",
        -7.3261816431358255
      ],
      [
        "in",
        -7.329230397686507
      ],
      [
        "▁me",
        -7.338355744998912
      ],
      [
        "▁If",
        -7.351233664407344
      ],
      [
        "▁well",
        -7.356036443126047
      ],
      [
        "▁first",
        -7.362809357127885
      ],
      [
        "▁should",
        -7.363650332561317
      ],
      [
        "▁these",
        -7.3686430891545935
      ],
      [
        "▁may",
        -7.369800125360467
      ],
      [
        "▁him",
        -7.375662672592737
      ],
      [
        "c",
        -7.379997610189205
      ],
      [
        "re",
        -7.382296205943122
      ],
      [
        "%",
        -7.384427731860594
      ],
      [
        "on",
        -7.403523819652214
      ],
      [
        "▁most",
        -7.411862891426432
      ],
      [
        "▁work",
        -7.412598442060249
      ],
      [
        "f",
        -7.41548171313706
      ],
      [
        "ies",
        -7.417523281665462
      ],
      [
        "u",
        -7.474314704260266
      ],
      [
        "▁know",
        -7.476968952077616
      ],
      [
        "▁system",
        -7.483934714616156
      ],
      [
        "▁Russian",
        -7.497270784457353
      ],
      [
        "▁He",
        -7.507051281684934
      ],
      [
        "▁like",
        -7.511983624783959
      ],
      [
        "▁us",
        -7.513142408792046
      ],
      [
        "▁two",
        -7.520685293022474
      ],
      [
        "▁year",
        -7.526104786277189
      ],
      [
        "▁said",
        -7.530617269976348
      ],
      [
        "▁how",
        -7.532934195978967
      ],
      [
        "▁world",
        -7.53725006375169
      ],
      [
        "▁some",
        -7.5401625803742895
      ],
      [
        "▁For",
        -7.54932264881678
      ],
      [
        "▁very",
        -7.550519183598082
      ],
      [
        "▁need",
        -7.575760343546229
      ],
      [
        "&",
        -7.582653405659087
      ],
      [
        "▁over",
        -7.595500691166102
      ],
      [
        "able",
        -7.622331638149483
      ],
      [
        "▁development",
        -7.625869808527808
      ],
      [
        "—",
        -7.628918320587898
      ],
      [
        "p",
        -7.633725010717837
      ],
      [
        "▁many",
        -7.654024379935727
      ],
      [
        "▁her",
        -7.6567922427437605
      ],
      [
        "b",
        -7.664925851245291
      ],
      [
        "▁number",
        -7.671853387958054
      ],
      [
        "th",
        -7.677889559095407
      ],
      [
        "▁now",
        -7.679462311572726
      ],
      [
        "▁after",
        -7.685608582203779
      ],
      [
        "S",
        -7.686648054450252
      ],
      [
        "▁To",
        -7.69051053863477
      ],
      [
        "▁where",
        -7.694493926607674
      ],
      [
        "▁through",
        -7.707198036268643
      ],
      [
        "▁between",
        -7.7092494211547
      ],
      [
        "▁Russia",
        -7.715756415467293
      ],
      [
        "▁must",
        -7.724828547062703
      ],
      [
        "▁under",
        -7.727352058278761
      ],
      [
        "▁used",
        -7.727531490287948
      ],
      [
        "▁just",
        -7.728747623780935
      ],
      [
        "▁But",
        -7.7300538298186225
      ],
      [
        "▁want",
        -7.734754518257143
      ],
      [
        "▁open",
        -7.735963852168826
      ],
      [
        "I",
        -7.736321920311397
      ],
      [
        "▁right",
        -7.738059870330096
      ],
      [
        "▁those",
        -7.745918895954665
      ],
      [
        "k",
        -7.75521707645685
      ],
      [
        "▁even",
        -7.758010710181816
      ],
      [
        "▁make",
        -7.75826319208239
      ],
      [
        "▁way",
        -7.7633881498107815
      ],
      [
        "▁life",
        -7.776744386723337
      ],
      [
        "▁months",
        -7.792154260599704
      ],
      [
        "▁see",
        -7.795335300738746
      ],
      [
        "▁shall",
        -7.795845376809128
      ],
      [
        "▁made",
        -7.796608353223169
      ],
      [
        "▁countries",
        -7.803112806056781
      ],
      [
        "or",
        -7.812125241786799
      ],
      [
        "▁international",
        -7.815907229487758
      ],
      [
        "▁take",
        -7.817508645118004
      ],
      [
        "▁free",
        -7.820445552691588
      ],
      [
        "▁program",
        -7.822092293876615
      ],
      [
        "▁part",
        -7.8361066333146
      ],
      [
        "▁high",
        -7.848488134235319
      ],
      [
        "al",
        -7.849014722310784
      ],
      [
        "▁get",
        -7.850079894917309
      ],
      [
        "▁could",
        -7.860174008581039
      ],
      [
        "▁same",
        -7.866368709945791
      ],
      [
        "▁place",
        -7.872447230615924
      ],
      [
        "A",
        -7.873051583394243
      ],
      [
        "▁day",
        -7.87517832455841
      ],
      [
        "▁What",
        -7.892495975204026
      ],
      [
        "▁God",
        -7.8971139535851425
      ],
      [
        "▁support",
        -7.8996916002193025
      ],
      [
        "▁help",
        -7.904705402613983
      ],
      [
        "▁country",
        -7.9090951947089785
      ],
      [
        "an",
        -7.91580881903351
      ],
      [
        "▁service",
        -7.9258730914859274
      ],
      [
        "▁company",
        -7.935860795595561
      ],
      [
        "▁because",
        -7.937745006346621
      ],
      [
        "▁before",
        -7.947954427497736
      ],
      [
        "▁during",
        -7.950567689250375
      ],
      [
        "▁There",
        -7.952326244886175
      ],
      [
        "▁data",
        -7.954450732575253
      ],
      [
        "▁available",
        -7.95449968231493
      ],
      [
        "▁using",
        -7.955546610437356
      ],
      [
        "▁own",
        -7.964474093149757
      ],
      [
        "▁here",
        -7.965596592088945
      ],
      [
        "▁including",
        -7.97832331475785
      ],
      [
        "▁software",
        -7.978569368263926
      ],
      [
        "▁order",
        -7.990690290587919
      ],
      [
        "▁state",
        -7.993186734047567
      ],
      [
        "▁S",
        -7.994401667023924
      ],
      [
        "▁without",
        -7.998979197358532
      ],
      [
        "▁good",
        -8.000770891062166
      ],
      [
        "▁being",
        -8.004722887704963
      ],
      [
        "▁against",
        -8.006196253939212
      ],
      [
        "▁big",
        -8.006607139554951
      ],
      [
        "▁each",
        -8.028146670293356
      ],
      [
        "▁As",
        -8.030553858180562
      ],
      [
        "▁Republic",
        -8.040490279826548
      ],
      [
        "v",
        -8.041054574464411
      ],
      [
        "▁different",
        -8.044390706411617
      ],
      [
        "▁every",
        -8.049807959916366
      ],
      [
        "▁power",
        -8.050418921596668
      ],
      [
        "▁within",
        -8.05279496087959
      ],
      [
        "▁public",
        -8.054314116722034
      ],
      [
        "▁They",
        -8.054987450233657
      ],
      [
        "▁services",
        -8.057161726410238
      ],
      [
        "▁days",
        -8.063714878607017
      ],
      [
        "▁On",
        -8.063930085630446
      ],
      [
        "▁she",
        -8.065877111755427
      ],
      [
        "▁following",
        -8.071044298123665
      ],
      [
        "ll",
        -8.071280308960425
      ],
      [
        "▁long",
        -8.075737407019137
      ],
      [
        "▁How",
        -8.078991245166291
      ],
      [
        "▁All",
        -8.088326684533415
      ],
      [
        "is",
        -8.090878316489604
      ],
      [
        "▁United",
        -8.094022587269452
      ],
      [
        "▁business",
        -8.097939722202232
      ],
      [
        "▁process",
        -8.099645293289788
      ],
      [
        "▁does",
        -8.102035610788716
      ],
      [
        "▁important",
        -8.105299673161129
      ],
      [
        "▁children",
        -8.109538415234871
      ],
      [
        "▁both",
        -8.111528987479746
      ],
      [
        "▁great",
        -8.117274554959431
      ],
      [
        "▁find",
        -8.126784532077366
      ],
      [
        "▁President",
        -8.129456011259633
      ],
      [
        "▁three",
        -8.13578608902121
      ],
      [
        "▁did",
        -8.137009339037405
      ],
      [
        "▁human",
        -8.138348862549641
      ],
      [
        "▁name",
        -8.142231553007859
      ],
      [
        "ity",
        -8.147352082229194
      ],
      [
        "▁M",
        -8.147438837352336
      ],
      [
        "▁go",
        -8.15334005106909
      ],
      [
        "▁When",
        -8.163280937729981
      ],
      [
        "▁case",
        -8.166244765682112
      ],
      [
        "▁water",
        -8.16766698994083
      ],
      [
        "▁best",
        -8.170077946795054
      ],
      [
        "]",
        -8.177865737824753
      ],
      [
        "▁much",
        -8.183977790019162
      ],
      [
        "▁small",
        -8.192404166709082
      ],
      [
        "▁products",
        -8.195736958085543
      ],
      [
        "▁end",
        -8.19634958659185
      ],
      [
        "▁while",
        -8.196919434133921
      ],
      [
        "▁don",
        -8.19912562789141
      ],
      [
        "[",
        -8.207614292024214
      ],
      [
        "x",
        -8.210295818780263
      ],
      [
        "▁Ukraine",
        -8.2141169766995
      ],
      [
        "▁provide",
        -8.21702352409985
      ],
      [
        "▁man",
        -8.217337076055351
      ],
      [
        "▁level",
        -8.217635883073575
      ],
      [
        "▁city",
        -8.218652608778543
      ],
      [
        "▁market",
        -8.223678116783107
      ],
      [
        "▁back",
        -8.225830864330295
      ],
      [
        "▁project",
        -8.229526204862728
      ],
      [
        "▁last",
        -8.231622414897235
      ],
      [
        "▁International",
        -8.233317560194534
      ],
      [
        "▁come",
        -8.235219336336554
      ],
      [
        "▁security",
        -8.235348532071653
      ],
      [
        "▁set",
        -8.235677134847238
      ],
      [
        "D",
        -8.240436859351929
      ],
      [
        "▁possible",
        -8.242936962519071
      ],
      [
        "▁national",
        -8.244623794351309
      ],
      [
        "▁per",
        -8.250548173922562
      ],
      [
        "▁State",
        -8.25193646385805
      ],
      [
        "▁No",
        -8.254154669116769
      ],
      [
        "▁production",
        -8.259446666459958
      ],
      [
        "▁local",
        -8.264547425442244
      ],
      [
        "to",
        -8.2668974467774
      ],
      [
        "▁At",
        -8.27611956831398
      ],
      [
        "▁economic",
        -8.282648275070596
      ],
      [
        "▁E",
        -8.283157016868675
      ],
      [
        "▁law",
        -8.283731154069919
      ],
      [
        "▁group",
        -8.28607728383347
      ],
      [
        "▁Phone",
        -8.286270238904947
      ],
      [
        "▁control",
        -8.287225753516632
      ],
      [
        "▁application",
        -8.289182803653322
      ],
      [
        "▁room",
        -8.289191420631727
      ],
      [
        "▁experience",
        -8.29079417587785
      ],
      [
        "▁main",
        -8.293770667112442
      ],
      [
        "the",
        -8.29619615836726
      ],
      [
        "▁quality",
        -8.305980052610744
      ],
      [
        "▁T",
        -8.306394474642497
      ],
      [
        "▁Windows",
        -8.307413833152529
      ],
      [
        "▁think",
        -8.311282094084333
      ],
      [
        "▁New",
        -8.313186206277779
      ],
      [
        "▁special",
        -8.313387461921502
      ],
      [
        "▁G",
        -8.32328766230258
      ],
      [
        "▁change",
        -8.323992337941052
      ],
      [
        "▁view",
        -8.33304977484998
      ],
      [
        "▁activities",
        -8.339551193368939
      ],
      [
        "▁still",
        -8.341006039909912
      ],
      [
        "▁region",
        -8.343581703262346
      ],
      [
        "▁access",
        -8.345491083797242
      ],
      [
        "▁conditions",
        -8.34843995755709
      ],
      [
        "▁So",
        -8.350497707932496
      ],
      [
        "▁type",
        -8.354028081668142
      ],
      [
        "▁report",
        -8.355642669128619
      ],
      [
        "ness",
        -8.355881345212612
      ],
      [
        "▁social",
        -8.3584583881242
      ],
      [
        "▁Kazakhstan",
        -8.361836415953515
      ],
      [
        "▁area",
        -8.365974623803707
      ],
      [
        "▁European",
        -8.366038882430884
      ],
      [
        "ve",
        -8.369560024190864
      ],
      [
        "▁C",
        -8.369649891003396
      ],
      [
        "▁D",
        -8.374340137731645
      ],
      [
        "▁become",
        -8.379010470704072
      ],
      [
        "▁another",
        -8.379640163125394
      ],
      [
        "▁File",
        -8.382047688280176
      ],
      [
        "▁held",
        -8.385103389763087
      ],
      [
        "▁Your",
        -8.387658613821054
      ],
      [
        "▁building",
        -8.38824252484681
      ],
      [
        "▁meeting",
        -8.389845794769933
      ],
      [
        "▁say",
        -8.392470227096668
      ],
      [
        "▁B",
        -8.394859236111797
      ],
      [
        "▁xHamster",
        -8.397131191424098
      ],
      [
        "▁management",
        -8.398124462660142
      ],
      [
        "▁States",
        -8.39965521595602
      ],
      [
        "▁down",
        -8.400401134198123
      ],
      [
        "▁example",
        -8.405592458344021
      ],
      [
        "#",
        -8.409731650907748
      ],
      [
        "▁political",
        -8.410773950882323
      ],
      [
        "▁full",
        -8.415126221457133
      ],
      [
        "▁shemale",
        -8.423011885869187
      ],
      [
        "▁That",
        -8.423929536013334
      ],
      [
        "▁am",
        -8.425243469439115
      ],
      [
        "▁found",
        -8.43716655825681
      ],
      [
        "▁person",
        -8.437442037808468
      ],
      [
        "▁energy",
        -8.439144881625168
      ],
      [
        "▁result",
        -8.44054452822562
      ],
      [
        "▁among",
        -8.442578043755667
      ],
      [
        "▁rights",
        -8.448545445132181
      ],
      [
        "▁always",
        -8.44890252590114
      ],
      [
        "▁look",
        -8.450371838551643
      ],
      [
        "▁necessary",
        -8.450810256832753
      ],
      [
        "▁large",
        -8.457181371332796
      ],
      [
        "▁according",
        -8.457904918017043
      ],
      [
        "▁already",
        -8.459743239741183
      ],
      [
        "le",
        -8.460785839888365
      ],
      [
        "▁government",
        -8.462697293478682
      ],
      [
        "▁design",
        -8.463349362009431
      ],
      [
        "▁online",
        -8.464239174273075
      ],
      [
        "▁body",
        -8.467394360231431
      ],
      [
        "▁Do",
        -8.46921513152943
      ],
      [
        "C",
        -8.469653008363045
      ],
      [
        "▁working",
        -8.473310033589918
      ],
      [
        "▁China",
        -8.47377514035365
      ],
      [
        "and",
        -8.474272948143062
      ],
      [
        "▁course",
        -8.479397194259533
      ],
      [
        "▁network",
        -8.482240637895881
      ],
      [
        "▁created",
        -8.48635288734249
      ],
      [
        "▁various",
        -8.488378495043483
      ],
      [
        "▁Moscow",
        -8.489082174329573
      ],
      [
        "▁present",
        -8.489715896281556
      ],
      [
        "▁situation",
        -8.490802124069573
      ],
      [
        "▁account",
        -8.498877961857145
      ],
      [
        "▁give",
        -8.508144654938013
      ],
      [
        "▁around",
        -8.509152882022363
      ],
      [
        "▁ensure",
        -8.512271899559273
      ],
      [
        "▁period",
        -8.513696450715404
      ],
      [
        "▁since",
        -8.515075340774496
      ],
      [
        "▁Council",
        -8.515633391740558
      ],
      [
        "▁list",
        -8.519861943442384
      ],
      [
        "▁second",
        -8.520365793999922
      ],
      [
        "▁based",
        -8.522146467273117
      ],
      [
        "▁house",
        -8.524811711528834
      ],
      [
        "amp",
        -8.526401687482066
      ],
      [
        "▁results",
        -8.52670115511976
      ],
      [
        "▁general",
        -8.529539092344802
      ],
      [
        "▁means",
        -8.531089894886694
      ],
      [
        "▁women",
        -8.531461532042224
      ],
      [
        "▁request",
        -8.532719188249335
      ],
      [
        "▁financial",
        -8.533753245295632
      ],
      [
        "▁going",
        -8.539856127458235
      ],
      [
        "▁V",
        -8.542109795158431
      ],
      [
        "▁site",
        -8.543255783110522
      ],
      [
        "▁non",
        -8.544721969446815
      ],
      [
        "▁TV",
        -8.547134312253823
      ],
      [
        "▁National",
        -8.548473193444305
      ],
      [
        "▁form",
        -8.556534492438502
      ],
      [
        "▁personal",
        -8.558919242239964
      ],
      [
        "▁un",
        -8.560138222184841
      ],
      [
        "▁Committee",
        -8.563925419731937
      ],
      [
        "The",
        -8.565129547044704
      ],
      [
        "M",
        -8.56630775082965
      ],
      [
        "▁contain",
        -8.567470393279288
      ],
      [
        "▁provided",
        -8.570931041018424
      ],
      [
        "▁future",
        -8.575443104857266
      ],
      [
        "▁real",
        -8.577067852632924
      ],
      [
        "▁air",
        -8.578280128596674
      ],
      [
        "▁University",
        -8.57906985396173
      ],
      [
        "▁issue",
        -8.579295482595539
      ],
      [
        "▁These",
        -8.579500357817386
      ],
      [
        "▁natural",
        -8.581988253514693
      ],
      [
        "com",
        -8.588598899523458
      ],
      [
        "us",
        -8.589667610813745
      ],
      [
        "▁May",
        -8.592095227680135
      ],
      [
        "▁With",
        -8.592719947760294
      ],
      [
        "▁equipment",
        -8.592950273043662
      ],
      [
        "▁offer",
        -8.596479255835105
      ],
      [
        "▁However",
        -8.602505777939406
      ],
      [
        "▁love",
        -8.604480930070686
      ],
      [
        "▁never",
        -8.604678770542803
      ],
      [
        "▁certain",
        -8.60471286647617
      ],
      [
        "▁Live",
        -8.604857748286673
      ],
      [
        "▁upon",
        -8.608738216177558
      ],
      [
        "▁General",
        -8.609323637726515
      ],
      [
        "▁create",
        -8.61048966906381
      ],
      [
        "▁again",
        -8.61211183857296
      ],
      [
        "▁members",
        -8.612600794512309
      ],
      [
        "▁away",
        -8.612643945096092
      ],
      [
        "▁several",
        -8.61377339386834
      ],
      [
        "▁companies",
        -8.614111673066617
      ],
      [
        "▁computer",
        -8.617226719300014
      ],
      [
        "▁One",
        -8.617585609273142
      ],
      [
        "▁address",
        -8.621002109398157
      ],
      [
        "▁legal",
        -8.622238390731932
      ],
      [
        "▁Our",
        -8.622903122014474
      ],
      [
        "▁million",
        -8.623066982477207
      ],
      [
        "▁article",
        -8.625864477813012
      ],
      [
        "▁light",
        -8.627010504407842
      ],
      [
        "▁home",
        -8.627988712864168
      ],
      [
        "mm",
        -8.630906529698255
      ],
      [
        "▁fact",
        -8.630970266673884
      ],
      [
        "▁located",
        -8.630992693273395
      ],
      [
        "▁better",
        -8.632554656439149
      ],
      [
        "▁cannot",
        -8.637127588450134
      ],
      [
        "▁point",
        -8.64345889727597
      ],
      [
        "ation",
        -8.645179893139476
      ],
      [
        "▁things",
        -8.646966626609244
      ],
      [
        "▁P",
        -8.64735992410349
      ],
      [
        "▁issues",
        -8.64879270945986
      ],
      [
        "▁everything",
        -8.64911925735951
      ],
      [
        "▁problems",
        -8.650775849338679
      ],
      [
        "▁current",
        -8.652658323305848
      ],
      [
        "▁systems",
        -8.65277510696286
      ],
      [
        "▁St",
        -8.656240795204427
      ],
      [
        "▁effect",
        -8.658422608565491
      ],
      [
        "▁foreign",
        -8.661689550307953
      ],
      [
        "▁family",
        -8.661736973972424
      ],
      [
        "▁analysis",
        -8.662337966339594
      ],
      [
        "ic",
        -8.662959493500297
      ],
      [
        "▁return",
        -8.664118152195478
      ],
      [
        "▁old",
        -8.664500774099107
      ],
      [
        "▁might",
        -8.664766501568756
      ],
      [
        "▁week",
        -8.665984562311579
      ],
      [
        "▁next",
        -8.666357685260143
      ],
      [
        "▁believe",
        -8.667757694839976
      ],
      [
        "▁hotel",
        -8.667984534693566
      ],
      [
        "▁World",
        -8.669052064491682
      ],
      [
        "▁Jesus",
        -8.669113312429323
      ],
      [
        "▁together",
        -8.674891573324082
      ],
      [
        "▁further",
        -8.675996045657117
      ],
      [
        "▁training",
        -8.676101636464072
      ],
      [
        "self",
        -8.676861122160318
      ],
      [
        "▁cooperation",
        -8.677317317178993
      ],
      [
        "▁After",
        -8.68009586279505
      ],
      [
        "▁policy",
        -8.681481761722846
      ],
      [
        "▁something",
        -8.683072254040637
      ],
      [
        "▁few",
        -8.686612085978794
      ],
      [
        "▁oil",
        -8.689509636837771
      ],
      [
        "less",
        -8.692773558990444
      ],
      [
        "▁took",
        -8.6933537905923
      ],
      [
        "z",
        -8.693458074968346
      ],
      [
        "▁health",
        -8.694839093562756
      ],
      [
        "▁Nations",
        -8.695155707972816
      ],
      [
        "▁increase",
        -8.695483413979346
      ],
      [
        "▁field",
        -8.695798365379343
      ],
      [
        "▁weeks",
        -8.697874914173772
      ],
      [
        "▁She",
        -8.698719514748527
      ],
      [
        "▁Europe",
        -8.698763803177211
      ],
      [
        "B",
        -8.69892898484891
      ],
      [
        "▁education",
        -8.701671621699377
      ],
      [
        "▁protection",
        -8.70794563393007
      ],
      [
        "▁total",
        -8.709381676903641
      ],
      [
        "▁contact",
        -8.713209339094782
      ],
      [
        "▁model",
        -8.713790480542862
      ],
      [
        "▁include",
        -8.715310691165154
      ],
      [
        "▁product",
        -8.715433314545054
      ],
      [
        "▁According",
        -8.71819571490554
      ],
      [
        "▁put",
        -8.722935440183605
      ],
      [
        "w",
        -8.724122875826799
      ],
      [
        "ever",
        -8.724836674148198
      ],
      [
        "▁start",
        -8.72863861047842
      ],
      [
        "▁reason",
        -8.729609930940299
      ],
      [
        "▁called",
        -8.729952303333333
      ],
      [
        "▁page",
        -8.730712498694464
      ],
      [
        "▁today",
        -8.734546830514777
      ],
      [
        "▁money",
        -8.734664156698559
      ],
      [
        "V",
        -8.738880394881056
      ],
      [
        "▁words",
        -8.747377007528815
      ],
      [
        "▁third",
        -8.748963032248058
      ],
      [
        "▁Mr",
        -8.749036057232495
      ],
      [
        "▁value",
        -8.749238356621202
      ],
      [
        "▁media",
        -8.750855749549398
      ],
      [
        "▁why",
        -8.751053294644759
      ],
      [
        "▁click",
        -8.751970984462677
      ],
      [
        "▁offers",
        -8.75362080294205
      ],
      [
        "▁given",
        -8.755814398404617
      ],
      [
        "»",
        -8.756384763106674
      ],
      [
        "▁tits",
        -8.757166423549505
      ],
      [
        "▁My",
        -8.759849310015708
      ],
      [
        "it",
        -8.760739278873746
      ],
      [
        "▁U",
        -8.762602729085735
      ],
      [
        "▁price",
        -8.763107467686144
      ],
      [
        "T",
        -8.766255609284126
      ],
      [
        "▁head",
        -8.766409746593375
      ],
      [
        "▁event",
        -8.766921516142068
      ],
      [
        "▁L",
        -8.770544201805993
      ],
      [
        "▁modern",
        -8.772375576151969
      ],
      [
        "▁km",
        -8.772909462921724
      ],
      [
        "▁research",
        -8.773842421438404
      ],
      [
        "▁Home",
        -8.774080558343552
      ],
      [
        "▁hand",
        -8.775424849835042
      ],
      [
        "▁Group",
        -8.77627578960825
      ],
      [
        "▁until",
        -8.77669796282908
      ],
      [
        "▁areas",
        -8.777408201084969
      ],
      [
        "▁game",
        -8.777534746284303
      ],
      [
        "▁N",
        -8.782106858065639
      ],
      [
        "▁implementation",
        -8.783863571619978
      ],
      [
        "▁W",
        -8.784118569242597
      ],
      [
        "▁material",
        -8.786200272627127
      ],
      [
        "▁idea",
        -8.78655936031981
      ],
      [
        "▁construction",
        -8.787515910752154
      ],
      [
        "▁website",
        -8.789551474283883
      ],
      [
        "▁living",
        -8.790225969235484
      ],
      [
        "▁below",
        -8.790680557886327
      ],
      [
        "▁due",
        -8.800269010917804
      ],
      [
        "▁came",
        -8.80093505051853
      ],
      [
        "▁month",
        -8.801349066516686
      ],
      [
        "▁often",
        -8.803458990517585
      ],
      [
        "▁visit",
        -8.803828109632466
      ],
      [
        "▁July",
        -8.803904316626136
      ],
      [
        "▁property",
        -8.807271827862811
      ],
      [
        "▁call",
        -8.80755438270911
      ],
      [
        "▁activity",
        -8.809074153604666
      ],
      [
        "▁men",
        -8.813789370076933
      ],
      [
        "▁organizations",
        -8.818830331251021
      ],
      [
        "▁little",
        -8.82057795657102
      ],
      [
        "▁server",
        -8.822691649230242
      ],
      [
        "P",
        -8.82326821231788
      ],
      [
        "▁problem",
        -8.825233730808911
      ],
      [
        "▁play",
        -8.825426708605955
      ],
      [
        "H",
        -8.827560671716615
      ],
      [
        "▁resources",
        -8.829821840034866
      ],
      [
        "▁team",
        -8.829931877332006
      ],
      [
        "▁live",
        -8.831379943054902
      ],
      [
        "December",
        -8.83178996308666
      ],
      [
        "▁decision",
        -8.831941907249098
      ],
      [
        "▁projects",
        -8.834206900586675
      ],
      [
        "▁user",
        -8.835185486871447
      ],
      [
        "▁professional",
        -8.83690657905713
      ],
      [
        "▁remain",
        -8.839399883636721
      ],
      [
        "▁particular",
        -8.84047516231992
      ],
      [
        "G",
        -8.840634060210027
      ],
      [
        "▁kind",
        -8.841729880345737
      ],
      [
        "▁talk",
        -8.84278603735453
      ],
      [
        "▁An",
        -8.844828851480264
      ],
      [
        "_",
        -8.846053791022548
      ],
      [
        "▁amount",
        -8.848488006861391
      ],
      [
        "▁taken",
        -8.848946051521368
      ],
      [
        "▁times",
        -8.849054317282219
      ],
      [
        "▁whole",
        -8.850110893462293
      ],
      [
        "▁near",
        -8.850224971829125
      ],
      [
        "up",
        -8.851567620019454
      ],
      [
        "▁space",
        -8.853246019325157
      ],
      [
        "▁agreement",
        -8.85375388543765
      ],
      [
        "▁required",
        -8.857374650670778
      ],
      [
        "▁Foundation",
        -8.85813737079083
      ],
      [
        "▁range",
        -8.858197634295493
      ],
      [
        "E",
        -8.858528318045417
      ],
      [
        "▁select",
        -8.859977289807738
      ],
      [
        "▁addition",
        -8.861769729161034
      ],
      [
        "▁private",
        -8.862977050593262
      ],
      [
        "▁specific",
        -8.865065987109105
      ],
      [
        "▁Internet",
        -8.867056146659163
      ],
      [
        "▁industry",
        -8.867691840300145
      ],
      [
        "▁Some",
        -8.868369678520217
      ],
      [
        "▁O",
        -8.87018151958179
      ],
      [
        "▁exact",
        -8.870575550029331
      ],
      [
        "▁features",
        -8.871163936928841
      ],
      [
        "▁technology",
        -8.871598505871491
      ],
      [
        "▁Government",
        -8.875451847107232
      ],
      [
        "ers",
        -8.877242839754231
      ],
      [
        "▁materials",
        -8.878131795492477
      ],
      [
        "▁please",
        -8.878233223047278
      ],
      [
        "▁events",
        -8.878340874494295
      ],
      [
        "▁left",
        -8.880303259685762
      ],
      [
        "▁Ministry",
        -8.88142697626696
      ],
      [
        "▁really",
        -8.882355514099345
      ],
      [
        "▁risk",
        -8.884043760923694
      ],
      [
        "▁His",
        -8.885281952409416
      ],
      [
        "▁center",
        -8.88534395582943
      ],
      [
        "▁Now",
        -8.885699013749425
      ],
      [
        "▁food",
        -8.88578126245782
      ],
      [
        "▁types",
        -8.886623945767818
      ],
      [
        "▁Minister",
        -8.887510715016615
      ],
      [
        "▁key",
        -8.889241169293992
      ],
      [
        "▁thought",
        -8.889404793048016
      ],
      [
        "▁measures",
        -8.889473900600402
      ],
      [
        "▁knowledge",
        -8.89269929385558
      ],
      [
        "▁Department",
        -8.893693276574167
      ],
      [
        "▁display",
        -8.894221400880596
      ],
      [
        "▁global",
        -8.897814119056427
      ],
      [
        "▁keep",
        -8.898924991236271
      ],
      [
        "▁technical",
        -8.903223690657082
      ],
      [
        "▁role",
        -8.903903570502182
      ],
      [
        "▁growth",
        -8.903975804767894
      ],
      [
        "K",
        -8.904002220671382
      ],
      [
        "▁show",
        -8.904674197330166
      ],
      [
        "▁improve",
        -8.904883827055272
      ],
      [
        "▁needs",
        -8.906877775370905
      ],
      [
        "▁above",
        -8.907062438703655
      ],
      [
        "▁interest",
        -8.907640032010214
      ],
      [
        "▁land",
        -8.908364719363133
      ],
      [
        "▁far",
        -8.910138067548305
      ],
      [
        "▁common",
        -8.910576282060402
      ],
      [
        "▁orgasm",
        -8.911807101294288
      ],
      [
        "▁sea",
        -8.91236320762348
      ],
      [
        "ability",
        -8.914167643569954
      ],
      [
        "▁regional",
        -8.9148320081685
      ],
      [
        "▁young",
        -8.915837425428032
      ],
      [
        "ar",
        -8.917959791041593
      ],
      [
        "▁least",
        -8.918609058369025
      ],
      [
        "▁school",
        -8.919080936693259
      ],
      [
        "▁less",
        -8.919193547186701
      ],
      [
        "▁cause",
        -8.919428953062189
      ],
      [
        "▁history",
        -8.920150670735454
      ],
      [
        "▁understand",
        -8.920517615864348
      ],
      [
        "▁provides",
        -8.923226756741498
      ],
      [
        "▁terms",
        -8.925039932443417
      ],
      [
        "man",
        -8.926680861294779
      ],
      [
        "▁car",
        -8.927301033239521
      ],
      [
        "▁Center",
        -8.927307167219702
      ],
      [
        "▁tell",
        -8.927476141385963
      ],
      [
        "▁higher",
        -8.927969497026664
      ],
      [
        "▁PC",
        -8.929007198776477
      ],
      [
        "▁difficult",
        -8.92954279638109
      ],
      [
        "▁Hotel",
        -8.931721625989587
      ],
      [
        "▁side",
        -8.932144348160346
      ],
      [
        "▁changes",
        -8.933007933885026
      ],
      [
        "▁language",
        -8.93467829886265
      ],
      [
        "▁performance",
        -8.934712845444556
      ],
      [
        "▁students",
        -8.935486371201801
      ],
      [
        "▁party",
        -8.93786762051636
      ],
      [
        "▁status",
        -8.938343206655917
      ],
      [
        "▁action",
        -8.939051111220829
      ],
      [
        "▁organization",
        -8.940177891806387
      ],
      [
        "▁receive",
        -8.941186060369448
      ],
      [
        "▁care",
        -8.94129792257845
      ],
      [
        "▁military",
        -8.941992952064988
      ],
      [
        "▁basi",
        -8.94244807965958
      ],
      [
        "▁works",
        -8.947031323988762
      ],
      [
        "▁additional",
        -8.94731782344948
      ],
      [
        "▁etc",
        -8.94881575727095
      ],
      [
        "▁March",
        -8.949737204953019
      ],
      [
        "▁once",
        -8.949773266521083
      ],
      [
        "▁double",
        -8.951476476459659
      ],
      [
        "▁bring",
        -8.951729032318848
      ],
      [
        "▁Casino",
        -8.952515061708809
      ],
      [
        "▁extension",
        -8.952720391491628
      ],
      [
        "▁R",
        -8.95312578858957
      ],
      [
        "▁Development",
        -8.953238006906206
      ],
      [
        "▁K",
        -8.954180811160727
      ],
      [
        "▁single",
        -8.954626122219633
      ],
      [
        "▁directly",
        -8.955958807095206
      ],
      [
        "▁phone",
        -8.9595454988791
      ],
      [
        "▁September",
        -8.959712054511144
      ],
      [
        "▁position",
        -8.959807899477019
      ],
      [
        "▁let",
        -8.959895386309482
      ],
      [
        "▁continue",
        -8.960041681291333
      ],
      [
        "▁users",
        -8.960987184977027
      ],
      [
        "▁society",
        -8.962061947866692
      ],
      [
        "▁sex",
        -8.962114255136807
      ],
      [
        "▁established",
        -8.966301111031338
      ],
      [
        "▁low",
        -8.96680319704924
      ],
      [
        "▁By",
        -8.966869663779422
      ],
      [
        "▁June",
        -8.967770322854932
      ],
      [
        "▁four",
        -8.96880523632334
      ],
      [
        "▁treatment",
        -8.971166940917604
      ],
      [
        "▁District",
        -8.97226042419835
      ],
      [
        "▁Open",
        -8.972734087491244
      ],
      [
        "▁stay",
        -8.973908556662233
      ],
      [
        "▁currently",
        -8.97427198066375
      ],
      [
        "▁final",
        -8.974747046674995
      ],
      [
        "▁line",
        -8.97498080613668
      ],
      [
        "▁developed",
        -8.975721893308656
      ],
      [
        "▁check",
        -8.977027734655497
      ],
      [
        "▁requirements",
        -8.97852500669114
      ],
      [
        "▁thousand",
        -8.97924272723533
      ],
      [
        "L",
        -8.979950513451977
      ],
      [
        "▁heart",
        -8.980025955153613
      ],
      [
        "▁Economic",
        -8.98082351893977
      ],
      [
        "▁Federation",
        -8.981200698125653
      ],
      [
        "▁gas",
        -8.981831888070678
      ],
      [
        "▁effective",
        -8.98388173812783
      ],
      [
        "▁mind",
        -8.984073887811604
      ],
      [
        "▁received",
        -8.985889497837828
      ],
      [
        "▁done",
        -8.986845173576427
      ],
      [
        "▁F",
        -8.987377006761662
      ],
      [
        "▁feel",
        -8.987546066932708
      ],
      [
        "▁wrong",
        -8.987653501716771
      ],
      [
        "▁facilities",
        -8.988356098557825
      ],
      [
        "▁yet",
        -8.989877414642416
      ],
      [
        "▁safety",
        -8.990674498705255
      ],
      [
        "▁plan",
        -8.991387201343121
      ],
      [
        "▁trade",
        -8.99335301333506
      ],
      [
        "▁files",
        -8.993638923584323
      ],
      [
        "▁short",
        -8.994201675158655
      ],
      [
        "▁making",
        -8.99534960341576
      ],
      [
        "▁lot",
        -8.99621786713865
      ],
      [
        "▁follow",
        -8.996886880734165
      ],
      [
        "▁individual",
        -8.998520395568352
      ],
      [
        "▁close",
        -8.999030136114193
      ],
      [
        "▁Union",
        -9.001734504611468
      ],
      [
        "▁top",
        -9.002009720531943
      ],
      [
        "▁member",
        -9.002351298577947
      ],
      [
        "▁thing",
        -9.003358384281153
      ],
      [
        "▁cost",
        -9.004167403554343
      ],
      [
        "▁Striptease",
        -9.004381653996937
      ],
      [
        "▁October",
        -9.004722240333939
      ],
      [
        "▁whether",
        -9.0050565914714
      ],
      [
        "▁nature",
        -9.007661094624968
      ],
      [
        "▁question",
        -9.007932939921387
      ],
      [
        "▁April",
        -9.008700114134596
      ],
      [
        "▁known",
        -9.010180278600801
      ],
      [
        "▁parties",
        -9.010944193726283
      ],
      [
        "▁groups",
        -9.01179180197514
      ],
      [
        "▁operation",
        -9.012114174035077
      ],
      [
        "▁run",
        -9.013395045208757
      ],
      [
        "▁environment",
        -9.013783777773916
      ],
      [
        "▁Aliyev",
        -9.018577889592066
      ],
      [
        "▁cases",
        -9.01868298839305
      ],
      [
        "▁simply",
        -9.020668215612746
      ],
      [
        "▁Here",
        -9.021137361154638
      ],
      [
        "▁size",
        -9.02326076097222
      ],
      [
        "▁apartment",
        -9.02433439947526
      ],
      [
        "▁office",
        -9.025823903525263
      ],
      [
        "▁resolution",
        -9.025995232960987
      ],
      [
        "▁hard",
        -9.026467449614385
      ],
      [
        "▁Bank",
        -9.02686483330024
      ],
      [
        "▁regard",
        -9.027871832904367
      ],
      [
        "▁community",
        -9.028064315518241
      ],
      [
        "▁major",
        -9.028473770829686
      ],
      [
        "▁authorities",
        -9.028516345979211
      ],
      [
        "▁Lord",
        -9.029071775980224
      ],
      [
        "▁says",
        -9.030048098540819
      ],
      [
        "▁official",
        -9.030302285794379
      ],
      [
        "▁subject",
        -9.033968909054092
      ],
      [
        "▁hours",
        -9.034552947954742
      ],
      [
        "N",
        -9.03527964623862
      ],
      [
        "▁learn",
        -9.035808266990946
      ],
      [
        "▁Azerbaijan",
        -9.036266294609748
      ],
      [
        "▁speed",
        -9.037861011145266
      ],
      [
        "▁November",
        -9.038298934837396
      ],
      [
        "•",
        -9.03890221863579
      ],
      [
        "▁More",
        -9.039502944300814
      ],
      [
        "▁perform",
        -9.040077718891443
      ],
      [
        "▁rooms",
        -9.04078441174703
      ],
      [
        "▁pay",
        -9.042813503692312
      ],
      [
        "▁others",
        -9.046343059686663
      ],
      [
        "▁clear",
        -9.046748582395514
      ],
      [
        "▁January",
        -9.046846368345612
      ],
      [
        "▁begin",
        -9.047514493907526
      ],
      [
        "▁later",
        -9.048182998125743
      ],
      [
        "▁video",
        -9.048665637523339
      ],
      [
        "▁complex",
        -9.050143565978665
      ],
      [
        "▁First",
        -9.051451872789785
      ],
      [
        "▁capacity",
        -9.052497613414902
      ],
      [
        "▁almost",
        -9.052651265375056
      ],
      [
        "▁US",
        -9.056081886411343
      ],
      [
        "▁related",
        -9.056450842816412
      ],
      [
        "▁capital",
        -9.058642889627253
      ],
      [
        "▁war",
        -9.061603507232078
      ],
      [
        "▁version",
        -9.06334286093667
      ],
      [
        "▁five",
        -9.064019006871382
      ],
      [
        "▁especially",
        -9.065868645370996
      ],
      [
        "▁attention",
        -9.068800917755887
      ],
      [
        "▁child",
        -9.070072659188138
      ],
      [
        "▁complete",
        -9.071804696194897
      ],
      [
        "▁share",
        -9.072739326275123
      ],
      [
        "▁leave",
        -9.075370337621486
      ],
      [
        "▁easy",
        -9.075531106831123
      ],
      [
        "▁having",
        -9.0761221992101
      ],
      [
        "▁client",
        -9.082187950611306
      ],
      [
        "ism",
        -9.083000932598264
      ],
      [
        "▁Commission",
        -9.083015991191532
      ],
      [
        "▁Convention",
        -9.085483457037862
      ],
      [
        "▁became",
        -9.086068962575128
      ],
      [
        "▁floor",
        -9.086546386691149
      ],
      [
        "▁past",
        -9.087284156143044
      ],
      [
        "▁prevent",
        -9.091434224770971
      ],
      [
        "R",
        -9.091751824886767
      ],
      [
        "▁unique",
        -9.091788365159983
      ],
      [
        "▁From",
        -9.092037640417502
      ],
      [
        "W",
        -9.0932644678294
      ],
      [
        "▁Service",
        -9.09349003411207
      ],
      [
        "▁age",
        -9.096985231232212
      ],
      [
        "▁Yes",
        -9.09743671563328
      ],
      [
        "▁H",
        -9.098537614467629
      ],
      [
        "▁physical",
        -9.100037949308485
      ],
      [
        "▁persons",
        -9.100861574405226
      ],
      [
        "▁minutes",
        -9.101849253430023
      ],
      [
        "▁Article",
        -9.103815950968766
      ],
      [
        "▁allow",
        -9.106418254927075
      ],
      [
        "▁Region",
        -9.106957824693604
      ],
      [
        "▁Israel",
        -9.107151222208106
      ],
      [
        "▁sure",
        -9.107181952568265
      ],
      [
        "▁investment",
        -9.108356360123436
      ],
      [
        "▁staff",
        -9.108415416591905
      ],
      [
        "▁considered",
        -9.109147879439535
      ],
      [
        "▁allows",
        -9.1094667312473
      ],
      [
        "▁session",
        -9.112368636133176
      ],
      [
        "▁Central",
        -9.113137822479981
      ],
      [
        "▁study",
        -9.11400426368186
      ],
      [
        "▁cock",
        -9.114660078903986
      ],
      [
        "▁produce",
        -9.115197386656478
      ],
      [
        "▁rate",
        -9.115622072134443
      ],
      [
        "▁taking",
        -9.115938207259191
      ],
      [
        "▁true",
        -9.116294925553769
      ],
      [
        "▁date",
        -9.118060696318324
      ],
      [
        "▁economy",
        -9.11816028570583
      ],
      [
        "▁potential",
        -9.119013407567712
      ],
      [
        "▁previous",
        -9.119245604408801
      ],
      [
        "▁themselves",
        -9.119726606915295
      ],
      [
        "▁told",
        -9.119923243386332
      ],
      [
        "▁ask",
        -9.120385982501993
      ],
      [
        "est",
        -9.120798705874169
      ],
      [
        "▁along",
        -9.121116160543119
      ],
      [
        "During",
        -9.121436631854003
      ],
      [
        "▁itself",
        -9.12214579280089
      ],
      [
        "▁night",
        -9.122170417977454
      ],
      [
        "▁beautiful",
        -9.124709430249103
      ],
      [
        "▁discuss",
        -9.126133622465547
      ],
      [
        "▁participants",
        -9.127594447864901
      ],
      [
        "▁Security",
        -9.12899600967201
      ],
      [
        "▁went",
        -9.129073505356057
      ],
      [
        "▁enjoy",
        -9.132085287566069
      ],
      [
        "▁documents",
        -9.134816786367312
      ],
      [
        "▁nothing",
        -9.136765229328615
      ],
      [
        "▁press",
        -9.137410176197712
      ],
      [
        "▁sector",
        -9.14014370501632
      ],
      [
        "▁cover",
        -9.140627427519968
      ],
      [
        "▁turn",
        -9.14202148054492
      ],
      [
        "▁conference",
        -9.144116482913102
      ],
      [
        "▁meet",
        -9.144716091368572
      ],
      [
        "▁City",
        -9.14512844459312
      ],
      [
        "▁ShemaleZ",
        -9.145411322053667
      ],
      [
        "▁English",
        -9.145462915873042
      ],
      [
        "▁got",
        -9.147642449854
      ],
      [
        "▁choose",
        -9.14805980050702
      ],
      [
        "▁includes",
        -9.148216173758147
      ],
      [
        "▁built",
        -9.148978824957942
      ],
      [
        "▁amateur",
        -9.149667460596762
      ],
      [
        "O",
        -9.15067997110579
      ],
      [
        "▁connection",
        -9.152028497934916
      ],
      [
        "▁book",
        -9.152275295368122
      ],
      [
        "▁happen",
        -9.152744126655831
      ],
      [
        "▁text",
        -9.153650171166081
      ],
      [
        "▁Please",
        -9.154173901173252
      ],
      [
        "▁communication",
        -9.154384293625625
      ],
      [
        "▁scientific",
        -9.154892533891477
      ],
      [
        "▁institutions",
        -9.155211343180701
      ],
      [
        "▁American",
        -9.156886064769614
      ],
      [
        "▁opportunity",
        -9.156917046011417
      ],
      [
        "▁peace",
        -9.158160653285142
      ],
      [
        "▁doesn",
        -9.158425347523508
      ],
      [
        "▁population",
        -9.15942332918708
      ],
      [
        "▁develop",
        -9.160199300583386
      ],
      [
        "▁transport",
        -9.162993397871267
      ],
      [
        "▁fully",
        -9.163463746299618
      ],
      [
        "▁representatives",
        -9.164901671416462
      ],
      [
        "▁highly",
        -9.167509485005642
      ],
      [
        "▁force",
        -9.167706689674832
      ],
      [
        "▁Christ",
        -9.16801059551147
      ],
      [
        "▁section",
        -9.170478471238791
      ],
      [
        "▁anal",
        -9.172069783501412
      ],
      [
        "▁moment",
        -9.17223226668673
      ],
      [
        "▁developing",
        -9.173799546735324
      ],
      [
        "▁Manager",
        -9.17511303308817
      ],
      [
        "▁Well",
        -9.17579208584315
      ],
      [
        "▁respect",
        -9.17589335536205
      ],
      [
        "▁included",
        -9.177804898393715
      ],
      [
        "▁represent",
        -9.179200549057205
      ],
      [
        "▁content",
        -9.18027223897097
      ],
      [
        "▁entire",
        -9.180633263954366
      ],
      [
        "▁death",
        -9.180657829291412
      ],
      [
        "▁early",
        -9.18077512956877
      ],
      [
        "▁self",
        -9.181542288740314
      ],
      [
        "▁exhibition",
        -9.182213312131044
      ],
      [
        "▁customers",
        -9.18240480046891
      ],
      [
        "▁Heydar",
        -9.182814518740063
      ],
      [
        "▁face",
        -9.183639142134185
      ],
      [
        "▁matter",
        -9.184368671828324
      ],
      [
        "▁accordance",
        -9.186652336823158
      ],
      [
        "▁Law",
        -9.189180857488418
      ],
      [
        "▁Danc",
        -9.18996940909997
      ],
      [
        "▁relations",
        -9.190511967120766
      ],
      [
        "▁settings",
        -9.191261189426788
      ],
      [
        "▁variet",
        -9.191486337516366
      ],
      [
        "F",
        -9.19150720327788
      ],
      [
        "▁read",
        -9.193123324370426
      ],
      [
        "▁purpose",
        -9.195525283837057
      ],
      [
        "▁Oil",
        -9.195973439154857
      ],
      [
        "▁regarding",
        -9.196673795747902
      ],
      [
        "▁appear",
        -9.197340544569396
      ],
      [
        "▁box",
        -9.197898295151973
      ],
      [
        "▁approach",
        -9.198725404904085
      ],
      [
        "▁designed",
        -9.199603304603983
      ],
      [
        "▁Director",
        -9.201416289407382
      ],
      [
        "▁machine",
        -9.202209454053847
      ],
      [
        "▁didn",
        -9.202641999920521
      ],
      [
        "▁Free",
        -9.203545618081165
      ],
      [
        "▁Office",
        -9.205093938483381
      ],
      [
        "▁High",
        -9.20648669033008
      ],
      [
        "▁Board",
        -9.206908727016662
      ],
      [
        "▁efforts",
        -9.207585557133383
      ],
      [
        "▁device",
        -9.207630503064197
      ],
      [
        "▁discover",
        -9.207768054071183
      ],
      [
        "▁simple",
        -9.207837673902688
      ],
      [
        "▁sent",
        -9.209849212936776
      ],
      [
        "▁wish",
        -9.210052264023533
      ],
      [
        "▁reports",
        -9.211370271990797
      ],
      [
        "▁August",
        -9.21298491848056
      ],
      [
        "▁increased",
        -9.215799805402908
      ],
      [
        "▁register",
        -9.21758313153987
      ],
      [
        "▁art",
        -9.21777309224746
      ],
      [
        "▁components",
        -9.21826223785888
      ],
      [
        "▁hotels",
        -9.218412493587362
      ],
      [
        "▁significant",
        -9.219179154539406
      ],
      [
        "▁UN",
        -9.219801592330008
      ],
      [
        "▁Extension",
        -9.219875017302986
      ],
      [
        "▁enough",
        -9.220467650482803
      ],
      [
        "▁strong",
        -9.222600693061143
      ],
      [
        "▁associated",
        -9.223566352625493
      ],
      [
        "▁South",
        -9.226619955319258
      ],
      [
        "▁levels",
        -9.22723886893673
      ],
      [
        "▁operating",
        -9.22830242078784
      ],
      [
        "▁Other",
        -9.22879536227144
      ],
      [
        "out",
        -9.229767595149799
      ],
      [
        "▁either",
        -9.230227583459637
      ],
      [
        "▁association",
        -9.230240984723512
      ],
      [
        "▁structure",
        -9.230331764066522
      ],
      [
        "▁Server",
        -9.232110242599516
      ],
      [
        "▁bathroom",
        -9.23262683531643
      ],
      [
        "▁correct",
        -9.232940075305438
      ],
      [
        "▁started",
        -9.233856118545503
      ],
      [
        "▁ever",
        -9.237050641379891
      ],
      [
        "▁district",
        -9.238128198114472
      ],
      [
        "▁units",
        -9.239288770944967
      ],
      [
        "▁half",
        -9.239457588179508
      ],
      [
        "um",
        -9.240558568901875
      ],
      [
        "▁standard",
        -9.242376615974853
      ],
      [
        "▁leading",
        -9.243269179458052
      ],
      [
        "▁citizens",
        -9.243893003617641
      ],
      [
        "▁exchange",
        -9.24439023815014
      ],
      [
        "▁mean",
        -9.245018358759358
      ],
      [
        "▁supply",
        -9.245412967187393
      ],
      [
        "▁Roleplay",
        -9.24553091436785
      ],
      [
        "one",
        -9.24620713036468
      ],
      [
        "▁music",
        -9.247005828452517
      ],
      [
        "▁review",
        -9.247130965695757
      ],
      [
        "▁quite",
        -9.248233296226271
      ],
      [
        "▁bank",
        -9.248874883994402
      ],
      [
        "▁stop",
        -9.249185130383342
      ],
      [
        "▁methods",
        -9.249258271157947
      ],
      [
        "▁similar",
        -9.250381193867074
      ],
      [
        "▁Why",
        -9.251427060645959
      ],
      [
        "▁serious",
        -9.25158493403718
      ],
      [
        "▁parts",
        -9.253679637280857
      ],
      [
        "▁games",
        -9.25383002973822
      ],
      [
        "▁Company",
        -9.253851236805147
      ],
      [
        "▁Day",
        -9.254201764334335
      ],
      [
        "▁active",
        -9.254477794730342
      ],
      [
        "▁collection",
        -9.254814681712471
      ],
      [
        "ary",
        -9.25494387513973
      ],
      [
        "▁card",
        -9.257662387183556
      ],
      [
        "▁won",
        -9.258429735840542
      ],
      [
        "▁inside",
        -9.260277374879227
      ],
      [
        "▁began",
        -9.260455562274094
      ],
      [
        "▁express",
        -9.261489974572802
      ],
      [
        "▁freedom",
        -9.261496480193403
      ],
      [
        "▁sale",
        -9.262343181526322
      ],
      [
        "▁stage",
        -9.262479816638187
      ],
      [
        "▁Of",
        -9.262949210208816
      ],
      [
        "▁hope",
        -9.26361813777612
      ],
      [
        "▁Germany",
        -9.266064260345066
      ],
      [
        "▁likely",
        -9.266138732909479
      ],
      [
        "▁answer",
        -9.267043482426505
      ],
      [
        "▁table",
        -9.267117689644294
      ],
      [
        "ov",
        -9.267402348688067
      ],
      [
        "▁word",
        -9.268249960006624
      ],
      [
        "▁consist",
        -9.268362864425008
      ],
      [
        "▁rather",
        -9.270694904604007
      ],
      [
        "▁longer",
        -9.271156822719405
      ],
      [
        "▁makes",
        -9.272229534703317
      ],
      [
        "▁System",
        -9.273863636522622
      ],
      [
        "▁code",
        -9.274007772519921
      ],
      [
        "▁recommend",
        -9.274021073583368
      ],
      [
        "▁document",
        -9.277889548163408
      ],
      [
        "▁update",
        -9.278310447101525
      ],
      [
        "▁beginning",
        -9.279118407040471
      ],
      [
        "ment",
        -9.279622155707134
      ],
      [
        "▁Information",
        -9.28057215980694
      ],
      [
        "▁therefore",
        -9.28073114414427
      ],
      [
        "▁Let",
        -9.280827095879507
      ],
      [
        "▁message",
        -9.282147673822104
      ],
      [
        "▁Management",
        -9.282952289184825
      ],
      [
        "▁walk",
        -9.283855997867393
      ],
      [
        "▁PornHub",
        -9.284197665376634
      ],
      [
        "▁questions",
        -9.284267511619193
      ],
      [
        "▁practice",
        -9.287218463910264
      ],
      [
        "▁EU",
        -9.288100407220451
      ],
      [
        "▁cultural",
        -9.289086868350598
      ],
      [
        "▁manufacturer",
        -9.289134715441246
      ],
      [
        "▁assistance",
        -9.290325901849966
      ],
      [
        "▁lower",
        -9.290688044648835
      ],
      [
        "▁try",
        -9.290854381914574
      ],
      [
        "▁popular",
        -9.291169390910555
      ],
      [
        "▁Sea",
        -9.292115646980951
      ],
      [
        "▁culture",
        -9.29269367842687
      ],
      [
        "▁Snapshot",
        -9.294895413532574
      ],
      [
        "▁anything",
        -9.295405408761633
      ],
      [
        "▁via",
        -9.295671290566334
      ],
      [
        "▁restaurant",
        -9.296917638379778
      ],
      [
        "▁useful",
        -9.297120903256618
      ],
      [
        "▁February",
        -9.297182763236401
      ],
      [
        "▁relevant",
        -9.297787560290654
      ],
      [
        "▁Ukrainian",
        -9.299378805308757
      ],
      [
        "▁mature",
        -9.300345158616715
      ],
      [
        "‘",
        -9.300423738644167
      ],
      [
        "▁download",
        -9.30114554288063
      ],
      [
        "▁claim",
        -9.301629342610449
      ],
      [
        "▁spiritual",
        -9.302390450560566
      ],
      [
        "ch",
        -9.302932252093594
      ],
      [
        "▁anti",
        -9.303424153113065
      ],
      [
        "▁existing",
        -9.303782930274995
      ],
      [
        "▁black",
        -9.304140982526606
      ],
      [
        "▁actions",
        -9.304356470989145
      ],
      [
        "▁rules",
        -9.305048281154201
      ],
      [
        "▁location",
        -9.305269112169015
      ],
      [
        "▁America",
        -9.307611969593145
      ],
      [
        "▁Party",
        -9.309390381917803
      ],
      [
        "▁points",
        -9.310647393525914
      ],
      [
        "▁centre",
        -9.31156191235057
      ],
      [
        "▁source",
        -9.312318126362241
      ],
      [
        "▁enter",
        -9.313249968984266
      ],
      [
        "▁joint",
        -9.314884119885384
      ],
      [
        "▁pool",
        -9.31621090845558
      ],
      [
        "▁format",
        -9.316678269667085
      ],
      [
        "▁customer",
        -9.317646283145491
      ],
      [
        "▁presented",
        -9.319136979037852
      ],
      [
        "▁standards",
        -9.322476569736851
      ],
      [
        "▁solution",
        -9.323293596989167
      ],
      [
        "▁prices",
        -9.323407595652746
      ],
      [
        "▁basic",
        -9.325134451673536
      ],
      [
        "▁Conference",
        -9.326225200000758
      ],
      [
        "▁providing",
        -9.328351226908278
      ],
      [
        "▁carried",
        -9.32882663018543
      ],
      [
        "▁father",
        -9.32886905914771
      ],
      [
        "▁X",
        -9.328935076285362
      ],
      [
        "▁medical",
        -9.329012404728974
      ],
      [
        "▁competition",
        -9.329440439352128
      ],
      [
        "▁elections",
        -9.330775240024824
      ],
      [
        "▁ready",
        -9.331342609417804
      ],
      [
        "▁test",
        -9.33206684000978
      ],
      [
        "▁Institute",
        -9.332758321744747
      ],
      [
        "▁transfer",
        -9.334799170603437
      ],
      [
        "▁window",
        -9.335063406349514
      ],
      [
        "▁appropriate",
        -9.336057731480533
      ],
      [
        "▁Moldova",
        -9.336137021914347
      ],
      [
        "▁German",
        -9.338773493302522
      ],
      [
        "▁series",
        -9.339650433556558
      ],
      [
        "▁applications",
        -9.340628577169909
      ],
      [
        "▁Oh",
        -9.342166602641441
      ],
      [
        "▁technologies",
        -9.342464265782812
      ],
      [
        "▁Whil",
        -9.342824423325231
      ],
      [
        "▁details",
        -9.343703842498735
      ],
      [
        "▁implement",
        -9.344232746326444
      ],
      [
        "ally",
        -9.344784814254622
      ],
      [
        "▁image",
        -9.348838533008337
      ],
      [
        "▁Assembly",
        -9.348843814203258
      ],
      [
        "▁progress",
        -9.350779329394205
      ],
      [
        "▁lead",
        -9.351271625721534
      ],
      [
        "▁drive",
        -9.352660301995376
      ],
      [
        "▁son",
        -9.354179372071336
      ],
      [
        "term",
        -9.356111285913075
      ],
      [
        "▁budget",
        -9.356211738041697
      ],
      [
        "▁Since",
        -9.357063355413993
      ],
      [
        "▁wide",
        -9.357207181305421
      ],
      [
        "by",
        -9.35759061920944
      ],
      [
        "▁doing",
        -9.35880962906343
      ],
      [
        "▁Re",
        -9.359419695782854
      ],
      [
        "▁Latvia",
        -9.3620829868805
      ],
      [
        "▁century",
        -9.364789459983657
      ],
      [
        "▁everyone",
        -9.366328220057307
      ],
      [
        "▁Special",
        -9.366735017072704
      ],
      [
        "▁independent",
        -9.366929422617725
      ],
      [
        "▁truth",
        -9.367216422644956
      ],
      [
        "▁across",
        -9.36814387115255
      ],
      [
        "▁install",
        -9.368538583895933
      ],
      [
        "▁add",
        -9.369509116808231
      ],
      [
        "▁disease",
        -9.37024003154628
      ],
      [
        "▁Secretary",
        -9.37030120894228
      ],
      [
        "▁domain",
        -9.372981510023196
      ],
      [
        "▁Church",
        -9.373382646742474
      ],
      [
        "▁option",
        -9.37417018129807
      ],
      [
        "▁clients",
        -9.374696725122032
      ],
      [
        "▁J",
        -9.375369939829223
      ],
      [
        "▁Georgia",
        -9.375734818829041
      ],
      [
        "▁direct",
        -9.379013972695908
      ],
      [
        "▁friends",
        -9.380513405523809
      ],
      [
        "▁mobile",
        -9.380805434501484
      ],
      [
        "▁soon",
        -9.383539823641392
      ],
      [
        "▁opinion",
        -9.38417288962566
      ],
      [
        "▁Finger",
        -9.385075105219547
      ],
      [
        "▁brought",
        -9.38536033805487
      ],
      [
        "▁wife",
        -9.385738156494018
      ],
      [
        "▁behind",
        -9.386672063863427
      ],
      [
        "▁Analysis",
        -9.386838547910276
      ],
      [
        "▁traditional",
        -9.387475341555323
      ],
      [
        "▁Close",
        -9.387925039078
      ],
      [
        "ate",
        -9.38883452761936
      ],
      [
        "▁payment",
        -9.38964641484855
      ],
      [
        "▁carry",
        -9.390450470575523
      ],
      [
        "▁Use",
        -9.390956144869756
      ],
      [
        "▁focus",
        -9.391044751551968
      ],
      [
        "▁noted",
        -9.391445954830115
      ],
      [
        "▁added",
        -9.391460671886733
      ],
      [
        "▁lines",
        -9.393267606372588
      ],
      [
        "▁saw",
        -9.393953190744446
      ],
      [
        "▁bodies",
        -9.394104166376668
      ],
      [
        "▁girl",
        -9.39608687357825
      ],
      [
        "▁deal",
        -9.396101087972076
      ],
      [
        "▁separate",
        -9.397452569623463
      ],
      [
        "▁towards",
        -9.397774441897994
      ],
      [
        "▁serve",
        -9.398586830239411
      ],
      [
        "▁formats",
        -9.399684845427837
      ],
      [
        "▁reduce",
        -9.39990439442273
      ],
      [
        "▁creation",
        -9.40019789470178
      ],
      [
        "▁tourist",
        -9.4008130159472
      ],
      [
        "men",
        -9.40133837732007
      ],
      [
        "▁search",
        -9.401999786077258
      ],
      [
        "▁send",
        -9.402891442060433
      ],
      [
        "▁asked",
        -9.403762052366972
      ],
      [
        "▁initiative",
        -9.40515108717735
      ],
      [
        "▁court",
        -9.406348614356846
      ],
      [
        "▁blowjob",
        -9.407815879141264
      ],
      [
        "▁French",
        -9.408026188784124
      ],
      [
        "▁demand",
        -9.4082428519003
      ],
      [
        "▁export",
        -9.408664232022039
      ],
      [
        "▁surface",
        -9.40892406167834
      ],
      [
        "▁rule",
        -9.410334897292682
      ],
      [
        "▁paper",
        -9.410802771739041
      ],
      [
        "▁TXXX",
        -9.410922903416743
      ],
      [
        "▁participation",
        -9.41098971380297
      ],
      [
        "▁rest",
        -9.41115694730652
      ],
      [
        "▁mention",
        -9.411732231850808
      ],
      [
        "▁Court",
        -9.41203315045805
      ],
      [
        "▁choice",
        -9.413548856751968
      ],
      [
        "▁operations",
        -9.415244515919166
      ],
      [
        "▁blood",
        -9.415589310587995
      ],
      [
        "▁method",
        -9.415589538379068
      ],
      [
        "▁damage",
        -9.41585964505162
      ],
      [
        "▁draft",
        -9.417154492651326
      ],
      [
        "▁experts",
        -9.417745240816778
      ],
      [
        "▁function",
        -9.42029587819088
      ],
      [
        "▁maintain",
        -9.420640422824833
      ],
      [
        "based",
        -9.421627964730408
      ],
      [
        "▁regions",
        -9.42187556129023
      ],
      [
        "▁looking",
        -9.422899154376404
      ],
      [
        "▁sense",
        -9.423474429386328
      ],
      [
        "▁consider",
        -9.424195924568675
      ],
      [
        "▁pressure",
        -9.42480239056259
      ],
      [
        "▁religious",
        -9.425924399897584
      ],
      [
        "for",
        -9.426227833787491
      ],
      [
        "▁percent",
        -9.426291687712128
      ],
      [
        "▁outside",
        -9.427854671754263
      ],
      [
        "▁safe",
        -9.428235438362146
      ],
      [
        "▁travel",
        -9.428458244607897
      ],
      [
        "▁pre",
        -9.428813347117897
      ],
      [
        "▁framework",
        -9.428843283685492
      ],
      [
        "▁states",
        -9.430016305432423
      ],
      [
        "▁comes",
        -9.43061657130331
      ],
      [
        "▁task",
        -9.431085220092163
      ],
      [
        "▁move",
        -9.431275654116716
      ],
      [
        "▁processes",
        -9.431326169309212
      ],
      [
        "▁practical",
        -9.43159015060238
      ],
      [
        "▁act",
        -9.431620870918408
      ],
      [
        "▁former",
        -9.431787517257902
      ],
      [
        "▁http",
        -9.432853720654998
      ],
      [
        "▁direction",
        -9.434380540376766
      ],
      [
        "▁educational",
        -9.435234939633974
      ],
      [
        "▁costs",
        -9.435493368228482
      ],
      [
        "▁procedure",
        -9.435509048060368
      ],
      [
        "▁post",
        -9.437811122456674
      ],
      [
        "▁yourself",
        -9.438324991960208
      ],
      [
        "▁largest",
        -9.4383838894743
      ],
      [
        "▁step",
        -9.439152808150824
      ],
      [
        "▁concept",
        -9.441093576732571
      ],
      [
        "▁launch",
        -9.441224226765545
      ],
      [
        "▁positive",
        -9.441248593280521
      ],
      [
        "▁players",
        -9.44372308156705
      ],
      [
        "sky",
        -9.445566430189853
      ],
      [
        "▁Museum",
        -9.447859244335282
      ],
      [
        "▁masturbation",
        -9.44830022512624
      ],
      [
        "▁ground",
        -9.450009344991047
      ],
      [
        "▁Today",
        -9.45017975509859
      ],
      [
        "▁tax",
        -9.451050637064391
      ],
      [
        "▁feature",
        -9.451501056860081
      ],
      [
        "▁Show",
        -9.453299263246098
      ],
      [
        "▁completely",
        -9.455172328132841
      ],
      [
        "▁central",
        -9.45522675905334
      ],
      [
        "▁success",
        -9.455696498118039
      ],
      [
        "▁whose",
        -9.455780325031913
      ],
      [
        "▁processing",
        -9.456497663100864
      ],
      [
        "▁discussion",
        -9.457066191356299
      ],
      [
        "▁command",
        -9.457222579042435
      ],
      [
        "▁spirit",
        -9.457916055267345
      ],
      [
        "▁original",
        -9.458385163459312
      ],
      [
        "▁devices",
        -9.458705143765766
      ],
      [
        "▁earth",
        -9.459444840621645
      ],
      [
        "▁Q",
        -9.459528881565413
      ],
      [
        "▁Air",
        -9.459636051216322
      ],
      [
        "over",
        -9.459946050596962
      ],
      [
        "▁establish",
        -9.460201645158568
      ],
      [
        "▁coming",
        -9.461165440819807
      ],
      [
        "▁campaign",
        -9.461390956945028
      ],
      [
        "▁territory",
        -9.462352121283947
      ],
      [
        "▁town",
        -9.463012235287657
      ],
      [
        "be",
        -9.463028264858158
      ],
      [
        "▁though",
        -9.463097306709791
      ],
      [
        "▁Additional",
        -9.464065931689934
      ],
      [
        "▁industrial",
        -9.465640537146369
      ],
      [
        "▁front",
        -9.46642550788098
      ],
      [
        "▁plant",
        -9.467740504298925
      ],
      [
        "▁speak",
        -9.469256092400867
      ],
      [
        "▁photo",
        -9.471004422844649
      ],
      [
        "▁Can",
        -9.471211338097095
      ],
      [
        "of",
        -9.473336849412172
      ],
      [
        "▁installation",
        -9.473373138716237
      ],
      [
        "▁credit",
        -9.47453318275537
      ],
      [
        "▁Centre",
        -9.474582542054629
      ],
      [
        "▁plans",
        -9.475265968854576
      ],
      [
        "▁election",
        -9.47547380154139
      ],
      [
        "▁expected",
        -9.477029211705082
      ],
      [
        "▁East",
        -9.478124409118253
      ],
      [
        "▁guests",
        -9.479518174693496
      ],
      [
        "▁forces",
        -9.479946597979971
      ],
      [
        "▁steel",
        -9.48005832994792
      ],
      [
        "▁published",
        -9.480467928193605
      ],
      [
        "▁six",
        -9.480923342547467
      ],
      [
        "Y",
        -9.48096385571462
      ],
      [
        "▁conflict",
        -9.481010448857814
      ],
      [
        "ka",
        -9.481138978955222
      ],
      [
        "▁extensions",
        -9.482252404514
      ],
      [
        "▁needed",
        -9.482701410823243
      ],
      [
        "▁unto",
        -9.483552070970584
      ],
      [
        "▁aware",
        -9.483673072524669
      ],
      [
        "▁station",
        -9.483964471951692
      ],
      [
        "▁treat",
        -9.485380768625129
      ],
      [
        "▁mechanism",
        -9.486140892766453
      ],
      [
        "▁easie",
        -9.48694002869386
      ],
      [
        "ization",
        -9.487323450554952
      ],
      [
        "www",
        -9.48861638442057
      ],
      [
        "▁police",
        -9.48959482641047
      ],
      [
        "▁buy",
        -9.489931588868066
      ],
      [
        "▁solutions",
        -9.492777627028698
      ],
      [
        "▁gave",
        -9.494427763075164
      ],
      [
        "▁funds",
        -9.495406137840824
      ],
      [
        "seen",
        -9.4960680215063
      ],
      [
        "▁Software",
        -9.497225229705707
      ],
      [
        "▁white",
        -9.497227416101516
      ],
      [
        "▁Not",
        -9.497356436991621
      ],
      [
        "▁attempt",
        -9.497697256242219
      ],
      [
        "▁Father",
        -9.497877055274333
      ],
      [
        "«",
        -9.498361668315003
      ],
      [
        "▁perfect",
        -9.499049303060774
      ],
      [
        "▁note",
        -9.499280861409837
      ],
      [
        "▁promote",
        -9.499499117455592
      ],
      [
        "▁House",
        -9.499700591525162
      ],
      [
        "day",
        -9.50088037832583
      ],
      [
        "▁People",
        -9.500954377767165
      ],
      [
        "▁color",
        -9.501292449827432
      ],
      [
        "▁apply",
        -9.501977524188373
      ],
      [
        "time",
        -9.503107124486617
      ],
      [
        "▁elements",
        -9.503175678547262
      ],
      [
        "▁reform",
        -9.503794573725393
      ],
      [
        "▁cities",
        -9.50617475387469
      ],
      [
        "▁co",
        -9.50661082526144
      ],
      [
        "▁protect",
        -9.506950186574777
      ],
      [
        "▁impact",
        -9.507260453916938
      ],
      [
        "▁Human",
        -9.509085982731417
      ],
      [
        "▁build",
        -9.510176467057292
      ],
      [
        "▁recent",
        -9.512559133038444
      ],
      [
        "▁join",
        -9.513694923777454
      ],
      [
        "▁Year",
        -9.513840719923033
      ],
      [
        "▁Zoom",
        -9.514926643405708
      ],
      [
        "▁interests",
        -9.51500050900323
      ],
      [
        "▁particularly",
        -9.515811641805776
      ],
      [
        "▁fire",
        -9.516020973250335
      ],
      [
        "▁goal",
        -9.517367977710544
      ],
      [
        "▁kitchen",
        -9.518331223100638
      ],
      [
        "▁decided",
        -9.518451064775556
      ],
      [
        "▁weight",
        -9.518638243648306
      ],
      [
        "▁influence",
        -9.522144664069838
      ],
      [
        "quickly",
        -9.523417235712143
      ],
      [
        "▁Games",
        -9.524355156479539
      ],
      [
        "▁HD",
        -9.524701696904572
      ],
      [
        "▁Anal",
        -9.52487506090213
      ],
      [
        "▁department",
        -9.525215175615932
      ],
      [
        "▁AShemaleTube",
        -9.525667975751542
      ],
      [
        "▁reported",
        -9.52585584130469
      ],
      [
        "▁nuclear",
        -9.526215021548365
      ],
      [
        "▁importance",
        -9.52637712712877
      ],
      [
        "▁San",
        -9.527699573966427
      ],
      [
        "▁responsible",
        -9.529846458734601
      ],
      [
        "▁organized",
        -9.530026061542925
      ],
      [
        "▁Association",
        -9.530621407903922
      ],
      [
        "▁throughout",
        -9.530818459611405
      ],
      [
        "▁volume",
        -9.531348286664802
      ],
      [
        "▁mass",
        -9.531621013222148
      ],
      [
        "▁lost",
        -9.532779906596335
      ],
      [
        "▁goods",
        -9.533173715673472
      ],
      [
        "▁Al",
        -9.533376637214118
      ],
      [
        "▁Go",
        -9.534215734661958
      ],
      [
        "▁response",
        -9.535769876999714
      ],
      [
        "▁vote",
        -9.535839696319965
      ],
      [
        "▁Be",
        -9.535973994142536
      ],
      [
        "▁saying",
        -9.53600043353113
      ],
      [
        "▁programme",
        -9.536040193880773
      ],
      [
        "General",
        -9.536812462311284
      ],
      [
        "▁Foreign",
        -9.537097055626855
      ],
      [
        "▁domestic",
        -9.537787628834092
      ],
      [
        "▁license",
        -9.539902767945664
      ],
      [
        "▁options",
        -9.540171437368006
      ],
      [
        "▁easily",
        -9.540442210624335
      ],
      [
        "▁eyes",
        -9.540720838217862
      ],
      [
        "▁Services",
        -9.540866618935407
      ],
      [
        "▁brand",
        -9.542000259451495
      ],
      [
        "U",
        -9.543675259636556
      ],
      [
        "▁involved",
        -9.543946626788841
      ],
      [
        "▁written",
        -9.546198231074909
      ],
      [
        "▁someone",
        -9.546622430771565
      ],
      [
        "▁term",
        -9.547531680000107
      ],
      [
        "▁limit",
        -9.54823641357411
      ],
      [
        "▁skin",
        -9.548270438288665
      ],
      [
        "▁Each",
        -9.54900551449302
      ],
      [
        "▁monitoring",
        -9.54982239967889
      ],
      [
        "▁ways",
        -9.550951650376428
      ],
      [
        "▁North",
        -9.551220328151668
      ],
      [
        "▁woman",
        -9.551419633826452
      ],
      [
        "▁Head",
        -9.551648660441813
      ],
      [
        "▁Y",
        -9.552024482916723
      ],
      [
        "▁job",
        -9.55320121763139
      ],
      [
        "▁mother",
        -9.553261767072803
      ],
      [
        "▁legislation",
        -9.554286054701189
      ],
      [
        "▁regulation",
        -9.55503564077931
      ],
      [
        "▁save",
        -9.555059161244444
      ],
      [
        "▁items",
        -9.555106355546922
      ],
      [
        "▁equal",
        -9.556192563765967
      ],
      [
        "▁difference",
        -9.556828443940278
      ],
      [
        "▁France",
        -9.55706147538313
      ],
      [
        "▁path",
        -9.557517519719163
      ],
      [
        "▁immediately",
        -9.559457049180097
      ],
      [
        "▁policies",
        -9.560405233141479
      ],
      [
        "▁Rights",
        -9.560757610440753
      ],
      [
        "▁hold",
        -9.560762231313712
      ],
      [
        "▁Chinese",
        -9.56141053921191
      ],
      [
        "▁civil",
        -9.562078923660854
      ],
      [
        "▁partners",
        -9.562528845786575
      ],
      [
        "▁nor",
        -9.563468231432077
      ],
      [
        "▁avoid",
        -9.56472418291709
      ],
      [
        "▁distribution",
        -9.565270373002958
      ],
      [
        "▁leader",
        -9.565689950672466
      ],
      [
        "▁highest",
        -9.566919758515063
      ],
      [
        "▁enable",
        -9.567080676313436
      ],
      [
        "▁See",
        -9.567489260634357
      ],
      [
        "▁successful",
        -9.568409823067219
      ],
      [
        "▁Microsoft",
        -9.568661568662025
      ],
      [
        "▁Configuration",
        -9.568825917261282
      ],
      [
        "▁Model",
        -9.570747549071475
      ],
      [
        "▁unit",
        -9.574188091654733
      ],
      [
        "▁heard",
        -9.575477476494648
      ],
      [
        "▁achieve",
        -9.5759299723315
      ],
      [
        "▁limited",
        -9.576455161496503
      ],
      [
        "▁Many",
        -9.576602737917987
      ],
      [
        "▁forward",
        -9.576604597179502
      ],
      [
        "▁interested",
        -9.577820107749714
      ],
      [
        "▁aspect",
        -9.578448747823428
      ],
      [
        "▁maintenance",
        -9.579084187549881
      ],
      [
        "▁bar",
        -9.579181609693388
      ],
      [
        "▁employees",
        -9.579476184630801
      ],
      [
        "▁forms",
        -9.580456853084966
      ],
      [
        "▁met",
        -9.581386317618838
      ],
      [
        "▁weather",
        -9.582142996016978
      ],
      [
        "▁Thus",
        -9.582267996768111
      ],
      [
        "▁solo",
        -9.58251788157527
      ],
      [
        "▁Code",
        -9.582520811498465
      ],
      [
        "▁Are",
        -9.583054288561298
      ],
      [
        "▁Don",
        -9.583645277052682
      ],
      [
        "▁principles",
        -9.583873211444821
      ],
      [
        "▁Mobile",
        -9.584016532038767
      ],
      [
        "▁Business",
        -9.586941417327502
      ],
      [
        "▁object",
        -9.587834103191566
      ],
      [
        "▁famous",
        -9.588360856535715
      ],
      [
        "▁condition",
        -9.588950839569168
      ],
      [
        "▁environmental",
        -9.58920634839068
      ],
      [
        "▁skills",
        -9.589305182175295
      ],
      [
        "▁selected",
        -9.590067881411299
      ],
      [
        "▁Just",
        -9.590177912253331
      ],
      [
        "▁figure",
        -9.591502376819488
      ],
      [
        "▁village",
        -9.59153844864317
      ],
      [
        "▁lives",
        -9.591671149532802
      ],
      [
        "▁class",
        -9.591718844658404
      ],
      [
        "▁responsibility",
        -9.592147154236656
      ],
      [
        "▁equipped",
        -9.593488038858625
      ],
      [
        "▁prepared",
        -9.59471356188724
      ],
      [
        "▁Spirit",
        -9.595103792471122
      ],
      [
        "▁fall",
        -9.595302103831093
      ],
      [
        "▁Therefor",
        -9.5953771620771
      ],
      [
        "▁remember",
        -9.59551531514562
      ],
      [
        "▁button",
        -9.596043409825743
      ],
      [
        "▁commercial",
        -9.596204809600367
      ],
      [
        "▁specified",
        -9.59621525479944
      ],
      [
        "▁road",
        -9.596583333516751
      ],
      [
        "▁seem",
        -9.597431478379349
      ],
      [
        "▁delivery",
        -9.597893029880193
      ],
      [
        "▁Dildo",
        -9.597985000380035
      ],
      [
        "▁storage",
        -9.598544803698314
      ],
      [
        "▁Soviet",
        -9.599041527622584
      ],
      [
        "▁internal",
        -9.599129964630828
      ],
      [
        "▁browser",
        -9.599642759021345
      ],
      [
        "▁Asia",
        -9.599958217945161
      ],
      [
        "▁reach",
        -9.600806374241138
      ],
      [
        "▁essential",
        -9.601369513438627
      ],
      [
        "▁chance",
        -9.601421641780043
      ],
      [
        "▁interesting",
        -9.602255152428631
      ],
      [
        "▁summer",
        -9.602589031028149
      ],
      [
        "▁couple",
        -9.602590745203354
      ],
      [
        "▁attend",
        -9.603614393061271
      ],
      [
        "▁contract",
        -9.603645044937732
      ],
      [
        "▁church",
        -9.603872366454828
      ],
      [
        "ive",
        -9.60389828654962
      ],
      [
        "▁master",
        -9.604092569482276
      ],
      [
        "▁bedroom",
        -9.604162038451522
      ],
      [
        "▁annual",
        -9.604503457891422
      ],
      [
        "▁base",
        -9.605410194769833
      ],
      [
        "▁paid",
        -9.60620631951119
      ],
      [
        "year",
        -9.607640067464986
      ],
      [
        "▁multi",
        -9.608045128045344
      ],
      [
        "▁Even",
        -9.608215619997681
      ],
      [
        "▁recognize",
        -9.608481823334175
      ],
      [
        "▁mission",
        -9.609606417976146
      ],
      [
        "▁shows",
        -9.610394203621162
      ],
      [
        "deed",
        -9.611139000840843
      ],
      [
        "▁extreme",
        -9.611457128753074
      ],
      [
        "▁leaders",
        -9.611796655142092
      ],
      [
        "▁efficiency",
        -9.612401517261032
      ],
      [
        "▁running",
        -9.612743936468673
      ],
      [
        "▁reality",
        -9.613472981891853
      ],
      [
        "▁steps",
        -9.613811002887955
      ],
      [
        "▁takes",
        -9.614236849767977
      ],
      [
        "▁destroy",
        -9.614924311358775
      ],
      [
        "▁War",
        -9.61579031379742
      ],
      [
        "▁daily",
        -9.616235819755238
      ],
      [
        "▁degree",
        -9.616494705246662
      ],
      [
        "▁average",
        -9.617637490093907
      ],
      [
        "▁maximum",
        -9.617946220213213
      ],
      [
        "▁infrastructure",
        -9.618808997590117
      ],
      [
        "▁actually",
        -9.618922915646921
      ],
      [
        "▁lack",
        -9.619534769134628
      ],
      [
        "▁usually",
        -9.619689720108067
      ],
      [
        "j",
        -9.619802550686014
      ],
      [
        "stalled",
        -9.620008926850186
      ],
      [
        "▁whom",
        -9.620154692974268
      ],
      [
        "▁registration",
        -9.621440156721135
      ],
      [
        "▁tools",
        -9.622504071435552
      ],
      [
        "▁require",
        -9.622512631956281
      ],
      [
        "▁values",
        -9.622642134841513
      ],
      [
        "▁store",
        -9.623319924017153
      ],
      [
        "▁brother",
        -9.62354545150688
      ],
      [
        "▁sound",
        -9.623661866629993
      ],
      [
        "▁movement",
        -9.62470392750408
      ],
      [
        "▁crisis",
        -9.625521315168442
      ],
      [
        "land",
        -9.626237222143216
      ],
      [
        "▁Belarus",
        -9.627180880774098
      ],
      [
        "▁sales",
        -9.627345331134558
      ],
      [
        "▁president",
        -9.627504726248924
      ],
      [
        "▁Putin",
        -9.62794275235519
      ],
      [
        "▁commission",
        -9.628022963984172
      ],
      [
        "▁feeling",
        -9.628350190087088
      ],
      [
        "▁understanding",
        -9.628455885577198
      ],
      [
        "▁PM",
        -9.628735916537495
      ],
      [
        "▁deep",
        -9.628962193825462
      ],
      [
        "▁Most",
        -9.629717166238313
      ],
      [
        "▁Weather",
        -9.630069781282545
      ],
      [
        "▁administration",
        -9.630745010581133
      ],
      [
        "ur",
        -9.631453200434041
      ],
      [
        "▁Room",
        -9.63317673920341
      ],
      [
        "▁else",
        -9.633228055018584
      ],
      [
        "▁presence",
        -9.633358764666797
      ],
      [
        "▁journalist",
        -9.635440223544954
      ],
      [
        "▁billion",
        -9.636150922940072
      ],
      [
        "▁Georgian",
        -9.636537845399264
      ],
      [
        "▁fair",
        -9.63754966105855
      ],
      [
        "▁creating",
        -9.639942619450958
      ],
      [
        "▁LORD",
        -9.641002584208417
      ],
      [
        "▁thus",
        -9.641199345828328
      ],
      [
        "▁Great",
        -9.641355606033944
      ],
      [
        "▁Because",
        -9.641730364166625
      ],
      [
        "▁statement",
        -9.64258352486842
      ],
      [
        "age",
        -9.64350062478158
      ],
      [
        "▁mouth",
        -9.643801220082226
      ],
      [
        "▁Armenia",
        -9.643909746763153
      ],
      [
        "▁participate",
        -9.644110951605695
      ],
      [
        "ous",
        -9.644998803906292
      ],
      [
        "▁West",
        -9.645251296706528
      ],
      [
        "adopted",
        -9.646381924004741
      ],
      [
        "▁sports",
        -9.64759868234464
      ],
      [
        "▁Name",
        -9.647729246703333
      ],
      [
        "▁island",
        -9.648169143989207
      ],
      [
        "▁laws",
        -9.648743805879317
      ],
      [
        "▁database",
        -9.64885698284476
      ],
      [
        "▁web",
        -9.649385165735389
      ],
      [
        "▁opening",
        -9.649430638708337
      ],
      [
        "▁Where",
        -9.649834655845353
      ],
      [
        "▁science",
        -9.650238526099752
      ],
      [
        "▁conduct",
        -9.653409547638745
      ],
      [
        "▁Organization",
        -9.654311525887898
      ],
      [
        "▁opportunities",
        -9.654498996486483
      ],
      [
        "▁enterprises",
        -9.654924717981213
      ],
      [
        "off",
        -9.65574469683924
      ],
      [
        "▁Web",
        -9.656142013571483
      ],
      [
        "▁Or",
        -9.65657960960308
      ],
      [
        "▁planning",
        -9.657526939124477
      ],
      [
        "▁relative",
        -9.658609395791144
      ],
      [
        "▁schedule",
        -9.658786201630242
      ],
      [
        "▁crime",
        -9.659083984332257
      ],
      [
        "▁holiday",
        -9.660734003369349
      ],
      [
        "▁tool",
        -9.66097278982599
      ],
      [
        "▁signed",
        -9.661719479594225
      ],
      [
        "▁loss",
        -9.663584478402937
      ],
      [
        "▁functions",
        -9.664729261972308
      ],
      [
        "▁conducted",
        -9.665617124380708
      ],
      [
        "▁places",
        -9.66579412272534
      ],
      [
        "▁hear",
        -9.666365723188639
      ],
      [
        "▁indicator",
        -9.666477900733113
      ],
      [
        "▁exercise",
        -9.66651395525269
      ],
      [
        "▁beach",
        -9.66710109218298
      ],
      [
        "▁Add",
        -9.668779856545779
      ],
      [
        "▁OF",
        -9.669822529949979
      ],
      [
        "▁fear",
        -9.669972175052962
      ],
      [
        "▁Vladimir",
        -9.672288582566038
      ],
      [
        "▁threat",
        -9.674487173699047
      ],
      [
        "▁king",
        -9.674824903271016
      ],
      [
        "where",
        -9.6762606257167
      ],
      [
        "▁fish",
        -9.67810466419776
      ],
      [
        "▁Pro",
        -9.678150375247302
      ],
      [
        "▁fight",
        -9.678353419119002
      ],
      [
        "▁airport",
        -9.678806588737595
      ],
      [
        "▁hands",
        -9.679661241723972
      ],
      [
        "▁charge",
        -9.679919837808637
      ],
      [
        "▁reached",
        -9.680542991564435
      ],
      [
        "▁external",
        -9.680998629166915
      ],
      [
        "▁Who",
        -9.681466655930842
      ],
      [
        "▁John",
        -9.68172080621092
      ],
      [
        "▁latest",
        -9.681959629001726
      ],
      [
        "▁Product",
        -9.681980989978788
      ],
      [
        "▁Co",
        -9.68243630798044
      ],
      [
        "▁secure",
        -9.683165507953364
      ],
      [
        "▁De",
        -9.683175355576061
      ],
      [
        "▁generation",
        -9.684157926503053
      ],
      [
        "▁Social",
        -9.684245777925526
      ],
      [
        "▁stand",
        -9.684258391164601
      ],
      [
        "▁allowed",
        -9.684305709020995
      ],
      [
        "▁trying",
        -9.684834784621208
      ],
      [
        "▁release",
        -9.686274154227934
      ],
      [
        "▁Black",
        -9.686501313996594
      ],
      [
        "▁improvement",
        -9.687281074277191
      ],
      [
        "▁Park",
        -9.68728695910332
      ],
      [
        "▁mode",
        -9.688179878560913
      ],
      [
        "▁turned",
        -9.688412188380616
      ],
      [
        "▁rates",
        -9.68864850257549
      ],
      [
        "▁player",
        -9.689245157622993
      ],
      [
        "▁film",
        -9.690414851549844
      ],
      [
        "▁Public",
        -9.691245479565959
      ],
      [
        "▁cumshot",
        -9.69203108684209
      ],
      [
        "▁excellent",
        -9.692070856941982
      ],
      [
        "▁style",
        -9.693697010337303
      ],
      [
        "▁depend",
        -9.693809137235304
      ],
      [
        "▁IP",
        -9.69530273845635
      ],
      [
        "▁Power",
        -9.695401128012778
      ],
      [
        "▁inter",
        -9.695919884822494
      ],
      [
        "▁topic",
        -9.696173164883492
      ],
      [
        "▁watch",
        -9.697343152162784
      ],
      [
        "▁submitt",
        -9.697390240754375
      ],
      [
        "▁Airport",
        -9.697520124235679
      ],
      [
        "strategy",
        -9.697630228537566
      ],
      [
        "▁paragraph",
        -9.69789559045282
      ],
      [
        "▁income",
        -9.698060149351567
      ],
      [
        "▁secret",
        -9.6983002472475
      ],
      [
        "▁Z",
        -9.698545857792332
      ],
      [
        "▁Art",
        -9.69884708684548
      ],
      [
        "▁increasing",
        -9.69910302767933
      ],
      [
        "▁Affairs",
        -9.7002023156227
      ],
      [
        "▁convert",
        -9.700790947745263
      ],
      [
        "▁sites",
        -9.700912866165044
      ],
      [
        "▁Serbia",
        -9.7016764165739
      ],
      [
        "▁greater",
        -9.701856500385329
      ],
      [
        "▁THE",
        -9.702435534937294
      ],
      [
        "▁faith",
        -9.703574136611351
      ],
      [
        "▁determine",
        -9.705293855447824
      ],
      [
        "click",
        -9.707882255675024
      ],
      [
        "▁break",
        -9.708211099590772
      ],
      [
        "▁Computer",
        -9.708370289273102
      ],
      [
        "▁properties",
        -9.708672096895008
      ],
      [
        "▁bad",
        -9.710255689272227
      ],
      [
        "▁remains",
        -9.71081516207362
      ],
      [
        "▁round",
        -9.710855820974688
      ],
      [
        "ities",
        -9.71100084864763
      ],
      [
        "▁hair",
        -9.711853265271118
      ],
      [
        "▁meters",
        -9.71218699595862
      ],
      [
        "▁screen",
        -9.712612146315145
      ],
      [
        "▁decisions",
        -9.712720948725877
      ],
      [
        "▁Dr",
        -9.713518440108865
      ],
      [
        "▁fuel",
        -9.713926329823845
      ],
      [
        "▁aimed",
        -9.714408549550784
      ],
      [
        "▁views",
        -9.714731943502112
      ],
      [
        "▁compilation",
        -9.715782422860737
      ],
      [
        "▁changed",
        -9.717366015517204
      ],
      [
        "▁electronic",
        -9.71793354446523
      ],
      [
        "▁Africa",
        -9.718997996965538
      ],
      [
        "▁victim",
        -9.719223180679867
      ],
      [
        "mail",
        -9.71951163157298
      ],
      [
        "▁affect",
        -9.721583180826574
      ],
      [
        "▁doctor",
        -9.722052893891956
      ],
      [
        "▁stated",
        -9.722530491821848
      ],
      [
        "▁accept",
        -9.72291918031917
      ],
      [
        "▁consciousness",
        -9.723605569802098
      ],
      [
        "▁offered",
        -9.72518996496976
      ],
      [
        "▁package",
        -9.725654394427298
      ],
      [
        "▁cable",
        -9.727378848506527
      ],
      [
        "▁alone",
        -9.727490642776251
      ],
      [
        "▁Fund",
        -9.727658245300065
      ],
      [
        "▁race",
        -9.727715303918423
      ],
      [
        "▁possibility",
        -9.730057451830323
      ],
      [
        "▁deliver",
        -9.73114215952595
      ],
      [
        "▁agencies",
        -9.731225887146387
      ],
      [
        "▁continued",
        -9.731509522125323
      ],
      [
        "▁memory",
        -9.732883169258981
      ],
      [
        "▁partner",
        -9.733232967514498
      ],
      [
        "▁majority",
        -9.733301023912432
      ],
      [
        "▁Chairman",
        -9.735024628092756
      ],
      [
        "▁completed",
        -9.73560038904764
      ],
      [
        "▁announced",
        -9.735837111595586
      ],
      [
        "▁proper",
        -9.736062452412684
      ],
      [
        "ized",
        -9.736451480722021
      ],
      [
        "▁Vibrator",
        -9.737355827169972
      ],
      [
        "▁target",
        -9.737510363864095
      ],
      [
        "▁gold",
        -9.738263623752506
      ],
      [
        "▁attack",
        -9.738960593232523
      ],
      [
        "▁length",
        -9.73923911728485
      ],
      [
        "▁connected",
        -9.740722006452044
      ],
      [
        "▁email",
        -9.74119417123615
      ],
      [
        "▁cam",
        -9.741287858061066
      ],
      [
        "▁named",
        -9.742417359329794
      ],
      [
        "▁Earth",
        -9.742636232395283
      ],
      [
        "▁Petersburg",
        -9.743047347652997
      ],
      [
        "▁operate",
        -9.744631226121028
      ],
      [
        "▁applied",
        -9.748379354585762
      ],
      [
        "We",
        -9.748672680348625
      ],
      [
        "▁morning",
        -9.749518008230966
      ],
      [
        "J",
        -9.750263607034302
      ],
      [
        "▁criminal",
        -9.750284213899388
      ],
      [
        "▁shown",
        -9.750493298997332
      ],
      [
        "▁connect",
        -9.750977934109265
      ],
      [
        "▁balance",
        -9.751269622141468
      ],
      [
        "▁led",
        -9.751479680643856
      ],
      [
        "▁pass",
        -9.751694930268473
      ],
      [
        "▁square",
        -9.752705972120332
      ],
      [
        "▁automatically",
        -9.752879613437308
      ],
      [
        "▁AM",
        -9.754419793402658
      ],
      [
        "▁obtain",
        -9.754484254991635
      ],
      [
        "▁anyone",
        -9.755196016974201
      ],
      [
        "▁Health",
        -9.756675538724654
      ],
      [
        "▁representative",
        -9.756750258325054
      ],
      [
        "▁markets",
        -9.757027767907719
      ],
      [
        "▁regular",
        -9.757062715082219
      ],
      [
        "▁late",
        -9.758128702680816
      ],
      [
        "▁repair",
        -9.758540838178337
      ],
      [
        "▁trust",
        -9.758725919617449
      ],
      [
        "▁benefits",
        -9.759263046138395
      ],
      [
        "▁symbol",
        -9.759461369928419
      ],
      [
        "per",
        -9.759578219497813
      ],
      [
        "▁Holy",
        -9.759750755438015
      ],
      [
        "▁seconds",
        -9.75988284398028
      ],
      [
        "▁huge",
        -9.76120042394155
      ],
      [
        "▁News",
        -9.761363587664619
      ],
      [
        "▁powerful",
        -9.761576895191443
      ],
      [
        "▁evidence",
        -9.76169859750594
      ],
      [
        "▁internet",
        -9.76182495187383
      ],
      [
        "▁USA",
        -9.763976283281249
      ],
      [
        "▁contribution",
        -9.764474205208378
      ],
      [
        "▁Member",
        -9.764502708225791
      ],
      [
        "▁supported",
        -9.765146896635
      ],
      [
        "▁objects",
        -9.765541692785076
      ],
      [
        "▁artist",
        -9.765868967157939
      ],
      [
        "▁benefit",
        -9.766148217055543
      ],
      [
        "▁seven",
        -9.766208757373008
      ],
      [
        "quality",
        -9.76642726567134
      ],
      [
        "▁Western",
        -9.767162848586151
      ],
      [
        "registry",
        -9.76753446795315
      ],
      [
        "▁meetings",
        -9.76805462083175
      ],
      [
        "▁playing",
        -9.768560908992617
      ],
      [
        "▁sign",
        -9.769658125604952
      ],
      [
        "▁concerning",
        -9.769777716607665
      ],
      [
        "▁distance",
        -9.76978688167349
      ],
      [
        "▁strength",
        -9.77107936459729
      ],
      [
        "planned",
        -9.771180349136676
      ],
      [
        "▁forecast",
        -9.772081781420948
      ],
      [
        "▁messages",
        -9.773582177403584
      ],
      [
        "▁teaching",
        -9.77467388257782
      ],
      [
        "▁news",
        -9.774763711333199
      ],
      [
        "▁deposit",
        -9.775285262695446
      ],
      [
        "▁sources",
        -9.77557900990625
      ],
      [
        "▁Network",
        -9.775803158133206
      ],
      [
        "▁historical",
        -9.777679785614332
      ],
      [
        "▁happy",
        -9.778949847360295
      ],
      [
        "▁ten",
        -9.779496184775617
      ],
      [
        "▁strategic",
        -9.78007126561022
      ],
      [
        "▁ideal",
        -9.781562138090763
      ],
      [
        "▁efficient",
        -9.781850098613566
      ],
      [
        "▁listen",
        -9.782788071360113
      ],
      [
        "▁dedicated",
        -9.783075356783787
      ],
      [
        "ance",
        -9.783395687265232
      ],
      [
        "▁forest",
        -9.78493950040338
      ],
      [
        "▁guide",
        -9.78511511018146
      ],
      [
        "▁dead",
        -9.785148389847418
      ],
      [
        "▁Also",
        -9.78571498928914
      ],
      [
        "▁Aliyeva",
        -9.786288893212095
      ],
      [
        "▁extend",
        -9.787114082474393
      ],
      [
        "▁record",
        -9.787155537219162
      ],
      [
        "▁fast",
        -9.78769504452421
      ],
      [
        "▁although",
        -9.788389600307974
      ],
      [
        "▁provisions",
        -9.789137413757011
      ],
      [
        "▁Sex",
        -9.789192601906311
      ],
      [
        "▁remove",
        -9.789340839458427
      ],
      [
        "▁season",
        -9.789866675588891
      ],
      [
        "▁context",
        -9.789898680174856
      ],
      [
        "▁Meeting",
        -9.790993745520975
      ],
      [
        "▁factors",
        -9.791081303084182
      ],
      [
        "▁setting",
        -9.791639448328667
      ],
      [
        "▁agreed",
        -9.792324979743762
      ],
      [
        "▁sometime",
        -9.792458890297027
      ],
      [
        "▁promotion",
        -9.79258266950638
      ],
      [
        "ver",
        -9.793124474777006
      ],
      [
        "▁edit",
        -9.793663174313362
      ],
      [
        "▁factory",
        -9.793670258682644
      ],
      [
        "▁Any",
        -9.79425413033439
      ],
      [
        "▁red",
        -9.794726671713798
      ],
      [
        "▁authority",
        -9.794952657064583
      ],
      [
        "▁Only",
        -9.794985685036272
      ],
      [
        "line",
        -9.795086412346745
      ],
      [
        "▁growing",
        -9.795371370324494
      ],
      [
        "▁exist",
        -9.795693812672067
      ],
      [
        "▁import",
        -9.795792781426588
      ],
      [
        "▁negative",
        -9.795854629442342
      ],
      [
        "▁White",
        -9.797090371996429
      ],
      [
        "▁voice",
        -9.797373284104399
      ],
      [
        "▁toward",
        -9.801008846177336
      ],
      [
        "▁alternative",
        -9.801529956310763
      ],
      [
        "▁Allah",
        -9.80248396462161
      ],
      [
        "▁purchase",
        -9.802591819575746
      ],
      [
        "▁Such",
        -9.80277431213331
      ],
      [
        "▁Education",
        -9.803517751806993
      ],
      [
        "ter",
        -9.803556925327845
      ],
      [
        "▁link",
        -9.803839105054482
      ],
      [
        "▁remote",
        -9.804245878102337
      ],
      [
        "workers",
        -9.804315796920779
      ],
      [
        "▁Forum",
        -9.804328970097904
      ],
      [
        "ill",
        -9.804808504643178
      ],
      [
        "▁assessment",
        -9.806401938064058
      ],
      [
        "▁proposed",
        -9.806422244140318
      ],
      [
        "▁rating",
        -9.807215168202509
      ],
      [
        "▁trip",
        -9.809180892210332
      ],
      [
        "▁instead",
        -9.809277187924165
      ],
      [
        "▁author",
        -9.809541139077538
      ],
      [
        "▁strengthen",
        -9.809856180390437
      ],
      [
        "▁beauty",
        -9.810333912868707
      ],
      [
        "Fi",
        -9.810896577634695
      ],
      [
        "▁establishment",
        -9.812080065377408
      ],
      [
        "▁India",
        -9.813113075621104
      ],
      [
        "▁enterprise",
        -9.81355720616203
      ],
      [
        "▁Jerusalem",
        -9.813732269294707
      ],
      [
        "▁requires",
        -9.815206337348164
      ],
      [
        "▁soul",
        -9.816661678767167
      ],
      [
        "▁door",
        -9.818076243231559
      ],
      [
        "ent",
        -9.818095709543
      ],
      [
        "▁item",
        -9.82020002111252
      ],
      [
        "▁weapons",
        -9.820671090715283
      ],
      [
        "▁relationship",
        -9.821489980019686
      ],
      [
        "▁banks",
        -9.82164694801351
      ],
      [
        "▁parents",
        -9.821776160663877
      ],
      [
        "▁bed",
        -9.822452997737852
      ],
      [
        "▁Finally",
        -9.822721026610939
      ],
      [
        "iolence",
        -9.822757183810815
      ],
      [
        "▁schools",
        -9.822783381064848
      ],
      [
        "▁individuals",
        -9.823277596023045
      ],
      [
        "▁gives",
        -9.823535060581376
      ],
      [
        "▁acts",
        -9.826559589805946
      ],
      [
        "▁guarantee",
        -9.826656560673774
      ],
      [
        "▁visitors",
        -9.82694452087396
      ],
      [
        "▁apartments",
        -9.827143248850769
      ],
      [
        "▁fine",
        -9.828077815773101
      ],
      [
        "▁temperature",
        -9.828129086021773
      ],
      [
        "▁Policy",
        -9.828282141775492
      ],
      [
        "▁cross",
        -9.828335394742401
      ],
      [
        "▁implemented",
        -9.83002043366046
      ],
      [
        "X",
        -9.830687735480847
      ],
      [
        "▁tour",
        -9.831026232994738
      ],
      [
        "▁recommendations",
        -9.831619720841237
      ],
      [
        "▁seems",
        -9.833112728377705
      ],
      [
        "▁procedures",
        -9.833180116383993
      ],
      [
        "▁visa",
        -9.833752692999914
      ],
      [
        "▁stress",
        -9.834073034402945
      ],
      [
        "▁combination",
        -9.834665386853679
      ],
      [
        "▁drink",
        -9.834667949081634
      ],
      [
        "▁certificate",
        -9.835823456212355
      ],
      [
        "▁Two",
        -9.836336914731055
      ],
      [
        "▁assets",
        -9.837248104991886
      ],
      [
        "▁default",
        -9.837264376417984
      ],
      [
        "▁principle",
        -9.837836157170836
      ],
      [
        "▁concerned",
        -9.838928665441987
      ],
      [
        "released",
        -9.839859037872365
      ],
      [
        "▁Professor",
        -9.841216922030366
      ],
      [
        "▁Number",
        -9.841594412624286
      ],
      [
        "▁agent",
        -9.841626865123985
      ],
      [
        "▁hot",
        -9.844008335140911
      ],
      [
        "▁purposes",
        -9.844593246666935
      ],
      [
        "▁Deputy",
        -9.844795187709492
      ],
      [
        "▁UNESCO",
        -9.845163554497088
      ],
      [
        "▁Best",
        -9.845468093870238
      ],
      [
        "▁agree",
        -9.846040177176835
      ],
      [
        "▁PVC",
        -9.847238439463561
      ],
      [
        "▁knew",
        -9.84743757823529
      ],
      [
        "▁story",
        -9.84814854576703
      ],
      [
        "▁Japanese",
        -9.848437984070985
      ],
      [
        "▁consideration",
        -9.849272273768115
      ],
      [
        "▁York",
        -9.849960141187864
      ],
      [
        "▁Riga",
        -9.850832707765287
      ],
      [
        "▁poor",
        -9.851404501378461
      ],
      [
        "▁flow",
        -9.85189615576737
      ],
      [
        "▁sphere",
        -9.852454331958322
      ],
      [
        "▁Download",
        -9.853078320961094
      ],
      [
        "▁digital",
        -9.853685650021108
      ],
      [
        "▁ancient",
        -9.85478079184751
      ],
      [
        "▁Google",
        -9.854784170531794
      ],
      [
        "▁corporate",
        -9.855122746271418
      ],
      [
        "ice",
        -9.855299237254865
      ],
      [
        "▁copy",
        -9.855394300223915
      ],
      [
        "▁Light",
        -9.855758500575163
      ],
      [
        "▁Parliament",
        -9.85577226725024
      ],
      [
        "▁Media",
        -9.856479662250228
      ],
      [
        "▁studies",
        -9.856823483291443
      ],
      [
        "▁Support",
        -9.857053791050694
      ],
      [
        "▁worth",
        -9.857616251917547
      ],
      [
        "▁formation",
        -9.857640504447742
      ],
      [
        "▁tasks",
        -9.858842935108866
      ],
      [
        "▁images",
        -9.85943755189356
      ],
      [
        "▁plants",
        -9.859524882092439
      ],
      [
        "▁hour",
        -9.860124705602658
      ],
      [
        "▁Master",
        -9.860490014704194
      ],
      [
        "▁reveal",
        -9.860540244054903
      ],
      [
        "▁heat",
        -9.860883714661009
      ],
      [
        "▁insurance",
        -9.860889946357622
      ],
      [
        "▁Time",
        -9.861678999340382
      ],
      [
        "▁manager",
        -9.861798527287563
      ],
      [
        "▁massage",
        -9.862213764326558
      ],
      [
        "▁Wi",
        -9.862596027592026
      ],
      [
        "▁attract",
        -9.863007936496112
      ],
      [
        "▁advanced",
        -9.863378682270273
      ],
      [
        "▁Prime",
        -9.865652868290717
      ],
      [
        "▁Women",
        -9.865969549505918
      ],
      [
        "▁La",
        -9.866093665753226
      ],
      [
        "▁camera",
        -9.866363248870545
      ],
      [
        "▁visited",
        -9.866367071709632
      ],
      [
        "▁primary",
        -9.868653210757259
      ],
      [
        "▁II",
        -9.868887384853757
      ],
      [
        "▁born",
        -9.868958838803984
      ],
      [
        "▁Italy",
        -9.869273847927827
      ],
      [
        "▁webcam",
        -9.869441624575945
      ],
      [
        "▁administrative",
        -9.869515611024983
      ],
      [
        "▁recently",
        -9.8696736439899
      ],
      [
        "▁Tool",
        -9.87229638691802
      ],
      [
        "▁engine",
        -9.872374559994169
      ],
      [
        "▁delegation",
        -9.872558124368272
      ],
      [
        "▁Main",
        -9.87264546608551
      ],
      [
        "▁suitable",
        -9.873040773591299
      ],
      [
        "▁Un",
        -9.874111755313653
      ],
      [
        "▁clearly",
        -9.874749427881472
      ],
      [
        "▁expand",
        -9.875384589278699
      ],
      [
        "▁Click",
        -9.877104885529725
      ],
      [
        "▁parking",
        -9.877199456590791
      ],
      [
        "▁electoral",
        -9.877662307778854
      ],
      [
        "▁Bar",
        -9.877719997544833
      ],
      [
        "▁preparation",
        -9.877912026394547
      ],
      [
        "▁Wind",
        -9.878324979017487
      ],
      [
        "▁student",
        -9.880743106483576
      ],
      [
        "▁Turkey",
        -9.88146536324832
      ],
      [
        "▁clean",
        -9.881488596413314
      ],
      [
        "ling",
        -9.881772491540971
      ],
      [
        "▁starting",
        -9.881896563429573
      ],
      [
        "▁specialists",
        -9.883127311224694
      ],
      [
        "▁identify",
        -9.883158409943135
      ],
      [
        "▁Red",
        -9.883204711147677
      ],
      [
        "▁Although",
        -9.88327573623724
      ],
      [
        "▁approved",
        -9.883476435528431
      ],
      [
        "▁families",
        -9.883837214323302
      ],
      [
        "▁normal",
        -9.884699809131414
      ],
      [
        "▁offering",
        -9.884909637909542
      ],
      [
        "▁officer",
        -9.885287000358508
      ],
      [
        "▁selection",
        -9.885519828576486
      ],
      [
        "▁Him",
        -9.886161122764225
      ],
      [
        "▁integration",
        -9.887423999464012
      ],
      [
        "▁permission",
        -9.889313468447522
      ],
      [
        "▁innovation",
        -9.889733952433065
      ],
      [
        "▁welcome",
        -9.890424828577036
      ],
      [
        "aid",
        -9.8923617013869
      ],
      [
        "▁Products",
        -9.893279448450736
      ],
      [
        "▁Christian",
        -9.893430751374142
      ],
      [
        "▁fruit",
        -9.893610834959809
      ],
      [
        "▁description",
        -9.893879187097122
      ],
      [
        "▁personnel",
        -9.89469503608125
      ],
      [
        "▁circumstance",
        -9.894866760426838
      ],
      [
        "▁museum",
        -9.894961905525022
      ],
      [
        "▁comprehensive",
        -9.897129861519096
      ],
      [
        "me",
        -9.898048441301187
      ],
      [
        "▁friend",
        -9.898504020751895
      ],
      [
        "▁suggest",
        -9.898882021566994
      ],
      [
        "ial",
        -9.899001369413346
      ],
      [
        "▁Tag",
        -9.89922429102636
      ],
      [
        "▁Japan",
        -9.899595825170326
      ],
      [
        "▁Every",
        -9.900940720456088
      ],
      [
        "▁competitive",
        -9.901021411516378
      ],
      [
        "▁zone",
        -9.901179036573224
      ],
      [
        "party",
        -9.901292488386286
      ],
      [
        "▁picture",
        -9.901403769278053
      ],
      [
        "▁probably",
        -9.901767597370704
      ],
      [
        "▁Man",
        -9.902076646994605
      ],
      [
        "▁goals",
        -9.902144546472242
      ],
      [
        "▁board",
        -9.903284868665803
      ],
      [
        "▁grow",
        -9.904114365562805
      ],
      [
        "▁configuration",
        -9.904332534520066
      ],
      [
        "▁recommended",
        -9.906694698861699
      ],
      [
        "▁Son",
        -9.907427229807206
      ],
      [
        "▁spread",
        -9.907575644311883
      ],
      [
        "▁menu",
        -9.908134825532924
      ],
      [
        "▁electric",
        -9.909524888603757
      ],
      [
        "▁Online",
        -9.911599314250422
      ],
      [
        "▁Kazakh",
        -9.911603820396916
      ],
      [
        "▁officials",
        -9.911894358657216
      ],
      [
        "▁Data",
        -9.91204732921137
      ],
      [
        "▁regime",
        -9.912514525767714
      ],
      [
        "sustainable",
        -9.913303131526886
      ],
      [
        "way",
        -9.91385614334568
      ],
      [
        "▁Alexander",
        -9.91402084510006
      ],
      [
        "der",
        -9.91406470387905
      ],
      [
        "▁specify",
        -9.914397047371988
      ],
      [
        "▁computers",
        -9.914675403833996
      ],
      [
        "▁Project",
        -9.915413878151911
      ],
      [
        "▁Force",
        -9.91543752636948
      ],
      [
        "▁rich",
        -9.915609095600793
      ],
      [
        "▁beyon",
        -9.916073547701098
      ],
      [
        "▁placed",
        -9.916408815920855
      ],
      [
        "▁Research",
        -9.91671213017603
      ],
      [
        "▁passed",
        -9.916764386323008
      ],
      [
        "free",
        -9.916839360024884
      ],
      [
        "▁multiple",
        -9.91753195195159
      ],
      [
        "▁Working",
        -9.918586337160347
      ],
      [
        "▁metal",
        -9.918657828955768
      ],
      [
        "▁enem",
        -9.918939665832792
      ],
      [
        "▁Academy",
        -9.920216237565887
      ],
      [
        "▁drug",
        -9.920920128678265
      ],
      [
        "▁David",
        -9.923237513248262
      ],
      [
        "▁character",
        -9.923813312881938
      ],
      [
        "▁manage",
        -9.924401883600908
      ],
      [
        "▁touch",
        -9.924482492884483
      ],
      [
        "▁slow",
        -9.924510576903772
      ],
      [
        "▁HIV",
        -9.925234554374505
      ],
      [
        "▁worked",
        -9.925241677572926
      ],
      [
        "▁School",
        -9.9263136549823
      ],
      [
        "▁tourism",
        -9.927310444784464
      ],
      [
        "▁green",
        -9.927582699468747
      ],
      [
        "▁programmes",
        -9.928718470404062
      ],
      [
        "▁Science",
        -9.930724273235935
      ],
      [
        "▁furniture",
        -9.931979565857983
      ],
      [
        "▁Car",
        -9.932251621039782
      ],
      [
        "▁reflect",
        -9.93236657825197
      ],
      [
        "▁fields",
        -9.932595245222556
      ],
      [
        "▁foundation",
        -9.932898666545292
      ],
      [
        "▁border",
        -9.933220863254816
      ],
      [
        "In",
        -9.93419585911831
      ],
      [
        "▁bit",
        -9.93615624361263
      ],
      [
        "▁Parties",
        -9.936500879402224
      ],
      [
        "▁detailed",
        -9.936516456743949
      ],
      [
        "▁wait",
        -9.936761112665046
      ],
      [
        "▁comfortable",
        -9.937017448938287
      ],
      [
        "▁estate",
        -9.937324679169194
      ],
      [
        "▁seek",
        -9.93948639575967
      ],
      [
        "▁initial",
        -9.939998969194853
      ],
      [
        "▁commitment",
        -9.940210533009807
      ],
      [
        "▁www",
        -9.940590238314002
      ],
      [
        "▁becomes",
        -9.940669726612551
      ],
      [
        "▁platform",
        -9.940782080482364
      ],
      [
        "▁meaning",
        -9.940935516568183
      ],
      [
        "▁Protection",
        -9.9418161181945
      ],
      [
        "▁Paul",
        -9.942738579451985
      ],
      [
        "hose",
        -9.9433595016744
      ],
      [
        "▁park",
        -9.943430737139971
      ],
      [
        "her",
        -9.94355551361598
      ],
      [
        "▁garden",
        -9.945173378324435
      ],
      [
        "▁View",
        -9.946153218202745
      ],
      [
        "▁describe",
        -9.946163533492452
      ],
      [
        "▁Over",
        -9.946935519585809
      ],
      [
        "▁Mehriban",
        -9.947439284270345
      ],
      [
        "▁Energy",
        -9.947794044775334
      ],
      [
        "▁Children",
        -9.947979502980779
      ],
      [
        "▁Federal",
        -9.948375112941045
      ],
      [
        "▁traffic",
        -9.948666301927037
      ],
      [
        "▁factor",
        -9.948777839821368
      ],
      [
        "vailability",
        -9.949535947965039
      ],
      [
        "▁output",
        -9.950826629248445
      ],
      [
        "▁About",
        -9.950895829575954
      ],
      [
        "▁train",
        -9.951968516918615
      ],
      [
        "▁configure",
        -9.952461224419071
      ],
      [
        "▁Next",
        -9.952926916822026
      ],
      [
        "▁decide",
        -9.953703499387023
      ],
      [
        "▁youth",
        -9.953720829766958
      ],
      [
        "▁advantage",
        -9.953781372214928
      ],
      [
        "▁speech",
        -9.954108494041082
      ],
      [
        "▁utilize",
        -9.954183065419183
      ],
      [
        "▁assist",
        -9.95421162360372
      ],
      [
        "▁reliable",
        -9.954676574403436
      ],
      [
        "▁names",
        -9.955751892064509
      ],
      [
        "▁host",
        -9.956177564671039
      ],
      [
        "▁determined",
        -9.957498531353934
      ],
      [
        "▁provision",
        -9.957579665788774
      ],
      [
        "side",
        -9.957990278118771
      ],
      [
        "▁respective",
        -9.958756025156308
      ],
      [
        "▁feet",
        -9.959629130191994
      ],
      [
        "▁Vacation",
        -9.959850374737227
      ],
      [
        "▁provider",
        -9.960231171143706
      ],
      [
        "▁accommodation",
        -9.960457559125986
      ],
      [
        "▁Trade",
        -9.960720123426132
      ],
      [
        "▁director",
        -9.961884409020243
      ],
      [
        "▁category",
        -9.962042626471058
      ],
      [
        "▁Jewish",
        -9.962339007655219
      ],
      [
        "▁radio",
        -9.962404611768187
      ],
      [
        "nsuring",
        -9.963363212283706
      ],
      [
        "▁models",
        -9.963853244935203
      ],
      [
        "▁Size",
        -9.963877217993428
      ],
      [
        "▁manner",
        -9.964106214133926
      ],
      [
        "org",
        -9.96480295744196
      ],
      [
        "▁terrace",
        -9.964948583147029
      ],
      [
        "▁letter",
        -9.965412451718649
      ],
      [
        "▁evil",
        -9.965835881623413
      ],
      [
        "▁shower",
        -9.966091597894467
      ],
      [
        "▁universe",
        -9.96756384590466
      ],
      [
        "▁earlie",
        -9.967681656460842
      ],
      [
        "▁Agreement",
        -9.96774418420715
      ],
      [
        "▁Poker",
        -9.968243085115953
      ],
      [
        "▁folder",
        -9.968246468144773
      ],
      [
        "▁consumption",
        -9.968666877319942
      ],
      [
        "▁thank",
        -9.969519794434317
      ],
      [
        "▁climate",
        -9.96960014583249
      ],
      [
        "▁Water",
        -9.969711279547651
      ],
      [
        "▁photos",
        -9.970134423968611
      ],
      [
        "▁adult",
        -9.970436775730207
      ],
      [
        "Smoking",
        -9.971507996347887
      ],
      [
        "▁write",
        -9.971665008112714
      ],
      [
        "▁anniversar",
        -9.971805985684083
      ],
      [
        "▁Camel",
        -9.972527003936808
      ],
      [
        "▁thinking",
        -9.974801669210644
      ],
      [
        "▁expect",
        -9.976947494938278
      ],
      [
        "▁employment",
        -9.97731299629285
      ],
      [
        "▁Asian",
        -9.977994229570148
      ],
      [
        "▁cm",
        -9.978664001669395
      ],
      [
        "▁Armenian",
        -9.978698336473663
      ],
      [
        "▁books",
        -9.97949727869974
      ],
      [
        "▁seat",
        -9.98013838028297
      ],
      [
        "▁port",
        -9.982427405563094
      ],
      [
        "▁title",
        -9.982838017232645
      ],
      [
        "▁Paris",
        -9.984324359480993
      ],
      [
        "▁numerous",
        -9.98474912812185
      ],
      [
        "▁religion",
        -9.985467595984561
      ],
      [
        "▁dark",
        -9.985469647195924
      ],
      [
        "▁existence",
        -9.985485099358417
      ],
      [
        "▁fresh",
        -9.986426028404862
      ],
      [
        "▁milf",
        -9.98670816496388
      ],
      [
        "▁Account",
        -9.987077910631228
      ],
      [
        "▁resource",
        -9.987483220097724
      ],
      [
        "▁Technical",
        -9.98815377713623
      ],
      [
        "▁Good",
        -9.988323588349694
      ],
      [
        "▁extra",
        -9.988850208074895
      ],
      [
        "▁Select",
        -9.989444908434118
      ],
      [
        "▁Italian",
        -9.989638517167707
      ],
      [
        "▁cent",
        -9.98993635692649
      ],
      [
        "▁impossibl",
        -9.990893552741502
      ],
      [
        "▁breakfast",
        -9.991261312924298
      ],
      [
        "▁London",
        -9.991511755536107
      ],
      [
        "▁stability",
        -9.991594870448797
      ],
      [
        "▁notice",
        -9.99332682438691
      ],
      [
        "▁concert",
        -9.993438878706112
      ],
      [
        "▁cycle",
        -9.993628526751966
      ],
      [
        "▁reduction",
        -9.994002065626036
      ],
      [
        "▁aim",
        -9.9942616920751
      ],
      [
        "ten",
        -9.995723495850804
      ],
      [
        "▁integrated",
        -9.996196204713733
      ],
      [
        "▁Jew",
        -9.998091273754692
      ],
      [
        "▁recovery",
        -9.999315306429638
      ],
      [
        "▁win",
        -9.999905616465362
      ],
      [
        "▁desire",
        -9.999972336260852
      ],
      [
        "▁committed",
        -10.000303402021027
      ],
      [
        "ev",
        -10.000887212762667
      ],
      [
        "▁innovative",
        -10.001192295799232
      ],
      [
        "▁Book",
        -10.001842756217483
      ],
      [
        "▁holding",
        -10.002211253289232
      ],
      [
        "▁except",
        -10.002414282587223
      ],
      [
        "▁interview",
        -10.002557958393137
      ],
      [
        "▁Android",
        -10.0032199284183
      ],
      [
        "▁seminar",
        -10.003284766259174
      ],
      [
        "▁effort",
        -10.00382985985923
      ],
      [
        "▁felt",
        -10.00425218485745
      ],
      [
        "▁pain",
        -10.004602165368206
      ],
      [
        "▁British",
        -10.00483093259165
      ],
      [
        "▁signal",
        -10.005179330946174
      ],
      [
        "▁resistance",
        -10.005552569594332
      ],
      [
        "▁tons",
        -10.005553483373141
      ],
      [
        "▁Create",
        -10.005999263471558
      ],
      [
        "▁permanent",
        -10.006793736833062
      ],
      [
        "▁toys",
        -10.009121289366316
      ],
      [
        "▁sun",
        -10.00924277455627
      ],
      [
        "▁exclusive",
        -10.00924543613062
      ],
      [
        "▁sub",
        -10.010034224673197
      ],
      [
        "▁agricultural",
        -10.010262784977861
      ],
      [
        "▁Friday",
        -10.010477775780041
      ],
      [
        "▁writing",
        -10.010641538849619
      ],
      [
        "▁opens",
        -10.01314164436129
      ],
      [
        "▁nation",
        -10.013573408278846
      ],
      [
        "▁Material",
        -10.01386179002327
      ],
      [
        "▁Programme",
        -10.016026748384645
      ],
      [
        "▁heating",
        -10.016106388728442
      ],
      [
        "selves",
        -10.016205172637173
      ],
      [
        "▁entry",
        -10.017090488535546
      ],
      [
        "▁Once",
        -10.018039825221265
      ],
      [
        "▁advance",
        -10.018618084790596
      ],
      [
        "▁wall",
        -10.018797050620663
      ],
      [
        "▁Design",
        -10.01905486356371
      ],
      [
        "▁cash",
        -10.019573239944817
      ],
      [
        "▁introduced",
        -10.019817876041436
      ],
      [
        "▁drag",
        -10.0207792000503
      ],
      [
        "▁wear",
        -10.020964666717079
      ],
      [
        "▁forum",
        -10.021848739795754
      ],
      [
        "▁achieved",
        -10.023113999673429
      ],
      [
        "▁filter",
        -10.023788518898156
      ],
      [
        "▁Box",
        -10.023967829505283
      ],
      [
        "▁passenger",
        -10.024629588893264
      ],
      [
        "▁enhance",
        -10.024963733064984
      ],
      [
        "▁dialogue",
        -10.025195269830046
      ],
      [
        "▁contribute",
        -10.026186593273415
      ],
      [
        "▁tea",
        -10.026261659245776
      ],
      [
        "▁blonde",
        -10.027449322896372
      ],
      [
        "▁destination",
        -10.02873442828701
      ],
      [
        "▁priority",
        -10.0290373550182
      ],
      [
        "Q",
        -10.029491625071513
      ],
      [
        "▁failure",
        -10.030263507089627
      ],
      [
        "▁die",
        -10.030842411039629
      ],
      [
        "▁evening",
        -10.031216004789572
      ],
      [
        "▁killed",
        -10.031835123780029
      ],
      [
        "▁thanks",
        -10.032566628969247
      ],
      [
        "▁Regional",
        -10.033201963239641
      ],
      [
        "▁significantly",
        -10.033666247986002
      ],
      [
        "▁Poland",
        -10.033717166891703
      ],
      [
        "@",
        -10.033859134036446
      ],
      [
        "▁EUR",
        -10.034149979391039
      ],
      [
        "▁driver",
        -10.034428547121639
      ],
      [
        "▁sufficient",
        -10.034636755686668
      ],
      [
        "▁warm",
        -10.034914431247621
      ],
      [
        "go",
        -10.036461724325497
      ],
      [
        "▁NATO",
        -10.037273819218427
      ],
      [
        "▁monitor",
        -10.037381428689894
      ],
      [
        "▁coffee",
        -10.03803092417487
      ],
      [
        "▁currency",
        -10.038307911414888
      ],
      [
        "▁Under",
        -10.038491772619276
      ],
      [
        "▁street",
        -10.038657601448003
      ],
      [
        "see",
        -10.039051238499491
      ],
      [
        "▁winter",
        -10.039405311367517
      ],
      [
        "▁cut",
        -10.03964138366671
      ],
      [
        "▁Czech",
        -10.040154908734946
      ],
      [
        "▁giving",
        -10.04035041118879
      ],
      [
        "▁languages",
        -10.040516079171224
      ],
      [
        "▁JSC",
        -10.04110091860117
      ],
      [
        "▁explain",
        -10.041695040244548
      ],
      [
        "▁overall",
        -10.042538714409494
      ],
      [
        "▁fundamental",
        -10.0432911743129
      ],
      [
        "▁waste",
        -10.044174267719189
      ],
      [
        "▁kill",
        -10.04487387651849
      ],
      [
        "▁stone",
        -10.0453792098032
      ],
      [
        "▁dynamic",
        -10.045990653749142
      ],
      [
        "▁actual",
        -10.046897613418864
      ],
      [
        "▁Video",
        -10.04720313401482
      ],
      [
        "▁successfully",
        -10.048102505402344
      ],
      [
        "▁glass",
        -10.04835921518061
      ],
      [
        "▁debt",
        -10.048634115435235
      ],
      [
        "▁appeal",
        -10.048653734365988
      ],
      [
        "▁publisher",
        -10.049610982342848
      ],
      [
        "▁Mother",
        -10.049848670069766
      ],
      [
        "▁calls",
        -10.05002716509126
      ],
      [
        "▁cold",
        -10.050535364968784
      ],
      [
        "▁Sciences",
        -10.051265052949185
      ],
      [
        "▁closed",
        -10.051686779359313
      ],
      [
        "▁instance",
        -10.051757079418104
      ],
      [
        "▁dis",
        -10.051855739674
      ],
      [
        "▁cool",
        -10.052710625190295
      ],
      [
        "Another",
        -10.053268591816312
      ],
      [
        "▁Current",
        -10.053343286777132
      ],
      [
        "▁labor",
        -10.05472698588615
      ],
      [
        "▁terrorist",
        -10.056036621160668
      ],
      [
        "▁error",
        -10.056351242422984
      ],
      [
        "▁expert",
        -10.056717909534322
      ],
      [
        "▁club",
        -10.056847991955184
      ],
      [
        "▁minimum",
        -10.057119983581345
      ],
      [
        "▁combat",
        -10.057826095632434
      ],
      [
        "▁fastest",
        -10.058717755283116
      ],
      [
        "▁Agency",
        -10.05890895901773
      ],
      [
        "▁swimming",
        -10.060515822527554
      ],
      [
        "▁dry",
        -10.060933497205733
      ],
      [
        "▁Saint",
        -10.061205616662008
      ],
      [
        "▁quiet",
        -10.061853038387964
      ],
      [
        "▁tried",
        -10.062182837449674
      ],
      [
        "▁Get",
        -10.062891760557939
      ],
      [
        "▁abroad",
        -10.062923301657305
      ],
      [
        "▁Last",
        -10.063749708312306
      ],
      [
        "▁heaven",
        -10.063917812420327
      ],
      [
        "▁machines",
        -10.0639666745419
      ],
      [
        "▁medium",
        -10.064070857408293
      ],
      [
        "▁agenda",
        -10.064783489906914
      ],
      [
        "▁casino",
        -10.066083533288495
      ],
      [
        "▁Iran",
        -10.0664250440793
      ],
      [
        "▁prior",
        -10.066571279270576
      ],
      [
        "▁investors",
        -10.06695520073065
      ],
      [
        "▁Global",
        -10.067748498729793
      ],
      [
        "screen",
        -10.068231862692981
      ],
      [
        "minute",
        -10.068380803681608
      ],
      [
        "▁birth",
        -10.0689463289914
      ],
      [
        "▁concern",
        -10.069257517523141
      ],
      [
        "▁lose",
        -10.069398647750617
      ],
      [
        "▁university",
        -10.069833847588344
      ],
      [
        "▁match",
        -10.070682095613243
      ],
      [
        "▁doubt",
        -10.070689156014096
      ],
      [
        "▁sexual",
        -10.071661928545698
      ],
      [
        "▁fetish",
        -10.071913176866648
      ],
      [
        "▁opposition",
        -10.072442353188173
      ],
      [
        "Browse",
        -10.07335288717005
      ],
      [
        "▁served",
        -10.073532066587877
      ],
      [
        "drop",
        -10.074643882867063
      ],
      [
        "▁El",
        -10.074791232153078
      ],
      [
        "▁muscle",
        -10.07598711186443
      ],
      [
        "▁rise",
        -10.076759776349471
      ],
      [
        "▁creative",
        -10.07677312031589
      ],
      [
        "▁encourage",
        -10.077959688524116
      ],
      [
        "▁wine",
        -10.078037788260998
      ],
      [
        "ha",
        -10.078482980278014
      ],
      [
        "▁poker",
        -10.079315466264132
      ],
      [
        "▁objective",
        -10.079347365485484
      ],
      [
        "▁managed",
        -10.079726797725687
      ],
      [
        "▁sleep",
        -10.080892132822973
      ],
      [
        "▁Street",
        -10.080937991643607
      ],
      [
        "▁meteo",
        -10.081075739426916
      ],
      [
        "▁password",
        -10.081083352927953
      ],
      [
        "▁Up",
        -10.081317622793918
      ],
      [
        "▁Control",
        -10.08219199658363
      ],
      [
        "▁block",
        -10.08247250891832
      ],
      [
        "▁animals",
        -10.082733670496808
      ],
      [
        "▁goes",
        -10.084484854387371
      ],
      [
        "é",
        -10.08630133288204
      ],
      [
        "▁stock",
        -10.086442255696976
      ],
      [
        "▁origin",
        -10.086633449367486
      ],
      [
        "▁learning",
        -10.086868845985704
      ],
      [
        "▁resort",
        -10.087021621491216
      ],
      [
        "▁demonstrate",
        -10.088110338568827
      ],
      [
        "▁belong",
        -10.08865297890372
      ],
      [
        "▁universal",
        -10.08947528687291
      ],
      [
        "▁mom",
        -10.089485828995059
      ],
      [
        "▁girls",
        -10.089962984283362
      ],
      [
        "▁engineering",
        -10.090137466536312
      ],
      [
        "▁practices",
        -10.09114357537996
      ],
      [
        "▁appearance",
        -10.09204175741636
      ],
      [
        "▁Top",
        -10.092375848851471
      ],
      [
        "▁continues",
        -10.09296608876796
      ],
      [
        "▁statements",
        -10.0939765501962
      ],
      [
        "▁Club",
        -10.094199945436701
      ],
      [
        "▁leadership",
        -10.09438267182413
      ],
      [
        "▁agency",
        -10.094581689710079
      ],
      [
        "▁hundred",
        -10.095193626645553
      ],
      [
        "▁suffer",
        -10.09556028788959
      ],
      [
        "▁Executive",
        -10.095585688108896
      ],
      [
        "▁flat",
        -10.095852816066648
      ],
      [
        "▁candidates",
        -10.096058732466616
      ],
      [
        "▁typical",
        -10.09624175695714
      ],
      [
        "▁indicate",
        -10.096365319526717
      ],
      [
        "▁profile",
        -10.096607611459444
      ],
      [
        "▁printing",
        -10.096622941916136
      ],
      [
        "we",
        -10.09679621221513
      ],
      [
        "▁gather",
        -10.097516934902847
      ],
      [
        "▁element",
        -10.098262968499494
      ],
      [
        "▁Sunday",
        -10.098466996836326
      ],
      [
        "▁investments",
        -10.100083944395557
      ],
      [
        "▁Total",
        -10.100649583388268
      ],
      [
        "ja",
        -10.100766790567448
      ],
      [
        "▁Manufacturer",
        -10.100934286287435
      ],
      [
        "▁mutual",
        -10.101373045447827
      ],
      [
        "▁shared",
        -10.101450683526098
      ],
      [
        "▁Uzbekistan",
        -10.101624766356434
      ],
      [
        "▁reference",
        -10.101811686680177
      ],
      [
        "tended",
        -10.102058855422635
      ],
      [
        "▁atmosphere",
        -10.102385790656184
      ],
      [
        "▁Did",
        -10.10268267951577
      ],
      [
        "▁challenges",
        -10.103117398165972
      ],
      [
        "▁daughter",
        -10.103329190157465
      ],
      [
        "▁houses",
        -10.103977384961702
      ],
      [
        "▁Iraq",
        -10.104045715527418
      ],
      [
        "▁Peter",
        -10.10451150688384
      ],
      [
        "▁Hotels",
        -10.104729665121903
      ],
      [
        "ak",
        -10.10478622838709
      ],
      [
        "▁improving",
        -10.105023790222486
      ],
      [
        "▁decrease",
        -10.10571455300794
      ],
      [
        "▁compare",
        -10.10579630973121
      ],
      [
        "▁fun",
        -10.106091010298575
      ],
      [
        "▁presentation",
        -10.106536172369394
      ],
      [
        "▁plastic",
        -10.10655680912596
      ],
      [
        "▁Spain",
        -10.106624572470892
      ],
      [
        "▁spoke",
        -10.107066681463651
      ],
      [
        "▁outdoor",
        -10.107343354309167
      ],
      [
        "▁Heating",
        -10.107667495498365
      ],
      [
        "▁movie",
        -10.107966878105778
      ],
      [
        "▁defined",
        -10.108110144955063
      ],
      [
        "▁otherwise",
        -10.108507984477926
      ],
      [
        "▁manufactur",
        -10.109247957038857
      ],
      [
        "▁Play",
        -10.1095990221233
      ],
      [
        "▁sort",
        -10.109674893533008
      ],
      [
        "▁structures",
        -10.109854771186793
      ],
      [
        "▁hall",
        -10.11223113211979
      ],
      [
        "▁newspaper",
        -10.112595897000846
      ],
      [
        "▁approximately",
        -10.112797470238908
      ],
      [
        "▁Before",
        -10.113316658451344
      ],
      [
        "▁channel",
        -10.113828717783555
      ],
      [
        "trading",
        -10.11484429272669
      ],
      [
        "▁load",
        -10.115376044732768
      ],
      [
        "▁inform",
        -10.115825931847972
      ],
      [
        "▁bus",
        -10.116266572876222
      ],
      [
        "▁Finance",
        -10.116312823524547
      ],
      [
        "▁Take",
        -10.11633814322586
      ],
      [
        "▁delivered",
        -10.116513417272564
      ],
      [
        "▁Egypt",
        -10.116766462195857
      ],
      [
        "yan",
        -10.117699621340796
      ],
      [
        "\n",
        -10.118510596028923
      ],
      [
        "▁trial",
        -10.119794018807191
      ],
      [
        "▁spend",
        -10.120298607233208
      ],
      [
        "▁concrete",
        -10.120582210562828
      ],
      [
        "▁informed",
        -10.120933260152675
      ],
      [
        "▁reduced",
        -10.120935838430935
      ],
      [
        "▁marketing",
        -10.121433998259677
      ],
      [
        "▁Serbian",
        -10.121630297375802
      ],
      [
        "▁ladyboy",
        -10.121670050633433
      ],
      [
        "▁shares",
        -10.123968626522966
      ],
      [
        "▁cards",
        -10.125136145647001
      ],
      [
        "▁casinos",
        -10.126011092576297
      ],
      [
        "▁Iron",
        -10.12648838014827
      ],
      [
        "▁Second",
        -10.126884239625491
      ],
      [
        "▁delete",
        -10.127484516241982
      ],
      [
        "▁moral",
        -10.127657035052636
      ],
      [
        "▁servers",
        -10.128522974677459
      ],
      [
        "▁Private",
        -10.128660275045506
      ],
      [
        "▁dream",
        -10.128842853007356
      ],
      [
        "▁Grand",
        -10.129935340743739
      ],
      [
        "▁vehicle",
        -10.130865287045715
      ],
      [
        "▁bigge",
        -10.131006097144684
      ],
      [
        "▁Festival",
        -10.131182725704585
      ],
      [
        "▁map",
        -10.13122257175109
      ],
      [
        "▁dangerous",
        -10.132504094177188
      ],
      [
        "▁accepted",
        -10.132942073338734
      ],
      [
        "▁interface",
        -10.133289994050989
      ],
      [
        "▁becoming",
        -10.133566460027684
      ],
      [
        "▁Thank",
        -10.13357317513275
      ],
      [
        "▁compliance",
        -10.13462490435064
      ],
      [
        "▁Life",
        -10.135357233398247
      ],
      [
        "▁transportation",
        -10.135606156340833
      ],
      [
        "▁rent",
        -10.135638099835184
      ],
      [
        "rated",
        -10.13610933280546
      ],
      [
        "▁nice",
        -10.136435117552988
      ],
      [
        "▁discount",
        -10.136619889472428
      ],
      [
        "▁obvious",
        -10.13775576002568
      ],
      [
        "▁Files",
        -10.138383696534012
      ],
      [
        "tted",
        -10.139806540644901
      ],
      [
        "▁nations",
        -10.139996238820956
      ],
      [
        "▁teachers",
        -10.140069219232277
      ],
      [
        "▁Convert",
        -10.140740127465563
      ],
      [
        "kin",
        -10.141295064257404
      ],
      [
        "Z",
        -10.141598959482966
      ],
      [
        "▁situate",
        -10.141877689734141
      ],
      [
        "▁Astana",
        -10.14196055847136
      ],
      [
        "▁pictures",
        -10.142252860377297
      ],
      [
        "▁divine",
        -10.142466174952613
      ],
      [
        "▁shape",
        -10.142520170223966
      ],
      [
        "▁dialog",
        -10.14270675794487
      ],
      [
        "▁kept",
        -10.14355219251995
      ],
      [
        "▁hardware",
        -10.144044146338185
      ],
      [
        "▁eye",
        -10.14474643813435
      ],
      [
        "▁lesson",
        -10.144932348260026
      ],
      [
        "▁dollars",
        -10.145614331592009
      ],
      [
        "▁sq",
        -10.14564489722288
      ],
      [
        "▁saving",
        -10.145985464223807
      ],
      [
        "▁loans",
        -10.146805957997746
      ],
      [
        "▁ceremony",
        -10.147570142265131
      ],
      [
        "▁testing",
        -10.148096042115597
      ],
      [
        "▁wood",
        -10.148622666478047
      ],
      [
        "▁flight",
        -10.149173518627126
      ],
      [
        "▁reading",
        -10.150867444926734
      ],
      [
        "▁arrival",
        -10.150968381502683
      ],
      [
        "▁chemical",
        -10.151147917070336
      ],
      [
        "▁consequences",
        -10.15162622601474
      ],
      [
        "▁binary",
        -10.151842149990443
      ],
      [
        "▁consultation",
        -10.152136666713213
      ],
      [
        "▁reporting",
        -10.152643441647848
      ],
      [
        "▁husband",
        -10.153113833285651
      ],
      [
        "electricity",
        -10.15330718217561
      ],
      [
        "▁comfort",
        -10.153379507472081
      ],
      [
        "half",
        -10.153534849453665
      ],
      [
        "▁flowers",
        -10.154080647425177
      ],
      [
        "▁Harry",
        -10.154261613731592
      ],
      [
        "▁Ambassador",
        -10.154377954692903
      ],
      [
        "▁app",
        -10.15458006764928
      ],
      [
        "▁convenient",
        -10.155277093565685
      ],
      [
        "▁moving",
        -10.155302134368542
      ],
      [
        "▁advertising",
        -10.155476506713589
      ],
      [
        "▁UK",
        -10.155724727371473
      ],
      [
        "▁Start",
        -10.156020481940091
      ],
      [
        "▁patients",
        -10.156541909995997
      ],
      [
        "▁Monday",
        -10.15677861601181
      ],
      [
        "▁granted",
        -10.15829660137385
      ],
      [
        "▁obligations",
        -10.1592906337025
      ],
      [
        "▁Client",
        -10.159731938450626
      ],
      [
        "▁candidate",
        -10.159797672520753
      ],
      [
        "▁experienced",
        -10.160658542563297
      ],
      [
        "▁track",
        -10.161627996288873
      ],
      [
        "ful",
        -10.161646252854812
      ],
      [
        "▁instructions",
        -10.16227819769382
      ],
      [
        "▁Old",
        -10.164736829380091
      ],
      [
        "▁prepare",
        -10.164864679234102
      ],
      [
        "▁collect",
        -10.164920708623004
      ],
      [
        "▁truly",
        -10.164950454565805
      ],
      [
        "▁Access",
        -10.1650222897487
      ],
      [
        "ring",
        -10.165578244614784
      ],
      [
        "▁height",
        -10.165660525099758
      ],
      [
        "stantly",
        -10.166080212813005
      ],
      [
        "▁Kingdom",
        -10.166202367962036
      ],
      [
        "▁Program",
        -10.166690016659471
      ],
      [
        "▁forget",
        -10.16685379975145
      ],
      [
        "▁pure",
        -10.16714823281075
      ],
      [
        "▁rubles",
        -10.167418062880868
      ],
      [
        "era",
        -10.167620768938999
      ],
      [
        "▁Quality",
        -10.168002717964322
      ],
      [
        "▁Plan",
        -10.168199342256154
      ],
      [
        "▁wonderful",
        -10.169103488540514
      ],
      [
        "▁Representative",
        -10.169434600964811
      ],
      [
        "▁festival",
        -10.169583436566244
      ],
      [
        "▁rank",
        -10.16961270921865
      ],
      [
        "▁justice",
        -10.17026807876429
      ],
      [
        "▁vision",
        -10.170623466508202
      ],
      [
        "▁appeared",
        -10.170844672092297
      ],
      [
        "▁IT",
        -10.170971798944429
      ],
      [
        "▁wind",
        -10.171029840945643
      ],
      [
        "armed",
        -10.171035904207024
      ],
      [
        "ship",
        -10.171426565390812
      ],
      [
        "▁accounts",
        -10.171613511326811
      ],
      [
        "▁frequent",
        -10.171820257288092
      ],
      [
        "▁television",
        -10.172907759221413
      ],
      [
        "▁kg",
        -10.173170974579
      ],
      [
        "min",
        -10.174222352741706
      ],
      [
        "▁teacher",
        -10.174321604349178
      ],
      [
        "▁Industry",
        -10.174362820592242
      ],
      [
        "spent",
        -10.174484732734935
      ],
      [
        "▁centers",
        -10.175508501173349
      ],
      [
        "▁characteristics",
        -10.176323535737371
      ],
      [
        "enko",
        -10.178782891245044
      ],
      [
        "▁component",
        -10.178816461518966
      ],
      [
        "▁tree",
        -10.180024395509536
      ],
      [
        "all",
        -10.180150273228092
      ],
      [
        "▁associat",
        -10.180443435864385
      ],
      [
        "▁Channel",
        -10.181273767848742
      ],
      [
        "▁Order",
        -10.181830907303192
      ],
      [
        "▁subsequent",
        -10.18208235603494
      ],
      [
        "▁finished",
        -10.182417062783337
      ],
      [
        "▁despite",
        -10.182939501913838
      ],
      [
        "▁critical",
        -10.183068260086621
      ],
      [
        "▁manual",
        -10.183095459076805
      ],
      [
        "▁mental",
        -10.183261990315204
      ],
      [
        "▁finance",
        -10.183595612901764
      ],
      [
        "▁Travel",
        -10.183898636937258
      ],
      [
        "▁extensive",
        -10.184059509619395
      ],
      [
        "▁union",
        -10.184166866944306
      ],
      [
        "▁Description",
        -10.184725939844581
      ],
      [
        "▁raise",
        -10.184972945138728
      ],
      [
        "▁Congress",
        -10.185159634624695
      ],
      [
        "▁Date",
        -10.186235532604263
      ],
      [
        "▁decline",
        -10.186938832165907
      ],
      [
        "▁Look",
        -10.187539678344367
      ],
      [
        "▁extent",
        -10.188248329633605
      ],
      [
        "▁neither",
        -10.188949349617282
      ],
      [
        "▁King",
        -10.190737012767652
      ],
      [
        "▁Kyiv",
        -10.191040222879366
      ],
      [
        "▁Eastern",
        -10.19219583692162
      ],
      [
        "old",
        -10.192330400534857
      ],
      [
        "▁strengthening",
        -10.19242121972444
      ],
      [
        "▁Read",
        -10.193189912814342
      ],
      [
        "ler",
        -10.193509193630899
      ],
      [
        "▁USB",
        -10.193563348161195
      ],
      [
        "▁speaking",
        -10.19377023185314
      ],
      [
        "▁supplier",
        -10.194377420418732
      ],
      [
        "▁Keyword",
        -10.19445404117625
      ],
      [
        "▁Non",
        -10.194547953447556
      ],
      [
        "▁Tajikistan",
        -10.194893881768587
      ],
      [
        "▁Type",
        -10.195287511756286
      ],
      [
        "▁handle",
        -10.195688714002499
      ],
      [
        "▁Tatarstan",
        -10.196009521345642
      ],
      [
        "▁satellite",
        -10.196209709396197
      ],
      [
        "▁slight",
        -10.197797153682547
      ],
      [
        "▁follows",
        -10.198778949651478
      ],
      [
        "▁stable",
        -10.199421628010237
      ],
      [
        "▁Exhibition",
        -10.199575850689314
      ],
      [
        "▁instruments",
        -10.19978189061151
      ],
      [
        "▁permit",
        -10.200364953157369
      ],
      [
        "▁Their",
        -10.200602468194441
      ],
      [
        "haps",
        -10.20069123388705
      ],
      [
        "▁gain",
        -10.200779009890548
      ],
      [
        "body",
        -10.201187354902785
      ],
      [
        "▁ski",
        -10.201249772316514
      ],
      [
        "▁channels",
        -10.201492463104946
      ],
      [
        "▁Action",
        -10.201907410959736
      ],
      [
        "▁attacks",
        -10.202116705656413
      ],
      [
        "more",
        -10.202416016055858
      ],
      [
        "▁gettin",
        -10.203440688373696
      ],
      [
        "▁phase",
        -10.203877884879256
      ],
      [
        "▁count",
        -10.204740982130232
      ],
      [
        "▁acquire",
        -10.204945361231484
      ],
      [
        "▁fat",
        -10.204974784571714
      ],
      [
        "▁Come",
        -10.205047136608307
      ],
      [
        "▁advice",
        -10.205171409036685
      ],
      [
        "▁protected",
        -10.20550089387436
      ],
      [
        "▁fulfill",
        -10.205858971801366
      ],
      [
        "▁scale",
        -10.207250417921369
      ],
      [
        "▁owner",
        -10.207673550682864
      ],
      [
        "▁attitude",
        -10.208096041971341
      ],
      [
        "▁Drag",
        -10.20843384713999
      ],
      [
        "▁exceed",
        -10.208920913592031
      ],
      [
        "▁River",
        -10.209245492719532
      ],
      [
        "▁offices",
        -10.210386605400364
      ],
      [
        "▁entitled",
        -10.210722677462023
      ],
      [
        "▁bag",
        -10.210891105128226
      ],
      [
        "▁continuous",
        -10.210947970588544
      ],
      [
        "▁pump",
        -10.211266602534579
      ],
      [
        "▁Me",
        -10.21207161603777
      ],
      [
        "▁African",
        -10.212634573584067
      ],
      [
        "▁heavy",
        -10.212858330622058
      ],
      [
        "our",
        -10.213902680766514
      ],
      [
        "▁communities",
        -10.213972068761795
      ],
      [
        "▁chosen",
        -10.214692110667379
      ],
      [
        "▁defense",
        -10.214782438107509
      ],
      [
        "▁print",
        -10.214803770305561
      ],
      [
        "▁wrote",
        -10.215329925909575
      ],
      [
        "▁Domain",
        -10.215585464584592
      ],
      [
        "▁arrest",
        -10.215796797896497
      ],
      [
        "▁housing",
        -10.216920161505136
      ],
      [
        "▁submit",
        -10.217121014232644
      ],
      [
        "▁Arctic",
        -10.217489384676282
      ],
      [
        "▁worldwide",
        -10.217504968105425
      ],
      [
        "▁Real",
        -10.218016571889176
      ],
      [
        "▁Spanish",
        -10.218454247070667
      ],
      [
        "▁sentence",
        -10.219641293519652
      ],
      [
        "▁entities",
        -10.220135749362822
      ],
      [
        "▁sell",
        -10.220519165308573
      ],
      [
        "▁User",
        -10.220625474498853
      ],
      [
        "▁Table",
        -10.220630117775436
      ],
      [
        "▁contest",
        -10.221002184537728
      ],
      [
        "▁expression",
        -10.22103329302582
      ],
      [
        "died",
        -10.221070150458544
      ],
      [
        "▁depends",
        -10.221158486676686
      ],
      [
        "▁animal",
        -10.221462448507317
      ],
      [
        "▁humanitarian",
        -10.221593259186513
      ],
      [
        "▁mainly",
        -10.22178352820715
      ],
      [
        "▁settlement",
        -10.22189191382173
      ],
      [
        "▁Standard",
        -10.222722002991864
      ],
      [
        "▁japanese",
        -10.223093801924525
      ],
      [
        "ner",
        -10.223206153298047
      ],
      [
        "▁eight",
        -10.223598461277419
      ],
      [
        "▁mix",
        -10.223940188922743
      ],
      [
        "▁Technology",
        -10.223970713230214
      ],
      [
        "▁cleaning",
        -10.22411050072102
      ],
      [
        "▁financing",
        -10.224334497022431
      ],
      [
        "bit",
        -10.22518827880384
      ],
      [
        "▁advantages",
        -10.225638033474779
      ],
      [
        "▁Protocol",
        -10.22673864761897
      ],
      [
        "▁pages",
        -10.226909274489488
      ],
      [
        "▁intellectual",
        -10.227367203020618
      ],
      [
        "▁injur",
        -10.227933080126963
      ],
      [
        "▁Act",
        -10.228004898867178
      ],
      [
        "▁combined",
        -10.228078658677616
      ],
      [
        "▁links",
        -10.228650149786318
      ],
      [
        "▁Photo",
        -10.228700822068392
      ],
      [
        "▁vehicles",
        -10.228747642190429
      ],
      [
        "▁fashion",
        -10.229131452181536
      ],
      [
        "▁virtual",
        -10.229146569222275
      ],
      [
        "▁Middle",
        -10.229824715476465
      ],
      [
        "▁Love",
        -10.229960274282368
      ],
      [
        "▁plug",
        -10.230071782916065
      ],
      [
        "▁primarily",
        -10.23036366474525
      ],
      [
        "▁constantly",
        -10.230866614383505
      ],
      [
        "▁blue",
        -10.231385139511044
      ],
      [
        "▁matters",
        -10.231705791581014
      ],
      [
        "▁pro",
        -10.232410241504267
      ],
      [
        "▁sold",
        -10.23253170563917
      ],
      [
        "▁Supreme",
        -10.233647148809636
      ],
      [
        "▁star",
        -10.234036285020872
      ],
      [
        "end",
        -10.234338710170425
      ],
      [
        "▁respond",
        -10.23452851147351
      ],
      [
        "▁pair",
        -10.234765905461543
      ],
      [
        "▁Drop",
        -10.235034166228058
      ],
      [
        "▁healthy",
        -10.235198342590047
      ],
      [
        "▁arms",
        -10.235683637001953
      ],
      [
        "▁organisation",
        -10.236102261798456
      ],
      [
        "▁profit",
        -10.236147741840744
      ],
      [
        "▁baby",
        -10.236238271459591
      ],
      [
        "▁cars",
        -10.236320718029766
      ],
      [
        "▁cell",
        -10.236402705665558
      ],
      [
        "▁poverty",
        -10.236658882348392
      ],
      [
        "▁bright",
        -10.236685167697184
      ],
      [
        "▁panel",
        -10.237062963167425
      ],
      [
        "air",
        -10.237120587525697
      ],
      [
        "▁interior",
        -10.237200942923913
      ],
      [
        "▁deput",
        -10.237244770098476
      ],
      [
        "▁flower",
        -10.237826903385868
      ],
      [
        "▁facilitate",
        -10.238248366886955
      ],
      [
        "▁precise",
        -10.238483340103738
      ],
      [
        "▁positions",
        -10.238629626330146
      ],
      [
        "▁Culture",
        -10.238672950090562
      ],
      [
        "▁evaluation",
        -10.239664119180318
      ],
      [
        "▁Mac",
        -10.239847261157786
      ],
      [
        "▁Euro",
        -10.239849427936758
      ],
      [
        "▁Press",
        -10.240586244942843
      ],
      [
        "▁Arab",
        -10.240914186870613
      ],
      [
        "▁Contact",
        -10.242162244590265
      ],
      [
        "▁AND",
        -10.242296626125555
      ],
      [
        "▁Muslim",
        -10.242569082411913
      ],
      [
        "hopping",
        -10.243309089417556
      ],
      [
        "▁Have",
        -10.243446786120584
      ],
      [
        "▁changing",
        -10.243447541081169
      ],
      [
        "▁loan",
        -10.243776007346552
      ],
      [
        "▁solve",
        -10.244620166700196
      ],
      [
        "▁terrorism",
        -10.245218754857335
      ],
      [
        "▁quarter",
        -10.245910923713417
      ],
      [
        "▁waiting",
        -10.24612576306373
      ],
      [
        "▁servant",
        -10.247016406153126
      ],
      [
        "▁middle",
        -10.247042452923196
      ],
      [
        "▁DVD",
        -10.247175271128366
      ],
      [
        "▁metres",
        -10.247182171747513
      ],
      [
        "▁Report",
        -10.2476955088006
      ],
      [
        "▁conditioning",
        -10.248266653388676
      ],
      [
        "▁Her",
        -10.248317292577575
      ],
      [
        "▁ads",
        -10.248636713278257
      ],
      [
        "▁Financial",
        -10.248731689040284
      ],
      [
        "▁Men",
        -10.249170343547812
      ],
      [
        "▁partnership",
        -10.249400512703431
      ],
      [
        "▁Hey",
        -10.24971311402682
      ],
      [
        "▁Note",
        -10.249920840104156
      ],
      [
        "▁core",
        -10.251040752251578
      ],
      [
        "▁medicine",
        -10.251074232072845
      ],
      [
        "▁lived",
        -10.2517027843268
      ],
      [
        "level",
        -10.252099889479512
      ],
      [
        "▁branch",
        -10.252222258215355
      ],
      [
        "▁gift",
        -10.253098651598044
      ],
      [
        "▁Color",
        -10.253343281814029
      ],
      [
        "▁Electric",
        -10.254467697186083
      ],
      [
        "▁transition",
        -10.254954704293826
      ],
      [
        "ier",
        -10.255540367809408
      ],
      [
        "▁flights",
        -10.255686971082977
      ],
      [
        "▁refuse",
        -10.256015699870698
      ],
      [
        "▁Radio",
        -10.256765010445667
      ],
      [
        "▁Begin",
        -10.257024894049806
      ],
      [
        "▁tab",
        -10.257583407964812
      ],
      [
        "▁promise",
        -10.25789898501117
      ],
      [
        "▁battery",
        -10.257998870983315
      ],
      [
        "▁patient",
        -10.258340465925054
      ],
      [
        "▁valid",
        -10.258870872794104
      ],
      [
        "tic",
        -10.259355318290071
      ],
      [
        "▁invited",
        -10.259509339991261
      ],
      [
        "▁customs",
        -10.259530220444756
      ],
      [
        "▁receiving",
        -10.25968791197871
      ],
      [
        "ical",
        -10.259947372904023
      ],
      [
        "▁audit",
        -10.260432792107245
      ],
      [
        "▁Like",
        -10.260656513734768
      ],
      [
        "▁Canada",
        -10.261494520861609
      ],
      [
        "▁residence",
        -10.261774247394166
      ],
      [
        "▁parameters",
        -10.262336033535139
      ],
      [
        "▁Part",
        -10.262372813232671
      ],
      [
        "▁affected",
        -10.262784606027276
      ],
      [
        "▁bareback",
        -10.262961501894747
      ],
      [
        "▁gone",
        -10.262988857858273
      ],
      [
        "▁objectives",
        -10.264042187101271
      ],
      [
        "▁specialized",
        -10.26409945706703
      ],
      [
        "▁seeking",
        -10.265675755771428
      ],
      [
        "art",
        -10.266412814502283
      ],
      [
        "▁magazine",
        -10.26693255547167
      ],
      [
        "▁CD",
        -10.26730311644674
      ],
      [
        "▁independence",
        -10.267730374563126
      ],
      [
        "▁background",
        -10.268978510283622
      ],
      [
        "▁fixed",
        -10.268998218454659
      ],
      [
        "ists",
        -10.269297395572211
      ],
      [
        "е",
        -10.26937262666657
      ],
      [
        "governmental",
        -10.269509148532658
      ],
      [
        "▁funding",
        -10.269602548514257
      ],
      [
        "▁planet",
        -10.270624658626991
      ],
      [
        "▁automatic",
        -10.27062960868928
      ],
      [
        "▁honor",
        -10.271265669703082
      ],
      [
        "▁effectively",
        -10.271657079884069
      ],
      [
        "▁peaceful",
        -10.271882268092687
      ],
      [
        "▁struggle",
        -10.272342591299495
      ],
      [
        "▁asian",
        -10.27253841163329
      ],
      [
        "▁Downloads",
        -10.272564276008437
      ],
      [
        "▁actively",
        -10.272751287544425
      ],
      [
        "▁gender",
        -10.272774392090811
      ],
      [
        "ING",
        -10.273577031306154
      ],
      [
        "▁villa",
        -10.273601657676068
      ],
      [
        "▁federal",
        -10.273723312921005
      ],
      [
        "▁USD",
        -10.273776163236255
      ],
      [
        "elected",
        -10.27409687593674
      ],
      [
        "▁investigation",
        -10.2748353503546
      ],
      [
        "▁prevention",
        -10.274941211707047
      ],
      [
        "▁moved",
        -10.274954081990774
      ],
      [
        "▁telephone",
        -10.275034966559451
      ],
      [
        "▁chief",
        -10.275521119220073
      ],
      [
        "▁Land",
        -10.276355919673296
      ],
      [
        "▁raised",
        -10.277384980481795
      ],
      [
        "▁mid",
        -10.277444306912098
      ],
      [
        "▁Will",
        -10.277889053155342
      ],
      [
        "▁forced",
        -10.27797464908169
      ],
      [
        "▁prayer",
        -10.278459442348748
      ],
      [
        "▁operational",
        -10.2794361451434
      ],
      [
        "▁compar",
        -10.279715869655343
      ],
      [
        "▁Unsur",
        -10.28001138962837
      ],
      [
        "▁library",
        -10.281530402459662
      ],
      [
        "▁Estonia",
        -10.282603039541954
      ],
      [
        "▁Island",
        -10.283203720906286
      ],
      [
        "▁removed",
        -10.28377739412622
      ],
      [
        "▁Square",
        -10.284119905362774
      ],
      [
        "▁larger",
        -10.284370961445271
      ],
      [
        "†",
        -10.284606024440626
      ],
      [
        "▁refer",
        -10.284842789885586
      ],
      [
        "▁delay",
        -10.28487849842282
      ],
      [
        "▁Inter",
        -10.286229447156067
      ],
      [
        "▁Constitution",
        -10.287425877257672
      ],
      [
        "▁negotiations",
        -10.287559503858558
      ],
      [
        "army",
        -10.287579420432227
      ],
      [
        "▁Application",
        -10.287931310177882
      ],
      [
        "▁guest",
        -10.288138796065956
      ],
      [
        "▁introduction",
        -10.288272292690703
      ],
      [
        "▁Thursday",
        -10.288852354575502
      ],
      [
        "▁scientists",
        -10.289235106644602
      ],
      [
        "▁publication",
        -10.289349810593812
      ],
      [
        "▁insect",
        -10.290074193361558
      ],
      [
        "including",
        -10.29036092153471
      ],
      [
        "▁plot",
        -10.291179626331193
      ],
      [
        "▁comment",
        -10.291285251385125
      ],
      [
        "▁Christmas",
        -10.292904207684519
      ],
      [
        "▁expansion",
        -10.293153084998398
      ],
      [
        "▁milk",
        -10.293651555857366
      ],
      [
        "▁rare",
        -10.293744046610522
      ],
      [
        "▁finding",
        -10.293922269589466
      ],
      [
        "▁Key",
        -10.29427384929126
      ],
      [
        "▁challenge",
        -10.294993767200078
      ],
      [
        "▁Finland",
        -10.295112298733153
      ],
      [
        "▁Among",
        -10.295131481427973
      ],
      [
        "▁categories",
        -10.295243147795256
      ],
      [
        "▁Palace",
        -10.295367169101953
      ],
      [
        "▁relax",
        -10.295472099141527
      ],
      [
        "▁updates",
        -10.297488184583539
      ],
      [
        "▁democratic",
        -10.297867028584298
      ],
      [
        "▁committee",
        -10.298002625500622
      ],
      [
        "▁definition",
        -10.298656846187825
      ],
      [
        "▁river",
        -10.298898562364373
      ],
      [
        "▁Lake",
        -10.299569186048853
      ],
      [
        "▁technological",
        -10.29975365950894
      ],
      [
        "▁Set",
        -10.300641543214523
      ],
      [
        "▁Saturday",
        -10.30064776332776
      ],
      [
        "▁Green",
        -10.30070854100607
      ],
      [
        "▁recover",
        -10.30144415894244
      ],
      [
        "▁promot",
        -10.30163803299415
      ],
      [
        "▁stations",
        -10.30398202316655
      ],
      [
        "▁fell",
        -10.304428196338359
      ],
      [
        "Associated",
        -10.304463888508192
      ],
      [
        "▁applic",
        -10.305784928684531
      ],
      [
        "▁Review",
        -10.306271500778031
      ],
      [
        "▁causes",
        -10.307242792718354
      ],
      [
        "▁Oblast",
        -10.308477914923783
      ],
      [
        "▁mountain",
        -10.309465848507081
      ],
      [
        "▁enforcement",
        -10.309933260580877
      ],
      [
        "▁female",
        -10.309950045708067
      ],
      [
        "▁Mo",
        -10.310742491385625
      ],
      [
        "▁criteria",
        -10.310968724384798
      ],
      [
        "▁courses",
        -10.311032906752319
      ],
      [
        "▁Sun",
        -10.311037873424356
      ],
      [
        "▁spring",
        -10.31106525559752
      ],
      [
        "▁addresse",
        -10.311075548707459
      ],
      [
        "▁drugs",
        -10.311838229859628
      ],
      [
        "▁realize",
        -10.312076736795786
      ],
      [
        "▁capabl",
        -10.312366597053117
      ],
      [
        "▁Work",
        -10.313007268211594
      ],
      [
        "▁attractive",
        -10.313322996954613
      ],
      [
        "▁updated",
        -10.313430311202064
      ],
      [
        "▁classes",
        -10.314284081967266
      ],
      [
        "▁rental",
        -10.314698080852367
      ],
      [
        "▁records",
        -10.315049099140305
      ],
      [
        "▁steroid",
        -10.315375670567642
      ],
      [
        "▁Afghanistan",
        -10.315976183409898
      ],
      [
        "▁firm",
        -10.315997882717527
      ],
      [
        "▁Supplier",
        -10.316123079525712
      ],
      [
        "▁occasion",
        -10.316169130248495
      ],
      [
        "▁Image",
        -10.316772804916173
      ],
      [
        "▁danger",
        -10.316916204596433
      ],
      [
        "▁emergency",
        -10.31692707102764
      ],
      [
        "▁learned",
        -10.317089263736596
      ],
      [
        "▁CIS",
        -10.317202206074597
      ],
      [
        "▁counter",
        -10.318070386469014
      ],
      [
        "▁inner",
        -10.31866950116754
      ],
      [
        "▁south",
        -10.319033637504132
      ],
      [
        "▁fee",
        -10.319278531831188
      ],
      [
        "▁species",
        -10.319365627066995
      ],
      [
        "▁destruction",
        -10.319710104083587
      ],
      [
        "New",
        -10.3204513287869
      ],
      [
        "▁friendly",
        -10.321269264672857
      ],
      [
        "▁Right",
        -10.321908856927534
      ],
      [
        "▁resolve",
        -10.322308047872122
      ],
      [
        "▁career",
        -10.322526618780577
      ],
      [
        "▁Shower",
        -10.322598468895112
      ],
      [
        "▁thy",
        -10.323140557000405
      ],
      [
        "▁Jehovah",
        -10.32327734453929
      ],
      [
        "▁prove",
        -10.323462679506886
      ],
      [
        "▁banking",
        -10.323509794376303
      ],
      [
        "▁ethnic",
        -10.323708420217832
      ],
      [
        "▁awarded",
        -10.324174818075564
      ],
      [
        "▁behavior",
        -10.324616433673949
      ],
      [
        "▁executive",
        -10.32526869952751
      ],
      [
        "▁obtained",
        -10.325354631863636
      ],
      [
        "▁joy",
        -10.326429450847515
      ],
      [
        "▁bottom",
        -10.326495702710183
      ],
      [
        "▁draw",
        -10.327089951914655
      ],
      [
        "▁corresponding",
        -10.327413469080339
      ],
      [
        "▁Administration",
        -10.32758332860766
      ],
      [
        "▁dildo",
        -10.327837206921037
      ],
      [
        "▁quick",
        -10.32796959869356
      ],
      [
        "▁trend",
        -10.328039126218684
      ],
      [
        "\\",
        -10.32859920170516
      ],
      [
        "▁translation",
        -10.328826538560483
      ],
      [
        "▁tournament",
        -10.328934123887434
      ],
      [
        "▁disk",
        -10.329011375275304
      ],
      [
        "wanted",
        -10.329561987095897
      ],
      [
        "▁Toilet",
        -10.329628933060253
      ],
      [
        "▁Azerbaijani",
        -10.329706218421272
      ],
      [
        "▁neighbor",
        -10.329836723833829
      ],
      [
        "room",
        -10.330282955331482
      ],
      [
        "▁taste",
        -10.330323534003425
      ],
      [
        "▁ship",
        -10.330511158878513
      ],
      [
        "▁Chamber",
        -10.330890889393144
      ],
      [
        "▁Roman",
        -10.331206966547755
      ],
      [
        "▁VPN",
        -10.331587999358911
      ],
      [
        "parliamentary",
        -10.331758663642406
      ],
      [
        "called",
        -10.33212551740382
      ],
      [
        "▁Washington",
        -10.332140106985854
      ],
      [
        "▁net",
        -10.333339389866007
      ],
      [
        "▁Baku",
        -10.333391273417384
      ],
      [
        "Posted",
        -10.33419618295785
      ],
      [
        "▁Palestinian",
        -10.334546094732218
      ],
      [
        "▁outcome",
        -10.334989474963875
      ],
      [
        "▁bath",
        -10.3351451564854
      ],
      [
        "▁occur",
        -10.33551974785975
      ],
      [
        "▁illegal",
        -10.337936108660125
      ],
      [
        "▁involve",
        -10.338137211653423
      ],
      [
        "▁dance",
        -10.33815777723076
      ],
      [
        "entered",
        -10.338170282114225
      ],
      [
        "▁wants",
        -10.338469165627616
      ],
      [
        "▁eternal",
        -10.340572982589267
      ],
      [
        "▁proposals",
        -10.340619690644322
      ],
      [
        "▁developer",
        -10.341048895635247
      ],
      [
        "related",
        -10.341192628797922
      ],
      [
        "▁participated",
        -10.34128089529992
      ],
      [
        "▁allowing",
        -10.341609294833754
      ],
      [
        "▁architecture",
        -10.341908654004689
      ],
      [
        "▁composition",
        -10.342160617649554
      ],
      [
        "▁notes",
        -10.342196798112242
      ],
      [
        "▁sheet",
        -10.342844855969588
      ],
      [
        "led",
        -10.344092366869804
      ],
      [
        "▁Okay",
        -10.344846780473246
      ],
      [
        "▁comments",
        -10.3451846134757
      ],
      [
        "▁foot",
        -10.346659670456143
      ],
      [
        "▁confirmed",
        -10.346667195439545
      ],
      [
        "▁detail",
        -10.346793501028332
      ],
      [
        "ng",
        -10.347331591639126
      ],
      [
        "▁priest",
        -10.348348172790889
      ],
      [
        "▁lawyer",
        -10.348684168817034
      ],
      [
        "▁prepar",
        -10.348857101083405
      ],
      [
        "▁Make",
        -10.348976935937678
      ],
      [
        "▁Wednesday",
        -10.34908538005277
      ],
      [
        "▁List",
        -10.349179717528687
      ],
      [
        "▁colour",
        -10.3507639175332
      ],
      [
        "▁Using",
        -10.350971212676379
      ],
      [
        "▁Watch",
        -10.35144512082509
      ],
      [
        "▁Ha",
        -10.353793638845419
      ],
      [
        "▁Vice",
        -10.353957951750091
      ],
      [
        "index",
        -10.354106760442255
      ],
      [
        "ova",
        -10.354772539629032
      ],
      [
        "▁Li",
        -10.35623790651223
      ],
      [
        "▁forth",
        -10.356495931762966
      ],
      [
        "▁creature",
        -10.35750828145905
      ],
      [
        "▁consumer",
        -10.357665079888694
      ],
      [
        "▁walls",
        -10.358365415396161
      ],
      [
        "▁referred",
        -10.359501365468283
      ],
      [
        "▁Lithuania",
        -10.35964483748636
      ],
      [
        "▁Page",
        -10.359663040930673
      ],
      [
        "▁motor",
        -10.360407921741658
      ],
      [
        "▁Source",
        -10.36060356999043
      ],
      [
        "▁album",
        -10.36067025879019
      ],
      [
        "▁route",
        -10.360724987875322
      ],
      [
        "▁minute",
        -10.360809467024708
      ],
      [
        "▁coast",
        -10.361221456244785
      ],
      [
        "▁measure",
        -10.36167295586371
      ],
      [
        "▁Society",
        -10.36168757305357
      ],
      [
        "▁conclusion",
        -10.362151926036706
      ],
      [
        "▁greatest",
        -10.362176194108267
      ],
      [
        "▁household",
        -10.362476469310497
      ],
      [
        "espite",
        -10.362688936627471
      ],
      [
        "▁businesses",
        -10.362744894324099
      ],
      [
        "▁Australia",
        -10.36276855444096
      ],
      [
        "▁grant",
        -10.363279020547811
      ],
      [
        "making",
        -10.363591333879915
      ],
      [
        "▁vital",
        -10.363785860044331
      ],
      [
        "▁labour",
        -10.36409524546247
      ],
      [
        "▁voter",
        -10.364476789061422
      ],
      [
        "▁transferr",
        -10.364618882450959
      ],
      [
        "▁log",
        -10.365718315516318
      ],
      [
        "▁awareness",
        -10.366181443182654
      ],
      [
        "▁soft",
        -10.366910920506452
      ],
      [
        "▁Professional",
        -10.367025147493633
      ],
      [
        "▁switch",
        -10.368192624101171
      ],
      [
        "theory",
        -10.368674912323009
      ],
      [
        "ahead",
        -10.369510293792857
      ],
      [
        "▁failed",
        -10.370778251186708
      ],
      [
        "▁lift",
        -10.370829918672738
      ],
      [
        "▁Hot",
        -10.37121446670852
      ],
      [
        "▁entrance",
        -10.371694780137387
      ],
      [
        "▁signs",
        -10.372280184787504
      ],
      [
        "▁painting",
        -10.3732215319643
      ],
      [
        "ordinary",
        -10.374266583565072
      ],
      [
        "▁looks",
        -10.374385638991154
      ],
      [
        "▁Modern",
        -10.37513943680835
      ],
      [
        "▁kingdom",
        -10.375178387356646
      ],
      [
        "▁Machine",
        -10.375975956228267
      ],
      [
        "▁Cooperation",
        -10.375994029931029
      ],
      [
        "▁Dubai",
        -10.376091063083807
      ],
      [
        "▁Both",
        -10.37632760910738
      ],
      [
        "▁filled",
        -10.37678505210115
      ],
      [
        "▁Titan",
        -10.377714165759405
      ],
      [
        "▁Gold",
        -10.37815708780806
      ],
      [
        "▁Divine",
        -10.379152492017305
      ],
      [
        "▁supplement",
        -10.379161906751019
      ],
      [
        "▁estimate",
        -10.379519586019146
      ],
      [
        "▁division",
        -10.380352417278477
      ],
      [
        "▁plane",
        -10.38080054413821
      ],
      [
        "▁custom",
        -10.38111824109288
      ],
      [
        "▁fund",
        -10.382173762507689
      ],
      [
        "▁regulator",
        -10.382381276816869
      ],
      [
        "aught",
        -10.382550662553472
      ],
      [
        "lin",
        -10.382915713530673
      ],
      [
        "▁showed",
        -10.38340806873434
      ],
      [
        "▁patent",
        -10.384620369422258
      ],
      [
        "▁Turkish",
        -10.384851826504878
      ],
      [
        "▁Check",
        -10.384879563884713
      ],
      [
        "▁lies",
        -10.384929850091467
      ],
      [
        "▁twenty",
        -10.386124075964977
      ],
      [
        "▁sister",
        -10.386216724963603
      ],
      [
        "You",
        -10.386276027145461
      ],
      [
        "▁identity",
        -10.386394962623443
      ],
      [
        "▁approval",
        -10.387470508098083
      ],
      [
        "▁constant",
        -10.387505873433284
      ],
      [
        "accessible",
        -10.38808653142685
      ],
      [
        "▁Price",
        -10.388355497192364
      ],
      [
        "▁advertisement",
        -10.390189636908861
      ],
      [
        "▁invite",
        -10.390368599126676
      ],
      [
        "▁Lady",
        -10.390740402605378
      ],
      [
        "▁classic",
        -10.391515527200811
      ],
      [
        "▁Medical",
        -10.393029068202694
      ],
      [
        "▁confidence",
        -10.393826543737916
      ],
      [
        "▁Romania",
        -10.39419442471639
      ],
      [
        "▁homemade",
        -10.395099961327526
      ],
      [
        "▁prohibit",
        -10.395206201951837
      ],
      [
        "▁IN",
        -10.395612323494982
      ],
      [
        "known",
        -10.395614379634562
      ],
      [
        "▁widely",
        -10.39583549563497
      ],
      [
        "▁Delivery",
        -10.396178393181309
      ],
      [
        "▁suffering",
        -10.397091557140504
      ],
      [
        "▁statistic",
        -10.397861552584782
      ],
      [
        "fraid",
        -10.39811669588407
      ],
      [
        "▁mandate",
        -10.399013500964138
      ],
      [
        "▁reservation",
        -10.39904348408211
      ],
      [
        "▁brunette",
        -10.399147541350196
      ],
      [
        "▁specifical",
        -10.399259507503674
      ],
      [
        "▁survey",
        -10.399609920758683
      ],
      [
        "▁battle",
        -10.399653471147362
      ],
      [
        "▁Site",
        -10.399705097273607
      ],
      [
        "▁reject",
        -10.39980150655709
      ],
      [
        "▁Charter",
        -10.40132478414372
      ],
      [
        "▁judge",
        -10.401334684977416
      ],
      [
        "▁audio",
        -10.40174803891264
      ],
      [
        "▁Anti",
        -10.40252732627906
      ],
      [
        "gen",
        -10.402657726525131
      ],
      [
        "▁calculated",
        -10.402895379962573
      ],
      [
        "▁marriage",
        -10.402995928570697
      ],
      [
        "▁Korea",
        -10.403142637265153
      ],
      [
        "▁mere",
        -10.403156043029
      ],
      [
        "AL",
        -10.403903647850303
      ],
      [
        "▁recognition",
        -10.404106933967263
      ],
      [
        "▁stages",
        -10.404504773706295
      ],
      [
        "▁Le",
        -10.404566537029915
      ],
      [
        "▁sensor",
        -10.40459387235239
      ],
      [
        "▁cells",
        -10.404948017082933
      ],
      [
        "▁Address",
        -10.405164334142041
      ],
      [
        "▁copie",
        -10.405925701297482
      ],
      [
        "▁uniform",
        -10.406528125939166
      ],
      [
        "mer",
        -10.406901199409898
      ],
      [
        "▁camp",
        -10.40721596229374
      ],
      [
        "chi",
        -10.407228323689596
      ],
      [
        "▁monument",
        -10.407456116940018
      ],
      [
        "▁colors",
        -10.408031160353348
      ],
      [
        "▁SheShaft",
        -10.408165589970274
      ],
      [
        "ex",
        -10.408230494726347
      ],
      [
        "▁trouble",
        -10.408246130476885
      ],
      [
        "▁Anavar",
        -10.408721410381562
      ],
      [
        "▁confirm",
        -10.408727296206596
      ],
      [
        "▁sectors",
        -10.40875440994316
      ],
      [
        "▁guy",
        -10.408824118596112
      ],
      [
        "▁victory",
        -10.408852017741683
      ],
      [
        "▁okay",
        -10.409581843103958
      ],
      [
        "ated",
        -10.410420261798741
      ],
      [
        "▁trends",
        -10.410449132813202
      ],
      [
        "▁repeated",
        -10.410846225507184
      ],
      [
        "▁favorite",
        -10.410952789783034
      ],
      [
        "▁Steel",
        -10.411148064786696
      ],
      [
        "scale",
        -10.411625012453609
      ],
      [
        "▁Communication",
        -10.411770865710007
      ],
      [
        "ating",
        -10.4118228306689
      ],
      [
        "▁Pre",
        -10.41202370696407
      ],
      [
        "▁appreciate",
        -10.412025002026066
      ],
      [
        "▁Su",
        -10.413527556129305
      ],
      [
        "▁brain",
        -10.413808575521376
      ],
      [
        "▁instrument",
        -10.4141292532277
      ],
      [
        "▁History",
        -10.414350047128169
      ],
      [
        "▁booking",
        -10.414435390471729
      ],
      [
        "lv",
        -10.415983227635916
      ],
      [
        "appointed",
        -10.416108935981402
      ],
      [
        "▁transform",
        -10.416299273568356
      ],
      [
        "▁leaving",
        -10.417286725681057
      ],
      [
        "izing",
        -10.417608026516822
      ],
      [
        "▁Star",
        -10.417939062970898
      ],
      [
        "▁arrange",
        -10.418134446918748
      ],
      [
        "▁shop",
        -10.418809958568604
      ],
      [
        "▁approache",
        -10.41916022733003
      ],
      [
        "ology",
        -10.419513229050262
      ],
      [
        "▁transmission",
        -10.419514135689415
      ],
      [
        "▁restore",
        -10.41968285051002
      ],
      [
        "▁pick",
        -10.420649990295326
      ],
      [
        "▁absolutely",
        -10.420817929873278
      ],
      [
        "▁piece",
        -10.420834103258166
      ],
      [
        "▁effectiveness",
        -10.420917641073416
      ],
      [
        "▁journey",
        -10.42146034317237
      ],
      [
        "▁supporting",
        -10.42165272655276
      ],
      [
        "▁fly",
        -10.421865391128515
      ],
      [
        "▁Hall",
        -10.422106276686645
      ],
      [
        "ran",
        -10.422197340595867
      ],
      [
        "▁divided",
[...]
