{
  "version": "1.0",
  "truncation": null,
  "padding": null,
  "added_tokens": [
    {
      "id": 0,
      "content": "<pad>",
      "single_word": false,
      "lstrip": false,
      "rstrip": false,
      "normalized": false,
      "special": true
    },
    {
      "id": 1,
      "content": "<s>",
      "single_word": false,
      "lstrip": false,
      "rstrip": false,
      "normalized": false,
      "special": true
    },
    {
      "id": 2,
      "content": "</s>",
      "single_word": false,
      "lstrip": false,
      "rstrip": false,
      "normalized": false,
      "special": true
    },
    {
      "id": 3,
      "content": "<unk>",
      "single_word": false,
      "lstrip": false,
      "rstrip": false,
      "normalized": false,
      "special": true
    }
  ],
  "normalizer": {
    "type": "NFKC"
  },
  "pre_tokenizer": {
    "type": "Sequence",
    "pretokenizers": [
      {
        "type": "Metaspace",
        "replacement": "▁",
        "prepend_scheme": "always",
        "split": true
      },
      {
        "type": "Punctuation",
        "behavior": "Isolated"
      },
      {
        "type": "Digits",
        "individual_digits": true
      }
    ]
  },
  "post_processor": {
    "type": "TemplateProcessing",
    "single": [
      {
        "SpecialToken": {
          "id": "<s>",
          "type_id": 0
        }
      },
      {
        "Sequence": {
          "id": "A",
          "type_id": 0
        }
      },
      {
        "SpecialToken": {
          "id": "</s>",
          "type_id": 0
        }
      }
    ],
    "pair": [
      {
        "Sequence": {
          "id": "A",
          "type_id": 0
        }
      },
      {
        "Sequence": {
          "id": "B",
          "type_id": 1
        }
      }
    ],
    "special_tokens": {
      "</s>": {
        "id": "</s>",
        "ids": [
          2
        ],
        "tokens": [
          "</s>"
        ]
      },
      "<s>": {
        "id": "<s>",
        "ids": [
          1
        ],
        "tokens": [
          "<s>"
        ]
      }
    }
  },
  "decoder": {
    "type": "Metaspace",
    "replacement": "▁",
    "prepend_scheme": "always",
    "split": true
  },
  "model": {
    "type": "Unigram",
    "unk_id": 3,
    "vocab": [
      [
        "<pad>",
        0.0
      ],
      [
        "<s>",
        0.0
      ],
      [
        "</s>",
        0.0
      ],
      [
        "<unk>",
        0.0
      ],
      [
        "▁",
        -1.8784211902654775
      ],
      [
        ",",
        -3.093870334674069
      ],
      [
        "и",
        -3.384950278951967
      ],
      [
        ".",
        -3.5025260646046217
      ],
      [
        "е",
        -3.975903079389802
      ],
      [
        "в",
        -4.0042422342320485
      ],
      [
        "а",
        -4.354654142228421
      ],
      [
        "й",
        -4.499597683223609
      ],
      [
        "0",
        -4.608042117776565
      ],
      [
        "с",
        -4.711873695022369
      ],
      [
        "м",
        -4.715697269974465
      ],
      [
        "1",
        -4.753478000709247
      ],
      [
        "-",
        -4.802868453128136
      ],
      [
        "х",
        -4.865720940561692
      ],
      [
        "2",
        -4.937152401427824
      ],
      [
        "▁на",
        -4.963209342693899
      ],
      [
        "ы",
        -5.009310097201363
      ],
      [
        "у",
        -5.038513166179536
      ],
      [
        ":",
        -5.0821441256666
      ],
      [
        "о",
        -5.146524448155475
      ],
      [
        "я",
        -5.148824957143722
      ],
      [
        "▁не",
        -5.329540085915221
      ],
      [
        "к",
        -5.396202216881015
      ],
      [
        "▁по",
        -5.428501501972141
      ],
      [
        ")",
        -5.567247583733607
      ],
      [
        "го",
        -5.583144548393324
      ],
      [
        "3",
        -5.588265939674196
      ],
      [
        "5",
        -5.620294083484188
      ],
      [
        "(",
        -5.626491188939902
      ],
      [
        "▁для",
        -5.634726673310315
      ],
      [
        "▁что",
        -5.644719250589468
      ],
      [
        "т",
        -5.712430165228472
      ],
      [
        "4",
        -5.7480931923095735
      ],
      [
        "ю",
        -5.806942018903477
      ],
      [
        "9",
        -5.893702833620802
      ],
      [
        "ов",
        -5.918359255914785
      ],
      [
        "▁В",
        -5.942355273691909
      ],
      [
        "6",
        -5.963798850984519
      ],
      [
        "ом",
        -5.979359631241271
      ],
      [
        "»",
        -5.986069437951825
      ],
      [
        "«",
        -6.006936344429512
      ],
      [
        "8",
        -6.034043244158484
      ],
      [
        "7",
        -6.078141889790368
      ],
      [
        "▁из",
        -6.103520297054631
      ],
      [
        "▁от",
        -6.14158693420581
      ],
      [
        "\"",
        -6.141900977959745
      ],
      [
        "ая",
        -6.201206043281692
      ],
      [
        "/",
        -6.227257686963085
      ],
      [
        "▁как",
        -6.241023995135148
      ],
      [
        "▁за",
        -6.250061005870839
      ],
      [
        "ми",
        -6.260630215079242
      ],
      [
        "▁или",
        -6.321740089531453
      ],
      [
        ";",
        -6.330766828649416
      ],
      [
        "▁это",
        -6.455420803720914
      ],
      [
        "ой",
        -6.455666184715611
      ],
      [
        "▁вы",
        -6.471720485962194
      ],
      [
        "?",
        -6.510003349117433
      ],
      [
        "н",
        -6.534619626095331
      ],
      [
        "—",
        -6.54262381280282
      ],
      [
        "ь",
        -6.54650649160155
      ],
      [
        "ся",
        -6.548544473742375
      ],
      [
        "г",
        -6.59374336772278
      ],
      [
        "ть",
        -6.611826818097406
      ],
      [
        "▁до",
        -6.750695295363849
      ],
      [
        "л",
        -6.762415105881111
      ],
      [
        "ую",
        -6.773184885717939
      ],
      [
        "▁при",
        -6.77446657657817
      ],
      [
        "▁его",
        -6.784665011398825
      ],
      [
        "▁также",
        -6.811608200462096
      ],
      [
        "–",
        -6.831629785672769
      ],
      [
        "▁чтобы",
        -6.877396779780817
      ],
      [
        "ей",
        -6.9049651582403175
      ],
      [
        "▁С",
        -6.927964487290144
      ],
      [
        "ами",
        -6.931829804672837
      ],
      [
        "▁все",
        -6.944258056728831
      ],
      [
        "▁года",
        -6.945661046352011
      ],
      [
        "▁И",
        -7.030405774725185
      ],
      [
        "▁их",
        -7.033465649961199
      ],
      [
        "!",
        -7.037719753241907
      ],
      [
        "▁мы",
        -7.044880763998954
      ],
      [
        "▁назад",
        -7.068354302058028
      ],
      [
        "▁он",
        -7.0960133281461175
      ],
      [
        "д",
        -7.097645852864902
      ],
      [
        "▁которые",
        -7.112109104267168
      ],
      [
        "▁но",
        -7.143364648536055
      ],
      [
        "ных",
        -7.146506086145255
      ],
      [
        "то",
        -7.1494504632347375
      ],
      [
        "▁так",
        -7.187460197512946
      ],
      [
        "ться",
        -7.188372046120108
      ],
      [
        "▁будет",
        -7.195137244744458
      ],
      [
        "ли",
        -7.199022884259902
      ],
      [
        "▁то",
        -7.220267538392173
      ],
      [
        "▁По",
        -7.224793257710207
      ],
      [
        "▁может",
        -7.229229302251046
      ],
      [
        "на",
        -7.234523261616969
      ],
      [
        "▁Я",
        -7.23479493636602
      ],
      [
        "▁время",
        -7.259993102690377
      ],
      [
        "ется",
        -7.268071910754822
      ],
      [
        "ная",
        -7.274591424320182
      ],
      [
        "ные",
        -7.277461791274009
      ],
      [
        "р",
        -7.278888206291754
      ],
      [
        "▁со",
        -7.2901183628871244
      ],
      [
        "но",
        -7.3085253761935185
      ],
      [
        "ной",
        -7.315264734560184
      ],
      [
        "▁На",
        -7.315829110497093
      ],
      [
        "▁более",
        -7.340466446622049
      ],
      [
        "▁только",
        -7.348750173099329
      ],
      [
        "▁быть",
        -7.364770179893309
      ],
      [
        "▁они",
        -7.365030752088801
      ],
      [
        "▁во",
        -7.369206986381373
      ],
      [
        "▁же",
        -7.379084270322709
      ],
      [
        "му",
        -7.3882143835755105
      ],
      [
        "ка",
        -7.391190139787669
      ],
      [
        "*",
        -7.410228372593702
      ],
      [
        "▁Это",
        -7.419701802158091
      ],
      [
        "▁того",
        -7.427398373590606
      ],
      [
        "%",
        -7.437086839440445
      ],
      [
        "▁О",
        -7.44724804397082
      ],
      [
        "п",
        -7.452661428306573
      ],
      [
        "▁является",
        -7.45482550898544
      ],
      [
        "▁А",
        -7.457434289556852
      ],
      [
        "▁если",
        -7.469545890049387
      ],
      [
        "▁под",
        -7.475354953313881
      ],
      [
        "ного",
        -7.480852479762911
      ],
      [
        "ный",
        -7.497355227780682
      ],
      [
        "▁было",
        -7.499570784828984
      ],
      [
        "▁об",
        -7.500312079872835
      ],
      [
        "▁можно",
        -7.501883726199576
      ],
      [
        "▁был",
        -7.503143106733512
      ],
      [
        "▁Вы",
        -7.510681491264517
      ],
      [
        "▁бы",
        -7.520330271230694
      ],
      [
        "з",
        -7.524422552544728
      ],
      [
        "▁Если",
        -7.54433605133374
      ],
      [
        "▁когда",
        -7.58750507190684
      ],
      [
        "▁К",
        -7.608825587906097
      ],
      [
        "▁том",
        -7.621120797470443
      ],
      [
        "s",
        -7.623952783156634
      ],
      [
        "▁который",
        -7.663130376441041
      ],
      [
        "▁Мы",
        -7.6818894857119915
      ],
      [
        "▁вам",
        -7.711313846505332
      ],
      [
        "ются",
        -7.72270343026476
      ],
      [
        "▁есть",
        -7.729021830108072
      ],
      [
        "▁году",
        -7.741095353502326
      ],
      [
        "▁этом",
        -7.744337426091235
      ],
      [
        "▁могут",
        -7.755799878634793
      ],
      [
        "ла",
        -7.762483522503176
      ],
      [
        "▁Он",
        -7.768355613982182
      ],
      [
        "▁этого",
        -7.768778984337809
      ],
      [
        "б",
        -7.76906466985578
      ],
      [
        "▁У",
        -7.769173583171348
      ],
      [
        "▁были",
        -7.772839166870867
      ],
      [
        "ого",
        -7.774013354410801
      ],
      [
        "▁всех",
        -7.7863345137354045
      ],
      [
        "▁чем",
        -7.790240238238601
      ],
      [
        "▁Как",
        -7.799038839981847
      ],
      [
        "▁лет",
        -7.799400592350393
      ],
      [
        "за",
        -7.809883934627347
      ],
      [
        "▁раз",
        -7.81640332288719
      ],
      [
        "▁файл",
        -7.819203294511368
      ],
      [
        "ную",
        -7.821359188954759
      ],
      [
        "▁про",
        -7.834202473501735
      ],
      [
        "лись",
        -7.842041651437112
      ],
      [
        "не",
        -7.858980450951844
      ],
      [
        "▁Но",
        -7.86308811710175
      ],
      [
        "▁без",
        -7.881160873350799
      ],
      [
        "ок",
        -7.887715123943224
      ],
      [
        "▁после",
        -7.889156513690203
      ],
      [
        "▁Не",
        -7.89081607252511
      ],
      [
        "▁очень",
        -7.89829877813307
      ],
      [
        "▁тем",
        -7.916650032234582
      ],
      [
        "ч",
        -7.969662003934452
      ],
      [
        "+",
        -7.979088349920204
      ],
      [
        "ж",
        -7.982770126758931
      ],
      [
        "▁уже",
        -7.991219667139653
      ],
      [
        "▁пере",
        -8.003187368695025
      ],
      [
        "▁между",
        -8.021584948869949
      ],
      [
        "▁вас",
        -8.02401427462526
      ],
      [
        "▁была",
        -8.028215953474856
      ],
      [
        "▁случае",
        -8.029443664309474
      ],
      [
        "▁она",
        -8.039323055415716
      ],
      [
        "▁через",
        -8.043671232969537
      ],
      [
        "▁должны",
        -8.047405384674231
      ],
      [
        "▁ты",
        -8.048187521803092
      ],
      [
        "▁больше",
        -8.053100599001139
      ],
      [
        "▁еще",
        -8.053289117332454
      ],
      [
        "▁области",
        -8.064973407971582
      ],
      [
        "▁год",
        -8.070536383358165
      ],
      [
        "▁будут",
        -8.070748514624997
      ],
      [
        "|",
        -8.071897252591944
      ],
      [
        "▁М",
        -8.088872192923313
      ],
      [
        "лся",
        -8.08901299038068
      ],
      [
        "В",
        -8.095780659006364
      ],
      [
        "▁меня",
        -8.09966667451657
      ],
      [
        "ное",
        -8.106453525407353
      ],
      [
        "С",
        -8.113955135155615
      ],
      [
        "▁Для",
        -8.114291588781095
      ],
      [
        "&",
        -8.117223093839831
      ],
      [
        "▁всего",
        -8.117292075153268
      ],
      [
        "▁где",
        -8.122012519923407
      ],
      [
        "ый",
        -8.128422060830749
      ],
      [
        "▁других",
        -8.136119833581553
      ],
      [
        "▁сказал",
        -8.150581029415934
      ],
      [
        "▁При",
        -8.151300300413704
      ],
      [
        "▁информацию",
        -8.16216994896303
      ],
      [
        "▁работы",
        -8.168703922883301
      ],
      [
        "▁себя",
        -8.180949069806509
      ],
      [
        "▁ваш",
        -8.184488787437582
      ],
      [
        "▁которая",
        -8.185896063552233
      ],
      [
        "▁просто",
        -8.1897876178874
      ],
      [
        "сти",
        -8.192016095541625
      ],
      [
        "▁кто",
        -8.203975120069163
      ],
      [
        "лась",
        -8.205718906648618
      ],
      [
        "▁этот",
        -8.221700653112995
      ],
      [
        "]",
        -8.227687146760646
      ],
      [
        "по",
        -8.234444439137024
      ],
      [
        "▁A",
        -8.238937593150954
      ],
      [
        "▁файлов",
        -8.245928437944487
      ],
      [
        "▁файла",
        -8.251850902587279
      ],
      [
        "▁системы",
        -8.252255450252548
      ],
      [
        "▁мне",
        -8.253258101228017
      ],
      [
        "▁ни",
        -8.254281765432276
      ],
      [
        "▁даже",
        -8.254794656210322
      ],
      [
        "▁компании",
        -8.256919239004187
      ],
      [
        "▁развития",
        -8.257674646130674
      ],
      [
        "▁Да",
        -8.264880245611844
      ],
      [
        "▁эти",
        -8.267247206194524
      ],
      [
        "[",
        -8.275088621246066
      ],
      [
        "▁данных",
        -8.276737684790659
      ],
      [
        "▁жизни",
        -8.284292875562523
      ],
      [
        "a",
        -8.286576106492596
      ],
      [
        "▁них",
        -8.288139970930017
      ],
      [
        "▁один",
        -8.28903921831166
      ],
      [
        "e",
        -8.293539130842088
      ],
      [
        "▁П",
        -8.294899081292211
      ],
      [
        "▁несколько",
        -8.300067143645956
      ],
      [
        "▁стран",
        -8.300420570415021
      ],
      [
        "он",
        -8.304648888461802
      ],
      [
        "▁которых",
        -8.306290354788851
      ],
      [
        "▁За",
        -8.310072380239674
      ],
      [
        "ным",
        -8.312032496325795
      ],
      [
        "▁России",
        -8.321124769436919
      ],
      [
        "▁много",
        -8.326655496825328
      ],
      [
        "▁Все",
        -8.331259797793237
      ],
      [
        "▁образом",
        -8.335495775177652
      ],
      [
        "▁S",
        -8.338438142160133
      ],
      [
        "▁человека",
        -8.350401887925521
      ],
      [
        "▁можете",
        -8.351649365045521
      ],
      [
        "▁человек",
        -8.358510080576531
      ],
      [
        "А",
        -8.369475737638735
      ],
      [
        "▁ли",
        -8.372016135247318
      ],
      [
        "▁день",
        -8.372534286209445
      ],
      [
        "▁имеет",
        -8.373042696626953
      ],
      [
        "М",
        -8.398299761578004
      ],
      [
        "либо",
        -8.400545415909342
      ],
      [
        "▁нас",
        -8.40078213493943
      ],
      [
        "▁США",
        -8.400889883856397
      ],
      [
        "ш",
        -8.401569325018789
      ],
      [
        "▁другие",
        -8.403240876831193
      ],
      [
        "▁M",
        -8.403483313603418
      ],
      [
        "▁людей",
        -8.405199875752107
      ],
      [
        "▁деятельности",
        -8.411985300003813
      ],
      [
        "этой",
        -8.422556497806218
      ],
      [
        "▁управления",
        -8.425578908754918
      ],
      [
        "▁времени",
        -8.433037872773054
      ],
      [
        "▁здесь",
        -8.436080673936845
      ],
      [
        "S",
        -8.444175151900295
      ],
      [
        "▁своей",
        -8.446126631391682
      ],
      [
        "▁обеспечения",
        -8.46131232885524
      ],
      [
        "▁безопасности",
        -8.463912763449954
      ],
      [
        "▁свою",
        -8.464943703559689
      ],
      [
        "Z",
        -8.467874031890965
      ],
      [
        "месяцев",
        -8.472282667257193
      ],
      [
        "этих",
        -8.473385923994773
      ],
      [
        "▁P",
        -8.474046975610403
      ],
      [
        "от",
        -8.47978126706217
      ],
      [
        "▁использовать",
        -8.48100267676146
      ],
      [
        "лось",
        -8.483899572205045
      ],
      [
        "▁Windows",
        -8.484712374572117
      ],
      [
        "▁необходимо",
        -8.486394613841746
      ],
      [
        "▁свои",
        -8.488795935811464
      ],
      [
        "▁Телефон",
        -8.49328814402552
      ],
      [
        "ему",
        -8.49551182263036
      ],
      [
        "К",
        -8.496499998722006
      ],
      [
        "▁нет",
        -8.500135044737725
      ],
      [
        "▁Что",
        -8.509180084525015
      ],
      [
        "▁Г",
        -8.518268275072966
      ],
      [
        "▁страны",
        -8.52652600335362
      ],
      [
        "ской",
        -8.533988168867038
      ],
      [
        "▁нужно",
        -8.540039783261387
      ],
      [
        "тся",
        -8.54394257675088
      ],
      [
        "▁против",
        -8.550949080586076
      ],
      [
        "▁информации",
        -8.555880012372766
      ],
      [
        "▁Б",
        -8.559882406591504
      ],
      [
        "▁возможность",
        -8.567248168290703
      ],
      [
        "ского",
        -8.570843327142608
      ],
      [
        "gt",
        -8.572543839927627
      ],
      [
        "ский",
        -8.57536315462631
      ],
      [
        "▁место",
        -8.576588972787729
      ],
      [
        "▁Ты",
        -8.577457981661428
      ],
      [
        "да",
        -8.579872456386308
      ],
      [
        "▁своих",
        -8.58031172060625
      ],
      [
        "c",
        -8.586158627776246
      ],
      [
        "ты",
        -8.586780271103503
      ],
      [
        "▁дня",
        -8.590620720736153
      ],
      [
        "▁связи",
        -8.59625100216441
      ],
      [
        "▁C",
        -8.59724859212861
      ],
      [
        "#",
        -8.599449244929108
      ],
      [
        "э",
        -8.600632770881788
      ],
      [
        "▁течение",
        -8.603476471754709
      ],
      [
        "▁рамках",
        -8.608103449189894
      ],
      [
        "▁мира",
        -8.609379905390057
      ],
      [
        "▁два",
        -8.610193030060362
      ],
      [
        "▁программы",
        -8.614331614312457
      ],
      [
        "▁перед",
        -8.615523975141944
      ],
      [
        "▁должен",
        -8.623294712729631
      ],
      [
        "ном",
        -8.626337639703841
      ],
      [
        "▁являются",
        -8.626627617422162
      ],
      [
        "▁помощью",
        -8.628054264315272
      ],
      [
        "▁качестве",
        -8.628757441017603
      ],
      [
        "▁xHamster",
        -8.628881633939267
      ],
      [
        "▁Так",
        -8.630205774972389
      ],
      [
        "▁тех",
        -8.635404820404045
      ],
      [
        "▁Д",
        -8.635506100310476
      ],
      [
        "О",
        -8.636052526308516
      ],
      [
        "▁участие",
        -8.637476728447906
      ],
      [
        "x",
        -8.643570737018685
      ],
      [
        "▁получить",
        -8.64884769038732
      ],
      [
        "▁Они",
        -8.65036393278046
      ],
      [
        "▁которое",
        -8.650914828327506
      ],
      [
        "X",
        -8.656613231615855
      ],
      [
        "com",
        -8.660183155654636
      ],
      [
        "i",
        -8.661301697815025
      ],
      [
        "▁которой",
        -8.661842366335485
      ],
      [
        "D",
        -8.66304253121506
      ],
      [
        "o",
        -8.665676052752671
      ],
      [
        "▁над",
        -8.668857949117955
      ],
      [
        "▁Е",
        -8.672416114588307
      ],
      [
        "B",
        -8.672703787857035
      ],
      [
        "▁свой",
        -8.673926900426506
      ],
      [
        "'",
        -8.676217165708719
      ],
      [
        "большой",
        -8.678532296302498
      ],
      [
        "d",
        -8.678889401076615
      ],
      [
        "▁прав",
        -8.683047971904534
      ],
      [
        "Д",
        -8.685944342530318
      ],
      [
        "m",
        -8.689668275932746
      ],
      [
        "▁игры",
        -8.689718591752388
      ],
      [
        "ите",
        -8.69815454781055
      ],
      [
        "▁потому",
        -8.70102277625841
      ],
      [
        "▁города",
        -8.704238025467305
      ],
      [
        "▁всегда",
        -8.704339934044079
      ],
      [
        "▁всё",
        -8.707560956124487
      ],
      [
        "▁двух",
        -8.708625375697785
      ],
      [
        "▁соответствии",
        -8.71281120810592
      ],
      [
        "▁B",
        -8.715401271177864
      ],
      [
        "▁всем",
        -8.715936242258019
      ],
      [
        "b",
        -8.71741501679777
      ],
      [
        "p",
        -8.725609666475368
      ],
      [
        "A",
        -8.730307544277759
      ],
      [
        "▁период",
        -8.732839116311794
      ],
      [
        "сть",
        -8.734269171520516
      ],
      [
        "ными",
        -8.740602211194261
      ],
      [
        ">",
        -8.740712239899915
      ],
      [
        "▁Когда",
        -8.740924292303662
      ],
      [
        "этому",
        -8.742634155667675
      ],
      [
        "▁находится",
        -8.744484845426356
      ],
      [
        "ская",
        -8.746211068642038
      ],
      [
        "$",
        -8.746931399818573
      ],
      [
        "И",
        -8.747295481335257
      ],
      [
        "▁нам",
        -8.752228648034551
      ],
      [
        "ц",
        -8.753719227927457
      ],
      [
        "y",
        -8.757638820835407
      ],
      [
        "П",
        -8.757908241189016
      ],
      [
        "▁дней",
        -8.75797411484591
      ],
      [
        "▁сделать",
        -8.769123763049572
      ],
      [
        "из",
        -8.773512625620283
      ],
      [
        "ра",
        -8.77557895432962
      ],
      [
        "▁таких",
        -8.779693821280079
      ],
      [
        "де",
        -8.781445885994476
      ],
      [
        "же",
        -8.782373568609666
      ],
      [
        "ны",
        -8.78245075507023
      ],
      [
        "▁стороны",
        -8.783566382375959
      ],
      [
        "▁организации",
        -8.784575994023374
      ],
      [
        "▁После",
        -8.784872292282301
      ],
      [
        "▁Республики",
        -8.786690807462454
      ],
      [
        "▁No",
        -8.788634227138754
      ],
      [
        "▁детей",
        -8.788737247960146
      ],
      [
        "▁говорит",
        -8.790113128769308
      ],
      [
        "▁тебя",
        -8.79447573593301
      ],
      [
        "открыть",
        -8.795500673957694
      ],
      [
        "▁D",
        -8.797064122256486
      ],
      [
        "йте",
        -8.800554270277308
      ],
      [
        "▁Однако",
        -8.803142290213215
      ],
      [
        "сейчас",
        -8.80527882955346
      ],
      [
        "▁собой",
        -8.806057962255052
      ],
      [
        "лишь",
        -8.806538668076408
      ],
      [
        "вашего",
        -8.8090601412604
      ],
      [
        "▁проекта",
        -8.811445463186015
      ],
      [
        "или",
        -8.811807992824207
      ],
      [
        "▁право",
        -8.81188453263591
      ],
      [
        "▁права",
        -8.811891271251879
      ],
      [
        "ще",
        -8.812291394361019
      ],
      [
        "жизнь",
        -8.813540640054592
      ],
      [
        "▁котором",
        -8.814174768847735
      ],
      [
        "▁Иисус",
        -8.815435614954941
      ],
      [
        "▁там",
        -8.819521503040207
      ],
      [
        "▁мир",
        -8.821157144515077
      ],
      [
        "▁Его",
        -8.82200960107552
      ],
      [
        "▁своего",
        -8.822539046786373
      ],
      [
        "▁слова",
        -8.831743554503179
      ],
      [
        "Б",
        -8.833416353254638
      ],
      [
        "▁решения",
        -8.837243856525385
      ],
      [
        "▁этим",
        -8.837813806913381
      ],
      [
        "▁способ",
        -8.839063282942668
      ],
      [
        "▁месяца",
        -8.839211486605794
      ],
      [
        "▁услуг",
        -8.83991761753192
      ],
      [
        "“",
        -8.841351566125981
      ],
      [
        "ф",
        -8.843702271330109
      ],
      [
        "▁От",
        -8.845989178224027
      ],
      [
        "▁недели",
        -8.84748639326408
      ],
      [
        "▁друг",
        -8.849323581952381
      ],
      [
        "▁себе",
        -8.855377295962489
      ],
      [
        "▁внимание",
        -8.857448943965554
      ],
      [
        "▁быстро",
        -8.859216497846651
      ],
      [
        "▁E",
        -8.859332493497423
      ],
      [
        "овых",
        -8.862342620556106
      ],
      [
        "▁ко",
        -8.863556219168606
      ],
      [
        "▁Т",
        -8.864544777879145
      ],
      [
        "▁веб",
        -8.865145180317338
      ],
      [
        "▁имеют",
        -8.865537953821265
      ],
      [
        "▁вопрос",
        -8.868544839141899
      ],
      [
        "▁система",
        -8.870583306520789
      ],
      [
        "▁Кроме",
        -8.8718279788166
      ],
      [
        "▁средств",
        -8.88180445614363
      ],
      [
        "f",
        -8.884823004538974
      ],
      [
        "▁лучше",
        -8.886381886042447
      ],
      [
        "защиты",
        -8.886988433656867
      ],
      [
        "одной",
        -8.888816595621611
      ],
      [
        "▁использования",
        -8.890484008892276
      ],
      [
        "расширение",
        -8.890928101251541
      ],
      [
        "▁стать",
        -8.892009762863863
      ],
      [
        "▁включая",
        -8.892613012017636
      ],
      [
        "▁имя",
        -8.893615623435094
      ],
      [
        "Т",
        -8.89449760001343
      ],
      [
        "ями",
        -8.896831451477873
      ],
      [
        "▁люди",
        -8.897231892688767
      ],
      [
        "▁различных",
        -8.898097793912235
      ],
      [
        "▁позволяет",
        -8.899181832783853
      ],
      [
        "большие",
        -8.89967512133581
      ],
      [
        "новых",
        -8.9034218201231
      ],
      [
        "вер",
        -8.903469053189955
      ],
      [
        "▁Во",
        -8.90726239906499
      ],
      [
        "▁F",
        -8.913691772310182
      ],
      [
        "ность",
        -8.923613132141178
      ],
      [
        "до",
        -8.924893250373433
      ],
      [
        "▁группы",
        -8.925414879636408
      ],
      [
        "▁рас",
        -8.926325698388702
      ],
      [
        "▁следует",
        -8.926806211989291
      ],
      [
        "▁части",
        -8.927870416827494
      ],
      [
        "C",
        -8.927930592911183
      ],
      [
        "такие",
        -8.929476246544302
      ],
      [
        "▁данные",
        -8.930240671648432
      ],
      [
        "▁лиц",
        -8.931272769525794
      ],
      [
        "G",
        -8.93459044351201
      ],
      [
        "▁проект",
        -8.938168821586187
      ],
      [
        "▁трансы",
        -8.939534938588334
      ],
      [
        "▁женщин",
        -8.940316658657457
      ],
      [
        "▁часть",
        -8.940485023256981
      ],
      [
        "▁мире",
        -8.942976675113792
      ],
      [
        "_",
        -8.945210366969908
      ],
      [
        "▁отношении",
        -8.94830402227909
      ],
      [
        "”",
        -8.950850565920396
      ],
      [
        "▁числе",
        -8.953112178640179
      ],
      [
        "▁нашей",
        -8.95548187999236
      ],
      [
        "er",
        -8.955517590404249
      ],
      [
        "▁момент",
        -8.956142264851177
      ],
      [
        "▁программно",
        -8.956584506287893
      ],
      [
        "Р",
        -8.957315864261277
      ],
      [
        "▁менее",
        -8.958459804337322
      ],
      [
        "r",
        -8.960613976718752
      ],
      [
        "▁член",
        -8.961115099149113
      ],
      [
        "▁G",
        -8.961229776387885
      ],
      [
        "▁уровне",
        -8.962493714149513
      ],
      [
        "▁доступ",
        -8.964587722202285
      ],
      [
        "g",
        -8.967058861175499
      ],
      [
        "▁него",
        -8.967445227821168
      ],
      [
        "▁таким",
        -8.967612726395204
      ],
      [
        "▁тот",
        -8.968138653631275
      ],
      [
        "▁Она",
        -8.970203520099611
      ],
      [
        "▁наших",
        -8.97094672970983
      ],
      [
        "▁Этот",
        -8.97553981475608
      ],
      [
        "▁легко",
        -8.979655063437004
      ],
      [
        "▁онлайн",
        -8.97974038697194
      ],
      [
        "▁сегодня",
        -8.98312338910948
      ],
      [
        "▁которого",
        -8.98374628960765
      ],
      [
        "Чтобы",
        -8.985547781729345
      ],
      [
        "▁полностью",
        -8.986269739954281
      ],
      [
        "▁пока",
        -8.987252221264763
      ],
      [
        "▁среди",
        -8.99069582297064
      ],
      [
        "▁помощи",
        -8.998286961338163
      ],
      [
        "▁Алиева",
        -8.998466373704249
      ],
      [
        "Е",
        -8.998842204118745
      ],
      [
        "▁Главная",
        -9.000087226465785
      ],
      [
        "▁Пере",
        -9.001062154708862
      ],
      [
        "▁решение",
        -9.001659085373525
      ],
      [
        "▁возможности",
        -9.003130225956362
      ],
      [
        "▁три",
        -9.008753809964285
      ],
      [
        "▁её",
        -9.00883305902716
      ],
      [
        "эту",
        -9.009793436911625
      ],
      [
        "▁средства",
        -9.010936553310929
      ],
      [
        "▁государства",
        -9.016049996625725
      ],
      [
        "другой",
        -9.01634272094459
      ],
      [
        "▁должно",
        -9.017242064770507
      ],
      [
        "▁уровня",
        -9.019461841627255
      ],
      [
        "рд",
        -9.021056453129312
      ],
      [
        "▁особенно",
        -9.021115094410181
      ],
      [
        "основе",
        -9.02156194122198
      ],
      [
        "▁выбор",
        -9.021643360804863
      ],
      [
        "▁район",
        -9.02171067245817
      ],
      [
        "▁возможно",
        -9.02319437894146
      ],
      [
        "▁дома",
        -9.0241640863403
      ],
      [
        "▁срок",
        -9.02524156411043
      ],
      [
        "ешь",
        -9.025481321512483
      ],
      [
        "Я",
        -9.025844592812577
      ],
      [
        "▁одно",
        -9.02588754181364
      ],
      [
        "▁действия",
        -9.029032879534485
      ],
      [
        "▁Ф",
        -9.030547890278507
      ],
      [
        "▁проблемы",
        -9.030883702822534
      ],
      [
        "▁вместе",
        -9.030994445871185
      ],
      [
        "ских",
        -9.032955902956607
      ],
      [
        "▁вопросам",
        -9.034204336205693
      ],
      [
        "▁те",
        -9.036429354016947
      ],
      [
        "▁работу",
        -9.036451703830128
      ],
      [
        "▁прямо",
        -9.03689867676935
      ],
      [
        "▁анализа",
        -9.042341542892428
      ],
      [
        "ду",
        -9.042522733799723
      ],
      [
        "▁одного",
        -9.045157221169262
      ],
      [
        "▁игра",
        -9.046773574175903
      ],
      [
        "▁около",
        -9.04933190915479
      ],
      [
        "M",
        -9.0498776505055
      ],
      [
        "ясь",
        -9.051769279803878
      ],
      [
        "▁анализ",
        -9.053523001752735
      ],
      [
        "▁производства",
        -9.056509249096132
      ],
      [
        "▁программ",
        -9.059821493117953
      ],
      [
        "▁компания",
        -9.061539667569999
      ],
      [
        "▁процесс",
        -9.062016295494901
      ],
      [
        "▁стали",
        -9.066143251377582
      ],
      [
        "▁изменения",
        -9.066450120492062
      ],
      [
        "▁именно",
        -9.070108019761028
      ],
      [
        "ля",
        -9.0731016245751
      ],
      [
        "°C",
        -9.076067132199128
      ],
      [
        "▁сети",
        -9.076397807057724
      ],
      [
        "▁необходим",
        -9.076576869888642
      ],
      [
        "n",
        -9.07785254276072
      ],
      [
        "▁Наций",
        -9.078344428985401
      ],
      [
        "Организации",
        -9.079604426449006
      ],
      [
        "тебе",
        -9.081651470268541
      ],
      [
        "каждый",
        -9.08353186708906
      ],
      [
        "▁своем",
        -9.08774775176204
      ],
      [
        "▁сиськи",
        -9.088141131455007
      ],
      [
        "▁Про",
        -9.088511980415126
      ],
      [
        "▁количество",
        -9.088958338629771
      ],
      [
        "▁проблем",
        -9.089478098665655
      ],
      [
        "▁затем",
        -9.089572334867016
      ],
      [
        "новые",
        -9.091983241326863
      ],
      [
        "ль",
        -9.09206654589605
      ],
      [
        "▁места",
        -9.092282646999738
      ],
      [
        "▁Р",
        -9.092996121016007
      ],
      [
        "должна",
        -9.094329593919873
      ],
      [
        "овые",
        -9.094593899416058
      ],
      [
        "▁I",
        -9.097672276371243
      ],
      [
        "▁T",
        -9.099185683289457
      ],
      [
        "ния",
        -9.100317771345388
      ],
      [
        "v",
        -9.100490123678995
      ],
      [
        "поэтому",
        -9.102848487181044
      ],
      [
        "Объединенных",
        -9.104088036861976
      ],
      [
        "▁хорошо",
        -9.10473893430534
      ],
      [
        "▁опыт",
        -9.109058680989458
      ],
      [
        "€",
        -9.11154804716348
      ],
      [
        "наиболее",
        -9.11292489658636
      ],
      [
        "Г",
        -9.11540540846503
      ],
      [
        "▁До",
        -9.115538253683221
      ],
      [
        "▁свое",
        -9.115719834017833
      ],
      [
        "▁оргазм",
        -9.116405341818522
      ],
      [
        "t",
        -9.117521712462663
      ],
      [
        "такой",
        -9.117930583254177
      ],
      [
        "▁вопросы",
        -9.118699054934536
      ],
      [
        "▁Интернет",
        -9.120907623194459
      ],
      [
        "▁H",
        -9.12175694676687
      ],
      [
        "▁теперь",
        -9.124811179669493
      ],
      [
        "▁L",
        -9.127447791432386
      ],
      [
        "▁материал",
        -9.132748619294842
      ],
      [
        "▁кв",
        -9.133780657585467
      ],
      [
        "можем",
        -9.135686988592122
      ],
      [
        "▁ниже",
        -9.136255842585875
      ],
      [
        "▁территории",
        -9.136735147161442
      ],
      [
        "▁скорость",
        -9.137002472653203
      ],
      [
        "▁Из",
        -9.137380412095958
      ],
      [
        "вашем",
        -9.137465509803054
      ],
      [
        "▁тип",
        -9.139629507263788
      ],
      [
        "вести",
        -9.14028617692751
      ],
      [
        "ские",
        -9.146265318254512
      ],
      [
        "▁видео",
        -9.146727601786738
      ],
      [
        "овой",
        -9.146778155884363
      ],
      [
        "▁политики",
        -9.14900337072779
      ],
      [
        "ности",
        -9.1496503050477
      ],
      [
        "▁целью",
        -9.154215762795259
      ],
      [
        "ью",
        -9.156424131177417
      ],
      [
        "▁качества",
        -9.156537786004046
      ],
      [
        "чего",
        -9.157736069835767
      ],
      [
        "▁некоторые",
        -9.15803209784618
      ],
      [
        "большая",
        -9.15805375787156
      ],
      [
        "▁K",
        -9.160488938169268
      ],
      [
        "▁которую",
        -9.162716705956198
      ],
      [
        "никогда",
        -9.163013094781759
      ],
      [
        "▁значение",
        -9.16315212077733
      ],
      [
        "▁постоянно",
        -9.163676345133602
      ],
      [
        "▁начала",
        -9.16397491623815
      ],
      [
        "P",
        -9.165996022787837
      ],
      [
        "▁номер",
        -9.166167159902168
      ],
      [
        "▁см",
        -9.167470449771585
      ],
      [
        "▁пред",
        -9.169011868131868
      ],
      [
        "▁млн",
        -9.170418421655047
      ],
      [
        "дать",
        -9.170588597582249
      ],
      [
        "▁например",
        -9.171209024448581
      ],
      [
        "ры",
        -9.171399388737608
      ],
      [
        "▁одним",
        -9.173673526177799
      ],
      [
        "▁уровень",
        -9.173941806645997
      ],
      [
        "▁эта",
        -9.174182996090796
      ],
      [
        "Ф",
        -9.176043813944748
      ],
      [
        "ходе",
        -9.177835479525081
      ],
      [
        "▁дом",
        -9.179986446216665
      ],
      [
        "▁создания",
        -9.180024689291805
      ],
      [
        "▁объем",
        -9.18015514821814
      ],
      [
        "Украины",
        -9.182248837560577
      ],
      [
        "▁важно",
        -9.182811767939768
      ],
      [
        "ё",
        -9.185445409851361
      ],
      [
        "▁минут",
        -9.186762193032482
      ],
      [
        "▁найти",
        -9.187828116044066
      ],
      [
        "▁компьютер",
        -9.18911138790334
      ],
      [
        "▁новый",
        -9.19009165022266
      ],
      [
        "▁власти",
        -9.191555012025631
      ],
      [
        "▁многих",
        -9.191658564978828
      ],
      [
        "•",
        -9.19342765707547
      ],
      [
        "▁Н",
        -9.19558798848198
      ],
      [
        "▁пол",
        -9.195869195804567
      ],
      [
        "▁тогда",
        -9.196085684130255
      ],
      [
        "▁Эта",
        -9.196703772804593
      ],
      [
        "▁достаточно",
        -9.197705466094938
      ],
      [
        "ком",
        -9.198234960200255
      ],
      [
        "▁результате",
        -9.19906895840488
      ],
      [
        "▁Со",
        -9.199507156685453
      ],
      [
        "мен",
        -9.20131073925347
      ],
      [
        "▁часто",
        -9.201797269598845
      ],
      [
        "▁хотя",
        -9.201834977125452
      ],
      [
        "Л",
        -9.201837938763243
      ],
      [
        "самых",
        -9.20263338896845
      ],
      [
        "▁Эти",
        -9.202990589184058
      ],
      [
        "▁W",
        -9.203706816354877
      ],
      [
        "ing",
        -9.204959317648989
      ],
      [
        "ба",
        -9.206735593855372
      ],
      [
        "▁пор",
        -9.206970922369473
      ],
      [
        "Н",
        -9.207680699175203
      ],
      [
        "▁цен",
        -9.213601638666297
      ],
      [
        "йти",
        -9.21428766265358
      ],
      [
        "H",
        -9.217372149351757
      ],
      [
        "▁хотел",
        -9.217721962636976
      ],
      [
        "▁вид",
        -9.218321434688276
      ],
      [
        "▁почти",
        -9.219176650886713
      ],
      [
        "▁Бог",
        -9.221802080161423
      ],
      [
        "▁самом",
        -9.222177413723173
      ],
      [
        "ель",
        -9.222430584713184
      ],
      [
        "▁Стриптиз",
        -9.225917153713022
      ],
      [
        "▁своим",
        -9.226722595536577
      ],
      [
        "ец",
        -9.228106183860513
      ],
      [
        "▁интернет",
        -9.22873032872798
      ],
      [
        "тер",
        -9.229562789352636
      ],
      [
        "T",
        -9.230125030407116
      ],
      [
        "▁образования",
        -9.232720188508532
      ],
      [
        "in",
        -9.233120500059323
      ],
      [
        "▁услуги",
        -9.233677263675947
      ],
      [
        "лен",
        -9.234546515959387
      ],
      [
        "▁область",
        -9.23502210125108
      ],
      [
        "▁июн",
        -9.235152287981219
      ],
      [
        "про",
        -9.235816886637972
      ],
      [
        "▁систем",
        -9.236883687987424
      ],
      [
        "▁задач",
        -9.23730765225633
      ],
      [
        "▁дел",
        -9.24038045473575
      ],
      [
        "▁поскольку",
        -9.240923346448001
      ],
      [
        "▁странах",
        -9.242012714279388
      ],
      [
        "▁ним",
        -9.242794370941674
      ],
      [
        "▁обычно",
        -9.243460616368864
      ],
      [
        "▁счет",
        -9.244246529485713
      ],
      [
        "ник",
        -9.245131005679465
      ],
      [
        "▁анал",
        -9.249172166837262
      ],
      [
        "ер",
        -9.250871009681957
      ],
      [
        "▁отеле",
        -9.252156374550234
      ],
      [
        "▁сервер",
        -9.252176334093486
      ],
      [
        "▁наши",
        -9.252269212547539
      ],
      [
        "▁стал",
        -9.252475624426816
      ],
      [
        "▁N",
        -9.252807248784684
      ],
      [
        "настоящее",
        -9.254148002383534
      ],
      [
        "▁оно",
        -9.254188716371747
      ],
      [
        "иметь",
        -9.255000615682745
      ],
      [
        "▁мая",
        -9.258198556112315
      ],
      [
        "мер",
        -9.258607088827702
      ],
      [
        "L",
        -9.258811401163502
      ],
      [
        "могли",
        -9.259995056239424
      ],
      [
        "▁Х",
        -9.260526803662975
      ],
      [
        "▁месяц",
        -9.262628518661478
      ],
      [
        "▁Казахстан",
        -9.265401450655355
      ],
      [
        "Х",
        -9.266999543957766
      ],
      [
        "V",
        -9.268862115595967
      ],
      [
        "▁мой",
        -9.26982323859926
      ],
      [
        "▁работе",
        -9.270910411379395
      ],
      [
        "▁клиентов",
        -9.271277748236349
      ],
      [
        "▁бизнес",
        -9.274322583480716
      ],
      [
        "ъ",
        -9.27630737409399
      ],
      [
        "▁многие",
        -9.276950778387345
      ],
      [
        "любой",
        -9.27817567655686
      ],
      [
        "▁программа",
        -9.278195253387814
      ],
      [
        "▁расположен",
        -9.279834333596352
      ],
      [
        "▁центр",
        -9.27984024870917
      ],
      [
        "▁имени",
        -9.281163484870685
      ],
      [
        "▁осуществлени",
        -9.283447528443553
      ],
      [
        "при",
        -9.287370157018694
      ],
      [
        "▁O",
        -9.287975289571063
      ],
      [
        "ничего",
        -9.288103883973147
      ],
      [
        "▁R",
        -9.289263702640882
      ],
      [
        "▁населения",
        -9.28933012376669
      ],
      [
        "ман",
        -9.289648463654302
      ],
      [
        "▁работа",
        -9.289913461304526
      ],
      [
        "▁благодаря",
        -9.290671324937636
      ],
      [
        "овая",
        -9.29239101123833
      ],
      [
        "У",
        -9.292431560394528
      ],
      [
        "▁отношения",
        -9.292615168887089
      ],
      [
        "▁однако",
        -9.29401666427279
      ],
      [
        "▁Вам",
        -9.29504383276713
      ],
      [
        "▁которым",
        -9.29587008390655
      ],
      [
        "какой",
        -9.297988022852453
      ],
      [
        "▁развитие",
        -9.298638243270767
      ],
      [
        "▁выше",
        -9.30108575576843
      ],
      [
        "▁Президент",
        -9.301339280614833
      ],
      [
        "▁предприятия",
        -9.301466653109811
      ],
      [
        "неделю",
        -9.302951603835867
      ],
      [
        "▁доступны",
        -9.308240285144237
      ],
      [
        "▁Shemale",
        -9.309055097271834
      ],
      [
        "▁закон",
        -9.31058625516671
      ],
      [
        "ча",
        -9.311039961254044
      ],
      [
        "▁казино",
        -9.311472501285389
      ],
      [
        "▁составляет",
        -9.312416378970434
      ],
      [
        "▁лица",
        -9.316303240782094
      ],
      [
        "первый",
        -9.316513882508687
      ],
      [
        "бо",
        -9.317786322373095
      ],
      [
        "▁воды",
        -9.318735969574746
      ],
      [
        "об",
        -9.319163482164589
      ],
      [
        "ша",
        -9.31945406557026
      ],
      [
        "▁центра",
        -9.320164695601454
      ],
      [
        "▁Porn",
        -9.320614385873817
      ],
      [
        "▁рынка",
        -9.32093789946132
      ],
      [
        "сказать",
        -9.321494757625697
      ],
      [
        "▁общества",
        -9.3217879092259
      ],
      [
        "▁представляет",
        -9.322371884552483
      ],
      [
        "al",
        -9.323658105750535
      ],
      [
        "Также",
        -9.32365901146563
      ],
      [
        "▁дела",
        -9.326055454966632
      ],
      [
        "▁план",
        -9.32614756974773
      ],
      [
        "▁стране",
        -9.32777574031728
      ],
      [
        "▁стол",
        -9.32902756623803
      ],
      [
        "бан",
        -9.329760163111084
      ],
      [
        "▁известны",
        -9.329935976078012
      ],
      [
        "▁ответ",
        -9.332794128768882
      ],
      [
        "▁предлагает",
        -9.332984285645338
      ],
      [
        "▁сам",
        -9.333738264801868
      ],
      [
        "▁Нет",
        -9.336972883643329
      ],
      [
        "=",
        -9.337383390072887
      ],
      [
        "сь",
        -9.338561044417377
      ],
      [
        "хотите",
        -9.33860562429602
      ],
      [
        "▁Гейдар",
        -9.339569556272554
      ],
      [
        "▁состав",
        -9.342459942740424
      ],
      [
        "▁ноябр",
        -9.343898677113954
      ],
      [
        "▁мест",
        -9.345661683008467
      ],
      [
        "▁мере",
        -9.346761321851279
      ],
      [
        "▁наш",
        -9.346870400375385
      ],
      [
        "сек",
        -9.346892144258517
      ],
      [
        "▁граждан",
        -9.347912195846533
      ],
      [
        "de",
        -9.348791937930493
      ],
      [
        "▁проведения",
        -9.35023387040199
      ],
      [
        "▁точно",
        -9.350918962469505
      ],
      [
        "▁жопа",
        -9.350994158893938
      ],
      [
        "ает",
        -9.352000379555996
      ],
      [
        "всю",
        -9.352372016324132
      ],
      [
        "▁ваши",
        -9.35309909853763
      ],
      [
        "Теперь",
        -9.353896614467072
      ],
      [
        "▁пути",
        -9.354100693325844
      ],
      [
        "▁трех",
        -9.3541233680708
      ],
      [
        "▁частност",
        -9.354406814185069
      ],
      [
        "▁Совета",
        -9.354526538989226
      ],
      [
        "▁каждого",
        -9.355414538402085
      ],
      [
        "▁бесплатно",
        -9.355706440274734
      ],
      [
        "▁город",
        -9.36002027686883
      ],
      [
        "▁свет",
        -9.36121058254585
      ],
      [
        "▁часов",
        -9.362101244542156
      ],
      [
        "▁Живо",
        -9.362342260896238
      ],
      [
        "▁ряд",
        -9.362469738291429
      ],
      [
        "▁работает",
        -9.362667545887403
      ],
      [
        "▁J",
        -9.363031244342864
      ],
      [
        "▁пользователя",
        -9.364556656754068
      ],
      [
        "▁модель",
        -9.365265269736465
      ],
      [
        "www",
        -9.367119781039671
      ],
      [
        "дает",
        -9.36736996205166
      ],
      [
        "▁условиях",
        -9.36763255574146
      ],
      [
        "▁делать",
        -9.367640007473014
      ],
      [
        "R",
        -9.368118083353759
      ],
      [
        "W",
        -9.36868133224435
      ],
      [
        "дер",
        -9.36963326560967
      ],
      [
        "▁пункт",
        -9.371235793487351
      ],
      [
        "▁Ре",
        -9.375664882592517
      ],
      [
        "▁условия",
        -9.377788286788997
      ],
      [
        "целях",
        -9.37993222662555
      ],
      [
        "▁информация",
        -9.380969547316335
      ],
      [
        "ши",
        -9.381539878850326
      ],
      [
        "▁деятельность",
        -9.38375949529656
      ],
      [
        "▁мл",
        -9.38386624975892
      ],
      [
        "▁сотрудничества",
        -9.38392221146119
      ],
      [
        "▁тысяч",
        -9.384189165188733
      ],
      [
        "инг",
        -9.384413071640893
      ],
      [
        "ировать",
        -9.384651262552275
      ],
      [
        "k",
        -9.38491395628472
      ],
      [
        "▁размер",
        -9.385857094960961
      ],
      [
        "▁заявил",
        -9.386759297136958
      ],
      [
        "▁оборудования",
        -9.387274335412844
      ],
      [
        "▁нового",
        -9.387480344179627
      ],
      [
        "▁группа",
        -9.387495155965809
      ],
      [
        "on",
        -9.38876309066161
      ],
      [
        "▁V",
        -9.389703918543786
      ],
      [
        "▁нажмите",
        -9.389774535143076
      ],
      [
        "▁выберите",
        -9.392005124540189
      ],
      [
        "▁секунд",
        -9.392892105196458
      ],
      [
        "ро",
        -9.392949454440348
      ],
      [
        "ющих",
        -9.395394195974134
      ],
      [
        "▁Л",
        -9.395794780198386
      ],
      [
        "▁действительно",
        -9.396579784042357
      ],
      [
        "▁декабря",
        -9.399457009680749
      ],
      [
        "K",
        -9.402690614816422
      ],
      [
        "▁сайта",
        -9.403170141354416
      ],
      [
        "▁нескольких",
        -9.403531357872748
      ],
      [
        "▁поставщик",
        -9.40391321397847
      ],
      [
        "▁качество",
        -9.404613743348483
      ],
      [
        "▁цвет",
        -9.405044904154984
      ],
      [
        "▁Под",
        -9.405323012639803
      ],
      [
        "юсь",
        -9.406768089848873
      ],
      [
        "тому",
        -9.407087785393788
      ],
      [
        "некоторых",
        -9.408721219967068
      ],
      [
        "▁расширения",
        -9.409726754458777
      ],
      [
        "▁нашего",
        -9.410437325739354
      ],
      [
        "вал",
        -9.410507801881911
      ],
      [
        "АО",
        -9.41075167511083
      ],
      [
        "начать",
        -9.41114333240078
      ],
      [
        "▁поддержки",
        -9.41195080613376
      ],
      [
        "▁отметил",
        -9.412205077395503
      ],
      [
        "▁сфере",
        -9.415269732159238
      ],
      [
        "меры",
        -9.416529626146783
      ],
      [
        "▁государств",
        -9.416791351161192
      ],
      [
        "июля",
        -9.417774699366632
      ],
      [
        "▁доступа",
        -9.418437445563683
      ],
      [
        "реализации",
        -9.418522657053229
      ],
      [
        "точки",
        -9.41921225404668
      ],
      [
        "▁долларов",
        -9.421799886712913
      ],
      [
        "▁делает",
        -9.422092322795526
      ],
      [
        "▁директор",
        -9.422155675298034
      ],
      [
        "▁процесса",
        -9.422727813433259
      ],
      [
        "▁международных",
        -9.423814992243232
      ],
      [
        "▁путем",
        -9.424984150247639
      ],
      [
        "▁вашей",
        -9.42715255001728
      ],
      [
        "▁роль",
        -9.427479038506757
      ],
      [
        "▁пре",
        -9.428479346830326
      ],
      [
        "▁экономики",
        -9.429909043530838
      ],
      [
        "емся",
        -9.430110237292963
      ],
      [
        "▁Таки",
        -9.432763373695229
      ],
      [
        "▁наук",
        -9.433653280984927
      ],
      [
        "▁пресс",
        -9.43499352590288
      ],
      [
        "▁продукции",
        -9.435758756166855
      ],
      [
        "казать",
        -9.436208827180257
      ],
      [
        "▁самым",
        -9.439059369662004
      ],
      [
        "▁организаций",
        -9.440533981506883
      ],
      [
        "Hub",
        -9.440919143731943
      ],
      [
        "▁Сним",
        -9.441687171754035
      ],
      [
        "▁истории",
        -9.442289912392269
      ],
      [
        "▁сентября",
        -9.443392380938848
      ],
      [
        "h",
        -9.445865849879302
      ],
      [
        "▁море",
        -9.44627839225891
      ],
      [
        "▁номера",
        -9.446363611950169
      ],
      [
        "▁деле",
        -9.446522767715184
      ],
      [
        "получения",
        -9.448551258351268
      ],
      [
        "▁борьб",
        -9.44859289313107
      ],
      [
        "▁практически",
        -9.448762029601033
      ],
      [
        "кой",
        -9.449187224721841
      ],
      [
        "следующие",
        -9.452069636239086
      ],
      [
        "▁другими",
        -9.452202460319983
      ],
      [
        "▁Об",
        -9.4540651514056
      ],
      [
        "▁одна",
        -9.455279413372665
      ],
      [
        "тель",
        -9.455345808380573
      ],
      [
        "▁Совет",
        -9.455855954874714
      ],
      [
        "ние",
        -9.456327539646738
      ],
      [
        "▁годы",
        -9.458023969610613
      ],
      [
        "▁действий",
        -9.458257588847202
      ],
      [
        "▁месте",
        -9.458473855529759
      ],
      [
        "▁ПК",
        -9.45872699063063
      ],
      [
        "▁вот",
        -9.459384140677288
      ],
      [
        "▁Э",
        -9.462334626931295
      ],
      [
        "службы",
        -9.462827894837487
      ],
      [
        "▁виде",
        -9.463093515672446
      ],
      [
        "ства",
        -9.463633401591295
      ],
      [
        "▁Бога",
        -9.463855148046697
      ],
      [
        "пример",
        -9.467433588922015
      ],
      [
        "▁компаний",
        -9.467721644769444
      ],
      [
        "гг",
        -9.471514666567305
      ],
      [
        "▁прежде",
        -9.4731487509085
      ],
      [
        "l",
        -9.475579942699147
      ],
      [
        "проектов",
        -9.476193057363709
      ],
      [
        "▁ресурсов",
        -9.47703790851098
      ],
      [
        "▁помощь",
        -9.47782075564508
      ],
      [
        "▁http",
        -9.478436500347875
      ],
      [
        "▁дело",
        -9.478561620978676
      ],
      [
        "▁могу",
        -9.481595186727292
      ],
      [
        "▁Российско",
        -9.48169820834139
      ],
      [
        "▁вариант",
        -9.481834105798814
      ],
      [
        "▁То",
        -9.4824544865127
      ],
      [
        "▁знаю",
        -9.483440546038413
      ],
      [
        "▁число",
        -9.483682597848274
      ],
      [
        "▁список",
        -9.484035347822521
      ],
      [
        "ового",
        -9.484218495495664
      ],
      [
        "▁социально",
        -9.485563670322852
      ],
      [
        "▁создать",
        -9.486829404161652
      ],
      [
        "▁марта",
        -9.487955670511393
      ],
      [
        "▁случая",
        -9.487957319237493
      ],
      [
        "▁народ",
        -9.488359784465528
      ],
      [
        "новой",
        -9.48854182169821
      ],
      [
        "раз",
        -9.489267881391928
      ],
      [
        "▁Некоторы",
        -9.489453413176028
      ],
      [
        "ru",
        -9.489708850905254
      ],
      [
        "▁да",
        -9.490007847121008
      ],
      [
        "▁рынке",
        -9.490459918539697
      ],
      [
        "▁само",
        -9.490605063501313
      ],
      [
        "технологий",
        -9.492029653928746
      ],
      [
        "▁технологии",
        -9.493353139986125
      ],
      [
        "▁ре",
        -9.49600766748551
      ],
      [
        "▁обеспечить",
        -9.496054675264363
      ],
      [
        "▁такое",
        -9.497708092861975
      ],
      [
        "▁две",
        -9.498002320570032
      ],
      [
        "F",
        -9.498207169725486
      ],
      [
        "изменить",
        -9.499150941290411
      ],
      [
        "слишком",
        -9.499247049047106
      ],
      [
        "▁использование",
        -9.500615491008434
      ],
      [
        "▁происходит",
        -9.50153956474371
      ],
      [
        "▁последние",
        -9.501979414954603
      ],
      [
        "▁городе",
        -9.502029293394461
      ],
      [
        "▁Россия",
        -9.502999491992263
      ],
      [
        "▁мужчин",
        -9.50492498966973
      ],
      [
        "сюда",
        -9.50545987503126
      ],
      [
        "тор",
        -9.506648353552254
      ],
      [
        "▁телефон",
        -9.507376854844098
      ],
      [
        "ному",
        -9.508487450277345
      ],
      [
        "▁значительно",
        -9.509821298472929
      ],
      [
        "ском",
        -9.510753329724386
      ],
      [
        "▁цели",
        -9.511339464587676
      ],
      [
        "▁поддержку",
        -9.511353423084559
      ],
      [
        "▁используется",
        -9.512528539147725
      ],
      [
        "▁работать",
        -9.513504179527946
      ],
      [
        "▁Генерально",
        -9.5143345642152
      ],
      [
        "▁суд",
        -9.51437840911199
      ],
      [
        "▁причин",
        -9.516403273400611
      ],
      [
        "словам",
        -9.516498555406052
      ],
      [
        "▁Господь",
        -9.51665123617806
      ],
      [
        "ость",
        -9.517203686289045
      ],
      [
        "▁относительно",
        -9.517759988679742
      ],
      [
        "▁Ко",
        -9.519114382125958
      ],
      [
        "▁почему",
        -9.519772709812298
      ],
      [
        "▁совместно",
        -9.520395678226262
      ],
      [
        "▁типа",
        -9.520689875361107
      ],
      [
        "▁любительское",
        -9.521607820096836
      ],
      [
        "▁отеля",
        -9.52263476173264
      ],
      [
        "▁секс",
        -9.522866688946642
      ],
      [
        "▁пожалуйста",
        -9.523661210741713
      ],
      [
        "▁Ш",
        -9.5237135530823
      ],
      [
        "апреля",
        -9.524038926719209
      ],
      [
        "▁сумм",
        -9.524383214889628
      ],
      [
        "▁обеспечивает",
        -9.527200804717394
      ],
      [
        "▁означает",
        -9.527491278887277
      ],
      [
        "октября",
        -9.52863617900433
      ],
      [
        "en",
        -9.528928551167521
      ],
      [
        "▁центре",
        -9.530374450794616
      ],
      [
        "▁снова",
        -9.53179648040131
      ],
      [
        "жа",
        -9.53220646447844
      ],
      [
        "▁нами",
        -9.53398612313076
      ],
      [
        "Э",
        -9.534465611242192
      ],
      [
        "▁использует",
        -9.534748911021657
      ],
      [
        "▁культуры",
        -9.535553715466751
      ],
      [
        "▁температур",
        -9.536104362784535
      ],
      [
        "ство",
        -9.536691504067718
      ],
      [
        "E",
        -9.537289369027945
      ],
      [
        "▁тоже",
        -9.538823378543428
      ],
      [
        "▁целом",
        -9.539000445921996
      ],
      [
        "▁согласно",
        -9.540066585566569
      ],
      [
        "▁приложение",
        -9.541043478050176
      ],
      [
        "▁программу",
        -9.541277598163544
      ],
      [
        "▁специально",
        -9.541877290560702
      ],
      [
        "▁начал",
        -9.546009202030094
      ],
      [
        "▁линии",
        -9.54606173030062
      ],
      [
        "▁исследования",
        -9.546312781156967
      ],
      [
        "▁Ну",
        -9.548076905944015
      ],
      [
        "▁Вот",
        -9.548464638233575
      ],
      [
        "▁книг",
        -9.55028695827496
      ],
      [
        "▁различные",
        -9.550578253112674
      ],
      [
        "она",
        -9.551536686858134
      ],
      [
        "▁правительства",
        -9.552380497296706
      ],
      [
        "▁силу",
        -9.553270007662507
      ],
      [
        "мин",
        -9.55663139214141
      ],
      [
        "▁материалов",
        -9.556717912477579
      ],
      [
        "▁социальны",
        -9.557147967333762
      ],
      [
        "▁принять",
        -9.5574032782562
      ],
      [
        "▁продуктов",
        -9.557822802647863
      ],
      [
        "▁установки",
        -9.560286562913003
      ],
      [
        "▁минет",
        -9.561232210720153
      ],
      [
        "▁гостей",
        -9.561528552124969
      ],
      [
        "кор",
        -9.561891417844732
      ],
      [
        "▁Фонд",
        -9.562002706360767
      ],
      [
        "▁ибо",
        -9.562032150267346
      ],
      [
        "ран",
        -9.564401837840848
      ],
      [
        "▁любы",
        -9.566586216736598
      ],
      [
        "играть",
        -9.56791060893533
      ],
      [
        "▁содержит",
        -9.568049777442496
      ],
      [
        "▁факт",
        -9.568182107524926
      ],
      [
        "▁пользователей",
        -9.568441814187059
      ],
      [
        "▁связанные",
        -9.568782535840864
      ],
      [
        "▁доклад",
        -9.569306624989931
      ],
      [
        "▁меньше",
        -9.569793555034904
      ],
      [
        "тон",
        -9.570828673397642
      ],
      [
        "пер",
        -9.571151000993158
      ],
      [
        "лет",
        -9.571871333904966
      ],
      [
        "результаты",
        -9.572374124466034
      ],
      [
        "▁формате",
        -9.572526061756307
      ],
      [
        "▁Компания",
        -9.572854076224443
      ],
      [
        "▁иностранных",
        -9.57340881668714
      ],
      [
        "Ш",
        -9.573691977407414
      ],
      [
        "▁язык",
        -9.574341406976272
      ],
      [
        "▁стоит",
        -9.57467401309337
      ],
      [
        "че",
        -9.57539457048291
      ],
      [
        "▁модели",
        -9.57604575720324
      ],
      [
        "▁энергии",
        -9.576403728499072
      ],
      [
        "▁обеспечение",
        -9.578651652054113
      ],
      [
        "ру",
        -9.579055200382127
      ],
      [
        "▁состоит",
        -9.580194890340065
      ],
      [
        "▁университет",
        -9.580830444825143
      ],
      [
        "▁подход",
        -9.581038932489756
      ],
      [
        "▁необходимости",
        -9.581283526405524
      ],
      [
        "▁систему",
        -9.582454582842159
      ],
      [
        "вод",
        -9.584720136013205
      ],
      [
        "N",
        -9.585340935746775
      ],
      [
        "▁сил",
        -9.585522757134841
      ],
      [
        "▁Сегодня",
        -9.585752171862081
      ],
      [
        "▁положения",
        -9.586502496960355
      ],
      [
        "▁конце",
        -9.586791832556193
      ],
      [
        "помочь",
        -9.586809357862617
      ],
      [
        "▁служб",
        -9.586835973978397
      ],
      [
        "деньги",
        -9.587387699212481
      ],
      [
        "января",
        -9.587871955597722
      ],
      [
        "▁весьма",
        -9.588063216695076
      ],
      [
        "▁пыта",
        -9.588341019064526
      ],
      [
        "▁сообщил",
        -9.588386378508881
      ],
      [
        "▁феврал",
        -9.589247074222975
      ],
      [
        "▁применения",
        -9.589382803847515
      ],
      [
        "▁сведения",
        -9.589645979325597
      ],
      [
        "▁роста",
        -9.591440715867847
      ],
      [
        "▁ЕС",
        -9.591723929685838
      ],
      [
        "▁среды",
        -9.593672840390271
      ],
      [
        "▁международного",
        -9.59370456436381
      ],
      [
        "▁производитель",
        -9.594320923800227
      ],
      [
        "▁контроля",
        -9.595750888307984
      ],
      [
        "▁рост",
        -9.595864910637241
      ],
      [
        "▁евро",
        -9.59719292743576
      ],
      [
        "▁стоимость",
        -9.597961506965039
      ],
      [
        "▁комната",
        -9.598505669847574
      ],
      [
        "зрения",
        -9.5989560653518
      ],
      [
        "цы",
        -9.598976347095071
      ],
      [
        "▁зависимости",
        -9.599590755171214
      ],
      [
        "▁цветов",
        -9.599705245208941
      ],
      [
        "▁Китай",
        -9.600681101224898
      ],
      [
        "▁научно",
        -9.602435787039283
      ],
      [
        "▁гор",
        -9.60363366460908
      ],
      [
        "▁мог",
        -9.604945325627881
      ],
      [
        "▁Мне",
        -9.605152303363644
      ],
      [
        "лин",
        -9.605525332208218
      ],
      [
        "ул",
        -9.606615809938802
      ],
      [
        "amp",
        -9.607809054828541
      ],
      [
        "w",
        -9.608665692701466
      ],
      [
        "▁продукта",
        -9.609695097082378
      ],
      [
        "▁HD",
        -9.609728718786126
      ],
      [
        "▁завод",
        -9.611645399421777
      ],
      [
        "▁групп",
        -9.612117504197517
      ],
      [
        "основных",
        -9.612484780291412
      ],
      [
        "мет",
        -9.61347390394965
      ],
      [
        "▁сайте",
        -9.613845389543195
      ],
      [
        "▁сравнени",
        -9.614686994373848
      ],
      [
        "▁данным",
        -9.615031216852724
      ],
      [
        "путь",
        -9.6153756492256
      ],
      [
        "ска",
        -9.615707571458373
      ],
      [
        "▁прогноз",
        -9.61595380790352
      ],
      [
        "нет",
        -9.617025298093248
      ],
      [
        "силы",
        -9.617357544334336
      ],
      [
        "щ",
        -9.61789031653967
      ],
      [
        "▁нашим",
        -9.619835975031096
      ],
      [
        "▁существует",
        -9.620307269045824
      ],
      [
        "▁последни",
        -9.622805881838344
      ],
      [
        "▁работ",
        -9.623204211141193
      ],
      [
        "▁Европы",
        -9.623645631679473
      ],
      [
        "ar",
        -9.62534134191999
      ],
      [
        "▁программе",
        -9.625819816501107
      ],
      [
        "ист",
        -9.626076692256838
      ],
      [
        "▁TXXX",
        -9.626930297318362
      ],
      [
        "▁ними",
        -9.62804441028378
      ],
      [
        "▁погод",
        -9.628304182507994
      ],
      [
        "▁Федерации",
        -9.629608665220069
      ],
      [
        "▁воздуха",
        -9.630210090612877
      ],
      [
        "ходят",
        -9.63072112305907
      ],
      [
        "▁Мо",
        -9.63311470412941
      ],
      [
        "▁пляж",
        -9.633324702181081
      ],
      [
        "нибудь",
        -9.633436210374905
      ],
      [
        "▁регистрации",
        -9.6342691758689
      ],
      [
        "▁Китая",
        -9.634547410274175
      ],
      [
        "▁другим",
        -9.634815734031
      ],
      [
        "могут",
        -9.635195219587557
      ],
      [
        "▁бизнеса",
        -9.636541378761896
      ],
      [
        "▁внутри",
        -9.636732814712735
      ],
      [
        "▁сообщения",
        -9.637579900212472
      ],
      [
        "▁устройства",
        -9.638479633866465
      ],
      [
        "ющие",
        -9.642267184724178
      ],
      [
        "▁Роле",
        -9.645116724464835
      ],
      [
        "▁статус",
        -9.645199442470991
      ],
      [
        "▁правительство",
        -9.649892725931286
      ],
      [
        "▁создание",
        -9.650345748798117
      ],
      [
        "▁настройки",
        -9.651925179050034
      ],
      [
        "ожидается",
        -9.651986299138974
      ],
      [
        "▁Ла",
        -9.654176948402869
      ],
      [
        "фи",
        -9.65666144781163
      ],
      [
        "▁стратеги",
        -9.656824025794377
      ],
      [
        "▁труда",
        -9.65687388606855
      ],
      [
        "▁множество",
        -9.657632213592855
      ],
      [
        "▁сообщает",
        -9.657755111705429
      ],
      [
        "разных",
        -9.658906805645175
      ],
      [
        "▁развитию",
        -9.659837851815276
      ],
      [
        "▁говорил",
        -9.660569189832835
      ],
      [
        "▁Украине",
        -9.664274564928292
      ],
      [
        "▁пример",
        -9.664707830643563
      ],
      [
        "re",
        -9.665485555385793
      ],
      [
        "файлы",
        -9.666281129381497
      ],
      [
        "▁решений",
        -9.666561222981247
      ],
      [
        "▁отдыха",
        -9.666621419395804
      ],
      [
        "ещё",
        -9.666950190050208
      ],
      [
        "▁де",
        -9.668661869216242
      ],
      [
        "us",
        -9.670631218797661
      ],
      [
        "ения",
        -9.670791495083437
      ],
      [
        "▁приложения",
        -9.671427241350903
      ],
      [
        "Грузии",
        -9.673179908944695
      ],
      [
        "▁мер",
        -9.673197598394683
      ],
      [
        "▁находятся",
        -9.673246079635451
      ],
      [
        "З",
        -9.673579880479487
      ],
      [
        "▁членов",
        -9.677723161928812
      ],
      [
        "▁август",
        -9.678007202649571
      ],
      [
        "учи",
        -9.678573406651093
      ],
      [
        "рядом",
        -9.67974756835651
      ],
      [
        "▁участников",
        -9.681235271578249
      ],
      [
        "▁Фонда",
        -9.682868660122935
      ],
      [
        "▁игр",
        -9.683960131321133
      ],
      [
        "▁Casino",
        -9.683992685149962
      ],
      [
        "▁оборудование",
        -9.684045344705556
      ],
      [
        "такого",
        -9.684491921186693
      ],
      [
        "▁нашу",
        -9.684493273044344
      ],
      [
        "стр",
        -9.684943039437721
      ],
      [
        "▁мастурбация",
        -9.6851486911364
      ],
      [
        "ца",
        -9.685876390651805
      ],
      [
        "▁совершенно",
        -9.686901181838707
      ],
      [
        "▁режим",
        -9.6869617311473
      ],
      [
        "хочу",
        -9.688291065068704
      ],
      [
        "▁войны",
        -9.688331439692808
      ],
      [
        "▁поле",
        -9.688782753311227
      ],
      [
        "под",
        -9.689767897817699
      ],
      [
        "стью",
        -9.690167741229455
      ],
      [
        "▁активно",
        -9.691910209336596
      ],
      [
        "▁сын",
        -9.692311341134591
      ],
      [
        "▁кнопку",
        -9.692494470016793
      ],
      [
        "▁Тем",
        -9.692682618563792
      ],
      [
        "▁зрелые",
        -9.69395875548221
      ],
      [
        "смотреть",
        -9.697224333274912
      ],
      [
        "▁включает",
        -9.697423421175985
      ],
      [
        "▁фото",
        -9.698647981732174
      ],
      [
        "▁становится",
        -9.698755543156048
      ],
      [
        "▁ООН",
        -9.699079732369295
      ],
      [
        "▁большинство",
        -9.699187944922754
      ],
      [
        "▁рабоче",
        -9.699257836877685
      ],
      [
        "▁Здесь",
        -9.69942324377018
      ],
      [
        "▁выбрать",
        -9.700496782008955
      ],
      [
        "▁предложения",
        -9.700521251921218
      ],
      [
        "▁Инструмент",
        -9.701864836405665
      ],
      [
        "▁Ли",
        -9.706313757873245
      ],
      [
        "▁характер",
        -9.706927340333968
      ],
      [
        "▁органов",
        -9.708465805037735
      ],
      [
        "▁мои",
        -9.708896142342061
      ],
      [
        "▁Серби",
        -9.709834085225994
      ],
      [
        "et",
        -9.712448674172036
      ],
      [
        "записи",
        -9.713135330149957
      ],
      [
        "▁метод",
        -9.715364134443753
      ],
      [
        "▁Масло",
        -9.7153785199747
      ],
      [
        "сон",
        -9.71598964746602
      ],
      [
        "чень",
        -9.71689129995914
      ],
      [
        "▁мероприятия",
        -9.717250322452529
      ],
      [
        "▁Сан",
        -9.718835950063864
      ],
      [
        "▁конечно",
        -9.719697819728317
      ],
      [
        "рабочих",
        -9.719698547162826
      ],
      [
        "▁моря",
        -9.720654313909375
      ],
      [
        "▁события",
        -9.721158441166814
      ],
      [
        "▁сделал",
        -9.721763047457186
      ],
      [
        "Y",
        -9.721923621320771
      ],
      [
        "аль",
        -9.722337766115697
      ],
      [
        "▁станет",
        -9.722882731044717
      ],
      [
        "близи",
        -9.72317394893454
      ],
      [
        "ed",
        -9.723266734484405
      ],
      [
        "экономического",
        -9.724077458529548
      ],
      [
        "данном",
        -9.724270839101793
      ],
      [
        "▁весь",
        -9.724435580425991
      ],
      [
        "ющий",
        -9.724737293111529
      ],
      [
        "▁второй",
        -9.724751783584734
      ],
      [
        "ShemaleTube",
        -9.725722083014194
      ],
      [
        "▁системе",
        -9.726110613050585
      ],
      [
        "▁резолюци",
        -9.72728410818031
      ],
      [
        "▁известно",
        -9.728026331822665
      ],
      [
        "▁региона",
        -9.728343791443317
      ],
      [
        "▁Ни",
        -9.728564034463922
      ],
      [
        "цены",
        -9.729604491485278
      ],
      [
        "ись",
        -9.730106530459011
      ],
      [
        "подробную",
        -9.730561553339145
      ],
      [
        "▁З",
        -9.732048077468185
      ],
      [
        "\n",
        -9.733131111608417
      ],
      [
        "▁крайне",
        -9.733502876923094
      ],
      [
        "▁стало",
        -9.734126570448412
      ],
      [
        "ское",
        -9.734626839232572
      ],
      [
        "▁предприятий",
        -9.73524507828588
      ],
      [
        "мимо",
        -9.736517716882812
      ],
      [
        "ете",
        -9.736684562217844
      ],
      [
        "целей",
        -9.73755814108651
      ],
      [
        "Почему",
        -9.737684000203599
      ],
      [
        "▁касается",
        -9.738577194296148
      ],
      [
        "▁явля",
        -9.738651527397472
      ],
      [
        "▁встреча",
        -9.740104695060293
      ],
      [
        "▁президент",
        -9.740735565012233
      ],
      [
        "▁достижения",
        -9.74141123309838
      ],
      [
        "▁сайт",
        -9.74141408112672
      ],
      [
        "▁непосредственно",
        -9.741929975084988
      ],
      [
        "ше",
        -9.741982010079377
      ],
      [
        "▁U",
        -9.742191975107348
      ],
      [
        "▁очередь",
        -9.74250822495916
      ],
      [
        "▁питания",
        -9.742555141543475
      ],
      [
        "▁состоянии",
        -9.74310082021993
      ],
      [
        "конец",
        -9.74355879885809
      ],
      [
        "▁РФ",
        -9.746158801618629
      ],
      [
        "ногда",
        -9.747108005241005
      ],
      [
        "▁автоматически",
        -9.747236518797743
      ],
      [
        "стер",
        -9.748099065034726
      ],
      [
        "частью",
        -9.749570525221374
      ],
      [
        "▁неверно",
        -9.749841605279148
      ],
      [
        "▁тела",
        -9.749900569854358
      ],
      [
        "ющего",
        -9.751232895523321
      ],
      [
        "ости",
        -9.751442009250097
      ],
      [
        "▁сама",
        -9.751783418737345
      ],
      [
        "▁документ",
        -9.751832374298376
      ],
      [
        "▁функции",
        -9.752125267887472
      ],
      [
        "данной",
        -9.75514101129519
      ],
      [
        "усилия",
        -9.755213337510341
      ],
      [
        "▁комплекс",
        -9.755516094512597
      ],
      [
        "▁управление",
        -9.756088749431413
      ],
      [
        "ваших",
        -9.756596197132918
      ],
      [
        "▁раза",
        -9.756743438408408
      ],
      [
        "▁фотографии",
        -9.756868698191651
      ],
      [
        "Ч",
        -9.756890072963227
      ],
      [
        "▁глаза",
        -9.758870361865599
      ],
      [
        "▁бассейн",
        -9.759891871517173
      ],
      [
        "ент",
        -9.760155609623869
      ],
      [
        "кого",
        -9.760368930497668
      ],
      [
        "▁конференции",
        -9.760456956016592
      ],
      [
        "рез",
        -9.760462978891804
      ],
      [
        "▁Отель",
        -9.763044754865486
      ],
      [
        "стро",
        -9.763258505866704
      ],
      [
        "какие",
        -9.763704520877333
      ],
      [
        "▁университета",
        -9.76404683125234
      ],
      [
        "порядке",
        -9.764294894565241
      ],
      [
        "центр",
        -9.764400674944651
      ],
      [
        "▁немного",
        -9.764898756813208
      ],
      [
        "an",
        -9.765442512885603
      ],
      [
        "▁обучения",
        -9.765464588395568
      ],
      [
        "▁исследований",
        -9.76572403941351
      ],
      [
        "скую",
        -9.768861687815857
      ],
      [
        "ста",
        -9.76927521891429
      ],
      [
        "▁механизм",
        -9.769717518820684
      ],
      [
        "▁высоко",
        -9.770351358534082
      ],
      [
        "▁вопросов",
        -9.770465612649344
      ],
      [
        "Сейчас",
        -9.771737898382117
      ],
      [
        "▁электронной",
        -9.773191044618493
      ],
      [
        "▁правила",
        -9.773617446038177
      ],
      [
        "фа",
        -9.773688065017616
      ],
      [
        "▁принадлежности",
        -9.774587233805098
      ],
      [
        "▁текст",
        -9.775520933662731
      ],
      [
        "другом",
        -9.776311252993736
      ],
      [
        "Есть",
        -9.77652251573627
      ],
      [
        "▁пакет",
        -9.777010535498407
      ],
      [
        "▁ране",
        -9.777559312376686
      ],
      [
        "O",
        -9.778617589180163
      ],
      [
        "u",
        -9.779783032464898
      ],
      [
        "▁Вас",
        -9.780026341700344
      ],
      [
        "▁особо",
        -9.780366732829695
      ],
      [
        "le",
        -9.781392037806146
      ],
      [
        "▁договор",
        -9.781856120241326
      ],
      [
        "▁воздух",
        -9.782322290034914
      ],
      [
        "▁земле",
        -9.782352759661908
      ],
      [
        "▁требования",
        -9.782700599945162
      ],
      [
        "лад",
        -9.784712370995038
      ],
      [
        "выполнения",
        -9.785201412160898
      ],
      [
        "▁отношений",
        -9.787557045970487
      ],
      [
        "▁Казахстана",
        -9.787633417179142
      ],
      [
        "каждом",
        -9.788551419874945
      ],
      [
        "▁успешно",
        -9.788642633762116
      ],
      [
        "▁Центр",
        -9.791178351096402
      ],
      [
        "бесплатный",
        -9.791367624431187
      ],
      [
        "овый",
        -9.791726808173287
      ],
      [
        "Украина",
        -9.79183688417579
      ],
      [
        "▁принял",
        -9.792983293881525
      ],
      [
        "йтесь",
        -9.793094762445119
      ],
      [
        "ьте",
        -9.793281653119424
      ],
      [
        "▁устройств",
        -9.793475628414512
      ],
      [
        "ден",
        -9.793864662386193
      ],
      [
        "▁сильно",
        -9.79419365581358
      ],
      [
        "▁соло",
        -9.79460682052274
      ],
      [
        "▁адрес",
        -9.794628699244088
      ],
      [
        "выборов",
        -9.794755826191052
      ],
      [
        "▁сами",
        -9.796135975185255
      ],
      [
        "▁мало",
        -9.796450363584787
      ],
      [
        "▁ситуаци",
        -9.797263337830707
      ],
      [
        "▁вероятно",
        -9.79875798701206
      ],
      [
        "▁века",
        -9.798982606671299
      ],
      [
        "ение",
        -9.801068149707538
      ],
      [
        "▁сбор",
        -9.801810908837059
      ],
      [
        "кон",
        -9.801834888975803
      ],
      [
        "▁долго",
        -9.802130947613284
      ],
      [
        "Хотя",
        -9.803429197278236
      ],
      [
        "▁РК",
        -9.805456670768736
      ],
      [
        "▁начина",
        -9.80602249783587
      ],
      [
        "первого",
        -9.806407520585356
      ],
      [
        "что",
        -9.80676594398333
      ],
      [
        "▁профессионально",
        -9.807216704640371
      ],
      [
        "ген",
        -9.808141140361474
      ],
      [
        "▁государственно",
        -9.808610715299237
      ],
      [
        "▁стала",
        -9.810182055485758
      ],
      [
        "▁канал",
        -9.810536569316287
      ],
      [
        "сразу",
        -9.813330672192631
      ],
      [
        "емых",
        -9.813426965898794
      ],
      [
        "сколько",
        -9.813837109231097
      ],
      [
        "▁Га",
        -9.814431217793347
      ],
      [
        "▁машин",
        -9.815258506448862
      ],
      [
        "▁сердце",
        -9.815677908718627
      ],
      [
        "▁самого",
        -9.815963237517389
      ],
      [
        "ia",
        -9.81599531544635
      ],
      [
        "▁объектов",
        -9.816419589319732
      ],
      [
        "▁нему",
        -9.816822435835592
      ],
      [
        "тесь",
        -9.817177528076787
      ],
      [
        "требуется",
        -9.818040186300957
      ],
      [
        "Дилдо",
        -9.81814225997502
      ],
      [
        "бор",
        -9.818768657743238
      ],
      [
        "овать",
        -9.820279697208074
      ],
      [
        "окружающей",
        -9.820993291181672
      ],
      [
        "др",
        -9.821292795158872
      ],
      [
        "▁выход",
        -9.822784478812142
      ],
      [
        "▁искусства",
        -9.823618113256323
      ],
      [
        "▁одном",
        -9.823924408193452
      ],
      [
        "▁языка",
        -9.824909385209184
      ],
      [
        "первой",
        -9.826235317356888
      ],
      [
        "форматы",
        -9.82705971594119
      ],
      [
        "J",
        -9.827188831137597
      ],
      [
        "▁обработки",
        -9.82759064122693
      ],
      [
        "▁надо",
        -9.828718871686032
      ],
      [
        "будем",
        -9.828830341514438
      ],
      [
        "▁разделе",
        -9.828962121515552
      ],
      [
        "ски",
        -9.829021506824795
      ],
      [
        "условий",
        -9.829135926507945
      ],
      [
        "каждой",
        -9.829141746829347
      ],
      [
        "▁бес",
        -9.829573745511487
      ],
      [
        "▁внешне",
        -9.830186832763143
      ],
      [
        "▁народа",
        -9.830663254618514
      ],
      [
        "▁интерес",
        -9.83379623744624
      ],
      [
        "це",
        -9.833882344172679
      ],
      [
        "▁вклад",
        -9.835163917962682
      ],
      [
        "▁слово",
        -9.835392433628492
      ],
      [
        "▁компьютера",
        -9.835915810575901
      ],
      [
        "▁обслуживания",
        -9.83597736849528
      ],
      [
        "▁мероприятий",
        -9.83693770402477
      ],
      [
        "Более",
        -9.837201282260502
      ],
      [
        "▁самое",
        -9.837419585370847
      ],
      [
        "▁сотрудников",
        -9.837491401703973
      ],
      [
        "▁маленьки",
        -9.8381350239245
      ],
      [
        "▁сотрудничеств",
        -9.838741001030156
      ],
      [
        "▁документов",
        -9.838817454209089
      ],
      [
        "▁поиск",
        -9.83892180985258
      ],
      [
        "▁Те",
        -9.839668015220035
      ],
      [
        "например",
        -9.839716159915632
      ],
      [
        "▁Manager",
        -9.839757630725517
      ],
      [
        "TM",
        -9.840276740931985
      ],
      [
        "▁Благодаря",
        -9.841408908778375
      ],
      [
        "▁своими",
        -9.841807261346114
      ],
      [
        "любого",
        -9.842179508677237
      ],
      [
        "данного",
        -9.842238103038971
      ],
      [
        "▁переговор",
        -9.844305399056458
      ],
      [
        "етесь",
        -9.844452791639759
      ],
      [
        "▁производство",
        -9.845447127870232
      ],
      [
        "партии",
        -9.846233248109337
      ],
      [
        "основном",
        -9.847027013416064
      ],
      [
        "▁требованиям",
        -9.848867657709539
      ],
      [
        "ают",
        -9.84899980685362
      ],
      [
        "▁максимально",
        -9.850612304468566
      ],
      [
        "▁Наш",
        -9.851134886476462
      ],
      [
        "▁пара",
        -9.851149018264962
      ],
      [
        "▁информационно",
        -9.851689420288128
      ],
      [
        "▁готовы",
        -9.852571463575439
      ],
      [
        "▁офис",
        -9.85282558416219
      ],
      [
        "▁вес",
        -9.85287886794009
      ],
      [
        "▁банка",
        -9.852916569160351
      ],
      [
        "▁транс",
        -9.852960264028113
      ],
      [
        "ситуации",
        -9.852979247981157
      ],
      [
        "рат",
        -9.854487189882269
      ],
      [
        "одну",
        -9.854766112642778
      ],
      [
        "▁дизайн",
        -9.855114623026896
      ],
      [
        "▁открытия",
        -9.85543430475965
      ],
      [
        "ации",
        -9.855519967152317
      ],
      [
        "▁Ба",
        -9.856364520807656
      ],
      [
        "▁видов",
        -9.856797388291838
      ],
      [
        "▁курс",
        -9.858798224893242
      ],
      [
        "оценки",
        -9.858844705923168
      ],
      [
        "соответствующим",
        -9.858932433653761
      ],
      [
        "ющихся",
        -9.859232187904498
      ],
      [
        "бы",
        -9.859653993289362
      ],
      [
        "▁цель",
        -9.860502180748675
      ],
      [
        "▁ошибк",
        -9.861119650639438
      ],
      [
        "▁труд",
        -9.862240878329944
      ],
      [
        "ge",
        -9.862741289811272
      ],
      [
        "▁получил",
        -9.864354820403083
      ],
      [
        "▁собира",
        -9.864430807681602
      ],
      [
        "▁здоровья",
        -9.864431171091393
      ],
      [
        "▁вокруг",
        -9.864539198095637
      ],
      [
        "▁четыре",
        -9.866812508557903
      ],
      [
        "▁сообщени",
        -9.86756523590217
      ],
      [
        "▁клиента",
        -9.867716467086575
      ],
      [
        "Мастурбация",
        -9.867755779411306
      ],
      [
        "тащите",
        -9.86903692632079
      ],
      [
        "▁равно",
        -9.869753957180778
      ],
      [
        "чен",
        -9.872218953143612
      ],
      [
        "▁результатов",
        -9.872378294993712
      ],
      [
        "начале",
        -9.872914338430617
      ],
      [
        "▁использованием",
        -9.873024016033
      ],
      [
        "▁первом",
        -9.8734485634781
      ],
      [
        "▁ответственность",
        -9.874578811866382
      ],
      [
        "Ж",
        -9.874708534629997
      ],
      [
        "▁отчет",
        -9.875303307757132
      ],
      [
        "▁анти",
        -9.875407212847572
      ],
      [
        "▁работник",
        -9.876755498086771
      ],
      [
        "участия",
        -9.876855937236606
      ],
      [
        "▁бонус",
        -9.878516008314307
      ],
      [
        "▁семьи",
        -9.878558636942502
      ],
      [
        "▁промышленности",
        -9.879089064616213
      ],
      [
        "▁руки",
        -9.879360923530356
      ],
      [
        "▁девушка",
        -9.879774346916346
      ],
      [
        "прав",
        -9.88135213375377
      ],
      [
        "▁Центра",
        -9.881941100110105
      ],
      [
        "следующих",
        -9.882341104281977
      ],
      [
        "Тогда",
        -9.882832208957797
      ],
      [
        "торговли",
        -9.883172219173401
      ],
      [
        "▁точка",
        -9.883343484004019
      ],
      [
        "is",
        -9.883427230521482
      ],
      [
        "▁вечер",
        -9.88382441700714
      ],
      [
        "ников",
        -9.883971261472626
      ],
      [
        "▁продукты",
        -9.884063376175346
      ],
      [
        "Каждый",
        -9.884291385220692
      ],
      [
        "▁Европе",
        -9.884970540955377
      ],
      [
        "ющей",
        -9.885329240356938
      ],
      [
        "тра",
        -9.885586100549657
      ],
      [
        "овым",
        -9.885636572821442
      ],
      [
        "▁занима",
        -9.88639150041911
      ],
      [
        "▁одновременно",
        -9.886885422001766
      ],
      [
        "стан",
        -9.886999774815564
      ],
      [
        "▁контроль",
        -9.887646173786099
      ],
      [
        "кажется",
        -9.887925814750721
      ],
      [
        "степени",
        -9.888175517665893
      ],
      [
        "▁Размер",
        -9.888245373794678
      ],
      [
        "▁обновления",
        -9.888877331604835
      ],
      [
        "ряд",
        -9.889102410183343
      ],
      [
        "первых",
        -9.88986635168937
      ],
      [
        "▁любом",
        -9.890470279823445
      ],
      [
        "▁представителей",
        -9.89098409262705
      ],
      [
        "▁международной",
        -9.891117693883679
      ],
      [
        "общей",
        -9.891147596342847
      ],
      [
        "ирования",
        -9.891250303878477
      ],
      [
        "▁кроме",
        -9.891377213727754
      ],
      [
        "▁земли",
        -9.891724037087974
      ],
      [
        "Латвии",
        -9.891999448453154
      ],
      [
        "▁движения",
        -9.892497943605035
      ],
      [
        "▁реформ",
        -9.89255196288127
      ],
      [
        "▁сессии",
        -9.893851309087628
      ],
      [
        "▁Ю",
        -9.893874548582055
      ],
      [
        "or",
        -9.894135168293545
      ],
      [
        "▁заказ",
        -9.89428690776532
      ],
      [
        "▁усили",
        -9.894759708149312
      ],
      [
        "▁Ази",
        -9.894886082793919
      ],
      [
        "▁использовании",
        -9.894919423881946
      ],
      [
        "правило",
        -9.895465994424526
      ],
      [
        "▁продукт",
        -9.895957474552835
      ],
      [
        "вшись",
        -9.896020127465519
      ],
      [
        "▁примерно",
        -9.896553195991695
      ],
      [
        "▁Инди",
        -9.896736425502692
      ],
      [
        "▁приходит",
        -9.897587044137232
      ],
      [
        "▁версии",
        -9.897588009579326
      ],
      [
        "ому",
        -9.897771083457101
      ],
      [
        "▁Александр",
        -9.899635177157581
      ],
      [
        "▁форме",
        -9.899987644680488
      ],
      [
        "▁риск",
        -9.900559187726483
      ],
      [
        "▁общего",
        -9.900853155577707
      ],
      [
        "▁структур",
        -9.901074073296817
      ],
      [
        "ad",
        -9.902032613645089
      ],
      [
        "Согласно",
        -9.9022075206209
      ],
      [
        "сможете",
        -9.90313174044998
      ],
      [
        "▁повышения",
        -9.90333884339045
      ],
      [
        "рынок",
        -9.903416728898694
      ],
      [
        "▁радио",
        -9.903969320167898
      ],
      [
        "бар",
        -9.907500470512447
      ],
      [
        "Fi",
        -9.907802687075032
      ],
      [
        "▁набор",
        -9.907877503134959
      ],
      [
        "▁Па",
        -9.90804462776241
      ],
      [
        "бер",
        -9.908732866804975
      ],
      [
        "▁IP",
        -9.908941993218331
      ],
      [
        "▁влияние",
        -9.908972722815667
      ],
      [
        "пре",
        -9.90938025674299
      ],
      [
        "здания",
        -9.909898038180613
      ],
      [
        "данный",
        -9.91119538644205
      ],
      [
        "▁быстры",
        -9.911300782608116
      ],
      [
        "▁предмет",
        -9.911567886184244
      ],
      [
        "▁Штат",
        -9.913028943558352
      ],
      [
        "смерти",
        -9.91343761327293
      ],
      [
        "es",
        -9.914072355766821
      ],
      [
        "▁комиссии",
        -9.914182697106412
      ],
      [
        "st",
        -9.915165144012882
      ],
      [
        "ским",
        -9.915734569504137
      ],
      [
        "всему",
        -9.916462972691274
      ],
      [
        "По",
        -9.916972378017189
      ],
      [
        "▁Отдых",
        -9.917082604599566
      ],
      [
        "▁ресторан",
        -9.91716921890842
      ],
      [
        "кал",
        -9.917702115766586
      ],
      [
        "▁просмотра",
        -9.917769808640326
      ],
      [
        "▁Самы",
        -9.918713099564755
      ],
      [
        "▁Рас",
        -9.919570222808225
      ],
      [
        "▁успех",
        -9.920968272960149
      ],
      [
        "ата",
        -9.92143623379657
      ],
      [
        "▁думаю",
        -9.92257989203865
      ],
      [
        "ирование",
        -9.922906343209155
      ],
      [
        "▁считает",
        -9.922983155490027
      ],
      [
        "▁президента",
        -9.923257353722674
      ],
      [
        "вновь",
        -9.923569595039275
      ],
      [
        "вин",
        -9.923650444345173
      ],
      [
        "виду",
        -9.924124004460474
      ],
      [
        "На",
        -9.92417877530485
      ],
      [
        "далее",
        -9.924514292327716
      ],
      [
        "высокой",
        -9.924600509446412
      ],
      [
        "лечения",
        -9.925315522643194
      ],
      [
        "учетом",
        -9.927158379135838
      ],
      [
        "▁проблема",
        -9.930161058602515
      ],
      [
        "▁Ц",
        -9.93027207686447
      ],
      [
        "рен",
        -9.930612540055124
      ],
      [
        "▁состояние",
        -9.930978851243932
      ],
      [
        "самый",
        -9.931283939418252
      ],
      [
        "▁СМИ",
        -9.931729489757466
      ],
      [
        "▁самые",
        -9.931921716636536
      ],
      [
        "смотря",
        -9.932061371503243
      ],
      [
        "▁поверхност",
        -9.932194003499799
      ],
      [
        "▁дополнительно",
        -9.932509137438647
      ],
      [
        "увидеть",
        -9.933182393178049
      ],
      [
        "▁говорить",
        -9.93341987144704
      ],
      [
        "▁сборник",
        -9.934125907578132
      ],
      [
        "передачи",
        -9.934401773317061
      ],
      [
        "▁Кор",
        -9.93481426404343
      ],
      [
        "▁Комитет",
        -9.934915825577752
      ],
      [
        "▁Германии",
        -9.935442190970056
      ],
      [
        "Погода",
        -9.937510932216608
      ],
      [
        "знания",
        -9.937764565189093
      ],
      [
        "I",
        -9.937871618452418
      ],
      [
        "▁необходимость",
        -9.938586589191445
      ],
      [
        "▁провел",
        -9.938944128474327
      ],
      [
        "▁этаже",
        -9.939567485805481
      ],
      [
        "▁представители",
        -9.940121055683278
      ],
      [
        "окне",
        -9.940533759895846
      ],
      [
        "▁языке",
        -9.941481060486582
      ],
      [
        "▁знать",
        -9.942246457120635
      ],
      [
        "людьми",
        -9.942502598742825
      ],
      [
        "▁формы",
        -9.942858981801212
      ],
      [
        "▁идет",
        -9.943374772302688
      ],
      [
        "▁тыс",
        -9.943617894342006
      ],
      [
        "it",
        -9.9437641054913
      ],
      [
        "as",
        -9.943975763580918
      ],
      [
        "▁рыб",
        -9.944369090368864
      ],
      [
        "вар",
        -9.944613191590667
      ],
      [
        "†",
        -9.946132725241664
      ],
      [
        "▁Ха",
        -9.94799448042678
      ],
      [
        "▁запрос",
        -9.949107352852893
      ],
      [
        "▁значит",
        -9.949236006293324
      ],
      [
        "лицо",
        -9.949868915272312
      ],
      [
        "▁сервера",
        -9.950003298154039
      ],
      [
        "ход",
        -9.950356974916456
      ],
      [
        "▁позволит",
        -9.950658350499177
      ],
      [
        "▁Wi",
        -9.95154750322899
      ],
      [
        "▁Раз",
        -9.95235878153893
      ],
      [
        "мнению",
        -9.952590764210413
      ],
      [
        "▁требует",
        -9.955279439695532
      ],
      [
        "▁протяжении",
        -9.95533137881031
      ],
      [
        "род",
        -9.955610837982041
      ],
      [
        "лов",
        -9.956276329299476
      ],
      [
        "▁Киев",
        -9.956865396933487
      ],
      [
        "▁Конвенции",
        -9.956965009557907
      ],
      [
        "▁душ",
        -9.957043870477994
      ],
      [
        "ось",
        -9.957425627021445
      ],
      [
        "▁открыто",
        -9.957575722288894
      ],
      [
        "Москва",
        -9.957994308199103
      ],
      [
        "▁изменений",
        -9.958021719028839
      ],
      [
        "основные",
        -9.958232594851449
      ],
      [
        "цена",
        -9.959572406068176
      ],
      [
        "▁всеми",
        -9.95960396160958
      ],
      [
        "▁категории",
        -9.959614240783836
      ],
      [
        "▁возможностей",
        -9.961496058332965
      ],
      [
        "org",
        -9.96246454854798
      ],
      [
        "▁пяти",
        -9.963502521656524
      ],
      [
        "▁Ар",
        -9.963526479399262
      ],
      [
        "смогли",
        -9.96444149939106
      ],
      [
        "▁миллионов",
        -9.964510941246528
      ],
      [
        "▁финансово",
        -9.964989395858582
      ],
      [
        "школы",
        -9.96527089361353
      ],
      [
        "заключается",
        -9.965658039594564
      ],
      [
        "▁значения",
        -9.965996995662332
      ],
      [
        "▁правильно",
        -9.966189103963556
      ],
      [
        "▁строительства",
        -9.96705318773719
      ],
      [
        "ско",
        -9.969101646977979
      ],
      [
        "▁водо",
        -9.969443023583027
      ],
      [
        "▁сфер",
        -9.97023539835855
      ],
      [
        "связанных",
        -9.970451057829187
      ],
      [
        "▁Был",
        -9.970682911596969
      ],
      [
        "тар",
        -9.970854211242846
      ],
      [
        "▁эффективно",
        -9.970995309122392
      ],
      [
        "▁прогресс",
        -9.971138952141121
      ],
      [
        "▁тонн",
        -9.971189215528492
      ],
      [
        "ra",
        -9.971626967264788
      ],
      [
        "рет",
        -9.971945435463253
      ],
      [
        "▁норм",
        -9.972015453350155
      ],
      [
        "ющиеся",
        -9.972823416324152
      ],
      [
        "▁Ро",
        -9.972851563251456
      ],
      [
        "пл",
        -9.973118766513903
      ],
      [
        "▁буд",
        -9.973773501978783
      ],
      [
        "▁хочет",
        -9.974125043152089
      ],
      [
        "▁электро",
        -9.974919025759208
      ],
      [
        "▁Ка",
        -9.976219979875887
      ],
      [
        "▁закона",
        -9.97630185097612
      ],
      [
        "j",
        -9.977913509987083
      ],
      [
        "кро",
        -9.977941627958701
      ],
      [
        "шел",
        -9.978174982982498
      ],
      [
        "узнать",
        -9.97863696487958
      ],
      [
        "миру",
        -9.978710738054716
      ],
      [
        "▁Аллах",
        -9.979031860245865
      ],
      [
        "▁круг",
        -9.981976161629843
      ],
      [
        "▁комнат",
        -9.982509084000332
      ],
      [
        "государственных",
        -9.98298733217175
      ],
      [
        "▁Азербайджана",
        -9.983047470969693
      ],
      [
        "▁дух",
        -9.983236758870287
      ],
      [
        "▁положение",
        -9.983785629744885
      ],
      [
        "▁пост",
        -9.983953829410083
      ],
      [
        "ющая",
        -9.984530688368205
      ],
      [
        "чат",
        -9.984744383473052
      ],
      [
        "▁сезон",
        -9.984945383691521
      ],
      [
        "ятся",
        -9.985199758175057
      ],
      [
        "Москве",
        -9.985402816856286
      ],
      [
        "кар",
        -9.985535036027608
      ],
      [
        "тан",
        -9.985799434922763
      ],
      [
        "остается",
        -9.985833623942966
      ],
      [
        "▁цвета",
        -9.985836845049223
      ],
      [
        "ника",
        -9.98631435436625
      ],
      [
        "ибратор",
        -9.98757845055086
      ],
      [
        "▁нашем",
        -9.987594027809045
      ],
      [
        "▁будущем",
        -9.987726857470067
      ],
      [
        "страницу",
        -9.98789059914343
      ],
      [
        "▁туризм",
        -9.988992047535028
      ],
      [
        "жен",
        -9.989539613454436
      ],
      [
        "at",
        -9.989625610012718
      ],
      [
        "▁ведь",
        -9.989655885668569
      ],
      [
        "ur",
        -9.989854644397367
      ],
      [
        "Только",
        -9.990239676224453
      ],
      [
        "пар",
        -9.990651214612114
      ],
      [
        "▁показан",
        -9.990991333347344
      ],
      [
        "двумя",
        -9.991282059417099
      ],
      [
        "▁принимать",
        -9.991379104586068
      ],
      [
        "▁инициатив",
        -9.991983951606873
      ],
      [
        "▁суда",
        -9.99243255484678
      ],
      [
        "нельзя",
        -9.992482724110502
      ],
      [
        "▁Microsoft",
        -9.994085639556754
      ],
      [
        "▁меню",
        -9.995148727280615
      ],
      [
        "▁государственной",
        -9.995394372258682
      ],
      [
        "▁эффективности",
        -9.995660036461548
      ],
      [
        "▁состояния",
        -9.995902478551633
      ],
      [
        "ится",
        -9.995917657906503
      ],
      [
        "▁друга",
        -9.996171410608028
      ],
      [
        "▁посредством",
        -9.99624776603123
      ],
      [
        "▁подходит",
        -9.996453686986106
      ],
      [
        "зависит",
        -9.99946932936721
      ],
      [
        "ЮНЕСКО",
        -10.000130640378318
      ],
      [
        "▁раздел",
        -10.000961735317292
      ],
      [
        "▁духовно",
        -10.001149291933231
      ],
      [
        "▁детали",
        -10.001217893231876
      ],
      [
        "▁установлен",
        -10.003156724158348
      ],
      [
        "▁ваше",
        -10.003706720831111
      ],
      [
        "▁взгляд",
        -10.004601002562508
      ],
      [
        "ответственности",
        -10.004963499722518
      ],
      [
        "ишь",
        -10.0054518613649
      ],
      [
        "понять",
        -10.005768424046513
      ],
      [
        "▁Бар",
        -10.006290155261944
      ],
      [
        "▁здравоохранения",
        -10.006691266841058
      ],
      [
        "видом",
        -10.006741011715112
      ],
      [
        "ван",
        -10.006981698245173
      ],
      [
        "▁установить",
        -10.007150443156226
      ],
      [
        "воз",
        -10.00773197123769
      ],
      [
        "▁предложение",
        -10.008177553170542
      ],
      [
        "▁Затем",
        -10.009364989229407
      ],
      [
        "▁квартира",
        -10.009545336468042
      ],
      [
        "большое",
        -10.009902295908905
      ],
      [
        "▁товаров",
        -10.010104895543037
      ],
      [
        "▁Уже",
        -10.010298730236304
      ],
      [
        "ева",
        -10.01061772899048
      ],
      [
        "▁перв",
        -10.011428951012117
      ],
      [
        "▁министр",
        -10.01147457324298
      ],
      [
        "местных",
        -10.01162897528702
      ],
      [
        "▁вне",
        -10.011701534044551
      ],
      [
        "▁сторон",
        -10.011720881879642
      ],
      [
        "▁ассоциации",
        -10.012188297665784
      ],
      [
        "Tube",
        -10.01303632637014
      ],
      [
        "▁режиме",
        -10.013078328621127
      ],
      [
        "▁момента",
        -10.0132414367215
      ],
      [
        "▁рот",
        -10.013281055624889
      ],
      [
        "▁ситуация",
        -10.014402032798264
      ],
      [
        "уверены",
        -10.01586941770148
      ],
      [
        "▁пять",
        -10.01645159630418
      ],
      [
        "▁совета",
        -10.017121746384426
      ],
      [
        "вед",
        -10.017807482888598
      ],
      [
        "▁довольно",
        -10.019175723407743
      ],
      [
        "▁экран",
        -10.019333560988255
      ],
      [
        "▁гости",
        -10.019553561322217
      ],
      [
        "Новый",
        -10.020072576323313
      ],
      [
        "встречи",
        -10.020103052419854
      ],
      [
        "вших",
        -10.020332559147162
      ],
      [
        "хранения",
        -10.020656409442173
      ],
      [
        "▁дни",
        -10.021644969805834
      ],
      [
        "ками",
        -10.022502988943305
      ],
      [
        "▁отель",
        -10.023975013540655
      ],
      [
        "▁Configuration",
        -10.025323908758384
      ],
      [
        "▁Ло",
        -10.025869930755322
      ],
      [
        "▁обслуживание",
        -10.026688123069226
      ],
      [
        "▁комнаты",
        -10.02718396645148
      ],
      [
        "▁руководство",
        -10.02758864003421
      ],
      [
        "▁День",
        -10.028411831802357
      ],
      [
        "мат",
        -10.028452345776142
      ],
      [
        "▁побед",
        -10.028821846033681
      ],
      [
        "▁масс",
        -10.02941598214446
      ],
      [
        "▁серии",
        -10.02942594045233
      ],
      [
        "▁памяти",
        -10.03000228239299
      ],
      [
        "▁предоставляет",
        -10.030232334615956
      ],
      [
        "▁событий",
        -10.030357129087228
      ],
      [
        "▁поддержке",
        -10.031588861706144
      ],
      [
        "▁кончил",
        -10.031855605058388
      ],
      [
        "порт",
        -10.032095317400378
      ],
      [
        "®",
        -10.032682393950056
      ],
      [
        "подготовки",
        -10.032934431529165
      ],
      [
        "сообщение",
        -10.03471976778478
      ],
      [
        "международным",
        -10.035403472240871
      ],
      [
        "▁знает",
        -10.035862763911199
      ],
      [
        "Время",
        -10.03736943965669
      ],
      [
        "▁Цвет",
        -10.037395605291659
      ],
      [
        "▁Может",
        -10.0374636209113
      ],
      [
        "лучшие",
        -10.037760400487118
      ],
      [
        "менить",
        -10.037852868223975
      ],
      [
        "z",
        -10.038953657537222
      ],
      [
        "▁площадь",
        -10.040257525820639
      ],
      [
        "▁кон",
        -10.040488519865544
      ],
      [
        "▁воз",
        -10.040501206442222
      ],
      [
        "Пожалуйст",
        -10.0406176342526
      ],
      [
        "▁благо",
        -10.041104685381253
      ],
      [
        "▁аэропорт",
        -10.041450076665091
      ],
      [
        "▁размере",
        -10.041914034524645
      ],
      [
        "вид",
        -10.042430556934752
      ],
      [
        "▁небо",
        -10.042462280067465
      ],
      [
        "регионе",
        -10.043094009254878
      ],
      [
        "▁специалистов",
        -10.043168746924106
      ],
      [
        "услугам",
        -10.043186771157425
      ],
      [
        "▁обязательно",
        -10.043313692723446
      ],
      [
        "▁чат",
        -10.044354199692865
      ],
      [
        "▁дене",
        -10.044506756695965
      ],
      [
        "▁видел",
        -10.044710193755018
      ],
      [
        "▁Путин",
        -10.04488028689539
      ],
      [
        "▁команды",
        -10.045493846392407
      ],
      [
        "▁принимает",
        -10.045908791987728
      ],
      [
        "овое",
        -10.046196074642562
      ],
      [
        "▁код",
        -10.047281001400751
      ],
      [
        "открывается",
        -10.048033740222465
      ],
      [
        "▁потом",
        -10.048302051597851
      ],
      [
        "▁сотрудничество",
        -10.048462132694617
      ],
      [
        "▁вывод",
        -10.048754832323993
      ],
      [
        "▁процентов",
        -10.049236170195584
      ],
      [
        "▁Владимир",
        -10.049448645512564
      ],
      [
        "▁никаки",
        -10.05068739991474
      ],
      [
        "знаете",
        -10.05091261815237
      ],
      [
        "▁создан",
        -10.050957724908804
      ],
      [
        "▁компоненты",
        -10.051264274924064
      ],
      [
        "стра",
        -10.052881722417405
      ],
      [
        "▁остров",
        -10.053334136762762
      ],
      [
        "▁голос",
        -10.053660209335327
      ],
      [
        "▁Многи",
        -10.053709092952587
      ],
      [
        "▁физическо",
        -10.054090565301713
      ],
      [
        "получает",
        -10.054320467938467
      ],
      [
        "▁шаг",
        -10.055532384633462
      ],
      [
        "ребенка",
        -10.05566400589219
      ],
      [
        "емые",
        -10.055783848393364
      ],
      [
        "разработки",
        -10.055790060573452
      ],
      [
        "базы",
        -10.055885662327622
      ],
      [
        "рек",
        -10.055968867733261
      ],
      [
        "▁Де",
        -10.056651804463261
      ],
      [
        "▁низки",
        -10.057056771085275
      ],
      [
        "▁внимани",
        -10.05786315871521
      ],
      [
        "▁обмен",
        -10.057874695956263
      ],
      [
        "отрасли",
        -10.058038966444075
      ],
      [
        "потребуется",
        -10.058135041775952
      ],
      [
        "▁стреми",
        -10.05845196833542
      ],
      [
        "▁планет",
        -10.058518745237794
      ],
      [
        "▁другое",
        -10.059382775466325
      ],
      [
        "Продажа",
        -10.060651704846347
      ],
      [
        "вместо",
        -10.060898326000776
      ],
      [
        "▁версия",
        -10.061931779480323
      ],
      [
        "▁этап",
        -10.062749735919004
      ],
      [
        "▁Господа",
        -10.062811224031257
      ],
      [
        "рам",
        -10.063367156217511
      ],
      [
        "▁студентов",
        -10.063735748319434
      ],
      [
        "▁метров",
        -10.063742893686175
      ],
      [
        "фе",
        -10.064016960465894
      ],
      [
        "▁вещи",
        -10.064425282441547
      ],
      [
        "▁совет",
        -10.065468559906853
      ],
      [
        "▁операции",
        -10.067488761963336
      ],
      [
        "чь",
        -10.067513823355068
      ],
      [
        "▁имел",
        -10.068059018866489
      ],
      [
        "▁Ваше",
        -10.068228042536987
      ],
      [
        "национальных",
        -10.06864547336515
      ],
      [
        "▁каким",
        -10.068869303783448
      ],
      [
        "▁Ку",
        -10.069757025624645
      ],
      [
        "числа",
        -10.070568752103757
      ],
      [
        "енных",
        -10.071137939621206
      ],
      [
        "▁эксплуатации",
        -10.071143599878342
      ],
      [
        "ган",
        -10.071215064128907
      ],
      [
        "▁политических",
        -10.071703980214298
      ],
      [
        "▁инвестиций",
        -10.071730806220186
      ],
      [
        "статьи",
        -10.07231671560764
      ],
      [
        "ставить",
        -10.072628613966822
      ],
      [
        "▁применение",
        -10.072749015181628
      ],
      [
        "▁эффект",
        -10.07339714703758
      ],
      [
        "▁дети",
        -10.07376326444794
      ],
      [
        "▁широко",
        -10.074602992162164
      ],
      [
        "▁включен",
        -10.074819921433773
      ],
      [
        "Ц",
        -10.077194752977316
      ],
      [
        "▁подобно",
        -10.07726822545302
      ],
      [
        "▁Pro",
        -10.078034845577152
      ],
      [
        "процессе",
        -10.078074825382085
      ],
      [
        "лучших",
        -10.078218871522829
      ],
      [
        "▁поиска",
        -10.078695712233285
      ],
      [
        "▁газа",
        -10.07888364502135
      ],
      [
        "видеть",
        -10.079400373349545
      ],
      [
        "альная",
        -10.07989426209683
      ],
      [
        "▁новым",
        -10.079965455569127
      ],
      [
        "новое",
        -10.08023549529706
      ],
      [
        "пр",
        -10.080342438913537
      ],
      [
        "прежнему",
        -10.080399378327071
      ],
      [
        "мент",
        -10.080771713562367
      ],
      [
        "гораздо",
        -10.082105625503669
      ],
      [
        "акции",
        -10.082485740565216
      ],
      [
        "национальной",
        -10.082733135429757
      ],
      [
        "говорят",
        -10.0829725108441
      ],
      [
        "рода",
        -10.083622198066047
      ],
      [
        "сайт",
        -10.083799705916007
      ],
      [
        "▁авто",
        -10.08402560030899
      ],
      [
        "▁нужда",
        -10.08458161141686
      ],
      [
        "енная",
        -10.086827094207948
      ],
      [
        "▁совсе",
        -10.086848877333932
      ],
      [
        "▁Google",
        -10.087134620681518
      ],
      [
        "co",
        -10.087380650392685
      ],
      [
        "▁проверки",
        -10.087526914210223
      ],
      [
        "воду",
        -10.087549889239549
      ],
      [
        "эн",
        -10.088226050844483
      ],
      [
        "▁едино",
        -10.088811753392108
      ],
      [
        "▁Нью",
        -10.088991191281115
      ],
      [
        "▁прием",
        -10.089024996277807
      ],
      [
        "U",
        -10.089036044402814
      ],
      [
        "▁Новости",
        -10.089261274921762
      ],
      [
        "▁подготовк",
        -10.089425674654889
      ],
      [
        "новую",
        -10.089619965987168
      ],
      [
        "▁открывает",
        -10.089749695558153
      ],
      [
        "▁Мехри",
        -10.08983988389117
      ],
      [
        "финансовых",
        -10.08984973557706
      ],
      [
        "никто",
        -10.089934777568748
      ],
      [
        "соответствующих",
        -10.09002016539223
      ],
      [
        "принятия",
        -10.090674041356957
      ],
      [
        "▁экономических",
        -10.090887968092686
      ],
      [
        "▁Именн",
        -10.09189962943776
      ],
      [
        "▁строительство",
        -10.09202025608035
      ],
      [
        "▁обеспечени",
        -10.092047991121555
      ],
      [
        "▁Други",
        -10.092733832825807
      ],
      [
        "▁жена",
        -10.092962657370338
      ],
      [
        "автомобилей",
        -10.093396211167697
      ],
      [
        "▁независимо",
        -10.093890084764583
      ],
      [
        "▁обрати",
        -10.094055375045976
      ],
      [
        "▁внутрь",
        -10.094311932821793
      ],
      [
        "▁Кар",
        -10.095138678640069
      ],
      [
        "▁форм",
        -10.095748575832404
      ],
      [
        "запись",
        -10.095774410065554
      ],
      [
        "▁количества",
        -10.095852706870726
      ],
      [
        "▁Ра",
        -10.095978857988717
      ],
      [
        "▁карты",
        -10.096166574739486
      ],
      [
        "пол",
        -10.096311235519437
      ],
      [
        "другого",
        -10.096648874969013
      ],
      [
        "▁Та",
        -10.097036329961457
      ],
      [
        "используются",
        -10.097934153693584
      ],
      [
        "могла",
        -10.098272814195306
      ],
      [
        "▁аэропорта",
        -10.098427109574212
      ],
      [
        "▁высокого",
        -10.09865666955176
      ],
      [
        "ходить",
        -10.098778740186978
      ],
      [
        "Танцующи",
        -10.099421971250015
      ],
      [
        "моей",
        -10.100742652193341
      ],
      [
        "▁разрешения",
        -10.1007526649335
      ],
      [
        "ющее",
        -10.101100845343302
      ],
      [
        "росы",
        -10.10267133885984
      ],
      [
        "людям",
        -10.103388511530543
      ],
      [
        "▁поддержка",
        -10.104253110236991
      ],
      [
        "▁белы",
        -10.105328642777232
      ],
      [
        "▁Танц",
        -10.105750146588365
      ],
      [
        "▁папк",
        -10.105758367840792
      ],
      [
        "▁смысл",
        -10.10650106961654
      ],
      [
        "Несмотря",
        -10.106582437115087
      ],
      [
        "ём",
        -10.107897524474303
      ],
      [
        "▁ПО",
        -10.108000382074547
      ],
      [
        "нести",
        -10.108692652053112
      ],
      [
        "el",
        -10.108764945088538
      ],
      [
        "▁Турци",
        -10.10893482352054
      ],
      [
        "▁Китае",
        -10.108965714748308
      ],
      [
        "▁буду",
        -10.109569810336382
      ],
      [
        "енко",
        -10.11016524063352
      ],
      [
        "▁действие",
        -10.110240734419982
      ],
      [
        "▁экономической",
        -10.11116145523993
      ],
      [
        "▁реестр",
        -10.111174589112789
      ],
      [
        "различным",
        -10.111625109901434
      ],
      [
        "став",
        -10.112092301909694
      ],
      [
        "▁материала",
        -10.112957768972004
      ],
      [
        "▁Цель",
        -10.113739635176348
      ],
      [
        "чер",
        -10.114241878109295
      ],
      [
        "аньше",
        -10.114422529371378
      ],
      [
        "свободы",
        -10.115075827043118
      ],
      [
        "▁милф",
        -10.11563226080331
      ],
      [
        "▁женщины",
        -10.116107943453748
      ],
      [
        "▁Порно",
        -10.11651896369473
      ],
      [
        "дел",
        -10.11681500430852
      ],
      [
        "Всего",
        -10.117131232904052
      ],
      [
        "▁исключительно",
        -10.118296483911312
      ],
      [
        "нер",
        -10.118680698222994
      ],
      [
        "ники",
        -10.119219797694575
      ],
      [
        "▁восстановления",
        -10.119399296282637
      ],
      [
        "самой",
        -10.119439244840281
      ],
      [
        "нию",
        -10.119537114905928
      ],
      [
        "▁Бо",
        -10.11968501288861
      ],
      [
        "первые",
        -10.119868299620158
      ],
      [
        "проведение",
        -10.120394012078012
      ],
      [
        "ический",
        -10.120864732343016
      ],
      [
        "провод",
        -10.12089916654519
      ],
      [
        "▁проходит",
        -10.122470062956248
      ],
      [
        "▁част",
        -10.123210536298888
      ],
      [
        "▁температура",
        -10.12395508025358
      ],
      [
        "▁соглашения",
        -10.124036967737284
      ],
      [
        "▁перво",
        -10.124197179232599
      ],
      [
        "▁объекта",
        -10.125040523033793
      ],
      [
        "дар",
        -10.125398214027465
      ],
      [
        "▁проводит",
        -10.125710819869397
      ],
      [
        "▁результат",
        -10.126147884130187
      ],
      [
        "ирует",
        -10.12769726268358
      ],
      [
        "▁власть",
        -10.127895522245906
      ],
      [
        "бол",
        -10.128707404403658
      ],
      [
        "необходимые",
        -10.129142429268745
      ],
      [
        "▁устройство",
        -10.129487374708592
      ],
      [
        "▁Молдова",
        -10.129671871144424
      ],
      [
        "программой",
        -10.130295654559648
      ],
      [
        "▁фонд",
        -10.130315394060469
      ],
      [
        "▁представить",
        -10.13066383683006
      ],
      [
        "▁ванная",
        -10.131325794134572
      ],
      [
        "▁наде",
        -10.134081441230816
      ],
      [
        "чин",
        -10.134124570227948
      ],
      [
        "иль",
        -10.135437207652732
      ],
      [
        "▁частны",
        -10.13544025531969
      ],
      [
        "@",
        -10.135591639500037
      ],
      [
        "▁ул",
        -10.13562837893596
      ],
      [
        "▁класса",
        -10.136148588519225
      ],
      [
        "имеется",
        -10.136468150651261
      ],
      [
        "документы",
        -10.136853915277328
      ],
      [
        "am",
        -10.136881756504007
      ],
      [
        "движение",
        -10.136991537875351
      ],
      [
        "▁полны",
        -10.137446776662498
      ],
      [
        "▁вход",
        -10.137549091013705
      ],
      [
        "▁жить",
        -10.137821187766638
      ],
      [
        "▁потенциал",
        -10.137856921206671
      ],
      [
        "гр",
        -10.137995907280569
      ],
      [
        "▁содействи",
        -10.138001403704635
      ],
      [
        "Не",
        -10.138513176175936
      ],
      [
        "▁контекст",
        -10.139093136545869
      ],
      [
        "▁Ж",
        -10.139244749651098
      ],
      [
        "▁поддерживает",
        -10.139329876543027
      ],
      [
        "За",
        -10.139635891306117
      ],
      [
        "новая",
        -10.139729096883789
      ],
      [
        "▁роли",
        -10.140184993709282
      ],
      [
        "▁журнал",
        -10.14044003053657
      ],
      [
        "▁Соединенны",
        -10.141415868015304
      ],
      [
        "▁безопасность",
        -10.14194126464796
      ],
      [
        "▁изображения",
        -10.14204858273423
      ],
      [
        "▁Иерусалим",
        -10.142220189315996
      ],
      [
        "любое",
        -10.142545662487402
      ],
      [
        "▁матери",
        -10.14261905382607
      ],
      [
        "▁тело",
        -10.14304562057256
      ],
      [
        "▁Азербайджан",
        -10.14308989733948
      ],
      [
        "лан",
        -10.143315062145083
      ],
      [
        "▁животных",
        -10.143526162980717
      ],
      [
        "ПВХ",
        -10.143812768400847
      ],
      [
        "▁Санкт",
        -10.14383602054651
      ],
      [
        "▁Президента",
        -10.143869137495807
      ],
      [
        "▁ВИЧ",
        -10.144119947159375
      ],
      [
        "▁начало",
        -10.144221806101257
      ],
      [
        "▁товары",
        -10.144534234571733
      ],
      [
        "um",
        -10.145333662700653
      ],
      [
        "▁провести",
        -10.145842526592114
      ],
      [
        "▁стоимости",
        -10.145953650064957
      ],
      [
        "▁Файл",
        -10.146023776300021
      ],
      [
        "большую",
        -10.14629824899078
      ],
      [
        "▁Ваш",
        -10.146307500185944
      ],
      [
        "тро",
        -10.146601179734704
      ],
      [
        "предложить",
        -10.147008395688934
      ],
      [
        "▁рейтинг",
        -10.147091062514159
      ],
      [
        "речь",
        -10.147150801877489
      ],
      [
        "▁конца",
        -10.147259156828536
      ],
      [
        "▁площади",
        -10.14731913671915
      ],
      [
        "▁трудно",
        -10.148025991358534
      ],
      [
        "▁Co",
        -10.148506497433518
      ],
      [
        "дают",
        -10.148629499598073
      ],
      [
        "▁невозможно",
        -10.14893807487347
      ],
      [
        "▁вида",
        -10.149212580552335
      ],
      [
        "куп",
        -10.149232260458332
      ],
      [
        "полной",
        -10.150681267505515
      ],
      [
        "овал",
        -10.15089848495403
      ],
      [
        "▁Проект",
        -10.150911913572552
      ],
      [
        "▁идеально",
        -10.151103045694748
      ],
      [
        "▁машины",
        -10.151172497794779
      ],
      [
        "▁часа",
        -10.151466118258117
      ],
      [
        "▁акций",
        -10.151641075652558
      ],
      [
        "вообще",
        -10.151860726439283
      ],
      [
        "ация",
        -10.15224445049115
      ],
      [
        "▁лидер",
        -10.152469367792943
      ],
      [
        "▁Просто",
        -10.152497898167416
      ],
      [
        "Ю",
        -10.1530924500305
      ],
      [
        "три",
        -10.153921764464162
      ],
      [
        "▁большим",
        -10.15392650142995
      ],
      [
        "▁последне",
        -10.154032405545783
      ],
      [
        "▁машина",
        -10.154371969945496
      ],
      [
        "▁Отчет",
        -10.154756321054654
      ],
      [
        "▁массаж",
        -10.155528003717206
      ],
      [
        "статье",
        -10.155558282424662
      ],
      [
        "▁выставки",
        -10.155567424276711
      ],
      [
        "▁блок",
        -10.15628182526098
      ],
      [
        "мировой",
        -10.156477171488014
      ],
      [
        "▁Мар",
        -10.156600427740212
      ],
      [
        "▁организация",
        -10.156658196123113
      ],
      [
        "теля",
        -10.157049570530866
      ],
      [
        "▁базе",
        -10.15729764371659
      ],
      [
        "оружия",
        -10.158513147168279
      ],
      [
        "▁взял",
        -10.158659435239901
      ],
      [
        "ol",
        -10.15897937804038
      ],
      [
        "раб",
        -10.15945427650713
      ],
      [
        "ант",
        -10.159505508922916
      ],
      [
        "ch",
        -10.159674986949872
      ],
      [
        "минута",
        -10.160567106907342
      ],
      [
        "▁недвижимости",
        -10.160948124122754
      ],
      [
        "▁высот",
        -10.161578552246933
      ],
      [
        "▁медиа",
        -10.161995613418167
      ],
      [
        "▁Сам",
        -10.162352871008045
      ],
      [
        "▁клиент",
        -10.162474724791737
      ],
      [
        "▁расходов",
        -10.162873013851021
      ],
      [
        "▁учебны",
        -10.163400326593345
      ],
      [
        "▁пользу",
        -10.164200900423664
      ],
      [
        "▁Наши",
        -10.164627942962158
      ],
      [
        "определить",
        -10.164905854225735
      ],
      [
        "енные",
        -10.165177249019338
      ],
      [
        "привести",
        -10.165337544878446
      ],
      [
        "▁дополнительные",
        -10.165362044208296
      ],
      [
        "▁кажд",
        -10.165839654728527
      ],
      [
        "▁странице",
        -10.166135800736969
      ],
      [
        "▁соответствующе",
        -10.166264529446861
      ],
      [
        "вали",
        -10.167460385911646
      ],
      [
        "▁компанией",
        -10.167944610554384
      ],
      [
        "▁Q",
        -10.167982695551915
      ],
      [
        "ред",
        -10.168299231153346
      ],
      [
        "способности",
        -10.168320369319229
      ],
      [
        "▁ясно",
        -10.168780313647371
      ],
      [
        "▁правил",
        -10.168981125995513
      ],
      [
        "свяжитесь",
        -10.169379980044067
      ],
      [
        "▁умолчанию",
        -10.170295924106162
      ],
      [
        "▁сектор",
        -10.170307823130141
      ],
      [
        "лучшим",
        -10.170616332203128
      ],
      [
        "▁периода",
        -10.170709229442714
      ],
      [
        "▁общественны",
        -10.171438041098606
      ],
      [
        "первым",
        -10.17156140989652
      ],
      [
        "ванной",
        -10.172056096860208
      ],
      [
        "▁клуб",
        -10.172265912812518
      ],
      [
        "шла",
        -10.172572356153609
      ],
      [
        "▁сектора",
        -10.172641441676765
      ],
      [
        "▁Африк",
        -10.172876505947
      ],
      [
        "▁проекты",
        -10.172913785066664
      ],
      [
        "▁Без",
        -10.173048907670283
      ],
      [
        "единицы",
        -10.173290629640746
      ],
      [
        "▁получили",
        -10.1743451656273
      ],
      [
        "▁поможет",
        -10.17503074557211
      ],
      [
        "▁плана",
        -10.17506003547323
      ],
      [
        "▁Тип",
        -10.175357987206544
      ],
      [
        "▁Android",
        -10.175708090453229
      ],
      [
        "▁бо",
        -10.176011813475839
      ],
      [
        "▁Ма",
        -10.17651027255948
      ],
      [
        "▁стиле",
        -10.176858023481088
      ],
      [
        "▁доме",
        -10.177270597042149
      ],
      [
        "твор",
        -10.177521647596228
      ],
      [
        "топление",
        -10.177917410888597
      ],
      [
        "▁телевизор",
        -10.17803923933294
      ],
      [
        "▁Хот",
        -10.178451073590123
      ],
      [
        "▁республик",
        -10.178615805827953
      ],
      [
        "▁современно",
        -10.179431557028561
      ],
      [
        "la",
        -10.179961177889291
      ],
      [
        "▁расширени",
        -10.179997185132722
      ],
      [
        "▁прошло",
        -10.18093446441041
      ],
      [
        "элементов",
        -10.181015347257977
      ],
      [
        "▁говоря",
        -10.181216726846468
      ],
      [
        "бл",
        -10.18144731721577
      ],
      [
        "▁угроз",
        -10.181528074033872
      ],
      [
        "▁призна",
        -10.181659746654976
      ],
      [
        "▁форум",
        -10.181674430353466
      ],
      [
        "▁собственности",
        -10.181914939646807
      ],
      [
        "той",
        -10.182139849616897
      ],
      [
        "▁культур",
        -10.18230811167121
      ],
      [
        "Христа",
        -10.182383152906851
      ],
      [
        "▁Server",
        -10.18261081756352
      ],
      [
        "lt",
        -10.182662423530093
      ],
      [
        "▁теле",
        -10.182848057575919
      ],
      [
        "▁Южно",
        -10.183009743509253
      ],
      [
        "▁www",
        -10.183042104723015
      ],
      [
        "▁Дом",
        -10.184471234704802
      ],
      [
        "▁Отц",
        -10.18487775261102
      ],
      [
        "▁гостиниц",
        -10.185232189869025
      ],
      [
        "▁депутат",
        -10.185318479522186
      ],
      [
        "ющим",
        -10.185812914687546
      ],
      [
        "социальной",
        -10.186619083227363
      ],
      [
        "▁Кон",
        -10.18699386991733
      ],
      [
        "▁глубоко",
        -10.187270982806265
      ],
      [
        "столько",
        -10.187373364919852
      ],
      [
        "▁объект",
        -10.187389449184394
      ],
      [
        "▁Доступ",
        -10.187683682911405
      ],
      [
        "▁рекомендуем",
        -10.187839441568979
      ],
      [
        "впервые",
        -10.187917886900484
      ],
      [
        "▁народов",
        -10.18866501026629
      ],
      [
        "▁ст",
        -10.188853601396582
      ],
      [
        "ания",
        -10.18904271173653
      ],
      [
        "th",
        -10.189391816729303
      ],
      [
        "▁подчеркнул",
        -10.189469387838601
      ],
      [
        "ma",
        -10.189973121600985
      ],
      [
        "▁скоре",
        -10.190107304231692
      ],
      [
        "кол",
        -10.191281810506617
      ],
      [
        "сеть",
        -10.191427712863183
      ],
      [
        "▁четырех",
        -10.19156878418663
      ],
      [
        "▁российского",
        -10.192562507717989
      ],
      [
        "пор",
        -10.192681040608242
      ],
      [
        "▁проводить",
        -10.195362079991538
      ],
      [
        "▁работают",
        -10.19582395849976
      ],
      [
        "нефти",
        -10.1958893289593
      ],
      [
        "▁II",
        -10.196291131148854
      ],
      [
        "служба",
        -10.197564766262838
      ],
      [
        "▁показал",
        -10.197635214816891
      ],
      [
        "прошлом",
        -10.197688826441876
      ],
      [
        "▁района",
        -10.197779491186044
      ],
      [
        "▁встрети",
        -10.19847298360512
      ],
      [
        "▁кг",
        -10.198938241730072
      ],
      [
        "▁хозяйства",
        -10.198953461404122
      ],
      [
        "казино",
        -10.199247737304749
      ],
      [
        "▁Re",
        -10.199258225931843
      ],
      [
        "каких",
        -10.20002282209252
      ],
      [
        "▁труб",
        -10.200978178414335
      ],
      [
        "▁бюджет",
        -10.201547803097826
      ],
      [
        "▁велико",
        -10.201554148759293
      ],
      [
        "защите",
        -10.201891167026915
      ],
      [
        "▁возможны",
        -10.20197039812326
      ],
      [
        "любви",
        -10.202561569662427
      ],
      [
        "▁годов",
        -10.202633893444036
      ],
      [
        "экспертов",
        -10.2035331247814
      ],
      [
        "▁документа",
        -10.203690539091635
      ],
      [
        "„",
        -10.204135239281149
      ],
      [
        "▁Потом",
        -10.204660248180083
      ],
      [
        "игроков",
        -10.204909157505131
      ],
      [
        "ведет",
        -10.204923134554056
      ],
      [
        "вшей",
        -10.205419847353172
      ],
      [
        "полн",
        -10.20545467702124
      ],
      [
        "вшие",
        -10.20573705564783
      ],
      [
        "▁расходы",
        -10.206154279346359
      ],
      [
        "▁сельскохозяйств",
        -10.206729784996936
      ],
      [
        "Ключевые",
        -10.206755525844539
      ],
      [
        "▁глав",
        -10.20682405379387
      ],
      [
        "процедуры",
        -10.207196325136415
      ],
      [
        "▁параметры",
        -10.207338061594779
      ],
      [
        "▁слабы",
        -10.208876202455935
      ],
      [
        "▁принцип",
        -10.209336601578256
      ],
      [
        "обладает",
        -10.21019884740039
      ],
      [
        "▁игрушки",
        -10.210233336386867
      ],
      [
        "▁позволяют",
        -10.210275776542995
      ],
      [
        "следующую",
        -10.210343854958099
      ],
      [
        "▁квартиры",
        -10.21039184549327
      ],
      [
        "ница",
        -10.210397853856582
      ],
      [
        "ro",
        -10.210727341337131
      ],
      [
        "▁процедур",
        -10.210928492811403
      ],
      [
        "▁указанны",
        -10.211231224406767
      ],
      [
        "▁перевод",
        -10.21138699682546
      ],
      [
        "▁текуще",
        -10.211809685482345
      ],
      [
        "▁длин",
        -10.211971003085756
      ],
      [
        "звать",
        -10.212156826430938
      ],
      [
        "▁возник",
        -10.212619319549987
      ],
      [
        "▁игрок",
        -10.2132856631867
      ],
      [
        "▁предназначен",
        -10.214435331191064
      ],
      [
        "▁посетить",
        -10.214558532546407
      ],
      [
        "▁комитет",
        -10.214578210612855
      ],
      [
        "основной",
        -10.214611085215116
      ],
      [
        "исты",
        -10.215442084204584
      ],
      [
        "▁главным",
        -10.216023862642075
      ],
      [
        "следующий",
        -10.216085789617642
      ],
      [
        "атор",
        -10.216236089497578
      ],
      [
        "▁кожи",
        -10.216311872635641
      ],
      [
        "кер",
        -10.217503125967829
      ],
      [
        "▁будете",
        -10.217560972838491
      ],
      [
        "чик",
        -10.217877413352594
      ],
      [
        "▁договора",
        -10.218534817300537
      ],
      [
        "▁Су",
        -10.218888562778773
      ],
      [
        "▁Пол",
        -10.219617249829042
      ],
      [
        "кова",
        -10.219676112589182
      ],
      [
        "▁сад",
        -10.220288183647032
      ],
      [
        "and",
        -10.220488682483365
      ],
      [
        "гер",
        -10.22064314950432
      ],
      [
        "▁способность",
        -10.22133445842209
      ],
      [
        "▁высоки",
        -10.221346031044332
      ],
      [
        "▁атмосфер",
        -10.221471789540686
      ],
      [
        "▁абсолютно",
        -10.221520825178198
      ],
      [
        "▁выставка",
        -10.22250714114998
      ],
      [
        "▁панели",
        -10.222622238367814
      ],
      [
        "▁обратно",
        -10.223333718770364
      ],
      [
        "моя",
        -10.223503835246346
      ],
      [
        "Республика",
        -10.224035097045846
      ],
      [
        "районе",
        -10.224169156550825
      ],
      [
        "▁обо",
        -10.224554210583642
      ],
      [
        "▁Вмест",
        -10.224556903005805
      ],
      [
        "ставки",
        -10.224967731639245
      ],
      [
        "туда",
        -10.225054592597397
      ],
      [
        "▁Описание",
        -10.225238130889014
      ],
      [
        "to",
        -10.225428826028205
      ],
      [
        "исключением",
        -10.225611523409293
      ],
      [
        "▁Ле",
        -10.225739101423036
      ],
      [
        "▁шанс",
        -10.226632125789095
      ],
      [
        "▁сих",
        -10.226638417448285
      ],
      [
        "▁рекомендует",
        -10.22827358038535
      ],
      [
        "▁фонда",
        -10.22855122996119
      ],
      [
        "дается",
        -10.228756562714148
      ],
      [
        "▁союз",
        -10.228800634456196
      ],
      [
        "анд",
        -10.228970806191551
      ],
      [
        "▁переводит",
        -10.229824317017382
      ],
      [
        "тур",
        -10.230109232318036
      ],
      [
        "вор",
        -10.230325708267738
      ],
      [
        "сен",
        -10.23054054010253
      ],
      [
        "▁внешни",
        -10.230814660352308
      ],
      [
        "▁страница",
        -10.23129729378621
      ],
      [
        "▁Гу",
        -10.231507296872584
      ],
      [
        "следующим",
        -10.2319298114672
      ],
      [
        "Porn",
        -10.232671739729232
      ],
      [
        "ические",
        -10.233581445749264
      ],
      [
        "▁мысли",
        -10.233995201730876
      ],
      [
        "▁общество",
        -10.234137550172537
      ],
      [
        "▁образование",
        -10.234173307306857
      ],
      [
        "▁добро",
        -10.234847706586905
      ],
      [
        "ent",
        -10.23502491747726
      ],
      [
        "▁придет",
        -10.235798354045789
      ],
      [
        "▁политической",
        -10.236096190526057
      ],
      [
        "▁финансов",
        -10.23726920006159
      ],
      [
        "▁приоритет",
        -10.23771757636165
      ],
      [
        "▁Европейско",
        -10.237861327154691
      ],
      [
        "знаний",
        -10.237893140927154
      ],
      [
        "пла",
        -10.23801966358404
      ],
      [
        "▁вкус",
        -10.238334280586045
      ],
      [
        "▁Один",
        -10.23842646644166
      ],
      [
        "▁переход",
        -10.239011483495888
      ],
      [
        "▁обзор",
        -10.2391965109106
      ],
      [
        "▁назначения",
        -10.240224038336107
      ],
      [
        "▁основании",
        -10.240450300460067
      ],
      [
        "осуществляется",
        -10.240670506447277
      ],
      [
        "▁предлагаем",
        -10.240727693018137
      ],
      [
        "▁самостоятельно",
        -10.241475664361896
      ],
      [
        "▁представлены",
        -10.243259073522658
      ],
      [
        "знают",
        -10.243694857892994
      ],
      [
        "вший",
        -10.244234726490964
      ],
      [
        "▁объявления",
        -10.245509655295198
      ],
      [
        "▁Конечно",
        -10.245677944694041
      ],
      [
        "▁USB",
        -10.245777871849928
      ],
      [
        "российских",
        -10.246038796323408
      ],
      [
        "▁связан",
        -10.246210433739805
      ],
      [
        "▁иде",
        -10.246504850377681
      ],
      [
        "▁Гарри",
        -10.24661974248577
      ],
      [
        "▁столь",
        -10.246881364368994
      ],
      [
        "▁свойства",
        -10.246950402619499
      ],
      [
        "▁готов",
        -10.247214953194993
      ],
      [
        "ложен",
        -10.247489011942301
      ],
      [
        "▁предоставить",
        -10.247564496632737
      ],
      [
        "▁считают",
        -10.247879105018328
      ],
      [
        "том",
        -10.248195486765578
      ],
      [
        "ание",
        -10.248354953569779
      ],
      [
        "▁ради",
        -10.248763548167561
      ],
      [
        "▁рождения",
        -10.249310480546448
      ],
      [
        "▁важны",
        -10.250097376299669
      ],
      [
        "▁связь",
        -10.250575778817451
      ],
      [
        "▁комитета",
        -10.250661730641282
      ],
      [
        "жителей",
        -10.250722126447041
      ],
      [
        "ly",
        -10.250741568819608
      ],
      [
        "▁эффективность",
        -10.252184020926041
      ],
      [
        "▁учет",
        -10.252549850181865
      ],
      [
        "▁финансирования",
        -10.252564643701907
      ],
      [
        "OS",
        -10.252622489182885
      ],
      [
        "▁политика",
        -10.252908799048567
      ],
      [
        "▁доктор",
        -10.253309516687127
      ],
      [
        "▁государство",
        -10.253445045642627
      ],
      [
        "▁Камел",
        -10.254765557275757
      ],
      [
        "▁обучение",
        -10.255052785046454
      ],
      [
        "▁курса",
        -10.255238764630645
      ],
      [
        "▁Хорош",
        -10.256340689318995
      ],
      [
        "думать",
        -10.256485387712255
      ],
      [
        "▁Международный",
        -10.256499669809628
      ],
      [
        "▁Сторон",
        -10.256619442836094
      ],
      [
        "любовь",
        -10.25688760496101
      ],
      [
        "каз",
        -10.256979285726091
      ],
      [
        "▁приложений",
        -10.257134613342057
      ],
      [
        "▁выполнять",
        -10.25754502319739
      ],
      [
        "местах",
        -10.257569660483076
      ],
      [
        "оплаты",
        -10.257934070129773
      ],
      [
        "сердца",
        -10.25915738782061
      ],
      [
        "вашим",
        -10.259191722650968
      ],
      [
        "▁потенциала",
        -10.260003328828695
      ],
      [
        "элементы",
        -10.260159645982478
      ],
      [
        "▁Вес",
        -10.260471356624693
      ],
      [
        "ней",
        -10.26063969972788
      ],
      [
        "Франции",
        -10.260755495039973
      ],
      [
        "▁Туалет",
        -10.261100264172978
      ],
      [
        "сможет",
        -10.261198191350656
      ],
      [
        "установлена",
        -10.261248305509342
      ],
      [
        "\\",
        -10.261260228373807
      ],
      [
        "борьбе",
        -10.261545530452127
      ],
      [
        "енной",
        -10.26162069233528
      ],
      [
        "▁отдельных",
        -10.261620918233357
      ],
      [
        "деть",
        -10.262468813249633
      ],
      [
        "▁выплат",
        -10.262836689454566
      ],
      [
        "▁помогает",
        -10.262875492778667
      ],
      [
        "▁Дух",
        -10.263404289997975
      ],
      [
        "выше",
        -10.26367275769453
      ],
      [
        "▁минимум",
        -10.264096674866867
      ],
      [
        "▁Ал",
        -10.264212309644881
      ],
      [
        "▁конкурс",
        -10.26438717366936
      ],
      [
        "▁размера",
        -10.264810868311452
      ],
      [
        "Другие",
        -10.265231067845386
      ],
      [
        "▁наград",
        -10.266652273197563
      ],
      [
        "▁Мож",
        -10.266836223661258
      ],
      [
        "▁Материал",
        -10.267303166295745
      ],
      [
        "церкви",
        -10.267827425234271
      ],
      [
        "▁Восток",
        -10.268290685248166
      ],
      [
        "удалось",
        -10.268610561712993
      ],
      [
        "▁техники",
        -10.269888329084619
      ],
      [
        "▁транспорт",
        -10.269913550447075
      ],
      [
        "▁получать",
        -10.270043513779298
      ],
      [
        "▁используя",
        -10.270706549309947
      ],
      [
        "▁городов",
        -10.271827983973795
      ],
      [
        "▁конкретно",
        -10.271924420681133
      ],
      [
        "▁алгоритм",
        -10.272148689975731
      ],
      [
        "▁составил",
        -10.27244725327445
      ],
      [
        "легкий",
        -10.272632916254253
      ],
      [
        "лон",
        -10.272708125993336
      ],
      [
        "▁диск",
        -10.273741348007894
      ],
      [
        "▁создавать",
        -10.27414465432644
      ],
      [
        "▁боль",
        -10.274171694197737
      ],
      [
        "▁выбора",
        -10.274415779690253
      ],
      [
        "▁серьезны",
        -10.274492492313014
      ],
      [
        "▁создании",
        -10.274672977657177
      ],
      [
        "▁Номер",
        -10.274942049261018
      ],
      [
        "<",
        -10.27563028170978
      ],
      [
        "▁Мир",
        -10.27596201201468
      ],
      [
        "пан",
        -10.276264020951936
      ],
      [
        "▁снизи",
        -10.276294201537848
      ],
      [
        "▁функция",
        -10.276383058591609
      ],
      [
        "ани",
        -10.276860463185125
      ],
      [
        "ост",
        -10.277028017968572
      ],
      [
        "▁ту",
        -10.277503277426487
      ],
      [
        "▁наше",
        -10.277914942921116
      ],
      [
        "бит",
        -10.277995255739702
      ],
      [
        "▁Пре",
        -10.278147238408293
      ],
      [
        "▁слов",
        -10.278161694163991
      ],
      [
        "▁прекрасно",
        -10.278388128780875
      ],
      [
        "▁поля",
        -10.278671435417413
      ],
      [
        "▁наша",
        -10.28014525373197
      ],
      [
        "▁Комитета",
        -10.280550860297422
      ],
      [
        "▁карт",
        -10.280595687143043
      ],
      [
        "▁системой",
        -10.280852022434868
      ],
      [
        "печати",
        -10.28104564619891
      ],
      [
        "▁Наша",
        -10.281616184470005
      ],
      [
        "▁настоящи",
        -10.28186302848596
      ],
      [
        "научных",
        -10.281867597290269
      ],
      [
        "кин",
        -10.281868934732811
      ],
      [
        "▁символ",
        -10.28212439933603
      ],
      [
        "▁недавно",
        -10.282637590625773
      ],
      [
        "▁увидел",
        -10.28304360516154
      ],
      [
        "Про",
        -10.28308214626998
      ],
      [
        "▁определения",
        -10.28333132653403
      ],
      [
        "▁распространения",
        -10.283774651480305
      ],
      [
        "личности",
        -10.284015932811618
      ],
      [
        "▁Польш",
        -10.284074213297599
      ],
      [
        "▁ресурсы",
        -10.284182558391668
      ],
      [
        "▁окна",
        -10.284196873065357
      ],
      [
        "ночь",
        -10.284885033394467
      ],
      [
        "▁регион",
        -10.285231256249814
      ],
      [
        "▁секретаря",
        -10.285800914636587
      ],
      [
        "▁купить",
        -10.285833485716681
      ],
      [
        "давно",
        -10.285886451244904
      ],
      [
        "▁настояще",
        -10.286108031293741
      ],
      [
        "▁влажност",
        -10.286439024719423
      ],
      [
        "ила",
        -10.286466491725998
      ],
      [
        "▁Курен",
        -10.286823260867088
      ],
      [
        "лер",
        -10.287592724139142
      ],
      [
        "отсутствие",
        -10.287660456959694
      ],
      [
        "методы",
        -10.288198168104701
      ],
      [
        "форм",
        -10.289607168631903
      ],
      [
        "▁обе",
        -10.289939424785809
      ],
      [
        "ировал",
        -10.290516469552962
      ],
      [
        "рис",
        -10.29119990894525
      ],
      [
        "позиции",
        -10.292195666718237
      ],
      [
        "▁твое",
        -10.292272545037894
      ],
      [
        "пункта",
        -10.29238640503593
      ],
      [
        "рос",
        -10.293330686449075
      ],
      [
        "▁полу",
        -10.293596218056603
      ],
      [
        "▁процессов",
        -10.294841150072722
      ],
      [
        "▁вполн",
        -10.294849106090753
      ],
      [
        "▁The",
        -10.295373928290793
      ],
      [
        "▁Закон",
        -10.295763744877704
      ],
      [
        "▁Мобильный",
        -10.29594792840008
      ],
      [
        "соответствующие",
        -10.2960263126134
      ],
      [
        "▁медицински",
        -10.29618407606177
      ],
      [
        "▁свободно",
        -10.29717600008759
      ],
      [
        "▁традиционны",
        -10.297352550306737
      ],
      [
        "лок",
        -10.298492446126673
      ],
      [
        "сохранить",
        -10.298569285382092
      ],
      [
        "спорта",
        -10.298680708481152
      ],
      [
        "рас",
        -10.299343572537792
      ],
      [
        "▁необходимы",
        -10.299594944671417
      ],
      [
        "виды",
        -10.299693493552553
      ],
      [
        "▁архитектур",
        -10.300336290699462
      ],
      [
        "▁покер",
        -10.300358077534034
      ],
      [
        "▁Иран",
        -10.300371063810545
      ],
      [
        "▁указан",
        -10.300564190268393
      ],
      [
        "тен",
        -10.30176145099682
      ],
      [
        "▁ущерб",
        -10.301777883294783
      ],
      [
        "▁кандидат",
        -10.301981543123485
      ],
      [
        "▁центрально",
        -10.302264043666238
      ],
      [
        "рин",
        -10.302436230038866
      ],
      [
        "▁культурно",
        -10.302530494446236
      ],
      [
        "▁решил",
        -10.302637629256918
      ],
      [
        "мар",
        -10.302931616478862
      ],
      [
        "зоны",
        -10.304069708421437
      ],
      [
        "▁попытк",
        -10.30552871708854
      ],
      [
        "дополнительных",
        -10.306018229839655
      ],
      [
        "▁избирательно",
        -10.306042039777527
      ],
      [
        "▁мгновенно",
        -10.306051162443772
      ],
      [
        "отметить",
        -10.30620691732444
      ],
      [
        "▁команда",
        -10.306748978302323
      ],
      [
        "моего",
        -10.306893921127497
      ],
      [
        "▁дал",
        -10.307044357980034
      ],
      [
        "▁институт",
        -10.30720480195228
      ],
      [
        "обновить",
        -10.30737569051864
      ],
      [
        "мор",
        -10.30790738811389
      ],
      [
        "▁браузера",
        -10.308565091320494
      ],
      [
        "▁телефона",
        -10.308847024856545
      ],
      [
        "сте",
        -10.309533863154163
      ],
      [
        "сло",
        -10.309774189757771
      ],
      [
        "пир",
        -10.310100537221778
      ],
      [
        "▁азартны",
        -10.310407347985846
      ],
      [
        "▁развива",
        -10.310540219237081
      ],
      [
        "▁Армени",
        -10.311343124005427
      ],
      [
        "станов",
        -10.3114136838742
      ],
      [
        "▁веществ",
        -10.311463001374925
      ],
      [
        "часы",
        -10.311961374462744
      ],
      [
        "▁направлен",
        -10.312359176556365
      ],
      [
        "▁областя",
        -10.312413999611572
      ],
      [
        "▁выпуск",
        -10.312944721929984
      ],
      [
        "образ",
        -10.313066268037842
      ],
      [
        "бра",
        -10.313458151099091
      ],
      [
        "▁рекомендации",
        -10.313748600432458
      ],
      [
        "▁Запад",
        -10.313913714452925
      ],
      [
        "▁половин",
        -10.313994970334974
      ],
      [
        "▁др",
        -10.31438565249067
      ],
      [
        "▁премьер",
        -10.31567967749403
      ],
      [
        "фер",
        -10.315892929358448
      ],
      [
        "больших",
        -10.316686393464964
      ],
      [
        "типы",
        -10.316728675541345
      ],
      [
        "▁операций",
        -10.316928433091887
      ],
      [
        "▁тут",
        -10.316960169347205
      ],
      [
        "▁НАТО",
        -10.317484398643318
      ],
      [
        "мир",
        -10.317690966782095
      ],
      [
        "ует",
        -10.317737333142993
      ],
      [
        "▁странами",
        -10.317968552269196
      ],
      [
        "▁музей",
        -10.318196117041923
      ],
      [
        "▁час",
        -10.31839501082041
      ],
      [
        "▁представления",
        -10.318432076106411
      ],
      [
        "▁класс",
        -10.318591876737765
      ],
      [
        "ТА",
        -10.318792086067914
      ],
      [
        "мной",
        -10.318816962488519
      ],
      [
        "знал",
        -10.318923696639118
      ],
      [
        "▁ядерно",
        -10.319699081579587
      ],
      [
        "▁подобны",
        -10.320836247930924
      ],
      [
        "▁случи",
        -10.321324236800043
      ],
      [
        "▁уход",
        -10.32191726089457
      ],
      [
        "▁низко",
        -10.322034677976866
      ],
      [
        "▁пространства",
        -10.32206266537687
      ],
      [
        "Поскольку",
        -10.322212579308028
      ],
      [
        "▁отлича",
        -10.322223614043793
      ],
      [
        "крупных",
        -10.322600539756788
      ],
      [
        "▁пояс",
        -10.323356426149948
      ],
      [
        "которыми",
        -10.323384601971407
      ],
      [
        "▁сервис",
        -10.323623298108291
      ],
      [
        "сер",
        -10.323980789702542
      ],
      [
        "гар",
        -10.324026238470735
      ],
      [
        "структуры",
        -10.32415965302747
      ],
      [
        "▁пищ",
        -10.324176875697042
      ],
      [
        "▁форма",
        -10.324356771625064
      ],
      [
        "▁фильм",
        -10.32469993115989
      ],
      [
        "▁Америки",
        -10.324815506559531
      ],
      [
        "▁зарегистрирован",
        -10.324821642508054
      ],
      [
        "пад",
        -10.324946713309641
      ],
      [
        "▁ключ",
        -10.325111143977495
      ],
      [
        "высоким",
        -10.325147220561128
      ],
      [
        "▁рубле",
        -10.325158343035616
      ],
      [
        "един",
        -10.325261613172463
      ],
      [
        "▁Среди",
        -10.325363829709515
      ],
      [
        "ических",
        -10.325817128889154
      ],
      [
        "▁фетиш",
        -10.325984295619772
      ],
      [
        "▁рассказал",
        -10.326373937405476
      ],
      [
        "дующий",
        -10.326449827961524
      ],
      [
        "содержание",
        -10.326599915345556
      ],
      [
        "▁важн",
        -10.326892930009512
      ],
      [
        "чем",
        -10.327544093098043
      ],
      [
        "редактирования",
        -10.327781602980979
      ],
      [
        "▁банк",
        -10.32792693116888
      ],
      [
        "▁тепло",
        -10.32816669567922
      ],
      [
        "РСК",
        -10.328684479596653
      ],
      [
        "информацией",
        -10.328991524859784
      ],
      [
        "▁парк",
        -10.329228123545777
      ],
      [
        "▁убеди",
        -10.32951610535229
      ],
      [
        "▁обраща",
        -10.329609695647777
      ],
      [
        "▁Вер",
        -10.329800856113074
      ],
      [
        "▁директора",
        -10.329860562300293
      ],
      [
        "▁название",
        -10.329916296881418
      ],
      [
        "ним",
        -10.33039220133672
      ],
      [
        "▁магазин",
        -10.330542492900875
      ],
      [
        "включают",
        -10.330582068575758
      ],
      [
        "▁делают",
        -10.330610502437134
      ],
      [
        "▁Телевизор",
        -10.330836485647133
      ],
      [
        "▁поток",
        -10.33109836217542
      ],
      [
        "▁чисто",
        -10.33139276260942
      ],
      [
        "▁нужны",
        -10.33164662826385
      ],
      [
        "▁Узбекистан",
        -10.332127284108653
      ],
      [
        "▁повестк",
        -10.332148341050612
      ],
      [
        "▁представляют",
        -10.33224129351716
      ],
      [
        "входит",
        -10.332442338005718
      ],
      [
        "дальше",
        -10.332623209052539
      ],
      [
        "▁особы",
        -10.333213999554996
      ],
      [
        "▁посетил",
        -10.333348069668968
      ],
      [
        "▁Ирак",
        -10.33341569659866
      ],
      [
        "▁драйвер",
        -10.333790387015814
      ],
      [
        "▁плохо",
        -10.334000423907858
      ],
      [
        "▁Ветер",
        -10.334318094013831
      ],
      [
        "▁депозит",
        -10.334769255493198
      ],
      [
        "▁метеоусловия",
        -10.335454151718386
      ],
      [
        "▁Зна",
        -10.336531329802735
      ],
      [
        "молодежь",
        -10.336750977882605
      ],
      [
        "▁золото",
        -10.336769374567801
      ],
      [
        "▁школа",
        -10.336825483006143
      ],
      [
        "▁отношение",
        -10.337428859050682
      ],
      [
        "дель",
        -10.33746105735722
      ],
      [
        "рон",
        -10.337611304583197
      ],
      [
        "вперед",
        -10.337960550057067
      ],
      [
        "давать",
        -10.338143330328771
      ],
      [
        "защиту",
        -10.338238087401011
      ],
      [
        "землю",
        -10.338259133046689
      ],
      [
        "современных",
        -10.338618378369809
      ],
      [
        "▁спортивны",
        -10.338765997583254
      ],
      [
        "▁ремонт",
        -10.339056882753278
      ],
      [
        "▁отмечает",
        -10.339158302569833
      ],
      [
        "▁ледибой",
        -10.340661996542572
      ],
      [
        "честь",
        -10.340872395464668
      ],
      [
        "рад",
        -10.34115743037456
      ],
      [
        "id",
        -10.34130116582892
      ],
      [
        "▁Система",
        -10.341647257784894
      ],
      [
        "Статья",
        -10.342901183779468
      ],
      [
        "НК",
        -10.343704340814243
      ],
      [
        "▁вебкамера",
        -10.343853288592355
      ],
      [
        "функций",
        -10.344067563448382
      ],
      [
        "▁инструментов",
        -10.344266165560263
      ],
      [
        "вшихся",
        -10.344652318474118
      ],
      [
        "▁представление",
        -10.345602106741593
      ],
      [
        "▁Использование",
        -10.345884924822636
      ],
      [
        "▁огромно",
        -10.345972018041737
      ],
      [
        "▁последствия",
        -10.346221246180372
      ],
      [
        "▁Там",
        -10.346623594976045
      ],
      [
        "держ",
        -10.346782722665743
      ],
      [
        "куда",
        -10.347618510857787
      ],
      [
        "▁комплект",
        -10.348089300347315
      ],
      [
        "▁жиль",
        -10.348652916756555
      ],
      [
        "▁персонала",
        -10.348831505304974
      ],
      [
        "▁направлении",
        -10.348912315246025
      ],
      [
        "▁разум",
        -10.348940875102128
      ],
      [
        "▁элемент",
        -10.349330299751989
      ],
      [
        "▁сделан",
        -10.349581523268188
      ],
      [
        "энерго",
        -10.350224706478151
      ],
      [
        "движ",
        -10.35053998024222
      ],
      [
        "▁арми",
        -10.350688958832327
      ],
      [
        "▁кухн",
        -10.350729750629108
      ],
      [
        "▁автомобиля",
        -10.351039590635157
      ],
      [
        "▁международном",
        -10.351083678553566
      ],
      [
        "▁школ",
        -10.35115049897357
      ],
      [
        "скачать",
        -10.351161504176218
      ],
      [
        "▁учреждения",
        -10.351753660417234
      ],
      [
        "▁север",
        -10.351759261778323
      ],
      [
        "требований",
        -10.3520689646002
      ],
      [
        "▁Poker",
        -10.35212625047058
      ],
      [
        "▁отлично",
        -10.352388882668395
      ],
      [
        "▁надежд",
        -10.352513448852797
      ],
      [
        "зор",
        -10.35282978571126
      ],
      [
        "технического",
        -10.352926769007123
      ],
      [
        "▁мебель",
        -10.353029740240029
      ],
      [
        "▁сила",
        -10.353223832769618
      ],
      [
        "▁знак",
        -10.353495177677017
      ],
      [
        "Доставка",
        -10.353650608980974
      ],
      [
        "приняли",
        -10.35368216859142
      ],
      [
        "▁микро",
        -10.35408175939867
      ],
      [
        "▁оста",
        -10.354119411497283
      ],
      [
        "▁Ответ",
        -10.354127961309405
      ],
      [
        "Мы",
        -10.354128893814174
      ],
      [
        "na",
        -10.354264392613771
      ],
      [
        "▁оценка",
        -10.35496287339633
      ],
      [
        "▁Софи",
        -10.355038350480692
      ],
      [
        "лек",
        -10.355081931831691
      ],
      [
        "▁комплекса",
        -10.355140778477223
      ],
      [
        "▁вода",
        -10.356103667905757
      ],
      [
        "▁законодательств",
        -10.356338172484953
      ],
      [
        "▁храм",
        -10.356501585385004
      ],
      [
        "альный",
        -10.356558430867333
      ],
      [
        "гре",
        -10.357010799795907
      ],
      [
        "▁списка",
        -10.35718290077927
      ],
      [
        "продолжать",
        -10.357509633393985
      ],
      [
        "▁свободны",
        -10.357515085404339
      ],
      [
        "ович",
        -10.35763052915807
      ],
      [
        "il",
        -10.35839782371151
      ],
      [
        "плоским",
        -10.358449745160398
      ],
      [
        "▁зло",
        -10.358500315554867
      ],
      [
        "лог",
        -10.358808613254611
      ],
      [
        "бро",
        -10.358885474006211
      ],
      [
        "слов",
        -10.358986777206262
      ],
      [
        "▁описание",
        -10.359051112278973
      ],
      [
        "выборах",
        -10.360097050107015
      ],
      [
        "▁продажи",
        -10.360102165526795
      ],
      [
        "▁мастер",
        -10.360278172460745
      ],
      [
        "▁ограничения",
        -10.360436221422635
      ],
      [
        "▁преимущества",
        -10.360516547625414
      ],
      [
        "▁па",
        -10.361444413701024
      ],
      [
        "оружие",
        -10.361657829569106
      ],
      [
        "производителей",
        -10.361896619394129
      ],
      [
        "бр",
        -10.3619819473006
      ],
      [
        "▁национального",
        -10.362670978844791
      ],
      [
        "▁домен",
        -10.362784616089233
      ],
      [
        "пере",
        -10.362922682081832
      ],
      [
        "уже",
        -10.362964691923619
      ],
      [
        "▁завтрак",
        -10.363140665301527
      ],
      [
        "▁Че",
        -10.363750001032475
      ],
      [
        "▁Titan",
        -10.364190181064654
      ],
      [
        "▁ежегодно",
        -10.365557733517054
      ],
      [
        "▁источник",
        -10.366351508254926
      ],
      [
        "▁кризис",
        -10.36650154743352
      ],
      [
        "▁проведен",
        -10.36668740115317
      ],
      [
        "▁Пред",
        -10.36700384844375
      ],
      [
        "lo",
        -10.367090317141889
      ],
      [
        "▁источников",
        -10.367136041815883
      ],
      [
        "▁Название",
        -10.367816437666596
      ],
      [
        "▁дороги",
        -10.367860206443526
      ],
      [
        "▁религиозны",
        -10.368039365822348
      ],
      [
        "▁Программа",
        -10.36805887454151
      ],
      [
        "▁отдых",
        -10.36823860238424
      ],
      [
        "проживания",
        -10.368517706442553
      ],
      [
        "▁экспорт",
        -10.369011366133973
      ],
      [
        "▁Модель",
        -10.369139342693739
      ],
      [
        "▁столиц",
        -10.369457145962427
      ],
      [
        "▁используют",
        -10.369546956200876
      ],
      [
        "▁улиц",
        -10.369788857690043
      ],
      [
        "▁заявления",
        -10.370350894630537
      ],
      [
        "▁серьезно",
        -10.37036117646336
      ],
      [
        "ющую",
        -10.370419537812966
      ],
      [
        "произошло",
        -10.370537501184126
      ],
      [
        "▁члены",
        -10.37101692796806
      ],
      [
        "▁продолжает",
        -10.371207414626884
      ],
      [
        "▁Безопасности",
        -10.371287750032673
      ],
      [
        "▁увеличение",
        -10.37142464065746
      ],
      [
        "важным",
        -10.371640503398503
      ],
      [
        "▁изделия",
        -10.371799802227835
      ],
      [
        "▁острова",
        -10.37182415184541
      ],
      [
        "▁форму",
        -10.371867005344496
      ],
      [
        "будущее",
        -10.372055683636948
      ],
      [
        "станции",
        -10.372092362660732
      ],
      [
        "▁направления",
        -10.372553402936106
      ],
      [
        "цев",
        -10.372748554193144
      ],
      [
        "тельно",
        -10.373686116427164
      ],
      [
        "кан",
        -10.373950923056313
      ],
      [
        "▁образ",
        -10.374474088646517
      ],
      [
        "▁Лу",
        -10.374769906350446
      ],
      [
        "добавить",
        -10.37483299115152
      ],
      [
        "▁большинств",
        -10.375308376359172
      ],
      [
        "▁использоваться",
        -10.375475828544896
      ],
      [
        "▁пар",
        -10.37581267069609
      ],
      [
        "▁обл",
        -10.37583124866208
      ],
      [
        "▁Свет",
        -10.375957360479672
      ],
      [
        "▁специализирован",
        -10.37596123243541
      ],
      [
        "▁настоящего",
        -10.375987221284623
      ],
      [
        "▁отдел",
        -10.376571652636851
      ],
      [
        "▁меж",
        -10.376883223226535
      ],
      [
        "повышение",
        -10.377106007821398
      ],
      [
        "пас",
        -10.377318537100061
      ],
      [
        "ne",
        -10.37766765156073
      ],
      [
        "▁внутренни",
        -10.37811213821594
      ],
      [
        "▁экологически",
        -10.37892728011438
      ],
      [
        "▁ученик",
        -10.378999350593103
      ],
      [
        "кле",
        -10.379007284720814
      ],
      [
        "нул",
        -10.379045640428753
      ],
      [
        "▁Видео",
        -10.379190835958136
      ],
      [
        "▁тенденци",
        -10.379379125863275
      ],
      [
        "пять",
        -10.379390909680254
      ],
      [
        "ведения",
        -10.380385889103703
      ],
      [
        "жал",
        -10.380817350073604
      ],
      [
        "▁партнер",
        -10.381174021659008
      ],
      [
        "▁Выберите",
        -10.38123707413864
      ],
      [
        "насколько",
        -10.381606315450563
      ],
      [
        "▁мобильны",
        -10.38162479305755
      ],
      [
        "▁зал",
        -10.381626773945607
      ],
      [
        "слав",
        -10.382126664326396
      ],
      [
        "ответил",
        -10.382227350404266
      ],
      [
        "мнение",
        -10.382341311490375
      ],
      [
        "me",
        -10.38250466927503
      ],
      [
        "▁принято",
        -10.38281980759898
      ],
      [
        "ряду",
        -10.383174253997856
      ],
      [
        "Услуги",
        -10.383324993468035
      ],
      [
        "▁Центральной",
        -10.383573588922335
      ],
      [
        "▁возвраща",
        -10.38366746165863
      ],
      [
        "▁официально",
        -10.384519743960437
      ],
      [
        "хотят",
        -10.384629774890016
      ],
      [
        "▁учреждений",
        -10.384994526607736
      ],
      [
        "▁обязательств",
        -10.38528444030959
      ],
      [
        "▁кажды",
        -10.385576056922565
      ],
      [
        "бел",
        -10.385646837719804
      ],
      [
        "методов",
        -10.38620549174112
      ],
      [
        "низу",
        -10.386294288622508
      ],
      [
        "жу",
        -10.38690832510855
      ],
      [
        "▁одежд",
        -10.387025701478976
      ],
      [
        "▁ключевы",
        -10.387675683784678
      ],
      [
        "▁молодых",
        -10.388097672168334
      ],
      [
        "скорости",
        -10.388126583306338
      ],
      [
        "Израиля",
        -10.388136962277164
      ],
      [
        "дра",
        -10.388178936975379
      ],
      [
        "▁Ан",
        -10.388237245878575
      ],
      [
        "лом",
        -10.38829451658892
      ],
      [
        "▁масла",
        -10.388295326809612
      ],
      [
        "▁сообщества",
        -10.388362021374766
      ],
      [
        "ёт",
        -10.388487174639284
      ],
      [
        "▁волос",
        -10.38849558694927
      ],
      [
        "▁подключения",
        -10.388906275990381
      ],
      [
        "▁Гд",
        -10.389084427407
      ],
      [
        "▁занимает",
        -10.389129773962871
      ],
      [
        "▁размещения",
        -10.389259512380313
      ],
      [
        "▁зона",
        -10.38928608555588
      ],
      [
        "▁график",
        -10.389373377398236
      ],
      [
        "Увеличение",
        -10.389484338208606
      ],
      [
        "Группы",
        -10.38968672022226
      ],
      [
        "▁далеко",
        -10.390111584450295
      ],
      [
        "▁поддерживать",
        -10.390180227899073
      ],
      [
        "ление",
        -10.39043788836197
      ],
      [
        "следующем",
        -10.390805526633557
      ],
      [
        "Министерство",
        -10.390869503974097
      ],
      [
        "▁продаж",
        -10.39090372144578
      ],
      [
        "▁врач",
        -10.39108687991605
      ],
      [
        "▁Международного",
        -10.391133776422297
      ],
      [
        "▁полици",
        -10.391862674902516
      ],
      [
        "разработке",
        -10.392164934485944
      ],
      [
        "зем",
        -10.39219734304936
      ],
      [
        "▁существенно",
        -10.392565021811915
      ],
      [
        "▁визит",
        -10.392815584446131
      ],
      [
        "▁мо",
        -10.3931353240563
      ],
      [
        "▁прикладн",
        -10.393294340146374
      ],
      [
        "▁хороши",
        -10.393502862190523
      ],
      [
        "общественного",
        -10.393839425327903
      ],
      [
        "te",
        -10.393971732700539
      ],
      [
        "стве",
        -10.39436783189255
      ],
      [
        "▁возраста",
        -10.394502783368603
      ],
      [
        "▁Пу",
        -10.395255152132604
      ],
      [
        "клад",
        -10.395330798653521
      ],
      [
        "▁представитель",
        -10.395779017838008
      ],
      [
        "точную",
        -10.395851752838162
      ],
      [
        "▁улучшения",
        -10.395900399575181
      ],
      [
        "йдите",
        -10.396450797043213
      ],
      [
        "▁согласи",
        -10.396472996656716
      ],
      [
        "тал",
        -10.397315745112413
      ],
      [
        "▁Анал",
        -10.397340679510007
      ],
      [
        "можешь",
        -10.397706215378122
      ],
      [
        "▁альтернатив",
        -10.397997341358245
      ],
      [
        "▁сожалени",
        -10.39839298696315
      ],
      [
        "▁of",
        -10.398408613139708
      ],
      [
        "▁безопасно",
        -10.399357417828478
      ],
      [
        "Q",
        -10.399682147589111
      ],
      [
        "▁капитал",
        -10.400097330852333
      ],
      [
        "▁формирования",
        -10.40019571056462
      ],
      [
        "▁друз",
        -10.40046937857519
      ],
      [
        "▁пр",
        -10.40067107198747
      ],
      [
        "▁продолжа",
        -10.401351783430103
      ],
      [
        "дан",
        -10.401826877606393
      ],
      [
        "un",
        -10.401851085231248
      ],
      [
        "▁семей",
        -10.401965348351235
      ],
      [
        "▁VPN",
        -10.402175332082859
      ],
      [
        "▁мини",
        -10.402226026774004
      ],
      [
        "▁конфликт",
        -10.402590647337647
      ],
      [
        "▁Председатель",
        -10.402661658299381
      ],
      [
        "▁группе",
        -10.403161078991237
      ],
      [
        "▁Ша",
        -10.403435979939736
      ],
      [
        "▁интересов",
        -10.40365783663959
      ],
      [
        "▁исторически",
        -10.40367839172705
      ],
      [
        "эр",
        -10.40407505525837
      ],
      [
        "▁орган",
        -10.404382699774581
      ],
      [
        "▁имен",
        -10.404452205063171
      ],
      [
        "енный",
        -10.405064468785577
      ],
      [
        "страницы",
        -10.405549852451728
      ],
      [
        "сторону",
        -10.405774582232667
      ],
      [
        "ция",
        -10.405816354746714
      ],
      [
        "▁кино",
        -10.406174726179056
      ],
      [
        "▁стен",
        -10.406734043416266
      ],
      [
        "брать",
        -10.40685457182729
      ],
      [
        "▁времена",
        -10.407575724986792
      ],
      [
        "площадью",
        -10.407707482273072
      ],
      [
        "енного",
        -10.407757845119496
      ],
      [
        "▁кондиционер",
        -10.408187847399036
      ],
      [
        "▁знаем",
        -10.408402556616347
      ],
      [
        "окно",
        -10.408615607430256
      ],
      [
        "▁шесть",
        -10.409057887346322
      ],
      [
        "органы",
        -10.40974223274267
      ],
      [
        "▁семь",
        -10.409816145734144
      ],
      [
        "▁семинар",
        -10.409902756916678
      ],
      [
        "▁заказа",
        -10.40994744169666
      ],
      [
        "раст",
        -10.409987252046935
      ],
      [
        "▁масштаб",
        -10.410437054450304
      ],
      [
        "зже",
        -10.410530340942044
      ],
      [
        "▁вызов",
        -10.410877823974928
      ],
      [
        "▁воспользоваться",
        -10.411539951082466
      ],
      [
        "овский",
        -10.412378716986337
      ],
      [
        "▁плане",
        -10.41306565487015
      ],
      [
        "нравитс",
        -10.413637597295727
      ],
      [
        "наличие",
        -10.413688377397946
      ],
      [
        "▁ходьб",
        -10.414804469613705
      ],
      [
        "▁каждо",
        -10.414843015648836
      ],
      [
        "▁Министерства",
        -10.415119251107122
      ],
      [
        "▁направленны",
        -10.41517686717381
      ],
      [
        "se",
        -10.41526272926398
      ],
      [
        "дет",
        -10.41574615891324
      ],
      [
        "▁муж",
        -10.416022104175648
      ],
      [
        "▁Итак",
        -10.416125409327421
      ],
      [
        "▁Сын",
        -10.416382597168376
      ],
      [
        "▁взять",
        -10.416726355783025
      ],
      [
        "▁апартамент",
        -10.417054030968975
      ],
      [
        "▁предварительно",
        -10.417186303287139
      ],
      [
        "index",
        -10.417211615819364
      ],
      [
        "▁белье",
        -10.417679924385391
      ],
      [
        "▁Возможно",
        -10.417885707919428
      ],
      [
        "▁прибыль",
        -10.418084234519771
      ],
      [
        "▁грех",
        -10.41823718798485
      ],
      [
        "знаешь",
        -10.418459473829422
      ],
      [
        "▁рекомендаци",
        -10.418750273701356
      ],
      [
        "▁ветер",
        -10.418862065523513
      ],
      [
        "▁Управление",
        -10.419130980838823
      ],
      [
        "▁протокол",
        -10.419575076398704
      ],
      [
        "стоя",
        -10.419882942674999
      ],
      [
        "инфраструктуры",
        -10.420245409385789
      ],
      [
        "йдут",
        -10.420676493695046
      ],
      [
        "▁масло",
        -10.420925785040916
      ],
      [
        "▁предотвращени",
        -10.421351383127378
      ],
      [
        "▁осадко",
        -10.421616464836028
      ],
      [
        "▁главно",
        -10.421617245263691
      ],
      [
        "▁обеспечивают",
        -10.421859057701367
      ],
      [
        "соотношение",
        -10.421998229022446
      ],
      [
        "▁Таджикистан",
        -10.422036446670596
      ],
      [
        "▁наблюда",
        -10.42261109091306
      ],
      [
        "Анальны",
        -10.422636214163182
      ],
      [
        "охраны",
        -10.42276391039215
      ],
      [
        "рус",
        -10.422918830982981
      ],
      [
        "▁бюро",
        -10.423057963288219
      ],
      [
        "избежать",
        -10.423109160175265
      ],
      [
        "▁Цена",
        -10.423142700003577
      ],
      [
        "бал",
        -10.423854718154026
      ],
      [
        "▁мод",
        -10.423984523471285
      ],
      [
        "тки",
        -10.424363577444462
      ],
      [
        "▁куда",
        -10.424762638595427
      ],
      [
        "▁границ",
        -10.425104503175383
      ],
      [
        "йдет",
        -10.42573086128871
      ],
      [
        "▁пришел",
        -10.425795810074286
      ],
      [
        "▁Гости",
        -10.42581161267793
      ],
      [
        "▁мышь",
        -10.42619471858977
      ],
      [
        "Петербург",
        -10.42621595707058
      ],
      [
        "уль",
        -10.426297990770292
      ],
      [
        "Москвы",
        -10.426488615944837
      ],
      [
        "▁сильны",
        -10.426531577365008
      ],
      [
        "▁изменение",
        -10.426661952006112
      ],
      [
        "сад",
        -10.42715784936936
      ],
      [
        "▁домашни",
        -10.427176730939975
      ],
      [
        "▁остальны",
        -10.427368320409116
      ],
      [
        "Игры",
        -10.427375971901403
      ],
      [
        "пят",
        -10.427770996773981
      ],
      [
        "▁построен",
        -10.42786666105036
      ],
      [
        "арт",
        -10.427886004567798
      ],
      [
        "▁каталог",
        -10.430384178615247
      ],
      [
        "▁помещения",
        -10.430422827413123
      ],
      [
        "▁показывает",
        -10.430993114633917
      ],
      [
        "▁Кол",
        -10.431316012152243
      ],
      [
        "▁профессор",
        -10.432008490354951
      ],
      [
        "▁прошлого",
        -10.432368359850013
      ],
      [
        "▁целы",
        -10.43318730511742
      ],
      [
        "▁соответственно",
        -10.433213508297985
      ],
      [
        "▁долл",
        -10.433396501815565
      ],
      [
        "▁обязательства",
        -10.433455962131807
      ],
      [
        "альные",
        -10.434124421989413
      ],
      [
        "▁Media",
        -10.434587186179073
      ],
      [
        "▁Автор",
        -10.434729737857085
      ],
      [
        "▁Великобритании",
        -10.434802074614998
      ],
      [
        "▁отдельно",
        -10.434840456364604
      ],
      [
        "▁забот",
        -10.435172678063456
      ],
      [
        "▁заседания",
        -10.435460645785964
      ],
      [
        "▁скоро",
        -10.435475014508059
      ],
      [
        "▁успеха",
        -10.435801825171541
      ],
      [
        "mo",
        -10.435898130591287
      ],
      [
        "режима",
        -10.43619975395525
      ],
      [
        "▁удобно",
        -10.436201043561868
      ],
      [
        "▁фактор",
        -10.436262604449388
      ],
      [
        "▁Молдов",
        -10.436268978307092
      ],
      [
        "▁Игра",
        -10.4363226317604
      ],
      [
        "▁номеров",
        -10.436417576474993
      ],
      [
        "▁Иегов",
        -10.436518264051625
      ],
      [
        "▁собственно",
        -10.436776814979199
      ],
      [
        "▁отобража",
        -10.436824328094554
      ],
      [
        "▁параметр",
        -10.436941398386566
      ],
      [
        "▁тур",
        -10.436949973088135
      ],
      [
        "ic",
        -10.43728900865211
      ],
      [
        "ёр",
        -10.437380528851586
      ],
      [
        "▁голов",
        -10.437493496072312
      ],
      [
        "▁виз",
        -10.437577118060403
      ],
      [
        "идти",
        -10.438502740807094
      ],
      [
        "▁твои",
        -10.438929912929478
      ],
      [
        "▁капитала",
        -10.439037822352244
      ],
      [
        "▁контакт",
        -10.439122023655706
      ],
      [
        "▁степен",
        -10.43940998812774
      ],
      [
        "▁Или",
        -10.439809577240482
      ],
      [
        "требуют",
        -10.439921207025579
      ],
      [
        "ri",
        -10.44027022969288
      ],
      [
        "особенности",
        -10.440303987892442
      ],
      [
        "▁рабочи",
        -10.44031731289822
      ],
      [
        "Правительство",
        -10.440372654031501
      ],
      [
        "▁чрезвычайно",
        -10.440557241664207
      ],
      [
        "ест",
        -10.440671139228865
      ],
      [
        "▁азиатки",
        -10.441145463679208
      ],
      [
        "заявление",
        -10.44115965575824
      ],
      [
        "пил",
        -10.441163677869284
      ],
      [
        "дро",
        -10.441319940379344
      ],
      [
        "ического",
        -10.441501846109162
      ],
      [
        "▁Нажмите",
        -10.44263682053516
      ],
      [
        "Первый",
        -10.442641655357189
      ],
      [
        "зданий",
        -10.443063807151066
      ],
      [
        "▁расположены",
        -10.443204546862551
      ],
      [
        "▁брат",
        -10.443304523818012
      ],
      [
        "AC",
        -10.443547383238402
      ],
      [
        "технических",
        -10.444202428276835
      ],
      [
        "▁Республика",
        -10.444634847757676
      ],
      [
        "ству",
        -10.444865822662909
      ],
      [
        "очешь",
        -10.445279556624353
      ],
      [
        "▁Канад",
        -10.44591244560453
      ],
      [
        "▁предоставит",
        -10.4459513891465
      ],
      [
        "▁разработан",
        -10.446335994614138
      ],
      [
        "▁органа",
        -10.446369916346796
      ],
      [
        "большого",
        -10.446609067228602
      ],
      [
        "▁фактически",
        -10.44688966499675
      ],
      [
        "МА",
        -10.446943534930682
      ],
      [
        "рит",
        -10.44735913391059
      ],
      [
        "▁Меня",
        -10.44768460313236
      ],
      [
        "работать",
        -10.447724684550504
      ],
      [
        "Сергей",
        -10.448765475921544
      ],
      [
        "решить",
        -10.449079342885778
      ],
      [
        "▁крови",
        -10.449156498148783
      ],
      [
        "▁средне",
        -10.449634896977939
      ],
      [
        "пришли",
        -10.449734630516414
      ],
      [
        "▁давления",
        -10.450072462559984
      ],
      [
        "опыта",
        -10.45034036143953
      ],
      [
        "▁Ор",
        -10.450734078941432
      ],
      [
        "пен",
        -10.450882743214454
      ],
      [
        "совершенствовани",
        -10.451210458287676
      ],
      [
        "▁высококачествен",
        -10.451231092455481
      ],
      [
        "▁история",
        -10.451856910694664
      ],
      [
        "▁вод",
        -10.451949329000811
      ],
      [
        "кампании",
        -10.4519536948485
      ],
      [
        "▁выразил",
        -10.452222320619489
      ],
      [
        "вниз",
        -10.452290325883656
      ],
      [
        "▁мощност",
        -10.45230805536251
      ],
      [
        "▁анализирует",
        -10.452396246168206
      ],
      [
        "▁бумаг",
        -10.452455545973518
      ],
      [
        "▁соответствует",
        -10.45289456331599
      ],
      [
        "опытом",
        -10.452931647837774
      ],
      [
        "заседании",
        -10.453185387306116
      ],
      [
        "▁строк",
        -10.453258357776056
      ],
      [
        "ашвили",
        -10.453695151608827
      ],
      [
        "▁реально",
        -10.45387893860495
      ],
      [
        "▁почты",
        -10.454046620223586
      ],
      [
        "▁эпох",
        -10.454248335268352
      ],
      [
        "чаще",
        -10.454488719845843
      ],
      [
        "▁создает",
        -10.454566164906067
      ],
      [
        "▁Вид",
        -10.454603457259408
      ],
      [
        "▁предлагают",
        -10.455060464126758
      ],
      [
        "▁туалет",
        -10.45568214546552
      ],
      [
        "▁наглядно",
        -10.45578653009002
      ],
      [
        "▁бюджета",
        -10.456046712993905
      ],
      [
        "▁странам",
        -10.456407279239619
      ],
      [
        "учить",
        -10.45647500758511
      ],
      [
        "стей",
        -10.45648087310985
      ],
      [
        "рак",
        -10.456575958097682
      ],
      [
        "▁Фа",
        -10.456963303558439
      ],
      [
        "тенге",
        -10.457027178910844
      ],
      [
        "статья",
        -10.457682053918445
      ],
      [
        "▁открыл",
        -10.458471831338088
      ],
      [
        "▁интервью",
        -10.45863229891006
      ],
      [
        "ведущих",
        -10.458650165564439
      ],
      [
        "▁Люб",
        -10.458983566034572
      ],
      [
        "▁DVD",
        -10.459145146212451
      ],
      [
        "одежды",
        -10.45952482194371
      ],
      [
        "▁Банк",
        -10.4595409661585
      ],
      [
        "▁глаз",
        -10.459621485900104
      ],
      [
        "коп",
        -10.459706780648078
      ],
      [
        "▁свобод",
        -10.459903588895505
      ],
      [
        "гло",
        -10.46030174738143
      ],
      [
        "молодежи",
        -10.460728911518808
      ],
      [
        "▁детски",
        -10.461053291660289
      ],
      [
        "▁Дополнительные",
        -10.461191743632101
      ],
      [
        "▁главны",
        -10.461240445407821
      ],
      [
        "ции",
        -10.461754303248467
      ],
      [
        "▁обмена",
        -10.462338663334478
      ],
      [
        "▁производственны",
        -10.46255477446126
      ],
      [
        "▁жертв",
        -10.463076416963364
      ],
      [
        "тели",
        -10.46373131889909
      ],
      [
        "историю",
        -10.463795954435403
      ],
      [
        "▁заместитель",
        -10.463881049528418
      ],
      [
        "▁шести",
        -10.4643385393283
      ],
      [
        "пространство",
        -10.464788536797997
      ],
      [
        "▁учитыва",
        -10.46501635572702
      ],
      [
        "▁открыт",
        -10.46510479611152
      ],
      [
        "чные",
        -10.465153540743882
      ],
      [
        "▁конкурса",
        -10.465207009552113
      ],
      [
        "▁She",
        -10.465242850188215
      ],
      [
        "▁пуст",
        -10.46540707629222
      ],
      [
        "▁Перво",
        -10.465556432537944
      ],
      [
        "▁щелкну",
        -10.466643839392779
      ],
      [
        "▁Мак",
        -10.4670352627057
      ],
      [
        "туристов",
        -10.467117905950893
      ],
      [
        "сайтов",
        -10.46720985594568
      ],
      [
        "относится",
        -10.467538421376572
      ],
      [
        "держать",
        -10.467692270705578
      ],
      [
        "▁работающи",
        -10.468299983091919
      ],
      [
        "▁комфортно",
        -10.468325375339784
      ],
      [
        "законодательства",
        -10.468495324199932
      ],
      [
        "▁соглашение",
        -10.469502201787686
      ],
      [
        "сел",
        -10.470273913886565
      ],
      [
        "▁велосипед",
        -10.470479581117209
      ],
      [
        "пут",
        -10.470850189679616
      ],
      [
        "шей",
        -10.471150482616245
      ],
      [
        "▁регулярно",
        -10.471685072430583
      ],
      [
        "внутренних",
        -10.471710602725155
      ],
      [
        "▁приводит",
        -10.471973148676181
      ],
      [
        "▁широкий",
        -10.472082292296063
      ],
      [
        "▁человечески",
        -10.472101719308645
      ],
      [
        "рей",
        -10.472225362469091
      ],
      [
        "▁региональных",
        -10.47239293775952
      ],
      [
        "любых",
        -10.472487911464334
      ],
      [
        "▁предлага",
        -10.472529111593571
      ],
      [
        "▁Стар",
        -10.472570358844067
      ],
      [
        "▁отца",
        -10.472576578343611
      ],
      [
        "▁автобус",
        -10.472589926172441
      ],
      [
        "▁Ча",
        -10.472659644477583
      ],
      [
        "порядок",
        -10.472883193990933
      ],
      [
        "▁приняты",
        -10.473242642419613
      ],
      [
        "▁Мал",
        -10.473251456303846
      ],
      [
        "вопросу",
        -10.47332388094482
      ],
      [
        "▁метра",
        -10.473338360279392
      ],
      [
        "▁получите",
        -10.473437354363162
      ],
      [
        "▁праздник",
        -10.473533137210458
      ],
      [
        "параметров",
        -10.474041042418568
      ],
      [
        "Группа",
        -10.474146881405977
      ],
      [
        "▁выгод",
        -10.47428295580724
      ],
      [
        "Й",
        -10.474509372685537
      ],
      [
        "отношению",
        -10.474548792351701
      ],
      [
        "РЕ",
        -10.474678799134896
      ],
      [
        "следующей",
        -10.474707916108432
      ],
      [
        "кам",
        -10.47475820020718
      ],
      [
        "правда",
        -10.474785063753803
      ],
      [
        "ируем",
        -10.475024612164985
      ],
      [
        "Ы",
        -10.475192836991628
      ],
      [
        "▁выпуска",
        -10.477016388912922
      ],
      [
        "▁этаж",
        -10.477091152924498
      ],
      [
        "▁Эл",
        -10.477132700438899
      ],
      [
        "▁председатель",
        -10.477574918552943
      ],
      [
        "вел",
        -10.477584288025591
      ],
      [
        "▁Фингер",
        -10.478101232828545
      ],
      [
        "ехать",
        -10.478217062252401
      ],
      [
        "▁счета",
        -10.478395469459944
      ],
      [
        "▁команду",
        -10.478733857156186
      ],
      [
        "▁компьютере",
        -10.478739261961193
      ],
      [
        "действовать",
        -10.478773495009492
      ],
      [
        "▁Буд",
        -10.478774995127798
      ],
      [
        "▁Иоанн",
        -10.478894664120888
[...]
